<?xml version="1.0"?>
<MethodSetup Method="BDT::BDTG">
  <GeneralInfo>
    <Info name="TMVA Release" value="4.2.1 [262657]"/>
    <Info name="ROOT Release" value="6.14/04 [396804]"/>
    <Info name="Creator" value="unok"/>
    <Info name="Date" value="Mon Jan 14 13:06:55 2019"/>
    <Info name="Host" value="Linux lcgapp-slc6-x86-64-39.cern.ch 2.6.32-696.30.1.el6.x86_64 #1 SMP Tue May 22 06:09:36 CEST 2018 x86_64 x86_64 x86_64 GNU/Linux"/>
    <Info name="Dir" value="/gpfs/fs6001/unok/TMVA/2018/v142/V2/TMVA-0L"/>
    <Info name="Training events" value="389889"/>
    <Info name="TrainingTime" value="2.45899248e+02"/>
    <Info name="AnalysisType" value="Classification"/>
  </GeneralInfo>
  <Options>
    <Option name="V" modified="Yes">False</Option>
    <Option name="VerbosityLevel" modified="No">Default</Option>
    <Option name="VarTransform" modified="No">None</Option>
    <Option name="H" modified="Yes">False</Option>
    <Option name="CreateMVAPdfs" modified="No">False</Option>
    <Option name="IgnoreNegWeightsInTraining" modified="No">False</Option>
    <Option name="NTrees" modified="Yes">800</Option>
    <Option name="MaxDepth" modified="Yes">3</Option>
    <Option name="MinNodeSize" modified="Yes">2.500000%</Option>
    <Option name="nCuts" modified="Yes">20</Option>
    <Option name="BoostType" modified="Yes">Grad</Option>
    <Option name="AdaBoostR2Loss" modified="No">quadratic</Option>
    <Option name="UseBaggedBoost" modified="Yes">True</Option>
    <Option name="Shrinkage" modified="Yes">2.000000e-01</Option>
    <Option name="AdaBoostBeta" modified="No">5.000000e-01</Option>
    <Option name="UseRandomisedTrees" modified="No">False</Option>
    <Option name="UseNvars" modified="No">4</Option>
    <Option name="UsePoissonNvars" modified="No">True</Option>
    <Option name="BaggedSampleFraction" modified="Yes">5.000000e-01</Option>
    <Option name="UseYesNoLeaf" modified="No">True</Option>
    <Option name="NegWeightTreatment" modified="Yes">pray</Option>
    <Option name="Css" modified="No">1.000000e+00</Option>
    <Option name="Cts_sb" modified="No">1.000000e+00</Option>
    <Option name="Ctb_ss" modified="No">1.000000e+00</Option>
    <Option name="Cbb" modified="No">1.000000e+00</Option>
    <Option name="NodePurityLimit" modified="No">5.000000e-01</Option>
    <Option name="SeparationType" modified="No">giniindex</Option>
    <Option name="RegressionLossFunctionBDTG" modified="No">huber</Option>
    <Option name="HuberQuantile" modified="No">7.000000e-01</Option>
    <Option name="DoBoostMonitor" modified="No">False</Option>
    <Option name="UseFisherCuts" modified="No">False</Option>
    <Option name="MinLinCorrForFisher" modified="No">8.000000e-01</Option>
    <Option name="UseExclusiveVars" modified="No">False</Option>
    <Option name="DoPreselection" modified="No">False</Option>
    <Option name="SigToBkgFraction" modified="No">1.000000e+00</Option>
    <Option name="PruneMethod" modified="No">nopruning</Option>
    <Option name="PruneStrength" modified="No">0.000000e+00</Option>
    <Option name="PruningValFraction" modified="No">5.000000e-01</Option>
    <Option name="SkipNormalization" modified="No">False</Option>
    <Option name="nEventsMin" modified="No">0</Option>
    <Option name="UseBaggedGrad" modified="No">False</Option>
    <Option name="GradBaggingFraction" modified="No">5.000000e-01</Option>
    <Option name="UseNTrainEvents" modified="No">0</Option>
    <Option name="NNodesMax" modified="No">0</Option>
  </Options>
  <Variables NVar="12">
    <Variable VarIndex="0" Expression="meff" Label="meff" Title="m_{eff}(incl.)" Unit="GeV" Internal="meff" Type="F" Min="8.00027588e+02" Max="7.52059717e+03"/>
    <Variable VarIndex="1" Expression="Ap" Label="Ap" Title="Aplanarity" Unit="" Internal="Ap" Type="F" Min="7.04120964e-07" Max="4.39254910e-01"/>
    <Variable VarIndex="2" Expression="jetPt0" Label="jetPt0" Title="p_{T}(j_{1})" Unit="GeV" Internal="jetPt0" Type="F" Min="2.00002060e+02" Max="3.26533911e+03"/>
    <Variable VarIndex="3" Expression="jetPt1" Label="jetPt1" Title="p_{T}(j_{2})" Unit="GeV" Internal="jetPt1" Type="F" Min="5.30813370e+01" Max="2.03746472e+03"/>
    <Variable VarIndex="4" Expression="jetPt2" Label="jetPt2" Title="p_{T}(j_{3})" Unit="GeV" Internal="jetPt2" Type="F" Min="5.06614456e+01" Max="1.21655359e+03"/>
    <Variable VarIndex="5" Expression="jetPt4" Label="jetPt4" Title="p_{T}(j_{5})" Unit="GeV" Internal="jetPt4" Type="F" Min="5.00000076e+01" Max="5.01732513e+02"/>
    <Variable VarIndex="6" Expression="jetPt5" Label="jetPt5" Title="p_{T}(j_{6})" Unit="GeV" Internal="jetPt5" Type="F" Min="0.00000000e+00" Max="4.10902832e+02"/>
    <Variable VarIndex="7" Expression="jetEta0" Label="jetEta0" Title="#eta(j_{1})" Unit="" Internal="jetEta0" Type="F" Min="-2.78860641e+00" Max="2.79968071e+00"/>
    <Variable VarIndex="8" Expression="jetEta1" Label="jetEta1" Title="#eta(j_{2})" Unit="" Internal="jetEta1" Type="F" Min="-2.79988122e+00" Max="2.79987264e+00"/>
    <Variable VarIndex="9" Expression="jetEta2" Label="jetEta2" Title="#eta(j_{3})" Unit="" Internal="jetEta2" Type="F" Min="-2.79999733e+00" Max="2.79998136e+00"/>
    <Variable VarIndex="10" Expression="jetEta4" Label="jetEta4" Title="#eta(j_{5})" Unit="" Internal="jetEta4" Type="F" Min="-2.79997349e+00" Max="2.79982495e+00"/>
    <Variable VarIndex="11" Expression="jetEta5" Label="jetEta5" Title="#eta(j_{6})" Unit="" Internal="jetEta5" Type="F" Min="-3.00000000e+00" Max="2.79998755e+00"/>
  </Variables>
  <Spectators NSpec="0">
  </Spectators>
  <Classes NClass="2">
    <Class Name="Signal" Index="0"/>
    <Class Name="Background" Index="1"/>
  </Classes>
  <Transformations NTransformations="0"/>
  <MVAPdfs/>
  <Weights NTrees="800" AnalysisType="1">
    <BinaryTree type="DecisionTree" boostWeight="1.0000000000000000e+00" itree="0">
      <Node pos="s" depth="0" NCoef="0" IVar="0" Cut="1.3948308105468750e+03" cType="1" res="-4.7781821340322495e-03" rms="4.9997717142105103e-01" purity="4.9522182345390320e-01" nType="0">
        <Node pos="l" depth="1" NCoef="0" IVar="1" Cut="8.3626501262187958e-02" cType="1" res="-3.2093840837478638e-01" rms="3.8340386748313904e-01" purity="1.7906159162521362e-01" nType="0">
          <Node pos="l" depth="2" NCoef="0" IVar="0" Cut="1.1965592041015625e+03" cType="1" res="-3.9924290776252747e-01" rms="3.0100682377815247e-01" purity="1.0075709968805313e-01" nType="0">
            <Node pos="l" depth="3" NCoef="0" IVar="-1" Cut="0.0000000000000000e+00" cType="1" res="-1.8068242073059082e-01" rms="2.1438665688037872e-01" purity="4.8293944448232651e-02" nType="-99"/>
            <Node pos="r" depth="3" NCoef="0" IVar="-1" Cut="0.0000000000000000e+00" cType="1" res="-1.2528347969055176e-01" rms="3.8974389433860779e-01" purity="1.8679128587245941e-01" nType="-99"/>
          </Node>
          <Node pos="r" depth="2" NCoef="0" IVar="4" Cut="1.2551235198974609e+02" cType="1" res="-3.7944894284009933e-02" rms="4.9855810403823853e-01" purity="4.6205508708953857e-01" nType="0">
            <Node pos="l" depth="3" NCoef="0" IVar="-1" Cut="0.0000000000000000e+00" cType="1" res="-7.1981467306613922e-02" rms="4.6649402379989624e-01" purity="3.2004633545875549e-01" nType="-99"/>
            <Node pos="r" depth="3" NCoef="0" IVar="-1" Cut="0.0000000000000000e+00" cType="1" res="3.0365433543920517e-02" rms="4.9420353770256042e-01" purity="5.7591360807418823e-01" nType="-99"/>
          </Node>
        </Node>
        <Node pos="r" depth="1" NCoef="0" IVar="1" Cut="4.1763067245483398e-02" cType="1" res="2.4310985207557678e-01" rms="4.3691828846931458e-01" purity="7.4310988187789917e-01" nType="0">
          <Node pos="l" depth="2" NCoef="0" IVar="6" Cut="5.2953109741210938e+01" cType="1" res="-8.2233875989913940e-02" rms="4.9319124221801758e-01" purity="4.1776609420776367e-01" nType="0">
            <Node pos="l" depth="3" NCoef="0" IVar="-1" Cut="0.0000000000000000e+00" cType="1" res="-9.5219716429710388e-02" rms="4.3969595432281494e-01" purity="2.6195070147514343e-01" nType="-99"/>
            <Node pos="r" depth="3" NCoef="0" IVar="-1" Cut="0.0000000000000000e+00" cType="1" res="4.2781848460435867e-02" rms="4.8842677474021912e-01" purity="6.0695463418960571e-01" nType="-99"/>
          </Node>
          <Node pos="r" depth="2" NCoef="0" IVar="6" Cut="5.8700405120849609e+01" cType="1" res="3.8093847036361694e-01" rms="3.2386091351509094e-01" purity="8.8093841075897217e-01" nType="0">
            <Node pos="l" depth="3" NCoef="0" IVar="-1" Cut="0.0000000000000000e+00" cType="1" res="8.6972594261169434e-02" rms="4.5024833083152771e-01" purity="7.1743154525756836e-01" nType="-99"/>
            <Node pos="r" depth="3" NCoef="0" IVar="-1" Cut="0.0000000000000000e+00" cType="1" res="1.7684182524681091e-01" rms="2.3354561626911163e-01" purity="9.4210457801818848e-01" nType="-99"/>
          </Node>
        </Node>
      </Node>
    </BinaryTree>
    <BinaryTree type="DecisionTree" boostWeight="1.0000000000000000e+00" itree="1">
      <Node pos="s" depth="0" NCoef="0" IVar="0" Cut="1.4400817871093750e+03" cType="1" res="2.8860653401352465e-04" rms="4.5377105474472046e-01" purity="4.9947646260261536e-01" nType="0">
        <Node pos="l" depth="1" NCoef="0" IVar="1" Cut="6.2783986330032349e-02" cType="1" res="-2.3415592312812805e-01" rms="3.8735637068748474e-01" purity="2.0956166088581085e-01" nType="0">
          <Node pos="l" depth="2" NCoef="0" IVar="1" Cut="2.3937858641147614e-02" cType="1" res="-3.3119368553161621e-01" rms="2.8672075271606445e-01" purity="9.4138443470001221e-02" nType="0">
            <Node pos="l" depth="3" NCoef="0" IVar="-1" Cut="0.0000000000000000e+00" cType="1" res="-1.5653407573699951e-01" rms="1.9749914109706879e-01" purity="4.1734755039215088e-02" nType="-99"/>
            <Node pos="r" depth="3" NCoef="0" IVar="-1" Cut="0.0000000000000000e+00" cType="1" res="-1.1098632961511612e-01" rms="3.5691636800765991e-01" purity="1.5707559883594513e-01" nType="-99"/>
          </Node>
          <Node pos="r" depth="2" NCoef="0" IVar="0" Cut="1.1657720947265625e+03" cType="1" res="-2.1205170080065727e-02" rms="4.8259726166725159e-01" purity="4.6285960078239441e-01" nType="0">
            <Node pos="l" depth="3" NCoef="0" IVar="-1" Cut="0.0000000000000000e+00" cType="1" res="-1.0744063556194305e-01" rms="3.8739848136901855e-01" purity="1.9069154560565948e-01" nType="-99"/>
            <Node pos="r" depth="3" NCoef="0" IVar="-1" Cut="0.0000000000000000e+00" cType="1" res="5.1272321492433548e-02" rms="4.7450664639472961e-01" purity="6.2842160463333130e-01" nType="-99"/>
          </Node>
        </Node>
        <Node pos="r" depth="1" NCoef="0" IVar="1" Cut="2.0448083057999611e-02" cType="1" res="2.1404333412647247e-01" rms="4.0129384398460388e-01" purity="7.6380616426467896e-01" nType="0">
          <Node pos="l" depth="2" NCoef="0" IVar="0" Cut="1.7296452636718750e+03" cType="1" res="-1.7521242797374725e-01" rms="4.5160582661628723e-01" purity="3.0199843645095825e-01" nType="0">
            <Node pos="l" depth="3" NCoef="0" IVar="-1" Cut="0.0000000000000000e+00" cType="1" res="-1.2334072589874268e-01" rms="3.6918425559997559e-01" purity="1.6720068454742432e-01" nType="-99"/>
            <Node pos="r" depth="3" NCoef="0" IVar="-1" Cut="0.0000000000000000e+00" cType="1" res="-1.2560262344777584e-02" rms="4.8855739831924438e-01" purity="4.5013561844825745e-01" nType="-99"/>
          </Node>
          <Node pos="r" depth="2" NCoef="0" IVar="5" Cut="8.8200637817382812e+01" cType="1" res="2.7898871898651123e-01" rms="3.5267403721809387e-01" purity="8.4085655212402344e-01" nType="0">
            <Node pos="l" depth="3" NCoef="0" IVar="-1" Cut="0.0000000000000000e+00" cType="1" res="5.2869409322738647e-02" rms="4.5837253332138062e-01" purity="6.6763317584991455e-01" nType="-99"/>
            <Node pos="r" depth="3" NCoef="0" IVar="-1" Cut="0.0000000000000000e+00" cType="1" res="1.3871088624000549e-01" rms="2.7890864014625549e-01" purity="9.1004794836044312e-01" nType="-99"/>
          </Node>
        </Node>
      </Node>
    </BinaryTree>
    <BinaryTree type="DecisionTree" boostWeight="1.0000000000000000e+00" itree="2">
      <Node pos="s" depth="0" NCoef="0" IVar="11" Cut="-2.4476201534271240e+00" cType="1" res="-1.5707719139754772e-03" rms="4.1977247595787048e-01" purity="4.9717757105827332e-01" nType="0">
        <Node pos="l" depth="1" NCoef="0" IVar="4" Cut="1.6196507263183594e+02" cType="1" res="-1.9545713067054749e-01" rms="3.7394312024116516e-01" purity="2.2616201639175415e-01" nType="0">
          <Node pos="l" depth="2" NCoef="0" IVar="0" Cut="1.2920656738281250e+03" cType="1" res="-2.7018487453460693e-01" rms="3.0040511488914490e-01" purity="1.2119288742542267e-01" nType="0">
            <Node pos="l" depth="3" NCoef="0" IVar="-1" Cut="0.0000000000000000e+00" cType="1" res="-1.3190701603889465e-01" rms="2.3416566848754883e-01" purity="6.3518106937408447e-02" nType="-99"/>
            <Node pos="r" depth="3" NCoef="0" IVar="-1" Cut="0.0000000000000000e+00" cType="1" res="-7.5547672808170319e-02" rms="4.1373780369758606e-01" purity="2.7050668001174927e-01" nType="-99"/>
          </Node>
          <Node pos="r" depth="2" NCoef="0" IVar="0" Cut="1.8592858886718750e+03" cType="1" res="-1.2526349164545536e-02" rms="4.6270376443862915e-01" purity="4.8312258720397949e-01" nType="0">
            <Node pos="l" depth="3" NCoef="0" IVar="-1" Cut="0.0000000000000000e+00" cType="1" res="-3.4190542995929718e-02" rms="4.5607265830039978e-01" purity="3.9263716340065002e-01" nType="-99"/>
            <Node pos="r" depth="3" NCoef="0" IVar="-1" Cut="0.0000000000000000e+00" cType="1" res="7.0908293128013611e-02" rms="4.2791616916656494e-01" purity="7.2314530611038208e-01" nType="-99"/>
          </Node>
        </Node>
        <Node pos="r" depth="1" NCoef="0" IVar="1" Cut="4.1924085468053818e-02" cType="1" res="1.8051540851593018e-01" rms="3.7671092152595520e-01" purity="7.5169873237609863e-01" nType="0">
          <Node pos="l" depth="2" NCoef="0" IVar="0" Cut="1.6232960205078125e+03" cType="1" res="-3.5664521157741547e-02" rms="4.4950458407402039e-01" purity="4.3134787678718567e-01" nType="0">
            <Node pos="l" depth="3" NCoef="0" IVar="-1" Cut="0.0000000000000000e+00" cType="1" res="-7.7818915247917175e-02" rms="3.9664509892463684e-01" purity="2.2312647104263306e-01" nType="-99"/>
            <Node pos="r" depth="3" NCoef="0" IVar="-1" Cut="0.0000000000000000e+00" cType="1" res="6.4966253936290741e-02" rms="4.4075554609298706e-01" purity="7.0651012659072876e-01" nType="-99"/>
          </Node>
          <Node pos="r" depth="2" NCoef="0" IVar="0" Cut="1.3445543212890625e+03" cType="1" res="2.5214195251464844e-01" rms="3.1838557124137878e-01" purity="8.5784000158309937e-01" nType="0">
            <Node pos="l" depth="3" NCoef="0" IVar="-1" Cut="0.0000000000000000e+00" cType="1" res="2.8625486418604851e-02" rms="4.7182446718215942e-01" purity="5.2304261922836304e-01" nType="-99"/>
            <Node pos="r" depth="3" NCoef="0" IVar="-1" Cut="0.0000000000000000e+00" cType="1" res="1.2316255271434784e-01" rms="2.7056673169136047e-01" purity="9.1661196947097778e-01" nType="-99"/>
          </Node>
        </Node>
      </Node>
    </BinaryTree>
    <BinaryTree type="DecisionTree" boostWeight="1.0000000000000000e+00" itree="3">
      <Node pos="s" depth="0" NCoef="0" IVar="6" Cut="5.8700405120849609e+01" cType="1" res="-4.2515559471212327e-04" rms="3.9405086636543274e-01" purity="4.9919995665550232e-01" nType="0">
        <Node pos="l" depth="1" NCoef="0" IVar="4" Cut="1.6068252563476562e+02" cType="1" res="-1.3593596220016479e-01" rms="3.8153210282325745e-01" purity="2.6503282785415649e-01" nType="0">
          <Node pos="l" depth="2" NCoef="0" IVar="1" Cut="6.2755554914474487e-02" cType="1" res="-2.0149600505828857e-01" rms="3.2261452078819275e-01" purity="1.5171471238136292e-01" nType="0">
            <Node pos="l" depth="3" NCoef="0" IVar="-1" Cut="0.0000000000000000e+00" cType="1" res="-1.1078026145696640e-01" rms="2.6583433151245117e-01" purity="8.7719716131687164e-02" nType="-99"/>
            <Node pos="r" depth="3" NCoef="0" IVar="-1" Cut="0.0000000000000000e+00" cType="1" res="-3.7590298801660538e-02" rms="4.3262469768524170e-01" purity="3.4352290630340576e-01" nType="-99"/>
          </Node>
          <Node pos="r" depth="2" NCoef="0" IVar="1" Cut="9.5775499939918518e-02" cType="1" res="1.1524468660354614e-02" rms="4.5548668503761292e-01" purity="5.1991271972656250e-01" nType="0">
            <Node pos="l" depth="3" NCoef="0" IVar="-1" Cut="0.0000000000000000e+00" cType="1" res="-2.3276535794138908e-02" rms="4.5532625913619995e-01" purity="4.2281633615493774e-01" nType="-99"/>
            <Node pos="r" depth="3" NCoef="0" IVar="-1" Cut="0.0000000000000000e+00" cType="1" res="7.6423428952693939e-02" rms="4.0852814912796021e-01" purity="7.6888364553451538e-01" nType="-99"/>
          </Node>
        </Node>
        <Node pos="r" depth="1" NCoef="0" IVar="1" Cut="2.1020743995904922e-02" cType="1" res="1.8477387726306915e-01" rms="3.3037921786308289e-01" purity="8.1922996044158936e-01" nType="0">
          <Node pos="l" depth="2" NCoef="0" IVar="-1" Cut="0.0000000000000000e+00" cType="1" res="-3.7861946970224380e-02" rms="4.3540036678314209e-01" purity="3.4774830937385559e-01" nType="-99"/>
          <Node pos="r" depth="2" NCoef="0" IVar="0" Cut="1.6268927001953125e+03" cType="1" res="2.0949535071849823e-01" rms="3.0742442607879639e-01" purity="8.6174243688583374e-01" nType="0">
            <Node pos="l" depth="3" NCoef="0" IVar="-1" Cut="0.0000000000000000e+00" cType="1" res="5.6406158953905106e-02" rms="4.0973556041717529e-01" purity="7.0535778999328613e-01" nType="-99"/>
            <Node pos="r" depth="3" NCoef="0" IVar="-1" Cut="0.0000000000000000e+00" cType="1" res="1.1907177418470383e-01" rms="2.2412222623825073e-01" purity="9.4470542669296265e-01" nType="-99"/>
          </Node>
        </Node>
      </Node>
    </BinaryTree>
    <BinaryTree type="DecisionTree" boostWeight="1.0000000000000000e+00" itree="4">
      <Node pos="s" depth="0" NCoef="0" IVar="5" Cut="7.1511116027832031e+01" cType="1" res="-2.6070836465805769e-03" rms="3.7590312957763672e-01" purity="4.9645003676414490e-01" nType="0">
        <Node pos="l" depth="1" NCoef="0" IVar="0" Cut="1.7004271240234375e+03" cType="1" res="-1.6886128485202789e-01" rms="3.2869100570678711e-01" purity="1.7931270599365234e-01" nType="0">
          <Node pos="l" depth="2" NCoef="0" IVar="1" Cut="8.3668172359466553e-02" cType="1" res="-1.9276009500026703e-01" rms="3.0092999339103699e-01" purity="1.3428463041782379e-01" nType="0">
            <Node pos="l" depth="3" NCoef="0" IVar="-1" Cut="0.0000000000000000e+00" cType="1" res="-1.0650446265935898e-01" rms="2.5445076823234558e-01" purity="8.2280986011028290e-02" nType="-99"/>
            <Node pos="r" depth="3" NCoef="0" IVar="-1" Cut="0.0000000000000000e+00" cType="1" res="-3.4431379288434982e-02" rms="4.4589179754257202e-01" purity="3.8259449601173401e-01" nType="-99"/>
          </Node>
          <Node pos="r" depth="2" NCoef="0" IVar="-1" Cut="0.0000000000000000e+00" cType="1" res="1.0647599585354328e-02" rms="4.5572045445442200e-01" purity="5.4500633478164673e-01" nType="-99"/>
        </Node>
        <Node pos="r" depth="1" NCoef="0" IVar="1" Cut="4.1762348264455795e-02" cType="1" res="1.1078916490077972e-01" rms="3.6370459198951721e-01" purity="7.1275842189788818e-01" nType="0">
          <Node pos="l" depth="2" NCoef="0" IVar="0" Cut="1.7360678710937500e+03" cType="1" res="-4.7358155250549316e-02" rms="4.1755017638206482e-01" purity="3.8200801610946655e-01" nType="0">
            <Node pos="l" depth="3" NCoef="0" IVar="-1" Cut="0.0000000000000000e+00" cType="1" res="-6.2412768602371216e-02" rms="3.8039746880531311e-01" purity="2.2389873862266541e-01" nType="-99"/>
            <Node pos="r" depth="3" NCoef="0" IVar="-1" Cut="0.0000000000000000e+00" cType="1" res="5.6744661182165146e-02" rms="4.3093991279602051e-01" purity="7.0380043983459473e-01" nType="-99"/>
          </Node>
          <Node pos="r" depth="2" NCoef="0" IVar="0" Cut="1.3551927490234375e+03" cType="1" res="1.7100019752979279e-01" rms="3.2111892104148865e-01" purity="8.3868420124053955e-01" nType="0">
            <Node pos="l" depth="3" NCoef="0" IVar="-1" Cut="0.0000000000000000e+00" cType="1" res="2.5133844465017319e-02" rms="4.5992648601531982e-01" purity="5.0396817922592163e-01" nType="-99"/>
            <Node pos="r" depth="3" NCoef="0" IVar="-1" Cut="0.0000000000000000e+00" cType="1" res="9.5977142453193665e-02" rms="2.8167608380317688e-01" purity="9.0320932865142822e-01" nType="-99"/>
          </Node>
        </Node>
      </Node>
    </BinaryTree>
    <BinaryTree type="DecisionTree" boostWeight="1.0000000000000000e+00" itree="5">
      <Node pos="s" depth="0" NCoef="0" IVar="5" Cut="9.3022277832031250e+01" cType="1" res="5.1689138635993004e-03" rms="3.6484721302986145e-01" purity="5.0545454025268555e-01" nType="0">
        <Node pos="l" depth="1" NCoef="0" IVar="1" Cut="6.2696896493434906e-02" cType="1" res="-7.8172408044338226e-02" rms="3.7005841732025146e-01" purity="3.0161237716674805e-01" nType="0">
          <Node pos="l" depth="2" NCoef="0" IVar="0" Cut="1.7601209716796875e+03" cType="1" res="-1.3606943190097809e-01" rms="3.2592985033988953e-01" purity="1.7030689120292664e-01" nType="0">
            <Node pos="l" depth="3" NCoef="0" IVar="-1" Cut="0.0000000000000000e+00" cType="1" res="-8.1168487668037415e-02" rms="2.9824337363243103e-01" purity="1.2321063876152039e-01" nType="-99"/>
            <Node pos="r" depth="3" NCoef="0" IVar="-1" Cut="0.0000000000000000e+00" cType="1" res="1.7628596397116780e-03" rms="4.6587476134300232e-01" purity="5.3285068273544312e-01" nType="-99"/>
          </Node>
          <Node pos="r" depth="2" NCoef="0" IVar="0" Cut="1.2789901123046875e+03" cType="1" res="4.0347896516323090e-02" rms="4.2297315597534180e-01" purity="5.7040625810623169e-01" nType="0">
            <Node pos="l" depth="3" NCoef="0" IVar="-1" Cut="0.0000000000000000e+00" cType="1" res="-3.7219896912574768e-02" rms="4.2633241415023804e-01" purity="2.9459547996520996e-01" nType="-99"/>
            <Node pos="r" depth="3" NCoef="0" IVar="-1" Cut="0.0000000000000000e+00" cType="1" res="5.7235464453697205e-02" rms="3.9872503280639648e-01" purity="7.6014447212219238e-01" nType="-99"/>
          </Node>
        </Node>
        <Node pos="r" depth="1" NCoef="0" IVar="1" Cut="6.2743619084358215e-02" cType="1" res="1.4153721928596497e-01" rms="3.1126451492309570e-01" purity="8.3899390697479248e-01" nType="0">
          <Node pos="l" depth="2" NCoef="0" IVar="0" Cut="1.8076180419921875e+03" cType="1" res="7.0952743291854858e-02" rms="4.0993878245353699e-01" purity="6.5185242891311646e-01" nType="0">
            <Node pos="l" depth="3" NCoef="0" IVar="-1" Cut="0.0000000000000000e+00" cType="1" res="-6.1553888954222202e-03" rms="4.4425612688064575e-01" purity="4.7374531626701355e-01" nType="-99"/>
            <Node pos="r" depth="3" NCoef="0" IVar="-1" Cut="0.0000000000000000e+00" cType="1" res="8.0124117434024811e-02" rms="3.4468924999237061e-01" purity="8.4972983598709106e-01" nType="-99"/>
          </Node>
          <Node pos="r" depth="2" NCoef="0" IVar="1" Cut="1.1640835553407669e-01" cType="1" res="1.7391052842140198e-01" rms="2.4680627882480621e-01" purity="9.2482560873031616e-01" nType="0">
            <Node pos="l" depth="3" NCoef="0" IVar="-1" Cut="0.0000000000000000e+00" cType="1" res="7.7279962599277496e-02" rms="2.9535880684852600e-01" purity="8.8413417339324951e-01" nType="-99"/>
            <Node pos="r" depth="3" NCoef="0" IVar="-1" Cut="0.0000000000000000e+00" cType="1" res="1.0916508734226227e-01" rms="2.0285627245903015e-01" purity="9.5348060131072998e-01" nType="-99"/>
          </Node>
        </Node>
      </Node>
    </BinaryTree>
    <BinaryTree type="DecisionTree" boostWeight="1.0000000000000000e+00" itree="6">
      <Node pos="s" depth="0" NCoef="0" IVar="11" Cut="-2.4476201534271240e+00" cType="1" res="4.5564156607724726e-04" rms="3.5295137763023376e-01" purity="5.0138354301452637e-01" nType="0">
        <Node pos="l" depth="1" NCoef="0" IVar="0" Cut="1.4401062011718750e+03" cType="1" res="-9.8454557359218597e-02" rms="3.4537613391876221e-01" purity="2.2716547548770905e-01" nType="0">
          <Node pos="l" depth="2" NCoef="0" IVar="0" Cut="1.1962757568359375e+03" cType="1" res="-1.3778005540370941e-01" rms="2.8742620348930359e-01" purity="1.1380071192979813e-01" nType="0">
            <Node pos="l" depth="3" NCoef="0" IVar="-1" Cut="0.0000000000000000e+00" cType="1" res="-9.9777251482009888e-02" rms="2.1149417757987976e-01" purity="5.1694244146347046e-02" nType="-99"/>
            <Node pos="r" depth="3" NCoef="0" IVar="-1" Cut="0.0000000000000000e+00" cType="1" res="-4.5977961272001266e-02" rms="3.7784847617149353e-01" purity="2.1826705336570740e-01" nType="-99"/>
          </Node>
          <Node pos="r" depth="2" NCoef="0" IVar="1" Cut="2.0447531715035439e-02" cType="1" res="-8.0174822360277176e-03" rms="4.3804281949996948e-01" purity="4.8787108063697815e-01" nType="0">
            <Node pos="l" depth="3" NCoef="0" IVar="-1" Cut="0.0000000000000000e+00" cType="1" res="-6.1762787401676178e-02" rms="3.8266122341156006e-01" purity="2.0361113548278809e-01" nType="-99"/>
            <Node pos="r" depth="3" NCoef="0" IVar="-1" Cut="0.0000000000000000e+00" cType="1" res="2.1380104124546051e-02" rms="4.4993785023689270e-01" purity="6.1802667379379272e-01" nType="-99"/>
          </Node>
        </Node>
        <Node pos="r" depth="1" NCoef="0" IVar="1" Cut="2.0992515608668327e-02" cType="1" res="9.1204322874546051e-02" rms="3.3498784899711609e-01" purity="7.5297462940216064e-01" nType="0">
          <Node pos="l" depth="2" NCoef="0" IVar="1" Cut="1.2047649361193180e-02" cType="1" res="-1.0094321519136429e-01" rms="3.7869060039520264e-01" purity="2.5066500902175903e-01" nType="0">
            <Node pos="l" depth="3" NCoef="0" IVar="-1" Cut="0.0000000000000000e+00" cType="1" res="-9.1866888105869293e-02" rms="3.0704507231712341e-01" purity="1.4614956080913544e-01" nType="-99"/>
            <Node pos="r" depth="3" NCoef="0" IVar="-1" Cut="0.0000000000000000e+00" cType="1" res="-1.1170404031872749e-02" rms="4.1824969649314880e-01" purity="3.4465602040290833e-01" nType="-99"/>
          </Node>
          <Node pos="r" depth="2" NCoef="0" IVar="1" Cut="1.2037181854248047e-01" cType="1" res="1.1634030938148499e-01" rms="3.2042956352233887e-01" purity="8.1868481636047363e-01" nType="0">
            <Node pos="l" depth="3" NCoef="0" IVar="-1" Cut="0.0000000000000000e+00" cType="1" res="4.3248593807220459e-02" rms="3.6620333790779114e-01" purity="7.4210631847381592e-01" nType="-99"/>
            <Node pos="r" depth="3" NCoef="0" IVar="-1" Cut="0.0000000000000000e+00" cType="1" res="1.0108797997236252e-01" rms="2.1967202425003052e-01" purity="9.3949586153030396e-01" nType="-99"/>
          </Node>
        </Node>
      </Node>
    </BinaryTree>
    <BinaryTree type="DecisionTree" boostWeight="1.0000000000000000e+00" itree="7">
      <Node pos="s" depth="0" NCoef="0" IVar="5" Cut="7.1511108398437500e+01" cType="1" res="7.0541148306801915e-04" rms="3.4519088268280029e-01" purity="5.0026190280914307e-01" nType="0">
        <Node pos="l" depth="1" NCoef="0" IVar="4" Cut="1.3717079162597656e+02" cType="1" res="-9.7128704190254211e-02" rms="3.2279533147811890e-01" purity="1.8455074727535248e-01" nType="0">
          <Node pos="l" depth="2" NCoef="0" IVar="4" Cut="1.0843182373046875e+02" cType="1" res="-1.2845763564109802e-01" rms="2.6218283176422119e-01" purity="9.5956340432167053e-02" nType="0">
            <Node pos="l" depth="3" NCoef="0" IVar="-1" Cut="0.0000000000000000e+00" cType="1" res="-9.1100737452507019e-02" rms="2.2722129523754120e-01" purity="6.5814733505249023e-02" nType="-99"/>
            <Node pos="r" depth="3" NCoef="0" IVar="-1" Cut="0.0000000000000000e+00" cType="1" res="-5.4715849459171295e-02" rms="3.2469347119331360e-01" purity="1.6337221860885620e-01" nType="-99"/>
          </Node>
          <Node pos="r" depth="2" NCoef="0" IVar="1" Cut="3.5868380218744278e-02" cType="1" res="-3.4155968576669693e-02" rms="4.1173866391181946e-01" purity="3.6263000965118408e-01" nType="0">
            <Node pos="l" depth="3" NCoef="0" IVar="-1" Cut="0.0000000000000000e+00" cType="1" res="-5.1276121288537979e-02" rms="3.6051863431930542e-01" purity="1.8896903097629547e-01" nType="-99"/>
            <Node pos="r" depth="3" NCoef="0" IVar="-1" Cut="0.0000000000000000e+00" cType="1" res="9.5839891582727432e-03" rms="4.4376930594444275e-01" purity="5.1197588443756104e-01" nType="-99"/>
          </Node>
        </Node>
        <Node pos="r" depth="1" NCoef="0" IVar="0" Cut="1.5969249267578125e+03" cType="1" res="6.7939206957817078e-02" rms="3.4400492906570435e-01" purity="7.1722567081451416e-01" nType="0">
          <Node pos="l" depth="2" NCoef="0" IVar="1" Cut="6.1525903642177582e-02" cType="1" res="2.3320552427321672e-03" rms="4.0008324384689331e-01" purity="4.9436020851135254e-01" nType="0">
            <Node pos="l" depth="3" NCoef="0" IVar="-1" Cut="0.0000000000000000e+00" cType="1" res="-3.3882796764373779e-02" rms="3.8878831267356873e-01" purity="2.6032736897468567e-01" nType="-99"/>
            <Node pos="r" depth="3" NCoef="0" IVar="-1" Cut="0.0000000000000000e+00" cType="1" res="3.3879935741424561e-02" rms="3.9975354075431824e-01" purity="7.1802824735641479e-01" nType="-99"/>
          </Node>
          <Node pos="r" depth="2" NCoef="0" IVar="1" Cut="2.0888345316052437e-02" cType="1" res="1.1548259109258652e-01" rms="2.8761339187622070e-01" purity="8.7872904539108276e-01" nType="0">
            <Node pos="l" depth="3" NCoef="0" IVar="-1" Cut="0.0000000000000000e+00" cType="1" res="5.8881612494587898e-03" rms="4.7118753194808960e-01" purity="4.7893473505973816e-01" nType="-99"/>
            <Node pos="r" depth="3" NCoef="0" IVar="-1" Cut="0.0000000000000000e+00" cType="1" res="7.8250549733638763e-02" rms="2.6327851414680481e-01" purity="9.1433793306350708e-01" nType="-99"/>
          </Node>
        </Node>
      </Node>
    </BinaryTree>
    <BinaryTree type="DecisionTree" boostWeight="1.0000000000000000e+00" itree="8">
      <Node pos="s" depth="0" NCoef="0" IVar="11" Cut="-2.1714303493499756e+00" cType="1" res="-2.2599071598961018e-05" rms="3.3994394540786743e-01" purity="5.0007480382919312e-01" nType="0">
        <Node pos="l" depth="1" NCoef="0" IVar="0" Cut="1.6878679199218750e+03" cType="1" res="-7.0944152772426605e-02" rms="3.4078791737556458e-01" purity="2.2778068482875824e-01" nType="0">
          <Node pos="l" depth="2" NCoef="0" IVar="7" Cut="9.5217341184616089e-01" cType="1" res="-8.8853403925895691e-02" rms="3.1740760803222656e-01" purity="1.5841834247112274e-01" nType="0">
            <Node pos="l" depth="3" NCoef="0" IVar="-1" Cut="0.0000000000000000e+00" cType="1" res="-4.3729070574045181e-02" rms="3.3956134319305420e-01" purity="1.8753400444984436e-01" nType="-99"/>
            <Node pos="r" depth="3" NCoef="0" IVar="-1" Cut="0.0000000000000000e+00" cType="1" res="-1.0158291459083557e-01" rms="2.0082016289234161e-01" purity="4.6706326305866241e-02" nType="-99"/>
          </Node>
          <Node pos="r" depth="2" NCoef="0" IVar="2" Cut="5.0654666137695312e+02" cType="1" res="2.4504646658897400e-02" rms="4.3281924724578857e-01" purity="5.9745293855667114e-01" nType="0">
            <Node pos="l" depth="3" NCoef="0" IVar="-1" Cut="0.0000000000000000e+00" cType="1" res="5.7721920311450958e-02" rms="3.9685004949569702e-01" purity="7.5480747222900391e-01" nType="-99"/>
            <Node pos="r" depth="3" NCoef="0" IVar="-1" Cut="0.0000000000000000e+00" cType="1" res="-1.5480231493711472e-02" rms="4.4369611144065857e-01" purity="4.9962776899337769e-01" nType="-99"/>
          </Node>
        </Node>
        <Node pos="r" depth="1" NCoef="0" IVar="1" Cut="7.8567966818809509e-02" cType="1" res="6.6244348883628845e-02" rms="3.2547503709793091e-01" purity="7.5449824333190918e-01" nType="0">
          <Node pos="l" depth="2" NCoef="0" IVar="0" Cut="1.9019229736328125e+03" cType="1" res="1.0393835604190826e-02" rms="3.9035710692405701e-01" purity="5.6245046854019165e-01" nType="0">
            <Node pos="l" depth="3" NCoef="0" IVar="-1" Cut="0.0000000000000000e+00" cType="1" res="-1.5491582453250885e-02" rms="4.0701302886009216e-01" purity="4.4055667519569397e-01" nType="-99"/>
            <Node pos="r" depth="3" NCoef="0" IVar="-1" Cut="0.0000000000000000e+00" cType="1" res="6.5952621400356293e-02" rms="3.2311874628067017e-01" purity="8.6950457096099854e-01" nType="-99"/>
          </Node>
          <Node pos="r" depth="2" NCoef="0" IVar="1" Cut="1.5794709324836731e-01" cType="1" res="1.1312540620565414e-01" rms="2.4926301836967468e-01" purity="9.1570353507995605e-01" nType="0">
            <Node pos="l" depth="3" NCoef="0" IVar="-1" Cut="0.0000000000000000e+00" cType="1" res="6.4382895827293396e-02" rms="2.8021141886711121e-01" purity="8.9019244909286499e-01" nType="-99"/>
            <Node pos="r" depth="3" NCoef="0" IVar="-1" Cut="0.0000000000000000e+00" cType="1" res="9.6071228384971619e-02" rms="1.9323453307151794e-01" purity="9.5310842990875244e-01" nType="-99"/>
          </Node>
        </Node>
      </Node>
    </BinaryTree>
    <BinaryTree type="DecisionTree" boostWeight="1.0000000000000000e+00" itree="9">
      <Node pos="s" depth="0" NCoef="0" IVar="5" Cut="9.3022178649902344e+01" cType="1" res="-2.1320853556971997e-04" rms="3.3770227432250977e-01" purity="4.9833464622497559e-01" nType="0">
        <Node pos="l" depth="1" NCoef="0" IVar="0" Cut="1.1200803222656250e+03" cType="1" res="-4.4044662266969681e-02" rms="3.5011836886405945e-01" purity="2.9487052559852600e-01" nType="0">
          <Node pos="l" depth="2" NCoef="0" IVar="3" Cut="1.5144979858398438e+02" cType="1" res="-1.1490881443023682e-01" rms="2.0470754802227020e-01" purity="4.7307237982749939e-02" nType="0">
            <Node pos="l" depth="3" NCoef="0" IVar="-1" Cut="0.0000000000000000e+00" cType="1" res="-9.6393935382366180e-02" rms="1.7770074307918549e-01" purity="3.5202566534280777e-02" nType="-99"/>
            <Node pos="r" depth="3" NCoef="0" IVar="-1" Cut="0.0000000000000000e+00" cType="1" res="-7.5296089053153992e-02" rms="2.4199810624122620e-01" purity="6.7203402519226074e-02" nType="-99"/>
          </Node>
          <Node pos="r" depth="2" NCoef="0" IVar="1" Cut="2.0927239209413528e-02" cType="1" res="-1.5421326272189617e-02" rms="3.9028504490852356e-01" purity="3.9486593008041382e-01" nType="0">
            <Node pos="l" depth="3" NCoef="0" IVar="-1" Cut="0.0000000000000000e+00" cType="1" res="-6.3463933765888214e-02" rms="2.9734975099563599e-01" purity="1.1789689213037491e-01" nType="-99"/>
            <Node pos="r" depth="3" NCoef="0" IVar="-1" Cut="0.0000000000000000e+00" cType="1" res="1.1714926920831203e-02" rms="4.1941857337951660e-01" purity="5.1785767078399658e-01" nType="-99"/>
          </Node>
        </Node>
        <Node pos="r" depth="1" NCoef="0" IVar="9" Cut="-1.2008261680603027e+00" cType="1" res="7.3332756757736206e-02" rms="3.0179566144943237e-01" purity="8.3973252773284912e-01" nType="0">
          <Node pos="l" depth="2" NCoef="0" IVar="-1" Cut="0.0000000000000000e+00" cType="1" res="-2.5243125855922699e-02" rms="3.7969574332237244e-01" purity="6.5568888187408447e-01" nType="-99"/>
          <Node pos="r" depth="2" NCoef="0" IVar="9" Cut="1.2740876674652100e+00" cType="1" res="8.4088474512100220e-02" rms="2.9110401868820190e-01" purity="8.5704368352890015e-01" nType="0">
            <Node pos="l" depth="3" NCoef="0" IVar="-1" Cut="0.0000000000000000e+00" cType="1" res="6.4655393362045288e-02" rms="2.7971488237380981e-01" purity="8.7426859140396118e-01" nType="-99"/>
            <Node pos="r" depth="3" NCoef="0" IVar="-1" Cut="0.0000000000000000e+00" cType="1" res="-1.3175495900213718e-02" rms="3.7966141104698181e-01" purity="6.6760420799255371e-01" nType="-99"/>
          </Node>
        </Node>
      </Node>
    </BinaryTree>
    <BinaryTree type="DecisionTree" boostWeight="1.0000000000000000e+00" itree="10">
      <Node pos="s" depth="0" NCoef="0" IVar="5" Cut="9.3022277832031250e+01" cType="1" res="-1.3490524142980576e-03" rms="3.3399653434753418e-01" purity="4.9709218740463257e-01" nType="0">
        <Node pos="l" depth="1" NCoef="0" IVar="1" Cut="1.2267635762691498e-01" cType="1" res="-3.8953300565481186e-02" rms="3.4730029106140137e-01" purity="2.8967845439910889e-01" nType="0">
          <Node pos="l" depth="2" NCoef="0" IVar="7" Cut="-8.9629191160202026e-01" cType="1" res="-5.2758593112230301e-02" rms="3.4026953577995300e-01" purity="2.3654443025588989e-01" nType="0">
            <Node pos="l" depth="3" NCoef="0" IVar="-1" Cut="0.0000000000000000e+00" cType="1" res="-8.0437228083610535e-02" rms="2.5563848018646240e-01" purity="1.0448522120714188e-01" nType="-99"/>
            <Node pos="r" depth="3" NCoef="0" IVar="-1" Cut="0.0000000000000000e+00" cType="1" res="-2.1820638328790665e-02" rms="3.5792115330696106e-01" purity="2.7251395583152771e-01" nType="-99"/>
          </Node>
          <Node pos="r" depth="2" NCoef="0" IVar="-1" Cut="0.0000000000000000e+00" cType="1" res="3.1435936689376831e-02" rms="3.7947872281074524e-01" purity="6.6761201620101929e-01" nType="-99"/>
        </Node>
        <Node pos="r" depth="1" NCoef="0" IVar="8" Cut="1.1990207433700562e+00" cType="1" res="6.1246186494827271e-02" rms="3.0032354593276978e-01" purity="8.4234869480133057e-01" nType="0">
          <Node pos="l" depth="2" NCoef="0" IVar="7" Cut="9.7942757606506348e-01" cType="1" res="7.2427667677402496e-02" rms="2.9065325856208801e-01" purity="8.6180406808853149e-01" nType="0">
            <Node pos="l" depth="3" NCoef="0" IVar="-1" Cut="0.0000000000000000e+00" cType="1" res="6.1106625944375992e-02" rms="2.7713686227798462e-01" purity="8.8359647989273071e-01" nType="-99"/>
            <Node pos="r" depth="3" NCoef="0" IVar="-1" Cut="0.0000000000000000e+00" cType="1" res="-2.5894328951835632e-02" rms="3.9354428648948669e-01" purity="6.2026488780975342e-01" nType="-99"/>
          </Node>
          <Node pos="r" depth="2" NCoef="0" IVar="-1" Cut="0.0000000000000000e+00" cType="1" res="-5.5731680244207382e-02" rms="3.7880006432533264e-01" purity="5.7418704032897949e-01" nType="-99"/>
        </Node>
      </Node>
    </BinaryTree>
    <BinaryTree type="DecisionTree" boostWeight="1.0000000000000000e+00" itree="11">
      <Node pos="s" depth="0" NCoef="0" IVar="1" Cut="4.1802652180194855e-02" cType="1" res="9.1294146841391921e-04" rms="3.3423727750778198e-01" purity="4.9956449866294861e-01" nType="0">
        <Node pos="l" depth="1" NCoef="0" IVar="0" Cut="2.0592978515625000e+03" cType="1" res="-4.8503521829843521e-02" rms="3.2291927933692932e-01" purity="2.0706173777580261e-01" nType="0">
          <Node pos="l" depth="2" NCoef="0" IVar="2" Cut="5.3315991210937500e+02" cType="1" res="-6.0244824737310410e-02" rms="3.1139653921127319e-01" purity="1.6054087877273560e-01" nType="0">
            <Node pos="l" depth="3" NCoef="0" IVar="-1" Cut="0.0000000000000000e+00" cType="1" res="-3.5307250916957855e-02" rms="3.0438047647476196e-01" purity="1.5852883458137512e-01" nType="-99"/>
            <Node pos="r" depth="3" NCoef="0" IVar="-1" Cut="0.0000000000000000e+00" cType="1" res="-7.8033559024333954e-02" rms="3.4640225768089294e-01" purity="1.7494645714759827e-01" nType="-99"/>
          </Node>
          <Node pos="r" depth="2" NCoef="0" IVar="-1" Cut="0.0000000000000000e+00" cType="1" res="3.7664011120796204e-02" rms="4.0587878227233887e-01" purity="6.9948041439056396e-01" nType="-99"/>
        </Node>
        <Node pos="r" depth="1" NCoef="0" IVar="0" Cut="1.3228774414062500e+03" cType="1" res="3.5574309527873993e-02" rms="3.3766433596611023e-01" purity="7.0472991466522217e-01" nType="0">
          <Node pos="l" depth="2" NCoef="0" IVar="0" Cut="1.1236943359375000e+03" cType="1" res="-2.8074683621525764e-02" rms="3.9457771182060242e-01" purity="2.8836756944656372e-01" nType="0">
            <Node pos="l" depth="3" NCoef="0" IVar="-1" Cut="0.0000000000000000e+00" cType="1" res="-5.0451431423425674e-02" rms="3.0796888470649719e-01" purity="1.2067610025405884e-01" nType="-99"/>
            <Node pos="r" depth="3" NCoef="0" IVar="-1" Cut="0.0000000000000000e+00" cType="1" res="4.5120422728359699e-03" rms="4.5015448331832886e-01" purity="4.2630329728126526e-01" nType="-99"/>
          </Node>
          <Node pos="r" depth="2" NCoef="0" IVar="9" Cut="1.2000761032104492e+00" cType="1" res="5.9069462120532990e-02" rms="3.1078323721885681e-01" purity="8.5842430591583252e-01" nType="0">
            <Node pos="l" depth="3" NCoef="0" IVar="-1" Cut="0.0000000000000000e+00" cType="1" res="4.8723924905061722e-02" rms="3.0137932300567627e-01" purity="8.7010484933853149e-01" nType="-99"/>
            <Node pos="r" depth="3" NCoef="0" IVar="-1" Cut="0.0000000000000000e+00" cType="1" res="-1.7733907327055931e-02" rms="3.8877120614051819e-01" purity="7.3113244771957397e-01" nType="-99"/>
          </Node>
        </Node>
      </Node>
    </BinaryTree>
    <BinaryTree type="DecisionTree" boostWeight="1.0000000000000000e+00" itree="12">
      <Node pos="s" depth="0" NCoef="0" IVar="6" Cut="6.7571945190429688e+01" cType="1" res="-3.4170653088949621e-04" rms="3.2870087027549744e-01" purity="4.9825999140739441e-01" nType="0">
        <Node pos="l" depth="1" NCoef="0" IVar="8" Cut="1.1999472379684448e+00" cType="1" res="-3.0684823170304298e-02" rms="3.4778693318367004e-01" purity="3.0851313471794128e-01" nType="0">
          <Node pos="l" depth="2" NCoef="0" IVar="8" Cut="-1.0856724977493286e+00" cType="1" res="-1.7233818769454956e-02" rms="3.5814428329467773e-01" purity="3.4186279773712158e-01" nType="0">
            <Node pos="l" depth="3" NCoef="0" IVar="-1" Cut="0.0000000000000000e+00" cType="1" res="-7.4505679309368134e-02" rms="2.7562028169631958e-01" purity="1.2711182236671448e-01" nType="-99"/>
            <Node pos="r" depth="3" NCoef="0" IVar="-1" Cut="0.0000000000000000e+00" cType="1" res="2.1563307382166386e-03" rms="3.7237665057182312e-01" purity="3.9363974332809448e-01" nType="-99"/>
          </Node>
          <Node pos="r" depth="2" NCoef="0" IVar="2" Cut="4.0254373168945312e+02" cType="1" res="-1.1209007352590561e-01" rms="2.6264879107475281e-01" purity="1.0668160021305084e-01" nType="0">
            <Node pos="l" depth="3" NCoef="0" IVar="-1" Cut="0.0000000000000000e+00" cType="1" res="-7.0181988179683685e-02" rms="2.4924261868000031e-01" purity="9.9898114800453186e-02" nType="-99"/>
            <Node pos="r" depth="3" NCoef="0" IVar="-1" Cut="0.0000000000000000e+00" cType="1" res="-1.0152743756771088e-01" rms="2.8354245424270630e-01" purity="1.2170943617820740e-01" nType="-99"/>
          </Node>
        </Node>
        <Node pos="r" depth="1" NCoef="0" IVar="7" Cut="9.9109095335006714e-01" cType="1" res="5.9414081275463104e-02" rms="2.7790880203247070e-01" purity="8.7193518877029419e-01" nType="0">
          <Node pos="l" depth="2" NCoef="0" IVar="7" Cut="-8.9481067657470703e-01" cType="1" res="6.7645572125911713e-02" rms="2.6437726616859436e-01" purity="8.9315479993820190e-01" nType="0">
            <Node pos="l" depth="3" NCoef="0" IVar="-1" Cut="0.0000000000000000e+00" cType="1" res="-9.4709703698754311e-03" rms="3.5266807675361633e-01" purity="7.0338010787963867e-01" nType="-99"/>
            <Node pos="r" depth="3" NCoef="0" IVar="-1" Cut="0.0000000000000000e+00" cType="1" res="6.7508853971958160e-02" rms="2.4819596111774445e-01" purity="9.1852468252182007e-01" nType="-99"/>
          </Node>
          <Node pos="r" depth="2" NCoef="0" IVar="-1" Cut="0.0000000000000000e+00" cType="1" res="-1.8434982746839523e-02" rms="3.8484135270118713e-01" purity="6.4183294773101807e-01" nType="-99"/>
        </Node>
      </Node>
    </BinaryTree>
    <BinaryTree type="DecisionTree" boostWeight="1.0000000000000000e+00" itree="13">
      <Node pos="s" depth="0" NCoef="0" IVar="0" Cut="1.4402319335937500e+03" cType="1" res="4.2735040187835693e-03" rms="3.2789260149002075e-01" purity="5.0447529554367065e-01" nType="0">
        <Node pos="l" depth="1" NCoef="0" IVar="0" Cut="1.2573634033203125e+03" cType="1" res="-3.4090660512447357e-02" rms="3.2105559110641479e-01" purity="2.1426747739315033e-01" nType="0">
          <Node pos="l" depth="2" NCoef="0" IVar="7" Cut="6.7077326774597168e-01" cType="1" res="-5.6577380746603012e-02" rms="2.7739676833152771e-01" purity="1.1510193347930908e-01" nType="0">
            <Node pos="l" depth="3" NCoef="0" IVar="-1" Cut="0.0000000000000000e+00" cType="1" res="-3.4774042665958405e-02" rms="3.0175474286079407e-01" purity="1.4078794419765472e-01" nType="-99"/>
            <Node pos="r" depth="3" NCoef="0" IVar="-1" Cut="0.0000000000000000e+00" cType="1" res="-7.6980412006378174e-02" rms="2.0790995657444000e-01" purity="5.5689621716737747e-02" nType="-99"/>
          </Node>
          <Node pos="r" depth="2" NCoef="0" IVar="2" Cut="3.3062438964843750e+02" cType="1" res="8.7712518870830536e-03" rms="3.8739866018295288e-01" purity="4.0328678488731384e-01" nType="0">
            <Node pos="l" depth="3" NCoef="0" IVar="-1" Cut="0.0000000000000000e+00" cType="1" res="4.5244920998811722e-02" rms="4.1133925318717957e-01" purity="5.9320014715194702e-01" nType="-99"/>
            <Node pos="r" depth="3" NCoef="0" IVar="-1" Cut="0.0000000000000000e+00" cType="1" res="-4.3843310326337814e-02" rms="3.4399345517158508e-01" purity="2.0601639151573181e-01" nType="-99"/>
          </Node>
        </Node>
        <Node pos="r" depth="1" NCoef="0" IVar="7" Cut="-1.1022683382034302e+00" cType="1" res="3.8745038211345673e-02" rms="3.3013555407524109e-01" purity="7.6523703336715698e-01" nType="0">
          <Node pos="l" depth="2" NCoef="0" IVar="-1" Cut="0.0000000000000000e+00" cType="1" res="-6.0322426259517670e-02" rms="3.6596968770027161e-01" purity="4.3513625860214233e-01" nType="-99"/>
          <Node pos="r" depth="2" NCoef="0" IVar="8" Cut="-1.1995111703872681e+00" cType="1" res="4.8661254346370697e-02" rms="3.2516261935234070e-01" purity="7.8893256187438965e-01" nType="0">
            <Node pos="l" depth="3" NCoef="0" IVar="-1" Cut="0.0000000000000000e+00" cType="1" res="-4.9863319844007492e-02" rms="3.6695811152458191e-01" purity="5.0431239604949951e-01" nType="-99"/>
            <Node pos="r" depth="3" NCoef="0" IVar="-1" Cut="0.0000000000000000e+00" cType="1" res="4.1916757822036743e-02" rms="3.1991893053054810e-01" purity="8.0962103605270386e-01" nType="-99"/>
          </Node>
        </Node>
      </Node>
    </BinaryTree>
    <BinaryTree type="DecisionTree" boostWeight="1.0000000000000000e+00" itree="14">
      <Node pos="s" depth="0" NCoef="0" IVar="0" Cut="1.7444672851562500e+03" cType="1" res="2.6862216182053089e-03" rms="3.2408514618873596e-01" purity="5.0411927700042725e-01" nType="0">
        <Node pos="l" depth="1" NCoef="0" IVar="2" Cut="3.3985897827148438e+02" cType="1" res="-1.9386082887649536e-02" rms="3.3804789185523987e-01" purity="3.4239614009857178e-01" nType="0">
          <Node pos="l" depth="2" NCoef="0" IVar="0" Cut="1.2497562255859375e+03" cType="1" res="7.4163298122584820e-03" rms="3.2563588023185730e-01" purity="3.7559068202972412e-01" nType="0">
            <Node pos="l" depth="3" NCoef="0" IVar="-1" Cut="0.0000000000000000e+00" cType="1" res="-3.2470773905515671e-02" rms="2.8723639249801636e-01" purity="1.2957511842250824e-01" nType="-99"/>
            <Node pos="r" depth="3" NCoef="0" IVar="-1" Cut="0.0000000000000000e+00" cType="1" res="4.3986063450574875e-02" rms="3.6197450757026672e-01" purity="7.0817518234252930e-01" nType="-99"/>
          </Node>
          <Node pos="r" depth="2" NCoef="0" IVar="2" Cut="4.8137948608398438e+02" cType="1" res="-6.1883863061666489e-02" rms="3.5269370675086975e-01" purity="2.8976300358772278e-01" nType="0">
            <Node pos="l" depth="3" NCoef="0" IVar="-1" Cut="0.0000000000000000e+00" cType="1" res="-2.9310701414942741e-02" rms="3.5827171802520752e-01" purity="3.2627201080322266e-01" nType="-99"/>
            <Node pos="r" depth="3" NCoef="0" IVar="-1" Cut="0.0000000000000000e+00" cType="1" res="-7.9683214426040649e-02" rms="3.2671415805816650e-01" purity="1.7244292795658112e-01" nType="-99"/>
          </Node>
        </Node>
        <Node pos="r" depth="1" NCoef="0" IVar="2" Cut="7.1808447265625000e+02" cType="1" res="5.1386773586273193e-02" rms="2.8493124246597290e-01" purity="8.6094683408737183e-01" nType="0">
          <Node pos="l" depth="2" NCoef="0" IVar="0" Cut="1.9834105224609375e+03" cType="1" res="6.2772765755653381e-02" rms="2.6721006631851196e-01" purity="8.9082330465316772e-01" nType="0">
            <Node pos="l" depth="3" NCoef="0" IVar="-1" Cut="0.0000000000000000e+00" cType="1" res="2.6036996394395828e-02" rms="3.1753259897232056e-01" purity="8.2284426689147949e-01" nType="-99"/>
            <Node pos="r" depth="3" NCoef="0" IVar="-1" Cut="0.0000000000000000e+00" cType="1" res="7.6464548707008362e-02" rms="2.2312824428081512e-01" purity="9.3855851888656616e-01" nType="-99"/>
          </Node>
          <Node pos="r" depth="2" NCoef="0" IVar="-1" Cut="0.0000000000000000e+00" cType="1" res="-2.2449359297752380e-02" rms="3.8584196567535400e-01" purity="6.2686496973037720e-01" nType="-99"/>
        </Node>
      </Node>
    </BinaryTree>
    <BinaryTree type="DecisionTree" boostWeight="1.0000000000000000e+00" itree="15">
      <Node pos="s" depth="0" NCoef="0" IVar="1" Cut="1.0250728577375412e-01" cType="1" res="-1.0210664477199316e-03" rms="3.2203820347785950e-01" purity="4.9890708923339844e-01" nType="0">
        <Node pos="l" depth="1" NCoef="0" IVar="1" Cut="1.4645209535956383e-02" cType="1" res="-1.9647531211376190e-02" rms="3.3385938405990601e-01" purity="3.6324793100357056e-01" nType="0">
          <Node pos="l" depth="2" NCoef="0" IVar="1" Cut="6.2775379046797752e-03" cType="1" res="-6.9045506417751312e-02" rms="2.3732993006706238e-01" purity="8.3704367280006409e-02" nType="0">
            <Node pos="l" depth="3" NCoef="0" IVar="-1" Cut="0.0000000000000000e+00" cType="1" res="-8.8121794164180756e-02" rms="1.8165256083011627e-01" purity="4.2879059910774231e-02" nType="-99"/>
            <Node pos="r" depth="3" NCoef="0" IVar="-1" Cut="0.0000000000000000e+00" cType="1" res="-4.5136436820030212e-02" rms="2.6691272854804993e-01" purity="1.1100622266530991e-01" nType="-99"/>
          </Node>
          <Node pos="r" depth="2" NCoef="0" IVar="0" Cut="1.6627685546875000e+03" cType="1" res="-4.2654769495129585e-03" rms="3.5725989937782288e-01" purity="4.5029515027999878e-01" nType="0">
            <Node pos="l" depth="3" NCoef="0" IVar="-1" Cut="0.0000000000000000e+00" cType="1" res="-1.6521703451871872e-02" rms="3.6315119266510010e-01" purity="2.6505720615386963e-01" nType="-99"/>
            <Node pos="r" depth="3" NCoef="0" IVar="-1" Cut="0.0000000000000000e+00" cType="1" res="2.4821214377880096e-02" rms="3.4189987182617188e-01" purity="8.1727325916290283e-01" nType="-99"/>
          </Node>
        </Node>
        <Node pos="r" depth="1" NCoef="0" IVar="1" Cut="1.8060959875583649e-01" cType="1" res="4.4953521341085434e-02" rms="2.8565910458564758e-01" purity="8.3374643325805664e-01" nType="0">
          <Node pos="l" depth="2" NCoef="0" IVar="0" Cut="1.4710919189453125e+03" cType="1" res="3.2347749918699265e-02" rms="3.0309426784515381e-01" purity="8.0274266004562378e-01" nType="0">
            <Node pos="l" depth="3" NCoef="0" IVar="-1" Cut="0.0000000000000000e+00" cType="1" res="-8.4470934234559536e-04" rms="4.0797418355941772e-01" purity="5.4791176319122314e-01" nType="-99"/>
            <Node pos="r" depth="3" NCoef="0" IVar="-1" Cut="0.0000000000000000e+00" cType="1" res="5.2904907613992691e-02" rms="2.2793762385845184e-01" purity="9.3599265813827515e-01" nType="-99"/>
          </Node>
          <Node pos="r" depth="2" NCoef="0" IVar="-1" Cut="0.0000000000000000e+00" cType="1" res="6.4487308263778687e-02" rms="2.4578645825386047e-01" purity="8.9493143558502197e-01" nType="-99"/>
        </Node>
      </Node>
    </BinaryTree>
    <BinaryTree type="DecisionTree" boostWeight="1.0000000000000000e+00" itree="16">
      <Node pos="s" depth="0" NCoef="0" IVar="9" Cut="-1.2000989913940430e+00" cType="1" res="-8.5090351058170199e-04" rms="3.2213893532752991e-01" purity="4.9923402070999146e-01" nType="0">
        <Node pos="l" depth="1" NCoef="0" IVar="2" Cut="4.1780209350585938e+02" cType="1" res="-7.0410542190074921e-02" rms="3.1411397457122803e-01" purity="2.6579689979553223e-01" nType="0">
          <Node pos="l" depth="2" NCoef="0" IVar="7" Cut="4.4611328840255737e-01" cType="1" res="-4.0222562849521637e-02" rms="3.0283710360527039e-01" purity="2.6235771179199219e-01" nType="0">
            <Node pos="l" depth="3" NCoef="0" IVar="-1" Cut="0.0000000000000000e+00" cType="1" res="-1.4799060299992561e-02" rms="3.1910452246665955e-01" purity="3.0765730142593384e-01" nType="-99"/>
            <Node pos="r" depth="3" NCoef="0" IVar="-1" Cut="0.0000000000000000e+00" cType="1" res="-8.0195501446723938e-02" rms="2.5100469589233398e-01" purity="1.5109816193580627e-01" nType="-99"/>
          </Node>
          <Node pos="r" depth="2" NCoef="0" IVar="-1" Cut="0.0000000000000000e+00" cType="1" res="-1.0552856326103210e-01" rms="3.2898655533790588e-01" purity="2.7475339174270630e-01" nType="-99"/>
        </Node>
        <Node pos="r" depth="1" NCoef="0" IVar="9" Cut="1.2759355306625366e+00" cType="1" res="9.8797176033258438e-03" rms="3.2202419638633728e-01" purity="5.3524518013000488e-01" nType="0">
          <Node pos="l" depth="2" NCoef="0" IVar="0" Cut="1.1007244873046875e+03" cType="1" res="2.2451305761933327e-02" rms="3.2087594270706177e-01" purity="5.7645189762115479e-01" nType="0">
            <Node pos="l" depth="3" NCoef="0" IVar="-1" Cut="0.0000000000000000e+00" cType="1" res="-5.7965282350778580e-02" rms="2.2008202970027924e-01" purity="5.4658893495798111e-02" nType="-99"/>
            <Node pos="r" depth="3" NCoef="0" IVar="-1" Cut="0.0000000000000000e+00" cType="1" res="2.5854641571640968e-02" rms="3.3268171548843384e-01" purity="6.6031801700592041e-01" nType="-99"/>
          </Node>
          <Node pos="r" depth="2" NCoef="0" IVar="2" Cut="4.4954605102539062e+02" cType="1" res="-7.0873588323593140e-02" rms="3.1765580177307129e-01" purity="2.7055478096008301e-01" nType="0">
            <Node pos="l" depth="3" NCoef="0" IVar="-1" Cut="0.0000000000000000e+00" cType="1" res="-3.8611393421888351e-02" rms="3.0481451749801636e-01" purity="2.6903462409973145e-01" nType="-99"/>
            <Node pos="r" depth="3" NCoef="0" IVar="-1" Cut="0.0000000000000000e+00" cType="1" res="-1.0088302940130234e-01" rms="3.4780976176261902e-01" purity="2.7605304121971130e-01" nType="-99"/>
          </Node>
        </Node>
      </Node>
    </BinaryTree>
    <BinaryTree type="DecisionTree" boostWeight="1.0000000000000000e+00" itree="17">
      <Node pos="s" depth="0" NCoef="0" IVar="8" Cut="1.4668084383010864e+00" cType="1" res="-1.2020963476970792e-03" rms="3.2084524631500244e-01" purity="4.9653995037078857e-01" nType="0">
        <Node pos="l" depth="1" NCoef="0" IVar="7" Cut="1.2029855251312256e+00" cType="1" res="7.3321252129971981e-03" rms="3.2565844058990479e-01" purity="5.2835029363632202e-01" nType="0">
          <Node pos="l" depth="2" NCoef="0" IVar="7" Cut="-1.2680170536041260e+00" cType="1" res="1.6610320657491684e-02" rms="3.3039113879203796e-01" purity="5.6586122512817383e-01" nType="0">
            <Node pos="l" depth="3" NCoef="0" IVar="-1" Cut="0.0000000000000000e+00" cType="1" res="-6.6795602440834045e-02" rms="2.6776495575904846e-01" purity="1.6418275237083435e-01" nType="-99"/>
            <Node pos="r" depth="3" NCoef="0" IVar="-1" Cut="0.0000000000000000e+00" cType="1" res="1.9903536885976791e-02" rms="3.3445179462432861e-01" purity="6.0509467124938965e-01" nType="-99"/>
          </Node>
          <Node pos="r" depth="2" NCoef="0" IVar="2" Cut="2.9324423217773438e+02" cType="1" res="-8.2785621285438538e-02" rms="2.5872507691383362e-01" purity="1.6401243209838867e-01" nType="0">
            <Node pos="l" depth="3" NCoef="0" IVar="-1" Cut="0.0000000000000000e+00" cType="1" res="-3.4840829670429230e-02" rms="2.5900712609291077e-01" purity="1.8200227618217468e-01" nType="-99"/>
            <Node pos="r" depth="3" NCoef="0" IVar="-1" Cut="0.0000000000000000e+00" cType="1" res="-9.4546228647232056e-02" rms="2.5308319926261902e-01" purity="1.5123561024665833e-01" nType="-99"/>
          </Node>
        </Node>
        <Node pos="r" depth="1" NCoef="0" IVar="4" Cut="1.4444445800781250e+02" cType="1" res="-9.9643498659133911e-02" rms="2.3773322999477386e-01" purity="1.2961071729660034e-01" nType="0">
          <Node pos="l" depth="2" NCoef="0" IVar="-1" Cut="0.0000000000000000e+00" cType="1" res="-8.2485564053058624e-02" rms="1.7660725116729736e-01" purity="4.8652689903974533e-02" nType="-99"/>
          <Node pos="r" depth="2" NCoef="0" IVar="-1" Cut="0.0000000000000000e+00" cType="1" res="-9.9243976175785065e-02" rms="3.1535917520523071e-01" purity="2.7911391854286194e-01" nType="-99"/>
        </Node>
      </Node>
    </BinaryTree>
    <BinaryTree type="DecisionTree" boostWeight="1.0000000000000000e+00" itree="18">
      <Node pos="s" depth="0" NCoef="0" IVar="7" Cut="9.4051766395568848e-01" cType="1" res="1.9912084098905325e-03" rms="3.1975871324539185e-01" purity="5.0157445669174194e-01" nType="0">
        <Node pos="l" depth="1" NCoef="0" IVar="7" Cut="-8.2865262031555176e-01" cType="1" res="1.3278671540319920e-02" rms="3.2502868771553040e-01" purity="5.5004662275314331e-01" nType="0">
          <Node pos="l" depth="2" NCoef="0" IVar="8" Cut="6.6678249835968018e-01" cType="1" res="-3.5310182720422745e-02" rms="3.0095079541206360e-01" purity="2.8358456492424011e-01" nType="0">
            <Node pos="l" depth="3" NCoef="0" IVar="-1" Cut="0.0000000000000000e+00" cType="1" res="-1.2423777021467686e-02" rms="3.1512075662612915e-01" purity="3.3175897598266602e-01" nType="-99"/>
            <Node pos="r" depth="3" NCoef="0" IVar="-1" Cut="0.0000000000000000e+00" cType="1" res="-8.6741313338279724e-02" rms="2.4357731640338898e-01" purity="1.3843393325805664e-01" nType="-99"/>
          </Node>
          <Node pos="r" depth="2" NCoef="0" IVar="9" Cut="-1.4663243293762207e+00" cType="1" res="2.6207819581031799e-02" rms="3.2993772625923157e-01" purity="6.2095028162002563e-01" nType="0">
            <Node pos="l" depth="3" NCoef="0" IVar="-1" Cut="0.0000000000000000e+00" cType="1" res="-5.0049018114805222e-02" rms="3.2940578460693359e-01" purity="2.9982629418373108e-01" nType="-99"/>
            <Node pos="r" depth="3" NCoef="0" IVar="-1" Cut="0.0000000000000000e+00" cType="1" res="2.6648234575986862e-02" rms="3.2878080010414124e-01" purity="6.4752417802810669e-01" nType="-99"/>
          </Node>
        </Node>
        <Node pos="r" depth="1" NCoef="0" IVar="2" Cut="4.0456805419921875e+02" cType="1" res="-6.2089603394269943e-02" rms="2.7950814366340637e-01" purity="2.2638982534408569e-01" nType="0">
          <Node pos="l" depth="2" NCoef="0" IVar="10" Cut="-6.6696292161941528e-01" cType="1" res="-4.3937869369983673e-02" rms="2.6751160621643066e-01" purity="2.1934324502944946e-01" nType="0">
            <Node pos="l" depth="3" NCoef="0" IVar="-1" Cut="0.0000000000000000e+00" cType="1" res="-8.2978986203670502e-02" rms="2.4838605523109436e-01" purity="1.4805057644844055e-01" nType="-99"/>
            <Node pos="r" depth="3" NCoef="0" IVar="-1" Cut="0.0000000000000000e+00" cType="1" res="-2.6189105585217476e-02" rms="2.7222049236297607e-01" purity="2.4445132911205292e-01" nType="-99"/>
          </Node>
          <Node pos="r" depth="2" NCoef="0" IVar="-1" Cut="0.0000000000000000e+00" cType="1" res="-8.2835659384727478e-02" rms="3.0331543087959290e-01" purity="2.4455110728740692e-01" nType="-99"/>
        </Node>
      </Node>
    </BinaryTree>
    <BinaryTree type="DecisionTree" boostWeight="1.0000000000000000e+00" itree="19">
      <Node pos="s" depth="0" NCoef="0" IVar="9" Cut="1.1999874114990234e+00" cType="1" res="-1.2475338007789105e-04" rms="3.1756454706192017e-01" purity="4.9785390496253967e-01" nType="0">
        <Node pos="l" depth="1" NCoef="0" IVar="8" Cut="-1.4666490554809570e+00" cType="1" res="8.6796907708048820e-03" rms="3.1785327196121216e-01" purity="5.3099882602691650e-01" nType="0">
          <Node pos="l" depth="2" NCoef="0" IVar="4" Cut="1.3156486511230469e+02" cType="1" res="-7.3079116642475128e-02" rms="2.6000499725341797e-01" purity="1.5717709064483643e-01" nType="0">
            <Node pos="l" depth="3" NCoef="0" IVar="-1" Cut="0.0000000000000000e+00" cType="1" res="-6.1914764344692230e-02" rms="2.0106667280197144e-01" purity="5.8879941701889038e-02" nType="-99"/>
            <Node pos="r" depth="3" NCoef="0" IVar="-1" Cut="0.0000000000000000e+00" cType="1" res="-7.0797726511955261e-02" rms="3.2095399498939514e-01" purity="2.9005995392799377e-01" nType="-99"/>
          </Node>
          <Node pos="r" depth="2" NCoef="0" IVar="9" Cut="-1.6571371555328369e+00" cType="1" res="1.5497884713113308e-02" rms="3.2127007842063904e-01" purity="5.6217330694198608e-01" nType="0">
            <Node pos="l" depth="3" NCoef="0" IVar="-1" Cut="0.0000000000000000e+00" cType="1" res="-6.1068080365657806e-02" rms="2.9934579133987427e-01" purity="1.7537043988704681e-01" nType="-99"/>
            <Node pos="r" depth="3" NCoef="0" IVar="-1" Cut="0.0000000000000000e+00" cType="1" res="1.7735512927174568e-02" rms="3.2186219096183777e-01" purity="5.9005784988403320e-01" nType="-99"/>
          </Node>
        </Node>
        <Node pos="r" depth="1" NCoef="0" IVar="9" Cut="1.5810037851333618e+00" cType="1" res="-5.8796063065528870e-02" rms="3.0929902195930481e-01" purity="2.7698180079460144e-01" nType="0">
          <Node pos="l" depth="2" NCoef="0" IVar="7" Cut="2.1221004426479340e-01" cType="1" res="-2.5528410449624062e-02" rms="3.4418573975563049e-01" purity="3.8324230909347534e-01" nType="0">
            <Node pos="l" depth="3" NCoef="0" IVar="-1" Cut="0.0000000000000000e+00" cType="1" res="-3.6325499415397644e-02" rms="3.3490437269210815e-01" purity="3.7997725605964661e-01" nType="-99"/>
            <Node pos="r" depth="3" NCoef="0" IVar="-1" Cut="0.0000000000000000e+00" cType="1" res="-9.1142539167776704e-04" rms="3.5180488228797913e-01" purity="3.8659757375717163e-01" nType="-99"/>
          </Node>
          <Node pos="r" depth="2" NCoef="0" IVar="3" Cut="1.7034939575195312e+02" cType="1" res="-8.5255064070224762e-02" rms="2.7559667825698853e-01" purity="1.9246891140937805e-01" nType="0">
            <Node pos="l" depth="3" NCoef="0" IVar="-1" Cut="0.0000000000000000e+00" cType="1" res="-6.0498405247926712e-02" rms="1.9439432024955750e-01" purity="7.2684206068515778e-02" nType="-99"/>
            <Node pos="r" depth="3" NCoef="0" IVar="-1" Cut="0.0000000000000000e+00" cType="1" res="-7.4502579867839813e-02" rms="3.1211599707603455e-01" purity="2.6285025477409363e-01" nType="-99"/>
          </Node>
        </Node>
      </Node>
    </BinaryTree>
    <BinaryTree type="DecisionTree" boostWeight="1.0000000000000000e+00" itree="20">
      <Node pos="s" depth="0" NCoef="0" IVar="11" Cut="-1.8953913450241089e+00" cType="1" res="-2.2418580483645201e-03" rms="3.1707656383514404e-01" purity="4.9551954865455627e-01" nType="0">
        <Node pos="l" depth="1" NCoef="0" IVar="10" Cut="-1.2000583410263062e+00" cType="1" res="-2.5635546073317528e-02" rms="3.2286372780799866e-01" purity="2.4053749442100525e-01" nType="0">
          <Node pos="l" depth="2" NCoef="0" IVar="5" Cut="6.8265441894531250e+01" cType="1" res="-6.2323987483978271e-02" rms="2.9715198278427124e-01" purity="1.6950057446956635e-01" nType="0">
            <Node pos="l" depth="3" NCoef="0" IVar="-1" Cut="0.0000000000000000e+00" cType="1" res="-4.2622316628694534e-02" rms="2.6847213506698608e-01" purity="1.1420773714780807e-01" nType="-99"/>
            <Node pos="r" depth="3" NCoef="0" IVar="-1" Cut="0.0000000000000000e+00" cType="1" res="-6.5152555704116821e-02" rms="3.4122991561889648e-01" purity="2.7146923542022705e-01" nType="-99"/>
          </Node>
          <Node pos="r" depth="2" NCoef="0" IVar="8" Cut="-1.1999017000198364e+00" cType="1" res="-1.7071539536118507e-02" rms="3.2798573374748230e-01" purity="2.5711926817893982e-01" nType="0">
            <Node pos="l" depth="3" NCoef="0" IVar="-1" Cut="0.0000000000000000e+00" cType="1" res="-7.4259877204895020e-02" rms="2.1150158345699310e-01" purity="7.2457306087017059e-02" nType="-99"/>
            <Node pos="r" depth="3" NCoef="0" IVar="-1" Cut="0.0000000000000000e+00" cType="1" res="-6.2972218729555607e-03" rms="3.4251672029495239e-01" purity="2.8736108541488647e-01" nType="-99"/>
          </Node>
        </Node>
        <Node pos="r" depth="1" NCoef="0" IVar="11" Cut="1.2343554496765137e+00" cType="1" res="2.1376896649599075e-02" rms="3.0933490395545959e-01" purity="7.5295472145080566e-01" nType="0">
          <Node pos="l" depth="2" NCoef="0" IVar="7" Cut="-1.1924291849136353e+00" cType="1" res="2.9437938705086708e-02" rms="3.0474394559860229e-01" purity="7.7175015211105347e-01" nType="0">
            <Node pos="l" depth="3" NCoef="0" IVar="-1" Cut="0.0000000000000000e+00" cType="1" res="-2.5253759697079659e-02" rms="3.4075579047203064e-01" purity="3.8922935724258423e-01" nType="-99"/>
            <Node pos="r" depth="3" NCoef="0" IVar="-1" Cut="0.0000000000000000e+00" cType="1" res="2.9550161212682724e-02" rms="3.0175569653511047e-01" purity="7.9671537876129150e-01" nType="-99"/>
          </Node>
          <Node pos="r" depth="2" NCoef="0" IVar="4" Cut="1.6194570922851562e+02" cType="1" res="-2.2461684420704842e-02" rms="3.2976463437080383e-01" purity="6.5073943138122559e-01" nType="0">
            <Node pos="l" depth="3" NCoef="0" IVar="-1" Cut="0.0000000000000000e+00" cType="1" res="-3.4829016774892807e-02" rms="3.6159926652908325e-01" purity="4.1743934154510498e-01" nType="-99"/>
            <Node pos="r" depth="3" NCoef="0" IVar="-1" Cut="0.0000000000000000e+00" cType="1" res="-2.1237097680568695e-03" rms="3.0357643961906433e-01" purity="8.1608366966247559e-01" nType="-99"/>
          </Node>
        </Node>
      </Node>
    </BinaryTree>
    <BinaryTree type="DecisionTree" boostWeight="1.0000000000000000e+00" itree="21">
      <Node pos="s" depth="0" NCoef="0" IVar="11" Cut="-1.8952404260635376e+00" cType="1" res="-1.6765072941780090e-03" rms="3.1345212459564209e-01" purity="5.0105172395706177e-01" nType="0">
        <Node pos="l" depth="1" NCoef="0" IVar="7" Cut="6.8484854698181152e-01" cType="1" res="-2.4401754140853882e-02" rms="3.1780749559402466e-01" purity="2.4034310877323151e-01" nType="0">
          <Node pos="l" depth="2" NCoef="0" IVar="7" Cut="-7.8721672296524048e-01" cType="1" res="-1.4415989629924297e-02" rms="3.3670166134834290e-01" purity="2.8196507692337036e-01" nType="0">
            <Node pos="l" depth="3" NCoef="0" IVar="-1" Cut="0.0000000000000000e+00" cType="1" res="-5.0222661346197128e-02" rms="2.5178828835487366e-01" purity="1.1556691676378250e-01" nType="-99"/>
            <Node pos="r" depth="3" NCoef="0" IVar="-1" Cut="0.0000000000000000e+00" cType="1" res="3.0121172312647104e-04" rms="3.6609876155853271e-01" purity="3.5321360826492310e-01" nType="-99"/>
          </Node>
          <Node pos="r" depth="2" NCoef="0" IVar="2" Cut="4.3540893554687500e+02" cType="1" res="-5.2718967199325562e-02" rms="2.5465425848960876e-01" purity="1.2231328338384628e-01" nType="0">
            <Node pos="l" depth="3" NCoef="0" IVar="-1" Cut="0.0000000000000000e+00" cType="1" res="-4.1051570326089859e-02" rms="2.4596074223518372e-01" purity="1.1367743462324142e-01" nType="-99"/>
            <Node pos="r" depth="3" NCoef="0" IVar="-1" Cut="0.0000000000000000e+00" cType="1" res="-8.2661285996437073e-02" rms="2.7572068572044373e-01" purity="1.5142112970352173e-01" nType="-99"/>
          </Node>
        </Node>
        <Node pos="r" depth="1" NCoef="0" IVar="8" Cut="-1.1999402046203613e+00" cType="1" res="2.0616844296455383e-02" rms="3.0749231576919556e-01" purity="7.5680553913116455e-01" nType="0">
          <Node pos="l" depth="2" NCoef="0" IVar="-1" Cut="0.0000000000000000e+00" cType="1" res="-3.8522053509950638e-02" rms="3.5756018757820129e-01" purity="4.5466682314872742e-01" nType="-99"/>
          <Node pos="r" depth="2" NCoef="0" IVar="8" Cut="1.0845426321029663e+00" cType="1" res="2.6804648339748383e-02" rms="3.0212831497192383e-01" purity="7.8195589780807495e-01" nType="0">
            <Node pos="l" depth="3" NCoef="0" IVar="-1" Cut="0.0000000000000000e+00" cType="1" res="3.0872629955410957e-02" rms="2.9393354058265686e-01" purity="8.1500399112701416e-01" nType="-99"/>
            <Node pos="r" depth="3" NCoef="0" IVar="-1" Cut="0.0000000000000000e+00" cType="1" res="-2.1120429039001465e-02" rms="3.5487350821495056e-01" purity="5.2356249094009399e-01" nType="-99"/>
          </Node>
        </Node>
      </Node>
    </BinaryTree>
    <BinaryTree type="DecisionTree" boostWeight="1.0000000000000000e+00" itree="22">
      <Node pos="s" depth="0" NCoef="0" IVar="10" Cut="1.7331967353820801e+00" cType="1" res="-7.9063302837312222e-04" rms="3.1415259838104248e-01" purity="5.0153779983520508e-01" nType="0">
        <Node pos="l" depth="1" NCoef="0" IVar="10" Cut="-1.5047843456268311e+00" cType="1" res="4.7057447955012321e-03" rms="3.1332609057426453e-01" purity="5.1837646961212158e-01" nType="0">
          <Node pos="l" depth="2" NCoef="0" IVar="2" Cut="3.2335461425781250e+02" cType="1" res="-5.3308382630348206e-02" rms="3.1167206168174744e-01" purity="3.1289947032928467e-01" nType="0">
            <Node pos="l" depth="3" NCoef="0" IVar="-1" Cut="0.0000000000000000e+00" cType="1" res="-1.9929615780711174e-02" rms="3.0027025938034058e-01" purity="2.6109078526496887e-01" nType="-99"/>
            <Node pos="r" depth="3" NCoef="0" IVar="-1" Cut="0.0000000000000000e+00" cType="1" res="-6.7774504423141479e-02" rms="3.1921368837356567e-01" purity="3.6113810539245605e-01" nType="-99"/>
          </Node>
          <Node pos="r" depth="2" NCoef="0" IVar="0" Cut="1.1001787109375000e+03" cType="1" res="1.2335184961557388e-02" rms="3.1274327635765076e-01" purity="5.4539871215820312e-01" nType="0">
            <Node pos="l" depth="3" NCoef="0" IVar="-1" Cut="0.0000000000000000e+00" cType="1" res="-5.0156638026237488e-02" rms="2.1059241890907288e-01" purity="5.0169110298156738e-02" nType="-99"/>
            <Node pos="r" depth="3" NCoef="0" IVar="-1" Cut="0.0000000000000000e+00" cType="1" res="1.6950493678450584e-02" rms="3.2636970281600952e-01" purity="6.3073492050170898e-01" nType="-99"/>
          </Node>
        </Node>
        <Node pos="r" depth="1" NCoef="0" IVar="10" Cut="2.1903529167175293e+00" cType="1" res="-6.7964836955070496e-02" rms="3.1646260619163513e-01" purity="2.9574245214462280e-01" nType="0">
          <Node pos="l" depth="2" NCoef="0" IVar="-1" Cut="0.0000000000000000e+00" cType="1" res="-3.1818125396966934e-02" rms="3.2161927223205566e-01" purity="3.5831779241561890e-01" nType="-99"/>
          <Node pos="r" depth="2" NCoef="0" IVar="-1" Cut="0.0000000000000000e+00" cType="1" res="-8.8682137429714203e-02" rms="3.0520913004875183e-01" purity="2.1255311369895935e-01" nType="-99"/>
        </Node>
      </Node>
    </BinaryTree>
    <BinaryTree type="DecisionTree" boostWeight="1.0000000000000000e+00" itree="23">
      <Node pos="s" depth="0" NCoef="0" IVar="0" Cut="2.0005295410156250e+03" cType="1" res="6.1596842715516686e-04" rms="3.1333604454994202e-01" purity="4.9748000502586365e-01" nType="0">
        <Node pos="l" depth="1" NCoef="0" IVar="2" Cut="4.8038674926757812e+02" cType="1" res="-8.0116707831621170e-03" rms="3.2560098171234131e-01" purity="4.1033014655113220e-01" nType="0">
          <Node pos="l" depth="2" NCoef="0" IVar="0" Cut="1.3145085449218750e+03" cType="1" res="2.0561544224619865e-03" rms="3.2001045346260071e-01" purity="4.2137214541435242e-01" nType="0">
            <Node pos="l" depth="3" NCoef="0" IVar="-1" Cut="0.0000000000000000e+00" cType="1" res="-2.3211464285850525e-02" rms="2.9118734598159790e-01" purity="1.4304856956005096e-01" nType="-99"/>
            <Node pos="r" depth="3" NCoef="0" IVar="-1" Cut="0.0000000000000000e+00" cType="1" res="2.2764207795262337e-02" rms="3.4541395306587219e-01" purity="7.1228313446044922e-01" nType="-99"/>
          </Node>
          <Node pos="r" depth="2" NCoef="0" IVar="2" Cut="5.8720275878906250e+02" cType="1" res="-7.3870360851287842e-02" rms="3.5302394628524780e-01" purity="3.3809852600097656e-01" nType="0">
            <Node pos="l" depth="3" NCoef="0" IVar="-1" Cut="0.0000000000000000e+00" cType="1" res="-3.3722229301929474e-02" rms="3.5745483636856079e-01" purity="3.8723352551460266e-01" nType="-99"/>
            <Node pos="r" depth="3" NCoef="0" IVar="-1" Cut="0.0000000000000000e+00" cType="1" res="-8.8567540049552917e-02" rms="3.3541017770767212e-01" purity="2.3233568668365479e-01" nType="-99"/>
          </Node>
        </Node>
        <Node pos="r" depth="1" NCoef="0" IVar="2" Cut="7.0905468750000000e+02" cType="1" res="4.0473967790603638e-02" rms="2.4503825604915619e-01" purity="9.0009528398513794e-01" nType="0">
          <Node pos="l" depth="2" NCoef="0" IVar="5" Cut="9.6015403747558594e+01" cType="1" res="5.1491539925336838e-02" rms="2.0857340097427368e-01" purity="9.4161516427993774e-01" nType="0">
            <Node pos="l" depth="3" NCoef="0" IVar="-1" Cut="0.0000000000000000e+00" cType="1" res="5.3993817418813705e-02" rms="3.1922265887260437e-01" purity="8.4332269430160522e-01" nType="-99"/>
            <Node pos="r" depth="3" NCoef="0" IVar="-1" Cut="0.0000000000000000e+00" cType="1" res="6.6545523703098297e-02" rms="1.6654644906520844e-01" purity="9.6772676706314087e-01" nType="-99"/>
          </Node>
          <Node pos="r" depth="2" NCoef="0" IVar="-1" Cut="0.0000000000000000e+00" cType="1" res="-8.8771032169461250e-03" rms="3.6986714601516724e-01" purity="6.9878184795379639e-01" nType="-99"/>
        </Node>
      </Node>
    </BinaryTree>
    <BinaryTree type="DecisionTree" boostWeight="1.0000000000000000e+00" itree="24">
      <Node pos="s" depth="0" NCoef="0" IVar="8" Cut="1.1996604204177856e+00" cType="1" res="4.3043354526162148e-03" rms="3.1511127948760986e-01" purity="5.0277805328369141e-01" nType="0">
        <Node pos="l" depth="1" NCoef="0" IVar="8" Cut="-1.0857969522476196e+00" cType="1" res="1.1050262488424778e-02" rms="3.1917825341224670e-01" purity="5.4087203741073608e-01" nType="0">
          <Node pos="l" depth="2" NCoef="0" IVar="3" Cut="2.2716534423828125e+02" cType="1" res="-4.0725711733102798e-02" rms="2.9038965702056885e-01" purity="2.3325888812541962e-01" nType="0">
            <Node pos="l" depth="3" NCoef="0" IVar="-1" Cut="0.0000000000000000e+00" cType="1" res="-2.2312151268124580e-02" rms="2.7430978417396545e-01" purity="1.7407000064849854e-01" nType="-99"/>
            <Node pos="r" depth="3" NCoef="0" IVar="-1" Cut="0.0000000000000000e+00" cType="1" res="-6.3838221132755280e-02" rms="3.1662526726722717e-01" purity="3.5318207740783691e-01" nType="-99"/>
          </Node>
          <Node pos="r" depth="2" NCoef="0" IVar="9" Cut="1.7324858903884888e+00" cType="1" res="2.0327026024460793e-02" rms="3.2319128513336182e-01" purity="5.9598749876022339e-01" nType="0">
            <Node pos="l" depth="3" NCoef="0" IVar="-1" Cut="0.0000000000000000e+00" cType="1" res="2.1545551717281342e-02" rms="3.2383137941360474e-01" purity="6.1505740880966187e-01" nType="-99"/>
            <Node pos="r" depth="3" NCoef="0" IVar="-1" Cut="0.0000000000000000e+00" cType="1" res="-7.2037622332572937e-02" rms="2.8930333256721497e-01" purity="1.8524791300296783e-01" nType="-99"/>
          </Node>
        </Node>
        <Node pos="r" depth="1" NCoef="0" IVar="3" Cut="2.2661589050292969e+02" cType="1" res="-4.7110568732023239e-02" rms="2.7684614062309265e-01" purity="2.1244020760059357e-01" nType="0">
          <Node pos="l" depth="2" NCoef="0" IVar="8" Cut="1.6568381786346436e+00" cType="1" res="-2.1249899640679359e-02" rms="2.5559797883033752e-01" purity="1.6082756221294403e-01" nType="0">
            <Node pos="l" depth="3" NCoef="0" IVar="-1" Cut="0.0000000000000000e+00" cType="1" res="9.7803212702274323e-03" rms="3.0563205480575562e-01" purity="2.5403475761413574e-01" nType="-99"/>
            <Node pos="r" depth="3" NCoef="0" IVar="-1" Cut="0.0000000000000000e+00" cType="1" res="-6.5698415040969849e-02" rms="1.9176304340362549e-01" purity="7.2045214474201202e-02" nType="-99"/>
          </Node>
          <Node pos="r" depth="2" NCoef="0" IVar="-1" Cut="0.0000000000000000e+00" cType="1" res="-7.7300250530242920e-02" rms="3.1028857827186584e-01" purity="3.2234999537467957e-01" nType="-99"/>
        </Node>
      </Node>
    </BinaryTree>
    <BinaryTree type="DecisionTree" boostWeight="1.0000000000000000e+00" itree="25">
      <Node pos="s" depth="0" NCoef="0" IVar="7" Cut="9.3649393320083618e-01" cType="1" res="-2.0205932669341564e-03" rms="3.1188717484474182e-01" purity="4.9628925323486328e-01" nType="0">
        <Node pos="l" depth="1" NCoef="0" IVar="7" Cut="-1.0147643089294434e+00" cType="1" res="5.8435788378119469e-03" rms="3.1812041997909546e-01" purity="5.4693949222564697e-01" nType="0">
          <Node pos="l" depth="2" NCoef="0" IVar="7" Cut="-1.6905655860900879e+00" cType="1" res="-3.9948415011167526e-02" rms="2.7667072415351868e-01" purity="2.0708163082599640e-01" nType="0">
            <Node pos="l" depth="3" NCoef="0" IVar="-1" Cut="0.0000000000000000e+00" cType="1" res="-9.6324846148490906e-02" rms="1.8506030738353729e-01" purity="5.9059023857116699e-02" nType="-99"/>
            <Node pos="r" depth="3" NCoef="0" IVar="-1" Cut="0.0000000000000000e+00" cType="1" res="-2.2410465404391289e-02" rms="3.0611974000930786e-01" purity="2.7003997564315796e-01" nType="-99"/>
          </Node>
          <Node pos="r" depth="2" NCoef="0" IVar="10" Cut="1.9994583129882812e+00" cType="1" res="1.4197530224919319e-02" rms="3.2441630959510803e-01" purity="6.0894060134887695e-01" nType="0">
            <Node pos="l" depth="3" NCoef="0" IVar="-1" Cut="0.0000000000000000e+00" cType="1" res="1.5369773842394352e-02" rms="3.2259315252304077e-01" purity="6.2091863155364990e-01" nType="-99"/>
            <Node pos="r" depth="3" NCoef="0" IVar="-1" Cut="0.0000000000000000e+00" cType="1" res="-5.1510054618120193e-02" rms="3.5337129235267639e-01" purity="3.3803957700729370e-01" nType="-99"/>
          </Node>
        </Node>
        <Node pos="r" depth="1" NCoef="0" IVar="2" Cut="3.0228900146484375e+02" cType="1" res="-4.6854514628648758e-02" rms="2.6930093765258789e-01" purity="2.0753073692321777e-01" nType="0">
          <Node pos="l" depth="2" NCoef="0" IVar="-1" Cut="0.0000000000000000e+00" cType="1" res="-2.4830881506204605e-02" rms="2.5681599974632263e-01" purity="1.8292275071144104e-01" nType="-99"/>
          <Node pos="r" depth="2" NCoef="0" IVar="1" Cut="2.8462953865528107e-02" cType="1" res="-6.7331679165363312e-02" rms="2.7731353044509888e-01" purity="2.2745048999786377e-01" nType="0">
            <Node pos="l" depth="3" NCoef="0" IVar="-1" Cut="0.0000000000000000e+00" cType="1" res="-5.8947779238224030e-02" rms="2.1746730804443359e-01" purity="8.7252311408519745e-02" nType="-99"/>
            <Node pos="r" depth="3" NCoef="0" IVar="-1" Cut="0.0000000000000000e+00" cType="1" res="-6.7016132175922394e-02" rms="3.6173936724662781e-01" purity="4.8731777071952820e-01" nType="-99"/>
          </Node>
        </Node>
      </Node>
    </BinaryTree>
    <BinaryTree type="DecisionTree" boostWeight="1.0000000000000000e+00" itree="26">
      <Node pos="s" depth="0" NCoef="0" IVar="9" Cut="-1.7333590984344482e+00" cType="1" res="1.2887631310150027e-03" rms="3.1395441293716431e-01" purity="4.9793097376823425e-01" nType="0">
        <Node pos="l" depth="1" NCoef="0" IVar="4" Cut="1.0986900329589844e+02" cType="1" res="-5.9312026947736740e-02" rms="2.6404291391372681e-01" purity="1.4664289355278015e-01" nType="0">
          <Node pos="l" depth="2" NCoef="0" IVar="-1" Cut="0.0000000000000000e+00" cType="1" res="-4.1000749915838242e-02" rms="2.1719686686992645e-01" purity="6.0043979436159134e-02" nType="-99"/>
          <Node pos="r" depth="2" NCoef="0" IVar="-1" Cut="0.0000000000000000e+00" cType="1" res="-6.8610928952693939e-02" rms="2.9347223043441772e-01" purity="2.1505396068096161e-01" nType="-99"/>
        </Node>
        <Node pos="r" depth="1" NCoef="0" IVar="4" Cut="1.0646041870117188e+02" cType="1" res="4.9466970376670361e-03" rms="3.1634423136711121e-01" purity="5.1913511753082275e-01" nType="0">
          <Node pos="l" depth="2" NCoef="0" IVar="5" Cut="6.0535778045654297e+01" cType="1" res="-2.5823064148426056e-02" rms="2.5394722819328308e-01" purity="1.0705575346946716e-01" nType="0">
            <Node pos="l" depth="3" NCoef="0" IVar="-1" Cut="0.0000000000000000e+00" cType="1" res="-5.8706775307655334e-02" rms="1.9947372376918793e-01" purity="4.4739983975887299e-02" nType="-99"/>
            <Node pos="r" depth="3" NCoef="0" IVar="-1" Cut="0.0000000000000000e+00" cType="1" res="-7.2400150820612907e-03" rms="3.0370789766311646e-01" purity="1.7861761152744293e-01" nType="-99"/>
          </Node>
          <Node pos="r" depth="2" NCoef="0" IVar="7" Cut="1.2267143726348877e+00" cType="1" res="1.3096471317112446e-02" rms="3.3042621612548828e-01" purity="6.2827974557876587e-01" nType="0">
            <Node pos="l" depth="3" NCoef="0" IVar="-1" Cut="0.0000000000000000e+00" cType="1" res="1.5523944050073624e-02" rms="3.3386778831481934e-01" purity="6.6282278299331665e-01" nType="-99"/>
            <Node pos="r" depth="3" NCoef="0" IVar="-1" Cut="0.0000000000000000e+00" cType="1" res="-4.8042763024568558e-02" rms="2.7652552723884583e-01" purity="2.0718090236186981e-01" nType="-99"/>
          </Node>
        </Node>
      </Node>
    </BinaryTree>
    <BinaryTree type="DecisionTree" boostWeight="1.0000000000000000e+00" itree="27">
      <Node pos="s" depth="0" NCoef="0" IVar="9" Cut="-1.4666904211044312e+00" cType="1" res="-2.1918197162449360e-03" rms="3.0932217836380005e-01" purity="4.9987113475799561e-01" nType="0">
        <Node pos="l" depth="1" NCoef="0" IVar="4" Cut="1.1951560211181641e+02" cType="1" res="-5.4813366383314133e-02" rms="2.6861965656280518e-01" purity="2.0247878134250641e-01" nType="0">
          <Node pos="l" depth="2" NCoef="0" IVar="-1" Cut="0.0000000000000000e+00" cType="1" res="-3.3896744251251221e-02" rms="2.2420233488082886e-01" purity="8.2165248692035675e-02" nType="-99"/>
          <Node pos="r" depth="2" NCoef="0" IVar="-1" Cut="0.0000000000000000e+00" cType="1" res="-6.4731061458587646e-02" rms="3.0098897218704224e-01" purity="3.1236860156059265e-01" nType="-99"/>
        </Node>
        <Node pos="r" depth="1" NCoef="0" IVar="9" Cut="9.7136402130126953e-01" cType="1" res="2.9502499382942915e-03" rms="3.1254100799560547e-01" purity="5.2893173694610596e-01" nType="0">
          <Node pos="l" depth="2" NCoef="0" IVar="8" Cut="-1.2000026702880859e+00" cType="1" res="1.1035208590328693e-02" rms="3.1255266070365906e-01" purity="5.7848888635635376e-01" nType="0">
            <Node pos="l" depth="3" NCoef="0" IVar="-1" Cut="0.0000000000000000e+00" cType="1" res="-3.4958537667989731e-02" rms="2.9217115044593811e-01" purity="2.5601786375045776e-01" nType="-99"/>
            <Node pos="r" depth="3" NCoef="0" IVar="-1" Cut="0.0000000000000000e+00" cType="1" res="1.5032257884740829e-02" rms="3.1443613767623901e-01" purity="6.1736953258514404e-01" nType="-99"/>
          </Node>
          <Node pos="r" depth="2" NCoef="0" IVar="7" Cut="-3.8572266697883606e-01" cType="1" res="-2.9615007340908051e-02" rms="3.1036868691444397e-01" purity="3.2932111620903015e-01" nType="0">
            <Node pos="l" depth="3" NCoef="0" IVar="-1" Cut="0.0000000000000000e+00" cType="1" res="-6.6686689853668213e-02" rms="2.8821966052055359e-01" purity="2.3539778590202332e-01" nType="-99"/>
            <Node pos="r" depth="3" NCoef="0" IVar="-1" Cut="0.0000000000000000e+00" cType="1" res="-1.1340930126607418e-02" rms="3.1774368882179260e-01" purity="3.6918696761131287e-01" nType="-99"/>
          </Node>
        </Node>
      </Node>
    </BinaryTree>
    <BinaryTree type="DecisionTree" boostWeight="1.0000000000000000e+00" itree="28">
      <Node pos="s" depth="0" NCoef="0" IVar="0" Cut="1.7444903564453125e+03" cType="1" res="-6.6212355159223080e-04" rms="3.1040504574775696e-01" purity="5.0201392173767090e-01" nType="0">
        <Node pos="l" depth="1" NCoef="0" IVar="2" Cut="3.2655920410156250e+02" cType="1" res="-1.0309903882443905e-02" rms="3.2756859064102173e-01" purity="3.3743256330490112e-01" nType="0">
          <Node pos="l" depth="2" NCoef="0" IVar="0" Cut="1.1598382568359375e+03" cType="1" res="1.1359632015228271e-02" rms="3.1786468625068665e-01" purity="3.6978694796562195e-01" nType="0">
            <Node pos="l" depth="3" NCoef="0" IVar="-1" Cut="0.0000000000000000e+00" cType="1" res="-2.7261860668659210e-02" rms="2.5329583883285522e-01" purity="8.1998959183692932e-02" nType="-99"/>
            <Node pos="r" depth="3" NCoef="0" IVar="-1" Cut="0.0000000000000000e+00" cType="1" res="2.8463983908295631e-02" rms="3.6144316196441650e-01" purity="6.1423623561859131e-01" nType="-99"/>
          </Node>
          <Node pos="r" depth="2" NCoef="0" IVar="1" Cut="3.7853706628084183e-02" cType="1" res="-3.8988616317510605e-02" rms="3.3785554766654968e-01" purity="2.9461297392845154e-01" nType="0">
            <Node pos="l" depth="3" NCoef="0" IVar="-1" Cut="0.0000000000000000e+00" cType="1" res="-1.6263144090771675e-02" rms="2.7126982808113098e-01" purity="1.1822453141212463e-01" nType="-99"/>
            <Node pos="r" depth="3" NCoef="0" IVar="-1" Cut="0.0000000000000000e+00" cType="1" res="-4.3115559965372086e-02" rms="4.0142166614532471e-01" purity="5.0529426336288452e-01" nType="-99"/>
          </Node>
        </Node>
        <Node pos="r" depth="1" NCoef="0" IVar="2" Cut="5.8690417480468750e+02" cType="1" res="2.0464539527893066e-02" rms="2.6781165599822998e-01" purity="8.6241340637207031e-01" nType="0">
          <Node pos="l" depth="2" NCoef="0" IVar="5" Cut="7.8889022827148438e+01" cType="1" res="3.5827443003654480e-02" rms="2.3102076351642609e-01" purity="9.2032963037490845e-01" nType="0">
            <Node pos="l" depth="3" NCoef="0" IVar="-1" Cut="0.0000000000000000e+00" cType="1" res="4.4827222824096680e-02" rms="3.5535013675689697e-01" purity="7.6390993595123291e-01" nType="-99"/>
            <Node pos="r" depth="3" NCoef="0" IVar="-1" Cut="0.0000000000000000e+00" cType="1" res="4.3722636997699738e-02" rms="2.0742484927177429e-01" purity="9.4203460216522217e-01" nType="-99"/>
          </Node>
          <Node pos="r" depth="2" NCoef="0" IVar="0" Cut="2.5540537109375000e+03" cType="1" res="-2.3903273046016693e-02" rms="3.4939184784889221e-01" purity="6.9515228271484375e-01" nType="0">
            <Node pos="l" depth="3" NCoef="0" IVar="-1" Cut="0.0000000000000000e+00" cType="1" res="-3.7812110036611557e-02" rms="3.7809839844703674e-01" purity="6.0420984029769897e-01" nType="-99"/>
            <Node pos="r" depth="3" NCoef="0" IVar="-1" Cut="0.0000000000000000e+00" cType="1" res="3.9223629981279373e-02" rms="2.7149111032485962e-01" purity="8.7983828783035278e-01" nType="-99"/>
          </Node>
        </Node>
      </Node>
    </BinaryTree>
    <BinaryTree type="DecisionTree" boostWeight="1.0000000000000000e+00" itree="29">
      <Node pos="s" depth="0" NCoef="0" IVar="8" Cut="1.7332528829574585e+00" cType="1" res="2.4552643299102783e-03" rms="3.0894619226455688e-01" purity="5.0480026006698608e-01" nType="0">
        <Node pos="l" depth="1" NCoef="0" IVar="10" Cut="1.4665396213531494e+00" cType="1" res="5.6994641199707985e-03" rms="3.1279480457305908e-01" purity="5.2631974220275879e-01" nType="0">
          <Node pos="l" depth="2" NCoef="0" IVar="10" Cut="-1.7841461896896362e+00" cType="1" res="1.0486378334462643e-02" rms="3.1277796626091003e-01" purity="5.4741102457046509e-01" nType="0">
            <Node pos="l" depth="3" NCoef="0" IVar="-1" Cut="0.0000000000000000e+00" cType="1" res="-3.5653062164783478e-02" rms="3.0645906925201416e-01" purity="2.9421749711036682e-01" nType="-99"/>
            <Node pos="r" depth="3" NCoef="0" IVar="-1" Cut="0.0000000000000000e+00" cType="1" res="1.3526026159524918e-02" rms="3.1294783949851990e-01" purity="5.6908023357391357e-01" nType="-99"/>
          </Node>
          <Node pos="r" depth="2" NCoef="0" IVar="7" Cut="-3.5034364461898804e-01" cType="1" res="-3.2611884176731110e-02" rms="3.1028035283088684e-01" purity="3.5751885175704956e-01" nType="0">
            <Node pos="l" depth="3" NCoef="0" IVar="-1" Cut="0.0000000000000000e+00" cType="1" res="-6.0379240661859512e-02" rms="2.8688964247703552e-01" purity="2.7616509795188904e-01" nType="-99"/>
            <Node pos="r" depth="3" NCoef="0" IVar="-1" Cut="0.0000000000000000e+00" cType="1" res="-1.5305702574551105e-02" rms="3.1909850239753723e-01" purity="3.9424365758895874e-01" nType="-99"/>
          </Node>
        </Node>
        <Node pos="r" depth="1" NCoef="0" IVar="-1" Cut="0.0000000000000000e+00" cType="1" res="-7.3159776628017426e-02" rms="2.1321924030780792e-01" purity="9.1926902532577515e-02" nType="-99"/>
      </Node>
    </BinaryTree>
    <BinaryTree type="DecisionTree" boostWeight="1.0000000000000000e+00" itree="30">
      <Node pos="s" depth="0" NCoef="0" IVar="9" Cut="1.4666556119918823e+00" cType="1" res="-5.2710250020027161e-04" rms="3.1155329942703247e-01" purity="4.9590802192687988e-01" nType="0">
        <Node pos="l" depth="1" NCoef="0" IVar="8" Cut="9.3326693773269653e-01" cType="1" res="3.9020995609462261e-03" rms="3.1329423189163208e-01" purity="5.2381432056427002e-01" nType="0">
          <Node pos="l" depth="2" NCoef="0" IVar="8" Cut="-1.5554872751235962e+00" cType="1" res="1.0365213267505169e-02" rms="3.1554704904556274e-01" purity="5.6594687700271606e-01" nType="0">
            <Node pos="l" depth="3" NCoef="0" IVar="-1" Cut="0.0000000000000000e+00" cType="1" res="-4.9093142151832581e-02" rms="2.4547097086906433e-01" purity="1.3305194675922394e-01" nType="-99"/>
            <Node pos="r" depth="3" NCoef="0" IVar="-1" Cut="0.0000000000000000e+00" cType="1" res="1.3488166965544224e-02" rms="3.2037997245788574e-01" purity="6.0265916585922241e-01" nType="-99"/>
          </Node>
          <Node pos="r" depth="2" NCoef="0" IVar="2" Cut="4.0254299926757812e+02" cType="1" res="-2.9028870165348053e-02" rms="2.9939571022987366e-01" purity="3.0914017558097839e-01" nType="0">
            <Node pos="l" depth="3" NCoef="0" IVar="-1" Cut="0.0000000000000000e+00" cType="1" res="-1.0666695423424244e-02" rms="2.9193350672721863e-01" purity="2.9503291845321655e-01" nType="-99"/>
            <Node pos="r" depth="3" NCoef="0" IVar="-1" Cut="0.0000000000000000e+00" cType="1" res="-5.8649260550737381e-02" rms="3.1070357561111450e-01" purity="3.3843052387237549e-01" nType="-99"/>
          </Node>
        </Node>
        <Node pos="r" depth="1" NCoef="0" IVar="3" Cut="2.1237492370605469e+02" cType="1" res="-4.7257810831069946e-02" rms="2.8843989968299866e-01" purity="2.0147934556007385e-01" nType="0">
          <Node pos="l" depth="2" NCoef="0" IVar="5" Cut="6.2413970947265625e+01" cType="1" res="-1.9711684435606003e-02" rms="2.4277339875698090e-01" purity="1.2255612760782242e-01" nType="0">
            <Node pos="l" depth="3" NCoef="0" IVar="-1" Cut="0.0000000000000000e+00" cType="1" res="-5.5400770157575607e-02" rms="1.7307244241237640e-01" purity="3.1568419188261032e-02" nType="-99"/>
            <Node pos="r" depth="3" NCoef="0" IVar="-1" Cut="0.0000000000000000e+00" cType="1" res="-9.9873272702097893e-03" rms="2.9484209418296814e-01" purity="2.1095883846282959e-01" nType="-99"/>
          </Node>
          <Node pos="r" depth="2" NCoef="0" IVar="-1" Cut="0.0000000000000000e+00" cType="1" res="-6.8157278001308441e-02" rms="3.4128072857856750e-01" purity="3.1886965036392212e-01" nType="-99"/>
        </Node>
      </Node>
    </BinaryTree>
    <BinaryTree type="DecisionTree" boostWeight="1.0000000000000000e+00" itree="31">
      <Node pos="s" depth="0" NCoef="0" IVar="7" Cut="-6.1250317096710205e-01" cType="1" res="1.9794558174908161e-03" rms="3.0800336599349976e-01" purity="5.0306701660156250e-01" nType="0">
        <Node pos="l" depth="1" NCoef="0" IVar="2" Cut="3.0075634765625000e+02" cType="1" res="-2.2493053227663040e-02" rms="3.0225005745887756e-01" purity="3.4513625502586365e-01" nType="0">
          <Node pos="l" depth="2" NCoef="0" IVar="0" Cut="1.1658398437500000e+03" cType="1" res="6.2415343709290028e-03" rms="2.9272902011871338e-01" purity="2.8925928473472595e-01" nType="0">
            <Node pos="l" depth="3" NCoef="0" IVar="-1" Cut="0.0000000000000000e+00" cType="1" res="-4.2500536888837814e-02" rms="1.9649277627468109e-01" purity="4.4970929622650146e-02" nType="-99"/>
            <Node pos="r" depth="3" NCoef="0" IVar="-1" Cut="0.0000000000000000e+00" cType="1" res="2.9994510114192963e-02" rms="3.6999410390853882e-01" purity="5.6708949804306030e-01" nType="-99"/>
          </Node>
          <Node pos="r" depth="2" NCoef="0" IVar="8" Cut="3.9977774024009705e-01" cType="1" res="-4.0711231529712677e-02" rms="3.0674302577972412e-01" purity="3.8056313991546631e-01" nType="0">
            <Node pos="l" depth="3" NCoef="0" IVar="-1" Cut="0.0000000000000000e+00" cType="1" res="-2.4673616513609886e-02" rms="3.1067335605621338e-01" purity="4.3158036470413208e-01" nType="-99"/>
            <Node pos="r" depth="3" NCoef="0" IVar="-1" Cut="0.0000000000000000e+00" cType="1" res="-6.8046405911445618e-02" rms="2.9711213707923889e-01" purity="2.8212183713912964e-01" nType="-99"/>
          </Node>
        </Node>
        <Node pos="r" depth="1" NCoef="0" IVar="7" Cut="6.8738853931427002e-01" cType="1" res="9.5868622884154320e-03" rms="3.0937588214874268e-01" purity="5.5216068029403687e-01" nType="0">
          <Node pos="l" depth="2" NCoef="0" IVar="4" Cut="9.6781852722167969e+01" cType="1" res="2.1804098039865494e-02" rms="3.1542593240737915e-01" purity="6.4676970243453979e-01" nType="0">
            <Node pos="l" depth="3" NCoef="0" IVar="-1" Cut="0.0000000000000000e+00" cType="1" res="-1.9871547818183899e-02" rms="2.8833791613578796e-01" purity="1.2597301602363586e-01" nType="-99"/>
            <Node pos="r" depth="3" NCoef="0" IVar="-1" Cut="0.0000000000000000e+00" cType="1" res="2.4466438218951225e-02" rms="3.1866502761840820e-01" purity="7.2118544578552246e-01" nType="-99"/>
          </Node>
          <Node pos="r" depth="2" NCoef="0" IVar="9" Cut="-1.2007192373275757e+00" cType="1" res="-2.1152189001441002e-02" rms="2.9134550690650940e-01" purity="3.1412047147750854e-01" nType="0">
            <Node pos="l" depth="3" NCoef="0" IVar="-1" Cut="0.0000000000000000e+00" cType="1" res="-8.7375827133655548e-02" rms="2.2042660415172577e-01" purity="1.0045278072357178e-01" nType="-99"/>
            <Node pos="r" depth="3" NCoef="0" IVar="-1" Cut="0.0000000000000000e+00" cType="1" res="-1.3346204534173012e-02" rms="2.9942601919174194e-01" purity="3.4487414360046387e-01" nType="-99"/>
          </Node>
        </Node>
      </Node>
    </BinaryTree>
    <BinaryTree type="DecisionTree" boostWeight="1.0000000000000000e+00" itree="32">
      <Node pos="s" depth="0" NCoef="0" IVar="2" Cut="4.9194268798828125e+02" cType="1" res="-2.3290710523724556e-03" rms="3.0822777748107910e-01" purity="4.9982184171676636e-01" nType="0">
        <Node pos="l" depth="1" NCoef="0" IVar="0" Cut="1.4918433837890625e+03" cType="1" res="4.8121521249413490e-03" rms="3.0552029609680176e-01" purity="4.7897961735725403e-01" nType="0">
          <Node pos="l" depth="2" NCoef="0" IVar="2" Cut="2.8340551757812500e+02" cType="1" res="-8.9450404047966003e-03" rms="3.1738719344139099e-01" purity="2.5428956747055054e-01" nType="0">
            <Node pos="l" depth="3" NCoef="0" IVar="-1" Cut="0.0000000000000000e+00" cType="1" res="9.2884618788957596e-03" rms="3.1818485260009766e-01" purity="2.9827365279197693e-01" nType="-99"/>
            <Node pos="r" depth="3" NCoef="0" IVar="-1" Cut="0.0000000000000000e+00" cType="1" res="-2.4361504241824150e-02" rms="3.1555533409118652e-01" purity="2.1221183240413666e-01" nType="-99"/>
          </Node>
          <Node pos="r" depth="2" NCoef="0" IVar="1" Cut="4.0305089205503464e-02" cType="1" res="2.7593446895480156e-02" rms="2.8331869840621948e-01" purity="8.5105621814727783e-01" nType="0">
            <Node pos="l" depth="3" NCoef="0" IVar="-1" Cut="0.0000000000000000e+00" cType="1" res="4.8741601407527924e-02" rms="4.0802952647209167e-01" purity="5.5292898416519165e-01" nType="-99"/>
            <Node pos="r" depth="3" NCoef="0" IVar="-1" Cut="0.0000000000000000e+00" cType="1" res="2.0280402153730392e-02" rms="2.4626639485359192e-01" purity="9.1607677936553955e-01" nType="-99"/>
          </Node>
        </Node>
        <Node pos="r" depth="1" NCoef="0" IVar="0" Cut="1.9566767578125000e+03" cType="1" res="-3.1374331563711166e-02" rms="3.1735149025917053e-01" purity="5.8459281921386719e-01" nType="0">
          <Node pos="l" depth="2" NCoef="0" IVar="1" Cut="3.3412005752325058e-02" cType="1" res="-7.9197742044925690e-02" rms="3.3566871285438538e-01" purity="2.7301537990570068e-01" nType="0">
            <Node pos="l" depth="3" NCoef="0" IVar="-1" Cut="0.0000000000000000e+00" cType="1" res="-4.4289112091064453e-02" rms="2.7259200811386108e-01" purity="1.2602083384990692e-01" nType="-99"/>
            <Node pos="r" depth="3" NCoef="0" IVar="-1" Cut="0.0000000000000000e+00" cType="1" res="-7.7693551778793335e-02" rms="4.0992391109466553e-01" purity="4.9908074736595154e-01" nType="-99"/>
          </Node>
          <Node pos="r" depth="2" NCoef="0" IVar="0" Cut="2.2017404785156250e+03" cType="1" res="6.0786539688706398e-03" rms="2.9690134525299072e-01" purity="8.2860523462295532e-01" nType="0">
            <Node pos="l" depth="3" NCoef="0" IVar="-1" Cut="0.0000000000000000e+00" cType="1" res="-2.4390783160924911e-02" rms="3.5170826315879822e-01" purity="7.3177522420883179e-01" nType="-99"/>
            <Node pos="r" depth="3" NCoef="0" IVar="-1" Cut="0.0000000000000000e+00" cType="1" res="2.4808172136545181e-02" rms="2.6596328616142273e-01" purity="8.7369257211685181e-01" nType="-99"/>
          </Node>
        </Node>
      </Node>
    </BinaryTree>
    <BinaryTree type="DecisionTree" boostWeight="1.0000000000000000e+00" itree="33">
      <Node pos="s" depth="0" NCoef="0" IVar="2" Cut="4.5449575805664062e+02" cType="1" res="-1.6761146252974868e-03" rms="3.0804511904716492e-01" purity="4.9716347455978394e-01" nType="0">
        <Node pos="l" depth="1" NCoef="0" IVar="0" Cut="1.1886036376953125e+03" cType="1" res="5.8626253157854080e-03" rms="3.0379748344421387e-01" purity="4.6866357326507568e-01" nType="0">
          <Node pos="l" depth="2" NCoef="0" IVar="2" Cut="2.6058792114257812e+02" cType="1" res="-1.7465323209762573e-02" rms="2.3671479523181915e-01" purity="8.1681221723556519e-02" nType="0">
            <Node pos="l" depth="3" NCoef="0" IVar="-1" Cut="0.0000000000000000e+00" cType="1" res="-5.5925766937434673e-03" rms="2.7026295661926270e-01" purity="1.1324289441108704e-01" nType="-99"/>
            <Node pos="r" depth="3" NCoef="0" IVar="-1" Cut="0.0000000000000000e+00" cType="1" res="-4.5034337788820267e-02" rms="2.0024347305297852e-01" purity="5.2650447934865952e-02" nType="-99"/>
          </Node>
          <Node pos="r" depth="2" NCoef="0" IVar="3" Cut="2.2495431518554688e+02" cType="1" res="1.7626425251364708e-02" rms="3.3191078901290894e-01" purity="6.6381067037582397e-01" nType="0">
            <Node pos="l" depth="3" NCoef="0" IVar="-1" Cut="0.0000000000000000e+00" cType="1" res="3.0249217525124550e-02" rms="3.4877741336822510e-01" purity="6.1933165788650513e-01" nType="-99"/>
            <Node pos="r" depth="3" NCoef="0" IVar="-1" Cut="0.0000000000000000e+00" cType="1" res="1.2144111096858978e-03" rms="3.1703415513038635e-01" purity="6.9887179136276245e-01" nType="-99"/>
          </Node>
        </Node>
        <Node pos="r" depth="1" NCoef="0" IVar="0" Cut="1.9486644287109375e+03" cType="1" res="-2.3073811084032059e-02" rms="3.1882473826408386e-01" purity="5.7805669307708740e-01" nType="0">
          <Node pos="l" depth="2" NCoef="0" IVar="2" Cut="5.9898339843750000e+02" cType="1" res="-5.1586393266916275e-02" rms="3.3474805951118469e-01" purity="3.0992585420608521e-01" nType="0">
            <Node pos="l" depth="3" NCoef="0" IVar="-1" Cut="0.0000000000000000e+00" cType="1" res="-3.0161689966917038e-02" rms="3.3967056870460510e-01" purity="3.4839794039726257e-01" nType="-99"/>
            <Node pos="r" depth="3" NCoef="0" IVar="-1" Cut="0.0000000000000000e+00" cType="1" res="-8.2920096814632416e-02" rms="3.0874413251876831e-01" purity="1.6074158251285553e-01" nType="-99"/>
          </Node>
          <Node pos="r" depth="2" NCoef="0" IVar="2" Cut="6.8475823974609375e+02" cType="1" res="4.2852298356592655e-03" rms="3.0022427439689636e-01" purity="8.3533972501754761e-01" nType="0">
            <Node pos="l" depth="3" NCoef="0" IVar="-1" Cut="0.0000000000000000e+00" cType="1" res="2.7586372569203377e-02" rms="2.6492565870285034e-01" purity="9.0139788389205933e-01" nType="-99"/>
            <Node pos="r" depth="3" NCoef="0" IVar="-1" Cut="0.0000000000000000e+00" cType="1" res="-3.2079674303531647e-02" rms="3.7220731377601624e-01" purity="6.6448730230331421e-01" nType="-99"/>
          </Node>
        </Node>
      </Node>
    </BinaryTree>
    <BinaryTree type="DecisionTree" boostWeight="1.0000000000000000e+00" itree="34">
      <Node pos="s" depth="0" NCoef="0" IVar="0" Cut="1.7444672851562500e+03" cType="1" res="-1.8374302890151739e-03" rms="3.0478230118751526e-01" purity="4.9719595909118652e-01" nType="0">
        <Node pos="l" depth="1" NCoef="0" IVar="2" Cut="4.2742352294921875e+02" cType="1" res="-9.7682252526283264e-03" rms="3.2239964604377747e-01" purity="3.3351644873619080e-01" nType="0">
          <Node pos="l" depth="2" NCoef="0" IVar="4" Cut="2.0764813232421875e+02" cType="1" res="-2.1774752531200647e-03" rms="3.2212337851524353e-01" purity="3.5668969154357910e-01" nType="0">
            <Node pos="l" depth="3" NCoef="0" IVar="-1" Cut="0.0000000000000000e+00" cType="1" res="2.4972804822027683e-03" rms="3.1727960705757141e-01" purity="3.3626782894134521e-01" nType="-99"/>
            <Node pos="r" depth="3" NCoef="0" IVar="-1" Cut="0.0000000000000000e+00" cType="1" res="-4.2158965021371841e-02" rms="3.6771276593208313e-01" purity="5.8499395847320557e-01" nType="-99"/>
          </Node>
          <Node pos="r" depth="2" NCoef="0" IVar="1" Cut="4.6218447387218475e-02" cType="1" res="-4.7288618981838226e-02" rms="3.2113707065582275e-01" purity="2.1897317469120026e-01" nType="0">
            <Node pos="l" depth="3" NCoef="0" IVar="-1" Cut="0.0000000000000000e+00" cType="1" res="-2.9734691604971886e-02" rms="2.6757875084877014e-01" purity="1.0469869524240494e-01" nType="-99"/>
            <Node pos="r" depth="3" NCoef="0" IVar="-1" Cut="0.0000000000000000e+00" cType="1" res="-5.6614190340042114e-02" rms="4.1687887907028198e-01" purity="4.8722404241561890e-01" nType="-99"/>
          </Node>
        </Node>
        <Node pos="r" depth="1" NCoef="0" IVar="2" Cut="7.0931140136718750e+02" cType="1" res="1.5826482325792313e-02" rms="2.6044306159019470e-01" purity="8.6175221204757690e-01" nType="0">
          <Node pos="l" depth="2" NCoef="0" IVar="3" Cut="2.7975558471679688e+02" cType="1" res="2.2995237261056900e-02" rms="2.4463507533073425e-01" purity="8.9455080032348633e-01" nType="0">
            <Node pos="l" depth="3" NCoef="0" IVar="-1" Cut="0.0000000000000000e+00" cType="1" res="5.3032394498586655e-02" rms="2.1751010417938232e-01" purity="9.1987556219100952e-01" nType="-99"/>
            <Node pos="r" depth="3" NCoef="0" IVar="-1" Cut="0.0000000000000000e+00" cType="1" res="1.4871259219944477e-02" rms="2.5895297527313232e-01" purity="8.7938141822814941e-01" nType="-99"/>
          </Node>
          <Node pos="r" depth="2" NCoef="0" IVar="-1" Cut="0.0000000000000000e+00" cType="1" res="-2.6776019483804703e-02" rms="3.5134264826774597e-01" purity="6.2031424045562744e-01" nType="-99"/>
        </Node>
      </Node>
    </BinaryTree>
    <BinaryTree type="DecisionTree" boostWeight="1.0000000000000000e+00" itree="35">
      <Node pos="s" depth="0" NCoef="0" IVar="0" Cut="1.4400817871093750e+03" cType="1" res="5.5746838916093111e-04" rms="3.0655738711357117e-01" purity="4.9607476592063904e-01" nType="0">
        <Node pos="l" depth="1" NCoef="0" IVar="2" Cut="2.2612179565429688e+02" cType="1" res="-1.2314231134951115e-02" rms="3.0619102716445923e-01" purity="2.0678150653839111e-01" nType="0">
          <Node pos="l" depth="2" NCoef="0" IVar="-1" Cut="0.0000000000000000e+00" cType="1" res="1.4707627706229687e-02" rms="3.0787068605422974e-01" purity="2.6556959748268127e-01" nType="-99"/>
          <Node pos="r" depth="2" NCoef="0" IVar="1" Cut="7.6347716152667999e-02" cType="1" res="-1.7259623855352402e-02" rms="3.0562487244606018e-01" purity="1.9611322879791260e-01" nType="0">
            <Node pos="l" depth="3" NCoef="0" IVar="-1" Cut="0.0000000000000000e+00" cType="1" res="-1.0910489596426487e-02" rms="2.6402893662452698e-01" purity="1.0769736766815186e-01" nType="-99"/>
            <Node pos="r" depth="3" NCoef="0" IVar="-1" Cut="0.0000000000000000e+00" cType="1" res="-2.6361346244812012e-02" rms="4.0969598293304443e-01" purity="4.7731950879096985e-01" nType="-99"/>
          </Node>
        </Node>
        <Node pos="r" depth="1" NCoef="0" IVar="1" Cut="2.0447531715035439e-02" cType="1" res="1.2476726435124874e-02" rms="3.0641442537307739e-01" purity="7.6396173238754272e-01" nType="0">
          <Node pos="l" depth="2" NCoef="0" IVar="1" Cut="9.7364922985434532e-03" cType="1" res="5.0230864435434341e-02" rms="3.6944511532783508e-01" purity="3.1721368432044983e-01" nType="0">
            <Node pos="l" depth="3" NCoef="0" IVar="-1" Cut="0.0000000000000000e+00" cType="1" res="-9.1820638626813889e-03" rms="2.9749393463134766e-01" purity="1.6895078122615814e-01" nType="-99"/>
            <Node pos="r" depth="3" NCoef="0" IVar="-1" Cut="0.0000000000000000e+00" cType="1" res="6.0257960110902786e-02" rms="4.1089156270027161e-01" purity="4.3290936946868896e-01" nType="-99"/>
          </Node>
          <Node pos="r" depth="2" NCoef="0" IVar="2" Cut="4.0267370605468750e+02" cType="1" res="6.0567976906895638e-03" rms="2.9387462139129639e-01" purity="8.3992934226989746e-01" nType="0">
            <Node pos="l" depth="3" NCoef="0" IVar="-1" Cut="0.0000000000000000e+00" cType="1" res="2.8564473614096642e-02" rms="2.6188495755195618e-01" purity="8.9623153209686279e-01" nType="-99"/>
            <Node pos="r" depth="3" NCoef="0" IVar="-1" Cut="0.0000000000000000e+00" cType="1" res="-9.9846571683883667e-03" rms="3.1860193610191345e-01" purity="7.9009312391281128e-01" nType="-99"/>
          </Node>
        </Node>
      </Node>
    </BinaryTree>
    <BinaryTree type="DecisionTree" boostWeight="1.0000000000000000e+00" itree="36">
      <Node pos="s" depth="0" NCoef="0" IVar="7" Cut="1.4689040184020996e+00" cType="1" res="1.9268806790933013e-03" rms="3.0629974603652954e-01" purity="5.0115525722503662e-01" nType="0">
        <Node pos="l" depth="1" NCoef="0" IVar="7" Cut="-9.6396303176879883e-01" cType="1" res="5.1882429979741573e-03" rms="3.1219261884689331e-01" purity="5.2803248167037964e-01" nType="0">
          <Node pos="l" depth="2" NCoef="0" IVar="8" Cut="6.6648370027542114e-01" cType="1" res="-3.0263917520642281e-02" rms="2.7101802825927734e-01" purity="2.2159543633460999e-01" nType="0">
            <Node pos="l" depth="3" NCoef="0" IVar="-1" Cut="0.0000000000000000e+00" cType="1" res="-2.0855169743299484e-02" rms="2.8368249535560608e-01" purity="2.6097655296325684e-01" nType="-99"/>
            <Node pos="r" depth="3" NCoef="0" IVar="-1" Cut="0.0000000000000000e+00" cType="1" res="-7.7120624482631683e-02" rms="2.2834271192550659e-01" purity="1.0949506610631943e-01" nType="-99"/>
          </Node>
          <Node pos="r" depth="2" NCoef="0" IVar="8" Cut="-9.3331074714660645e-01" cType="1" res="1.1450971476733685e-02" rms="3.1850436329841614e-01" purity="5.8216553926467896e-01" nType="0">
            <Node pos="l" depth="3" NCoef="0" IVar="-1" Cut="0.0000000000000000e+00" cType="1" res="-2.0186068490147591e-02" rms="3.1505453586578369e-01" purity="3.5648414492607117e-01" nType="-99"/>
            <Node pos="r" depth="3" NCoef="0" IVar="-1" Cut="0.0000000000000000e+00" cType="1" res="1.6495632007718086e-02" rms="3.1876128911972046e-01" purity="6.2344872951507568e-01" nType="-99"/>
          </Node>
        </Node>
        <Node pos="r" depth="1" NCoef="0" IVar="8" Cut="-4.0509873628616333e-01" cType="1" res="-4.5269723981618881e-02" rms="1.9670784473419189e-01" purity="1.1220154166221619e-01" nType="0">
          <Node pos="l" depth="2" NCoef="0" IVar="-1" Cut="0.0000000000000000e+00" cType="1" res="-9.4187386333942413e-02" rms="1.5723706781864166e-01" purity="6.1330173164606094e-02" nType="-99"/>
          <Node pos="r" depth="2" NCoef="0" IVar="-1" Cut="0.0000000000000000e+00" cType="1" res="-4.4069766998291016e-02" rms="2.1765045821666718e-01" purity="1.4501400291919708e-01" nType="-99"/>
        </Node>
      </Node>
    </BinaryTree>
    <BinaryTree type="DecisionTree" boostWeight="1.0000000000000000e+00" itree="37">
      <Node pos="s" depth="0" NCoef="0" IVar="7" Cut="-1.4478873014450073e+00" cType="1" res="6.7458697594702244e-04" rms="3.0167436599731445e-01" purity="5.0462055206298828e-01" nType="0">
        <Node pos="l" depth="1" NCoef="0" IVar="4" Cut="1.2447429656982422e+02" cType="1" res="-4.8902146518230438e-02" rms="2.0960812270641327e-01" purity="9.5380075275897980e-02" nType="0">
          <Node pos="l" depth="2" NCoef="0" IVar="-1" Cut="0.0000000000000000e+00" cType="1" res="-8.5077837109565735e-02" rms="9.5801211893558502e-02" purity="8.8991532102227211e-03" nType="-99"/>
          <Node pos="r" depth="2" NCoef="0" IVar="-1" Cut="0.0000000000000000e+00" cType="1" res="-6.1234250664710999e-02" rms="2.7452152967453003e-01" purity="1.7513331770896912e-01" nType="-99"/>
        </Node>
        <Node pos="r" depth="1" NCoef="0" IVar="0" Cut="1.1200546875000000e+03" cType="1" res="3.6923652514815331e-03" rms="3.0612742900848389e-01" purity="5.2953135967254639e-01" nType="0">
          <Node pos="l" depth="2" NCoef="0" IVar="0" Cut="1.0133692016601562e+03" cType="1" res="-2.2396003827452660e-02" rms="2.1209511160850525e-01" purity="5.3307056427001953e-02" nType="0">
            <Node pos="l" depth="3" NCoef="0" IVar="-1" Cut="0.0000000000000000e+00" cType="1" res="-6.7110396921634674e-02" rms="1.5965652465820312e-01" purity="2.6120252907276154e-02" nType="-99"/>
            <Node pos="r" depth="3" NCoef="0" IVar="-1" Cut="0.0000000000000000e+00" cType="1" res="-1.2074347585439682e-02" rms="2.5051751732826233e-01" purity="7.8657500445842743e-02" nType="-99"/>
          </Node>
          <Node pos="r" depth="2" NCoef="0" IVar="9" Cut="-1.7333276271820068e+00" cType="1" res="9.2012984678149223e-03" rms="3.2222649455070496e-01" purity="6.3009297847747803e-01" nType="0">
            <Node pos="l" depth="3" NCoef="0" IVar="-1" Cut="0.0000000000000000e+00" cType="1" res="-4.5920658856630325e-02" rms="3.0734336376190186e-01" purity="2.1378389000892639e-01" nType="-99"/>
            <Node pos="r" depth="3" NCoef="0" IVar="-1" Cut="0.0000000000000000e+00" cType="1" res="1.0707867331802845e-02" rms="3.2262077927589417e-01" purity="6.4908385276794434e-01" nType="-99"/>
          </Node>
        </Node>
      </Node>
    </BinaryTree>
    <BinaryTree type="DecisionTree" boostWeight="1.0000000000000000e+00" itree="38">
      <Node pos="s" depth="0" NCoef="0" IVar="9" Cut="1.9996968507766724e+00" cType="1" res="2.7715414762496948e-03" rms="3.0418998003005981e-01" purity="5.0208574533462524e-01" nType="0">
        <Node pos="l" depth="1" NCoef="0" IVar="0" Cut="1.1200546875000000e+03" cType="1" res="5.0580739043653011e-03" rms="3.0628901720046997e-01" purity="5.1729023456573486e-01" nType="0">
          <Node pos="l" depth="2" NCoef="0" IVar="0" Cut="1.0133737792968750e+03" cType="1" res="-1.9616885110735893e-02" rms="2.0669087767601013e-01" purity="5.0444435328245163e-02" nType="0">
            <Node pos="l" depth="3" NCoef="0" IVar="-1" Cut="0.0000000000000000e+00" cType="1" res="-6.5005697309970856e-02" rms="1.5267881751060486e-01" purity="2.3204769939184189e-02" nType="-99"/>
            <Node pos="r" depth="3" NCoef="0" IVar="-1" Cut="0.0000000000000000e+00" cType="1" res="-1.4377498999238014e-02" rms="2.4375246465206146e-01" purity="7.4172623455524445e-02" nType="-99"/>
          </Node>
          <Node pos="r" depth="2" NCoef="0" IVar="2" Cut="3.2335015869140625e+02" cType="1" res="1.0343730449676514e-02" rms="3.2341778278350830e-01" purity="6.1729389429092407e-01" nType="0">
            <Node pos="l" depth="3" NCoef="0" IVar="-1" Cut="0.0000000000000000e+00" cType="1" res="2.7021827176213264e-02" rms="3.3634838461875916e-01" purity="6.4683192968368530e-01" nType="-99"/>
            <Node pos="r" depth="3" NCoef="0" IVar="-1" Cut="0.0000000000000000e+00" cType="1" res="-4.8190358211286366e-04" rms="3.1626841425895691e-01" purity="6.0269278287887573e-01" nType="-99"/>
          </Node>
        </Node>
        <Node pos="r" depth="1" NCoef="0" IVar="-1" Cut="0.0000000000000000e+00" cType="1" res="-7.3817044496536255e-02" rms="2.3387221992015839e-01" purity="9.8510511219501495e-02" nType="-99"/>
      </Node>
    </BinaryTree>
    <BinaryTree type="DecisionTree" boostWeight="1.0000000000000000e+00" itree="39">
      <Node pos="s" depth="0" NCoef="0" IVar="9" Cut="1.7333195209503174e+00" cType="1" res="3.2998069655150175e-03" rms="3.0365437269210815e-01" purity="5.0388544797897339e-01" nType="0">
        <Node pos="l" depth="1" NCoef="0" IVar="2" Cut="6.3790783691406250e+02" cType="1" res="6.2419688329100609e-03" rms="3.0689713358879089e-01" purity="5.2577507495880127e-01" nType="0">
          <Node pos="l" depth="2" NCoef="0" IVar="2" Cut="2.4170744323730469e+02" cType="1" res="9.2311678454279900e-03" rms="3.0476433038711548e-01" purity="5.2078998088836670e-01" nType="0">
            <Node pos="l" depth="3" NCoef="0" IVar="-1" Cut="0.0000000000000000e+00" cType="1" res="3.7984490394592285e-02" rms="3.1723698973655701e-01" purity="3.9959454536437988e-01" nType="-99"/>
            <Node pos="r" depth="3" NCoef="0" IVar="-1" Cut="0.0000000000000000e+00" cType="1" res="4.3892911635339260e-03" rms="3.0229485034942627e-01" purity="5.4164022207260132e-01" nType="-99"/>
          </Node>
          <Node pos="r" depth="2" NCoef="0" IVar="0" Cut="2.3288649902343750e+03" cType="1" res="-3.6112569272518158e-02" rms="3.3279106020927429e-01" purity="5.9640979766845703e-01" nType="0">
            <Node pos="l" depth="3" NCoef="0" IVar="-1" Cut="0.0000000000000000e+00" cType="1" res="-5.6574031710624695e-02" rms="3.4113764762878418e-01" purity="3.8898947834968567e-01" nType="-99"/>
            <Node pos="r" depth="3" NCoef="0" IVar="-1" Cut="0.0000000000000000e+00" cType="1" res="7.7350847423076630e-03" rms="3.1762406229972839e-01" purity="8.1544965505599976e-01" nType="-99"/>
          </Node>
        </Node>
        <Node pos="r" depth="1" NCoef="0" IVar="4" Cut="1.1801012420654297e+02" cType="1" res="-4.5532945543527603e-02" rms="2.3836188018321991e-01" purity="1.4057059586048126e-01" nType="0">
          <Node pos="l" depth="2" NCoef="0" IVar="-1" Cut="0.0000000000000000e+00" cType="1" res="-4.4675994664430618e-02" rms="1.6881719231605530e-01" purity="4.4410157948732376e-02" nType="-99"/>
          <Node pos="r" depth="2" NCoef="0" IVar="-1" Cut="0.0000000000000000e+00" cType="1" res="-6.2755249440670013e-02" rms="2.9101419448852539e-01" purity="2.3933596909046173e-01" nType="-99"/>
        </Node>
      </Node>
    </BinaryTree>
    <BinaryTree type="DecisionTree" boostWeight="1.0000000000000000e+00" itree="40">
      <Node pos="s" depth="0" NCoef="0" IVar="8" Cut="1.4664039611816406e+00" cType="1" res="-1.3146747369319201e-03" rms="3.0406820774078369e-01" purity="4.9827265739440918e-01" nType="0">
        <Node pos="l" depth="1" NCoef="0" IVar="7" Cut="9.8071384429931641e-01" cType="1" res="1.2852345826104283e-03" rms="3.0900248885154724e-01" purity="5.2719902992248535e-01" nType="0">
          <Node pos="l" depth="2" NCoef="0" IVar="1" Cut="4.1835278272628784e-02" cType="1" res="5.2085868082940578e-03" rms="3.1462827324867249e-01" purity="5.7365840673446655e-01" nType="0">
            <Node pos="l" depth="3" NCoef="0" IVar="-1" Cut="0.0000000000000000e+00" cType="1" res="1.8988257274031639e-02" rms="3.1512895226478577e-01" purity="2.7521309256553650e-01" nType="-99"/>
            <Node pos="r" depth="3" NCoef="0" IVar="-1" Cut="0.0000000000000000e+00" cType="1" res="-2.4794535711407661e-03" rms="3.1409361958503723e-01" purity="7.2379738092422485e-01" nType="-99"/>
          </Node>
          <Node pos="r" depth="2" NCoef="0" IVar="2" Cut="2.9996261596679688e+02" cType="1" res="-2.3506237193942070e-02" rms="2.6944598555564880e-01" purity="2.3362457752227783e-01" nType="0">
            <Node pos="l" depth="3" NCoef="0" IVar="-1" Cut="0.0000000000000000e+00" cType="1" res="-2.7770169544965029e-03" rms="2.5685042142868042e-01" purity="2.2760678827762604e-01" nType="-99"/>
            <Node pos="r" depth="3" NCoef="0" IVar="-1" Cut="0.0000000000000000e+00" cType="1" res="-4.2583484202623367e-02" rms="2.7710488438606262e-01" purity="2.3792780935764313e-01" nType="-99"/>
          </Node>
        </Node>
        <Node pos="r" depth="1" NCoef="0" IVar="7" Cut="-5.4210685193538666e-02" cType="1" res="-3.2008249312639236e-02" rms="2.3605683445930481e-01" purity="1.5677805244922638e-01" nType="0">
          <Node pos="l" depth="2" NCoef="0" IVar="-1" Cut="0.0000000000000000e+00" cType="1" res="-7.5965590775012970e-02" rms="2.0368869602680206e-01" purity="1.2293501943349838e-01" nType="-99"/>
          <Node pos="r" depth="2" NCoef="0" IVar="-1" Cut="0.0000000000000000e+00" cType="1" res="-1.5498894266784191e-02" rms="2.5937142968177795e-01" purity="1.8623018264770508e-01" nType="-99"/>
        </Node>
      </Node>
    </BinaryTree>
    <BinaryTree type="DecisionTree" boostWeight="1.0000000000000000e+00" itree="41">
      <Node pos="s" depth="0" NCoef="0" IVar="0" Cut="2.0801359863281250e+03" cType="1" res="-3.6890307092107832e-04" rms="3.0264914035797119e-01" purity="5.0136005878448486e-01" nType="0">
        <Node pos="l" depth="1" NCoef="0" IVar="3" Cut="3.0284570312500000e+02" cType="1" res="-5.2642687223851681e-03" rms="3.1341373920440674e-01" purity="4.2647993564605713e-01" nType="0">
          <Node pos="l" depth="2" NCoef="0" IVar="0" Cut="1.5923500976562500e+03" cType="1" res="-4.6585617383243516e-05" rms="3.0753025412559509e-01" purity="4.0672671794891357e-01" nType="0">
            <Node pos="l" depth="3" NCoef="0" IVar="-1" Cut="0.0000000000000000e+00" cType="1" res="-7.6655815355479717e-03" rms="3.1447115540504456e-01" purity="2.8178501129150391e-01" nType="-99"/>
            <Node pos="r" depth="3" NCoef="0" IVar="-1" Cut="0.0000000000000000e+00" cType="1" res="2.7350397780537605e-02" rms="2.8203663229942322e-01" purity="8.1662499904632568e-01" nType="-99"/>
          </Node>
          <Node pos="r" depth="2" NCoef="0" IVar="2" Cut="4.0653454589843750e+02" cType="1" res="-4.1052781045436859e-02" rms="3.4902575612068176e-01" purity="5.6196880340576172e-01" nType="0">
            <Node pos="l" depth="3" NCoef="0" IVar="-1" Cut="0.0000000000000000e+00" cType="1" res="-1.1342393234372139e-02" rms="3.3072400093078613e-01" purity="6.7408841848373413e-01" nType="-99"/>
            <Node pos="r" depth="3" NCoef="0" IVar="-1" Cut="0.0000000000000000e+00" cType="1" res="-4.3340016156435013e-02" rms="3.5767364501953125e-01" purity="5.0065022706985474e-01" nType="-99"/>
          </Node>
        </Node>
        <Node pos="r" depth="1" NCoef="0" IVar="1" Cut="3.9194613695144653e-02" cType="1" res="2.6212485507130623e-02" rms="2.3398804664611816e-01" purity="9.0795254707336426e-01" nType="0">
          <Node pos="l" depth="2" NCoef="0" IVar="-1" Cut="0.0000000000000000e+00" cType="1" res="3.3291462808847427e-02" rms="3.5675019025802612e-01" purity="7.2057396173477173e-01" nType="-99"/>
          <Node pos="r" depth="2" NCoef="0" IVar="3" Cut="4.1316317749023438e+02" cType="1" res="1.9105872139334679e-02" rms="1.8907006084918976e-01" purity="9.5641744136810303e-01" nType="0">
            <Node pos="l" depth="3" NCoef="0" IVar="-1" Cut="0.0000000000000000e+00" cType="1" res="5.1025480031967163e-02" rms="1.6852056980133057e-01" purity="9.6699476242065430e-01" nType="-99"/>
            <Node pos="r" depth="3" NCoef="0" IVar="-1" Cut="0.0000000000000000e+00" cType="1" res="2.2144380491226912e-03" rms="2.3467867076396942e-01" purity="9.2797583341598511e-01" nType="-99"/>
          </Node>
        </Node>
      </Node>
    </BinaryTree>
    <BinaryTree type="DecisionTree" boostWeight="1.0000000000000000e+00" itree="42">
      <Node pos="s" depth="0" NCoef="0" IVar="10" Cut="1.1996562480926514e+00" cType="1" res="-7.6154008274897933e-04" rms="3.0401107668876648e-01" purity="4.9975490570068359e-01" nType="0">
        <Node pos="l" depth="1" NCoef="0" IVar="10" Cut="-1.8476551771163940e+00" cType="1" res="3.9836829528212547e-03" rms="3.0204179883003235e-01" purity="5.2501988410949707e-01" nType="0">
          <Node pos="l" depth="2" NCoef="0" IVar="5" Cut="6.8867691040039062e+01" cType="1" res="-3.4279264509677887e-02" rms="2.9485934972763062e-01" purity="2.6707670092582703e-01" nType="0">
            <Node pos="l" depth="3" NCoef="0" IVar="-1" Cut="0.0000000000000000e+00" cType="1" res="-1.6149172559380531e-02" rms="2.7426397800445557e-01" purity="1.2062970548868179e-01" nType="-99"/>
            <Node pos="r" depth="3" NCoef="0" IVar="-1" Cut="0.0000000000000000e+00" cType="1" res="-4.9511041492223740e-02" rms="3.1513923406600952e-01" purity="4.3547454476356506e-01" nType="-99"/>
          </Node>
          <Node pos="r" depth="2" NCoef="0" IVar="2" Cut="3.4597048950195312e+02" cType="1" res="7.0291925221681595e-03" rms="3.0239820480346680e-01" purity="5.4555070400238037e-01" nType="0">
            <Node pos="l" depth="3" NCoef="0" IVar="-1" Cut="0.0000000000000000e+00" cType="1" res="1.9116118550300598e-02" rms="2.9886958003044128e-01" purity="4.8840215802192688e-01" nType="-99"/>
            <Node pos="r" depth="3" NCoef="0" IVar="-1" Cut="0.0000000000000000e+00" cType="1" res="-3.8361281622201204e-03" rms="3.0526477098464966e-01" purity="5.9902328252792358e-01" nType="-99"/>
          </Node>
        </Node>
        <Node pos="r" depth="1" NCoef="0" IVar="10" Cut="2.2662115097045898e+00" cType="1" res="-2.4676337838172913e-02" rms="3.1265345215797424e-01" purity="3.7242516875267029e-01" nType="0">
          <Node pos="l" depth="2" NCoef="0" IVar="9" Cut="4.0009698271751404e-01" cType="1" res="-1.7781129106879234e-02" rms="3.1887662410736084e-01" purity="4.0639361739158630e-01" nType="0">
            <Node pos="l" depth="3" NCoef="0" IVar="-1" Cut="0.0000000000000000e+00" cType="1" res="-3.6154421977698803e-03" rms="3.1747984886169434e-01" purity="4.4939523935317993e-01" nType="-99"/>
            <Node pos="r" depth="3" NCoef="0" IVar="-1" Cut="0.0000000000000000e+00" cType="1" res="-3.7690427154302597e-02" rms="3.1977343559265137e-01" purity="3.4882691502571106e-01" nType="-99"/>
          </Node>
          <Node pos="r" depth="2" NCoef="0" IVar="-1" Cut="0.0000000000000000e+00" cType="1" res="-6.6482067108154297e-02" rms="2.7586236596107483e-01" purity="1.9820149242877960e-01" nType="-99"/>
        </Node>
      </Node>
    </BinaryTree>
    <BinaryTree type="DecisionTree" boostWeight="1.0000000000000000e+00" itree="43">
      <Node pos="s" depth="0" NCoef="0" IVar="11" Cut="1.6952279806137085e+00" cType="1" res="-3.1873394618742168e-04" rms="3.0431583523750305e-01" purity="5.0357908010482788e-01" nType="0">
        <Node pos="l" depth="1" NCoef="0" IVar="2" Cut="5.6871252441406250e+02" cType="1" res="1.5847256872802973e-03" rms="3.0371618270874023e-01" purity="5.0011843442916870e-01" nType="0">
          <Node pos="l" depth="2" NCoef="0" IVar="0" Cut="1.2592580566406250e+03" cType="1" res="5.1342342048883438e-03" rms="2.9963600635528564e-01" purity="4.9039560556411743e-01" nType="0">
            <Node pos="l" depth="3" NCoef="0" IVar="-1" Cut="0.0000000000000000e+00" cType="1" res="-1.4258082024753094e-02" rms="2.7038219571113586e-01" purity="1.1726843565702438e-01" nType="-99"/>
            <Node pos="r" depth="3" NCoef="0" IVar="-1" Cut="0.0000000000000000e+00" cType="1" res="1.3949241489171982e-02" rms="3.1452226638793945e-01" purity="7.0050477981567383e-01" nType="-99"/>
          </Node>
          <Node pos="r" depth="2" NCoef="0" IVar="0" Cut="2.3648303222656250e+03" cType="1" res="-2.6744814589619637e-02" rms="3.3314946293830872e-01" purity="5.7771903276443481e-01" nType="0">
            <Node pos="l" depth="3" NCoef="0" IVar="-1" Cut="0.0000000000000000e+00" cType="1" res="-3.6139111965894699e-02" rms="3.5586014389991760e-01" purity="4.1714981198310852e-01" nType="-99"/>
            <Node pos="r" depth="3" NCoef="0" IVar="-1" Cut="0.0000000000000000e+00" cType="1" res="5.6574195623397827e-03" rms="2.8712838888168335e-01" purity="8.5396760702133179e-01" nType="-99"/>
          </Node>
        </Node>
        <Node pos="r" depth="1" NCoef="0" IVar="-1" Cut="0.0000000000000000e+00" cType="1" res="-4.5658182352781296e-02" rms="3.1537342071533203e-01" purity="5.9188771247863770e-01" nType="-99"/>
      </Node>
    </BinaryTree>
    <BinaryTree type="DecisionTree" boostWeight="1.0000000000000000e+00" itree="44">
      <Node pos="s" depth="0" NCoef="0" IVar="8" Cut="-6.6663235425949097e-01" cType="1" res="-2.3541357368230820e-03" rms="3.0347964167594910e-01" purity="4.9517881870269775e-01" nType="0">
        <Node pos="l" depth="1" NCoef="0" IVar="7" Cut="4.2352420091629028e-01" cType="1" res="-2.0953712984919548e-02" rms="2.9414218664169312e-01" purity="3.5886758565902710e-01" nType="0">
          <Node pos="l" depth="2" NCoef="0" IVar="9" Cut="9.3231177330017090e-01" cType="1" res="-6.9365799427032471e-03" rms="3.0300852656364441e-01" purity="4.1623494029045105e-01" nType="0">
            <Node pos="l" depth="3" NCoef="0" IVar="-1" Cut="0.0000000000000000e+00" cType="1" res="-8.3717890083789825e-04" rms="3.1111156940460205e-01" purity="4.5039561390876770e-01" nType="-99"/>
            <Node pos="r" depth="3" NCoef="0" IVar="-1" Cut="0.0000000000000000e+00" cType="1" res="-4.3458811938762665e-02" rms="2.5546669960021973e-01" purity="2.4189813435077667e-01" nType="-99"/>
          </Node>
          <Node pos="r" depth="2" NCoef="0" IVar="1" Cut="3.2367177307605743e-02" cType="1" res="-5.4718948900699615e-02" rms="2.6861205697059631e-01" purity="2.2067801654338837e-01" nType="0">
            <Node pos="l" depth="3" NCoef="0" IVar="-1" Cut="0.0000000000000000e+00" cType="1" res="-4.7008793801069260e-02" rms="2.0843616127967834e-01" purity="7.8565418720245361e-02" nType="-99"/>
            <Node pos="r" depth="3" NCoef="0" IVar="-1" Cut="0.0000000000000000e+00" cType="1" res="-7.8512795269489288e-02" rms="3.3043712377548218e-01" purity="4.1289123892784119e-01" nType="-99"/>
          </Node>
        </Node>
        <Node pos="r" depth="1" NCoef="0" IVar="9" Cut="-1.1999138593673706e+00" cType="1" res="3.5304678604006767e-03" rms="3.0613937973976135e-01" purity="5.3830540180206299e-01" nType="0">
          <Node pos="l" depth="2" NCoef="0" IVar="4" Cut="1.3312855529785156e+02" cType="1" res="-3.1620733439922333e-02" rms="3.0401360988616943e-01" purity="2.9669162631034851e-01" nType="0">
            <Node pos="l" depth="3" NCoef="0" IVar="-1" Cut="0.0000000000000000e+00" cType="1" res="-2.1298497449606657e-03" rms="2.6010218262672424e-01" purity="1.4217130839824677e-01" nType="-99"/>
            <Node pos="r" depth="3" NCoef="0" IVar="-1" Cut="0.0000000000000000e+00" cType="1" res="-5.0013508647680283e-02" rms="3.4082177281379700e-01" purity="4.5655345916748047e-01" nType="-99"/>
          </Node>
          <Node pos="r" depth="2" NCoef="0" IVar="8" Cut="1.8094447851181030e+00" cType="1" res="8.1619732081890106e-03" rms="3.0611759424209595e-01" purity="5.7014036178588867e-01" nType="0">
            <Node pos="l" depth="3" NCoef="0" IVar="-1" Cut="0.0000000000000000e+00" cType="1" res="1.1206601746380329e-02" rms="3.1141066551208496e-01" purity="5.9798777103424072e-01" nType="-99"/>
            <Node pos="r" depth="3" NCoef="0" IVar="-1" Cut="0.0000000000000000e+00" cType="1" res="-7.2165578603744507e-02" rms="1.8310151994228363e-01" purity="8.4831155836582184e-02" nType="-99"/>
          </Node>
        </Node>
      </Node>
    </BinaryTree>
    <BinaryTree type="DecisionTree" boostWeight="1.0000000000000000e+00" itree="45">
      <Node pos="s" depth="0" NCoef="0" IVar="7" Cut="1.4690916538238525e+00" cType="1" res="3.5704008769243956e-04" rms="3.0133381485939026e-01" purity="5.0397348403930664e-01" nType="0">
        <Node pos="l" depth="1" NCoef="0" IVar="7" Cut="-9.6388787031173706e-01" cType="1" res="2.7664448134601116e-03" rms="3.0718454718589783e-01" purity="5.3150135278701782e-01" nType="0">
          <Node pos="l" depth="2" NCoef="0" IVar="8" Cut="1.3307462632656097e-01" cType="1" res="-2.3869477212429047e-02" rms="2.6491326093673706e-01" purity="2.2584420442581177e-01" nType="0">
            <Node pos="l" depth="3" NCoef="0" IVar="-1" Cut="0.0000000000000000e+00" cType="1" res="-7.3337424546480179e-03" rms="2.8646475076675415e-01" purity="2.6612991094589233e-01" nType="-99"/>
            <Node pos="r" depth="3" NCoef="0" IVar="-1" Cut="0.0000000000000000e+00" cType="1" res="-6.5279163420200348e-02" rms="2.2613006830215454e-01" purity="1.6516374051570892e-01" nType="-99"/>
          </Node>
          <Node pos="r" depth="2" NCoef="0" IVar="1" Cut="4.0929380804300308e-02" cType="1" res="7.3156505823135376e-03" rms="3.1360930204391479e-01" purity="5.8370518684387207e-01" nType="0">
            <Node pos="l" depth="3" NCoef="0" IVar="-1" Cut="0.0000000000000000e+00" cType="1" res="2.3388443514704704e-02" rms="3.1775948405265808e-01" purity="2.8907671570777893e-01" nType="-99"/>
            <Node pos="r" depth="3" NCoef="0" IVar="-1" Cut="0.0000000000000000e+00" cType="1" res="-7.5712124817073345e-04" rms="3.1138685345649719e-01" purity="7.1627831459045410e-01" nType="-99"/>
          </Node>
        </Node>
        <Node pos="r" depth="1" NCoef="0" IVar="3" Cut="1.8732870483398438e+02" cType="1" res="-3.5294134169816971e-02" rms="1.9174204766750336e-01" purity="9.6652083098888397e-02" nType="0">
          <Node pos="l" depth="2" NCoef="0" IVar="-1" Cut="0.0000000000000000e+00" cType="1" res="-5.9567496180534363e-02" rms="1.2663131952285767e-01" purity="2.7425782755017281e-02" nType="-99"/>
          <Node pos="r" depth="2" NCoef="0" IVar="-1" Cut="0.0000000000000000e+00" cType="1" res="-5.2769239991903305e-02" rms="2.4142973124980927e-01" purity="1.6962759196758270e-01" nType="-99"/>
        </Node>
      </Node>
    </BinaryTree>
    <BinaryTree type="DecisionTree" boostWeight="1.0000000000000000e+00" itree="46">
      <Node pos="s" depth="0" NCoef="0" IVar="8" Cut="-1.7333142757415771e+00" cType="1" res="-4.9889384536072612e-04" rms="3.0455824732780457e-01" purity="4.9964910745620728e-01" nType="0">
        <Node pos="l" depth="1" NCoef="0" IVar="9" Cut="-1.3148534297943115e-01" cType="1" res="-3.9926059544086456e-02" rms="2.0910041034221649e-01" purity="1.0159871727228165e-01" nType="0">
          <Node pos="l" depth="2" NCoef="0" IVar="-1" Cut="0.0000000000000000e+00" cType="1" res="-4.2930968105792999e-02" rms="2.1357196569442749e-01" purity="1.0748026520013809e-01" nType="-99"/>
          <Node pos="r" depth="2" NCoef="0" IVar="-1" Cut="0.0000000000000000e+00" cType="1" res="-7.0413917303085327e-02" rms="2.0369379222393036e-01" purity="9.5587357878684998e-02" nType="-99"/>
        </Node>
        <Node pos="r" depth="1" NCoef="0" IVar="8" Cut="1.5044902563095093e+00" cType="1" res="1.6181892715394497e-03" rms="3.0870801210403442e-01" purity="5.2102285623550415e-01" nType="0">
          <Node pos="l" depth="2" NCoef="0" IVar="9" Cut="1.9998052120208740e+00" cType="1" res="4.1130888275802135e-03" rms="3.1406551599502563e-01" purity="5.5297660827636719e-01" nType="0">
            <Node pos="l" depth="3" NCoef="0" IVar="-1" Cut="0.0000000000000000e+00" cType="1" res="5.5169612169265747e-03" rms="3.1622788310050964e-01" purity="5.6672590970993042e-01" nType="-99"/>
            <Node pos="r" depth="3" NCoef="0" IVar="-1" Cut="0.0000000000000000e+00" cType="1" res="-5.4221868515014648e-02" rms="2.3241947591304779e-01" purity="1.2649485468864441e-01" nType="-99"/>
          </Node>
          <Node pos="r" depth="2" NCoef="0" IVar="3" Cut="1.7012718200683594e+02" cType="1" res="-2.8586085885763168e-02" rms="2.3220638930797577e-01" purity="1.3417781889438629e-01" nType="0">
            <Node pos="l" depth="3" NCoef="0" IVar="-1" Cut="0.0000000000000000e+00" cType="1" res="8.5855750367045403e-03" rms="1.8640488386154175e-01" purity="7.2912417352199554e-02" nType="-99"/>
            <Node pos="r" depth="3" NCoef="0" IVar="-1" Cut="0.0000000000000000e+00" cType="1" res="-5.7653564959764481e-02" rms="2.5895380973815918e-01" purity="1.8053674697875977e-01" nType="-99"/>
          </Node>
        </Node>
      </Node>
    </BinaryTree>
    <BinaryTree type="DecisionTree" boostWeight="1.0000000000000000e+00" itree="47">
      <Node pos="s" depth="0" NCoef="0" IVar="10" Cut="1.9997432231903076e+00" cType="1" res="1.6720118001103401e-03" rms="3.0427742004394531e-01" purity="5.0485473871231079e-01" nType="0">
        <Node pos="l" depth="1" NCoef="0" IVar="9" Cut="1.1999874114990234e+00" cType="1" res="3.7826139014214277e-03" rms="3.0487474799156189e-01" purity="5.1875466108322144e-01" nType="0">
          <Node pos="l" depth="2" NCoef="0" IVar="2" Cut="3.4597341918945312e+02" cType="1" res="7.2594024240970612e-03" rms="3.0604743957519531e-01" purity="5.5255252122879028e-01" nType="0">
            <Node pos="l" depth="3" NCoef="0" IVar="-1" Cut="0.0000000000000000e+00" cType="1" res="1.7514873296022415e-02" rms="3.0229538679122925e-01" purity="4.9249359965324402e-01" nType="-99"/>
            <Node pos="r" depth="3" NCoef="0" IVar="-1" Cut="0.0000000000000000e+00" cType="1" res="-1.5451704384759068e-03" rms="3.0918425321578979e-01" purity="6.0759204626083374e-01" nType="-99"/>
          </Node>
          <Node pos="r" depth="2" NCoef="0" IVar="3" Cut="1.9766531372070312e+02" cType="1" res="-2.0157204940915108e-02" rms="2.9556608200073242e-01" purity="2.8603544831275940e-01" nType="0">
            <Node pos="l" depth="3" NCoef="0" IVar="-1" Cut="0.0000000000000000e+00" cType="1" res="-1.8132253899239004e-04" rms="2.4685953557491302e-01" purity="1.5614636242389679e-01" nType="-99"/>
            <Node pos="r" depth="3" NCoef="0" IVar="-1" Cut="0.0000000000000000e+00" cType="1" res="-3.4248419106006622e-02" rms="3.3620256185531616e-01" purity="4.1621035337448120e-01" nType="-99"/>
          </Node>
        </Node>
        <Node pos="r" depth="1" NCoef="0" IVar="8" Cut="1.3268633186817169e-01" cType="1" res="-3.7766765803098679e-02" rms="2.9008060693740845e-01" purity="2.4512092769145966e-01" nType="0">
          <Node pos="l" depth="2" NCoef="0" IVar="-1" Cut="0.0000000000000000e+00" cType="1" res="-2.4534687399864197e-02" rms="3.1436625123023987e-01" purity="2.7409911155700684e-01" nType="-99"/>
          <Node pos="r" depth="2" NCoef="0" IVar="-1" Cut="0.0000000000000000e+00" cType="1" res="-5.8727320283651352e-02" rms="2.6248452067375183e-01" purity="2.1580904722213745e-01" nType="-99"/>
        </Node>
      </Node>
    </BinaryTree>
    <BinaryTree type="DecisionTree" boostWeight="1.0000000000000000e+00" itree="48">
      <Node pos="s" depth="0" NCoef="0" IVar="10" Cut="-1.9999781847000122e+00" cType="1" res="1.6172542236745358e-03" rms="3.0168274044990540e-01" purity="5.0281965732574463e-01" nType="0">
        <Node pos="l" depth="1" NCoef="0" IVar="-1" Cut="0.0000000000000000e+00" cType="1" res="-4.4293444603681564e-02" rms="2.8927505016326904e-01" purity="2.4152447283267975e-01" nType="-99"/>
        <Node pos="r" depth="1" NCoef="0" IVar="7" Cut="-1.4474904537200928e+00" cType="1" res="3.6630805116146803e-03" rms="3.0209639668464661e-01" purity="5.1505422592163086e-01" nType="0">
          <Node pos="l" depth="2" NCoef="0" IVar="9" Cut="-1.3399317860603333e-01" cType="1" res="-3.3063445240259171e-02" rms="2.1117289364337921e-01" purity="9.8313957452774048e-02" nType="0">
            <Node pos="l" depth="3" NCoef="0" IVar="-1" Cut="0.0000000000000000e+00" cType="1" res="-2.1093655377626419e-02" rms="2.4074843525886536e-01" purity="1.1443289369344711e-01" nType="-99"/>
            <Node pos="r" depth="3" NCoef="0" IVar="-1" Cut="0.0000000000000000e+00" cType="1" res="-8.4599353373050690e-02" rms="1.7402057349681854e-01" purity="8.1961080431938171e-02" nType="-99"/>
          </Node>
          <Node pos="r" depth="2" NCoef="0" IVar="7" Cut="5.7497733831405640e-01" cType="1" res="5.9653506614267826e-03" rms="3.0675375461578369e-01" purity="5.4117840528488159e-01" nType="0">
            <Node pos="l" depth="3" NCoef="0" IVar="-1" Cut="0.0000000000000000e+00" cType="1" res="1.1519976891577244e-02" rms="3.1029036641120911e-01" purity="6.0734707117080688e-01" nType="-99"/>
            <Node pos="r" depth="3" NCoef="0" IVar="-1" Cut="0.0000000000000000e+00" cType="1" res="-1.0523749515414238e-02" rms="2.9624757170677185e-01" purity="3.5920518636703491e-01" nType="-99"/>
          </Node>
        </Node>
      </Node>
    </BinaryTree>
    <BinaryTree type="DecisionTree" boostWeight="1.0000000000000000e+00" itree="49">
      <Node pos="s" depth="0" NCoef="0" IVar="9" Cut="-9.3333506584167480e-01" cType="1" res="-6.4723292598500848e-04" rms="3.0372381210327148e-01" purity="4.9683672189712524e-01" nType="0">
        <Node pos="l" depth="1" NCoef="0" IVar="3" Cut="2.1153721618652344e+02" cType="1" res="-1.7525471746921539e-02" rms="3.0735650658607483e-01" purity="3.3722636103630066e-01" nType="0">
          <Node pos="l" depth="2" NCoef="0" IVar="7" Cut="1.8454594910144806e-01" cType="1" res="-1.9710663764271885e-04" rms="2.8613039851188660e-01" purity="2.1191017329692841e-01" nType="0">
            <Node pos="l" depth="3" NCoef="0" IVar="-1" Cut="0.0000000000000000e+00" cType="1" res="1.8515873700380325e-02" rms="3.0474874377250671e-01" purity="2.5195360183715820e-01" nType="-99"/>
            <Node pos="r" depth="3" NCoef="0" IVar="-1" Cut="0.0000000000000000e+00" cType="1" res="-3.9382379502058029e-02" rms="2.4913093447685242e-01" purity="1.4445553719997406e-01" nType="-99"/>
          </Node>
          <Node pos="r" depth="2" NCoef="0" IVar="9" Cut="-1.5554094314575195e+00" cType="1" res="-3.9081443101167679e-02" rms="3.3060646057128906e-01" purity="4.9311599135398865e-01" nType="0">
            <Node pos="l" depth="3" NCoef="0" IVar="-1" Cut="0.0000000000000000e+00" cType="1" res="-6.1179261654615402e-02" rms="3.1046313047409058e-01" purity="2.8844171762466431e-01" nType="-99"/>
            <Node pos="r" depth="3" NCoef="0" IVar="-1" Cut="0.0000000000000000e+00" cType="1" res="-1.8752710893750191e-02" rms="3.3896303176879883e-01" purity="5.9668987989425659e-01" nType="-99"/>
          </Node>
        </Node>
        <Node pos="r" depth="1" NCoef="0" IVar="9" Cut="4.8890948295593262e-01" cType="1" res="3.4582512453198433e-03" rms="3.0269134044647217e-01" purity="5.3566056489944458e-01" nType="0">
          <Node pos="l" depth="2" NCoef="0" IVar="8" Cut="1.1999472379684448e+00" cType="1" res="1.0293272323906422e-02" rms="3.0463287234306335e-01" purity="6.0531628131866455e-01" nType="0">
            <Node pos="l" depth="3" NCoef="0" IVar="-1" Cut="0.0000000000000000e+00" cType="1" res="1.4846332371234894e-02" rms="3.0721920728683472e-01" purity="6.4031523466110229e-01" nType="-99"/>
            <Node pos="r" depth="3" NCoef="0" IVar="-1" Cut="0.0000000000000000e+00" cType="1" res="-3.3550567924976349e-02" rms="2.7623713016510010e-01" purity="2.8202432394027710e-01" nType="-99"/>
          </Node>
          <Node pos="r" depth="2" NCoef="0" IVar="7" Cut="-3.8597044348716736e-01" cType="1" res="-6.9258590228855610e-03" rms="2.9941913485527039e-01" purity="4.2983597517013550e-01" nType="0">
            <Node pos="l" depth="3" NCoef="0" IVar="-1" Cut="0.0000000000000000e+00" cType="1" res="-3.3498901873826981e-02" rms="2.7461585402488708e-01" purity="3.2747974991798401e-01" nType="-99"/>
            <Node pos="r" depth="3" NCoef="0" IVar="-1" Cut="0.0000000000000000e+00" cType="1" res="2.2832967806607485e-03" rms="3.0848404765129089e-01" purity="4.7152245044708252e-01" nType="-99"/>
          </Node>
        </Node>
      </Node>
    </BinaryTree>
    <BinaryTree type="DecisionTree" boostWeight="1.0000000000000000e+00" itree="50">
      <Node pos="s" depth="0" NCoef="0" IVar="1" Cut="4.1802652180194855e-02" cType="1" res="-1.9301091379020363e-04" rms="3.0240368843078613e-01" purity="5.0214052200317383e-01" nType="0">
        <Node pos="l" depth="1" NCoef="0" IVar="0" Cut="1.4296667480468750e+03" cType="1" res="9.2536211013793945e-03" rms="2.8570434451103210e-01" purity="2.1569885313510895e-01" nType="0">
          <Node pos="l" depth="2" NCoef="0" IVar="0" Cut="1.2497727050781250e+03" cType="1" res="-1.8140659667551517e-03" rms="2.3183532059192657e-01" purity="7.2024099528789520e-02" nType="0">
            <Node pos="l" depth="3" NCoef="0" IVar="-1" Cut="0.0000000000000000e+00" cType="1" res="-2.3792529478669167e-02" rms="1.8427285552024841e-01" purity="3.9799060672521591e-02" nType="-99"/>
            <Node pos="r" depth="3" NCoef="0" IVar="-1" Cut="0.0000000000000000e+00" cType="1" res="2.0123377442359924e-02" rms="3.1902471184730530e-01" purity="1.5128766000270844e-01" nType="-99"/>
          </Node>
          <Node pos="r" depth="2" NCoef="0" IVar="2" Cut="4.5456207275390625e+02" cType="1" res="2.7778858318924904e-02" rms="3.5741233825683594e-01" purity="4.5618355274200439e-01" nType="0">
            <Node pos="l" depth="3" NCoef="0" IVar="-1" Cut="0.0000000000000000e+00" cType="1" res="4.4238179922103882e-02" rms="3.8100081682205200e-01" purity="5.4599595069885254e-01" nType="-99"/>
            <Node pos="r" depth="3" NCoef="0" IVar="-1" Cut="0.0000000000000000e+00" cType="1" res="1.8945793854072690e-03" rms="3.4029644727706909e-01" purity="4.0350261330604553e-01" nType="-99"/>
          </Node>
        </Node>
        <Node pos="r" depth="1" NCoef="0" IVar="0" Cut="1.5843023681640625e+03" cType="1" res="-6.8995845504105091e-03" rms="3.1354749202728271e-01" purity="7.0549786090850830e-01" nType="0">
          <Node pos="l" depth="2" NCoef="0" IVar="2" Cut="3.0335910034179688e+02" cType="1" res="-2.0430950447916985e-02" rms="3.7590980529785156e-01" purity="4.7892993688583374e-01" nType="0">
            <Node pos="l" depth="3" NCoef="0" IVar="-1" Cut="0.0000000000000000e+00" cType="1" res="7.9610210377722979e-05" rms="3.5665926337242126e-01" purity="5.0922954082489014e-01" nType="-99"/>
            <Node pos="r" depth="3" NCoef="0" IVar="-1" Cut="0.0000000000000000e+00" cType="1" res="-3.3908836543560028e-02" rms="4.0171369910240173e-01" purity="4.3227627873420715e-01" nType="-99"/>
          </Node>
          <Node pos="r" depth="2" NCoef="0" IVar="6" Cut="1.9566801071166992e+01" cType="1" res="5.5974610149860382e-03" rms="2.4140666425228119e-01" purity="9.1474711894989014e-01" nType="0">
            <Node pos="l" depth="3" NCoef="0" IVar="-1" Cut="0.0000000000000000e+00" cType="1" res="-2.2095482796430588e-02" rms="3.8904547691345215e-01" purity="7.1772563457489014e-01" nType="-99"/>
            <Node pos="r" depth="3" NCoef="0" IVar="-1" Cut="0.0000000000000000e+00" cType="1" res="2.3831048980355263e-02" rms="2.0320320129394531e-01" purity="9.5002353191375732e-01" nType="-99"/>
          </Node>
        </Node>
      </Node>
    </BinaryTree>
    <BinaryTree type="DecisionTree" boostWeight="1.0000000000000000e+00" itree="51">
      <Node pos="s" depth="0" NCoef="0" IVar="11" Cut="1.4190381765365601e+00" cType="1" res="-3.1083033536560833e-04" rms="3.0334889888763428e-01" purity="5.0315076112747192e-01" nType="0">
        <Node pos="l" depth="1" NCoef="0" IVar="1" Cut="7.8380309045314789e-02" cType="1" res="2.1048896014690399e-03" rms="3.0201068520545959e-01" purity="4.9532955884933472e-01" nType="0">
          <Node pos="l" depth="2" NCoef="0" IVar="7" Cut="-9.0016144514083862e-01" cType="1" res="8.2240430638194084e-03" rms="3.0357030034065247e-01" purity="3.2221120595932007e-01" nType="0">
            <Node pos="l" depth="3" NCoef="0" IVar="-1" Cut="0.0000000000000000e+00" cType="1" res="-1.5587336383759975e-02" rms="2.5632804632186890e-01" purity="1.6464030742645264e-01" nType="-99"/>
            <Node pos="r" depth="3" NCoef="0" IVar="-1" Cut="0.0000000000000000e+00" cType="1" res="1.3228559866547585e-02" rms="3.1509450078010559e-01" purity="3.6554253101348877e-01" nType="-99"/>
          </Node>
          <Node pos="r" depth="2" NCoef="0" IVar="0" Cut="1.7114536132812500e+03" cType="1" res="-8.2130590453743935e-03" rms="2.9907912015914917e-01" purity="7.8723692893981934e-01" nType="0">
            <Node pos="l" depth="3" NCoef="0" IVar="-1" Cut="0.0000000000000000e+00" cType="1" res="-2.0538212731480598e-02" rms="3.6717170476913452e-01" purity="6.3998931646347046e-01" nType="-99"/>
            <Node pos="r" depth="3" NCoef="0" IVar="-1" Cut="0.0000000000000000e+00" cType="1" res="2.4852391332387924e-02" rms="1.9206853210926056e-01" purity="9.5539885759353638e-01" nType="-99"/>
          </Node>
        </Node>
        <Node pos="r" depth="1" NCoef="0" IVar="3" Cut="2.3793438720703125e+02" cType="1" res="-3.8609672337770462e-02" rms="3.2141038775444031e-01" purity="6.2714856863021851e-01" nType="0">
          <Node pos="l" depth="2" NCoef="0" IVar="-1" Cut="0.0000000000000000e+00" cType="1" res="-3.0838407576084137e-02" rms="3.2461908459663391e-01" purity="5.2777421474456787e-01" nType="-99"/>
          <Node pos="r" depth="2" NCoef="0" IVar="-1" Cut="0.0000000000000000e+00" cType="1" res="-4.8009190708398819e-02" rms="3.1738644838333130e-01" purity="7.4783235788345337e-01" nType="-99"/>
        </Node>
      </Node>
    </BinaryTree>
    <BinaryTree type="DecisionTree" boostWeight="1.0000000000000000e+00" itree="52">
      <Node pos="s" depth="0" NCoef="0" IVar="9" Cut="9.3332177400588989e-01" cType="1" res="1.9002471526619047e-04" rms="3.0533093214035034e-01" purity="4.9904710054397583e-01" nType="0">
        <Node pos="l" depth="1" NCoef="0" IVar="7" Cut="1.4794583320617676e+00" cType="1" res="4.1898116469383240e-03" rms="3.0696552991867065e-01" purity="5.3648978471755981e-01" nType="0">
          <Node pos="l" depth="2" NCoef="0" IVar="1" Cut="6.2758967280387878e-02" cType="1" res="6.3819424249231815e-03" rms="3.1148499250411987e-01" purity="5.6087446212768555e-01" nType="0">
            <Node pos="l" depth="3" NCoef="0" IVar="-1" Cut="0.0000000000000000e+00" cType="1" res="1.6003925353288651e-02" rms="3.2263123989105225e-01" purity="3.3337807655334473e-01" nType="-99"/>
            <Node pos="r" depth="3" NCoef="0" IVar="-1" Cut="0.0000000000000000e+00" cType="1" res="-4.5430939644575119e-03" rms="2.9987895488739014e-01" purity="7.8200119733810425e-01" nType="-99"/>
          </Node>
          <Node pos="r" depth="2" NCoef="0" IVar="-1" Cut="0.0000000000000000e+00" cType="1" res="-5.3274273872375488e-02" rms="2.0681029558181763e-01" purity="1.0164760053157806e-01" nType="-99"/>
        </Node>
        <Node pos="r" depth="1" NCoef="0" IVar="4" Cut="1.4132519531250000e+02" cType="1" res="-1.7140205949544907e-02" rms="2.9752445220947266e-01" purity="3.3681583404541016e-01" nType="0">
          <Node pos="l" depth="2" NCoef="0" IVar="0" Cut="1.3005714111328125e+03" cType="1" res="-1.5004563611000776e-03" rms="2.6543003320693970e-01" purity="1.5717445313930511e-01" nType="0">
            <Node pos="l" depth="3" NCoef="0" IVar="-1" Cut="0.0000000000000000e+00" cType="1" res="-2.5700842961668968e-02" rms="2.2451843321323395e-01" purity="6.8105913698673248e-02" nType="-99"/>
            <Node pos="r" depth="3" NCoef="0" IVar="-1" Cut="0.0000000000000000e+00" cType="1" res="2.5678571313619614e-02" rms="3.4103092551231384e-01" purity="3.6702704429626465e-01" nType="-99"/>
          </Node>
          <Node pos="r" depth="2" NCoef="0" IVar="0" Cut="1.7339619140625000e+03" cType="1" res="-3.5101890563964844e-02" rms="3.2964730262756348e-01" purity="5.4312741756439209e-01" nType="0">
            <Node pos="l" depth="3" NCoef="0" IVar="-1" Cut="0.0000000000000000e+00" cType="1" res="-4.6519298106431961e-02" rms="3.5220429301261902e-01" purity="3.4203112125396729e-01" nType="-99"/>
            <Node pos="r" depth="3" NCoef="0" IVar="-1" Cut="0.0000000000000000e+00" cType="1" res="-8.8196704164147377e-03" rms="2.9617157578468323e-01" purity="8.0029374361038208e-01" nType="-99"/>
          </Node>
        </Node>
      </Node>
    </BinaryTree>
    <BinaryTree type="DecisionTree" boostWeight="1.0000000000000000e+00" itree="53">
      <Node pos="s" depth="0" NCoef="0" IVar="7" Cut="-8.9631134271621704e-01" cType="1" res="-1.8786452710628510e-03" rms="2.9961758852005005e-01" purity="5.0089502334594727e-01" nType="0">
        <Node pos="l" depth="1" NCoef="0" IVar="10" Cut="9.3300294876098633e-01" cType="1" res="-2.0722603425383568e-02" rms="2.5572240352630615e-01" purity="2.4036639928817749e-01" nType="0">
          <Node pos="l" depth="2" NCoef="0" IVar="10" Cut="-3.1139883399009705e-01" cType="1" res="-1.3625373132526875e-02" rms="2.5963535904884338e-01" purity="2.6324468851089478e-01" nType="0">
            <Node pos="l" depth="3" NCoef="0" IVar="-1" Cut="0.0000000000000000e+00" cType="1" res="-3.6390002816915512e-02" rms="2.4882513284683228e-01" purity="2.1481426060199738e-01" nType="-99"/>
            <Node pos="r" depth="3" NCoef="0" IVar="-1" Cut="0.0000000000000000e+00" cType="1" res="9.7316773608326912e-03" rms="2.7275365591049194e-01" purity="3.3220234513282776e-01" nType="-99"/>
          </Node>
          <Node pos="r" depth="2" NCoef="0" IVar="-1" Cut="0.0000000000000000e+00" cType="1" res="-6.4797997474670410e-02" rms="2.3764681816101074e-01" purity="1.5029788017272949e-01" nType="-99"/>
        </Node>
        <Node pos="r" depth="1" NCoef="0" IVar="8" Cut="-9.3330073356628418e-01" cType="1" res="1.6632254701107740e-03" rms="3.0703943967819214e-01" purity="5.4986345767974854e-01" nType="0">
          <Node pos="l" depth="2" NCoef="0" IVar="3" Cut="1.7830072021484375e+02" cType="1" res="-2.0252101123332977e-02" rms="2.9345548152923584e-01" purity="3.1828090548515320e-01" nType="0">
            <Node pos="l" depth="3" NCoef="0" IVar="-1" Cut="0.0000000000000000e+00" cType="1" res="1.8717139959335327e-02" rms="2.7010905742645264e-01" purity="1.6818328201770782e-01" nType="-99"/>
            <Node pos="r" depth="3" NCoef="0" IVar="-1" Cut="0.0000000000000000e+00" cType="1" res="-3.7145499140024185e-02" rms="3.0505719780921936e-01" purity="4.1032129526138306e-01" nType="-99"/>
          </Node>
          <Node pos="r" depth="2" NCoef="0" IVar="9" Cut="-1.4666928052902222e+00" cType="1" res="5.7540331035852432e-03" rms="3.0933713912963867e-01" purity="5.9309166669845581e-01" nType="0">
            <Node pos="l" depth="3" NCoef="0" IVar="-1" Cut="0.0000000000000000e+00" cType="1" res="-2.8181253001093864e-02" rms="2.9848548769950867e-01" purity="2.7083033323287964e-01" nType="-99"/>
            <Node pos="r" depth="3" NCoef="0" IVar="-1" Cut="0.0000000000000000e+00" cType="1" res="8.2740858197212219e-03" rms="3.0996993184089661e-01" purity="6.1674970388412476e-01" nType="-99"/>
          </Node>
        </Node>
      </Node>
    </BinaryTree>
    <BinaryTree type="DecisionTree" boostWeight="1.0000000000000000e+00" itree="54">
      <Node pos="s" depth="0" NCoef="0" IVar="3" Cut="2.4100643920898438e+02" cType="1" res="-1.9192154286429286e-03" rms="3.0075588822364807e-01" purity="4.9598529934883118e-01" nType="0">
        <Node pos="l" depth="1" NCoef="0" IVar="0" Cut="1.2239373779296875e+03" cType="1" res="5.5547631345689297e-03" rms="2.9810872673988342e-01" purity="3.6412361264228821e-01" nType="0">
          <Node pos="l" depth="2" NCoef="0" IVar="0" Cut="9.8171655273437500e+02" cType="1" res="-8.7268063798546791e-03" rms="2.5833991169929504e-01" purity="9.8585389554500580e-02" nType="0">
            <Node pos="l" depth="3" NCoef="0" IVar="-1" Cut="0.0000000000000000e+00" cType="1" res="-6.9348290562629700e-02" rms="1.2930992245674133e-01" purity="1.6185222193598747e-02" nType="-99"/>
            <Node pos="r" depth="3" NCoef="0" IVar="-1" Cut="0.0000000000000000e+00" cType="1" res="-4.0228264406323433e-03" rms="2.8502807021141052e-01" purity="1.2269187718629837e-01" nType="-99"/>
          </Node>
          <Node pos="r" depth="2" NCoef="0" IVar="1" Cut="6.1504758894443512e-02" cType="1" res="1.8127927556633949e-02" rms="3.2865378260612488e-01" purity="5.9789729118347168e-01" nType="0">
            <Node pos="l" depth="3" NCoef="0" IVar="-1" Cut="0.0000000000000000e+00" cType="1" res="2.6239478960633278e-02" rms="3.5211855173110962e-01" purity="3.4622865915298462e-01" nType="-99"/>
            <Node pos="r" depth="3" NCoef="0" IVar="-1" Cut="0.0000000000000000e+00" cType="1" res="3.2149478793144226e-03" rms="3.0426737666130066e-01" purity="8.3384174108505249e-01" nType="-99"/>
          </Node>
        </Node>
        <Node pos="r" depth="1" NCoef="0" IVar="0" Cut="1.5717969970703125e+03" cType="1" res="-1.2721676379442215e-02" rms="3.0421695113182068e-01" purity="6.8657064437866211e-01" nType="0">
          <Node pos="l" depth="2" NCoef="0" IVar="5" Cut="7.9256431579589844e+01" cType="1" res="-5.0256714224815369e-02" rms="3.5325637459754944e-01" purity="2.8615137934684753e-01" nType="0">
            <Node pos="l" depth="3" NCoef="0" IVar="-1" Cut="0.0000000000000000e+00" cType="1" res="-2.5583058595657349e-02" rms="3.3662754297256470e-01" purity="2.0714078843593597e-01" nType="-99"/>
            <Node pos="r" depth="3" NCoef="0" IVar="-1" Cut="0.0000000000000000e+00" cType="1" res="-6.7048631608486176e-02" rms="3.8278850913047791e-01" purity="4.5350027084350586e-01" nType="-99"/>
          </Node>
          <Node pos="r" depth="2" NCoef="0" IVar="8" Cut="6.6481524705886841e-01" cType="1" res="-1.2010483769699931e-03" rms="2.8650781512260437e-01" purity="8.0947130918502808e-01" nType="0">
            <Node pos="l" depth="3" NCoef="0" IVar="-1" Cut="0.0000000000000000e+00" cType="1" res="8.3896201103925705e-03" rms="2.7611827850341797e-01" purity="8.3816879987716675e-01" nType="-99"/>
            <Node pos="r" depth="3" NCoef="0" IVar="-1" Cut="0.0000000000000000e+00" cType="1" res="-3.5883195698261261e-02" rms="3.2511571049690247e-01" purity="6.8569564819335938e-01" nType="-99"/>
          </Node>
        </Node>
      </Node>
    </BinaryTree>
    <BinaryTree type="DecisionTree" boostWeight="1.0000000000000000e+00" itree="55">
      <Node pos="s" depth="0" NCoef="0" IVar="10" Cut="-1.2000310420989990e+00" cType="1" res="-1.0273059597238898e-03" rms="2.9990705847740173e-01" purity="5.0104850530624390e-01" nType="0">
        <Node pos="l" depth="1" NCoef="0" IVar="7" Cut="-3.6434911191463470e-02" cType="1" res="-1.9589887931942940e-02" rms="2.9294484853744507e-01" purity="3.8353344798088074e-01" nType="0">
          <Node pos="l" depth="2" NCoef="0" IVar="8" Cut="-1.3316136598587036e-01" cType="1" res="-7.3668947443366051e-03" rms="2.9416170716285706e-01" purity="3.8482087850570679e-01" nType="0">
            <Node pos="l" depth="3" NCoef="0" IVar="-1" Cut="0.0000000000000000e+00" cType="1" res="7.3914211243391037e-03" rms="2.9963067173957825e-01" purity="3.8889336585998535e-01" nType="-99"/>
            <Node pos="r" depth="3" NCoef="0" IVar="-1" Cut="0.0000000000000000e+00" cType="1" res="-2.7580831199884415e-02" rms="2.8648522496223450e-01" purity="3.7991166114807129e-01" nType="-99"/>
          </Node>
          <Node pos="r" depth="2" NCoef="0" IVar="4" Cut="1.4329792785644531e+02" cType="1" res="-3.5232104361057281e-02" rms="2.9063129425048828e-01" purity="3.8188591599464417e-01" nType="0">
            <Node pos="l" depth="3" NCoef="0" IVar="-1" Cut="0.0000000000000000e+00" cType="1" res="-2.4673823267221451e-02" rms="2.6607781648635864e-01" purity="1.6828404366970062e-01" nType="-99"/>
            <Node pos="r" depth="3" NCoef="0" IVar="-1" Cut="0.0000000000000000e+00" cType="1" res="-4.8547983169555664e-02" rms="3.1367182731628418e-01" purity="6.0672241449356079e-01" nType="-99"/>
          </Node>
        </Node>
        <Node pos="r" depth="1" NCoef="0" IVar="0" Cut="1.7007943115234375e+03" cType="1" res="2.5953534059226513e-03" rms="3.0111360549926758e-01" purity="5.2398258447647095e-01" nType="0">
          <Node pos="l" depth="2" NCoef="0" IVar="3" Cut="2.7129364013671875e+02" cType="1" res="-3.4838414285331964e-03" rms="3.1906202435493469e-01" purity="3.4686437249183655e-01" nType="0">
            <Node pos="l" depth="3" NCoef="0" IVar="-1" Cut="0.0000000000000000e+00" cType="1" res="2.0391240250319242e-03" rms="3.1231686472892761e-01" purity="3.4549093246459961e-01" nType="-99"/>
            <Node pos="r" depth="3" NCoef="0" IVar="-1" Cut="0.0000000000000000e+00" cType="1" res="-3.4834094345569611e-02" rms="3.6291342973709106e-01" purity="3.5713797807693481e-01" nType="-99"/>
          </Node>
          <Node pos="r" depth="2" NCoef="0" IVar="3" Cut="3.3807781982421875e+02" cType="1" res="1.4049708843231201e-02" rms="2.6361966133117676e-01" purity="8.5770702362060547e-01" nType="0">
            <Node pos="l" depth="3" NCoef="0" IVar="-1" Cut="0.0000000000000000e+00" cType="1" res="2.9193373396992683e-02" rms="2.4817092716693878e-01" purity="8.7819099426269531e-01" nType="-99"/>
            <Node pos="r" depth="3" NCoef="0" IVar="-1" Cut="0.0000000000000000e+00" cType="1" res="2.4538096113246866e-05" rms="2.8769525885581970e-01" purity="8.2251256704330444e-01" nType="-99"/>
          </Node>
        </Node>
      </Node>
    </BinaryTree>
    <BinaryTree type="DecisionTree" boostWeight="1.0000000000000000e+00" itree="56">
      <Node pos="s" depth="0" NCoef="0" IVar="2" Cut="4.9193942260742188e+02" cType="1" res="7.0153037086129189e-04" rms="2.9623305797576904e-01" purity="5.0295853614807129e-01" nType="0">
        <Node pos="l" depth="1" NCoef="0" IVar="0" Cut="1.3287207031250000e+03" cType="1" res="4.8734964802861214e-03" rms="2.9327401518821716e-01" purity="4.8284220695495605e-01" nType="0">
          <Node pos="l" depth="2" NCoef="0" IVar="2" Cut="2.5559996032714844e+02" cType="1" res="-6.9423774257302284e-03" rms="2.8301844000816345e-01" purity="1.5386526286602020e-01" nType="0">
            <Node pos="l" depth="3" NCoef="0" IVar="-1" Cut="0.0000000000000000e+00" cType="1" res="1.1377815157175064e-02" rms="2.9893511533737183e-01" purity="2.1659040451049805e-01" nType="-99"/>
            <Node pos="r" depth="3" NCoef="0" IVar="-1" Cut="0.0000000000000000e+00" cType="1" res="-2.1368561312556267e-02" rms="2.7251234650611877e-01" purity="1.1640085279941559e-01" nType="-99"/>
          </Node>
          <Node pos="r" depth="2" NCoef="0" IVar="1" Cut="4.1752744466066360e-02" cType="1" res="1.5033286996185780e-02" rms="3.0144357681274414e-01" purity="7.6571053266525269e-01" nType="0">
            <Node pos="l" depth="3" NCoef="0" IVar="-1" Cut="0.0000000000000000e+00" cType="1" res="2.9929749667644501e-02" rms="3.6563470959663391e-01" purity="4.2319065332412720e-01" nType="-99"/>
            <Node pos="r" depth="3" NCoef="0" IVar="-1" Cut="0.0000000000000000e+00" cType="1" res="7.7468222007155418e-03" rms="2.7768129110336304e-01" purity="8.7333738803863525e-01" nType="-99"/>
          </Node>
        </Node>
        <Node pos="r" depth="1" NCoef="0" IVar="0" Cut="2.2393854980468750e+03" cType="1" res="-1.6663907095789909e-02" rms="3.0763751268386841e-01" purity="5.8669096231460571e-01" nType="0">
          <Node pos="l" depth="2" NCoef="0" IVar="3" Cut="3.4389675903320312e+02" cType="1" res="-3.1741481274366379e-02" rms="3.2725352048873901e-01" purity="4.3005111813545227e-01" nType="0">
            <Node pos="l" depth="3" NCoef="0" IVar="-1" Cut="0.0000000000000000e+00" cType="1" res="-1.9531333819031715e-02" rms="3.2189053297042847e-01" purity="4.0330922603607178e-01" nType="-99"/>
            <Node pos="r" depth="3" NCoef="0" IVar="-1" Cut="0.0000000000000000e+00" cType="1" res="-4.7517854720354080e-02" rms="3.4077188372612000e-01" purity="5.0738614797592163e-01" nType="-99"/>
          </Node>
          <Node pos="r" depth="2" NCoef="0" IVar="5" Cut="1.1453373718261719e+02" cType="1" res="1.1244138702750206e-02" rms="2.6530969142913818e-01" purity="8.7662559747695923e-01" nType="0">
            <Node pos="l" depth="3" NCoef="0" IVar="-1" Cut="0.0000000000000000e+00" cType="1" res="-3.0378641095012426e-03" rms="3.3655890822410583e-01" purity="7.6994943618774414e-01" nType="-99"/>
            <Node pos="r" depth="3" NCoef="0" IVar="-1" Cut="0.0000000000000000e+00" cType="1" res="4.0322344750165939e-02" rms="1.9895294308662415e-01" purity="9.5258736610412598e-01" nType="-99"/>
          </Node>
        </Node>
      </Node>
    </BinaryTree>
    <BinaryTree type="DecisionTree" boostWeight="1.0000000000000000e+00" itree="57">
      <Node pos="s" depth="0" NCoef="0" IVar="8" Cut="-1.4665950536727905e+00" cType="1" res="1.7338917823508382e-03" rms="2.9757848381996155e-01" purity="5.0108993053436279e-01" nType="0">
        <Node pos="l" depth="1" NCoef="0" IVar="4" Cut="1.2516220092773438e+02" cType="1" res="-2.5473253801465034e-02" rms="2.3692311346530914e-01" purity="1.4805679023265839e-01" nType="0">
          <Node pos="l" depth="2" NCoef="0" IVar="-1" Cut="0.0000000000000000e+00" cType="1" res="-1.7147660255432129e-02" rms="1.6580764949321747e-01" purity="4.5522790402173996e-02" nType="-99"/>
          <Node pos="r" depth="2" NCoef="0" IVar="-1" Cut="0.0000000000000000e+00" cType="1" res="-4.3722361326217651e-02" rms="2.9171058535575867e-01" purity="2.5433662533760071e-01" nType="-99"/>
        </Node>
        <Node pos="r" depth="1" NCoef="0" IVar="8" Cut="7.6823222637176514e-01" cType="1" res="4.0263170376420021e-03" rms="3.0202153325080872e-01" purity="5.3083592653274536e-01" nType="0">
          <Node pos="l" depth="2" NCoef="0" IVar="7" Cut="1.2058007717132568e+00" cType="1" res="9.1853206977248192e-03" rms="3.0798283219337463e-01" purity="5.9073317050933838e-01" nType="0">
            <Node pos="l" depth="3" NCoef="0" IVar="-1" Cut="0.0000000000000000e+00" cType="1" res="1.1416990309953690e-02" rms="3.1209307909011841e-01" purity="6.2652611732482910e-01" nType="-99"/>
            <Node pos="r" depth="3" NCoef="0" IVar="-1" Cut="0.0000000000000000e+00" cType="1" res="-1.9394414499402046e-02" rms="2.5711041688919067e-01" purity="1.9636401534080505e-01" nType="-99"/>
          </Node>
          <Node pos="r" depth="2" NCoef="0" IVar="2" Cut="3.9459118652343750e+02" cType="1" res="-1.3133275322616100e-02" rms="2.8060424327850342e-01" purity="3.3160898089408875e-01" nType="0">
            <Node pos="l" depth="3" NCoef="0" IVar="-1" Cut="0.0000000000000000e+00" cType="1" res="-4.0624020621180534e-03" rms="2.7184915542602539e-01" purity="3.0482491850852966e-01" nType="-99"/>
            <Node pos="r" depth="3" NCoef="0" IVar="-1" Cut="0.0000000000000000e+00" cType="1" res="-3.1548820436000824e-02" rms="2.9554381966590881e-01" purity="3.8219410181045532e-01" nType="-99"/>
          </Node>
        </Node>
      </Node>
    </BinaryTree>
    <BinaryTree type="DecisionTree" boostWeight="1.0000000000000000e+00" itree="58">
      <Node pos="s" depth="0" NCoef="0" IVar="0" Cut="2.0592978515625000e+03" cType="1" res="-5.6061160285025835e-04" rms="2.9968222975730896e-01" purity="4.9820327758789062e-01" nType="0">
        <Node pos="l" depth="1" NCoef="0" IVar="2" Cut="3.6657907104492188e+02" cType="1" res="-3.4173633903264999e-03" rms="3.1012624502182007e-01" purity="4.2097911238670349e-01" nType="0">
          <Node pos="l" depth="2" NCoef="0" IVar="0" Cut="1.3996622314453125e+03" cType="1" res="5.0869686529040337e-03" rms="2.9883795976638794e-01" purity="4.2194178700447083e-01" nType="0">
            <Node pos="l" depth="3" NCoef="0" IVar="-1" Cut="0.0000000000000000e+00" cType="1" res="-3.6907549947500229e-03" rms="3.0797401070594788e-01" purity="2.0877198874950409e-01" nType="-99"/>
            <Node pos="r" depth="3" NCoef="0" IVar="-1" Cut="0.0000000000000000e+00" cType="1" res="2.5430973619222641e-02" rms="2.7873381972312927e-01" purity="8.5105913877487183e-01" nType="-99"/>
          </Node>
          <Node pos="r" depth="2" NCoef="0" IVar="6" Cut="5.6953071594238281e+01" cType="1" res="-1.7892261967062950e-02" rms="3.2794198393821716e-01" purity="4.1934061050415039e-01" nType="0">
            <Node pos="l" depth="3" NCoef="0" IVar="-1" Cut="0.0000000000000000e+00" cType="1" res="-4.3207192793488503e-03" rms="3.2731404900550842e-01" purity="2.7122375369071960e-01" nType="-99"/>
            <Node pos="r" depth="3" NCoef="0" IVar="-1" Cut="0.0000000000000000e+00" cType="1" res="-4.4413145631551743e-02" rms="3.2766708731651306e-01" purity="7.1124339103698730e-01" nType="-99"/>
          </Node>
        </Node>
        <Node pos="r" depth="1" NCoef="0" IVar="2" Cut="7.4061529541015625e+02" cType="1" res="1.4394423924386501e-02" rms="2.3707012832164764e-01" purity="9.0247005224227905e-01" nType="0">
          <Node pos="l" depth="2" NCoef="0" IVar="1" Cut="5.8577660471200943e-02" cType="1" res="1.9420400261878967e-02" rms="2.0686513185501099e-01" purity="9.3936544656753540e-01" nType="0">
            <Node pos="l" depth="3" NCoef="0" IVar="-1" Cut="0.0000000000000000e+00" cType="1" res="3.3126953989267349e-02" rms="3.1029242277145386e-01" purity="8.4804779291152954e-01" nType="-99"/>
            <Node pos="r" depth="3" NCoef="0" IVar="-1" Cut="0.0000000000000000e+00" cType="1" res="3.4315299242734909e-02" rms="1.5571145713329315e-01" purity="9.7075146436691284e-01" nType="-99"/>
          </Node>
          <Node pos="r" depth="2" NCoef="0" IVar="-1" Cut="0.0000000000000000e+00" cType="1" res="-7.8030312433838844e-03" rms="3.4707823395729065e-01" purity="7.2368514537811279e-01" nType="-99"/>
        </Node>
      </Node>
    </BinaryTree>
    <BinaryTree type="DecisionTree" boostWeight="1.0000000000000000e+00" itree="59">
      <Node pos="s" depth="0" NCoef="0" IVar="7" Cut="-6.3161301612854004e-01" cType="1" res="-5.8474077377468348e-04" rms="2.9487454891204834e-01" purity="5.0014871358871460e-01" nType="0">
        <Node pos="l" depth="1" NCoef="0" IVar="11" Cut="5.8997803926467896e-01" cType="1" res="-1.6539439558982849e-02" rms="2.8429329395294189e-01" purity="3.3128720521926880e-01" nType="0">
          <Node pos="l" depth="2" NCoef="0" IVar="8" Cut="9.3367093801498413e-01" cType="1" res="-7.3060365393757820e-03" rms="2.7722227573394775e-01" purity="3.1237912178039551e-01" nType="0">
            <Node pos="l" depth="3" NCoef="0" IVar="-1" Cut="0.0000000000000000e+00" cType="1" res="6.0013058828189969e-04" rms="2.9189655184745789e-01" purity="3.6332118511199951e-01" nType="-99"/>
            <Node pos="r" depth="3" NCoef="0" IVar="-1" Cut="0.0000000000000000e+00" cType="1" res="-7.3164768517017365e-02" rms="1.9320105016231537e-01" purity="8.0737769603729248e-02" nType="-99"/>
          </Node>
          <Node pos="r" depth="2" NCoef="0" IVar="-1" Cut="0.0000000000000000e+00" cType="1" res="-8.2423172891139984e-02" rms="3.2481795549392700e-01" purity="4.7557771205902100e-01" nType="-99"/>
        </Node>
        <Node pos="r" depth="1" NCoef="0" IVar="7" Cut="5.1193410158157349e-01" cType="1" res="4.2570256628096104e-03" rms="2.9784235358238220e-01" purity="5.5139309167861938e-01" nType="0">
          <Node pos="l" depth="2" NCoef="0" IVar="9" Cut="-1.2000031471252441e+00" cType="1" res="1.1779103428125381e-02" rms="3.0421814322471619e-01" purity="6.5480285882949829e-01" nType="0">
            <Node pos="l" depth="3" NCoef="0" IVar="-1" Cut="0.0000000000000000e+00" cType="1" res="-1.0321812704205513e-02" rms="3.1611496210098267e-01" purity="4.0418267250061035e-01" nType="-99"/>
            <Node pos="r" depth="3" NCoef="0" IVar="-1" Cut="0.0000000000000000e+00" cType="1" res="1.5247813425958157e-02" rms="3.0257970094680786e-01" purity="6.8598234653472900e-01" nType="-99"/>
          </Node>
          <Node pos="r" depth="2" NCoef="0" IVar="2" Cut="4.3541131591796875e+02" cType="1" res="-8.5664885118603706e-03" rms="2.8619083762168884e-01" purity="3.7510180473327637e-01" nType="0">
            <Node pos="l" depth="3" NCoef="0" IVar="-1" Cut="0.0000000000000000e+00" cType="1" res="-9.9111348390579224e-04" rms="2.8226292133331299e-01" purity="3.5581210255622864e-01" nType="-99"/>
            <Node pos="r" depth="3" NCoef="0" IVar="-1" Cut="0.0000000000000000e+00" cType="1" res="-3.0938094481825829e-02" rms="2.9617974162101746e-01" purity="4.3123149871826172e-01" nType="-99"/>
          </Node>
        </Node>
      </Node>
    </BinaryTree>
    <BinaryTree type="DecisionTree" boostWeight="1.0000000000000000e+00" itree="60">
      <Node pos="s" depth="0" NCoef="0" IVar="10" Cut="1.9998537302017212e+00" cType="1" res="3.8313197437673807e-03" rms="2.9920789599418640e-01" purity="5.0891333818435669e-01" nType="0">
        <Node pos="l" depth="1" NCoef="0" IVar="11" Cut="1.6951103210449219e+00" cType="1" res="5.4495101794600487e-03" rms="2.9976001381874084e-01" purity="5.2333527803421021e-01" nType="0">
          <Node pos="l" depth="2" NCoef="0" IVar="5" Cut="9.3022178649902344e+01" cType="1" res="6.9257034920156002e-03" rms="2.9933446645736694e-01" purity="5.1983451843261719e-01" nType="0">
            <Node pos="l" depth="3" NCoef="0" IVar="-1" Cut="0.0000000000000000e+00" cType="1" res="1.1991291306912899e-02" rms="3.2092416286468506e-01" purity="3.0604115128517151e-01" nType="-99"/>
            <Node pos="r" depth="3" NCoef="0" IVar="-1" Cut="0.0000000000000000e+00" cType="1" res="-2.5206960272043943e-03" rms="2.6220497488975525e-01" purity="8.5065901279449463e-01" nType="-99"/>
          </Node>
          <Node pos="r" depth="2" NCoef="0" IVar="-1" Cut="0.0000000000000000e+00" cType="1" res="-3.0252918601036072e-02" rms="3.0783623456954956e-01" purity="6.0963821411132812e-01" nType="-99"/>
        </Node>
        <Node pos="r" depth="1" NCoef="0" IVar="-1" Cut="0.0000000000000000e+00" cType="1" res="-3.4597970545291901e-02" rms="2.8603929281234741e-01" purity="2.2070500254631042e-01" nType="-99"/>
      </Node>
    </BinaryTree>
    <BinaryTree type="DecisionTree" boostWeight="1.0000000000000000e+00" itree="61">
      <Node pos="s" depth="0" NCoef="0" IVar="2" Cut="6.3790783691406250e+02" cType="1" res="9.8994001746177673e-04" rms="2.9842829704284668e-01" purity="5.0317299365997314e-01" nType="0">
        <Node pos="l" depth="1" NCoef="0" IVar="0" Cut="1.5900270996093750e+03" cType="1" res="3.6667077802121639e-03" rms="2.9583176970481873e-01" purity="4.9921065568923950e-01" nType="0">
          <Node pos="l" depth="2" NCoef="0" IVar="2" Cut="3.6680212402343750e+02" cType="1" res="-5.7447780855000019e-03" rms="3.1360498070716858e-01" purity="2.8047701716423035e-01" nType="0">
            <Node pos="l" depth="3" NCoef="0" IVar="-1" Cut="0.0000000000000000e+00" cType="1" res="2.4680509231984615e-03" rms="3.1718513369560242e-01" purity="3.1484752893447876e-01" nType="-99"/>
            <Node pos="r" depth="3" NCoef="0" IVar="-1" Cut="0.0000000000000000e+00" cType="1" res="-2.8748687356710434e-02" rms="3.0203706026077271e-01" purity="1.8323223292827606e-01" nType="-99"/>
          </Node>
          <Node pos="r" depth="2" NCoef="0" IVar="5" Cut="9.3332664489746094e+01" cType="1" res="1.9276309758424759e-02" rms="2.6298451423645020e-01" purity="8.6199551820755005e-01" nType="0">
            <Node pos="l" depth="3" NCoef="0" IVar="-1" Cut="0.0000000000000000e+00" cType="1" res="3.3839084208011627e-02" rms="3.5232785344123840e-01" purity="7.0656919479370117e-01" nType="-99"/>
            <Node pos="r" depth="3" NCoef="0" IVar="-1" Cut="0.0000000000000000e+00" cType="1" res="1.5299784019589424e-02" rms="2.1444891393184662e-01" purity="9.2642605304718018e-01" nType="-99"/>
          </Node>
        </Node>
        <Node pos="r" depth="1" NCoef="0" IVar="0" Cut="2.4267189941406250e+03" cType="1" res="-3.8487177342176437e-02" rms="3.3189097046852112e-01" purity="5.6161051988601685e-01" nType="0">
          <Node pos="l" depth="2" NCoef="0" IVar="-1" Cut="0.0000000000000000e+00" cType="1" res="-4.1019815951585770e-02" rms="3.4731203317642212e-01" purity="3.9136061072349548e-01" nType="-99"/>
          <Node pos="r" depth="2" NCoef="0" IVar="-1" Cut="0.0000000000000000e+00" cType="1" res="-1.6758400946855545e-02" rms="3.0583420395851135e-01" purity="8.1831729412078857e-01" nType="-99"/>
        </Node>
      </Node>
    </BinaryTree>
    <BinaryTree type="DecisionTree" boostWeight="1.0000000000000000e+00" itree="62">
      <Node pos="s" depth="0" NCoef="0" IVar="3" Cut="3.3299118041992188e+02" cType="1" res="2.1743138786405325e-03" rms="3.0108025670051575e-01" purity="5.0646978616714478e-01" nType="0">
        <Node pos="l" depth="1" NCoef="0" IVar="0" Cut="1.2920412597656250e+03" cType="1" res="5.7860347442328930e-03" rms="3.0076247453689575e-01" purity="4.6680301427841187e-01" nType="0">
          <Node pos="l" depth="2" NCoef="0" IVar="1" Cut="9.4825133681297302e-02" cType="1" res="-5.8029224164783955e-03" rms="2.7781698107719421e-01" purity="1.3118836283683777e-01" nType="0">
            <Node pos="l" depth="3" NCoef="0" IVar="-1" Cut="0.0000000000000000e+00" cType="1" res="-1.3658051611855626e-03" rms="2.4483890831470490e-01" purity="8.4904953837394714e-02" nType="-99"/>
            <Node pos="r" depth="3" NCoef="0" IVar="-1" Cut="0.0000000000000000e+00" cType="1" res="-1.8514290452003479e-02" rms="4.0639030933380127e-01" purity="3.6948302388191223e-01" nType="-99"/>
          </Node>
          <Node pos="r" depth="2" NCoef="0" IVar="1" Cut="6.2635421752929688e-02" cType="1" res="1.3528856448829174e-02" rms="3.1492570042610168e-01" purity="6.9103407859802246e-01" nType="0">
            <Node pos="l" depth="3" NCoef="0" IVar="-1" Cut="0.0000000000000000e+00" cType="1" res="2.3708116263151169e-02" rms="3.5689046978950500e-01" purity="4.5093452930450439e-01" nType="-99"/>
            <Node pos="r" depth="3" NCoef="0" IVar="-1" Cut="0.0000000000000000e+00" cType="1" res="-3.1051793484948575e-04" rms="2.7654656767845154e-01" purity="8.8069665431976318e-01" nType="-99"/>
          </Node>
        </Node>
        <Node pos="r" depth="1" NCoef="0" IVar="0" Cut="2.0896650390625000e+03" cType="1" res="-1.8046854063868523e-02" rms="3.0205667018890381e-01" purity="7.2855466604232788e-01" nType="0">
          <Node pos="l" depth="2" NCoef="0" IVar="5" Cut="7.9393768310546875e+01" cType="1" res="-4.1602395474910736e-02" rms="3.5048973560333252e-01" purity="5.2687978744506836e-01" nType="0">
            <Node pos="l" depth="3" NCoef="0" IVar="-1" Cut="0.0000000000000000e+00" cType="1" res="-1.0886709205806255e-02" rms="3.4815177321434021e-01" purity="3.5086894035339355e-01" nType="-99"/>
            <Node pos="r" depth="3" NCoef="0" IVar="-1" Cut="0.0000000000000000e+00" cType="1" res="-6.4352944493293762e-02" rms="3.5080912709236145e-01" purity="7.0276087522506714e-01" nType="-99"/>
          </Node>
          <Node pos="r" depth="2" NCoef="0" IVar="2" Cut="6.1473870849609375e+02" cType="1" res="3.5175346420146525e-04" rms="2.5647738575935364e-01" purity="8.8607752323150635e-01" nType="0">
            <Node pos="l" depth="3" NCoef="0" IVar="-1" Cut="0.0000000000000000e+00" cType="1" res="2.7269447222352028e-02" rms="1.9651736319065094e-01" purity="9.4978898763656616e-01" nType="-99"/>
            <Node pos="r" depth="3" NCoef="0" IVar="-1" Cut="0.0000000000000000e+00" cType="1" res="-2.0188758149743080e-02" rms="3.3168324828147888e-01" purity="7.8055280447006226e-01" nType="-99"/>
          </Node>
        </Node>
      </Node>
    </BinaryTree>
    <BinaryTree type="DecisionTree" boostWeight="1.0000000000000000e+00" itree="63">
      <Node pos="s" depth="0" NCoef="0" IVar="0" Cut="1.9836364746093750e+03" cType="1" res="3.5917857894673944e-04" rms="2.9750019311904907e-01" purity="5.0548350811004639e-01" nType="0">
        <Node pos="l" depth="1" NCoef="0" IVar="2" Cut="2.8329336547851562e+02" cType="1" res="-3.6587526556104422e-03" rms="3.1228777766227722e-01" purity="4.0667101740837097e-01" nType="0">
          <Node pos="l" depth="2" NCoef="0" IVar="0" Cut="1.0254381103515625e+03" cType="1" res="1.1867491528391838e-02" rms="2.9912036657333374e-01" purity="3.9703014492988586e-01" nType="0">
            <Node pos="l" depth="3" NCoef="0" IVar="-1" Cut="0.0000000000000000e+00" cType="1" res="-4.2966134846210480e-02" rms="1.7132720351219177e-01" purity="3.0932357534766197e-02" nType="-99"/>
            <Node pos="r" depth="3" NCoef="0" IVar="-1" Cut="0.0000000000000000e+00" cType="1" res="2.1397333592176437e-02" rms="3.3304393291473389e-01" purity="5.3046864271163940e-01" nType="-99"/>
          </Node>
          <Node pos="r" depth="2" NCoef="0" IVar="6" Cut="5.8661312103271484e+01" cType="1" res="-1.2137389741837978e-02" rms="3.1893017888069153e-01" purity="4.1193574666976929e-01" nType="0">
            <Node pos="l" depth="3" NCoef="0" IVar="-1" Cut="0.0000000000000000e+00" cType="1" res="-4.3130423873662949e-03" rms="3.2074311375617981e-01" purity="2.5348350405693054e-01" nType="-99"/>
            <Node pos="r" depth="3" NCoef="0" IVar="-1" Cut="0.0000000000000000e+00" cType="1" res="-2.7882745489478111e-02" rms="3.1472346186637878e-01" purity="7.2950357198715210e-01" nType="-99"/>
          </Node>
        </Node>
        <Node pos="r" depth="1" NCoef="0" IVar="8" Cut="-6.6635042428970337e-01" cType="1" res="1.6574911773204803e-02" rms="2.2756519913673401e-01" purity="9.0427529811859131e-01" nType="0">
          <Node pos="l" depth="2" NCoef="0" IVar="-1" Cut="0.0000000000000000e+00" cType="1" res="-1.2053832411766052e-02" rms="2.6404955983161926e-01" purity="8.3683145046234131e-01" nType="-99"/>
          <Node pos="r" depth="2" NCoef="0" IVar="1" Cut="3.9194613695144653e-02" cType="1" res="2.1522495895624161e-02" rms="2.1960422396659851e-01" purity="9.1708457469940186e-01" nType="0">
            <Node pos="l" depth="3" NCoef="0" IVar="-1" Cut="0.0000000000000000e+00" cType="1" res="3.6079261451959610e-02" rms="3.2697018980979919e-01" purity="7.5507098436355591e-01" nType="-99"/>
            <Node pos="r" depth="3" NCoef="0" IVar="-1" Cut="0.0000000000000000e+00" cType="1" res="2.9703890904784203e-02" rms="1.8126380443572998e-01" purity="9.5868146419525146e-01" nType="-99"/>
          </Node>
        </Node>
      </Node>
    </BinaryTree>
    <BinaryTree type="DecisionTree" boostWeight="1.0000000000000000e+00" itree="64">
      <Node pos="s" depth="0" NCoef="0" IVar="9" Cut="-6.6675174236297607e-01" cType="1" res="-2.7488276828080416e-03" rms="2.9646387696266174e-01" purity="4.9936306476593018e-01" nType="0">
        <Node pos="l" depth="1" NCoef="0" IVar="4" Cut="2.1464083862304688e+02" cType="1" res="-1.4813533984124660e-02" rms="2.9637497663497925e-01" purity="3.8588878512382507e-01" nType="0">
          <Node pos="l" depth="2" NCoef="0" IVar="0" Cut="1.5178894042968750e+03" cType="1" res="-7.0096468552947044e-03" rms="2.9245793819427490e-01" purity="3.2761844992637634e-01" nType="0">
            <Node pos="l" depth="3" NCoef="0" IVar="-1" Cut="0.0000000000000000e+00" cType="1" res="-1.5354530885815620e-02" rms="2.8466513752937317e-01" purity="1.8523478507995605e-01" nType="-99"/>
            <Node pos="r" depth="3" NCoef="0" IVar="-1" Cut="0.0000000000000000e+00" cType="1" res="8.6742723360657692e-03" rms="3.1034800410270691e-01" purity="6.8107247352600098e-01" nType="-99"/>
          </Node>
          <Node pos="r" depth="2" NCoef="0" IVar="-1" Cut="0.0000000000000000e+00" cType="1" res="-6.3594996929168701e-02" rms="3.1368657946586609e-01" purity="7.0832717418670654e-01" nType="-99"/>
        </Node>
        <Node pos="r" depth="1" NCoef="0" IVar="0" Cut="1.1200750732421875e+03" cType="1" res="1.6138902865350246e-03" rms="2.9637515544891357e-01" purity="5.4039651155471802e-01" nType="0">
          <Node pos="l" depth="2" NCoef="0" IVar="5" Cut="6.0897556304931641e+01" cType="1" res="-1.3233812525868416e-02" rms="2.0189186930656433e-01" purity="4.8477698117494583e-02" nType="0">
            <Node pos="l" depth="3" NCoef="0" IVar="-1" Cut="0.0000000000000000e+00" cType="1" res="-1.0504914447665215e-02" rms="1.8181237578392029e-01" purity="3.9307709783315659e-02" nType="-99"/>
            <Node pos="r" depth="3" NCoef="0" IVar="-1" Cut="0.0000000000000000e+00" cType="1" res="-3.8729373365640640e-02" rms="2.2706621885299683e-01" purity="6.1680678278207779e-02" nType="-99"/>
          </Node>
          <Node pos="r" depth="2" NCoef="0" IVar="10" Cut="-9.3336647748947144e-01" cType="1" res="4.5353248715400696e-03" rms="3.1152749061584473e-01" purity="6.3718646764755249e-01" nType="0">
            <Node pos="l" depth="3" NCoef="0" IVar="-1" Cut="0.0000000000000000e+00" cType="1" res="-1.2593568302690983e-02" rms="3.1144493818283081e-01" purity="5.5761104822158813e-01" nType="-99"/>
            <Node pos="r" depth="3" NCoef="0" IVar="-1" Cut="0.0000000000000000e+00" cType="1" res="8.6267814040184021e-03" rms="3.1140655279159546e-01" purity="6.5645253658294678e-01" nType="-99"/>
          </Node>
        </Node>
      </Node>
    </BinaryTree>
    <BinaryTree type="DecisionTree" boostWeight="1.0000000000000000e+00" itree="65">
      <Node pos="s" depth="0" NCoef="0" IVar="2" Cut="7.0899194335937500e+02" cType="1" res="-5.6028459221124649e-04" rms="2.9819393157958984e-01" purity="4.9630939960479736e-01" nType="0">
        <Node pos="l" depth="1" NCoef="0" IVar="8" Cut="-9.3330436944961548e-01" cType="1" res="1.0164591949433088e-03" rms="2.9614332318305969e-01" purity="4.9361202120780945e-01" nType="0">
          <Node pos="l" depth="2" NCoef="0" IVar="3" Cut="2.0750579833984375e+02" cType="1" res="-1.6266096383333206e-02" rms="2.8154060244560242e-01" purity="2.7480116486549377e-01" nType="0">
            <Node pos="l" depth="3" NCoef="0" IVar="-1" Cut="0.0000000000000000e+00" cType="1" res="-1.5554538695141673e-03" rms="2.5948032736778259e-01" purity="1.7606258392333984e-01" nType="-99"/>
            <Node pos="r" depth="3" NCoef="0" IVar="-1" Cut="0.0000000000000000e+00" cType="1" res="-3.6304142326116562e-02" rms="3.0834093689918518e-01" purity="4.1191914677619934e-01" nType="-99"/>
          </Node>
          <Node pos="r" depth="2" NCoef="0" IVar="8" Cut="1.1998454332351685e+00" cType="1" res="4.6513797715306282e-03" rms="2.9899677634239197e-01" purity="5.3963297605514526e-01" nType="0">
            <Node pos="l" depth="3" NCoef="0" IVar="-1" Cut="0.0000000000000000e+00" cType="1" res="8.6241131648421288e-03" rms="3.0651491880416870e-01" purity="5.9672528505325317e-01" nType="-99"/>
            <Node pos="r" depth="3" NCoef="0" IVar="-1" Cut="0.0000000000000000e+00" cType="1" res="-2.3087242618203163e-02" rms="2.4798165261745453e-01" purity="1.9640851020812988e-01" nType="-99"/>
          </Node>
        </Node>
        <Node pos="r" depth="1" NCoef="0" IVar="-1" Cut="0.0000000000000000e+00" cType="1" res="-3.2319258898496628e-02" rms="3.4481492638587952e-01" purity="5.6653070449829102e-01" nType="-99"/>
      </Node>
    </BinaryTree>
    <BinaryTree type="DecisionTree" boostWeight="1.0000000000000000e+00" itree="66">
      <Node pos="s" depth="0" NCoef="0" IVar="10" Cut="6.6657388210296631e-01" cType="1" res="-1.1855493066832423e-03" rms="2.9541307687759399e-01" purity="4.9490916728973389e-01" nType="0">
        <Node pos="l" depth="1" NCoef="0" IVar="10" Cut="-1.1492335796356201e+00" cType="1" res="4.8296726308763027e-03" rms="2.9508477449417114e-01" purity="5.2109259366989136e-01" nType="0">
          <Node pos="l" depth="2" NCoef="0" IVar="5" Cut="8.6232299804687500e+01" cType="1" res="-1.4857881702482700e-02" rms="2.9336395859718323e-01" purity="3.7800124287605286e-01" nType="0">
            <Node pos="l" depth="3" NCoef="0" IVar="-1" Cut="0.0000000000000000e+00" cType="1" res="-3.6388742737472057e-03" rms="2.8822243213653564e-01" purity="2.1088568866252899e-01" nType="-99"/>
            <Node pos="r" depth="3" NCoef="0" IVar="-1" Cut="0.0000000000000000e+00" cType="1" res="-4.1641626507043839e-02" rms="3.0195647478103638e-01" purity="7.0877784490585327e-01" nType="-99"/>
          </Node>
          <Node pos="r" depth="2" NCoef="0" IVar="2" Cut="4.5778369140625000e+02" cType="1" res="1.1490030214190483e-02" rms="2.9536774754524231e-01" purity="5.6950074434280396e-01" nType="0">
            <Node pos="l" depth="3" NCoef="0" IVar="-1" Cut="0.0000000000000000e+00" cType="1" res="1.7217166721820831e-02" rms="2.9408738017082214e-01" purity="5.4315799474716187e-01" nType="-99"/>
            <Node pos="r" depth="3" NCoef="0" IVar="-1" Cut="0.0000000000000000e+00" cType="1" res="-1.3974690227769315e-04" rms="2.9856985807418823e-01" purity="6.4230972528457642e-01" nType="-99"/>
          </Node>
        </Node>
        <Node pos="r" depth="1" NCoef="0" IVar="7" Cut="-5.6440430879592896e-01" cType="1" res="-1.5632450580596924e-02" rms="2.9570060968399048e-01" purity="4.3202391266822815e-01" nType="0">
          <Node pos="l" depth="2" NCoef="0" IVar="5" Cut="6.4013351440429688e+01" cType="1" res="-3.6681525409221649e-02" rms="2.7589085698127747e-01" purity="2.6641479134559631e-01" nType="0">
            <Node pos="l" depth="3" NCoef="0" IVar="-1" Cut="0.0000000000000000e+00" cType="1" res="-2.4336788803339005e-02" rms="2.0332837104797363e-01" purity="8.9405752718448639e-02" nType="-99"/>
            <Node pos="r" depth="3" NCoef="0" IVar="-1" Cut="0.0000000000000000e+00" cType="1" res="-5.2087202668190002e-02" rms="3.1282699108123779e-01" purity="3.7970051169395447e-01" nType="-99"/>
          </Node>
          <Node pos="r" depth="2" NCoef="0" IVar="7" Cut="1.1966335773468018e+00" cType="1" res="-9.3658762052655220e-03" rms="3.0106261372566223e-01" purity="4.8132780194282532e-01" nType="0">
            <Node pos="l" depth="3" NCoef="0" IVar="-1" Cut="0.0000000000000000e+00" cType="1" res="-4.6973614953458309e-03" rms="3.1762447953224182e-01" purity="5.5748605728149414e-01" nType="-99"/>
            <Node pos="r" depth="3" NCoef="0" IVar="-1" Cut="0.0000000000000000e+00" cType="1" res="-4.9893498420715332e-02" rms="2.0360098779201508e-01" purity="1.2017058581113815e-01" nType="-99"/>
          </Node>
        </Node>
      </Node>
    </BinaryTree>
    <BinaryTree type="DecisionTree" boostWeight="1.0000000000000000e+00" itree="67">
      <Node pos="s" depth="0" NCoef="0" IVar="2" Cut="4.5449575805664062e+02" cType="1" res="-6.0999079141765833e-04" rms="2.9667800664901733e-01" purity="5.0014650821685791e-01" nType="0">
        <Node pos="l" depth="1" NCoef="0" IVar="0" Cut="1.5766031494140625e+03" cType="1" res="4.4573019258677959e-03" rms="2.9484722018241882e-01" purity="4.7206380963325500e-01" nType="0">
          <Node pos="l" depth="2" NCoef="0" IVar="4" Cut="1.6660099792480469e+02" cType="1" res="-1.6117361374199390e-03" rms="3.1649422645568848e-01" purity="2.9011285305023193e-01" nType="0">
            <Node pos="l" depth="3" NCoef="0" IVar="-1" Cut="0.0000000000000000e+00" cType="1" res="7.6235742308199406e-03" rms="3.0058509111404419e-01" purity="2.3754285275936127e-01" nType="-99"/>
            <Node pos="r" depth="3" NCoef="0" IVar="-1" Cut="0.0000000000000000e+00" cType="1" res="-2.5610614567995071e-02" rms="3.7046590447425842e-01" purity="4.9597388505935669e-01" nType="-99"/>
          </Node>
          <Node pos="r" depth="2" NCoef="0" IVar="5" Cut="9.0225288391113281e+01" cType="1" res="1.8905252218246460e-02" rms="2.3480688035488129e-01" purity="9.0521639585494995e-01" nType="0">
            <Node pos="l" depth="3" NCoef="0" IVar="-1" Cut="0.0000000000000000e+00" cType="1" res="4.1974969208240509e-02" rms="3.1823095679283142e-01" purity="7.9318577051162720e-01" nType="-99"/>
            <Node pos="r" depth="3" NCoef="0" IVar="-1" Cut="0.0000000000000000e+00" cType="1" res="1.9028637558221817e-02" rms="2.0538979768753052e-01" purity="9.3575334548950195e-01" nType="-99"/>
          </Node>
        </Node>
        <Node pos="r" depth="1" NCoef="0" IVar="0" Cut="1.6548829345703125e+03" cType="1" res="-1.5183714218437672e-02" rms="3.0140703916549683e-01" purity="5.8091342449188232e-01" nType="0">
          <Node pos="l" depth="2" NCoef="0" IVar="1" Cut="1.5461075119674206e-02" cType="1" res="-4.5062620192766190e-02" rms="2.8015613555908203e-01" purity="1.2253651022911072e-01" nType="0">
            <Node pos="l" depth="3" NCoef="0" IVar="-1" Cut="0.0000000000000000e+00" cType="1" res="-3.4810189157724380e-02" rms="1.6037818789482117e-01" purity="3.0877346172928810e-02" nType="-99"/>
            <Node pos="r" depth="3" NCoef="0" IVar="-1" Cut="0.0000000000000000e+00" cType="1" res="-5.1675282418727875e-02" rms="3.4148111939430237e-01" purity="1.9095633924007416e-01" nType="-99"/>
          </Node>
          <Node pos="r" depth="2" NCoef="0" IVar="0" Cut="2.2031159667968750e+03" cType="1" res="-4.2569949291646481e-03" rms="3.0809077620506287e-01" purity="7.4854195117950439e-01" nType="0">
            <Node pos="l" depth="3" NCoef="0" IVar="-1" Cut="0.0000000000000000e+00" cType="1" res="-1.2701117433607578e-02" rms="3.4525173902511597e-01" purity="6.4069908857345581e-01" nType="-99"/>
            <Node pos="r" depth="3" NCoef="0" IVar="-1" Cut="0.0000000000000000e+00" cType="1" res="1.2767937034368515e-02" rms="2.5345739722251892e-01" purity="8.8328093290328979e-01" nType="-99"/>
          </Node>
        </Node>
      </Node>
    </BinaryTree>
    <BinaryTree type="DecisionTree" boostWeight="1.0000000000000000e+00" itree="68">
      <Node pos="s" depth="0" NCoef="0" IVar="0" Cut="1.7601090087890625e+03" cType="1" res="-1.4862635871395469e-03" rms="2.9700526595115662e-01" purity="4.9637755751609802e-01" nType="0">
        <Node pos="l" depth="1" NCoef="0" IVar="5" Cut="8.8226890563964844e+01" cType="1" res="-6.1321323737502098e-03" rms="3.1382274627685547e-01" purity="3.3829095959663391e-01" nType="0">
          <Node pos="l" depth="2" NCoef="0" IVar="2" Cut="5.0551950073242188e+02" cType="1" res="1.5793999191373587e-03" rms="3.0493375658988953e-01" purity="2.1538037061691284e-01" nType="0">
            <Node pos="l" depth="3" NCoef="0" IVar="-1" Cut="0.0000000000000000e+00" cType="1" res="5.2920249290764332e-03" rms="3.0813542008399963e-01" purity="2.2543014585971832e-01" nType="-99"/>
            <Node pos="r" depth="3" NCoef="0" IVar="-1" Cut="0.0000000000000000e+00" cType="1" res="-4.0527746081352234e-02" rms="2.6578074693679810e-01" purity="1.0882293432950974e-01" nType="-99"/>
          </Node>
          <Node pos="r" depth="2" NCoef="0" IVar="2" Cut="3.8843945312500000e+02" cType="1" res="-2.7019970118999481e-02" rms="3.3583509922027588e-01" purity="6.7121273279190063e-01" nType="0">
            <Node pos="l" depth="3" NCoef="0" IVar="-1" Cut="0.0000000000000000e+00" cType="1" res="-1.6171682626008987e-02" rms="3.2665377855300903e-01" purity="7.0281863212585449e-01" nType="-99"/>
            <Node pos="r" depth="3" NCoef="0" IVar="-1" Cut="0.0000000000000000e+00" cType="1" res="-5.3966250270605087e-02" rms="3.7212687730789185e-01" purity="5.2453339099884033e-01" nType="-99"/>
          </Node>
        </Node>
        <Node pos="r" depth="1" NCoef="0" IVar="1" Cut="2.0881164819002151e-02" cType="1" res="9.3045979738235474e-03" rms="2.5334891676902771e-01" purity="8.6356186866760254e-01" nType="0">
          <Node pos="l" depth="2" NCoef="0" IVar="-1" Cut="0.0000000000000000e+00" cType="1" res="2.1868418902158737e-02" rms="3.5954365134239197e-01" purity="4.9059528112411499e-01" nType="-99"/>
          <Node pos="r" depth="2" NCoef="0" IVar="6" Cut="9.4697036743164062e+01" cType="1" res="5.9102019295096397e-03" rms="2.3553170263767242e-01" purity="9.1291117668151855e-01" nType="0">
            <Node pos="l" depth="3" NCoef="0" IVar="-1" Cut="0.0000000000000000e+00" cType="1" res="-1.0837519075721502e-03" rms="2.8517171740531921e-01" purity="8.6558657884597778e-01" nType="-99"/>
            <Node pos="r" depth="3" NCoef="0" IVar="-1" Cut="0.0000000000000000e+00" cType="1" res="4.2429421097040176e-02" rms="1.4533841609954834e-01" purity="9.7554224729537964e-01" nType="-99"/>
          </Node>
        </Node>
      </Node>
    </BinaryTree>
    <BinaryTree type="DecisionTree" boostWeight="1.0000000000000000e+00" itree="69">
      <Node pos="s" depth="0" NCoef="0" IVar="11" Cut="-1.3428606986999512e+00" cType="1" res="8.4490695735439658e-04" rms="2.9761233925819397e-01" purity="5.0188738107681274e-01" nType="0">
        <Node pos="l" depth="1" NCoef="0" IVar="4" Cut="1.6169879150390625e+02" cType="1" res="-4.8828343860805035e-03" rms="3.0670818686485291e-01" purity="2.7132457494735718e-01" nType="0">
          <Node pos="l" depth="2" NCoef="0" IVar="0" Cut="1.3132218017578125e+03" cType="1" res="1.5489523066207767e-03" rms="2.7499550580978394e-01" purity="1.4925661683082581e-01" nType="0">
            <Node pos="l" depth="3" NCoef="0" IVar="-1" Cut="0.0000000000000000e+00" cType="1" res="-8.0526210367679596e-03" rms="2.4119335412979126e-01" purity="7.9917579889297485e-02" nType="-99"/>
            <Node pos="r" depth="3" NCoef="0" IVar="-1" Cut="0.0000000000000000e+00" cType="1" res="1.5124265104532242e-02" rms="3.4765991568565369e-01" purity="3.3068352937698364e-01" nType="-99"/>
          </Node>
          <Node pos="r" depth="2" NCoef="0" IVar="9" Cut="-9.3273466825485229e-01" cType="1" res="-1.8702637404203415e-02" rms="3.6527720093727112e-01" purity="5.3360867500305176e-01" nType="0">
            <Node pos="l" depth="3" NCoef="0" IVar="-1" Cut="0.0000000000000000e+00" cType="1" res="-5.3976900875568390e-02" rms="3.4265777468681335e-01" purity="3.3691683411598206e-01" nType="-99"/>
            <Node pos="r" depth="3" NCoef="0" IVar="-1" Cut="0.0000000000000000e+00" cType="1" res="-6.1213951557874680e-03" rms="3.6874428391456604e-01" purity="5.7314503192901611e-01" nType="-99"/>
          </Node>
        </Node>
        <Node pos="r" depth="1" NCoef="0" IVar="1" Cut="4.1814737021923065e-02" cType="1" res="7.3570157401263714e-03" rms="2.8678187727928162e-01" purity="7.6402390003204346e-01" nType="0">
          <Node pos="l" depth="2" NCoef="0" IVar="4" Cut="1.1927744293212891e+02" cType="1" res="2.6616996154189110e-02" rms="3.3476987481117249e-01" purity="4.4520834088325500e-01" nType="0">
            <Node pos="l" depth="3" NCoef="0" IVar="-1" Cut="0.0000000000000000e+00" cType="1" res="-5.4318405454978347e-04" rms="2.7488401532173157e-01" purity="1.3636623322963715e-01" nType="-99"/>
            <Node pos="r" depth="3" NCoef="0" IVar="-1" Cut="0.0000000000000000e+00" cType="1" res="2.6910899206995964e-02" rms="3.5406300425529480e-01" purity="5.6082081794738770e-01" nType="-99"/>
          </Node>
          <Node pos="r" depth="2" NCoef="0" IVar="5" Cut="7.1866775512695312e+01" cType="1" res="9.0701592853292823e-04" rms="2.6849433779716492e-01" purity="8.7079244852066040e-01" nType="0">
            <Node pos="l" depth="3" NCoef="0" IVar="-1" Cut="0.0000000000000000e+00" cType="1" res="1.9024513661861420e-02" rms="3.9392703771591187e-01" purity="5.9474551677703857e-01" nType="-99"/>
            <Node pos="r" depth="3" NCoef="0" IVar="-1" Cut="0.0000000000000000e+00" cType="1" res="-4.3972232379019260e-03" rms="2.4856485426425934e-01" purity="9.0461033582687378e-01" nType="-99"/>
          </Node>
        </Node>
      </Node>
    </BinaryTree>
    <BinaryTree type="DecisionTree" boostWeight="1.0000000000000000e+00" itree="70">
      <Node pos="s" depth="0" NCoef="0" IVar="7" Cut="6.7080944776535034e-01" cType="1" res="2.7260447386652231e-03" rms="2.9712072014808655e-01" purity="5.0242602825164795e-01" nType="0">
        <Node pos="l" depth="1" NCoef="0" IVar="7" Cut="-6.4707785844802856e-01" cType="1" res="6.0216742567718029e-03" rms="3.0117508769035339e-01" purity="5.5708789825439453e-01" nType="0">
          <Node pos="l" depth="2" NCoef="0" IVar="4" Cut="1.6214509582519531e+02" cType="1" res="-7.4774683453142643e-03" rms="2.8136599063873291e-01" purity="3.3515942096710205e-01" nType="0">
            <Node pos="l" depth="3" NCoef="0" IVar="-1" Cut="0.0000000000000000e+00" cType="1" res="4.1193068027496338e-03" rms="2.5500535964965820e-01" purity="1.7310951650142670e-01" nType="-99"/>
            <Node pos="r" depth="3" NCoef="0" IVar="-1" Cut="0.0000000000000000e+00" cType="1" res="-2.2864626720547676e-02" rms="3.1901028752326965e-01" purity="5.9952515363693237e-01" nType="-99"/>
          </Node>
          <Node pos="r" depth="2" NCoef="0" IVar="10" Cut="-1.3333472609519958e-01" cType="1" res="1.1537008918821812e-02" rms="3.0873337388038635e-01" purity="6.4776104688644409e-01" nType="0">
            <Node pos="l" depth="3" NCoef="0" IVar="-1" Cut="0.0000000000000000e+00" cType="1" res="2.3762445896863937e-02" rms="3.1927859783172607e-01" purity="6.4968901872634888e-01" nType="-99"/>
            <Node pos="r" depth="3" NCoef="0" IVar="-1" Cut="0.0000000000000000e+00" cType="1" res="1.0010630358010530e-03" rms="2.9935005307197571e-01" purity="6.4617216587066650e-01" nType="-99"/>
          </Node>
        </Node>
        <Node pos="r" depth="1" NCoef="0" IVar="8" Cut="3.9998456835746765e-01" cType="1" res="-8.7307710200548172e-03" rms="2.8227475285530090e-01" purity="3.1240150332450867e-01" nType="0">
          <Node pos="l" depth="2" NCoef="0" IVar="10" Cut="-1.3385446369647980e-01" cType="1" res="-1.9110744819045067e-02" rms="2.7480739355087280e-01" purity="3.0972260236740112e-01" nType="0">
            <Node pos="l" depth="3" NCoef="0" IVar="-1" Cut="0.0000000000000000e+00" cType="1" res="-4.2217642068862915e-02" rms="2.6727381348609924e-01" purity="2.6885470747947693e-01" nType="-99"/>
            <Node pos="r" depth="3" NCoef="0" IVar="-1" Cut="0.0000000000000000e+00" cType="1" res="-9.7956992685794830e-03" rms="2.7965655922889709e-01" purity="3.3931520581245422e-01" nType="-99"/>
          </Node>
          <Node pos="r" depth="2" NCoef="0" IVar="7" Cut="1.3800628185272217e+00" cType="1" res="6.9041070528328419e-03" rms="2.9246917366981506e-01" purity="3.1643664836883545e-01" nType="0">
            <Node pos="l" depth="3" NCoef="0" IVar="-1" Cut="0.0000000000000000e+00" cType="1" res="1.9086170941591263e-02" rms="3.2654592394828796e-01" purity="4.1230189800262451e-01" nType="-99"/>
            <Node pos="r" depth="3" NCoef="0" IVar="-1" Cut="0.0000000000000000e+00" cType="1" res="-3.2187465578317642e-02" rms="1.9366362690925598e-01" purity="1.0222975164651871e-01" nType="-99"/>
          </Node>
        </Node>
      </Node>
    </BinaryTree>
    <BinaryTree type="DecisionTree" boostWeight="1.0000000000000000e+00" itree="71">
      <Node pos="s" depth="0" NCoef="0" IVar="11" Cut="-1.0666707754135132e+00" cType="1" res="9.4607728533446789e-04" rms="2.9187449812889099e-01" purity="4.9937760829925537e-01" nType="0">
        <Node pos="l" depth="1" NCoef="0" IVar="6" Cut="6.1998222351074219e+01" cType="1" res="-4.8338510096073151e-03" rms="2.9996630549430847e-01" purity="2.9291045665740967e-01" nType="0">
          <Node pos="l" depth="2" NCoef="0" IVar="1" Cut="1.2539416551589966e-01" cType="1" res="-1.5762457624077797e-03" rms="3.0208098888397217e-01" purity="2.3152871429920197e-01" nType="0">
            <Node pos="l" depth="3" NCoef="0" IVar="-1" Cut="0.0000000000000000e+00" cType="1" res="8.9603499509394169e-04" rms="2.9169136285781860e-01" purity="1.9790765643119812e-01" nType="-99"/>
            <Node pos="r" depth="3" NCoef="0" IVar="-1" Cut="0.0000000000000000e+00" cType="1" res="-1.6882227733731270e-02" rms="3.8990572094917297e-01" purity="5.6614625453948975e-01" nType="-99"/>
          </Node>
          <Node pos="r" depth="2" NCoef="0" IVar="-1" Cut="0.0000000000000000e+00" cType="1" res="-3.6985427141189575e-02" rms="2.8190761804580688e-01" purity="7.6528698205947876e-01" nType="-99"/>
        </Node>
        <Node pos="r" depth="1" NCoef="0" IVar="2" Cut="3.1337356567382812e+02" cType="1" res="8.5186650976538658e-03" rms="2.8074046969413757e-01" purity="7.6988095045089722e-01" nType="0">
          <Node pos="l" depth="2" NCoef="0" IVar="2" Cut="2.4859172058105469e+02" cType="1" res="1.9030682742595673e-02" rms="2.9370537400245667e-01" purity="7.1846616268157959e-01" nType="0">
            <Node pos="l" depth="3" NCoef="0" IVar="-1" Cut="0.0000000000000000e+00" cType="1" res="3.4339591860771179e-02" rms="3.0440336465835571e-01" purity="6.8566000461578369e-01" nType="-99"/>
            <Node pos="r" depth="3" NCoef="0" IVar="-1" Cut="0.0000000000000000e+00" cType="1" res="7.9125873744487762e-03" rms="2.8599843382835388e-01" purity="7.3951685428619385e-01" nType="-99"/>
          </Node>
          <Node pos="r" depth="2" NCoef="0" IVar="0" Cut="1.4709639892578125e+03" cType="1" res="2.7709947898983955e-03" rms="2.7322080731391907e-01" purity="7.9799318313598633e-01" nType="0">
            <Node pos="l" depth="3" NCoef="0" IVar="-1" Cut="0.0000000000000000e+00" cType="1" res="-2.9910365119576454e-02" rms="3.5591578483581543e-01" purity="3.1151282787322998e-01" nType="-99"/>
            <Node pos="r" depth="3" NCoef="0" IVar="-1" Cut="0.0000000000000000e+00" cType="1" res="1.2211907655000687e-02" rms="2.5812444090843201e-01" purity="8.7024497985839844e-01" nType="-99"/>
          </Node>
        </Node>
      </Node>
    </BinaryTree>
    <BinaryTree type="DecisionTree" boostWeight="1.0000000000000000e+00" itree="72">
      <Node pos="s" depth="0" NCoef="0" IVar="2" Cut="6.9907183837890625e+02" cType="1" res="-1.2636809515242931e-05" rms="2.9527047276496887e-01" purity="5.0077503919601440e-01" nType="0">
        <Node pos="l" depth="1" NCoef="0" IVar="1" Cut="6.1505258083343506e-02" cType="1" res="1.4449818991124630e-03" rms="2.9321911931037903e-01" purity="4.9679905176162720e-01" nType="0">
          <Node pos="l" depth="2" NCoef="0" IVar="0" Cut="1.2754624023437500e+03" cType="1" res="8.2372836768627167e-03" rms="2.8737977147102356e-01" purity="2.6746183633804321e-01" nType="0">
            <Node pos="l" depth="3" NCoef="0" IVar="-1" Cut="0.0000000000000000e+00" cType="1" res="-1.1552996002137661e-02" rms="2.0815718173980713e-01" purity="5.4468199610710144e-02" nType="-99"/>
            <Node pos="r" depth="3" NCoef="0" IVar="-1" Cut="0.0000000000000000e+00" cType="1" res="1.6831725835800171e-02" rms="3.4333813190460205e-01" purity="4.6077749133110046e-01" nType="-99"/>
          </Node>
          <Node pos="r" depth="2" NCoef="0" IVar="0" Cut="1.6227027587890625e+03" cType="1" res="-6.1972560361027718e-03" rms="2.9946902394294739e-01" purity="7.5483381748199463e-01" nType="0">
            <Node pos="l" depth="3" NCoef="0" IVar="-1" Cut="0.0000000000000000e+00" cType="1" res="-1.3021660968661308e-02" rms="3.6895301938056946e-01" purity="5.6706637144088745e-01" nType="-99"/>
            <Node pos="r" depth="3" NCoef="0" IVar="-1" Cut="0.0000000000000000e+00" cType="1" res="9.8072774708271027e-03" rms="2.0806264877319336e-01" purity="9.4139420986175537e-01" nType="-99"/>
          </Node>
        </Node>
        <Node pos="r" depth="1" NCoef="0" IVar="-1" Cut="0.0000000000000000e+00" cType="1" res="-2.6193207129836082e-02" rms="3.3637034893035889e-01" purity="5.8995318412780762e-01" nType="-99"/>
      </Node>
    </BinaryTree>
    <BinaryTree type="DecisionTree" boostWeight="1.0000000000000000e+00" itree="73">
      <Node pos="s" depth="0" NCoef="0" IVar="5" Cut="8.8200088500976562e+01" cType="1" res="4.3613841990008950e-04" rms="2.9844060540199280e-01" purity="4.9694305658340454e-01" nType="0">
        <Node pos="l" depth="1" NCoef="0" IVar="2" Cut="6.3791400146484375e+02" cType="1" res="6.4978725276887417e-03" rms="3.1273370981216431e-01" purity="2.7557274699211121e-01" nType="0">
          <Node pos="l" depth="2" NCoef="0" IVar="0" Cut="1.2118387451171875e+03" cType="1" res="8.9669246226549149e-03" rms="3.1008970737457275e-01" purity="2.7150040864944458e-01" nType="0">
            <Node pos="l" depth="3" NCoef="0" IVar="-1" Cut="0.0000000000000000e+00" cType="1" res="-8.5708126425743103e-03" rms="2.3723705112934113e-01" purity="8.0834850668907166e-02" nType="-99"/>
            <Node pos="r" depth="3" NCoef="0" IVar="-1" Cut="0.0000000000000000e+00" cType="1" res="1.6590941697359085e-02" rms="3.6177733540534973e-01" purity="4.3916162848472595e-01" nType="-99"/>
          </Node>
          <Node pos="r" depth="2" NCoef="0" IVar="-1" Cut="0.0000000000000000e+00" cType="1" res="-2.4797974154353142e-02" rms="3.5118186473846436e-01" purity="3.4309285879135132e-01" nType="-99"/>
        </Node>
        <Node pos="r" depth="1" NCoef="0" IVar="6" Cut="7.8914199829101562e+01" cType="1" res="-8.1344451755285263e-03" rms="2.7674955129623413e-01" purity="8.0993479490280151e-01" nType="0">
          <Node pos="l" depth="2" NCoef="0" IVar="0" Cut="1.9716335449218750e+03" cType="1" res="-2.3472510278224945e-02" rms="3.3496001362800598e-01" purity="6.6788142919540405e-01" nType="0">
            <Node pos="l" depth="3" NCoef="0" IVar="-1" Cut="0.0000000000000000e+00" cType="1" res="-2.6037963107228279e-02" rms="3.5079231858253479e-01" purity="5.9511762857437134e-01" nType="-99"/>
            <Node pos="r" depth="3" NCoef="0" IVar="-1" Cut="0.0000000000000000e+00" cType="1" res="3.5185443703085184e-03" rms="2.8106886148452759e-01" purity="8.8423889875411987e-01" nType="-99"/>
          </Node>
          <Node pos="r" depth="2" NCoef="0" IVar="0" Cut="1.9532055664062500e+03" cType="1" res="3.6711920984089375e-03" rms="2.2104892134666443e-01" purity="9.1927266120910645e-01" nType="0">
            <Node pos="l" depth="3" NCoef="0" IVar="-1" Cut="0.0000000000000000e+00" cType="1" res="-4.2550251819193363e-03" rms="2.6603376865386963e-01" purity="8.7366306781768799e-01" nType="-99"/>
            <Node pos="r" depth="3" NCoef="0" IVar="-1" Cut="0.0000000000000000e+00" cType="1" res="3.0994629487395287e-02" rms="1.5776272118091583e-01" purity="9.6896040439605713e-01" nType="-99"/>
          </Node>
        </Node>
      </Node>
    </BinaryTree>
    <BinaryTree type="DecisionTree" boostWeight="1.0000000000000000e+00" itree="74">
      <Node pos="s" depth="0" NCoef="0" IVar="3" Cut="2.3978802490234375e+02" cType="1" res="3.4777622204273939e-03" rms="2.9781424999237061e-01" purity="5.0278842449188232e-01" nType="0">
        <Node pos="l" depth="1" NCoef="0" IVar="3" Cut="1.2439324951171875e+02" cType="1" res="1.0483477264642715e-02" rms="2.9731795191764832e-01" purity="3.6818799376487732e-01" nType="0">
          <Node pos="l" depth="2" NCoef="0" IVar="4" Cut="7.5450302124023438e+01" cType="1" res="-1.0310814715921879e-02" rms="1.9316843152046204e-01" purity="6.0892120003700256e-02" nType="0">
            <Node pos="l" depth="3" NCoef="0" IVar="-1" Cut="0.0000000000000000e+00" cType="1" res="-7.3407061398029327e-02" rms="1.0461238771677017e-01" purity="1.1457620188593864e-02" nType="-99"/>
            <Node pos="r" depth="3" NCoef="0" IVar="-1" Cut="0.0000000000000000e+00" cType="1" res="-9.3041872605681419e-03" rms="2.1862323582172394e-01" purity="8.0723166465759277e-02" nType="-99"/>
          </Node>
          <Node pos="r" depth="2" NCoef="0" IVar="7" Cut="-1.4580757617950439e+00" cType="1" res="1.4480062760412693e-02" rms="3.1323638558387756e-01" purity="4.2724910378456116e-01" nType="0">
            <Node pos="l" depth="3" NCoef="0" IVar="-1" Cut="0.0000000000000000e+00" cType="1" res="-2.7593269944190979e-02" rms="2.0614963769912720e-01" purity="7.6113164424896240e-02" nType="-99"/>
            <Node pos="r" depth="3" NCoef="0" IVar="-1" Cut="0.0000000000000000e+00" cType="1" res="1.6285125166177750e-02" rms="3.1972604990005493e-01" purity="4.5360860228538513e-01" nType="-99"/>
          </Node>
        </Node>
        <Node pos="r" depth="1" NCoef="0" IVar="0" Cut="1.9069583740234375e+03" cType="1" res="-6.5633435733616352e-03" rms="2.9823729395866394e-01" purity="6.9570767879486084e-01" nType="0">
          <Node pos="l" depth="2" NCoef="0" IVar="4" Cut="2.4876506042480469e+02" cType="1" res="-2.0473320037126541e-02" rms="3.4161606431007385e-01" purity="5.1535940170288086e-01" nType="0">
            <Node pos="l" depth="3" NCoef="0" IVar="-1" Cut="0.0000000000000000e+00" cType="1" res="-1.2187571264803410e-02" rms="3.3828300237655640e-01" purity="4.9681985378265381e-01" nType="-99"/>
            <Node pos="r" depth="3" NCoef="0" IVar="-1" Cut="0.0000000000000000e+00" cType="1" res="-5.5161077529191971e-02" rms="3.6013367772102356e-01" purity="6.3931632041931152e-01" nType="-99"/>
          </Node>
          <Node pos="r" depth="2" NCoef="0" IVar="8" Cut="3.9963713288307190e-01" cType="1" res="8.6736241355538368e-03" rms="2.4103409051895142e-01" purity="8.9326083660125732e-01" nType="0">
            <Node pos="l" depth="3" NCoef="0" IVar="-1" Cut="0.0000000000000000e+00" cType="1" res="2.1986247971653938e-02" rms="2.3659507930278778e-01" purity="9.0488809347152710e-01" nType="-99"/>
            <Node pos="r" depth="3" NCoef="0" IVar="-1" Cut="0.0000000000000000e+00" cType="1" res="-7.3516657575964928e-03" rms="2.5092962384223938e-01" purity="8.6512398719787598e-01" nType="-99"/>
          </Node>
        </Node>
      </Node>
    </BinaryTree>
    <BinaryTree type="DecisionTree" boostWeight="1.0000000000000000e+00" itree="75">
      <Node pos="s" depth="0" NCoef="0" IVar="5" Cut="9.1451576232910156e+01" cType="1" res="1.8184445798397064e-03" rms="2.9724347591400146e-01" purity="4.9622392654418945e-01" nType="0">
        <Node pos="l" depth="1" NCoef="0" IVar="5" Cut="6.3817142486572266e+01" cType="1" res="7.6096472330391407e-03" rms="3.1178945302963257e-01" purity="2.9450300335884094e-01" nType="0">
          <Node pos="l" depth="2" NCoef="0" IVar="2" Cut="4.4430068969726562e+02" cType="1" res="-2.0898254588246346e-03" rms="2.7636954188346863e-01" purity="1.5127760171890259e-01" nType="0">
            <Node pos="l" depth="3" NCoef="0" IVar="-1" Cut="0.0000000000000000e+00" cType="1" res="5.1883379928767681e-03" rms="2.7130728960037231e-01" purity="1.3986760377883911e-01" nType="-99"/>
            <Node pos="r" depth="3" NCoef="0" IVar="-1" Cut="0.0000000000000000e+00" cType="1" res="-2.3188242688775063e-02" rms="2.9230269789695740e-01" purity="1.9091384112834930e-01" nType="-99"/>
          </Node>
          <Node pos="r" depth="2" NCoef="0" IVar="8" Cut="1.1998327970504761e+00" cType="1" res="1.6555357724428177e-02" rms="3.4096845984458923e-01" purity="4.2659813165664673e-01" nType="0">
            <Node pos="l" depth="3" NCoef="0" IVar="-1" Cut="0.0000000000000000e+00" cType="1" res="1.6476567834615707e-02" rms="3.4995508193969727e-01" purity="4.6258643269538879e-01" nType="-99"/>
            <Node pos="r" depth="3" NCoef="0" IVar="-1" Cut="0.0000000000000000e+00" cType="1" res="-1.3151156716048717e-02" rms="2.6827278733253479e-01" purity="1.7497001588344574e-01" nType="-99"/>
          </Node>
        </Node>
        <Node pos="r" depth="1" NCoef="0" IVar="10" Cut="1.4661934375762939e+00" cType="1" res="-7.6231695711612701e-03" rms="2.7160036563873291e-01" purity="8.2509696483612061e-01" nType="0">
          <Node pos="l" depth="2" NCoef="0" IVar="1" Cut="2.0646492019295692e-02" cType="1" res="-4.3490375392138958e-03" rms="2.6806750893592834e-01" purity="8.3725458383560181e-01" nType="0">
            <Node pos="l" depth="3" NCoef="0" IVar="-1" Cut="0.0000000000000000e+00" cType="1" res="1.6558462753891945e-02" rms="3.4211811423301697e-01" purity="4.3498092889785767e-01" nType="-99"/>
            <Node pos="r" depth="3" NCoef="0" IVar="-1" Cut="0.0000000000000000e+00" cType="1" res="-9.5826033502817154e-03" rms="2.6077610254287720e-01" purity="8.7098520994186401e-01" nType="-99"/>
          </Node>
          <Node pos="r" depth="2" NCoef="0" IVar="-1" Cut="0.0000000000000000e+00" cType="1" res="-5.4661355912685394e-02" rms="3.1080931425094604e-01" purity="6.6703772544860840e-01" nType="-99"/>
        </Node>
      </Node>
    </BinaryTree>
    <BinaryTree type="DecisionTree" boostWeight="1.0000000000000000e+00" itree="76">
      <Node pos="s" depth="0" NCoef="0" IVar="2" Cut="5.8667376708984375e+02" cType="1" res="1.0827854275703430e-03" rms="2.9932489991188049e-01" purity="5.0056260824203491e-01" nType="0">
        <Node pos="l" depth="1" NCoef="0" IVar="0" Cut="1.2592580566406250e+03" cType="1" res="3.3865696750581264e-03" rms="2.9644820094108582e-01" purity="4.9257692694664001e-01" nType="0">
          <Node pos="l" depth="2" NCoef="0" IVar="4" Cut="1.2716915893554688e+02" cType="1" res="-6.7654335871338844e-03" rms="2.6464438438415527e-01" purity="1.1421632021665573e-01" nType="0">
            <Node pos="l" depth="3" NCoef="0" IVar="-1" Cut="0.0000000000000000e+00" cType="1" res="9.3099876539781690e-04" rms="2.3740768432617188e-01" purity="8.4194824099540710e-02" nType="-99"/>
            <Node pos="r" depth="3" NCoef="0" IVar="-1" Cut="0.0000000000000000e+00" cType="1" res="-2.2440036758780479e-02" rms="3.2560536265373230e-01" purity="1.9436593353748322e-01" nType="-99"/>
          </Node>
          <Node pos="r" depth="2" NCoef="0" IVar="1" Cut="6.1349600553512573e-02" cType="1" res="8.8402712717652321e-03" rms="3.1206214427947998e-01" purity="6.9583392143249512e-01" nType="0">
            <Node pos="l" depth="3" NCoef="0" IVar="-1" Cut="0.0000000000000000e+00" cType="1" res="1.8839253112673759e-02" rms="3.5319566726684570e-01" purity="4.5296147465705872e-01" nType="-99"/>
            <Node pos="r" depth="3" NCoef="0" IVar="-1" Cut="0.0000000000000000e+00" cType="1" res="-2.3956324439495802e-03" rms="2.7837646007537842e-01" purity="8.6990666389465332e-01" nType="-99"/>
          </Node>
        </Node>
        <Node pos="r" depth="1" NCoef="0" IVar="7" Cut="2.5122189521789551e-01" cType="1" res="-2.0371403545141220e-02" rms="3.2410818338394165e-01" purity="5.7492983341217041e-01" nType="0">
          <Node pos="l" depth="2" NCoef="0" IVar="7" Cut="-2.8106945753097534e-01" cType="1" res="-6.8971542641520500e-03" rms="3.2632178068161011e-01" purity="6.1428689956665039e-01" nType="0">
            <Node pos="l" depth="3" NCoef="0" IVar="-1" Cut="0.0000000000000000e+00" cType="1" res="-2.9097702354192734e-02" rms="3.3692842721939087e-01" purity="4.7619992494583130e-01" nType="-99"/>
            <Node pos="r" depth="3" NCoef="0" IVar="-1" Cut="0.0000000000000000e+00" cType="1" res="1.5016919001936913e-02" rms="3.1411182880401611e-01" purity="7.4615746736526489e-01" nType="-99"/>
          </Node>
          <Node pos="r" depth="2" NCoef="0" IVar="-1" Cut="0.0000000000000000e+00" cType="1" res="-4.0993787348270416e-02" rms="3.1871742010116577e-01" purity="5.0480324029922485e-01" nType="-99"/>
        </Node>
      </Node>
    </BinaryTree>
    <BinaryTree type="DecisionTree" boostWeight="1.0000000000000000e+00" itree="77">
      <Node pos="s" depth="0" NCoef="0" IVar="9" Cut="1.9985939264297485e+00" cType="1" res="-1.8806336447596550e-03" rms="2.9654097557067871e-01" purity="4.9922505021095276e-01" nType="0">
        <Node pos="l" depth="1" NCoef="0" IVar="2" Cut="3.2724890136718750e+02" cType="1" res="-6.5161992097273469e-04" rms="2.9925706982612610e-01" purity="5.1432836055755615e-01" nType="0">
          <Node pos="l" depth="2" NCoef="0" IVar="0" Cut="1.0094051513671875e+03" cType="1" res="7.2956620715558529e-03" rms="2.9721584916114807e-01" purity="4.3860536813735962e-01" nType="0">
            <Node pos="l" depth="3" NCoef="0" IVar="-1" Cut="0.0000000000000000e+00" cType="1" res="-5.4379917681217194e-02" rms="1.4205251634120941e-01" purity="2.0795235410332680e-02" nType="-99"/>
            <Node pos="r" depth="3" NCoef="0" IVar="-1" Cut="0.0000000000000000e+00" cType="1" res="1.2902910821139812e-02" rms="3.2069441676139832e-01" purity="5.2872425317764282e-01" nType="-99"/>
          </Node>
          <Node pos="r" depth="2" NCoef="0" IVar="0" Cut="1.5016635742187500e+03" cType="1" res="-6.5394751727581024e-03" rms="3.0062496662139893e-01" purity="5.7042884826660156e-01" nType="0">
            <Node pos="l" depth="3" NCoef="0" IVar="-1" Cut="0.0000000000000000e+00" cType="1" res="-2.3317016661167145e-02" rms="2.9820594191551208e-01" purity="1.6203998029232025e-01" nType="-99"/>
            <Node pos="r" depth="3" NCoef="0" IVar="-1" Cut="0.0000000000000000e+00" cType="1" res="1.2052197707816958e-03" rms="3.0145779252052307e-01" purity="7.6328581571578979e-01" nType="-99"/>
          </Node>
        </Node>
        <Node pos="r" depth="1" NCoef="0" IVar="-1" Cut="0.0000000000000000e+00" cType="1" res="-5.4783716797828674e-02" rms="2.0942556858062744e-01" purity="9.8161622881889343e-02" nType="-99"/>
      </Node>
    </BinaryTree>
    <BinaryTree type="DecisionTree" boostWeight="1.0000000000000000e+00" itree="78">
      <Node pos="s" depth="0" NCoef="0" IVar="4" Cut="1.6169879150390625e+02" cType="1" res="-1.3551703887060285e-03" rms="2.9842153191566467e-01" purity="4.9749711155891418e-01" nType="0">
        <Node pos="l" depth="1" NCoef="0" IVar="0" Cut="1.5192977294921875e+03" cType="1" res="6.6724279895424843e-03" rms="2.9846933484077454e-01" purity="2.8278705477714539e-01" nType="0">
          <Node pos="l" depth="2" NCoef="0" IVar="9" Cut="-4.0041011571884155e-01" cType="1" res="1.9270300399512053e-03" rms="2.8928574919700623e-01" purity="2.0125211775302887e-01" nType="0">
            <Node pos="l" depth="3" NCoef="0" IVar="-1" Cut="0.0000000000000000e+00" cType="1" res="1.8137715756893158e-02" rms="2.9247540235519409e-01" purity="1.9556201994419098e-01" nType="-99"/>
            <Node pos="r" depth="3" NCoef="0" IVar="-1" Cut="0.0000000000000000e+00" cType="1" res="-7.0346100255846977e-03" rms="2.8693789243698120e-01" purity="2.0488481223583221e-01" nType="-99"/>
          </Node>
          <Node pos="r" depth="2" NCoef="0" IVar="7" Cut="4.8541823029518127e-01" cType="1" res="2.6377694681286812e-02" rms="3.3319076895713806e-01" purity="6.2136089801788330e-01" nType="0">
            <Node pos="l" depth="3" NCoef="0" IVar="-1" Cut="0.0000000000000000e+00" cType="1" res="3.3924061805009842e-02" rms="3.3759167790412903e-01" purity="6.6715842485427856e-01" nType="-99"/>
            <Node pos="r" depth="3" NCoef="0" IVar="-1" Cut="0.0000000000000000e+00" cType="1" res="-9.6353646367788315e-03" rms="3.1674769520759583e-01" purity="4.8429632186889648e-01" nType="-99"/>
          </Node>
        </Node>
        <Node pos="r" depth="1" NCoef="0" IVar="0" Cut="1.5650760498046875e+03" cType="1" res="-1.0486790910363197e-02" rms="2.9810440540313721e-01" purity="7.4173587560653687e-01" nType="0">
          <Node pos="l" depth="2" NCoef="0" IVar="10" Cut="9.3188506364822388e-01" cType="1" res="-3.3698000013828278e-02" rms="3.6974710226058960e-01" purity="4.5990580320358276e-01" nType="0">
            <Node pos="l" depth="3" NCoef="0" IVar="-1" Cut="0.0000000000000000e+00" cType="1" res="-1.1672420427203178e-02" rms="3.6611112952232361e-01" purity="5.0177174806594849e-01" nType="-99"/>
            <Node pos="r" depth="3" NCoef="0" IVar="-1" Cut="0.0000000000000000e+00" cType="1" res="-7.2398558259010315e-02" rms="3.7538704276084900e-01" purity="3.1114706397056580e-01" nType="-99"/>
          </Node>
          <Node pos="r" depth="2" NCoef="0" IVar="3" Cut="2.5112927246093750e+02" cType="1" res="-1.6883156495168805e-03" rms="2.6541998982429504e-01" purity="8.4856677055358887e-01" nType="0">
            <Node pos="l" depth="3" NCoef="0" IVar="-1" Cut="0.0000000000000000e+00" cType="1" res="2.2532003000378609e-02" rms="2.4202595651149750e-01" purity="8.8418787717819214e-01" nType="-99"/>
            <Node pos="r" depth="3" NCoef="0" IVar="-1" Cut="0.0000000000000000e+00" cType="1" res="-9.5641966909170151e-03" rms="2.7262243628501892e-01" purity="8.3654099702835083e-01" nType="-99"/>
          </Node>
        </Node>
      </Node>
    </BinaryTree>
    <BinaryTree type="DecisionTree" boostWeight="1.0000000000000000e+00" itree="79">
      <Node pos="s" depth="0" NCoef="0" IVar="8" Cut="-3.9999249577522278e-01" cType="1" res="-2.2301133722066879e-03" rms="2.9596811532974243e-01" purity="4.9190869927406311e-01" nType="0">
        <Node pos="l" depth="1" NCoef="0" IVar="3" Cut="2.4403549194335938e+02" cType="1" res="-1.3993162661790848e-02" rms="2.9398146271705627e-01" purity="4.1329851746559143e-01" nType="0">
          <Node pos="l" depth="2" NCoef="0" IVar="0" Cut="1.5172161865234375e+03" cType="1" res="-7.3415138758718967e-03" rms="2.8443193435668945e-01" purity="3.0704522132873535e-01" nType="0">
            <Node pos="l" depth="3" NCoef="0" IVar="-1" Cut="0.0000000000000000e+00" cType="1" res="-1.9658276811242104e-02" rms="2.7619260549545288e-01" purity="1.8229782581329346e-01" nType="-99"/>
            <Node pos="r" depth="3" NCoef="0" IVar="-1" Cut="0.0000000000000000e+00" cType="1" res="2.7683556079864502e-02" rms="3.1026083230972290e-01" purity="7.5985026359558105e-01" nType="-99"/>
          </Node>
          <Node pos="r" depth="2" NCoef="0" IVar="7" Cut="-4.8984345048666000e-02" cType="1" res="-2.6112599298357964e-02" rms="3.1026065349578857e-01" purity="6.0689413547515869e-01" nType="0">
            <Node pos="l" depth="3" NCoef="0" IVar="-1" Cut="0.0000000000000000e+00" cType="1" res="-9.1388160362839699e-03" rms="3.2139259576797485e-01" purity="6.4635050296783447e-01" nType="-99"/>
            <Node pos="r" depth="3" NCoef="0" IVar="-1" Cut="0.0000000000000000e+00" cType="1" res="-4.7710243612527847e-02" rms="2.9663494229316711e-01" purity="5.6416255235671997e-01" nType="-99"/>
          </Node>
        </Node>
        <Node pos="r" depth="1" NCoef="0" IVar="7" Cut="-1.3736852407455444e+00" cType="1" res="3.6409245803952217e-03" rms="2.9678034782409668e-01" purity="5.3114372491836548e-01" nType="0">
          <Node pos="l" depth="2" NCoef="0" IVar="-1" Cut="0.0000000000000000e+00" cType="1" res="-4.4095650315284729e-02" rms="2.0472645759582520e-01" purity="1.2275883555412292e-01" nType="-99"/>
          <Node pos="r" depth="2" NCoef="0" IVar="6" Cut="5.8700405120849609e+01" cType="1" res="5.6031802669167519e-03" rms="3.0168440937995911e-01" purity="5.5766475200653076e-01" nType="0">
            <Node pos="l" depth="3" NCoef="0" IVar="-1" Cut="0.0000000000000000e+00" cType="1" res="1.2149310670793056e-02" rms="3.2888191938400269e-01" purity="3.2706907391548157e-01" nType="-99"/>
            <Node pos="r" depth="3" NCoef="0" IVar="-1" Cut="0.0000000000000000e+00" cType="1" res="-5.5756140500307083e-03" rms="2.6380100846290588e-01" purity="8.4342044591903687e-01" nType="-99"/>
          </Node>
        </Node>
      </Node>
    </BinaryTree>
    <BinaryTree type="DecisionTree" boostWeight="1.0000000000000000e+00" itree="80">
      <Node pos="s" depth="0" NCoef="0" IVar="3" Cut="2.7309582519531250e+02" cType="1" res="1.1877288670802955e-05" rms="2.9686969518661499e-01" purity="5.0171160697937012e-01" nType="0">
        <Node pos="l" depth="1" NCoef="0" IVar="7" Cut="-1.1921637058258057e+00" cType="1" res="4.0375404059886932e-03" rms="2.9646259546279907e-01" purity="4.1715699434280396e-01" nType="0">
          <Node pos="l" depth="2" NCoef="0" IVar="4" Cut="1.4438478088378906e+02" cType="1" res="-1.4679893851280212e-02" rms="2.1760192513465881e-01" purity="1.2305102497339249e-01" nType="0">
            <Node pos="l" depth="3" NCoef="0" IVar="-1" Cut="0.0000000000000000e+00" cType="1" res="-1.6111126169562340e-02" rms="1.6982296109199524e-01" purity="4.8725608736276627e-02" nType="-99"/>
            <Node pos="r" depth="3" NCoef="0" IVar="-1" Cut="0.0000000000000000e+00" cType="1" res="-3.2334115356206894e-02" rms="2.9040038585662842e-01" purity="2.7339687943458557e-01" nType="-99"/>
          </Node>
          <Node pos="r" depth="2" NCoef="0" IVar="7" Cut="1.0884861946105957e+00" cType="1" res="6.4219213090837002e-03" rms="3.0496558547019958e-01" purity="4.5462262630462646e-01" nType="0">
            <Node pos="l" depth="3" NCoef="0" IVar="-1" Cut="0.0000000000000000e+00" cType="1" res="8.9689055457711220e-03" rms="3.1628245115280151e-01" purity="5.0883942842483521e-01" nType="-99"/>
            <Node pos="r" depth="3" NCoef="0" IVar="-1" Cut="0.0000000000000000e+00" cType="1" res="-1.4230990782380104e-02" rms="2.2846677899360657e-01" purity="1.4201392233371735e-01" nType="-99"/>
          </Node>
        </Node>
        <Node pos="r" depth="1" NCoef="0" IVar="0" Cut="2.2794870605468750e+03" cType="1" res="-9.7191603854298592e-03" rms="2.9762670397758484e-01" purity="7.0610129833221436e-01" nType="0">
          <Node pos="l" depth="2" NCoef="0" IVar="8" Cut="9.3031579256057739e-01" cType="1" res="-1.8539115786552429e-02" rms="3.2156950235366821e-01" purity="6.2745028734207153e-01" nType="0">
            <Node pos="l" depth="3" NCoef="0" IVar="-1" Cut="0.0000000000000000e+00" cType="1" res="-1.2164990417659283e-02" rms="3.2364091277122498e-01" purity="6.7004388570785522e-01" nType="-99"/>
            <Node pos="r" depth="3" NCoef="0" IVar="-1" Cut="0.0000000000000000e+00" cType="1" res="-4.9669429659843445e-02" rms="3.0648043751716614e-01" purity="3.7241831421852112e-01" nType="-99"/>
          </Node>
          <Node pos="r" depth="2" NCoef="0" IVar="3" Cut="3.9884945678710938e+02" cType="1" res="1.4122347347438335e-02" rms="2.1846793591976166e-01" purity="9.1870552301406860e-01" nType="0">
            <Node pos="l" depth="3" NCoef="0" IVar="-1" Cut="0.0000000000000000e+00" cType="1" res="4.8306994140148163e-02" rms="1.8713879585266113e-01" purity="9.4965183734893799e-01" nType="-99"/>
            <Node pos="r" depth="3" NCoef="0" IVar="-1" Cut="0.0000000000000000e+00" cType="1" res="5.8468813076615334e-03" rms="2.4379841983318329e-01" purity="8.8968646526336670e-01" nType="-99"/>
          </Node>
        </Node>
      </Node>
    </BinaryTree>
    <BinaryTree type="DecisionTree" boostWeight="1.0000000000000000e+00" itree="81">
      <Node pos="s" depth="0" NCoef="0" IVar="2" Cut="7.1556475830078125e+02" cType="1" res="-9.9738745484501123e-04" rms="2.9352083802223206e-01" purity="5.0287169218063354e-01" nType="0">
        <Node pos="l" depth="1" NCoef="0" IVar="8" Cut="1.9999099969863892e+00" cType="1" res="3.9633104461245239e-04" rms="2.9124838113784790e-01" purity="4.9996912479400635e-01" nType="0">
          <Node pos="l" depth="2" NCoef="0" IVar="8" Cut="-9.7141402959823608e-01" cType="1" res="1.4969464391469955e-03" rms="2.9475274682044983e-01" purity="5.1340144872665405e-01" nType="0">
            <Node pos="l" depth="3" NCoef="0" IVar="-1" Cut="0.0000000000000000e+00" cType="1" res="-1.7402220517396927e-02" rms="2.6689213514328003e-01" purity="2.6962929964065552e-01" nType="-99"/>
            <Node pos="r" depth="3" NCoef="0" IVar="-1" Cut="0.0000000000000000e+00" cType="1" res="5.0408034585416317e-03" rms="2.9989922046661377e-01" purity="5.6199151277542114e-01" nType="-99"/>
          </Node>
          <Node pos="r" depth="2" NCoef="0" IVar="-1" Cut="0.0000000000000000e+00" cType="1" res="-8.6986795067787170e-02" rms="1.2153062224388123e-01" purity="5.0856199115514755e-02" nType="-99"/>
        </Node>
        <Node pos="r" depth="1" NCoef="0" IVar="-1" Cut="0.0000000000000000e+00" cType="1" res="-2.8691865503787994e-02" rms="3.4425830841064453e-01" purity="5.7638120651245117e-01" nType="-99"/>
      </Node>
    </BinaryTree>
    <BinaryTree type="DecisionTree" boostWeight="1.0000000000000000e+00" itree="82">
      <Node pos="s" depth="0" NCoef="0" IVar="8" Cut="-1.7333040237426758e+00" cType="1" res="4.2987931519746780e-03" rms="2.9485306143760681e-01" purity="5.0525009632110596e-01" nType="0">
        <Node pos="l" depth="1" NCoef="0" IVar="-1" Cut="0.0000000000000000e+00" cType="1" res="-4.7921329736709595e-02" rms="2.0458590984344482e-01" purity="9.1125555336475372e-02" nType="-99"/>
        <Node pos="r" depth="1" NCoef="0" IVar="7" Cut="1.7352451086044312e+00" cType="1" res="5.8672302402555943e-03" rms="2.9859203100204468e-01" purity="5.2610367536544800e-01" nType="0">
          <Node pos="l" depth="2" NCoef="0" IVar="7" Cut="-1.4960881471633911e+00" cType="1" res="7.0961830206215382e-03" rms="3.0258524417877197e-01" purity="5.4426258802413940e-01" nType="0">
            <Node pos="l" depth="3" NCoef="0" IVar="-1" Cut="0.0000000000000000e+00" cType="1" res="-3.6594510078430176e-02" rms="1.8429750204086304e-01" purity="1.0136138647794724e-01" nType="-99"/>
            <Node pos="r" depth="3" NCoef="0" IVar="-1" Cut="0.0000000000000000e+00" cType="1" res="9.1397175565361977e-03" rms="3.0827063322067261e-01" purity="5.7133275270462036e-01" nType="-99"/>
          </Node>
          <Node pos="r" depth="2" NCoef="0" IVar="-1" Cut="0.0000000000000000e+00" cType="1" res="-5.1341753453016281e-02" rms="1.6660566627979279e-01" purity="6.9182693958282471e-02" nType="-99"/>
        </Node>
      </Node>
    </BinaryTree>
    <BinaryTree type="DecisionTree" boostWeight="1.0000000000000000e+00" itree="83">
      <Node pos="s" depth="0" NCoef="0" IVar="8" Cut="3.9983907341957092e-01" cType="1" res="2.2784031461924314e-03" rms="2.9503273963928223e-01" purity="5.0007379055023193e-01" nType="0">
        <Node pos="l" depth="1" NCoef="0" IVar="8" Cut="-1.8856730461120605e+00" cType="1" res="7.6970839872956276e-03" rms="2.9676198959350586e-01" purity="5.3647118806838989e-01" nType="0">
          <Node pos="l" depth="2" NCoef="0" IVar="-1" Cut="0.0000000000000000e+00" cType="1" res="-4.1355859488248825e-02" rms="1.9401229918003082e-01" purity="8.6215682327747345e-02" nType="-99"/>
          <Node pos="r" depth="2" NCoef="0" IVar="8" Cut="-1.2326725721359253e+00" cType="1" res="9.4183422625064850e-03" rms="3.0175870656967163e-01" purity="5.6363904476165771e-01" nType="0">
            <Node pos="l" depth="3" NCoef="0" IVar="-1" Cut="0.0000000000000000e+00" cType="1" res="3.6403968930244446e-02" rms="3.0604001879692078e-01" purity="2.8887525200843811e-01" nType="-99"/>
            <Node pos="r" depth="3" NCoef="0" IVar="-1" Cut="0.0000000000000000e+00" cType="1" res="6.9081648252904415e-03" rms="3.0106708407402039e-01" purity="6.0041403770446777e-01" nType="-99"/>
          </Node>
        </Node>
        <Node pos="r" depth="1" NCoef="0" IVar="9" Cut="-9.3275302648544312e-01" cType="1" res="-8.1417653709650040e-03" rms="2.9139551520347595e-01" purity="4.3008130788803101e-01" nType="0">
          <Node pos="l" depth="2" NCoef="0" IVar="4" Cut="1.3289778137207031e+02" cType="1" res="-2.8833311051130295e-02" rms="2.7209338545799255e-01" purity="2.6158767938613892e-01" nType="0">
            <Node pos="l" depth="3" NCoef="0" IVar="-1" Cut="0.0000000000000000e+00" cType="1" res="-2.4082610383629799e-02" rms="2.3345090448856354e-01" purity="1.0823281109333038e-01" nType="-99"/>
            <Node pos="r" depth="3" NCoef="0" IVar="-1" Cut="0.0000000000000000e+00" cType="1" res="-3.9704468101263046e-02" rms="3.0623096227645874e-01" purity="4.1986289620399475e-01" nType="-99"/>
          </Node>
          <Node pos="r" depth="2" NCoef="0" IVar="7" Cut="-6.2047548592090607e-02" cType="1" res="-3.8345186039805412e-03" rms="2.9507249593734741e-01" purity="4.6515572071075439e-01" nType="0">
            <Node pos="l" depth="3" NCoef="0" IVar="-1" Cut="0.0000000000000000e+00" cType="1" res="-1.7641061916947365e-02" rms="2.8561213612556458e-01" purity="4.2092895507812500e-01" nType="-99"/>
            <Node pos="r" depth="3" NCoef="0" IVar="-1" Cut="0.0000000000000000e+00" cType="1" res="4.2754267342388630e-03" rms="3.0127832293510437e-01" purity="4.9613535404205322e-01" nType="-99"/>
          </Node>
        </Node>
      </Node>
    </BinaryTree>
    <BinaryTree type="DecisionTree" boostWeight="1.0000000000000000e+00" itree="84">
      <Node pos="s" depth="0" NCoef="0" IVar="0" Cut="1.4296540527343750e+03" cType="1" res="-3.3542767632752657e-03" rms="2.9747378826141357e-01" purity="4.9362990260124207e-01" nType="0">
        <Node pos="l" depth="1" NCoef="0" IVar="5" Cut="9.5349876403808594e+01" cType="1" res="-9.2317471280694008e-03" rms="2.9992347955703735e-01" purity="2.0292918384075165e-01" nType="0">
          <Node pos="l" depth="2" NCoef="0" IVar="11" Cut="-1.3434207439422607e+00" cType="1" res="-4.6153333969414234e-03" rms="2.8770837187767029e-01" purity="1.6709920763969421e-01" nType="0">
            <Node pos="l" depth="3" NCoef="0" IVar="-1" Cut="0.0000000000000000e+00" cType="1" res="1.3172570616006851e-03" rms="2.6749512553215027e-01" purity="1.1834606528282166e-01" nType="-99"/>
            <Node pos="r" depth="3" NCoef="0" IVar="-1" Cut="0.0000000000000000e+00" cType="1" res="-1.9270431250333786e-02" rms="3.4952065348625183e-01" purity="3.4041395783424377e-01" nType="-99"/>
          </Node>
          <Node pos="r" depth="2" NCoef="0" IVar="-1" Cut="0.0000000000000000e+00" cType="1" res="-3.6512456834316254e-02" rms="3.8991624116897583e-01" purity="5.2220851182937622e-01" nType="-99"/>
        </Node>
        <Node pos="r" depth="1" NCoef="0" IVar="1" Cut="2.0142203196883202e-02" cType="1" res="1.9344718893989921e-03" rms="2.9515209794044495e-01" purity="7.5521230697631836e-01" nType="0">
          <Node pos="l" depth="2" NCoef="0" IVar="11" Cut="-1.8954010009765625e+00" cType="1" res="2.5339916348457336e-02" rms="3.2389390468597412e-01" purity="2.7568614482879639e-01" nType="0">
            <Node pos="l" depth="3" NCoef="0" IVar="-1" Cut="0.0000000000000000e+00" cType="1" res="1.2040993198752403e-02" rms="2.9838600754737854e-01" purity="1.8372295796871185e-01" nType="-99"/>
            <Node pos="r" depth="3" NCoef="0" IVar="-1" Cut="0.0000000000000000e+00" cType="1" res="3.4458771347999573e-02" rms="3.6250257492065430e-01" purity="4.3414294719696045e-01" nType="-99"/>
          </Node>
          <Node pos="r" depth="2" NCoef="0" IVar="2" Cut="4.4604910278320312e+02" cType="1" res="-1.9800134468823671e-03" rms="2.8988286852836609e-01" purity="8.3541154861450195e-01" nType="0">
            <Node pos="l" depth="3" NCoef="0" IVar="-1" Cut="0.0000000000000000e+00" cType="1" res="7.4317855760455132e-03" rms="2.7114194631576538e-01" purity="8.7834525108337402e-01" nType="-99"/>
            <Node pos="r" depth="3" NCoef="0" IVar="-1" Cut="0.0000000000000000e+00" cType="1" res="-1.3703583739697933e-02" rms="3.1551802158355713e-01" purity="7.7114498615264893e-01" nType="-99"/>
          </Node>
        </Node>
      </Node>
    </BinaryTree>
    <BinaryTree type="DecisionTree" boostWeight="1.0000000000000000e+00" itree="85">
      <Node pos="s" depth="0" NCoef="0" IVar="8" Cut="6.6649478673934937e-01" cType="1" res="-2.0212619565427303e-03" rms="2.9544976353645325e-01" purity="5.0118458271026611e-01" nType="0">
        <Node pos="l" depth="1" NCoef="0" IVar="1" Cut="6.2698192894458771e-02" cType="1" res="1.0664702858775854e-03" rms="2.9826799035072327e-01" purity="5.4936105012893677e-01" nType="0">
          <Node pos="l" depth="2" NCoef="0" IVar="8" Cut="-9.8416471481323242e-01" cType="1" res="8.2256505265831947e-03" rms="3.0142489075660706e-01" purity="3.1742593646049500e-01" nType="0">
            <Node pos="l" depth="3" NCoef="0" IVar="-1" Cut="0.0000000000000000e+00" cType="1" res="-1.4929243363440037e-02" rms="2.4696902930736542e-01" purity="1.5645901858806610e-01" nType="-99"/>
            <Node pos="r" depth="3" NCoef="0" IVar="-1" Cut="0.0000000000000000e+00" cType="1" res="1.5990376472473145e-02" rms="3.2322049140930176e-01" purity="3.9211541414260864e-01" nType="-99"/>
          </Node>
          <Node pos="r" depth="2" NCoef="0" IVar="0" Cut="1.6955443115234375e+03" cType="1" res="-6.0365884564816952e-03" rms="2.9493078589439392e-01" purity="7.7947801351547241e-01" nType="0">
            <Node pos="l" depth="3" NCoef="0" IVar="-1" Cut="0.0000000000000000e+00" cType="1" res="-1.0500141419470310e-02" rms="3.6016708612442017e-01" purity="6.2544703483581543e-01" nType="-99"/>
            <Node pos="r" depth="3" NCoef="0" IVar="-1" Cut="0.0000000000000000e+00" cType="1" res="4.8714573495090008e-03" rms="1.9979447126388550e-01" purity="9.4865685701370239e-01" nType="-99"/>
          </Node>
        </Node>
        <Node pos="r" depth="1" NCoef="0" IVar="3" Cut="2.4895951843261719e+02" cType="1" res="-1.1490663513541222e-02" rms="2.8642663359642029e-01" purity="3.5343787074089050e-01" nType="0">
          <Node pos="l" depth="2" NCoef="0" IVar="0" Cut="1.5506302490234375e+03" cType="1" res="-4.0455022826790810e-03" rms="2.7545714378356934e-01" purity="2.8193747997283936e-01" nType="0">
            <Node pos="l" depth="3" NCoef="0" IVar="-1" Cut="0.0000000000000000e+00" cType="1" res="-1.2496608309447765e-02" rms="2.7545347809791565e-01" purity="1.7799541354179382e-01" nType="-99"/>
            <Node pos="r" depth="3" NCoef="0" IVar="-1" Cut="0.0000000000000000e+00" cType="1" res="2.4085309356451035e-02" rms="2.7400013804435730e-01" purity="7.5467586517333984e-01" nType="-99"/>
          </Node>
          <Node pos="r" depth="2" NCoef="0" IVar="8" Cut="9.7109729051589966e-01" cType="1" res="-2.8714541345834732e-02" rms="3.0963581800460815e-01" purity="5.1884913444519043e-01" nType="0">
            <Node pos="l" depth="3" NCoef="0" IVar="-1" Cut="0.0000000000000000e+00" cType="1" res="-1.2337594293057919e-02" rms="3.1018385291099548e-01" purity="6.9954049587249756e-01" nType="-99"/>
            <Node pos="r" depth="3" NCoef="0" IVar="-1" Cut="0.0000000000000000e+00" cType="1" res="-4.2457133531570435e-02" rms="3.0859175324440002e-01" purity="3.7844002246856689e-01" nType="-99"/>
          </Node>
        </Node>
      </Node>
    </BinaryTree>
    <BinaryTree type="DecisionTree" boostWeight="1.0000000000000000e+00" itree="86">
      <Node pos="s" depth="0" NCoef="0" IVar="9" Cut="-1.7333276271820068e+00" cType="1" res="1.0249952320009470e-03" rms="2.9473927617073059e-01" purity="5.0136619806289673e-01" nType="0">
        <Node pos="l" depth="1" NCoef="0" IVar="7" Cut="-1.0996072739362717e-01" cType="1" res="-2.3393312469124794e-02" rms="2.3273339867591858e-01" purity="1.3250522315502167e-01" nType="0">
          <Node pos="l" depth="2" NCoef="0" IVar="-1" Cut="0.0000000000000000e+00" cType="1" res="-1.3201681897044182e-02" rms="2.3739632964134216e-01" purity="1.4550229907035828e-01" nType="-99"/>
          <Node pos="r" depth="2" NCoef="0" IVar="-1" Cut="0.0000000000000000e+00" cType="1" res="-5.1478754729032516e-02" rms="2.2717563807964325e-01" purity="1.1973641812801361e-01" nType="-99"/>
        </Node>
        <Node pos="r" depth="1" NCoef="0" IVar="1" Cut="6.2751308083534241e-02" cType="1" res="2.4687857367098331e-03" rms="2.9793915152549744e-01" purity="5.2317595481872559e-01" nType="0">
          <Node pos="l" depth="2" NCoef="0" IVar="7" Cut="1.2029855251312256e+00" cType="1" res="8.1796776503324509e-03" rms="3.0138930678367615e-01" purity="2.9649439454078674e-01" nType="0">
            <Node pos="l" depth="3" NCoef="0" IVar="-1" Cut="0.0000000000000000e+00" cType="1" res="1.2202356010675430e-02" rms="3.1523266434669495e-01" purity="3.3461517095565796e-01" nType="-99"/>
            <Node pos="r" depth="3" NCoef="0" IVar="-1" Cut="0.0000000000000000e+00" cType="1" res="-2.1100474521517754e-02" rms="2.1636253595352173e-01" purity="1.0213341563940048e-01" nType="-99"/>
          </Node>
          <Node pos="r" depth="2" NCoef="0" IVar="0" Cut="1.5844830322265625e+03" cType="1" res="-3.8483839016407728e-03" rms="2.9394635558128357e-01" purity="7.7392250299453735e-01" nType="0">
            <Node pos="l" depth="3" NCoef="0" IVar="-1" Cut="0.0000000000000000e+00" cType="1" res="-1.1191305704414845e-02" rms="3.7315735220909119e-01" purity="5.6575125455856323e-01" nType="-99"/>
            <Node pos="r" depth="3" NCoef="0" IVar="-1" Cut="0.0000000000000000e+00" cType="1" res="1.1076243594288826e-02" rms="2.0910687744617462e-01" purity="9.4127923250198364e-01" nType="-99"/>
          </Node>
        </Node>
      </Node>
    </BinaryTree>
    <BinaryTree type="DecisionTree" boostWeight="1.0000000000000000e+00" itree="87">
      <Node pos="s" depth="0" NCoef="0" IVar="2" Cut="4.5778598022460938e+02" cType="1" res="1.1846049455925822e-03" rms="2.9581889510154724e-01" purity="5.0182747840881348e-01" nType="0">
        <Node pos="l" depth="1" NCoef="0" IVar="0" Cut="1.1884909667968750e+03" cType="1" res="5.4775914177298546e-03" rms="2.9458028078079224e-01" purity="4.7434911131858826e-01" nType="0">
          <Node pos="l" depth="2" NCoef="0" IVar="10" Cut="-6.6662865877151489e-01" cType="1" res="-5.6465547531843185e-03" rms="2.3809038102626801e-01" purity="8.0616034567356110e-02" nType="0">
            <Node pos="l" depth="3" NCoef="0" IVar="-1" Cut="0.0000000000000000e+00" cType="1" res="2.1454425528645515e-02" rms="2.5108951330184937e-01" purity="8.9626692235469818e-02" nType="-99"/>
            <Node pos="r" depth="3" NCoef="0" IVar="-1" Cut="0.0000000000000000e+00" cType="1" res="-2.3680886253714561e-02" rms="2.3055368661880493e-01" purity="7.5958967208862305e-02" nType="-99"/>
          </Node>
          <Node pos="r" depth="2" NCoef="0" IVar="4" Cut="1.0776560211181641e+02" cType="1" res="1.0829533450305462e-02" rms="3.1806635856628418e-01" purity="6.6377812623977661e-01" nType="0">
            <Node pos="l" depth="3" NCoef="0" IVar="-1" Cut="0.0000000000000000e+00" cType="1" res="5.7424169033765793e-02" rms="3.7744092941284180e-01" purity="3.3146393299102783e-01" nType="-99"/>
            <Node pos="r" depth="3" NCoef="0" IVar="-1" Cut="0.0000000000000000e+00" cType="1" res="5.4734721779823303e-03" rms="3.1123372912406921e-01" purity="6.9579583406448364e-01" nType="-99"/>
          </Node>
        </Node>
        <Node pos="r" depth="1" NCoef="0" IVar="2" Cut="6.9102050781250000e+02" cType="1" res="-1.1498015373945236e-02" rms="2.9908844828605652e-01" purity="5.8300590515136719e-01" nType="0">
          <Node pos="l" depth="2" NCoef="0" IVar="0" Cut="1.6969306640625000e+03" cType="1" res="-7.4656284414231777e-03" rms="2.9375815391540527e-01" purity="5.8490073680877686e-01" nType="0">
            <Node pos="l" depth="3" NCoef="0" IVar="-1" Cut="0.0000000000000000e+00" cType="1" res="-2.4106416851282120e-02" rms="2.9708462953567505e-01" purity="1.5528011322021484e-01" nType="-99"/>
            <Node pos="r" depth="3" NCoef="0" IVar="-1" Cut="0.0000000000000000e+00" cType="1" res="7.3052238440141082e-04" rms="2.9165095090866089e-01" purity="8.1324887275695801e-01" nType="-99"/>
          </Node>
          <Node pos="r" depth="2" NCoef="0" IVar="-1" Cut="0.0000000000000000e+00" cType="1" res="-2.7317309752106667e-02" rms="3.2471740245819092e-01" purity="5.7310199737548828e-01" nType="-99"/>
        </Node>
      </Node>
    </BinaryTree>
    <BinaryTree type="DecisionTree" boostWeight="1.0000000000000000e+00" itree="88">
      <Node pos="s" depth="0" NCoef="0" IVar="1" Cut="4.1838925331830978e-02" cType="1" res="1.8448063638061285e-03" rms="2.9702240228652954e-01" purity="5.0324040651321411e-01" nType="0">
        <Node pos="l" depth="1" NCoef="0" IVar="0" Cut="1.3383928222656250e+03" cType="1" res="9.2455670237541199e-03" rms="2.8167483210563660e-01" purity="2.1850226819515228e-01" nType="0">
          <Node pos="l" depth="2" NCoef="0" IVar="2" Cut="2.8931274414062500e+02" cType="1" res="-4.0703010745346546e-03" rms="2.0429635047912598e-01" purity="5.3498066961765289e-02" nType="0">
            <Node pos="l" depth="3" NCoef="0" IVar="-1" Cut="0.0000000000000000e+00" cType="1" res="1.3529482297599316e-02" rms="2.2614841163158417e-01" purity="7.0090882480144501e-02" nType="-99"/>
            <Node pos="r" depth="3" NCoef="0" IVar="-1" Cut="0.0000000000000000e+00" cType="1" res="-3.2114543020725250e-02" rms="1.8094278872013092e-01" purity="3.8001630455255508e-02" nType="-99"/>
          </Node>
          <Node pos="r" depth="2" NCoef="0" IVar="2" Cut="4.5784951782226562e+02" cType="1" res="2.4659346789121628e-02" rms="3.4989431500434875e-01" purity="4.0950280427932739e-01" nType="0">
            <Node pos="l" depth="3" NCoef="0" IVar="-1" Cut="0.0000000000000000e+00" cType="1" res="2.9695920646190643e-02" rms="3.7208333611488342e-01" purity="4.4160506129264832e-01" nType="-99"/>
            <Node pos="r" depth="3" NCoef="0" IVar="-1" Cut="0.0000000000000000e+00" cType="1" res="9.1548236086964607e-03" rms="3.2939484715461731e-01" purity="3.8246175646781921e-01" nType="-99"/>
          </Node>
        </Node>
        <Node pos="r" depth="1" NCoef="0" IVar="2" Cut="3.0036019897460938e+02" cType="1" res="-3.3837736118584871e-03" rms="3.0729633569717407e-01" purity="7.0440578460693359e-01" nType="0">
          <Node pos="l" depth="2" NCoef="0" IVar="11" Cut="-2.4479994773864746e+00" cType="1" res="7.9221948981285095e-03" rms="3.2619094848632812e-01" purity="5.9109222888946533e-01" nType="0">
            <Node pos="l" depth="3" NCoef="0" IVar="-1" Cut="0.0000000000000000e+00" cType="1" res="2.2993244230747223e-02" rms="3.5656526684761047e-01" purity="2.9943650960922241e-01" nType="-99"/>
            <Node pos="r" depth="3" NCoef="0" IVar="-1" Cut="0.0000000000000000e+00" cType="1" res="-6.0754911974072456e-03" rms="3.0246391892433167e-01" purity="7.9448419809341431e-01" nType="-99"/>
          </Node>
          <Node pos="r" depth="2" NCoef="0" IVar="0" Cut="1.6807758789062500e+03" cType="1" res="-9.4826323911547661e-03" rms="2.9642555117607117e-01" purity="7.6553130149841309e-01" nType="0">
            <Node pos="l" depth="3" NCoef="0" IVar="-1" Cut="0.0000000000000000e+00" cType="1" res="-1.7893832176923752e-02" rms="3.7844422459602356e-01" purity="5.0495135784149170e-01" nType="-99"/>
            <Node pos="r" depth="3" NCoef="0" IVar="-1" Cut="0.0000000000000000e+00" cType="1" res="5.1070546032860875e-04" rms="2.3200771212577820e-01" purity="9.2459845542907715e-01" nType="-99"/>
          </Node>
        </Node>
      </Node>
    </BinaryTree>
    <BinaryTree type="DecisionTree" boostWeight="1.0000000000000000e+00" itree="89">
      <Node pos="s" depth="0" NCoef="0" IVar="10" Cut="-6.6680622100830078e-01" cType="1" res="-1.2720267986878753e-03" rms="2.9776114225387573e-01" purity="4.9981105327606201e-01" nType="0">
        <Node pos="l" depth="1" NCoef="0" IVar="4" Cut="1.6263519287109375e+02" cType="1" res="-1.1537700891494751e-02" rms="2.9545640945434570e-01" purity="4.4301250576972961e-01" nType="0">
          <Node pos="l" depth="2" NCoef="0" IVar="10" Cut="-1.3778519630432129e+00" cType="1" res="-4.9361051060259342e-03" rms="2.9106074571609497e-01" purity="2.5255733728408813e-01" nType="0">
            <Node pos="l" depth="3" NCoef="0" IVar="-1" Cut="0.0000000000000000e+00" cType="1" res="1.1701102368533611e-02" rms="2.8315186500549316e-01" purity="2.2265531122684479e-01" nType="-99"/>
            <Node pos="r" depth="3" NCoef="0" IVar="-1" Cut="0.0000000000000000e+00" cType="1" res="-1.9436059519648552e-02" rms="2.9782548546791077e-01" purity="2.8133994340896606e-01" nType="-99"/>
          </Node>
          <Node pos="r" depth="2" NCoef="0" IVar="10" Cut="-1.6826138496398926e+00" cType="1" res="-2.0586075261235237e-02" rms="3.0114203691482544e-01" purity="7.0405691862106323e-01" nType="0">
            <Node pos="l" depth="3" NCoef="0" IVar="-1" Cut="0.0000000000000000e+00" cType="1" res="-4.6989463269710541e-02" rms="3.2525643706321716e-01" purity="5.1970362663269043e-01" nType="-99"/>
            <Node pos="r" depth="3" NCoef="0" IVar="-1" Cut="0.0000000000000000e+00" cType="1" res="-1.3218457810580730e-02" rms="2.9334661364555359e-01" purity="7.5609767436981201e-01" nType="-99"/>
          </Node>
        </Node>
        <Node pos="r" depth="1" NCoef="0" IVar="2" Cut="4.5778369140625000e+02" cType="1" res="3.0390310566872358e-03" rms="2.9861852526664734e-01" purity="5.2366352081298828e-01" nType="0">
          <Node pos="l" depth="2" NCoef="0" IVar="2" Cut="2.2455302429199219e+02" cType="1" res="6.7191831767559052e-03" rms="2.9565635323524475e-01" purity="4.9973315000534058e-01" nType="0">
            <Node pos="l" depth="3" NCoef="0" IVar="-1" Cut="0.0000000000000000e+00" cType="1" res="4.1756965219974518e-02" rms="2.8435280919075012e-01" purity="3.8576161861419678e-01" nType="-99"/>
            <Node pos="r" depth="3" NCoef="0" IVar="-1" Cut="0.0000000000000000e+00" cType="1" res="3.5740616731345654e-03" rms="2.9676911234855652e-01" purity="5.1323819160461426e-01" nType="-99"/>
          </Node>
          <Node pos="r" depth="2" NCoef="0" IVar="10" Cut="8.1881564855575562e-01" cType="1" res="-7.7564702369272709e-03" rms="3.0688852071762085e-01" purity="5.9386163949966431e-01" nType="0">
            <Node pos="l" depth="3" NCoef="0" IVar="-1" Cut="0.0000000000000000e+00" cType="1" res="1.2529145460575819e-03" rms="3.0548840761184692e-01" purity="6.4514720439910889e-01" nType="-99"/>
            <Node pos="r" depth="3" NCoef="0" IVar="-1" Cut="0.0000000000000000e+00" cType="1" res="-2.7379587292671204e-02" rms="3.0891174077987671e-01" purity="4.9020069837570190e-01" nType="-99"/>
          </Node>
        </Node>
      </Node>
    </BinaryTree>
    <BinaryTree type="DecisionTree" boostWeight="1.0000000000000000e+00" itree="90">
      <Node pos="s" depth="0" NCoef="0" IVar="7" Cut="1.4796459674835205e+00" cType="1" res="1.7323291394859552e-03" rms="2.9461500048637390e-01" purity="5.0242674350738525e-01" nType="0">
        <Node pos="l" depth="1" NCoef="0" IVar="8" Cut="-3.9997813105583191e-01" cType="1" res="3.2142701093107462e-03" rms="3.0065414309501648e-01" purity="5.2991622686386108e-01" nType="0">
          <Node pos="l" depth="2" NCoef="0" IVar="9" Cut="1.1996273994445801e+00" cType="1" res="-4.9986229278147221e-03" rms="2.9541683197021484e-01" purity="4.5583215355873108e-01" nType="0">
            <Node pos="l" depth="3" NCoef="0" IVar="-1" Cut="0.0000000000000000e+00" cType="1" res="-1.8642484210431576e-03" rms="2.9910069704055786e-01" purity="4.8826503753662109e-01" nType="-99"/>
            <Node pos="r" depth="3" NCoef="0" IVar="-1" Cut="0.0000000000000000e+00" cType="1" res="-3.8932651281356812e-02" rms="2.6283252239227295e-01" purity="1.9764052331447601e-01" nType="-99"/>
          </Node>
          <Node pos="r" depth="2" NCoef="0" IVar="5" Cut="8.6232299804687500e+01" cType="1" res="7.2113173082470894e-03" rms="3.0308979749679565e-01" purity="5.6597131490707397e-01" nType="0">
            <Node pos="l" depth="3" NCoef="0" IVar="-1" Cut="0.0000000000000000e+00" cType="1" res="1.2255445122718811e-02" rms="3.2958689332008362e-01" purity="3.2959762215614319e-01" nType="-99"/>
            <Node pos="r" depth="3" NCoef="0" IVar="-1" Cut="0.0000000000000000e+00" cType="1" res="5.2237352065276355e-05" rms="2.6941448450088501e-01" purity="8.3645004034042358e-01" nType="-99"/>
          </Node>
        </Node>
        <Node pos="r" depth="1" NCoef="0" IVar="9" Cut="-1.3418447971343994e-01" cType="1" res="-2.0864099264144897e-02" rms="1.7731079459190369e-01" purity="8.3271563053131104e-02" nType="0">
          <Node pos="l" depth="2" NCoef="0" IVar="-1" Cut="0.0000000000000000e+00" cType="1" res="-5.6870460510253906e-02" rms="1.7779605090618134e-01" purity="7.1798354387283325e-02" nType="-99"/>
          <Node pos="r" depth="2" NCoef="0" IVar="-1" Cut="0.0000000000000000e+00" cType="1" res="-3.1314909458160400e-02" rms="1.7675594985485077e-01" purity="9.1631509363651276e-02" nType="-99"/>
        </Node>
      </Node>
    </BinaryTree>
    <BinaryTree type="DecisionTree" boostWeight="1.0000000000000000e+00" itree="91">
      <Node pos="s" depth="0" NCoef="0" IVar="9" Cut="-2.0000097751617432e+00" cType="1" res="5.8588379761204123e-04" rms="2.9497426748275757e-01" purity="4.9910837411880493e-01" nType="0">
        <Node pos="l" depth="1" NCoef="0" IVar="-1" Cut="0.0000000000000000e+00" cType="1" res="-4.6717517077922821e-02" rms="2.1406129002571106e-01" purity="1.0042047500610352e-01" nType="-99"/>
        <Node pos="r" depth="1" NCoef="0" IVar="7" Cut="-1.7241818904876709e+00" cType="1" res="1.6827723011374474e-03" rms="2.9741564393043518e-01" purity="5.1344323158264160e-01" nType="0">
          <Node pos="l" depth="2" NCoef="0" IVar="-1" Cut="0.0000000000000000e+00" cType="1" res="-5.3597670048475266e-02" rms="1.6139209270477295e-01" purity="7.0329539477825165e-02" nType="-99"/>
          <Node pos="r" depth="2" NCoef="0" IVar="1" Cut="4.1835278272628784e-02" cType="1" res="2.5974393356591463e-03" rms="3.0100190639495850e-01" purity="5.2885764837265015e-01" nType="0">
            <Node pos="l" depth="3" NCoef="0" IVar="-1" Cut="0.0000000000000000e+00" cType="1" res="1.1467360891401768e-02" rms="2.8836011886596680e-01" purity="2.4257440865039825e-01" nType="-99"/>
            <Node pos="r" depth="3" NCoef="0" IVar="-1" Cut="0.0000000000000000e+00" cType="1" res="-2.2790408693253994e-03" rms="3.0860200524330139e-01" purity="7.0912963151931763e-01" nType="-99"/>
          </Node>
        </Node>
      </Node>
    </BinaryTree>
    <BinaryTree type="DecisionTree" boostWeight="1.0000000000000000e+00" itree="92">
      <Node pos="s" depth="0" NCoef="0" IVar="3" Cut="2.8969204711914062e+02" cType="1" res="7.8073510667309165e-04" rms="2.9702892899513245e-01" purity="5.0179725885391235e-01" nType="0">
        <Node pos="l" depth="1" NCoef="0" IVar="0" Cut="1.0460600585937500e+03" cType="1" res="3.9584916085004807e-03" rms="2.9974302649497986e-01" purity="4.3110987544059753e-01" nType="0">
          <Node pos="l" depth="2" NCoef="0" IVar="10" Cut="6.6662269830703735e-01" cType="1" res="-1.4429443515837193e-02" rms="1.7057777941226959e-01" purity="3.1240694224834442e-02" nType="0">
            <Node pos="l" depth="3" NCoef="0" IVar="-1" Cut="0.0000000000000000e+00" cType="1" res="-4.5040071010589600e-02" rms="1.7000234127044678e-01" purity="3.0677422881126404e-02" nType="-99"/>
            <Node pos="r" depth="3" NCoef="0" IVar="-1" Cut="0.0000000000000000e+00" cType="1" res="-1.1886780150234699e-02" rms="1.7131382226943970e-01" purity="3.2437134534120560e-02" nType="-99"/>
          </Node>
          <Node pos="r" depth="2" NCoef="0" IVar="11" Cut="1.4173008203506470e+00" cType="1" res="7.2367074899375439e-03" rms="3.1718331575393677e-01" purity="5.0239890813827515e-01" nType="0">
            <Node pos="l" depth="3" NCoef="0" IVar="-1" Cut="0.0000000000000000e+00" cType="1" res="8.8946549221873283e-03" rms="3.1646603345870972e-01" purity="4.9626007676124573e-01" nType="-99"/>
            <Node pos="r" depth="3" NCoef="0" IVar="-1" Cut="0.0000000000000000e+00" cType="1" res="-1.4935244806110859e-02" rms="3.2631596922874451e-01" purity="5.9019291400909424e-01" nType="-99"/>
          </Node>
        </Node>
        <Node pos="r" depth="1" NCoef="0" IVar="1" Cut="2.0888345316052437e-02" cType="1" res="-9.0049328282475471e-03" rms="2.8829079866409302e-01" purity="7.1947383880615234e-01" nType="0">
          <Node pos="l" depth="2" NCoef="0" IVar="-1" Cut="0.0000000000000000e+00" cType="1" res="1.6517909243702888e-02" rms="3.1757766008377075e-01" purity="3.1098458170890808e-01" nType="-99"/>
          <Node pos="r" depth="2" NCoef="0" IVar="0" Cut="1.6788034667968750e+03" cType="1" res="-1.5361307188868523e-02" rms="2.8084972500801086e-01" purity="8.1192946434020996e-01" nType="0">
            <Node pos="l" depth="3" NCoef="0" IVar="-1" Cut="0.0000000000000000e+00" cType="1" res="-4.3051876127719879e-02" rms="3.8851189613342285e-01" purity="4.0671363472938538e-01" nType="-99"/>
            <Node pos="r" depth="3" NCoef="0" IVar="-1" Cut="0.0000000000000000e+00" cType="1" res="-9.0902596712112427e-03" rms="2.5548958778381348e-01" purity="8.8529932498931885e-01" nType="-99"/>
          </Node>
        </Node>
      </Node>
    </BinaryTree>
    <BinaryTree type="DecisionTree" boostWeight="1.0000000000000000e+00" itree="93">
      <Node pos="s" depth="0" NCoef="0" IVar="11" Cut="1.6951103210449219e+00" cType="1" res="-2.7314454782754183e-03" rms="2.9359465837478638e-01" purity="4.9618828296661377e-01" nType="0">
        <Node pos="l" depth="1" NCoef="0" IVar="6" Cut="9.2997329711914062e+01" cType="1" res="-1.7387417610734701e-03" rms="2.9265430569648743e-01" purity="4.9291998147964478e-01" nType="0">
          <Node pos="l" depth="2" NCoef="0" IVar="6" Cut="6.1997142791748047e+01" cType="1" res="-3.7095141597092152e-03" rms="3.0924132466316223e-01" purity="4.0266785025596619e-01" nType="0">
            <Node pos="l" depth="3" NCoef="0" IVar="-1" Cut="0.0000000000000000e+00" cType="1" res="-2.2814920521341264e-04" rms="3.1203106045722961e-01" purity="2.8263804316520691e-01" nType="-99"/>
            <Node pos="r" depth="3" NCoef="0" IVar="-1" Cut="0.0000000000000000e+00" cType="1" res="-1.5389043837785721e-02" rms="3.0050665140151978e-01" purity="7.6150715351104736e-01" nType="-99"/>
          </Node>
          <Node pos="r" depth="2" NCoef="0" IVar="4" Cut="2.0474073791503906e+02" cType="1" res="8.2409167662262917e-03" rms="1.8700727820396423e-01" purity="9.4994151592254639e-01" nType="0">
            <Node pos="l" depth="3" NCoef="0" IVar="-1" Cut="0.0000000000000000e+00" cType="1" res="2.0666686818003654e-02" rms="2.1556541323661804e-01" purity="9.2935937643051147e-01" nType="-99"/>
            <Node pos="r" depth="3" NCoef="0" IVar="-1" Cut="0.0000000000000000e+00" cType="1" res="1.7854155972599983e-02" rms="1.6128364205360413e-01" purity="9.6595782041549683e-01" nType="-99"/>
          </Node>
        </Node>
        <Node pos="r" depth="1" NCoef="0" IVar="-1" Cut="0.0000000000000000e+00" cType="1" res="-2.7230888605117798e-02" rms="3.1531390547752380e-01" purity="5.7844054698944092e-01" nType="-99"/>
      </Node>
    </BinaryTree>
    <BinaryTree type="DecisionTree" boostWeight="1.0000000000000000e+00" itree="94">
      <Node pos="s" depth="0" NCoef="0" IVar="2" Cut="5.7431024169921875e+02" cType="1" res="-1.3401578180491924e-03" rms="2.9362043738365173e-01" purity="4.9829071760177612e-01" nType="0">
        <Node pos="l" depth="1" NCoef="0" IVar="2" Cut="2.3565663146972656e+02" cType="1" res="8.4032356971874833e-04" rms="2.9068112373352051e-01" purity="4.8734459280967712e-01" nType="0">
          <Node pos="l" depth="2" NCoef="0" IVar="0" Cut="1.0249704589843750e+03" cType="1" res="1.5922438353300095e-02" rms="2.9457747936248779e-01" purity="3.4443199634552002e-01" nType="0">
            <Node pos="l" depth="3" NCoef="0" IVar="-1" Cut="0.0000000000000000e+00" cType="1" res="-4.6636275947093964e-02" rms="1.5758496522903442e-01" purity="2.5117807090282440e-02" nType="-99"/>
            <Node pos="r" depth="3" NCoef="0" IVar="-1" Cut="0.0000000000000000e+00" cType="1" res="3.0747530981898308e-02" rms="3.4792390465736389e-01" purity="5.2636933326721191e-01" nType="-99"/>
          </Node>
          <Node pos="r" depth="2" NCoef="0" IVar="0" Cut="1.5659458007812500e+03" cType="1" res="-1.3887322274968028e-03" rms="2.9003432393074036e-01" purity="5.0846630334854126e-01" nType="0">
            <Node pos="l" depth="3" NCoef="0" IVar="-1" Cut="0.0000000000000000e+00" cType="1" res="-7.4710980989038944e-03" rms="3.0936756730079651e-01" purity="2.6406598091125488e-01" nType="-99"/>
            <Node pos="r" depth="3" NCoef="0" IVar="-1" Cut="0.0000000000000000e+00" cType="1" res="9.9458806216716766e-03" rms="2.5941312313079834e-01" purity="8.6057484149932861e-01" nType="-99"/>
          </Node>
        </Node>
        <Node pos="r" depth="1" NCoef="0" IVar="8" Cut="3.9969569444656372e-01" cType="1" res="-1.9411657005548477e-02" rms="3.1635546684265137e-01" purity="5.8901047706604004e-01" nType="0">
          <Node pos="l" depth="2" NCoef="0" IVar="2" Cut="6.8125726318359375e+02" cType="1" res="-1.0004330426454544e-02" rms="3.2143989205360413e-01" purity="6.2751799821853638e-01" nType="0">
            <Node pos="l" depth="3" NCoef="0" IVar="-1" Cut="0.0000000000000000e+00" cType="1" res="1.7165029421448708e-03" rms="3.2236647605895996e-01" purity="6.3516294956207275e-01" nType="-99"/>
            <Node pos="r" depth="3" NCoef="0" IVar="-1" Cut="0.0000000000000000e+00" cType="1" res="-2.1086763590574265e-02" rms="3.1968617439270020e-01" purity="6.1799526214599609e-01" nType="-99"/>
          </Node>
          <Node pos="r" depth="2" NCoef="0" IVar="-1" Cut="0.0000000000000000e+00" cType="1" res="-4.0565866976976395e-02" rms="3.0324280261993408e-01" purity="5.0050079822540283e-01" nType="-99"/>
        </Node>
      </Node>
    </BinaryTree>
    <BinaryTree type="DecisionTree" boostWeight="1.0000000000000000e+00" itree="95">
      <Node pos="s" depth="0" NCoef="0" IVar="0" Cut="2.7202055664062500e+03" cType="1" res="7.0215167943388224e-04" rms="2.9433199763298035e-01" purity="5.0176382064819336e-01" nType="0">
        <Node pos="l" depth="1" NCoef="0" IVar="3" Cut="4.1755868530273438e+02" cType="1" res="-1.8529084627516568e-04" rms="2.9620331525802612e-01" purity="4.8981645703315735e-01" nType="0">
          <Node pos="l" depth="2" NCoef="0" IVar="4" Cut="2.7626812744140625e+02" cType="1" res="9.8996283486485481e-04" rms="2.9540240764617920e-01" purity="4.7990170121192932e-01" nType="0">
            <Node pos="l" depth="3" NCoef="0" IVar="-1" Cut="0.0000000000000000e+00" cType="1" res="2.3931271862238646e-03" rms="2.9708608984947205e-01" purity="4.6128109097480774e-01" nType="-99"/>
            <Node pos="r" depth="3" NCoef="0" IVar="-1" Cut="0.0000000000000000e+00" cType="1" res="-3.1664513051509857e-02" rms="2.5945916771888733e-01" purity="8.4229552745819092e-01" nType="-99"/>
          </Node>
          <Node pos="r" depth="2" NCoef="0" IVar="-1" Cut="0.0000000000000000e+00" cType="1" res="-2.6122260838747025e-02" rms="3.1181672215461731e-01" purity="7.0237034559249878e-01" nType="-99"/>
        </Node>
        <Node pos="r" depth="1" NCoef="0" IVar="-1" Cut="0.0000000000000000e+00" cType="1" res="4.3396260589361191e-02" rms="2.1696147322654724e-01" purity="9.1878390312194824e-01" nType="-99"/>
      </Node>
    </BinaryTree>
    <BinaryTree type="DecisionTree" boostWeight="1.0000000000000000e+00" itree="96">
      <Node pos="s" depth="0" NCoef="0" IVar="7" Cut="-5.9816896915435791e-01" cType="1" res="-5.8402091963216662e-04" rms="2.9218250513076782e-01" purity="4.9945265054702759e-01" nType="0">
        <Node pos="l" depth="1" NCoef="0" IVar="9" Cut="9.3306231498718262e-01" cType="1" res="-9.9379811435937881e-03" rms="2.7754160761833191e-01" purity="3.5270833969116211e-01" nType="0">
          <Node pos="l" depth="2" NCoef="0" IVar="8" Cut="9.3360525369644165e-01" cType="1" res="-4.8566604964435101e-03" rms="2.8425011038780212e-01" purity="3.9360058307647705e-01" nType="0">
            <Node pos="l" depth="3" NCoef="0" IVar="-1" Cut="0.0000000000000000e+00" cType="1" res="-9.9657266400754452e-04" rms="2.9553571343421936e-01" purity="4.4448694586753845e-01" nType="-99"/>
            <Node pos="r" depth="3" NCoef="0" IVar="-1" Cut="0.0000000000000000e+00" cType="1" res="-3.8486447185277939e-02" rms="2.2040264308452606e-01" purity="1.4642874896526337e-01" nType="-99"/>
          </Node>
          <Node pos="r" depth="2" NCoef="0" IVar="-1" Cut="0.0000000000000000e+00" cType="1" res="-4.8327393829822540e-02" rms="2.4346953630447388e-01" purity="1.6713662445545197e-01" nType="-99"/>
        </Node>
        <Node pos="r" depth="1" NCoef="0" IVar="7" Cut="8.5805946588516235e-01" cType="1" res="2.4537297431379557e-03" rms="2.9671844840049744e-01" purity="5.4710870981216431e-01" nType="0">
          <Node pos="l" depth="2" NCoef="0" IVar="2" Cut="3.2214813232421875e+02" cType="1" res="6.3626798801124096e-03" rms="3.0589365959167480e-01" purity="6.3441509008407593e-01" nType="0">
            <Node pos="l" depth="3" NCoef="0" IVar="-1" Cut="0.0000000000000000e+00" cType="1" res="1.3888498768210411e-02" rms="3.1707262992858887e-01" purity="5.6162506341934204e-01" nType="-99"/>
            <Node pos="r" depth="3" NCoef="0" IVar="-1" Cut="0.0000000000000000e+00" cType="1" res="1.9404496997594833e-03" rms="2.9881450533866882e-01" purity="6.7859476804733276e-01" nType="-99"/>
          </Node>
          <Node pos="r" depth="2" NCoef="0" IVar="10" Cut="3.9963731169700623e-01" cType="1" res="-1.0769679211080074e-02" rms="2.6289004087448120e-01" purity="2.5176373124122620e-01" nType="0">
            <Node pos="l" depth="3" NCoef="0" IVar="-1" Cut="0.0000000000000000e+00" cType="1" res="-3.2360319048166275e-02" rms="2.5419521331787109e-01" purity="2.5251823663711548e-01" nType="-99"/>
            <Node pos="r" depth="3" NCoef="0" IVar="-1" Cut="0.0000000000000000e+00" cType="1" res="6.7194104194641113e-03" rms="2.7169343829154968e-01" purity="2.5089475512504578e-01" nType="-99"/>
          </Node>
        </Node>
      </Node>
    </BinaryTree>
    <BinaryTree type="DecisionTree" boostWeight="1.0000000000000000e+00" itree="97">
      <Node pos="s" depth="0" NCoef="0" IVar="10" Cut="2.2660140991210938e+00" cType="1" res="9.9811237305402756e-04" rms="2.9813525080680847e-01" purity="5.0157898664474487e-01" nType="0">
        <Node pos="l" depth="1" NCoef="0" IVar="1" Cut="2.0918456837534904e-02" cType="1" res="1.8027955666184425e-03" rms="2.9824668169021606e-01" purity="5.0944489240646362e-01" nType="0">
          <Node pos="l" depth="2" NCoef="0" IVar="11" Cut="-1.3430870771408081e+00" cType="1" res="1.0426303371787071e-02" rms="2.4782860279083252e-01" purity="1.3942958414554596e-01" nType="0">
            <Node pos="l" depth="3" NCoef="0" IVar="-1" Cut="0.0000000000000000e+00" cType="1" res="-5.2770780166611075e-04" rms="2.1829675137996674e-01" purity="8.4684431552886963e-02" nType="-99"/>
            <Node pos="r" depth="3" NCoef="0" IVar="-1" Cut="0.0000000000000000e+00" cType="1" res="4.6353556215763092e-02" rms="3.3063060045242310e-01" purity="3.3754283189773560e-01" nType="-99"/>
          </Node>
          <Node pos="r" depth="2" NCoef="0" IVar="5" Cut="6.8812934875488281e+01" cType="1" res="-8.0390844959765673e-04" rms="3.1183996796607971e-01" purity="6.2129265069961548e-01" nType="0">
            <Node pos="l" depth="3" NCoef="0" IVar="-1" Cut="0.0000000000000000e+00" cType="1" res="8.4080155938863754e-03" rms="3.3939048647880554e-01" purity="2.7244767546653748e-01" nType="-99"/>
            <Node pos="r" depth="3" NCoef="0" IVar="-1" Cut="0.0000000000000000e+00" cType="1" res="-5.4697520099580288e-03" rms="2.9991599917411804e-01" purity="7.6191365718841553e-01" nType="-99"/>
          </Node>
        </Node>
        <Node pos="r" depth="1" NCoef="0" IVar="-1" Cut="0.0000000000000000e+00" cType="1" res="-3.6310579627752304e-02" rms="2.9246199131011963e-01" purity="2.1179805696010590e-01" nType="-99"/>
      </Node>
    </BinaryTree>
    <BinaryTree type="DecisionTree" boostWeight="1.0000000000000000e+00" itree="98">
      <Node pos="s" depth="0" NCoef="0" IVar="7" Cut="1.7378406524658203e+00" cType="1" res="6.8214122438803315e-04" rms="2.9170960187911987e-01" purity="4.9716091156005859e-01" nType="0">
        <Node pos="l" depth="1" NCoef="0" IVar="8" Cut="-1.9998625516891479e+00" cType="1" res="1.5379284741356969e-03" rms="2.9575890302658081e-01" purity="5.1454579830169678e-01" nType="0">
          <Node pos="l" depth="2" NCoef="0" IVar="-1" Cut="0.0000000000000000e+00" cType="1" res="-4.6467751264572144e-02" rms="1.8412551283836365e-01" purity="7.0884108543395996e-02" nType="-99"/>
          <Node pos="r" depth="2" NCoef="0" IVar="7" Cut="-1.7003129720687866e+00" cType="1" res="2.2281492128968239e-03" rms="2.9844936728477478e-01" purity="5.2792054414749146e-01" nType="0">
            <Node pos="l" depth="3" NCoef="0" IVar="-1" Cut="0.0000000000000000e+00" cType="1" res="-4.2725671082735062e-02" rms="1.4704111218452454e-01" purity="7.5275629758834839e-02" nType="-99"/>
            <Node pos="r" depth="3" NCoef="0" IVar="-1" Cut="0.0000000000000000e+00" cType="1" res="3.2002634834498167e-03" rms="3.0285638570785522e-01" purity="5.4581409692764282e-01" nType="-99"/>
          </Node>
        </Node>
        <Node pos="r" depth="1" NCoef="0" IVar="-1" Cut="0.0000000000000000e+00" cType="1" res="-4.7725290060043335e-02" rms="1.5901593863964081e-01" purity="6.3538178801536560e-02" nType="-99"/>
      </Node>
    </BinaryTree>
    <BinaryTree type="DecisionTree" boostWeight="1.0000000000000000e+00" itree="99">
      <Node pos="s" depth="0" NCoef="0" IVar="10" Cut="9.3315583467483521e-01" cType="1" res="1.4068817254155874e-03" rms="2.9711908102035522e-01" purity="4.9701187014579773e-01" nType="0">
        <Node pos="l" depth="1" NCoef="0" IVar="0" Cut="2.4001794433593750e+03" cType="1" res="-1.3265124289318919e-03" rms="2.9490402340888977e-01" purity="5.1992571353912354e-01" nType="0">
          <Node pos="l" depth="2" NCoef="0" IVar="4" Cut="2.6612692260742188e+02" cType="1" res="-2.7772220782935619e-03" rms="2.9978707432746887e-01" purity="4.8994854092597961e-01" nType="0">
            <Node pos="l" depth="3" NCoef="0" IVar="-1" Cut="0.0000000000000000e+00" cType="1" res="-1.2648977572098374e-03" rms="3.0058220028877258e-01" purity="4.6948954463005066e-01" nType="-99"/>
            <Node pos="r" depth="3" NCoef="0" IVar="-1" Cut="0.0000000000000000e+00" cType="1" res="-3.5078361630439758e-02" rms="2.8598818182945251e-01" purity="8.0820161104202271e-01" nType="-99"/>
          </Node>
          <Node pos="r" depth="2" NCoef="0" IVar="7" Cut="1.1735325679183006e-02" cType="1" res="1.7983222380280495e-02" rms="2.1889513731002808e-01" purity="9.1893827915191650e-01" nType="0">
            <Node pos="l" depth="3" NCoef="0" IVar="-1" Cut="0.0000000000000000e+00" cType="1" res="1.8876409158110619e-02" rms="2.1813638508319855e-01" purity="9.1889899969100952e-01" nType="-99"/>
            <Node pos="r" depth="3" NCoef="0" IVar="-1" Cut="0.0000000000000000e+00" cType="1" res="3.8384284824132919e-02" rms="2.1946005523204803e-01" purity="9.1897922754287720e-01" nType="-99"/>
          </Node>
        </Node>
        <Node pos="r" depth="1" NCoef="0" IVar="11" Cut="-2.4478442668914795e+00" cType="1" res="1.0692384093999863e-02" rms="3.0434015393257141e-01" purity="4.1917207837104797e-01" nType="0">
          <Node pos="l" depth="2" NCoef="0" IVar="2" Cut="4.2630023193359375e+02" cType="1" res="2.0615557208657265e-02" rms="2.9785791039466858e-01" purity="2.1663400530815125e-01" nType="0">
            <Node pos="l" depth="3" NCoef="0" IVar="-1" Cut="0.0000000000000000e+00" cType="1" res="4.9546849913895130e-03" rms="2.7560424804687500e-01" purity="1.6008271276950836e-01" nType="-99"/>
            <Node pos="r" depth="3" NCoef="0" IVar="-1" Cut="0.0000000000000000e+00" cType="1" res="5.3563471883535385e-02" rms="3.4039822220802307e-01" purity="3.4651944041252136e-01" nType="-99"/>
          </Node>
          <Node pos="r" depth="2" NCoef="0" IVar="4" Cut="1.6327453613281250e+02" cType="1" res="-1.0188433807343245e-03" rms="3.1141060590744019e-01" purity="6.5820538997650146e-01" nType="0">
            <Node pos="l" depth="3" NCoef="0" IVar="-1" Cut="0.0000000000000000e+00" cType="1" res="1.6065668314695358e-02" rms="3.3733677864074707e-01" purity="4.9159806966781616e-01" nType="-99"/>
            <Node pos="r" depth="3" NCoef="0" IVar="-1" Cut="0.0000000000000000e+00" cType="1" res="-2.3321827873587608e-02" rms="2.8500884771347046e-01" purity="8.0792444944381714e-01" nType="-99"/>
          </Node>
        </Node>
      </Node>
    </BinaryTree>
    <BinaryTree type="DecisionTree" boostWeight="1.0000000000000000e+00" itree="100">
      <Node pos="s" depth="0" NCoef="0" IVar="8" Cut="1.9997545480728149e+00" cType="1" res="2.5965852546505630e-04" rms="2.9229366779327393e-01" purity="4.9860492348670959e-01" nType="0">
        <Node pos="l" depth="1" NCoef="0" IVar="8" Cut="8.5690355300903320e-01" cType="1" res="1.0689378250390291e-03" rms="2.9530504345893860e-01" purity="5.1227265596389771e-01" nType="0">
          <Node pos="l" depth="2" NCoef="0" IVar="1" Cut="1.2550190091133118e-01" cType="1" res="-1.0265748715028167e-03" rms="2.9530167579650879e-01" purity="5.3998136520385742e-01" nType="0">
            <Node pos="l" depth="3" NCoef="0" IVar="-1" Cut="0.0000000000000000e+00" cType="1" res="-4.1384357027709484e-03" rms="3.0571544170379639e-01" purity="4.3729829788208008e-01" nType="-99"/>
            <Node pos="r" depth="3" NCoef="0" IVar="-1" Cut="0.0000000000000000e+00" cType="1" res="1.2082148343324661e-02" rms="2.5909483432769775e-01" purity="8.6727660894393921e-01" nType="-99"/>
          </Node>
          <Node pos="r" depth="2" NCoef="0" IVar="11" Cut="3.1419548392295837e-01" cType="1" res="1.1319648474454880e-02" rms="2.9510709643363953e-01" purity="3.7672895193099976e-01" nType="0">
            <Node pos="l" depth="3" NCoef="0" IVar="-1" Cut="0.0000000000000000e+00" cType="1" res="5.1722065545618534e-03" rms="2.8573554754257202e-01" purity="2.9550889134407043e-01" nType="-99"/>
            <Node pos="r" depth="3" NCoef="0" IVar="-1" Cut="0.0000000000000000e+00" cType="1" res="3.1871501356363297e-02" rms="3.2344505190849304e-01" purity="6.4873242378234863e-01" nType="-99"/>
          </Node>
        </Node>
        <Node pos="r" depth="1" NCoef="0" IVar="-1" Cut="0.0000000000000000e+00" cType="1" res="-6.2658064067363739e-02" rms="1.6365745663642883e-01" purity="5.1151391118764877e-02" nType="-99"/>
      </Node>
    </BinaryTree>
    <BinaryTree type="DecisionTree" boostWeight="1.0000000000000000e+00" itree="101">
      <Node pos="s" depth="0" NCoef="0" IVar="10" Cut="-2.2666718959808350e+00" cType="1" res="1.7444472759962082e-03" rms="2.9154810309410095e-01" purity="5.0765794515609741e-01" nType="0">
        <Node pos="l" depth="1" NCoef="0" IVar="-1" Cut="0.0000000000000000e+00" cType="1" res="-3.5432375967502594e-02" rms="2.6953995227813721e-01" purity="2.0864780247211456e-01" nType="-99"/>
        <Node pos="r" depth="1" NCoef="0" IVar="4" Cut="1.0618012237548828e+02" cType="1" res="2.6256509590893984e-03" rms="2.9207992553710938e-01" purity="5.1587641239166260e-01" nType="0">
          <Node pos="l" depth="2" NCoef="0" IVar="4" Cut="7.4455017089843750e+01" cType="1" res="-5.8471318334341049e-03" rms="2.3366925120353699e-01" purity="9.9602371454238892e-02" nType="0">
            <Node pos="l" depth="3" NCoef="0" IVar="-1" Cut="0.0000000000000000e+00" cType="1" res="-7.1067728102207184e-02" rms="1.2691731750965118e-01" purity="1.6978558152914047e-02" nType="-99"/>
            <Node pos="r" depth="3" NCoef="0" IVar="-1" Cut="0.0000000000000000e+00" cType="1" res="-8.1029842840507627e-04" rms="2.5498691201210022e-01" purity="1.2224161624908447e-01" nType="-99"/>
          </Node>
          <Node pos="r" depth="2" NCoef="0" IVar="6" Cut="1.5782839775085449e+01" cType="1" res="4.9296086654067039e-03" rms="3.0600079894065857e-01" purity="6.2907159328460693e-01" nType="0">
            <Node pos="l" depth="3" NCoef="0" IVar="-1" Cut="0.0000000000000000e+00" cType="1" res="1.0098561644554138e-02" rms="3.4823274612426758e-01" purity="3.3917224407196045e-01" nType="-99"/>
            <Node pos="r" depth="3" NCoef="0" IVar="-1" Cut="0.0000000000000000e+00" cType="1" res="5.6876434246078134e-04" rms="2.7753183245658875e-01" purity="8.0281740427017212e-01" nType="-99"/>
          </Node>
        </Node>
      </Node>
    </BinaryTree>
    <BinaryTree type="DecisionTree" boostWeight="1.0000000000000000e+00" itree="102">
      <Node pos="s" depth="0" NCoef="0" IVar="6" Cut="7.8914199829101562e+01" cType="1" res="-4.6755759976804256e-03" rms="2.9428246617317200e-01" purity="4.9680423736572266e-01" nType="0">
        <Node pos="l" depth="1" NCoef="0" IVar="11" Cut="-2.3847843706607819e-01" cType="1" res="-7.5432453304529190e-03" rms="3.1314694881439209e-01" purity="3.5947990417480469e-01" nType="0">
          <Node pos="l" depth="2" NCoef="0" IVar="2" Cut="4.5449951171875000e+02" cType="1" res="-3.5462281666696072e-03" rms="3.0827036499977112e-01" purity="2.9640513658523560e-01" nType="0">
            <Node pos="l" depth="3" NCoef="0" IVar="-1" Cut="0.0000000000000000e+00" cType="1" res="6.5106718102470040e-04" rms="3.0384284257888794e-01" purity="2.7197042107582092e-01" nType="-99"/>
            <Node pos="r" depth="3" NCoef="0" IVar="-1" Cut="0.0000000000000000e+00" cType="1" res="-1.5294379554688931e-02" rms="3.2171607017517090e-01" purity="3.7488353252410889e-01" nType="-99"/>
          </Node>
          <Node pos="r" depth="2" NCoef="0" IVar="11" Cut="1.9556117057800293e-01" cType="1" res="-2.2129194810986519e-02" rms="3.2992205023765564e-01" purity="5.8965301513671875e-01" nType="0">
            <Node pos="l" depth="3" NCoef="0" IVar="-1" Cut="0.0000000000000000e+00" cType="1" res="-4.3466471135616302e-02" rms="3.3772015571594238e-01" purity="6.2470239400863647e-01" nType="-99"/>
            <Node pos="r" depth="3" NCoef="0" IVar="-1" Cut="0.0000000000000000e+00" cType="1" res="-1.3063633814454079e-02" rms="3.2718020677566528e-01" purity="5.7944726943969727e-01" nType="-99"/>
          </Node>
        </Node>
        <Node pos="r" depth="1" NCoef="0" IVar="1" Cut="6.2756948173046112e-02" cType="1" res="4.0021156892180443e-03" rms="2.2765542566776276e-01" purity="9.1235357522964478e-01" nType="0">
          <Node pos="l" depth="2" NCoef="0" IVar="7" Cut="4.1215876117348671e-03" cType="1" res="1.9132254645228386e-02" rms="3.1019324064254761e-01" purity="7.9442369937896729e-01" nType="0">
            <Node pos="l" depth="3" NCoef="0" IVar="-1" Cut="0.0000000000000000e+00" cType="1" res="1.0401105508208275e-02" rms="3.0939465761184692e-01" purity="7.9234194755554199e-01" nType="-99"/>
            <Node pos="r" depth="3" NCoef="0" IVar="-1" Cut="0.0000000000000000e+00" cType="1" res="2.4856297299265862e-02" rms="3.1075325608253479e-01" purity="7.9639524221420288e-01" nType="-99"/>
          </Node>
          <Node pos="r" depth="2" NCoef="0" IVar="-1" Cut="0.0000000000000000e+00" cType="1" res="-3.2470934092998505e-03" rms="1.9053983688354492e-01" purity="9.5330226421356201e-01" nType="-99"/>
        </Node>
      </Node>
    </BinaryTree>
    <BinaryTree type="DecisionTree" boostWeight="1.0000000000000000e+00" itree="103">
      <Node pos="s" depth="0" NCoef="0" IVar="3" Cut="2.4241531372070312e+02" cType="1" res="2.5642433320172131e-04" rms="2.9626530408859253e-01" purity="4.9745458364486694e-01" nType="0">
        <Node pos="l" depth="1" NCoef="0" IVar="10" Cut="1.4665429592132568e+00" cType="1" res="3.8989321328699589e-03" rms="2.9636883735656738e-01" purity="3.6660790443420410e-01" nType="0">
          <Node pos="l" depth="2" NCoef="0" IVar="0" Cut="1.2920656738281250e+03" cType="1" res="1.6772284870967269e-03" rms="2.9726931452751160e-01" purity="3.8022303581237793e-01" nType="0">
            <Node pos="l" depth="3" NCoef="0" IVar="-1" Cut="0.0000000000000000e+00" cType="1" res="-5.0205853767693043e-03" rms="2.7868816256523132e-01" purity="1.3784062862396240e-01" nType="-99"/>
            <Node pos="r" depth="3" NCoef="0" IVar="-1" Cut="0.0000000000000000e+00" cType="1" res="8.0689350143074989e-03" rms="3.1747853755950928e-01" purity="6.6339284181594849e-01" nType="-99"/>
          </Node>
          <Node pos="r" depth="2" NCoef="0" IVar="8" Cut="-1.3339743018150330e-01" cType="1" res="1.8820717930793762e-02" rms="2.8980731964111328e-01" purity="2.7516329288482666e-01" nType="0">
            <Node pos="l" depth="3" NCoef="0" IVar="-1" Cut="0.0000000000000000e+00" cType="1" res="-9.6395835280418396e-03" rms="2.8531605005264282e-01" purity="2.5838074088096619e-01" nType="-99"/>
            <Node pos="r" depth="3" NCoef="0" IVar="-1" Cut="0.0000000000000000e+00" cType="1" res="4.2928759008646011e-02" rms="2.9138863086700439e-01" purity="2.8575921058654785e-01" nType="-99"/>
          </Node>
        </Node>
        <Node pos="r" depth="1" NCoef="0" IVar="9" Cut="-9.3340748548507690e-01" cType="1" res="-5.2006090991199017e-03" rms="2.9602625966072083e-01" purity="6.9348281621932983e-01" nType="0">
          <Node pos="l" depth="2" NCoef="0" IVar="7" Cut="-9.3983468832448125e-04" cType="1" res="-2.9140088707208633e-02" rms="3.1740468740463257e-01" purity="5.1802837848663330e-01" nType="0">
            <Node pos="l" depth="3" NCoef="0" IVar="-1" Cut="0.0000000000000000e+00" cType="1" res="-7.8779077157378197e-03" rms="3.2264736294746399e-01" purity="5.5749392509460449e-01" nType="-99"/>
            <Node pos="r" depth="3" NCoef="0" IVar="-1" Cut="0.0000000000000000e+00" cType="1" res="-5.5446486920118332e-02" rms="3.0794885754585266e-01" purity="4.6447739005088806e-01" nType="-99"/>
          </Node>
          <Node pos="r" depth="2" NCoef="0" IVar="1" Cut="2.0146038383245468e-02" cType="1" res="-1.0231174528598785e-03" rms="2.9193428158760071e-01" purity="7.2410005331039429e-01" nType="0">
            <Node pos="l" depth="3" NCoef="0" IVar="-1" Cut="0.0000000000000000e+00" cType="1" res="1.5539041720330715e-02" rms="3.1314432621002197e-01" purity="2.8406152129173279e-01" nType="-99"/>
            <Node pos="r" depth="3" NCoef="0" IVar="-1" Cut="0.0000000000000000e+00" cType="1" res="-5.1706698723137379e-03" rms="2.8761020302772522e-01" purity="8.0758517980575562e-01" nType="-99"/>
          </Node>
        </Node>
      </Node>
    </BinaryTree>
    <BinaryTree type="DecisionTree" boostWeight="1.0000000000000000e+00" itree="104">
      <Node pos="s" depth="0" NCoef="0" IVar="9" Cut="9.3326187133789062e-01" cType="1" res="-4.1932547464966774e-03" rms="2.9043653607368469e-01" purity="4.9700400233268738e-01" nType="0">
        <Node pos="l" depth="1" NCoef="0" IVar="5" Cut="7.0725769042968750e+01" cType="1" res="-1.6467680688947439e-03" rms="2.9228472709655762e-01" purity="5.3801882266998291e-01" nType="0">
          <Node pos="l" depth="2" NCoef="0" IVar="5" Cut="5.3947673797607422e+01" cType="1" res="-8.1190550699830055e-03" rms="2.9073601961135864e-01" purity="1.9750416278839111e-01" nType="0">
            <Node pos="l" depth="3" NCoef="0" IVar="-1" Cut="0.0000000000000000e+00" cType="1" res="-2.9425021260976791e-02" rms="2.5132811069488525e-01" purity="1.0774497687816620e-01" nType="-99"/>
            <Node pos="r" depth="3" NCoef="0" IVar="-1" Cut="0.0000000000000000e+00" cType="1" res="-3.1487466767430305e-03" rms="3.0367541313171387e-01" purity="2.3021179437637329e-01" nType="-99"/>
          </Node>
          <Node pos="r" depth="2" NCoef="0" IVar="5" Cut="9.0465065002441406e+01" cType="1" res="2.2068487014621496e-03" rms="2.9313510656356812e-01" purity="7.4076217412948608e-01" nType="0">
            <Node pos="l" depth="3" NCoef="0" IVar="-1" Cut="0.0000000000000000e+00" cType="1" res="1.0963696986436844e-02" rms="3.4619554877281189e-01" purity="5.2791327238082886e-01" nType="-99"/>
            <Node pos="r" depth="3" NCoef="0" IVar="-1" Cut="0.0000000000000000e+00" cType="1" res="-4.3297512456774712e-03" rms="2.6414591073989868e-01" purity="8.4156996011734009e-01" nType="-99"/>
          </Node>
        </Node>
        <Node pos="r" depth="1" NCoef="0" IVar="4" Cut="2.0348742675781250e+02" cType="1" res="-1.5019120648503304e-02" rms="2.8218790888786316e-01" purity="3.2263797521591187e-01" nType="0">
          <Node pos="l" depth="2" NCoef="0" IVar="5" Cut="8.1950775146484375e+01" cType="1" res="-1.0192581452429295e-02" rms="2.7842703461647034e-01" purity="2.5383222103118896e-01" nType="0">
            <Node pos="l" depth="3" NCoef="0" IVar="-1" Cut="0.0000000000000000e+00" cType="1" res="-2.9206316918134689e-02" rms="2.4817955493927002e-01" purity="1.0768804699182510e-01" nType="-99"/>
            <Node pos="r" depth="3" NCoef="0" IVar="-1" Cut="0.0000000000000000e+00" cType="1" res="1.1556799523532391e-02" rms="3.3787769079208374e-01" purity="5.9677547216415405e-01" nType="-99"/>
          </Node>
          <Node pos="r" depth="2" NCoef="0" IVar="-1" Cut="0.0000000000000000e+00" cType="1" res="-3.9882849901914597e-02" rms="2.9857823252677917e-01" purity="6.5464836359024048e-01" nType="-99"/>
        </Node>
      </Node>
    </BinaryTree>
    <BinaryTree type="DecisionTree" boostWeight="1.0000000000000000e+00" itree="105">
      <Node pos="s" depth="0" NCoef="0" IVar="0" Cut="2.0801359863281250e+03" cType="1" res="9.0720603475347161e-04" rms="2.9522457718849182e-01" purity="4.9841183423995972e-01" nType="0">
        <Node pos="l" depth="1" NCoef="0" IVar="2" Cut="2.4005662536621094e+02" cType="1" res="-9.8148651886731386e-04" rms="3.0591353774070740e-01" purity="4.2335194349288940e-01" nType="0">
          <Node pos="l" depth="2" NCoef="0" IVar="7" Cut="-3.5633690655231476e-02" cType="1" res="1.9323896616697311e-02" rms="3.0213460326194763e-01" purity="3.6785885691642761e-01" nType="0">
            <Node pos="l" depth="3" NCoef="0" IVar="-1" Cut="0.0000000000000000e+00" cType="1" res="3.8144130259752274e-02" rms="3.0470663309097290e-01" purity="3.8522240519523621e-01" nType="-99"/>
            <Node pos="r" depth="3" NCoef="0" IVar="-1" Cut="0.0000000000000000e+00" cType="1" res="7.4644871056079865e-03" rms="2.9919978976249695e-01" purity="3.5219210386276245e-01" nType="-99"/>
          </Node>
          <Node pos="r" depth="2" NCoef="0" IVar="10" Cut="-6.6695255041122437e-01" cType="1" res="-4.7616213560104370e-03" rms="3.0646339058876038e-01" purity="4.3368279933929443e-01" nType="0">
            <Node pos="l" depth="3" NCoef="0" IVar="-1" Cut="0.0000000000000000e+00" cType="1" res="-1.5601642429828644e-02" rms="3.0275782942771912e-01" purity="3.7842953205108643e-01" nType="-99"/>
            <Node pos="r" depth="3" NCoef="0" IVar="-1" Cut="0.0000000000000000e+00" cType="1" res="-4.9740687245503068e-04" rms="3.0792042613029480e-01" purity="4.5709574222564697e-01" nType="-99"/>
          </Node>
        </Node>
        <Node pos="r" depth="1" NCoef="0" IVar="10" Cut="-6.6687333583831787e-01" cType="1" res="1.1061595752835274e-02" rms="2.2910460829734802e-01" purity="9.0196478366851807e-01" nType="0">
          <Node pos="l" depth="2" NCoef="0" IVar="-1" Cut="0.0000000000000000e+00" cType="1" res="3.1257089227437973e-02" rms="2.3429779708385468e-01" purity="8.9345818758010864e-01" nType="-99"/>
          <Node pos="r" depth="2" NCoef="0" IVar="3" Cut="4.2927230834960938e+02" cType="1" res="6.9504892453551292e-03" rms="2.2712032496929169e-01" purity="9.0493386983871460e-01" nType="0">
            <Node pos="l" depth="3" NCoef="0" IVar="-1" Cut="0.0000000000000000e+00" cType="1" res="2.2917149588465691e-02" rms="2.1298623085021973e-01" purity="9.2140161991119385e-01" nType="-99"/>
            <Node pos="r" depth="3" NCoef="0" IVar="-1" Cut="0.0000000000000000e+00" cType="1" res="-1.0253803804516792e-02" rms="2.6242837309837341e-01" purity="8.5841035842895508e-01" nType="-99"/>
          </Node>
        </Node>
      </Node>
    </BinaryTree>
    <BinaryTree type="DecisionTree" boostWeight="1.0000000000000000e+00" itree="106">
      <Node pos="s" depth="0" NCoef="0" IVar="2" Cut="5.6871514892578125e+02" cType="1" res="3.4166881814599037e-03" rms="2.9136267304420471e-01" purity="5.0270760059356689e-01" nType="0">
        <Node pos="l" depth="1" NCoef="0" IVar="0" Cut="1.5655474853515625e+03" cType="1" res="5.4646092467010021e-03" rms="2.8882524371147156e-01" purity="4.9256291985511780e-01" nType="0">
          <Node pos="l" depth="2" NCoef="0" IVar="9" Cut="-3.9968439936637878e-01" cType="1" res="9.2616089386865497e-04" rms="3.0648219585418701e-01" purity="2.7233549952507019e-01" nType="0">
            <Node pos="l" depth="3" NCoef="0" IVar="-1" Cut="0.0000000000000000e+00" cType="1" res="1.3396942056715488e-02" rms="3.1106337904930115e-01" purity="2.6839464902877808e-01" nType="-99"/>
            <Node pos="r" depth="3" NCoef="0" IVar="-1" Cut="0.0000000000000000e+00" cType="1" res="-6.5655047073960304e-03" rms="3.0337572097778320e-01" purity="2.7478408813476562e-01" nType="-99"/>
          </Node>
          <Node pos="r" depth="2" NCoef="0" IVar="4" Cut="2.3431138610839844e+02" cType="1" res="1.3150563463568687e-02" rms="2.5597837567329407e-01" purity="8.6552244424819946e-01" nType="0">
            <Node pos="l" depth="3" NCoef="0" IVar="-1" Cut="0.0000000000000000e+00" cType="1" res="2.5046762079000473e-02" rms="2.5938430428504944e-01" purity="8.5926544666290283e-01" nType="-99"/>
            <Node pos="r" depth="3" NCoef="0" IVar="-1" Cut="0.0000000000000000e+00" cType="1" res="1.1772055877372622e-03" rms="2.4864323437213898e-01" purity="8.7789320945739746e-01" nType="-99"/>
          </Node>
        </Node>
        <Node pos="r" depth="1" NCoef="0" IVar="8" Cut="1.3012547791004181e-01" cType="1" res="-1.2962324544787407e-02" rms="3.1042689085006714e-01" purity="5.8384418487548828e-01" nType="0">
          <Node pos="l" depth="2" NCoef="0" IVar="3" Cut="3.3807781982421875e+02" cType="1" res="1.6857848968356848e-03" rms="3.2350444793701172e-01" purity="6.0891044139862061e-01" nType="0">
            <Node pos="l" depth="3" NCoef="0" IVar="-1" Cut="0.0000000000000000e+00" cType="1" res="-8.4994332864880562e-03" rms="3.2635891437530518e-01" purity="5.0556433200836182e-01" nType="-99"/>
            <Node pos="r" depth="3" NCoef="0" IVar="-1" Cut="0.0000000000000000e+00" cType="1" res="1.3780475594103336e-02" rms="3.1963595747947693e-01" purity="7.3021721839904785e-01" nType="-99"/>
          </Node>
          <Node pos="r" depth="2" NCoef="0" IVar="-1" Cut="0.0000000000000000e+00" cType="1" res="-3.3867321908473969e-02" rms="2.9061257839202881e-01" purity="5.4990363121032715e-01" nType="-99"/>
        </Node>
      </Node>
    </BinaryTree>
    <BinaryTree type="DecisionTree" boostWeight="1.0000000000000000e+00" itree="107">
      <Node pos="s" depth="0" NCoef="0" IVar="10" Cut="9.3277812004089355e-01" cType="1" res="2.7846435550600290e-03" rms="2.9470187425613403e-01" purity="5.0072401762008667e-01" nType="0">
        <Node pos="l" depth="1" NCoef="0" IVar="1" Cut="8.3596386015415192e-02" cType="1" res="5.3759478032588959e-03" rms="2.9368737339973450e-01" purity="5.2797389030456543e-01" nType="0">
          <Node pos="l" depth="2" NCoef="0" IVar="1" Cut="1.5924440696835518e-02" cType="1" res="9.2623522505164146e-03" rms="3.0269145965576172e-01" purity="3.5674878954887390e-01" nType="0">
            <Node pos="l" depth="3" NCoef="0" IVar="-1" Cut="0.0000000000000000e+00" cType="1" res="-4.3450025841593742e-03" rms="2.1566258370876312e-01" purity="1.1029418557882309e-01" nType="-99"/>
            <Node pos="r" depth="3" NCoef="0" IVar="-1" Cut="0.0000000000000000e+00" cType="1" res="1.2617573142051697e-02" rms="3.3076754212379456e-01" purity="4.5433104038238525e-01" nType="-99"/>
          </Node>
          <Node pos="r" depth="2" NCoef="0" IVar="5" Cut="1.1217729187011719e+02" cType="1" res="-1.3207338051870465e-03" rms="2.7736002206802368e-01" purity="8.2301265001296997e-01" nType="0">
            <Node pos="l" depth="3" NCoef="0" IVar="-1" Cut="0.0000000000000000e+00" cType="1" res="-6.0407547280192375e-03" rms="3.4005287289619446e-01" purity="7.0689529180526733e-01" nType="-99"/>
            <Node pos="r" depth="3" NCoef="0" IVar="-1" Cut="0.0000000000000000e+00" cType="1" res="1.6310522332787514e-02" rms="1.7162072658538818e-01" purity="9.6517395973205566e-01" nType="-99"/>
          </Node>
        </Node>
        <Node pos="r" depth="1" NCoef="0" IVar="7" Cut="-4.3931484222412109e-02" cType="1" res="-6.1880685389041901e-03" rms="2.9801398515701294e-01" purity="4.0636798739433289e-01" nType="0">
          <Node pos="l" depth="2" NCoef="0" IVar="9" Cut="1.3367559015750885e-01" cType="1" res="-2.0097980275750160e-02" rms="2.9336312413215637e-01" purity="3.8695132732391357e-01" nType="0">
            <Node pos="l" depth="3" NCoef="0" IVar="-1" Cut="0.0000000000000000e+00" cType="1" res="-3.8998320698738098e-02" rms="3.0139657855033875e-01" purity="3.9575943350791931e-01" nType="-99"/>
            <Node pos="r" depth="3" NCoef="0" IVar="-1" Cut="0.0000000000000000e+00" cType="1" res="-4.8810928128659725e-03" rms="2.8383091092109680e-01" purity="3.7774536013603210e-01" nType="-99"/>
          </Node>
          <Node pos="r" depth="2" NCoef="0" IVar="5" Cut="6.5706573486328125e+01" cType="1" res="3.9835320785641670e-03" rms="3.0096283555030823e-01" purity="4.2056646943092346e-01" nType="0">
            <Node pos="l" depth="3" NCoef="0" IVar="-1" Cut="0.0000000000000000e+00" cType="1" res="2.7009412646293640e-02" rms="2.7653583884239197e-01" purity="1.5269735455513000e-01" nType="-99"/>
            <Node pos="r" depth="3" NCoef="0" IVar="-1" Cut="0.0000000000000000e+00" cType="1" res="-5.3847716189920902e-03" rms="3.1476092338562012e-01" purity="5.8623647689819336e-01" nType="-99"/>
          </Node>
        </Node>
      </Node>
    </BinaryTree>
    <BinaryTree type="DecisionTree" boostWeight="1.0000000000000000e+00" itree="108">
      <Node pos="s" depth="0" NCoef="0" IVar="0" Cut="2.0005295410156250e+03" cType="1" res="-3.5173734650015831e-03" rms="2.9403886198997498e-01" purity="4.8853904008865356e-01" nType="0">
        <Node pos="l" depth="1" NCoef="0" IVar="4" Cut="2.5960446166992188e+02" cType="1" res="-5.7527213357388973e-03" rms="3.0463755130767822e-01" purity="4.0081441402435303e-01" nType="0">
          <Node pos="l" depth="2" NCoef="0" IVar="10" Cut="3.9993089437484741e-01" cType="1" res="-4.3633235618472099e-03" rms="3.0290788412094116e-01" purity="3.9095079898834229e-01" nType="0">
            <Node pos="l" depth="3" NCoef="0" IVar="-1" Cut="0.0000000000000000e+00" cType="1" res="3.7928816163912416e-04" rms="3.0424228310585022e-01" purity="4.1214990615844727e-01" nType="-99"/>
            <Node pos="r" depth="3" NCoef="0" IVar="-1" Cut="0.0000000000000000e+00" cType="1" res="-1.3118259608745575e-02" rms="3.0057755112648010e-01" purity="3.5662826895713806e-01" nType="-99"/>
          </Node>
          <Node pos="r" depth="2" NCoef="0" IVar="-1" Cut="0.0000000000000000e+00" cType="1" res="-4.0281955152750015e-02" rms="3.4681525826454163e-01" purity="6.7302173376083374e-01" nType="-99"/>
        </Node>
        <Node pos="r" depth="1" NCoef="0" IVar="3" Cut="3.3807781982421875e+02" cType="1" res="6.7534502595663071e-03" rms="2.3911510407924652e-01" purity="8.9161020517349243e-01" nType="0">
          <Node pos="l" depth="2" NCoef="0" IVar="7" Cut="-2.3708844184875488e-01" cType="1" res="1.7106423154473305e-02" rms="2.2130011022090912e-01" purity="9.1792052984237671e-01" nType="0">
            <Node pos="l" depth="3" NCoef="0" IVar="-1" Cut="0.0000000000000000e+00" cType="1" res="1.3770476914942265e-02" rms="2.3171293735504150e-01" purity="9.0273982286453247e-01" nType="-99"/>
            <Node pos="r" depth="3" NCoef="0" IVar="-1" Cut="0.0000000000000000e+00" cType="1" res="4.1264031082391739e-02" rms="2.1531397104263306e-01" purity="9.2607575654983521e-01" nType="-99"/>
          </Node>
          <Node pos="r" depth="2" NCoef="0" IVar="0" Cut="2.2435334472656250e+03" cType="1" res="-2.5988637935370207e-03" rms="2.5377401709556580e-01" purity="8.6784303188323975e-01" nType="0">
            <Node pos="l" depth="3" NCoef="0" IVar="-1" Cut="0.0000000000000000e+00" cType="1" res="-2.4094134569168091e-02" rms="2.9628878831863403e-01" purity="7.9329049587249756e-01" nType="-99"/>
            <Node pos="r" depth="3" NCoef="0" IVar="-1" Cut="0.0000000000000000e+00" cType="1" res="8.4536550566554070e-03" rms="2.3153245449066162e-01" purity="9.0161365270614624e-01" nType="-99"/>
          </Node>
        </Node>
      </Node>
    </BinaryTree>
    <BinaryTree type="DecisionTree" boostWeight="1.0000000000000000e+00" itree="109">
      <Node pos="s" depth="0" NCoef="0" IVar="10" Cut="1.9997546672821045e+00" cType="1" res="3.7435407284647226e-03" rms="2.9429373145103455e-01" purity="5.0315260887145996e-01" nType="0">
        <Node pos="l" depth="1" NCoef="0" IVar="7" Cut="4.2369833588600159e-01" cType="1" res="4.6822130680084229e-03" rms="2.9501906037330627e-01" purity="5.1601243019104004e-01" nType="0">
          <Node pos="l" depth="2" NCoef="0" IVar="11" Cut="1.4190381765365601e+00" cType="1" res="7.6532084494829178e-03" rms="2.9847520589828491e-01" purity="5.6277757883071899e-01" nType="0">
            <Node pos="l" depth="3" NCoef="0" IVar="-1" Cut="0.0000000000000000e+00" cType="1" res="1.0240207426249981e-02" rms="2.9751592874526978e-01" purity="5.5641204118728638e-01" nType="-99"/>
            <Node pos="r" depth="3" NCoef="0" IVar="-1" Cut="0.0000000000000000e+00" cType="1" res="-1.9856542348861694e-02" rms="3.1295999884605408e-01" purity="6.6978728771209717e-01" nType="-99"/>
          </Node>
          <Node pos="r" depth="2" NCoef="0" IVar="8" Cut="-9.3370920419692993e-01" cType="1" res="-1.9106690306216478e-03" rms="2.8709134459495544e-01" purity="4.1223669052124023e-01" nType="0">
            <Node pos="l" depth="3" NCoef="0" IVar="-1" Cut="0.0000000000000000e+00" cType="1" res="-3.2565459609031677e-02" rms="2.4341152608394623e-01" purity="1.7711040377616882e-01" nType="-99"/>
            <Node pos="r" depth="3" NCoef="0" IVar="-1" Cut="0.0000000000000000e+00" cType="1" res="2.2062929347157478e-03" rms="2.9513865709304810e-01" purity="4.6068090200424194e-01" nType="-99"/>
          </Node>
        </Node>
        <Node pos="r" depth="1" NCoef="0" IVar="-1" Cut="0.0000000000000000e+00" cType="1" res="-1.8427828326821327e-02" rms="2.7925437688827515e-01" purity="2.5410509109497070e-01" nType="-99"/>
      </Node>
    </BinaryTree>
    <BinaryTree type="DecisionTree" boostWeight="1.0000000000000000e+00" itree="110">
      <Node pos="s" depth="0" NCoef="0" IVar="0" Cut="1.3751887207031250e+03" cType="1" res="4.0848981589078903e-03" rms="2.9124966263771057e-01" purity="5.0404840707778931e-01" nType="0">
        <Node pos="l" depth="1" NCoef="0" IVar="2" Cut="3.9258242797851562e+02" cType="1" res="-2.7396664954721928e-03" rms="2.8707379102706909e-01" purity="1.7749254405498505e-01" nType="0">
          <Node pos="l" depth="2" NCoef="0" IVar="8" Cut="-6.6669541597366333e-01" cType="1" res="1.1400987859815359e-03" rms="2.9732376337051392e-01" purity="1.9618016481399536e-01" nType="0">
            <Node pos="l" depth="3" NCoef="0" IVar="-1" Cut="0.0000000000000000e+00" cType="1" res="-1.3339661061763763e-02" rms="2.5310185551643372e-01" purity="1.2987376749515533e-01" nType="-99"/>
            <Node pos="r" depth="3" NCoef="0" IVar="-1" Cut="0.0000000000000000e+00" cType="1" res="5.8392616920173168e-03" rms="3.1375506520271301e-01" purity="2.2371613979339600e-01" nType="-99"/>
          </Node>
          <Node pos="r" depth="2" NCoef="0" IVar="8" Cut="-1.3032646477222443e-01" cType="1" res="-2.7885349467396736e-02" rms="2.0702297985553741e-01" purity="5.6373659521341324e-02" nType="0">
            <Node pos="l" depth="3" NCoef="0" IVar="-1" Cut="0.0000000000000000e+00" cType="1" res="-6.0303419828414917e-02" rms="1.8356812000274658e-01" purity="4.8499193042516708e-02" nType="-99"/>
            <Node pos="r" depth="3" NCoef="0" IVar="-1" Cut="0.0000000000000000e+00" cType="1" res="-3.0842708423733711e-02" rms="2.2431671619415283e-01" purity="6.2933787703514099e-02" nType="-99"/>
          </Node>
        </Node>
        <Node pos="r" depth="1" NCoef="0" IVar="6" Cut="5.8700405120849609e+01" cType="1" res="9.0200426056981087e-03" rms="2.9413384199142456e-01" purity="7.4019539356231689e-01" nType="0">
          <Node pos="l" depth="2" NCoef="0" IVar="4" Cut="1.0717841339111328e+02" cType="1" res="2.2886270657181740e-02" rms="3.5909900069236755e-01" purity="5.1389658451080322e-01" nType="0">
            <Node pos="l" depth="3" NCoef="0" IVar="-1" Cut="0.0000000000000000e+00" cType="1" res="-6.2886262312531471e-03" rms="3.0530211329460144e-01" purity="1.9403666257858276e-01" nType="-99"/>
            <Node pos="r" depth="3" NCoef="0" IVar="-1" Cut="0.0000000000000000e+00" cType="1" res="1.9406605511903763e-02" rms="3.6546263098716736e-01" purity="5.5633103847503662e-01" nType="-99"/>
          </Node>
          <Node pos="r" depth="2" NCoef="0" IVar="2" Cut="4.0961572265625000e+02" cType="1" res="2.0018137001898140e-04" rms="2.4356023967266083e-01" purity="8.8413673639297485e-01" nType="0">
            <Node pos="l" depth="3" NCoef="0" IVar="-1" Cut="0.0000000000000000e+00" cType="1" res="1.5699487179517746e-02" rms="2.3096822202205658e-01" purity="9.0545165538787842e-01" nType="-99"/>
            <Node pos="r" depth="3" NCoef="0" IVar="-1" Cut="0.0000000000000000e+00" cType="1" res="-1.7244417220354080e-02" rms="2.5804764032363892e-01" purity="8.5732513666152954e-01" nType="-99"/>
          </Node>
        </Node>
      </Node>
    </BinaryTree>
    <BinaryTree type="DecisionTree" boostWeight="1.0000000000000000e+00" itree="111">
      <Node pos="s" depth="0" NCoef="0" IVar="7" Cut="-9.2594558000564575e-01" cType="1" res="-1.7457534559071064e-03" rms="2.9161423444747925e-01" purity="4.9823743104934692e-01" nType="0">
        <Node pos="l" depth="1" NCoef="0" IVar="7" Cut="-1.6355639696121216e+00" cType="1" res="9.1681294143199921e-03" rms="2.6808390021324158e-01" purity="2.5192412734031677e-01" nType="0">
          <Node pos="l" depth="2" NCoef="0" IVar="-1" Cut="0.0000000000000000e+00" cType="1" res="-4.3102908879518509e-02" rms="1.6422618925571442e-01" purity="7.2543330490589142e-02" nType="-99"/>
          <Node pos="r" depth="2" NCoef="0" IVar="9" Cut="1.2929175794124603e-01" cType="1" res="1.9352052360773087e-02" rms="2.9805222153663635e-01" purity="3.2119515538215637e-01" nType="0">
            <Node pos="l" depth="3" NCoef="0" IVar="-1" Cut="0.0000000000000000e+00" cType="1" res="3.9145477116107941e-02" rms="3.0998227000236511e-01" purity="3.4655559062957764e-01" nType="-99"/>
            <Node pos="r" depth="3" NCoef="0" IVar="-1" Cut="0.0000000000000000e+00" cType="1" res="-8.5830884054303169e-03" rms="2.7505874633789062e-01" purity="2.7891027927398682e-01" nType="-99"/>
          </Node>
        </Node>
        <Node pos="r" depth="1" NCoef="0" IVar="0" Cut="1.4400944824218750e+03" cType="1" res="-3.6535798572003841e-03" rms="2.9549381136894226e-01" purity="5.4129481315612793e-01" nType="0">
          <Node pos="l" depth="2" NCoef="0" IVar="7" Cut="3.1572273373603821e-01" cType="1" res="-9.2800268903374672e-03" rms="3.0606114864349365e-01" purity="2.3928132653236389e-01" nType="0">
            <Node pos="l" depth="3" NCoef="0" IVar="-1" Cut="0.0000000000000000e+00" cType="1" res="-1.5598273836076260e-02" rms="3.2992884516716003e-01" purity="2.9896852374076843e-01" nType="-99"/>
            <Node pos="r" depth="3" NCoef="0" IVar="-1" Cut="0.0000000000000000e+00" cType="1" res="4.4948703725822270e-04" rms="2.7817901968955994e-01" purity="1.7593786120414734e-01" nType="-99"/>
          </Node>
          <Node pos="r" depth="2" NCoef="0" IVar="1" Cut="2.0469512790441513e-02" cType="1" res="9.3235372332856059e-04" rms="2.8651094436645508e-01" purity="7.8745609521865845e-01" nType="0">
            <Node pos="l" depth="3" NCoef="0" IVar="-1" Cut="0.0000000000000000e+00" cType="1" res="1.8297875300049782e-02" rms="3.3867576718330383e-01" purity="3.4657976031303406e-01" nType="-99"/>
            <Node pos="r" depth="3" NCoef="0" IVar="-1" Cut="0.0000000000000000e+00" cType="1" res="-2.6158804539591074e-03" rms="2.7815961837768555e-01" purity="8.5022068023681641e-01" nType="-99"/>
          </Node>
        </Node>
      </Node>
    </BinaryTree>
    <BinaryTree type="DecisionTree" boostWeight="1.0000000000000000e+00" itree="112">
      <Node pos="s" depth="0" NCoef="0" IVar="2" Cut="7.1556475830078125e+02" cType="1" res="-8.9845032198354602e-04" rms="2.9231414198875427e-01" purity="5.0352233648300171e-01" nType="0">
        <Node pos="l" depth="1" NCoef="0" IVar="8" Cut="-1.7332048416137695e+00" cType="1" res="4.5970307837706059e-05" rms="2.9039359092712402e-01" purity="5.0091785192489624e-01" nType="0">
          <Node pos="l" depth="2" NCoef="0" IVar="-1" Cut="0.0000000000000000e+00" cType="1" res="-3.2215777784585953e-02" rms="2.0164075493812561e-01" purity="8.8568285107612610e-02" nType="-99"/>
          <Node pos="r" depth="2" NCoef="0" IVar="2" Cut="6.1735546875000000e+02" cType="1" res="9.0476707555353642e-04" rms="2.9432606697082520e-01" purity="5.2276843786239624e-01" nType="0">
            <Node pos="l" depth="3" NCoef="0" IVar="-1" Cut="0.0000000000000000e+00" cType="1" res="1.8941450398415327e-03" rms="2.9311785101890564e-01" purity="5.1865637302398682e-01" nType="-99"/>
            <Node pos="r" depth="3" NCoef="0" IVar="-1" Cut="0.0000000000000000e+00" cType="1" res="-1.6134062781929970e-02" rms="3.1833225488662720e-01" purity="6.0957121849060059e-01" nType="-99"/>
          </Node>
        </Node>
        <Node pos="r" depth="1" NCoef="0" IVar="-1" Cut="0.0000000000000000e+00" cType="1" res="-2.1711418405175209e-02" rms="3.4032785892486572e-01" purity="5.7587343454360962e-01" nType="-99"/>
      </Node>
    </BinaryTree>
    <BinaryTree type="DecisionTree" boostWeight="1.0000000000000000e+00" itree="113">
      <Node pos="s" depth="0" NCoef="0" IVar="9" Cut="1.9999843835830688e+00" cType="1" res="9.0731878299266100e-04" rms="2.9095798730850220e-01" purity="5.0589287281036377e-01" nType="0">
        <Node pos="l" depth="1" NCoef="0" IVar="1" Cut="4.0926158428192139e-02" cType="1" res="1.7922084080055356e-03" rms="2.9345324635505676e-01" purity="5.1951330900192261e-01" nType="0">
          <Node pos="l" depth="2" NCoef="0" IVar="5" Cut="6.8246124267578125e+01" cType="1" res="8.0497376620769501e-03" rms="2.7761793136596680e-01" purity="2.2246563434600830e-01" nType="0">
            <Node pos="l" depth="3" NCoef="0" IVar="-1" Cut="0.0000000000000000e+00" cType="1" res="-5.6218048557639122e-03" rms="2.2705283761024475e-01" purity="9.0080581605434418e-02" nType="-99"/>
            <Node pos="r" depth="3" NCoef="0" IVar="-1" Cut="0.0000000000000000e+00" cType="1" res="1.9845793023705482e-02" rms="3.3062660694122314e-01" purity="3.9165881276130676e-01" nType="-99"/>
          </Node>
          <Node pos="r" depth="2" NCoef="0" IVar="0" Cut="1.8457272949218750e+03" cType="1" res="-2.2189130540937185e-03" rms="3.0310112237930298e-01" purity="7.0992302894592285e-01" nType="0">
            <Node pos="l" depth="3" NCoef="0" IVar="-1" Cut="0.0000000000000000e+00" cType="1" res="-6.2846643850207329e-03" rms="3.4405493736267090e-01" purity="5.9084022045135498e-01" nType="-99"/>
            <Node pos="r" depth="3" NCoef="0" IVar="-1" Cut="0.0000000000000000e+00" cType="1" res="1.6853423789143562e-02" rms="1.9688418507575989e-01" purity="9.4785064458847046e-01" nType="-99"/>
          </Node>
        </Node>
        <Node pos="r" depth="1" NCoef="0" IVar="-1" Cut="0.0000000000000000e+00" cType="1" res="-4.2648617178201675e-02" rms="2.0766326785087585e-01" purity="1.2392425537109375e-01" nType="-99"/>
      </Node>
    </BinaryTree>
    <BinaryTree type="DecisionTree" boostWeight="1.0000000000000000e+00" itree="114">
      <Node pos="s" depth="0" NCoef="0" IVar="9" Cut="-1.9999969005584717e+00" cType="1" res="-1.3238101964816451e-03" rms="2.9203513264656067e-01" purity="5.0518882274627686e-01" nType="0">
        <Node pos="l" depth="1" NCoef="0" IVar="-1" Cut="0.0000000000000000e+00" cType="1" res="-3.7650961428880692e-02" rms="2.1450373530387878e-01" purity="1.0608462989330292e-01" nType="-99"/>
        <Node pos="r" depth="1" NCoef="0" IVar="0" Cut="2.2795351562500000e+03" cType="1" res="-5.4893380729481578e-04" rms="2.9434177279472351e-01" purity="5.1911497116088867e-01" nType="0">
          <Node pos="l" depth="2" NCoef="0" IVar="4" Cut="2.2023429870605469e+02" cType="1" res="-1.6399038722738624e-03" rms="3.0128479003906250e-01" purity="4.7809436917304993e-01" nType="0">
            <Node pos="l" depth="3" NCoef="0" IVar="-1" Cut="0.0000000000000000e+00" cType="1" res="1.3270226772874594e-03" rms="3.0158787965774536e-01" purity="4.2887949943542480e-01" nType="-99"/>
            <Node pos="r" depth="3" NCoef="0" IVar="-1" Cut="0.0000000000000000e+00" cType="1" res="-2.1097993478178978e-02" rms="2.9893487691879272e-01" purity="7.6804339885711670e-01" nType="-99"/>
          </Node>
          <Node pos="r" depth="2" NCoef="0" IVar="9" Cut="2.8625714778900146e-01" cType="1" res="1.0026419535279274e-02" rms="2.1546822786331177e-01" purity="9.1674929857254028e-01" nType="0">
            <Node pos="l" depth="3" NCoef="0" IVar="-1" Cut="0.0000000000000000e+00" cType="1" res="2.4974655359983444e-02" rms="2.1101316809654236e-01" purity="9.2406773567199707e-01" nType="-99"/>
            <Node pos="r" depth="3" NCoef="0" IVar="-1" Cut="0.0000000000000000e+00" cType="1" res="3.2188757322728634e-03" rms="2.2316636145114899e-01" purity="9.0334522724151611e-01" nType="-99"/>
          </Node>
        </Node>
      </Node>
    </BinaryTree>
    <BinaryTree type="DecisionTree" boostWeight="1.0000000000000000e+00" itree="115">
      <Node pos="s" depth="0" NCoef="0" IVar="3" Cut="4.2619433593750000e+02" cType="1" res="-3.3730323775671422e-04" rms="2.9341837763786316e-01" purity="4.9967983365058899e-01" nType="0">
        <Node pos="l" depth="1" NCoef="0" IVar="8" Cut="1.9999697208404541e+00" cType="1" res="9.6859125187620521e-04" rms="2.9361113905906677e-01" purity="4.8657491803169250e-01" nType="0">
          <Node pos="l" depth="2" NCoef="0" IVar="8" Cut="-1.6565462350845337e+00" cType="1" res="1.7965955194085836e-03" rms="2.9703292250633240e-01" purity="5.0055712461471558e-01" nType="0">
            <Node pos="l" depth="3" NCoef="0" IVar="-1" Cut="0.0000000000000000e+00" cType="1" res="-2.9416367411613464e-02" rms="2.2372588515281677e-01" purity="1.1344221979379654e-01" nType="-99"/>
            <Node pos="r" depth="3" NCoef="0" IVar="-1" Cut="0.0000000000000000e+00" cType="1" res="3.2073887996375561e-03" rms="3.0110487341880798e-01" purity="5.2547472715377808e-01" nType="-99"/>
          </Node>
          <Node pos="r" depth="2" NCoef="0" IVar="-1" Cut="0.0000000000000000e+00" cType="1" res="-6.9682143628597260e-02" rms="1.4673794806003571e-01" purity="4.4036708772182465e-02" nType="-99"/>
        </Node>
        <Node pos="r" depth="1" NCoef="0" IVar="-1" Cut="0.0000000000000000e+00" cType="1" res="-2.8849139809608459e-02" rms="2.8850576281547546e-01" purity="7.5309205055236816e-01" nType="-99"/>
      </Node>
    </BinaryTree>
    <BinaryTree type="DecisionTree" boostWeight="1.0000000000000000e+00" itree="116">
      <Node pos="s" depth="0" NCoef="0" IVar="8" Cut="6.6650050878524780e-01" cType="1" res="-2.9230455402284861e-03" rms="2.9376494884490967e-01" purity="4.9936062097549438e-01" nType="0">
        <Node pos="l" depth="1" NCoef="0" IVar="10" Cut="-9.3338441848754883e-01" cType="1" res="-5.5645252577960491e-03" rms="2.9384705424308777e-01" purity="5.3644394874572754e-01" nType="0">
          <Node pos="l" depth="2" NCoef="0" IVar="9" Cut="-6.6654205322265625e-01" cType="1" res="-1.4458931051194668e-02" rms="2.9472154378890991e-01" purity="4.2859041690826416e-01" nType="0">
            <Node pos="l" depth="3" NCoef="0" IVar="-1" Cut="0.0000000000000000e+00" cType="1" res="-4.1672296822071075e-02" rms="2.8082224726676941e-01" purity="3.1367233395576477e-01" nType="-99"/>
            <Node pos="r" depth="3" NCoef="0" IVar="-1" Cut="0.0000000000000000e+00" cType="1" res="-3.3320095390081406e-03" rms="3.0099466443061829e-01" purity="4.8788216710090637e-01" nType="-99"/>
          </Node>
          <Node pos="r" depth="2" NCoef="0" IVar="2" Cut="4.4954049682617188e+02" cType="1" res="-2.8036250732839108e-03" rms="2.9352024197578430e-01" purity="5.6992256641387939e-01" nType="0">
            <Node pos="l" depth="3" NCoef="0" IVar="-1" Cut="0.0000000000000000e+00" cType="1" res="8.1429112469777465e-05" rms="2.9234832525253296e-01" purity="5.4081183671951294e-01" nType="-99"/>
            <Node pos="r" depth="3" NCoef="0" IVar="-1" Cut="0.0000000000000000e+00" cType="1" res="-1.0928886011242867e-02" rms="2.9637500643730164e-01" purity="6.4452397823333740e-01" nType="-99"/>
          </Node>
        </Node>
        <Node pos="r" depth="1" NCoef="0" IVar="3" Cut="2.0684486389160156e+02" cType="1" res="5.1363995298743248e-03" rms="2.9336741566658020e-01" purity="3.8621529936790466e-01" nType="0">
          <Node pos="l" depth="2" NCoef="0" IVar="1" Cut="1.8543176352977753e-02" cType="1" res="1.4536807313561440e-02" rms="2.7764213085174561e-01" purity="2.4754233658313751e-01" nType="0">
            <Node pos="l" depth="3" NCoef="0" IVar="-1" Cut="0.0000000000000000e+00" cType="1" res="-2.4358555674552917e-02" rms="1.3899916410446167e-01" purity="2.7820564806461334e-02" nType="-99"/>
            <Node pos="r" depth="3" NCoef="0" IVar="-1" Cut="0.0000000000000000e+00" cType="1" res="2.5787552818655968e-02" rms="3.2412466406822205e-01" purity="3.5516187548637390e-01" nType="-99"/>
          </Node>
          <Node pos="r" depth="2" NCoef="0" IVar="0" Cut="1.4891279296875000e+03" cType="1" res="-4.5537762343883514e-03" rms="3.0844047665596008e-01" purity="5.2916288375854492e-01" nType="0">
            <Node pos="l" depth="3" NCoef="0" IVar="-1" Cut="0.0000000000000000e+00" cType="1" res="-2.7982605621218681e-02" rms="3.1008073687553406e-01" purity="2.0378270745277405e-01" nType="-99"/>
            <Node pos="r" depth="3" NCoef="0" IVar="-1" Cut="0.0000000000000000e+00" cType="1" res="6.3688289374113083e-03" rms="3.0706033110618591e-01" purity="6.8442046642303467e-01" nType="-99"/>
          </Node>
        </Node>
      </Node>
    </BinaryTree>
    <BinaryTree type="DecisionTree" boostWeight="1.0000000000000000e+00" itree="117">
      <Node pos="s" depth="0" NCoef="0" IVar="11" Cut="-1.6191785335540771e+00" cType="1" res="-1.4686025679111481e-03" rms="2.9114469885826111e-01" purity="4.9582228064537048e-01" nType="0">
        <Node pos="l" depth="1" NCoef="0" IVar="11" Cut="-2.3424952030181885e+00" cType="1" res="-6.5669422037899494e-03" rms="2.9856461286544800e-01" purity="2.5008657574653625e-01" nType="0">
          <Node pos="l" depth="2" NCoef="0" IVar="5" Cut="1.1365391540527344e+02" cType="1" res="-4.4415490701794624e-03" rms="2.9625317454338074e-01" purity="2.2293488681316376e-01" nType="0">
            <Node pos="l" depth="3" NCoef="0" IVar="-1" Cut="0.0000000000000000e+00" cType="1" res="-3.2010136637836695e-03" rms="2.9249638319015503e-01" purity="1.9611310958862305e-01" nType="-99"/>
            <Node pos="r" depth="3" NCoef="0" IVar="-1" Cut="0.0000000000000000e+00" cType="1" res="-2.2695222869515419e-02" rms="3.4925618767738342e-01" purity="6.4553451538085938e-01" nType="-99"/>
          </Node>
          <Node pos="r" depth="2" NCoef="0" IVar="-1" Cut="0.0000000000000000e+00" cType="1" res="-3.7932354956865311e-02" rms="3.2795876264572144e-01" purity="6.3275510072708130e-01" nType="-99"/>
        </Node>
        <Node pos="r" depth="1" NCoef="0" IVar="9" Cut="1.4647405147552490e+00" cType="1" res="4.0710065513849258e-03" rms="2.8275787830352783e-01" purity="7.6282685995101929e-01" nType="0">
          <Node pos="l" depth="2" NCoef="0" IVar="8" Cut="1.3388553261756897e-01" cType="1" res="2.6233403477817774e-03" rms="2.7831396460533142e-01" purity="7.8112852573394775e-01" nType="0">
            <Node pos="l" depth="3" NCoef="0" IVar="-1" Cut="0.0000000000000000e+00" cType="1" res="1.0844813659787178e-02" rms="2.7281832695007324e-01" purity="7.9466593265533447e-01" nType="-99"/>
            <Node pos="r" depth="3" NCoef="0" IVar="-1" Cut="0.0000000000000000e+00" cType="1" res="-6.1988998204469681e-03" rms="2.8508150577545166e-01" purity="7.6361745595932007e-01" nType="-99"/>
          </Node>
          <Node pos="r" depth="2" NCoef="0" IVar="-1" Cut="0.0000000000000000e+00" cType="1" res="2.4168206378817558e-02" rms="3.4311980009078979e-01" purity="4.8165348172187805e-01" nType="-99"/>
        </Node>
      </Node>
    </BinaryTree>
    <BinaryTree type="DecisionTree" boostWeight="1.0000000000000000e+00" itree="118">
      <Node pos="s" depth="0" NCoef="0" IVar="7" Cut="-3.8569763302803040e-01" cType="1" res="-3.0650586268166080e-05" rms="2.9245376586914062e-01" purity="4.9494644999504089e-01" nType="0">
        <Node pos="l" depth="1" NCoef="0" IVar="11" Cut="5.9037846326828003e-01" cType="1" res="-6.6523812711238861e-03" rms="2.8621178865432739e-01" purity="4.0922954678535461e-01" nType="0">
          <Node pos="l" depth="2" NCoef="0" IVar="7" Cut="-1.4096108675003052e+00" cType="1" res="-2.9889692086726427e-03" rms="2.8275540471076965e-01" purity="3.7952375411987305e-01" nType="0">
            <Node pos="l" depth="3" NCoef="0" IVar="-1" Cut="0.0000000000000000e+00" cType="1" res="-3.9491031318902969e-02" rms="1.8450951576232910e-01" purity="8.0770760774612427e-02" nType="-99"/>
            <Node pos="r" depth="3" NCoef="0" IVar="-1" Cut="0.0000000000000000e+00" cType="1" res="9.9585333373397589e-04" rms="3.0286014080047607e-01" purity="4.5663410425186157e-01" nType="-99"/>
          </Node>
          <Node pos="r" depth="2" NCoef="0" IVar="-1" Cut="0.0000000000000000e+00" cType="1" res="-3.4980796277523041e-02" rms="3.0693933367729187e-01" purity="6.0509347915649414e-01" nType="-99"/>
        </Node>
        <Node pos="r" depth="1" NCoef="0" IVar="7" Cut="5.2442610263824463e-01" cType="1" res="3.2468587160110474e-03" rms="2.9543963074684143e-01" purity="5.3737306594848633e-01" nType="0">
          <Node pos="l" depth="2" NCoef="0" IVar="3" Cut="1.4718913269042969e+02" cType="1" res="8.8277272880077362e-03" rms="3.0415120720863342e-01" purity="6.5640246868133545e-01" nType="0">
            <Node pos="l" depth="3" NCoef="0" IVar="-1" Cut="0.0000000000000000e+00" cType="1" res="3.3194113522768021e-02" rms="3.1395745277404785e-01" purity="2.3654952645301819e-01" nType="-99"/>
            <Node pos="r" depth="3" NCoef="0" IVar="-1" Cut="0.0000000000000000e+00" cType="1" res="5.9199244715273380e-03" rms="3.0250838398933411e-01" purity="7.2017383575439453e-01" nType="-99"/>
          </Node>
          <Node pos="r" depth="2" NCoef="0" IVar="3" Cut="2.5526263427734375e+02" cType="1" res="-4.6693589538335800e-03" rms="2.8243336081504822e-01" purity="3.6853507161140442e-01" nType="0">
            <Node pos="l" depth="3" NCoef="0" IVar="-1" Cut="0.0000000000000000e+00" cType="1" res="2.6439442299306393e-03" rms="2.7240818738937378e-01" purity="2.8392270207405090e-01" nType="-99"/>
            <Node pos="r" depth="3" NCoef="0" IVar="-1" Cut="0.0000000000000000e+00" cType="1" res="-2.0522177219390869e-02" rms="3.0368441343307495e-01" purity="5.6314885616302490e-01" nType="-99"/>
          </Node>
        </Node>
      </Node>
    </BinaryTree>
    <BinaryTree type="DecisionTree" boostWeight="1.0000000000000000e+00" itree="119">
      <Node pos="s" depth="0" NCoef="0" IVar="10" Cut="-2.2666583061218262e+00" cType="1" res="-1.8024470773525536e-04" rms="2.9229453206062317e-01" purity="4.9811142683029175e-01" nType="0">
        <Node pos="l" depth="1" NCoef="0" IVar="-1" Cut="0.0000000000000000e+00" cType="1" res="-3.3698920160531998e-02" rms="2.7638059854507446e-01" purity="1.8519389629364014e-01" nType="-99"/>
        <Node pos="r" depth="1" NCoef="0" IVar="3" Cut="1.9347102355957031e+02" cType="1" res="5.7236442808061838e-04" rms="2.9266902804374695e-01" purity="5.0644147396087646e-01" nType="0">
          <Node pos="l" depth="2" NCoef="0" IVar="8" Cut="1.3321107625961304e-01" cType="1" res="6.6625904291868210e-03" rms="2.7840209007263184e-01" purity="2.5937953591346741e-01" nType="0">
            <Node pos="l" depth="3" NCoef="0" IVar="-1" Cut="0.0000000000000000e+00" cType="1" res="-2.1413189824670553e-03" rms="2.7394935488700867e-01" purity="2.5642946362495422e-01" nType="-99"/>
            <Node pos="r" depth="3" NCoef="0" IVar="-1" Cut="0.0000000000000000e+00" cType="1" res="2.0354656502604485e-02" rms="2.8319919109344482e-01" purity="2.6282277703285217e-01" nType="-99"/>
          </Node>
          <Node pos="r" depth="2" NCoef="0" IVar="0" Cut="1.8269320068359375e+03" cType="1" res="-3.0318002682179213e-03" rms="3.0073547363281250e-01" purity="6.5265136957168579e-01" nType="0">
            <Node pos="l" depth="3" NCoef="0" IVar="-1" Cut="0.0000000000000000e+00" cType="1" res="-9.0575106441974640e-03" rms="3.3502945303916931e-01" purity="4.9653175473213196e-01" nType="-99"/>
            <Node pos="r" depth="3" NCoef="0" IVar="-1" Cut="0.0000000000000000e+00" cType="1" res="1.1091863736510277e-02" rms="2.4143828451633453e-01" purity="8.8156294822692871e-01" nType="-99"/>
          </Node>
        </Node>
      </Node>
    </BinaryTree>
    <BinaryTree type="DecisionTree" boostWeight="1.0000000000000000e+00" itree="120">
      <Node pos="s" depth="0" NCoef="0" IVar="5" Cut="8.8200225830078125e+01" cType="1" res="2.5472089182585478e-03" rms="2.9308140277862549e-01" purity="5.0255537033081055e-01" nType="0">
        <Node pos="l" depth="1" NCoef="0" IVar="7" Cut="1.4519874751567841e-01" cType="1" res="7.9478174448013306e-03" rms="3.0734190344810486e-01" purity="2.8004023432731628e-01" nType="0">
          <Node pos="l" depth="2" NCoef="0" IVar="10" Cut="-1.4666373729705811e+00" cType="1" res="1.5644965693354607e-02" rms="3.1576848030090332e-01" purity="3.0480992794036865e-01" nType="0">
            <Node pos="l" depth="3" NCoef="0" IVar="-1" Cut="0.0000000000000000e+00" cType="1" res="5.1053382456302643e-02" rms="3.1817147135734558e-01" purity="2.7074158191680908e-01" nType="-99"/>
            <Node pos="r" depth="3" NCoef="0" IVar="-1" Cut="0.0000000000000000e+00" cType="1" res="9.8673989996314049e-03" rms="3.1500107049942017e-01" purity="3.1125867366790771e-01" nType="-99"/>
          </Node>
          <Node pos="r" depth="2" NCoef="0" IVar="9" Cut="1.4653885364532471e+00" cType="1" res="-1.8181341001763940e-03" rms="2.9601785540580750e-01" purity="2.4861304461956024e-01" nType="0">
            <Node pos="l" depth="3" NCoef="0" IVar="-1" Cut="0.0000000000000000e+00" cType="1" res="-7.1492018178105354e-03" rms="2.9788938164710999e-01" purity="2.6498252153396606e-01" nType="-99"/>
            <Node pos="r" depth="3" NCoef="0" IVar="-1" Cut="0.0000000000000000e+00" cType="1" res="5.1406737416982651e-02" rms="2.8058907389640808e-01" purity="1.3806390762329102e-01" nType="-99"/>
          </Node>
        </Node>
        <Node pos="r" depth="1" NCoef="0" IVar="0" Cut="1.7628254394531250e+03" cType="1" res="-5.0371587276458740e-03" rms="2.7161306142807007e-01" purity="8.1504541635513306e-01" nType="0">
          <Node pos="l" depth="2" NCoef="0" IVar="8" Cut="6.6511982679367065e-01" cType="1" res="-1.6792066395282745e-02" rms="3.2712072134017944e-01" purity="6.8031144142150879e-01" nType="0">
            <Node pos="l" depth="3" NCoef="0" IVar="-1" Cut="0.0000000000000000e+00" cType="1" res="-1.0169300250709057e-02" rms="3.2043695449829102e-01" purity="7.1899569034576416e-01" nType="-99"/>
            <Node pos="r" depth="3" NCoef="0" IVar="-1" Cut="0.0000000000000000e+00" cType="1" res="-3.1650818884372711e-02" rms="3.4690707921981812e-01" purity="5.5641293525695801e-01" nType="-99"/>
          </Node>
          <Node pos="r" depth="2" NCoef="0" IVar="0" Cut="2.5175034179687500e+03" cType="1" res="4.8084491863846779e-03" rms="2.1383351087570190e-01" purity="9.2789512872695923e-01" nType="0">
            <Node pos="l" depth="3" NCoef="0" IVar="-1" Cut="0.0000000000000000e+00" cType="1" res="1.6969947610050440e-03" rms="2.2022709250450134e-01" purity="9.2120301723480225e-01" nType="-99"/>
            <Node pos="r" depth="3" NCoef="0" IVar="-1" Cut="0.0000000000000000e+00" cType="1" res="4.6924896538257599e-02" rms="1.8127989768981934e-01" purity="9.5798325538635254e-01" nType="-99"/>
          </Node>
        </Node>
      </Node>
    </BinaryTree>
    <BinaryTree type="DecisionTree" boostWeight="1.0000000000000000e+00" itree="121">
      <Node pos="s" depth="0" NCoef="0" IVar="2" Cut="5.7430456542968750e+02" cType="1" res="3.8486537523567677e-03" rms="2.9112657904624939e-01" purity="5.0357085466384888e-01" nType="0">
        <Node pos="l" depth="1" NCoef="0" IVar="0" Cut="1.2591158447265625e+03" cType="1" res="5.3593395277857780e-03" rms="2.8934893012046814e-01" purity="4.9317109584808350e-01" nType="0">
          <Node pos="l" depth="2" NCoef="0" IVar="10" Cut="6.6657388210296631e-01" cType="1" res="-2.1470482461154461e-03" rms="2.6767283678054810e-01" purity="1.1718628555536270e-01" nType="0">
            <Node pos="l" depth="3" NCoef="0" IVar="-1" Cut="0.0000000000000000e+00" cType="1" res="-1.1831464245915413e-02" rms="2.6583242416381836e-01" purity="1.1858535557985306e-01" nType="-99"/>
            <Node pos="r" depth="3" NCoef="0" IVar="-1" Cut="0.0000000000000000e+00" cType="1" res="1.8668912351131439e-02" rms="2.7097803354263306e-01" purity="1.1422098428010941e-01" nType="-99"/>
          </Node>
          <Node pos="r" depth="2" NCoef="0" IVar="9" Cut="1.1998987197875977e+00" cType="1" res="9.5431488007307053e-03" rms="3.0067187547683716e-01" purity="7.0273244380950928e-01" nType="0">
            <Node pos="l" depth="3" NCoef="0" IVar="-1" Cut="0.0000000000000000e+00" cType="1" res="7.5931241735816002e-03" rms="2.9676583409309387e-01" purity="7.2580158710479736e-01" nType="-99"/>
            <Node pos="r" depth="3" NCoef="0" IVar="-1" Cut="0.0000000000000000e+00" cType="1" res="2.9460635036230087e-02" rms="3.3141154050827026e-01" purity="5.0542950630187988e-01" nType="-99"/>
          </Node>
        </Node>
        <Node pos="r" depth="1" NCoef="0" IVar="5" Cut="1.1453363037109375e+02" cType="1" res="-8.6412262171506882e-03" rms="3.0514097213745117e-01" purity="5.8955276012420654e-01" nType="0">
          <Node pos="l" depth="2" NCoef="0" IVar="6" Cut="5.3667387962341309e+00" cType="1" res="-1.7773969098925591e-02" rms="3.3268576860427856e-01" purity="4.4262817502021790e-01" nType="0">
            <Node pos="l" depth="3" NCoef="0" IVar="-1" Cut="0.0000000000000000e+00" cType="1" res="-8.5526239126920700e-03" rms="3.2531562447547913e-01" purity="2.8882867097854614e-01" nType="-99"/>
            <Node pos="r" depth="3" NCoef="0" IVar="-1" Cut="0.0000000000000000e+00" cType="1" res="-2.4372706189751625e-02" rms="3.4227731823921204e-01" purity="6.5356552600860596e-01" nType="-99"/>
          </Node>
          <Node pos="r" depth="2" NCoef="0" IVar="-1" Cut="0.0000000000000000e+00" cType="1" res="1.6625590622425079e-02" rms="2.3436078429222107e-01" purity="9.0420281887054443e-01" nType="-99"/>
        </Node>
      </Node>
    </BinaryTree>
    <BinaryTree type="DecisionTree" boostWeight="1.0000000000000000e+00" itree="122">
      <Node pos="s" depth="0" NCoef="0" IVar="7" Cut="-3.9362621307373047e-01" cType="1" res="-1.4266240759752691e-04" rms="2.9442232847213745e-01" purity="4.9896046519279480e-01" nType="0">
        <Node pos="l" depth="1" NCoef="0" IVar="2" Cut="4.5450131225585938e+02" cType="1" res="-7.4751898646354675e-03" rms="2.8996619582176208e-01" purity="4.1013842821121216e-01" nType="0">
          <Node pos="l" depth="2" NCoef="0" IVar="9" Cut="-1.1987167596817017e+00" cType="1" res="-2.0808638073503971e-03" rms="2.8944921493530273e-01" purity="3.9265400171279907e-01" nType="0">
            <Node pos="l" depth="3" NCoef="0" IVar="-1" Cut="0.0000000000000000e+00" cType="1" res="2.5335412472486496e-02" rms="2.8429260849952698e-01" purity="2.5549909472465515e-01" nType="-99"/>
            <Node pos="r" depth="3" NCoef="0" IVar="-1" Cut="0.0000000000000000e+00" cType="1" res="-7.8489910811185837e-03" rms="2.9031157493591309e-01" purity="4.2152100801467896e-01" nType="-99"/>
          </Node>
          <Node pos="r" depth="2" NCoef="0" IVar="9" Cut="-3.9950522780418396e-01" cType="1" res="-2.5352774187922478e-02" rms="2.9095891118049622e-01" purity="4.6808418631553650e-01" nType="0">
            <Node pos="l" depth="3" NCoef="0" IVar="-1" Cut="0.0000000000000000e+00" cType="1" res="-5.1648709923028946e-02" rms="2.8442499041557312e-01" purity="4.4348034262657166e-01" nType="-99"/>
            <Node pos="r" depth="3" NCoef="0" IVar="-1" Cut="0.0000000000000000e+00" cType="1" res="-1.3830774463713169e-02" rms="2.9389455914497375e-01" purity="4.8233294486999512e-01" nType="-99"/>
          </Node>
        </Node>
        <Node pos="r" depth="1" NCoef="0" IVar="6" Cut="1.3514389991760254e+01" cType="1" res="3.3904178999364376e-03" rms="2.9648083448410034e-01" purity="5.4175823926925659e-01" nType="0">
          <Node pos="l" depth="2" NCoef="0" IVar="4" Cut="1.0604539489746094e+02" cType="1" res="1.0466641746461391e-02" rms="3.1715503334999084e-01" purity="2.6277464628219604e-01" nType="0">
            <Node pos="l" depth="3" NCoef="0" IVar="-1" Cut="0.0000000000000000e+00" cType="1" res="-1.2697909027338028e-02" rms="2.0869697630405426e-01" purity="5.5594116449356079e-02" nType="-99"/>
            <Node pos="r" depth="3" NCoef="0" IVar="-1" Cut="0.0000000000000000e+00" cType="1" res="1.5080804005265236e-02" rms="3.6062544584274292e-01" purity="3.7059861421585083e-01" nType="-99"/>
          </Node>
          <Node pos="r" depth="2" NCoef="0" IVar="11" Cut="-1.1996580362319946e+00" cType="1" res="-2.5304015725851059e-03" rms="2.7786496281623840e-01" purity="7.7518934011459351e-01" nType="0">
            <Node pos="l" depth="3" NCoef="0" IVar="-1" Cut="0.0000000000000000e+00" cType="1" res="-2.6229310780763626e-02" rms="3.0475372076034546e-01" purity="6.8045139312744141e-01" nType="-99"/>
            <Node pos="r" depth="3" NCoef="0" IVar="-1" Cut="0.0000000000000000e+00" cType="1" res="1.2039465364068747e-03" rms="2.7313023805618286e-01" purity="7.9044198989868164e-01" nType="-99"/>
          </Node>
        </Node>
      </Node>
    </BinaryTree>
    <BinaryTree type="DecisionTree" boostWeight="1.0000000000000000e+00" itree="123">
      <Node pos="s" depth="0" NCoef="0" IVar="2" Cut="5.3999792480468750e+02" cType="1" res="-1.4505581930279732e-03" rms="2.9191190004348755e-01" purity="4.9885985255241394e-01" nType="0">
        <Node pos="l" depth="1" NCoef="0" IVar="2" Cut="2.4857293701171875e+02" cType="1" res="6.0090544866397977e-04" rms="2.9015532135963440e-01" purity="4.8669096827507019e-01" nType="0">
          <Node pos="l" depth="2" NCoef="0" IVar="8" Cut="-4.0096777677536011e-01" cType="1" res="1.1744959279894829e-02" rms="2.9135411977767944e-01" purity="3.8840529322624207e-01" nType="0">
            <Node pos="l" depth="3" NCoef="0" IVar="-1" Cut="0.0000000000000000e+00" cType="1" res="3.4776940941810608e-02" rms="2.9826107621192932e-01" purity="3.6502146720886230e-01" nType="-99"/>
            <Node pos="r" depth="3" NCoef="0" IVar="-1" Cut="0.0000000000000000e+00" cType="1" res="2.7337146457284689e-03" rms="2.8705328702926636e-01" purity="4.0128645300865173e-01" nType="-99"/>
          </Node>
          <Node pos="r" depth="2" NCoef="0" IVar="0" Cut="1.6835815429687500e+03" cType="1" res="-1.9650091417133808e-03" rms="2.8981789946556091e-01" purity="5.0932115316390991e-01" nType="0">
            <Node pos="l" depth="3" NCoef="0" IVar="-1" Cut="0.0000000000000000e+00" cType="1" res="-6.4921635203063488e-03" rms="3.1449809670448303e-01" purity="3.2187587022781372e-01" nType="-99"/>
            <Node pos="r" depth="3" NCoef="0" IVar="-1" Cut="0.0000000000000000e+00" cType="1" res="1.3351264409720898e-02" rms="2.2785113751888275e-01" purity="9.1072314977645874e-01" nType="-99"/>
          </Node>
        </Node>
        <Node pos="r" depth="1" NCoef="0" IVar="7" Cut="4.8572421073913574e-01" cType="1" res="-1.4480265788733959e-02" rms="3.0250632762908936e-01" purity="5.7614964246749878e-01" nType="0">
          <Node pos="l" depth="2" NCoef="0" IVar="7" Cut="-9.9589288234710693e-02" cType="1" res="-4.4030221179127693e-03" rms="3.0627113580703735e-01" purity="6.3475412130355835e-01" nType="0">
            <Node pos="l" depth="3" NCoef="0" IVar="-1" Cut="0.0000000000000000e+00" cType="1" res="-1.6257075592875481e-02" rms="3.0324777960777283e-01" purity="5.5823183059692383e-01" nType="-99"/>
            <Node pos="r" depth="3" NCoef="0" IVar="-1" Cut="0.0000000000000000e+00" cType="1" res="1.1747633107006550e-02" rms="3.0973792076110840e-01" purity="7.4170815944671631e-01" nType="-99"/>
          </Node>
          <Node pos="r" depth="2" NCoef="0" IVar="-1" Cut="0.0000000000000000e+00" cType="1" res="-4.6684879809617996e-02" rms="2.8790134191513062e-01" purity="3.9008271694183350e-01" nType="-99"/>
        </Node>
      </Node>
    </BinaryTree>
    <BinaryTree type="DecisionTree" boostWeight="1.0000000000000000e+00" itree="124">
      <Node pos="s" depth="0" NCoef="0" IVar="1" Cut="8.3677984774112701e-02" cType="1" res="-1.6436629230156541e-03" rms="2.9241198301315308e-01" purity="5.0228095054626465e-01" nType="0">
        <Node pos="l" depth="1" NCoef="0" IVar="7" Cut="1.7352451086044312e+00" cType="1" res="2.0249707158654928e-03" rms="2.9710131883621216e-01" purity="3.3103156089782715e-01" nType="0">
          <Node pos="l" depth="2" NCoef="0" IVar="2" Cut="3.4598190307617188e+02" cType="1" res="3.3346060663461685e-03" rms="3.0416288971900940e-01" purity="3.4822931885719299e-01" nType="0">
            <Node pos="l" depth="3" NCoef="0" IVar="-1" Cut="0.0000000000000000e+00" cType="1" res="1.0899880900979042e-02" rms="2.8922098875045776e-01" purity="2.6060011982917786e-01" nType="-99"/>
            <Node pos="r" depth="3" NCoef="0" IVar="-1" Cut="0.0000000000000000e+00" cType="1" res="-1.5392759814858437e-03" rms="3.1609904766082764e-01" purity="4.2192387580871582e-01" nType="-99"/>
          </Node>
          <Node pos="r" depth="2" NCoef="0" IVar="-1" Cut="0.0000000000000000e+00" cType="1" res="-4.5719850808382034e-02" rms="1.4588272571563721e-01" purity="6.1517044901847839e-02" nType="-99"/>
        </Node>
        <Node pos="r" depth="1" NCoef="0" IVar="0" Cut="1.5843023681640625e+03" cType="1" res="-8.0399047583341599e-03" rms="2.8393775224685669e-01" purity="8.0085331201553345e-01" nType="0">
          <Node pos="l" depth="2" NCoef="0" IVar="9" Cut="4.0695056319236755e-01" cType="1" res="-1.9885614514350891e-02" rms="3.6759448051452637e-01" purity="6.1058777570724487e-01" nType="0">
            <Node pos="l" depth="3" NCoef="0" IVar="-1" Cut="0.0000000000000000e+00" cType="1" res="-6.9476119242608547e-03" rms="3.6850836873054504e-01" purity="6.4720326662063599e-01" nType="-99"/>
            <Node pos="r" depth="3" NCoef="0" IVar="-1" Cut="0.0000000000000000e+00" cType="1" res="-3.0263736844062805e-02" rms="3.6496722698211670e-01" purity="5.4058450460433960e-01" nType="-99"/>
          </Node>
          <Node pos="r" depth="2" NCoef="0" IVar="6" Cut="5.3377632141113281e+01" cType="1" res="1.0280651040375233e-03" rms="1.9674102962017059e-01" purity="9.4650280475616455e-01" nType="0">
            <Node pos="l" depth="3" NCoef="0" IVar="-1" Cut="0.0000000000000000e+00" cType="1" res="-1.9822094589471817e-02" rms="3.3761057257652283e-01" purity="8.0524462461471558e-01" nType="-99"/>
            <Node pos="r" depth="3" NCoef="0" IVar="-1" Cut="0.0000000000000000e+00" cType="1" res="1.5901887789368629e-02" rms="1.6123816370964050e-01" purity="9.7015154361724854e-01" nType="-99"/>
          </Node>
        </Node>
      </Node>
    </BinaryTree>
    <BinaryTree type="DecisionTree" boostWeight="1.0000000000000000e+00" itree="125">
      <Node pos="s" depth="0" NCoef="0" IVar="8" Cut="1.7332528829574585e+00" cType="1" res="2.5000167079269886e-03" rms="2.9414078593254089e-01" purity="5.0211048126220703e-01" nType="0">
        <Node pos="l" depth="1" NCoef="0" IVar="1" Cut="8.3672188222408295e-02" cType="1" res="3.3377422951161861e-03" rms="2.9840099811553955e-01" purity="5.2269262075424194e-01" nType="0">
          <Node pos="l" depth="2" NCoef="0" IVar="8" Cut="-1.7205673456192017e+00" cType="1" res="6.8616257049143314e-03" rms="3.0761727690696716e-01" purity="3.5315415263175964e-01" nType="0">
            <Node pos="l" depth="3" NCoef="0" IVar="-1" Cut="0.0000000000000000e+00" cType="1" res="-2.8780400753021240e-02" rms="2.0231144130229950e-01" purity="7.9902134835720062e-02" nType="-99"/>
            <Node pos="r" depth="3" NCoef="0" IVar="-1" Cut="0.0000000000000000e+00" cType="1" res="8.7467553094029427e-03" rms="3.1548020243644714e-01" purity="3.7830600142478943e-01" nType="-99"/>
          </Node>
          <Node pos="r" depth="2" NCoef="0" IVar="10" Cut="1.1997886896133423e+00" cType="1" res="-2.5908921379595995e-03" rms="2.8211775422096252e-01" purity="8.0792665481567383e-01" nType="0">
            <Node pos="l" depth="3" NCoef="0" IVar="-1" Cut="0.0000000000000000e+00" cType="1" res="1.9761638250201941e-03" rms="2.7752101421356201e-01" purity="8.2642084360122681e-01" nType="-99"/>
            <Node pos="r" depth="3" NCoef="0" IVar="-1" Cut="0.0000000000000000e+00" cType="1" res="-2.7851928025484085e-02" rms="3.0702772736549377e-01" purity="6.9723117351531982e-01" nType="-99"/>
          </Node>
        </Node>
        <Node pos="r" depth="1" NCoef="0" IVar="-1" Cut="0.0000000000000000e+00" cType="1" res="-2.9147148132324219e-02" rms="1.9027118384838104e-01" purity="9.4226285815238953e-02" nType="-99"/>
      </Node>
    </BinaryTree>
    <BinaryTree type="DecisionTree" boostWeight="1.0000000000000000e+00" itree="126">
      <Node pos="s" depth="0" NCoef="0" IVar="2" Cut="7.0898986816406250e+02" cType="1" res="-5.8394117513671517e-04" rms="2.9372969269752502e-01" purity="4.9898129701614380e-01" nType="0">
        <Node pos="l" depth="1" NCoef="0" IVar="0" Cut="1.8845090332031250e+03" cType="1" res="4.8552028601989150e-04" rms="2.9254797101020813e-01" purity="4.9624389410018921e-01" nType="0">
          <Node pos="l" depth="2" NCoef="0" IVar="2" Cut="5.3931970214843750e+02" cType="1" res="-2.3175473324954510e-03" rms="3.0874636769294739e-01" purity="3.8206622004508972e-01" nType="0">
            <Node pos="l" depth="3" NCoef="0" IVar="-1" Cut="0.0000000000000000e+00" cType="1" res="-6.2365224584937096e-04" rms="3.0833548307418823e-01" purity="3.9299917221069336e-01" nType="-99"/>
            <Node pos="r" depth="3" NCoef="0" IVar="-1" Cut="0.0000000000000000e+00" cType="1" res="-2.9999630525708199e-02" rms="3.1415218114852905e-01" purity="1.9872127473354340e-01" nType="-99"/>
          </Node>
          <Node pos="r" depth="2" NCoef="0" IVar="1" Cut="4.0319595485925674e-02" cType="1" res="1.0943031869828701e-02" rms="2.2160379588603973e-01" purity="9.2221093177795410e-01" nType="0">
            <Node pos="l" depth="3" NCoef="0" IVar="-1" Cut="0.0000000000000000e+00" cType="1" res="3.2556809484958649e-02" rms="3.3693838119506836e-01" purity="7.6245683431625366e-01" nType="-99"/>
            <Node pos="r" depth="3" NCoef="0" IVar="-1" Cut="0.0000000000000000e+00" cType="1" res="1.2254599481821060e-02" rms="1.8847639858722687e-01" purity="9.5535248517990112e-01" nType="-99"/>
          </Node>
        </Node>
        <Node pos="r" depth="1" NCoef="0" IVar="-1" Cut="0.0000000000000000e+00" cType="1" res="-2.3665433749556541e-02" rms="3.2140377163887024e-01" purity="5.6934589147567749e-01" nType="-99"/>
      </Node>
    </BinaryTree>
    <BinaryTree type="DecisionTree" boostWeight="1.0000000000000000e+00" itree="127">
      <Node pos="s" depth="0" NCoef="0" IVar="10" Cut="-1.2000809907913208e+00" cType="1" res="2.6502329856157303e-03" rms="2.9306945204734802e-01" purity="5.0074589252471924e-01" nType="0">
        <Node pos="l" depth="1" NCoef="0" IVar="8" Cut="3.9999058842658997e-01" cType="1" res="-9.8191304132342339e-03" rms="2.9035180807113647e-01" purity="3.7239924073219299e-01" nType="0">
          <Node pos="l" depth="2" NCoef="0" IVar="7" Cut="-7.9083405435085297e-02" cType="1" res="5.2847026381641626e-04" rms="3.0052503943443298e-01" purity="4.1273474693298340e-01" nType="0">
            <Node pos="l" depth="3" NCoef="0" IVar="-1" Cut="0.0000000000000000e+00" cType="1" res="1.3924181461334229e-02" rms="3.0406191945075989e-01" purity="4.2741757631301880e-01" nType="-99"/>
            <Node pos="r" depth="3" NCoef="0" IVar="-1" Cut="0.0000000000000000e+00" cType="1" res="-1.6356037929654121e-02" rms="2.9553684592247009e-01" purity="3.9508578181266785e-01" nType="-99"/>
          </Node>
          <Node pos="r" depth="2" NCoef="0" IVar="-1" Cut="0.0000000000000000e+00" cType="1" res="-4.1809424757957458e-02" rms="2.6339951157569885e-01" purity="2.7788034081459045e-01" nType="-99"/>
        </Node>
        <Node pos="r" depth="1" NCoef="0" IVar="0" Cut="1.3383734130859375e+03" cType="1" res="5.0587202422320843e-03" rms="2.9353043437004089e-01" purity="5.2553641796112061e-01" nType="0">
          <Node pos="l" depth="2" NCoef="0" IVar="4" Cut="1.4307136535644531e+02" cType="1" res="-3.5254082176834345e-03" rms="2.8844681382179260e-01" purity="1.6752456128597260e-01" nType="0">
            <Node pos="l" depth="3" NCoef="0" IVar="-1" Cut="0.0000000000000000e+00" cType="1" res="2.6036312337964773e-03" rms="2.6546055078506470e-01" purity="1.3318482041358948e-01" nType="-99"/>
            <Node pos="r" depth="3" NCoef="0" IVar="-1" Cut="0.0000000000000000e+00" cType="1" res="-1.8280733376741409e-02" rms="3.6228835582733154e-01" purity="2.9859760403633118e-01" nType="-99"/>
          </Node>
          <Node pos="r" depth="2" NCoef="0" IVar="1" Cut="4.0283296257257462e-02" cType="1" res="1.0176040232181549e-02" rms="2.9640126228332520e-01" purity="7.3896062374114990e-01" nType="0">
            <Node pos="l" depth="3" NCoef="0" IVar="-1" Cut="0.0000000000000000e+00" cType="1" res="2.0137663930654526e-02" rms="3.4578797221183777e-01" purity="4.2700296640396118e-01" nType="-99"/>
            <Node pos="r" depth="3" NCoef="0" IVar="-1" Cut="0.0000000000000000e+00" cType="1" res="5.2323825657367706e-03" rms="2.7239078283309937e-01" purity="8.7202882766723633e-01" nType="-99"/>
          </Node>
        </Node>
      </Node>
    </BinaryTree>
    <BinaryTree type="DecisionTree" boostWeight="1.0000000000000000e+00" itree="128">
      <Node pos="s" depth="0" NCoef="0" IVar="1" Cut="8.3602868020534515e-02" cType="1" res="1.4485336141660810e-03" rms="2.9536819458007812e-01" purity="4.9745744466781616e-01" nType="0">
        <Node pos="l" depth="1" NCoef="0" IVar="1" Cut="5.5735178291797638e-02" cType="1" res="4.8269573599100113e-03" rms="3.0175974965095520e-01" purity="3.2733064889907837e-01" nType="0">
          <Node pos="l" depth="2" NCoef="0" IVar="0" Cut="1.0959526367187500e+03" cType="1" res="1.3641380937770009e-03" rms="2.8732636570930481e-01" purity="2.4846351146697998e-01" nType="0">
            <Node pos="l" depth="3" NCoef="0" IVar="-1" Cut="0.0000000000000000e+00" cType="1" res="-5.3552903234958649e-02" rms="1.1502266675233841e-01" purity="1.4229035936295986e-02" nType="-99"/>
            <Node pos="r" depth="3" NCoef="0" IVar="-1" Cut="0.0000000000000000e+00" cType="1" res="6.0617872513830662e-03" rms="3.2321599125862122e-01" purity="3.2283249497413635e-01" nType="-99"/>
          </Node>
          <Node pos="r" depth="2" NCoef="0" IVar="1" Cut="6.5024085342884064e-02" cType="1" res="1.7197530716657639e-02" rms="3.4819164872169495e-01" purity="6.0907542705535889e-01" nType="0">
            <Node pos="l" depth="3" NCoef="0" IVar="-1" Cut="0.0000000000000000e+00" cType="1" res="3.9249327033758163e-02" rms="3.5967049002647400e-01" purity="5.8988243341445923e-01" nType="-99"/>
            <Node pos="r" depth="3" NCoef="0" IVar="-1" Cut="0.0000000000000000e+00" cType="1" res="3.1011531245894730e-04" rms="3.4002858400344849e-01" purity="6.2055373191833496e-01" nType="-99"/>
          </Node>
        </Node>
        <Node pos="r" depth="1" NCoef="0" IVar="1" Cut="1.1743988841772079e-01" cType="1" res="-4.5329155400395393e-03" rms="2.8360041975975037e-01" purity="7.9866445064544678e-01" nType="0">
          <Node pos="l" depth="2" NCoef="0" IVar="5" Cut="9.1451576232910156e+01" cType="1" res="-1.8438324332237244e-02" rms="3.1692221760749817e-01" purity="7.0532363653182983e-01" nType="0">
            <Node pos="l" depth="3" NCoef="0" IVar="-1" Cut="0.0000000000000000e+00" cType="1" res="-2.3639202117919922e-02" rms="3.6812943220138550e-01" purity="4.8971661925315857e-01" nType="-99"/>
            <Node pos="r" depth="3" NCoef="0" IVar="-1" Cut="0.0000000000000000e+00" cType="1" res="-7.7447746880352497e-03" rms="2.5999751687049866e-01" purity="9.0481346845626831e-01" nType="-99"/>
          </Node>
          <Node pos="r" depth="2" NCoef="0" IVar="10" Cut="4.0048459172248840e-01" cType="1" res="2.8041207697242498e-03" rms="2.6403602957725525e-01" purity="8.4791475534439087e-01" nType="0">
            <Node pos="l" depth="3" NCoef="0" IVar="-1" Cut="0.0000000000000000e+00" cType="1" res="9.0938759967684746e-03" rms="2.5809130072593689e-01" purity="8.5680109262466431e-01" nType="-99"/>
            <Node pos="r" depth="3" NCoef="0" IVar="-1" Cut="0.0000000000000000e+00" cType="1" res="-4.8265215009450912e-03" rms="2.7399575710296631e-01" purity="8.3238154649734497e-01" nType="-99"/>
          </Node>
        </Node>
      </Node>
    </BinaryTree>
    <BinaryTree type="DecisionTree" boostWeight="1.0000000000000000e+00" itree="129">
      <Node pos="s" depth="0" NCoef="0" IVar="10" Cut="-1.2000209093093872e+00" cType="1" res="-1.6067557735368609e-03" rms="2.9222643375396729e-01" purity="4.9783021211624146e-01" nType="0">
        <Node pos="l" depth="1" NCoef="0" IVar="1" Cut="4.1864871978759766e-02" cType="1" res="8.1025110557675362e-03" rms="2.9086226224899292e-01" purity="3.8648191094398499e-01" nType="0">
          <Node pos="l" depth="2" NCoef="0" IVar="7" Cut="-6.0109740495681763e-01" cType="1" res="-6.8666744045913219e-03" rms="2.2908848524093628e-01" purity="1.1919511854648590e-01" nType="0">
            <Node pos="l" depth="3" NCoef="0" IVar="-1" Cut="0.0000000000000000e+00" cType="1" res="-4.3979793787002563e-02" rms="1.8931122124195099e-01" purity="7.1413271129131317e-02" nType="-99"/>
            <Node pos="r" depth="3" NCoef="0" IVar="-1" Cut="0.0000000000000000e+00" cType="1" res="6.5896548330783844e-03" rms="2.5330147147178650e-01" purity="1.5360531210899353e-01" nType="-99"/>
          </Node>
          <Node pos="r" depth="2" NCoef="0" IVar="11" Cut="-1.6191785335540771e+00" cType="1" res="2.0730927586555481e-02" rms="3.3369013667106628e-01" purity="6.1197245121002197e-01" nType="0">
            <Node pos="l" depth="3" NCoef="0" IVar="-1" Cut="0.0000000000000000e+00" cType="1" res="3.2124225050210953e-02" rms="3.6787837743759155e-01" purity="4.0221390128135681e-01" nType="-99"/>
            <Node pos="r" depth="3" NCoef="0" IVar="-1" Cut="0.0000000000000000e+00" cType="1" res="2.0009453874081373e-03" rms="2.9678049683570862e-01" purity="8.0908131599426270e-01" nType="-99"/>
          </Node>
        </Node>
        <Node pos="r" depth="1" NCoef="0" IVar="7" Cut="-1.4476419687271118e+00" cType="1" res="-3.4766651224344969e-03" rms="2.9245141148567200e-01" purity="5.1927477121353149e-01" nType="0">
          <Node pos="l" depth="2" NCoef="0" IVar="-1" Cut="0.0000000000000000e+00" cType="1" res="3.5577658563852310e-02" rms="2.3748818039894104e-01" purity="1.4691314101219177e-01" nType="-99"/>
          <Node pos="r" depth="2" NCoef="0" IVar="10" Cut="1.6570410728454590e+00" cType="1" res="-4.8050335608422756e-03" rms="2.9530295729637146e-01" purity="5.4110801219940186e-01" nType="0">
            <Node pos="l" depth="3" NCoef="0" IVar="-1" Cut="0.0000000000000000e+00" cType="1" res="-7.3553542606532574e-03" rms="2.9502722620964050e-01" purity="5.6415718793869019e-01" nType="-99"/>
            <Node pos="r" depth="3" NCoef="0" IVar="-1" Cut="0.0000000000000000e+00" cType="1" res="1.0902231559157372e-02" rms="2.9727745056152344e-01" purity="3.4171420335769653e-01" nType="-99"/>
          </Node>
        </Node>
      </Node>
    </BinaryTree>
    <BinaryTree type="DecisionTree" boostWeight="1.0000000000000000e+00" itree="130">
      <Node pos="s" depth="0" NCoef="0" IVar="10" Cut="-9.3343228101730347e-01" cType="1" res="1.5480833826586604e-03" rms="2.8931424021720886e-01" purity="4.9888712167739868e-01" nType="0">
        <Node pos="l" depth="1" NCoef="0" IVar="9" Cut="-1.1998773813247681e+00" cType="1" res="-9.2368070036172867e-03" rms="2.8553110361099243e-01" purity="4.0034115314483643e-01" nType="0">
          <Node pos="l" depth="2" NCoef="0" IVar="-1" Cut="0.0000000000000000e+00" cType="1" res="1.5160175040364265e-02" rms="2.7223017811775208e-01" purity="2.5208389759063721e-01" nType="-99"/>
          <Node pos="r" depth="2" NCoef="0" IVar="1" Cut="8.3606645464897156e-02" cType="1" res="-1.3965102843940258e-02" rms="2.8823533654212952e-01" purity="4.3377637863159180e-01" nType="0">
            <Node pos="l" depth="3" NCoef="0" IVar="-1" Cut="0.0000000000000000e+00" cType="1" res="-2.6307383552193642e-02" rms="2.7779346704483032e-01" purity="2.4988962709903717e-01" nType="-99"/>
            <Node pos="r" depth="3" NCoef="0" IVar="-1" Cut="0.0000000000000000e+00" cType="1" res="1.7792821163311601e-03" rms="3.0605942010879517e-01" purity="7.7502137422561646e-01" nType="-99"/>
          </Node>
        </Node>
        <Node pos="r" depth="1" NCoef="0" IVar="7" Cut="6.7077326774597168e-01" cType="1" res="4.6097249723970890e-03" rms="2.9030621051788330e-01" purity="5.2686262130737305e-01" nType="0">
          <Node pos="l" depth="2" NCoef="0" IVar="11" Cut="-1.8953913450241089e+00" cType="1" res="1.7433443572372198e-03" rms="2.9294440150260925e-01" purity="5.7708549499511719e-01" nType="0">
            <Node pos="l" depth="3" NCoef="0" IVar="-1" Cut="0.0000000000000000e+00" cType="1" res="-2.0078811794519424e-03" rms="3.1508231163024902e-01" purity="2.9594305157661438e-01" nType="-99"/>
            <Node pos="r" depth="3" NCoef="0" IVar="-1" Cut="0.0000000000000000e+00" cType="1" res="6.6451886668801308e-03" rms="2.7323240041732788e-01" purity="8.0970829725265503e-01" nType="-99"/>
          </Node>
          <Node pos="r" depth="2" NCoef="0" IVar="9" Cut="-1.3382939994335175e-01" cType="1" res="1.3951072469353676e-02" rms="2.8133442997932434e-01" purity="3.6318963766098022e-01" nType="0">
            <Node pos="l" depth="3" NCoef="0" IVar="-1" Cut="0.0000000000000000e+00" cType="1" res="5.9850484831258655e-04" rms="2.6692628860473633e-01" purity="3.3514520525932312e-01" nType="-99"/>
            <Node pos="r" depth="3" NCoef="0" IVar="-1" Cut="0.0000000000000000e+00" cType="1" res="2.6559850201010704e-02" rms="2.8985789418220520e-01" purity="3.8115155696868896e-01" nType="-99"/>
          </Node>
        </Node>
      </Node>
    </BinaryTree>
    <BinaryTree type="DecisionTree" boostWeight="1.0000000000000000e+00" itree="131">
      <Node pos="s" depth="0" NCoef="0" IVar="5" Cut="1.1217717742919922e+02" cType="1" res="2.0806947723031044e-03" rms="2.9286807775497437e-01" purity="5.0085586309432983e-01" nType="0">
        <Node pos="l" depth="1" NCoef="0" IVar="3" Cut="3.3714654541015625e+02" cType="1" res="4.4636954553425312e-03" rms="3.1046795845031738e-01" purity="3.7433543801307678e-01" nType="0">
          <Node pos="l" depth="2" NCoef="0" IVar="10" Cut="1.7328457832336426e+00" cType="1" res="6.6783931106328964e-03" rms="3.0868750810623169e-01" purity="3.4916442632675171e-01" nType="0">
            <Node pos="l" depth="3" NCoef="0" IVar="-1" Cut="0.0000000000000000e+00" cType="1" res="8.6689470335841179e-03" rms="3.1186768412590027e-01" purity="3.6426526308059692e-01" nType="-99"/>
            <Node pos="r" depth="3" NCoef="0" IVar="-1" Cut="0.0000000000000000e+00" cType="1" res="-1.3599147088825703e-02" rms="2.7433013916015625e-01" purity="1.9843398034572601e-01" nType="-99"/>
          </Node>
          <Node pos="r" depth="2" NCoef="0" IVar="7" Cut="2.0697328448295593e-01" cType="1" res="-1.4724669978022575e-02" rms="3.2485496997833252e-01" purity="5.9241938591003418e-01" nType="0">
            <Node pos="l" depth="3" NCoef="0" IVar="-1" Cut="0.0000000000000000e+00" cType="1" res="-2.1696651820093393e-03" rms="3.2596340775489807e-01" purity="6.3255977630615234e-01" nType="-99"/>
            <Node pos="r" depth="3" NCoef="0" IVar="-1" Cut="0.0000000000000000e+00" cType="1" res="-3.0898813158273697e-02" rms="3.2199564576148987e-01" purity="5.2589088678359985e-01" nType="-99"/>
          </Node>
        </Node>
        <Node pos="r" depth="1" NCoef="0" IVar="0" Cut="1.6160156250000000e+03" cType="1" res="-5.3707277402281761e-03" rms="2.2911770641803741e-01" purity="8.9647346735000610e-01" nType="0">
          <Node pos="l" depth="2" NCoef="0" IVar="-1" Cut="0.0000000000000000e+00" cType="1" res="-3.5024192184209824e-02" rms="3.3724609017372131e-01" purity="7.1602576971054077e-01" nType="-99"/>
          <Node pos="r" depth="2" NCoef="0" IVar="0" Cut="1.8745679931640625e+03" cType="1" res="9.9978083744645119e-04" rms="1.9771040976047516e-01" purity="9.3529844284057617e-01" nType="0">
            <Node pos="l" depth="3" NCoef="0" IVar="-1" Cut="0.0000000000000000e+00" cType="1" res="-2.3082660511136055e-02" rms="2.4969728291034698e-01" purity="8.7912327051162720e-01" nType="-99"/>
            <Node pos="r" depth="3" NCoef="0" IVar="-1" Cut="0.0000000000000000e+00" cType="1" res="1.9440853968262672e-02" rms="1.7222411930561066e-01" purity="9.5776396989822388e-01" nType="-99"/>
          </Node>
        </Node>
      </Node>
    </BinaryTree>
    <BinaryTree type="DecisionTree" boostWeight="1.0000000000000000e+00" itree="132">
      <Node pos="s" depth="0" NCoef="0" IVar="11" Cut="-2.1715435981750488e+00" cType="1" res="-1.5767428558319807e-03" rms="2.9080814123153687e-01" purity="5.0131183862686157e-01" nType="0">
        <Node pos="l" depth="1" NCoef="0" IVar="7" Cut="-3.6018234491348267e-01" cType="1" res="-6.3823023810982704e-03" rms="2.9596051573753357e-01" purity="2.3118306696414948e-01" nType="0">
          <Node pos="l" depth="2" NCoef="0" IVar="1" Cut="3.6180961877107620e-02" cType="1" res="-1.5685873106122017e-02" rms="2.7140581607818604e-01" purity="1.7014645040035248e-01" nType="0">
            <Node pos="l" depth="3" NCoef="0" IVar="-1" Cut="0.0000000000000000e+00" cType="1" res="-1.2057981453835964e-02" rms="2.2045490145683289e-01" purity="8.2111656665802002e-02" nType="-99"/>
            <Node pos="r" depth="3" NCoef="0" IVar="-1" Cut="0.0000000000000000e+00" cType="1" res="-2.4576382711529732e-02" rms="3.3513844013214111e-01" purity="3.0708020925521851e-01" nType="-99"/>
          </Node>
          <Node pos="r" depth="2" NCoef="0" IVar="7" Cut="5.4264575242996216e-01" cType="1" res="-9.6135266358032823e-04" rms="3.0924153327941895e-01" purity="2.6674753427505493e-01" nType="0">
            <Node pos="l" depth="3" NCoef="0" IVar="-1" Cut="0.0000000000000000e+00" cType="1" res="7.0773889310657978e-03" rms="3.5427170991897583e-01" purity="3.7885314226150513e-01" nType="-99"/>
            <Node pos="r" depth="3" NCoef="0" IVar="-1" Cut="0.0000000000000000e+00" cType="1" res="-1.5932179987430573e-02" rms="2.5217854976654053e-01" purity="1.4735139906406403e-01" nType="-99"/>
          </Node>
        </Node>
        <Node pos="r" depth="1" NCoef="0" IVar="9" Cut="-1.2004678249359131e+00" cType="1" res="2.9324968345463276e-03" rms="2.8581559658050537e-01" purity="7.5478404760360718e-01" nType="0">
          <Node pos="l" depth="2" NCoef="0" IVar="4" Cut="1.5548489379882812e+02" cType="1" res="2.9221402481198311e-02" rms="3.3022844791412354e-01" purity="5.7330393791198730e-01" nType="0">
            <Node pos="l" depth="3" NCoef="0" IVar="-1" Cut="0.0000000000000000e+00" cType="1" res="4.2099803686141968e-02" rms="3.4609106183052063e-01" purity="4.3925824761390686e-01" nType="-99"/>
            <Node pos="r" depth="3" NCoef="0" IVar="-1" Cut="0.0000000000000000e+00" cType="1" res="7.8276796266436577e-03" rms="3.1256106495857239e-01" purity="7.0453286170959473e-01" nType="-99"/>
          </Node>
          <Node pos="r" depth="2" NCoef="0" IVar="1" Cut="1.2089440226554871e-01" cType="1" res="-3.3223954233108088e-05" rms="2.8020921349525452e-01" purity="7.7525722980499268e-01" nType="0">
            <Node pos="l" depth="3" NCoef="0" IVar="-1" Cut="0.0000000000000000e+00" cType="1" res="4.8429844900965691e-03" rms="3.0836322903633118e-01" purity="6.9156926870346069e-01" nType="-99"/>
            <Node pos="r" depth="3" NCoef="0" IVar="-1" Cut="0.0000000000000000e+00" cType="1" res="-2.2026479244232178e-02" rms="2.1624489128589630e-01" purity="9.3498146533966064e-01" nType="-99"/>
          </Node>
        </Node>
      </Node>
    </BinaryTree>
    <BinaryTree type="DecisionTree" boostWeight="1.0000000000000000e+00" itree="133">
      <Node pos="s" depth="0" NCoef="0" IVar="3" Cut="2.0595147705078125e+02" cType="1" res="-5.2492436952888966e-04" rms="2.9028603434562683e-01" purity="5.0204926729202271e-01" nType="0">
        <Node pos="l" depth="1" NCoef="0" IVar="5" Cut="5.7161556243896484e+01" cType="1" res="6.9442489184439182e-03" rms="2.8418096899986267e-01" purity="3.0049917101860046e-01" nType="0">
          <Node pos="l" depth="2" NCoef="0" IVar="3" Cut="1.6235958862304688e+02" cType="1" res="-1.0681664571166039e-02" rms="2.0698840916156769e-01" purity="6.2030214816331863e-02" nType="0">
            <Node pos="l" depth="3" NCoef="0" IVar="-1" Cut="0.0000000000000000e+00" cType="1" res="-3.7740361876785755e-03" rms="1.8703575432300568e-01" purity="4.4194292277097702e-02" nType="-99"/>
            <Node pos="r" depth="3" NCoef="0" IVar="-1" Cut="0.0000000000000000e+00" cType="1" res="-4.0642071515321732e-02" rms="2.4400648474693298e-01" purity="1.0127729922533035e-01" nType="-99"/>
          </Node>
          <Node pos="r" depth="2" NCoef="0" IVar="2" Cut="3.1089447021484375e+02" cType="1" res="1.3099994510412216e-02" rms="3.0635580420494080e-01" purity="3.8378301262855530e-01" nType="0">
            <Node pos="l" depth="3" NCoef="0" IVar="-1" Cut="0.0000000000000000e+00" cType="1" res="2.2687975317239761e-02" rms="3.0347356200218201e-01" purity="4.0244087576866150e-01" nType="-99"/>
            <Node pos="r" depth="3" NCoef="0" IVar="-1" Cut="0.0000000000000000e+00" cType="1" res="1.8315275665372610e-03" rms="3.0982759594917297e-01" purity="3.5872498154640198e-01" nType="-99"/>
          </Node>
        </Node>
        <Node pos="r" depth="1" NCoef="0" IVar="3" Cut="4.1301123046875000e+02" cType="1" res="-6.3590961508452892e-03" rms="2.9483520984649658e-01" purity="6.5948009490966797e-01" nType="0">
          <Node pos="l" depth="2" NCoef="0" IVar="0" Cut="1.6188630371093750e+03" cType="1" res="-4.0769777260720730e-03" rms="2.9473096132278442e-01" purity="6.5028887987136841e-01" nType="0">
            <Node pos="l" depth="3" NCoef="0" IVar="-1" Cut="0.0000000000000000e+00" cType="1" res="-9.1335093602538109e-03" rms="3.3912327885627747e-01" purity="3.9055067300796509e-01" nType="-99"/>
            <Node pos="r" depth="3" NCoef="0" IVar="-1" Cut="0.0000000000000000e+00" cType="1" res="1.1666846694424748e-03" rms="2.5685086846351624e-01" purity="8.4263652563095093e-01" nType="-99"/>
          </Node>
          <Node pos="r" depth="2" NCoef="0" IVar="4" Cut="2.7464587402343750e+02" cType="1" res="-2.5002233684062958e-02" rms="2.9502508044242859e-01" purity="7.3456537723541260e-01" nType="0">
            <Node pos="l" depth="3" NCoef="0" IVar="-1" Cut="0.0000000000000000e+00" cType="1" res="-5.4779116064310074e-02" rms="3.2931101322174072e-01" purity="5.8824068307876587e-01" nType="-99"/>
            <Node pos="r" depth="3" NCoef="0" IVar="-1" Cut="0.0000000000000000e+00" cType="1" res="1.1479611508548260e-02" rms="2.5006228685379028e-01" purity="8.8726645708084106e-01" nType="-99"/>
          </Node>
        </Node>
      </Node>
    </BinaryTree>
    <BinaryTree type="DecisionTree" boostWeight="1.0000000000000000e+00" itree="134">
      <Node pos="s" depth="0" NCoef="0" IVar="10" Cut="-6.6675251722335815e-01" cType="1" res="-1.9085992826148868e-03" rms="2.9233139753341675e-01" purity="5.0073504447937012e-01" nType="0">
        <Node pos="l" depth="1" NCoef="0" IVar="9" Cut="-4.0015023946762085e-01" cType="1" res="4.4520236551761627e-03" rms="2.9274854063987732e-01" purity="4.5526656508445740e-01" nType="0">
          <Node pos="l" depth="2" NCoef="0" IVar="10" Cut="-1.5808302164077759e+00" cType="1" res="-4.2956327088177204e-03" rms="2.9450312256813049e-01" purity="3.9038753509521484e-01" nType="0">
            <Node pos="l" depth="3" NCoef="0" IVar="-1" Cut="0.0000000000000000e+00" cType="1" res="1.5949022024869919e-02" rms="3.0305060744285583e-01" purity="3.0005970597267151e-01" nType="-99"/>
            <Node pos="r" depth="3" NCoef="0" IVar="-1" Cut="0.0000000000000000e+00" cType="1" res="-1.5422396361827850e-02" rms="2.8941062092781067e-01" purity="4.3841299414634705e-01" nType="-99"/>
          </Node>
          <Node pos="r" depth="2" NCoef="0" IVar="0" Cut="1.3922697753906250e+03" cType="1" res="1.0503638535737991e-02" rms="2.9137489199638367e-01" purity="5.0014984607696533e-01" nType="0">
            <Node pos="l" depth="3" NCoef="0" IVar="-1" Cut="0.0000000000000000e+00" cType="1" res="2.4164240807294846e-02" rms="2.8965353965759277e-01" purity="2.0227345824241638e-01" nType="-99"/>
            <Node pos="r" depth="3" NCoef="0" IVar="-1" Cut="0.0000000000000000e+00" cType="1" res="2.6307273656129837e-03" rms="2.9254177212715149e-01" purity="7.4650681018829346e-01" nType="-99"/>
          </Node>
        </Node>
        <Node pos="r" depth="1" NCoef="0" IVar="8" Cut="9.3328565359115601e-01" cType="1" res="-4.6160956844687462e-03" rms="2.9211163520812988e-01" purity="5.2008944749832153e-01" nType="0">
          <Node pos="l" depth="2" NCoef="0" IVar="10" Cut="8.1880128383636475e-01" cType="1" res="-6.6537247039377689e-03" rms="2.9569557309150696e-01" purity="5.6411164999008179e-01" nType="0">
            <Node pos="l" depth="3" NCoef="0" IVar="-1" Cut="0.0000000000000000e+00" cType="1" res="-2.8345303144305944e-03" rms="2.9142224788665771e-01" purity="6.1094117164611816e-01" nType="-99"/>
            <Node pos="r" depth="3" NCoef="0" IVar="-1" Cut="0.0000000000000000e+00" cType="1" res="-1.6158631071448326e-02" rms="3.0359992384910583e-01" purity="4.7383633255958557e-01" nType="-99"/>
          </Node>
          <Node pos="r" depth="2" NCoef="0" IVar="9" Cut="6.6593539714813232e-01" cType="1" res="4.5802583917975426e-03" rms="2.7516901493072510e-01" purity="3.2140564918518066e-01" nType="0">
            <Node pos="l" depth="3" NCoef="0" IVar="-1" Cut="0.0000000000000000e+00" cType="1" res="-7.5696692802011967e-03" rms="2.7591505646705627e-01" purity="3.4857252240180969e-01" nType="-99"/>
            <Node pos="r" depth="3" NCoef="0" IVar="-1" Cut="0.0000000000000000e+00" cType="1" res="2.9709810391068459e-02" rms="2.7281948924064636e-01" purity="2.7305206656455994e-01" nType="-99"/>
          </Node>
        </Node>
      </Node>
    </BinaryTree>
    <BinaryTree type="DecisionTree" boostWeight="1.0000000000000000e+00" itree="135">
      <Node pos="s" depth="0" NCoef="0" IVar="6" Cut="6.0943733215332031e+01" cType="1" res="-1.1247177608311176e-03" rms="2.9312416911125183e-01" purity="4.9635988473892212e-01" nType="0">
        <Node pos="l" depth="1" NCoef="0" IVar="0" Cut="1.6922445068359375e+03" cType="1" res="4.5617781579494476e-03" rms="3.1062099337577820e-01" purity="2.8600388765335083e-01" nType="0">
          <Node pos="l" depth="2" NCoef="0" IVar="8" Cut="-1.1999809741973877e+00" cType="1" res="1.5704352408647537e-03" rms="3.0286967754364014e-01" purity="2.0342183113098145e-01" nType="0">
            <Node pos="l" depth="3" NCoef="0" IVar="-1" Cut="0.0000000000000000e+00" cType="1" res="4.7944221645593643e-02" rms="2.3933216929435730e-01" purity="9.8074093461036682e-02" nType="-99"/>
            <Node pos="r" depth="3" NCoef="0" IVar="-1" Cut="0.0000000000000000e+00" cType="1" res="-2.5847146753221750e-03" rms="3.1333535909652710e-01" purity="2.2347433865070343e-01" nType="-99"/>
          </Node>
          <Node pos="r" depth="2" NCoef="0" IVar="7" Cut="2.0691172778606415e-01" cType="1" res="1.8360029906034470e-02" rms="3.4378609061241150e-01" purity="6.6693222522735596e-01" nType="0">
            <Node pos="l" depth="3" NCoef="0" IVar="-1" Cut="0.0000000000000000e+00" cType="1" res="2.3134334012866020e-02" rms="3.4730893373489380e-01" purity="6.9712209701538086e-01" nType="-99"/>
            <Node pos="r" depth="3" NCoef="0" IVar="-1" Cut="0.0000000000000000e+00" cType="1" res="3.0102979508228600e-04" rms="3.3734816312789917e-01" purity="6.1909753084182739e-01" nType="-99"/>
          </Node>
        </Node>
        <Node pos="r" depth="1" NCoef="0" IVar="11" Cut="-1.4665815830230713e+00" cType="1" res="-9.9502438679337502e-03" rms="2.6343655586242676e-01" purity="8.2283550500869751e-01" nType="0">
          <Node pos="l" depth="2" NCoef="0" IVar="-1" Cut="0.0000000000000000e+00" cType="1" res="-4.7921087592840195e-02" rms="2.9918515682220459e-01" purity="6.8959242105484009e-01" nType="-99"/>
          <Node pos="r" depth="2" NCoef="0" IVar="9" Cut="9.3309503793716431e-01" cType="1" res="-6.8978350609540939e-03" rms="2.5961139798164368e-01" purity="8.3537214994430542e-01" nType="0">
            <Node pos="l" depth="3" NCoef="0" IVar="-1" Cut="0.0000000000000000e+00" cType="1" res="-4.2282240465283394e-03" rms="2.4746419489383698e-01" purity="8.5724711418151855e-01" nType="-99"/>
            <Node pos="r" depth="3" NCoef="0" IVar="-1" Cut="0.0000000000000000e+00" cType="1" res="-3.2899413257837296e-02" rms="3.1967917084693909e-01" purity="7.0945978164672852e-01" nType="-99"/>
          </Node>
        </Node>
      </Node>
    </BinaryTree>
    <BinaryTree type="DecisionTree" boostWeight="1.0000000000000000e+00" itree="136">
      <Node pos="s" depth="0" NCoef="0" IVar="1" Cut="1.4641878008842468e-01" cType="1" res="-2.8701736591756344e-03" rms="2.9119154810905457e-01" purity="4.9802982807159424e-01" nType="0">
        <Node pos="l" depth="1" NCoef="0" IVar="5" Cut="7.1511077880859375e+01" cType="1" res="-4.8794071190059185e-03" rms="2.9993870854377747e-01" purity="4.2502176761627197e-01" nType="0">
          <Node pos="l" depth="2" NCoef="0" IVar="10" Cut="-9.3335467576980591e-01" cType="1" res="-2.0773264986928552e-04" rms="2.8219410777091980e-01" purity="1.6506257653236389e-01" nType="0">
            <Node pos="l" depth="3" NCoef="0" IVar="-1" Cut="0.0000000000000000e+00" cType="1" res="1.7247248440980911e-02" rms="2.7675250172615051e-01" purity="1.5967686474323273e-01" nType="-99"/>
            <Node pos="r" depth="3" NCoef="0" IVar="-1" Cut="0.0000000000000000e+00" cType="1" res="-5.8392453938722610e-03" rms="2.8396454453468323e-01" purity="1.6698771715164185e-01" nType="-99"/>
          </Node>
          <Node pos="r" depth="2" NCoef="0" IVar="3" Cut="1.5268185424804688e+02" cType="1" res="-8.8316816836595535e-03" rms="3.1411489844322205e-01" purity="6.4494931697845459e-01" nType="0">
            <Node pos="l" depth="3" NCoef="0" IVar="-1" Cut="0.0000000000000000e+00" cType="1" res="1.0650098323822021e-02" rms="3.2026195526123047e-01" purity="3.0449113249778748e-01" nType="-99"/>
            <Node pos="r" depth="3" NCoef="0" IVar="-1" Cut="0.0000000000000000e+00" cType="1" res="-1.1008385568857193e-02" rms="3.1338039040565491e-01" purity="6.8095427751541138e-01" nType="-99"/>
          </Node>
        </Node>
        <Node pos="r" depth="1" NCoef="0" IVar="11" Cut="-1.0684431791305542e+00" cType="1" res="7.7450000680983067e-03" rms="2.3945897817611694e-01" purity="8.8374555110931396e-01" nType="0">
          <Node pos="l" depth="2" NCoef="0" IVar="-1" Cut="0.0000000000000000e+00" cType="1" res="2.0026717334985733e-02" rms="3.1514111161231995e-01" purity="7.5709372758865356e-01" nType="-99"/>
          <Node pos="r" depth="2" NCoef="0" IVar="-1" Cut="0.0000000000000000e+00" cType="1" res="1.3663467252627015e-03" rms="1.8961974978446960e-01" purity="9.4780963659286499e-01" nType="-99"/>
        </Node>
      </Node>
    </BinaryTree>
    <BinaryTree type="DecisionTree" boostWeight="1.0000000000000000e+00" itree="137">
      <Node pos="s" depth="0" NCoef="0" IVar="10" Cut="1.7331967353820801e+00" cType="1" res="1.8833753420040011e-03" rms="2.9326474666595459e-01" purity="5.0272417068481445e-01" nType="0">
        <Node pos="l" depth="1" NCoef="0" IVar="1" Cut="1.6733564436435699e-01" cType="1" res="5.4735224694013596e-04" rms="2.9258006811141968e-01" purity="5.1747894287109375e-01" nType="0">
          <Node pos="l" depth="2" NCoef="0" IVar="7" Cut="-6.3579267263412476e-01" cType="1" res="-7.1015942376106977e-04" rms="3.0005908012390137e-01" purity="4.6566945314407349e-01" nType="0">
            <Node pos="l" depth="3" NCoef="0" IVar="-1" Cut="0.0000000000000000e+00" cType="1" res="6.3777659088373184e-03" rms="2.8902328014373779e-01" purity="3.3532780408859253e-01" nType="-99"/>
            <Node pos="r" depth="3" NCoef="0" IVar="-1" Cut="0.0000000000000000e+00" cType="1" res="-2.9743774794042110e-03" rms="3.0371531844139099e-01" purity="5.1028370857238770e-01" nType="-99"/>
          </Node>
          <Node pos="r" depth="2" NCoef="0" IVar="-1" Cut="0.0000000000000000e+00" cType="1" res="1.7421731725335121e-02" rms="2.2841034829616547e-01" purity="9.0707594156265259e-01" nType="-99"/>
        </Node>
        <Node pos="r" depth="1" NCoef="0" IVar="7" Cut="2.1832202374935150e-01" cType="1" res="1.8606752157211304e-02" rms="3.0120262503623962e-01" purity="3.1803441047668457e-01" nType="0">
          <Node pos="l" depth="2" NCoef="0" IVar="-1" Cut="0.0000000000000000e+00" cType="1" res="5.7541704736649990e-03" rms="3.0731505155563354e-01" purity="3.1182852387428284e-01" nType="-99"/>
          <Node pos="r" depth="2" NCoef="0" IVar="-1" Cut="0.0000000000000000e+00" cType="1" res="4.0150597691535950e-02" rms="2.9350557923316956e-01" purity="3.2495701313018799e-01" nType="-99"/>
        </Node>
      </Node>
    </BinaryTree>
    <BinaryTree type="DecisionTree" boostWeight="1.0000000000000000e+00" itree="138">
      <Node pos="s" depth="0" NCoef="0" IVar="8" Cut="6.6663306951522827e-01" cType="1" res="-3.1481464975513518e-04" rms="2.8941318392753601e-01" purity="5.0018674135208130e-01" nType="0">
        <Node pos="l" depth="1" NCoef="0" IVar="0" Cut="1.1148664550781250e+03" cType="1" res="2.2167025599628687e-03" rms="2.9184052348136902e-01" purity="5.4293930530548096e-01" nType="0">
          <Node pos="l" depth="2" NCoef="0" IVar="0" Cut="1.0099191284179688e+03" cType="1" res="-8.9635681360960007e-03" rms="2.0726385712623596e-01" purity="5.1618367433547974e-02" nType="0">
            <Node pos="l" depth="3" NCoef="0" IVar="-1" Cut="0.0000000000000000e+00" cType="1" res="-4.6238387003540993e-03" rms="1.7452423274517059e-01" purity="3.3768955618143082e-02" nType="-99"/>
            <Node pos="r" depth="3" NCoef="0" IVar="-1" Cut="0.0000000000000000e+00" cType="1" res="-2.4209585040807724e-02" rms="2.3240572214126587e-01" purity="6.7538604140281677e-02" nType="-99"/>
          </Node>
          <Node pos="r" depth="2" NCoef="0" IVar="1" Cut="4.1835803538560867e-02" cType="1" res="4.4215787202119827e-03" rms="3.0572238564491272e-01" purity="6.3983333110809326e-01" nType="0">
            <Node pos="l" depth="3" NCoef="0" IVar="-1" Cut="0.0000000000000000e+00" cType="1" res="1.1570523492991924e-02" rms="3.1662622094154358e-01" purity="3.2466924190521240e-01" nType="-99"/>
            <Node pos="r" depth="3" NCoef="0" IVar="-1" Cut="0.0000000000000000e+00" cType="1" res="5.4890697356313467e-04" rms="2.9995051026344299e-01" purity="8.0007660388946533e-01" nType="-99"/>
          </Node>
        </Node>
        <Node pos="r" depth="1" NCoef="0" IVar="8" Cut="1.1745727062225342e+00" cType="1" res="-8.1557771191000938e-03" rms="2.8161782026290894e-01" purity="3.6776769161224365e-01" nType="0">
          <Node pos="l" depth="2" NCoef="0" IVar="4" Cut="1.6768397521972656e+02" cType="1" res="-2.0476823672652245e-02" rms="2.9866325855255127e-01" purity="4.9858224391937256e-01" nType="0">
            <Node pos="l" depth="3" NCoef="0" IVar="-1" Cut="0.0000000000000000e+00" cType="1" res="-3.4458823502063751e-02" rms="3.0382567644119263e-01" purity="2.8828167915344238e-01" nType="-99"/>
            <Node pos="r" depth="3" NCoef="0" IVar="-1" Cut="0.0000000000000000e+00" cType="1" res="-2.7103126049041748e-03" rms="2.9100504517555237e-01" purity="7.6480787992477417e-01" nType="-99"/>
          </Node>
          <Node pos="r" depth="2" NCoef="0" IVar="8" Cut="1.8711767196655273e+00" cType="1" res="4.6324846334755421e-03" rms="2.6214745640754700e-01" purity="2.3199264705181122e-01" nType="0">
            <Node pos="l" depth="3" NCoef="0" IVar="-1" Cut="0.0000000000000000e+00" cType="1" res="1.6346979886293411e-02" rms="2.9675015807151794e-01" purity="3.0549573898315430e-01" nType="-99"/>
            <Node pos="r" depth="3" NCoef="0" IVar="-1" Cut="0.0000000000000000e+00" cType="1" res="-3.7449400871992111e-02" rms="1.6345481574535370e-01" purity="7.4672475457191467e-02" nType="-99"/>
          </Node>
        </Node>
      </Node>
    </BinaryTree>
    <BinaryTree type="DecisionTree" boostWeight="1.0000000000000000e+00" itree="139">
      <Node pos="s" depth="0" NCoef="0" IVar="7" Cut="9.5642727613449097e-01" cType="1" res="-7.9425622243434191e-04" rms="2.9256153106689453e-01" purity="4.9978303909301758e-01" nType="0">
        <Node pos="l" depth="1" NCoef="0" IVar="8" Cut="9.3314152956008911e-01" cType="1" res="9.4197125872597098e-04" rms="2.9939854145050049e-01" purity="5.4895693063735962e-01" nType="0">
          <Node pos="l" depth="2" NCoef="0" IVar="10" Cut="-1.7334094047546387e+00" cType="1" res="-1.2378452811390162e-03" rms="3.0189278721809387e-01" purity="5.8872437477111816e-01" nType="0">
            <Node pos="l" depth="3" NCoef="0" IVar="-1" Cut="0.0000000000000000e+00" cType="1" res="1.9120071083307266e-02" rms="3.3473023772239685e-01" purity="3.7631484866142273e-01" nType="-99"/>
            <Node pos="r" depth="3" NCoef="0" IVar="-1" Cut="0.0000000000000000e+00" cType="1" res="-3.1000964809209108e-03" rms="2.9893952608108521e-01" purity="6.0639947652816772e-01" nType="-99"/>
          </Node>
          <Node pos="r" depth="2" NCoef="0" IVar="11" Cut="-1.8955677747726440e+00" cType="1" res="1.1905990540981293e-02" rms="2.8627234697341919e-01" purity="3.4893521666526794e-01" nType="0">
            <Node pos="l" depth="3" NCoef="0" IVar="-1" Cut="0.0000000000000000e+00" cType="1" res="1.4794259332120419e-03" rms="2.5961896777153015e-01" purity="1.4163544774055481e-01" nType="-99"/>
            <Node pos="r" depth="3" NCoef="0" IVar="-1" Cut="0.0000000000000000e+00" cType="1" res="2.5467224419116974e-02" rms="3.1821939349174500e-01" purity="6.2944257259368896e-01" nType="-99"/>
          </Node>
        </Node>
        <Node pos="r" depth="1" NCoef="0" IVar="0" Cut="1.6702239990234375e+03" cType="1" res="-1.0854724794626236e-02" rms="2.4904245138168335e-01" purity="2.1484771370887756e-01" nType="0">
          <Node pos="l" depth="2" NCoef="0" IVar="6" Cut="5.4943531036376953e+01" cType="1" res="-1.5706473961472511e-02" rms="2.3292811214923859e-01" purity="1.0984119027853012e-01" nType="0">
            <Node pos="l" depth="3" NCoef="0" IVar="-1" Cut="0.0000000000000000e+00" cType="1" res="-1.6964130103588104e-02" rms="1.9144399464130402e-01" purity="5.4754052311182022e-02" nType="-99"/>
            <Node pos="r" depth="3" NCoef="0" IVar="-1" Cut="0.0000000000000000e+00" cType="1" res="-3.5743355751037598e-02" rms="3.3010786771774292e-01" purity="2.8382420539855957e-01" nType="-99"/>
          </Node>
          <Node pos="r" depth="2" NCoef="0" IVar="-1" Cut="0.0000000000000000e+00" cType="1" res="8.1711839884519577e-03" rms="3.0561047792434692e-01" purity="6.4571702480316162e-01" nType="-99"/>
        </Node>
      </Node>
    </BinaryTree>
    <BinaryTree type="DecisionTree" boostWeight="1.0000000000000000e+00" itree="140">
      <Node pos="s" depth="0" NCoef="0" IVar="9" Cut="1.4664028882980347e+00" cType="1" res="1.6050085832830518e-04" rms="2.9280593991279602e-01" purity="5.0064104795455933e-01" nType="0">
        <Node pos="l" depth="1" NCoef="0" IVar="8" Cut="9.3313908576965332e-01" cType="1" res="-1.6528274863958359e-03" rms="2.9304143786430359e-01" purity="5.2517944574356079e-01" nType="0">
          <Node pos="l" depth="2" NCoef="0" IVar="8" Cut="2.2206217050552368e-01" cType="1" res="5.6605978170409799e-04" rms="2.9609960317611694e-01" purity="5.6704956293106079e-01" nType="0">
            <Node pos="l" depth="3" NCoef="0" IVar="-1" Cut="0.0000000000000000e+00" cType="1" res="3.2970518805086613e-03" rms="2.9219213128089905e-01" purity="5.5055677890777588e-01" nType="-99"/>
            <Node pos="r" depth="3" NCoef="0" IVar="-1" Cut="0.0000000000000000e+00" cType="1" res="-5.5951438844203949e-03" rms="3.0561298131942749e-01" purity="6.0846537351608276e-01" nType="-99"/>
          </Node>
          <Node pos="r" depth="2" NCoef="0" IVar="3" Cut="1.8693090820312500e+02" cType="1" res="-1.3324080966413021e-02" rms="2.7610573172569275e-01" purity="3.0494403839111328e-01" nType="0">
            <Node pos="l" depth="3" NCoef="0" IVar="-1" Cut="0.0000000000000000e+00" cType="1" res="2.6917438954114914e-03" rms="2.4734036624431610e-01" purity="1.5242661535739899e-01" nType="-99"/>
            <Node pos="r" depth="3" NCoef="0" IVar="-1" Cut="0.0000000000000000e+00" cType="1" res="-2.6720250025391579e-02" rms="2.9572117328643799e-01" purity="4.2167738080024719e-01" nType="-99"/>
          </Node>
        </Node>
        <Node pos="r" depth="1" NCoef="0" IVar="8" Cut="4.0128320455551147e-01" cType="1" res="1.9261773675680161e-02" rms="2.8962478041648865e-01" purity="2.4215844273567200e-01" nType="0">
          <Node pos="l" depth="2" NCoef="0" IVar="-1" Cut="0.0000000000000000e+00" cType="1" res="6.1441268771886826e-03" rms="2.9357191920280457e-01" purity="2.5757485628128052e-01" nType="-99"/>
          <Node pos="r" depth="2" NCoef="0" IVar="-1" Cut="0.0000000000000000e+00" cType="1" res="5.5093396455049515e-02" rms="2.8331321477890015e-01" purity="2.2204968333244324e-01" nType="-99"/>
        </Node>
      </Node>
    </BinaryTree>
    <BinaryTree type="DecisionTree" boostWeight="1.0000000000000000e+00" itree="141">
      <Node pos="s" depth="0" NCoef="0" IVar="0" Cut="1.3753665771484375e+03" cType="1" res="-1.0342912282794714e-03" rms="2.9354551434516907e-01" purity="4.9859294295310974e-01" nType="0">
        <Node pos="l" depth="1" NCoef="0" IVar="4" Cut="1.2036170959472656e+02" cType="1" res="-6.8655554205179214e-03" rms="2.8747916221618652e-01" purity="1.7614269256591797e-01" nType="0">
          <Node pos="l" depth="2" NCoef="0" IVar="0" Cut="1.1836544189453125e+03" cType="1" res="1.5192228602245450e-03" rms="2.4438646435737610e-01" purity="9.7532980144023895e-02" nType="0">
            <Node pos="l" depth="3" NCoef="0" IVar="-1" Cut="0.0000000000000000e+00" cType="1" res="-7.5467270798981190e-03" rms="2.0803709328174591e-01" purity="5.7120978832244873e-02" nType="-99"/>
            <Node pos="r" depth="3" NCoef="0" IVar="-1" Cut="0.0000000000000000e+00" cType="1" res="1.5740545466542244e-02" rms="3.2438990473747253e-01" purity="2.1000654995441437e-01" nType="-99"/>
          </Node>
          <Node pos="r" depth="2" NCoef="0" IVar="11" Cut="-7.9137682914733887e-01" cType="1" res="-1.8502527847886086e-02" rms="3.3796536922454834e-01" purity="2.8524264693260193e-01" nType="0">
            <Node pos="l" depth="3" NCoef="0" IVar="-1" Cut="0.0000000000000000e+00" cType="1" res="-8.6587369441986084e-03" rms="3.2230734825134277e-01" purity="2.2191281616687775e-01" nType="-99"/>
            <Node pos="r" depth="3" NCoef="0" IVar="-1" Cut="0.0000000000000000e+00" cType="1" res="-3.1998429447412491e-02" rms="3.7995785474777222e-01" purity="4.7544690966606140e-01" nType="-99"/>
          </Node>
        </Node>
        <Node pos="r" depth="1" NCoef="0" IVar="3" Cut="2.8991146850585938e+02" cType="1" res="3.1890203244984150e-03" rms="2.9779067635536194e-01" purity="7.3212850093841553e-01" nType="0">
          <Node pos="l" depth="2" NCoef="0" IVar="5" Cut="6.9950424194335938e+01" cType="1" res="9.5038274303078651e-03" rms="2.9852759838104248e-01" purity="7.3185008764266968e-01" nType="0">
            <Node pos="l" depth="3" NCoef="0" IVar="-1" Cut="0.0000000000000000e+00" cType="1" res="1.8104536458849907e-02" rms="3.6101877689361572e-01" purity="3.9126327633857727e-01" nType="-99"/>
            <Node pos="r" depth="3" NCoef="0" IVar="-1" Cut="0.0000000000000000e+00" cType="1" res="7.4493237771093845e-03" rms="2.8220042586326599e-01" purity="8.0972772836685181e-01" nType="-99"/>
          </Node>
          <Node pos="r" depth="2" NCoef="0" IVar="8" Cut="-6.6593998670578003e-01" cType="1" res="-6.0794674791395664e-03" rms="2.9646223783493042e-01" purity="7.3253715038299561e-01" nType="0">
            <Node pos="l" depth="3" NCoef="0" IVar="-1" Cut="0.0000000000000000e+00" cType="1" res="-3.3477079123258591e-02" rms="3.2029443979263306e-01" purity="5.7747000455856323e-01" nType="-99"/>
            <Node pos="r" depth="3" NCoef="0" IVar="-1" Cut="0.0000000000000000e+00" cType="1" res="2.5153909518849105e-05" rms="2.9061007499694824e-01" purity="7.6660180091857910e-01" nType="-99"/>
          </Node>
        </Node>
      </Node>
    </BinaryTree>
    <BinaryTree type="DecisionTree" boostWeight="1.0000000000000000e+00" itree="142">
      <Node pos="s" depth="0" NCoef="0" IVar="7" Cut="-9.0007930994033813e-01" cType="1" res="-3.8204686716198921e-03" rms="2.8796109557151794e-01" purity="4.9364030361175537e-01" nType="0">
        <Node pos="l" depth="1" NCoef="0" IVar="0" Cut="1.7056350097656250e+03" cType="1" res="-1.4180013909935951e-02" rms="2.3953156173229218e-01" purity="2.3528477549552917e-01" nType="0">
          <Node pos="l" depth="2" NCoef="0" IVar="5" Cut="8.7679039001464844e+01" cType="1" res="-1.9026774913072586e-02" rms="2.2550980746746063e-01" purity="1.2421844154596329e-01" nType="0">
            <Node pos="l" depth="3" NCoef="0" IVar="-1" Cut="0.0000000000000000e+00" cType="1" res="-2.4222822859883308e-02" rms="1.9812707602977753e-01" purity="6.5900884568691254e-02" nType="-99"/>
            <Node pos="r" depth="3" NCoef="0" IVar="-1" Cut="0.0000000000000000e+00" cType="1" res="-4.0903910994529724e-02" rms="3.1275314092636108e-01" purity="3.6521929502487183e-01" nType="-99"/>
          </Node>
          <Node pos="r" depth="2" NCoef="0" IVar="-1" Cut="0.0000000000000000e+00" cType="1" res="6.1494791880249977e-03" rms="2.9009661078453064e-01" purity="7.0012050867080688e-01" nType="-99"/>
        </Node>
        <Node pos="r" depth="1" NCoef="0" IVar="5" Cut="7.0726394653320312e+01" cType="1" res="-1.8237415933981538e-03" rms="2.9634568095207214e-01" purity="5.4343652725219727e-01" nType="0">
          <Node pos="l" depth="2" NCoef="0" IVar="1" Cut="4.1806258261203766e-02" cType="1" res="4.3824268504977226e-03" rms="3.0251595377922058e-01" purity="2.2040763497352600e-01" nType="0">
            <Node pos="l" depth="3" NCoef="0" IVar="-1" Cut="0.0000000000000000e+00" cType="1" res="-9.9697830155491829e-03" rms="2.4287664890289307e-01" purity="1.0117378085851669e-01" nType="-99"/>
            <Node pos="r" depth="3" NCoef="0" IVar="-1" Cut="0.0000000000000000e+00" cType="1" res="1.3970081694424152e-02" rms="3.6466586589813232e-01" purity="3.7369555234909058e-01" nType="-99"/>
          </Node>
          <Node pos="r" depth="2" NCoef="0" IVar="0" Cut="1.3259047851562500e+03" cType="1" res="-5.5721052922308445e-03" rms="2.9249221086502075e-01" purity="7.3853743076324463e-01" nType="0">
            <Node pos="l" depth="3" NCoef="0" IVar="-1" Cut="0.0000000000000000e+00" cType="1" res="-1.6552595421671867e-02" rms="3.6642712354660034e-01" purity="3.0627155303955078e-01" nType="-99"/>
            <Node pos="r" depth="3" NCoef="0" IVar="-1" Cut="0.0000000000000000e+00" cType="1" res="-2.5264583528041840e-03" rms="2.7414461970329285e-01" purity="8.3012121915817261e-01" nType="-99"/>
          </Node>
        </Node>
      </Node>
    </BinaryTree>
    <BinaryTree type="DecisionTree" boostWeight="1.0000000000000000e+00" itree="143">
      <Node pos="s" depth="0" NCoef="0" IVar="9" Cut="1.7333230972290039e+00" cType="1" res="7.7766075264662504e-05" rms="2.9206472635269165e-01" purity="5.0098145008087158e-01" nType="0">
        <Node pos="l" depth="1" NCoef="0" IVar="5" Cut="9.3022277832031250e+01" cType="1" res="1.2635191669687629e-03" rms="2.9518431425094604e-01" purity="5.2244544029235840e-01" nType="0">
          <Node pos="l" depth="2" NCoef="0" IVar="0" Cut="1.4400944824218750e+03" cType="1" res="5.2103763446211815e-03" rms="3.1457844376564026e-01" purity="3.1556478142738342e-01" nType="0">
            <Node pos="l" depth="3" NCoef="0" IVar="-1" Cut="0.0000000000000000e+00" cType="1" res="-1.3557959755416960e-04" rms="2.9149580001831055e-01" purity="1.7913912236690521e-01" nType="-99"/>
            <Node pos="r" depth="3" NCoef="0" IVar="-1" Cut="0.0000000000000000e+00" cType="1" res="1.2398058548569679e-02" rms="3.5550507903099060e-01" purity="5.8462363481521606e-01" nType="-99"/>
          </Node>
          <Node pos="r" depth="2" NCoef="0" IVar="0" Cut="2.6795397949218750e+03" cType="1" res="-4.7991252504289150e-03" rms="2.6250305771827698e-01" purity="8.4022831916809082e-01" nType="0">
            <Node pos="l" depth="3" NCoef="0" IVar="-1" Cut="0.0000000000000000e+00" cType="1" res="-9.7106471657752991e-03" rms="2.6796856522560120e-01" purity="8.3090454339981079e-01" nType="-99"/>
            <Node pos="r" depth="3" NCoef="0" IVar="-1" Cut="0.0000000000000000e+00" cType="1" res="5.3898729383945465e-02" rms="1.7122773826122284e-01" purity="9.6442323923110962e-01" nType="-99"/>
          </Node>
        </Node>
        <Node pos="r" depth="1" NCoef="0" IVar="3" Cut="1.7329104614257812e+02" cType="1" res="-2.0130967721343040e-02" rms="2.3161828517913818e-01" purity="1.3517253100872040e-01" nType="0">
          <Node pos="l" depth="2" NCoef="0" IVar="-1" Cut="0.0000000000000000e+00" cType="1" res="-1.5114559791982174e-02" rms="1.4785856008529663e-01" purity="4.5098178088665009e-02" nType="-99"/>
          <Node pos="r" depth="2" NCoef="0" IVar="-1" Cut="0.0000000000000000e+00" cType="1" res="-3.8136404007673264e-02" rms="2.8472295403480530e-01" purity="2.1390895545482635e-01" nType="-99"/>
        </Node>
      </Node>
    </BinaryTree>
    <BinaryTree type="DecisionTree" boostWeight="1.0000000000000000e+00" itree="144">
      <Node pos="s" depth="0" NCoef="0" IVar="4" Cut="1.6041624450683594e+02" cType="1" res="1.2555947760120034e-03" rms="2.9249644279479980e-01" purity="5.0221008062362671e-01" nType="0">
        <Node pos="l" depth="1" NCoef="0" IVar="11" Cut="8.6665838956832886e-01" cType="1" res="6.7816600203514099e-03" rms="2.9294988512992859e-01" purity="2.8460663557052612e-01" nType="0">
          <Node pos="l" depth="2" NCoef="0" IVar="4" Cut="1.1337801361083984e+02" cType="1" res="3.9487783797085285e-03" rms="2.8918650746345520e-01" purity="2.5626969337463379e-01" nType="0">
            <Node pos="l" depth="3" NCoef="0" IVar="-1" Cut="0.0000000000000000e+00" cType="1" res="-5.5090729147195816e-03" rms="2.4380448460578918e-01" purity="1.0355423390865326e-01" nType="-99"/>
            <Node pos="r" depth="3" NCoef="0" IVar="-1" Cut="0.0000000000000000e+00" cType="1" res="1.0487784631550312e-02" rms="3.2900723814964294e-01" purity="4.1239532828330994e-01" nType="-99"/>
          </Node>
          <Node pos="r" depth="2" NCoef="0" IVar="-1" Cut="0.0000000000000000e+00" cType="1" res="2.8911970555782318e-02" rms="3.2408162951469421e-01" purity="5.4261982440948486e-01" nType="-99"/>
        </Node>
        <Node pos="r" depth="1" NCoef="0" IVar="9" Cut="-6.6620880365371704e-01" cType="1" res="-4.9397731199860573e-03" rms="2.9186287522315979e-01" purity="7.4616914987564087e-01" nType="0">
          <Node pos="l" depth="2" NCoef="0" IVar="5" Cut="1.1378148651123047e+02" cType="1" res="-2.1764107048511505e-02" rms="3.1095060706138611e-01" purity="6.4813607931137085e-01" nType="0">
            <Node pos="l" depth="3" NCoef="0" IVar="-1" Cut="0.0000000000000000e+00" cType="1" res="-3.2134320586919785e-02" rms="3.4345850348472595e-01" purity="4.8506587743759155e-01" nType="-99"/>
            <Node pos="r" depth="3" NCoef="0" IVar="-1" Cut="0.0000000000000000e+00" cType="1" res="1.9801235757768154e-03" rms="2.5732055306434631e-01" purity="8.7472522258758545e-01" nType="-99"/>
          </Node>
          <Node pos="r" depth="2" NCoef="0" IVar="9" Cut="8.1921476125717163e-01" cType="1" res="-4.6736178774153814e-05" rms="2.8588682413101196e-01" purity="7.7468025684356689e-01" nType="0">
            <Node pos="l" depth="3" NCoef="0" IVar="-1" Cut="0.0000000000000000e+00" cType="1" res="7.2050276212394238e-03" rms="2.7648344635963440e-01" purity="8.1743550300598145e-01" nType="-99"/>
            <Node pos="r" depth="3" NCoef="0" IVar="-1" Cut="0.0000000000000000e+00" cType="1" res="-2.0435545593500137e-02" rms="3.1554421782493591e-01" purity="6.2615960836410522e-01" nType="-99"/>
          </Node>
        </Node>
      </Node>
    </BinaryTree>
    <BinaryTree type="DecisionTree" boostWeight="1.0000000000000000e+00" itree="145">
      <Node pos="s" depth="0" NCoef="0" IVar="0" Cut="1.0545148925781250e+03" cType="1" res="3.3048600889742374e-03" rms="2.9114794731140137e-01" purity="5.0233775377273560e-01" nType="0">
        <Node pos="l" depth="1" NCoef="0" IVar="8" Cut="-3.9994677901268005e-01" cType="1" res="-8.4627214819192886e-03" rms="1.7255458235740662e-01" purity="3.3319003880023956e-02" nType="0">
          <Node pos="l" depth="2" NCoef="0" IVar="-1" Cut="0.0000000000000000e+00" cType="1" res="2.1940243896096945e-03" rms="1.7475306987762451e-01" purity="3.4141104668378830e-02" nType="-99"/>
          <Node pos="r" depth="2" NCoef="0" IVar="9" Cut="1.3466517627239227e-01" cType="1" res="-1.3916653580963612e-02" rms="1.7099374532699585e-01" purity="3.2827228307723999e-02" nType="0">
            <Node pos="l" depth="3" NCoef="0" IVar="-1" Cut="0.0000000000000000e+00" cType="1" res="-4.8193592578172684e-02" rms="1.5361575782299042e-01" purity="2.7248444035649300e-02" nType="-99"/>
            <Node pos="r" depth="3" NCoef="0" IVar="-1" Cut="0.0000000000000000e+00" cType="1" res="-2.0529460161924362e-02" rms="1.8820527195930481e-01" purity="3.9000023156404495e-02" nType="-99"/>
          </Node>
        </Node>
        <Node pos="r" depth="1" NCoef="0" IVar="5" Cut="9.1451591491699219e+01" cType="1" res="4.9378960393369198e-03" rms="3.0393537878990173e-01" purity="5.6742542982101440e-01" nType="0">
          <Node pos="l" depth="2" NCoef="0" IVar="1" Cut="6.2752597033977509e-02" cType="1" res="8.9873736724257469e-03" rms="3.2998114824295044e-01" purity="3.5917446017265320e-01" nType="0">
            <Node pos="l" depth="3" NCoef="0" IVar="-1" Cut="0.0000000000000000e+00" cType="1" res="4.0235328488051891e-03" rms="3.0225941538810730e-01" purity="2.1234472095966339e-01" nType="-99"/>
            <Node pos="r" depth="3" NCoef="0" IVar="-1" Cut="0.0000000000000000e+00" cType="1" res="1.2895763851702213e-02" rms="3.7636926770210266e-01" purity="6.3487708568572998e-01" nType="-99"/>
          </Node>
          <Node pos="r" depth="2" NCoef="0" IVar="8" Cut="3.9835187792778015e-01" cType="1" res="-2.4555510026402771e-04" rms="2.6682296395301819e-01" purity="8.3399271965026855e-01" nType="0">
            <Node pos="l" depth="3" NCoef="0" IVar="-1" Cut="0.0000000000000000e+00" cType="1" res="4.9810516647994518e-03" rms="2.6049539446830750e-01" purity="8.5580933094024658e-01" nType="-99"/>
            <Node pos="r" depth="3" NCoef="0" IVar="-1" Cut="0.0000000000000000e+00" cType="1" res="-1.0692986659705639e-02" rms="2.8022769093513489e-01" purity="7.8538334369659424e-01" nType="-99"/>
          </Node>
        </Node>
      </Node>
    </BinaryTree>
    <BinaryTree type="DecisionTree" boostWeight="1.0000000000000000e+00" itree="146">
      <Node pos="s" depth="0" NCoef="0" IVar="9" Cut="3.9993911981582642e-01" cType="1" res="-1.5674583846703172e-03" rms="2.9436802864074707e-01" purity="4.9560537934303284e-01" nType="0">
        <Node pos="l" depth="1" NCoef="0" IVar="11" Cut="1.4186284542083740e+00" cType="1" res="1.3263599248602986e-03" rms="2.9749923944473267e-01" purity="5.2283620834350586e-01" nType="0">
          <Node pos="l" depth="2" NCoef="0" IVar="8" Cut="-3.9998671412467957e-01" cType="1" res="2.4991752579808235e-03" rms="2.9669055342674255e-01" purity="5.1553732156753540e-01" nType="0">
            <Node pos="l" depth="3" NCoef="0" IVar="-1" Cut="0.0000000000000000e+00" cType="1" res="-4.0347408503293991e-03" rms="3.0075779557228088e-01" purity="4.3870395421981812e-01" nType="-99"/>
            <Node pos="r" depth="3" NCoef="0" IVar="-1" Cut="0.0000000000000000e+00" cType="1" res="6.5384688787162304e-03" rms="2.9429537057876587e-01" purity="5.5927437543869019e-01" nType="-99"/>
          </Node>
          <Node pos="r" depth="2" NCoef="0" IVar="-1" Cut="0.0000000000000000e+00" cType="1" res="-2.0686777308583260e-02" rms="3.1109121441841125e-01" purity="6.5579849481582642e-01" nType="-99"/>
        </Node>
        <Node pos="r" depth="1" NCoef="0" IVar="8" Cut="-6.6686141490936279e-01" cType="1" res="-6.8659977987408638e-03" rms="2.8847157955169678e-01" purity="4.4574615359306335e-01" nType="0">
          <Node pos="l" depth="2" NCoef="0" IVar="3" Cut="1.9165184020996094e+02" cType="1" res="-1.9046146422624588e-02" rms="2.6886743307113647e-01" purity="3.0267795920372009e-01" nType="0">
            <Node pos="l" depth="3" NCoef="0" IVar="-1" Cut="0.0000000000000000e+00" cType="1" res="1.0383296757936478e-03" rms="2.2106157243251801e-01" purity="1.7715400457382202e-01" nType="-99"/>
            <Node pos="r" depth="3" NCoef="0" IVar="-1" Cut="0.0000000000000000e+00" cType="1" res="-3.7678528577089310e-02" rms="3.0232259631156921e-01" purity="4.0829786658287048e-01" nType="-99"/>
          </Node>
          <Node pos="r" depth="2" NCoef="0" IVar="1" Cut="1.0438149422407150e-01" cType="1" res="-3.4772565122693777e-03" rms="2.9360339045524597e-01" purity="4.8555034399032593e-01" nType="0">
            <Node pos="l" depth="3" NCoef="0" IVar="-1" Cut="0.0000000000000000e+00" cType="1" res="1.0395199060440063e-03" rms="2.9849055409431458e-01" purity="3.6040440201759338e-01" nType="-99"/>
            <Node pos="r" depth="3" NCoef="0" IVar="-1" Cut="0.0000000000000000e+00" cType="1" res="-1.8447574228048325e-02" rms="2.8034931421279907e-01" purity="8.0680483579635620e-01" nType="-99"/>
          </Node>
        </Node>
      </Node>
    </BinaryTree>
    <BinaryTree type="DecisionTree" boostWeight="1.0000000000000000e+00" itree="147">
      <Node pos="s" depth="0" NCoef="0" IVar="6" Cut="1.3514389991760254e+01" cType="1" res="2.0893323235213757e-03" rms="2.9461655020713806e-01" purity="4.9934971332550049e-01" nType="0">
        <Node pos="l" depth="1" NCoef="0" IVar="9" Cut="9.3318372964859009e-01" cType="1" res="6.9832932204008102e-03" rms="3.0503717064857483e-01" purity="2.3027656972408295e-01" nType="0">
          <Node pos="l" depth="2" NCoef="0" IVar="10" Cut="1.7327690124511719e+00" cType="1" res="3.0524497851729393e-03" rms="3.1017583608627319e-01" purity="2.5115025043487549e-01" nType="0">
            <Node pos="l" depth="3" NCoef="0" IVar="-1" Cut="0.0000000000000000e+00" cType="1" res="4.8451614566147327e-03" rms="3.1534519791603088e-01" purity="2.6317134499549866e-01" nType="-99"/>
            <Node pos="r" depth="3" NCoef="0" IVar="-1" Cut="0.0000000000000000e+00" cType="1" res="-2.2398643195629120e-02" rms="2.4761167168617249e-01" purity="1.2295495718717575e-01" nType="-99"/>
          </Node>
          <Node pos="r" depth="2" NCoef="0" IVar="9" Cut="1.5553915500640869e+00" cType="1" res="2.0357273519039154e-02" rms="2.8646168112754822e-01" purity="1.5925765037536621e-01" nType="0">
            <Node pos="l" depth="3" NCoef="0" IVar="-1" Cut="0.0000000000000000e+00" cType="1" res="4.1298191994428635e-02" rms="3.2816928625106812e-01" purity="2.3035724461078644e-01" nType="-99"/>
            <Node pos="r" depth="3" NCoef="0" IVar="-1" Cut="0.0000000000000000e+00" cType="1" res="-1.0055288439616561e-03" rms="2.2366245090961456e-01" purity="7.2602018713951111e-02" nType="-99"/>
          </Node>
        </Node>
        <Node pos="r" depth="1" NCoef="0" IVar="10" Cut="-1.4667006731033325e+00" cType="1" res="-2.2662871051579714e-03" rms="2.8495123982429504e-01" purity="7.3882454633712769e-01" nType="0">
          <Node pos="l" depth="2" NCoef="0" IVar="-1" Cut="0.0000000000000000e+00" cType="1" res="-1.9832953810691833e-02" rms="3.0424976348876953e-01" purity="5.5231308937072754e-01" nType="-99"/>
          <Node pos="r" depth="2" NCoef="0" IVar="10" Cut="3.6163562536239624e-01" cType="1" res="-5.0673953955993056e-04" rms="2.8288799524307251e-01" purity="7.5748372077941895e-01" nType="0">
            <Node pos="l" depth="3" NCoef="0" IVar="-1" Cut="0.0000000000000000e+00" cType="1" res="6.7881406284868717e-03" rms="2.7473241090774536e-01" purity="7.9064321517944336e-01" nType="-99"/>
            <Node pos="r" depth="3" NCoef="0" IVar="-1" Cut="0.0000000000000000e+00" cType="1" res="-9.7194267436861992e-03" rms="2.9370969533920288e-01" purity="7.1117132902145386e-01" nType="-99"/>
          </Node>
        </Node>
      </Node>
    </BinaryTree>
    <BinaryTree type="DecisionTree" boostWeight="1.0000000000000000e+00" itree="148">
      <Node pos="s" depth="0" NCoef="0" IVar="11" Cut="8.6656141281127930e-01" cType="1" res="-4.9729144666343927e-04" rms="2.9147267341613770e-01" purity="5.0044262409210205e-01" nType="0">
        <Node pos="l" depth="1" NCoef="0" IVar="1" Cut="2.0899435505270958e-02" cType="1" res="-1.9536602776497602e-03" rms="2.8943976759910583e-01" purity="4.7045767307281494e-01" nType="0">
          <Node pos="l" depth="2" NCoef="0" IVar="6" Cut="5.4256366729736328e+01" cType="1" res="4.3028881773352623e-03" rms="2.2733175754547119e-01" purity="1.2492214143276215e-01" nType="0">
            <Node pos="l" depth="3" NCoef="0" IVar="-1" Cut="0.0000000000000000e+00" cType="1" res="-1.0882290080189705e-03" rms="2.0706155896186829e-01" purity="8.0298215150833130e-02" nType="-99"/>
            <Node pos="r" depth="3" NCoef="0" IVar="-1" Cut="0.0000000000000000e+00" cType="1" res="2.8882928192615509e-02" rms="3.1036591529846191e-01" purity="3.5494405031204224e-01" nType="-99"/>
          </Node>
          <Node pos="r" depth="2" NCoef="0" IVar="9" Cut="-1.2000929117202759e+00" cType="1" res="-4.0631359443068504e-03" rms="3.0753731727600098e-01" purity="5.8695942163467407e-01" nType="0">
            <Node pos="l" depth="3" NCoef="0" IVar="-1" Cut="0.0000000000000000e+00" cType="1" res="-1.5078593976795673e-02" rms="3.0332183837890625e-01" purity="3.5754877328872681e-01" nType="-99"/>
            <Node pos="r" depth="3" NCoef="0" IVar="-1" Cut="0.0000000000000000e+00" cType="1" res="-2.5525637902319431e-03" rms="3.0807659029960632e-01" purity="6.1845505237579346e-01" nType="-99"/>
          </Node>
        </Node>
        <Node pos="r" depth="1" NCoef="0" IVar="5" Cut="9.1635482788085938e+01" cType="1" res="9.3604540452361107e-03" rms="3.0469366908073425e-01" purity="7.0340234041213989e-01" nType="0">
          <Node pos="l" depth="2" NCoef="0" IVar="10" Cut="1.3429291546344757e-01" cType="1" res="2.4068314582109451e-02" rms="3.5267853736877441e-01" purity="4.9926242232322693e-01" nType="0">
            <Node pos="l" depth="3" NCoef="0" IVar="-1" Cut="0.0000000000000000e+00" cType="1" res="3.0688613653182983e-02" rms="3.5864341259002686e-01" purity="5.0180691480636597e-01" nType="-99"/>
            <Node pos="r" depth="3" NCoef="0" IVar="-1" Cut="0.0000000000000000e+00" cType="1" res="9.7693866118788719e-03" rms="3.4657773375511169e-01" purity="4.9688529968261719e-01" nType="-99"/>
          </Node>
          <Node pos="r" depth="2" NCoef="0" IVar="-1" Cut="0.0000000000000000e+00" cType="1" res="-1.6469238325953484e-03" rms="2.6449856162071228e-01" purity="8.4974145889282227e-01" nType="-99"/>
        </Node>
      </Node>
    </BinaryTree>
    <BinaryTree type="DecisionTree" boostWeight="1.0000000000000000e+00" itree="149">
      <Node pos="s" depth="0" NCoef="0" IVar="7" Cut="6.7080944776535034e-01" cType="1" res="7.5291225221008062e-04" rms="2.8963127732276917e-01" purity="5.0326675176620483e-01" nType="0">
        <Node pos="l" depth="1" NCoef="0" IVar="7" Cut="-1.4707372188568115e+00" cType="1" res="3.4192339517176151e-03" rms="2.9603880643844604e-01" purity="5.5751794576644897e-01" nType="0">
          <Node pos="l" depth="2" NCoef="0" IVar="9" Cut="-1.3265496492385864e-01" cType="1" res="-1.3400331139564514e-02" rms="1.8359203636646271e-01" purity="9.4651862978935242e-02" nType="0">
            <Node pos="l" depth="3" NCoef="0" IVar="-1" Cut="0.0000000000000000e+00" cType="1" res="-1.4963126741349697e-02" rms="2.0985515415668488e-01" purity="1.0393348336219788e-01" nType="-99"/>
            <Node pos="r" depth="3" NCoef="0" IVar="-1" Cut="0.0000000000000000e+00" cType="1" res="-4.6359635889530182e-02" rms="1.5130768716335297e-01" purity="8.5003465414047241e-02" nType="-99"/>
          </Node>
          <Node pos="r" depth="2" NCoef="0" IVar="11" Cut="-2.3847843706607819e-01" cType="1" res="4.8056701198220253e-03" rms="3.0341294407844543e-01" purity="5.9567195177078247e-01" nType="0">
            <Node pos="l" depth="3" NCoef="0" IVar="-1" Cut="0.0000000000000000e+00" cType="1" res="7.6765930280089378e-03" rms="3.1441843509674072e-01" purity="4.9296152591705322e-01" nType="-99"/>
            <Node pos="r" depth="3" NCoef="0" IVar="-1" Cut="0.0000000000000000e+00" cType="1" res="-2.0858542993664742e-03" rms="2.7841943502426147e-01" purity="8.1441438198089600e-01" nType="-99"/>
          </Node>
        </Node>
        <Node pos="r" depth="1" NCoef="0" IVar="2" Cut="5.1428338623046875e+02" cType="1" res="-8.4622437134385109e-03" rms="2.6609578728675842e-01" purity="3.1576761603355408e-01" nType="0">
          <Node pos="l" depth="2" NCoef="0" IVar="11" Cut="5.8940476179122925e-01" cType="1" res="-2.9922092799097300e-03" rms="2.6376849412918091e-01" purity="3.1536942720413208e-01" nType="0">
            <Node pos="l" depth="3" NCoef="0" IVar="-1" Cut="0.0000000000000000e+00" cType="1" res="-1.0317338630557060e-02" rms="2.5022897124290466e-01" purity="2.6256009936332703e-01" nType="-99"/>
            <Node pos="r" depth="3" NCoef="0" IVar="-1" Cut="0.0000000000000000e+00" cType="1" res="1.6340665519237518e-02" rms="3.2032582163810730e-01" purity="5.6990164518356323e-01" nType="-99"/>
          </Node>
          <Node pos="r" depth="2" NCoef="0" IVar="-1" Cut="0.0000000000000000e+00" cType="1" res="-4.9829132854938507e-02" rms="2.7921518683433533e-01" purity="3.1865626573562622e-01" nType="-99"/>
        </Node>
      </Node>
    </BinaryTree>
    <BinaryTree type="DecisionTree" boostWeight="1.0000000000000000e+00" itree="150">
      <Node pos="s" depth="0" NCoef="0" IVar="10" Cut="1.4665396213531494e+00" cType="1" res="4.3894117698073387e-04" rms="2.8984051942825317e-01" purity="5.0166338682174683e-01" nType="0">
        <Node pos="l" depth="1" NCoef="0" IVar="10" Cut="-1.9873113632202148e+00" cType="1" res="-1.2593038845807314e-03" rms="2.8875172138214111e-01" purity="5.2130168676376343e-01" nType="0">
          <Node pos="l" depth="2" NCoef="0" IVar="-1" Cut="0.0000000000000000e+00" cType="1" res="-2.5427499786019325e-02" rms="2.7457416057586670e-01" purity="2.3641125857830048e-01" nType="-99"/>
          <Node pos="r" depth="2" NCoef="0" IVar="6" Cut="7.8267204284667969e+01" cType="1" res="-1.0708316403906792e-04" rms="2.8950825333595276e-01" purity="5.3777325153350830e-01" nType="0">
            <Node pos="l" depth="3" NCoef="0" IVar="-1" Cut="0.0000000000000000e+00" cType="1" res="-2.9304905328899622e-03" rms="3.1420156359672546e-01" purity="3.9120984077453613e-01" nType="-99"/>
            <Node pos="r" depth="3" NCoef="0" IVar="-1" Cut="0.0000000000000000e+00" cType="1" res="1.4618115499615669e-02" rms="2.1089647710323334e-01" purity="9.2376649379730225e-01" nType="-99"/>
          </Node>
        </Node>
        <Node pos="r" depth="1" NCoef="0" IVar="5" Cut="6.3000488281250000e+01" cType="1" res="1.3760874979197979e-02" rms="2.9790809750556946e-01" purity="3.4760978817939758e-01" nType="0">
          <Node pos="l" depth="2" NCoef="0" IVar="-1" Cut="0.0000000000000000e+00" cType="1" res="5.2597817033529282e-02" rms="2.7711969614028931e-01" purity="1.4811910688877106e-01" nType="-99"/>
          <Node pos="r" depth="2" NCoef="0" IVar="8" Cut="-1.2924784421920776e-01" cType="1" res="1.2862770818173885e-03" rms="3.0931475758552551e-01" purity="4.7002857923507690e-01" nType="0">
            <Node pos="l" depth="3" NCoef="0" IVar="-1" Cut="0.0000000000000000e+00" cType="1" res="-1.6532650217413902e-02" rms="2.9799622297286987e-01" purity="4.4578248262405396e-01" nType="-99"/>
            <Node pos="r" depth="3" NCoef="0" IVar="-1" Cut="0.0000000000000000e+00" cType="1" res="1.2043836526572704e-02" rms="3.1575798988342285e-01" purity="4.8527413606643677e-01" nType="-99"/>
          </Node>
        </Node>
      </Node>
    </BinaryTree>
    <BinaryTree type="DecisionTree" boostWeight="1.0000000000000000e+00" itree="151">
      <Node pos="s" depth="0" NCoef="0" IVar="3" Cut="3.3656466674804688e+02" cType="1" res="1.7783632501959801e-03" rms="2.9201740026473999e-01" purity="4.9658206105232239e-01" nType="0">
        <Node pos="l" depth="1" NCoef="0" IVar="4" Cut="1.1871708679199219e+02" cType="1" res="3.8087088614702225e-03" rms="2.9361325502395630e-01" purity="4.5791766047477722e-01" nType="0">
          <Node pos="l" depth="2" NCoef="0" IVar="8" Cut="9.3378847837448120e-01" cType="1" res="-4.7016567550599575e-03" rms="2.5136321783065796e-01" purity="1.2528459727764130e-01" nType="0">
            <Node pos="l" depth="3" NCoef="0" IVar="-1" Cut="0.0000000000000000e+00" cType="1" res="-1.3281975872814655e-02" rms="2.6060587167739868e-01" purity="1.3718913495540619e-01" nType="-99"/>
            <Node pos="r" depth="3" NCoef="0" IVar="-1" Cut="0.0000000000000000e+00" cType="1" res="2.3399528115987778e-02" rms="2.1931767463684082e-01" purity="8.8120497763156891e-02" nType="-99"/>
          </Node>
          <Node pos="r" depth="2" NCoef="0" IVar="4" Cut="2.0103338623046875e+02" cType="1" res="7.9401805996894836e-03" rms="3.1198468804359436e-01" purity="6.1939883232116699e-01" nType="0">
            <Node pos="l" depth="3" NCoef="0" IVar="-1" Cut="0.0000000000000000e+00" cType="1" res="1.1813174001872540e-02" rms="3.2577174901962280e-01" purity="5.5011528730392456e-01" nType="-99"/>
            <Node pos="r" depth="3" NCoef="0" IVar="-1" Cut="0.0000000000000000e+00" cType="1" res="-5.0023812800645828e-03" rms="2.7372258901596069e-01" purity="7.9445487260818481e-01" nType="-99"/>
          </Node>
        </Node>
        <Node pos="r" depth="1" NCoef="0" IVar="0" Cut="2.3117770996093750e+03" cType="1" res="-1.0408938862383366e-02" rms="2.8194150328636169e-01" purity="7.2866815328598022e-01" nType="0">
          <Node pos="l" depth="2" NCoef="0" IVar="0" Cut="1.8285933837890625e+03" cType="1" res="-1.9768567755818367e-02" rms="3.1341278553009033e-01" purity="6.1799740791320801e-01" nType="0">
            <Node pos="l" depth="3" NCoef="0" IVar="-1" Cut="0.0000000000000000e+00" cType="1" res="-2.6372436434030533e-02" rms="3.4003457427024841e-01" purity="3.3300638198852539e-01" nType="-99"/>
            <Node pos="r" depth="3" NCoef="0" IVar="-1" Cut="0.0000000000000000e+00" cType="1" res="-1.3588418252766132e-02" rms="2.9832524061203003e-01" purity="7.6672333478927612e-01" nType="-99"/>
          </Node>
          <Node pos="r" depth="2" NCoef="0" IVar="7" Cut="1.5180679038167000e-02" cType="1" res="4.4318079017102718e-03" rms="2.2231270372867584e-01" purity="9.0414905548095703e-01" nType="0">
            <Node pos="l" depth="3" NCoef="0" IVar="-1" Cut="0.0000000000000000e+00" cType="1" res="-1.6311470419168472e-02" rms="2.2074811160564423e-01" purity="8.9544302225112915e-01" nType="-99"/>
            <Node pos="r" depth="3" NCoef="0" IVar="-1" Cut="0.0000000000000000e+00" cType="1" res="2.7478007599711418e-02" rms="2.2299019992351532e-01" purity="9.1189253330230713e-01" nType="-99"/>
          </Node>
        </Node>
      </Node>
    </BinaryTree>
    <BinaryTree type="DecisionTree" boostWeight="1.0000000000000000e+00" itree="152">
      <Node pos="s" depth="0" NCoef="0" IVar="9" Cut="-1.7333986759185791e+00" cType="1" res="1.4507662854157388e-04" rms="2.9046186804771423e-01" purity="4.9893561005592346e-01" nType="0">
        <Node pos="l" depth="1" NCoef="0" IVar="9" Cut="-2.1398150920867920e+00" cType="1" res="-1.7737917602062225e-02" rms="2.2928036749362946e-01" purity="1.3643555343151093e-01" nType="0">
          <Node pos="l" depth="2" NCoef="0" IVar="-1" Cut="0.0000000000000000e+00" cType="1" res="-6.6152803599834442e-02" rms="1.9591704010963440e-01" purity="7.6894670724868774e-02" nType="-99"/>
          <Node pos="r" depth="2" NCoef="0" IVar="-1" Cut="0.0000000000000000e+00" cType="1" res="-3.5530619788914919e-03" rms="2.5214430689811707e-01" purity="1.8478891253471375e-01" nType="-99"/>
        </Node>
        <Node pos="r" depth="1" NCoef="0" IVar="9" Cut="1.0728319883346558e+00" cType="1" res="1.2063408503308892e-03" rms="2.9365807771682739e-01" purity="5.2044814825057983e-01" nType="0">
          <Node pos="l" depth="2" NCoef="0" IVar="11" Cut="-2.7238357067108154e+00" cType="1" res="3.3712340518832207e-03" rms="2.9472935199737549e-01" purity="5.6390279531478882e-01" nType="0">
            <Node pos="l" depth="3" NCoef="0" IVar="-1" Cut="0.0000000000000000e+00" cType="1" res="8.0274669453501701e-03" rms="3.1903940439224243e-01" purity="2.7777227759361267e-01" nType="-99"/>
            <Node pos="r" depth="3" NCoef="0" IVar="-1" Cut="0.0000000000000000e+00" cType="1" res="-6.7287764977663755e-04" rms="2.7385646104812622e-01" purity="7.9083126783370972e-01" nType="-99"/>
          </Node>
          <Node pos="r" depth="2" NCoef="0" IVar="4" Cut="9.2961227416992188e+01" cType="1" res="-9.6646025776863098e-03" rms="2.8797268867492676e-01" purity="3.0224207043647766e-01" nType="0">
            <Node pos="l" depth="3" NCoef="0" IVar="-1" Cut="0.0000000000000000e+00" cType="1" res="2.2489741444587708e-02" rms="2.0273469388484955e-01" purity="4.8404734581708908e-02" nType="-99"/>
            <Node pos="r" depth="3" NCoef="0" IVar="-1" Cut="0.0000000000000000e+00" cType="1" res="-1.4273094013333321e-02" rms="3.0587080121040344e-01" purity="3.6730232834815979e-01" nType="-99"/>
          </Node>
        </Node>
      </Node>
    </BinaryTree>
    <BinaryTree type="DecisionTree" boostWeight="1.0000000000000000e+00" itree="153">
      <Node pos="s" depth="0" NCoef="0" IVar="2" Cut="6.3791687011718750e+02" cType="1" res="-5.3133378969505429e-04" rms="2.9004764556884766e-01" purity="4.9576073884963989e-01" nType="0">
        <Node pos="l" depth="1" NCoef="0" IVar="0" Cut="1.2740208740234375e+03" cType="1" res="2.3761916963849217e-04" rms="2.8757402300834656e-01" purity="4.8936522006988525e-01" nType="0">
          <Node pos="l" depth="2" NCoef="0" IVar="2" Cut="3.6262017822265625e+02" cType="1" res="-6.1902585439383984e-03" rms="2.6293751597404480e-01" purity="1.1877575516700745e-01" nType="0">
            <Node pos="l" depth="3" NCoef="0" IVar="-1" Cut="0.0000000000000000e+00" cType="1" res="-3.2969233579933643e-03" rms="2.7729639410972595e-01" purity="1.3498157262802124e-01" nType="-99"/>
            <Node pos="r" depth="3" NCoef="0" IVar="-1" Cut="0.0000000000000000e+00" cType="1" res="-5.1036901772022247e-02" rms="1.7018221318721771e-01" purity="3.5732649266719818e-02" nType="-99"/>
          </Node>
          <Node pos="r" depth="2" NCoef="0" IVar="2" Cut="4.0860711669921875e+02" cType="1" res="3.7496117874979973e-03" rms="3.0012354254722595e-01" purity="6.9184380769729614e-01" nType="0">
            <Node pos="l" depth="3" NCoef="0" IVar="-1" Cut="0.0000000000000000e+00" cType="1" res="1.0484079830348492e-02" rms="3.0444550514221191e-01" purity="7.4534755945205688e-01" nType="-99"/>
            <Node pos="r" depth="3" NCoef="0" IVar="-1" Cut="0.0000000000000000e+00" cType="1" res="-4.9591031856834888e-03" rms="2.9416349530220032e-01" purity="6.2173336744308472e-01" nType="-99"/>
          </Node>
        </Node>
        <Node pos="r" depth="1" NCoef="0" IVar="3" Cut="3.3536264038085938e+02" cType="1" res="-1.1201911605894566e-02" rms="3.2223123311996460e-01" purity="5.8450996875762939e-01" nType="0">
          <Node pos="l" depth="2" NCoef="0" IVar="-1" Cut="0.0000000000000000e+00" cType="1" res="-2.7787705883383751e-02" rms="3.3783051371574402e-01" purity="4.7910881042480469e-01" nType="-99"/>
          <Node pos="r" depth="2" NCoef="0" IVar="-1" Cut="0.0000000000000000e+00" cType="1" res="7.9047875478863716e-03" rms="3.0474925041198730e-01" purity="6.8888550996780396e-01" nType="-99"/>
        </Node>
      </Node>
    </BinaryTree>
    <BinaryTree type="DecisionTree" boostWeight="1.0000000000000000e+00" itree="154">
      <Node pos="s" depth="0" NCoef="0" IVar="9" Cut="-4.0000647306442261e-01" cType="1" res="-3.6070060450583696e-03" rms="2.9186135530471802e-01" purity="4.9712052941322327e-01" nType="0">
        <Node pos="l" depth="1" NCoef="0" IVar="8" Cut="-1.1989806890487671e+00" cType="1" res="4.3055242858827114e-03" rms="2.9640036821365356e-01" purity="4.5169350504875183e-01" nType="0">
          <Node pos="l" depth="2" NCoef="0" IVar="4" Cut="1.2490993499755859e+02" cType="1" res="2.2783303633332253e-02" rms="2.7153211832046509e-01" purity="2.1388345956802368e-01" nType="0">
            <Node pos="l" depth="3" NCoef="0" IVar="-1" Cut="0.0000000000000000e+00" cType="1" res="4.7289062291383743e-02" rms="2.1669857203960419e-01" purity="7.4137516319751740e-02" nType="-99"/>
            <Node pos="r" depth="3" NCoef="0" IVar="-1" Cut="0.0000000000000000e+00" cType="1" res="2.7645405381917953e-02" rms="3.1734257936477661e-01" purity="3.5503044724464417e-01" nType="-99"/>
          </Node>
          <Node pos="r" depth="2" NCoef="0" IVar="10" Cut="-4.0029439330101013e-01" cType="1" res="1.1583272134885192e-03" rms="3.0031764507293701e-01" purity="4.9219807982444763e-01" nType="0">
            <Node pos="l" depth="3" NCoef="0" IVar="-1" Cut="0.0000000000000000e+00" cType="1" res="-9.0997423976659775e-03" rms="3.0602291226387024e-01" purity="4.4652873277664185e-01" nType="-99"/>
            <Node pos="r" depth="3" NCoef="0" IVar="-1" Cut="0.0000000000000000e+00" cType="1" res="8.7136151269078255e-03" rms="2.9622980952262878e-01" purity="5.2297091484069824e-01" nType="-99"/>
          </Node>
        </Node>
        <Node pos="r" depth="1" NCoef="0" IVar="0" Cut="1.4299636230468750e+03" cType="1" res="-7.7693942002952099e-03" rms="2.8935822844505310e-01" purity="5.2101743221282959e-01" nType="0">
          <Node pos="l" depth="2" NCoef="0" IVar="1" Cut="6.2751308083534241e-02" cType="1" res="-1.4182240702211857e-02" rms="2.9905346035957336e-01" purity="2.0279884338378906e-01" nType="0">
            <Node pos="l" depth="3" NCoef="0" IVar="-1" Cut="0.0000000000000000e+00" cType="1" res="-2.0054569467902184e-03" rms="2.4610108137130737e-01" purity="9.7218930721282959e-02" nType="-99"/>
            <Node pos="r" depth="3" NCoef="0" IVar="-1" Cut="0.0000000000000000e+00" cType="1" res="-2.8066109865903854e-02" rms="3.8774216175079346e-01" purity="4.2969635128974915e-01" nType="-99"/>
          </Node>
          <Node pos="r" depth="2" NCoef="0" IVar="9" Cut="2.0954097807407379e-01" cType="1" res="-2.5991031434386969e-03" rms="2.8119185566902161e-01" purity="7.7757793664932251e-01" nType="0">
            <Node pos="l" depth="3" NCoef="0" IVar="-1" Cut="0.0000000000000000e+00" cType="1" res="7.7068754471838474e-03" rms="2.6235669851303101e-01" purity="8.3364331722259521e-01" nType="-99"/>
            <Node pos="r" depth="3" NCoef="0" IVar="-1" Cut="0.0000000000000000e+00" cType="1" res="-9.3066291883587837e-03" rms="2.9254245758056641e-01" purity="7.4151712656021118e-01" nType="-99"/>
          </Node>
        </Node>
      </Node>
    </BinaryTree>
    <BinaryTree type="DecisionTree" boostWeight="1.0000000000000000e+00" itree="155">
      <Node pos="s" depth="0" NCoef="0" IVar="5" Cut="7.0725753784179688e+01" cType="1" res="4.5499079860746861e-03" rms="2.9243937134742737e-01" purity="5.0228202342987061e-01" nType="0">
        <Node pos="l" depth="1" NCoef="0" IVar="5" Cut="5.4934406280517578e+01" cType="1" res="1.0543825104832649e-02" rms="2.9417872428894043e-01" purity="2.0065505802631378e-01" nType="0">
          <Node pos="l" depth="2" NCoef="0" IVar="9" Cut="3.9877063035964966e-01" cType="1" res="-5.0056497566401958e-03" rms="2.5028949975967407e-01" purity="1.1158324033021927e-01" nType="0">
            <Node pos="l" depth="3" NCoef="0" IVar="-1" Cut="0.0000000000000000e+00" cType="1" res="-2.5144044309854507e-02" rms="2.4754449725151062e-01" purity="1.0745878517627716e-01" nType="-99"/>
            <Node pos="r" depth="3" NCoef="0" IVar="-1" Cut="0.0000000000000000e+00" cType="1" res="2.2493649274110794e-02" rms="2.5354304909706116e-01" purity="1.1817523092031479e-01" nType="-99"/>
          </Node>
          <Node pos="r" depth="2" NCoef="0" IVar="1" Cut="4.0912501513957977e-02" cType="1" res="1.7584245651960373e-02" rms="3.1177192926406860e-01" purity="2.4098458886146545e-01" nType="0">
            <Node pos="l" depth="3" NCoef="0" IVar="-1" Cut="0.0000000000000000e+00" cType="1" res="1.2461583130061626e-02" rms="2.4980092048645020e-01" purity="1.1878366023302078e-01" nType="-99"/>
            <Node pos="r" depth="3" NCoef="0" IVar="-1" Cut="0.0000000000000000e+00" cType="1" res="2.2742886096239090e-02" rms="3.8153254985809326e-01" purity="4.1192984580993652e-01" nType="-99"/>
          </Node>
        </Node>
        <Node pos="r" depth="1" NCoef="0" IVar="9" Cut="-1.1999970674514771e+00" cType="1" res="4.7891840222291648e-04" rms="2.9118177294731140e-01" purity="7.0714300870895386e-01" nType="0">
          <Node pos="l" depth="2" NCoef="0" IVar="8" Cut="-1.3550341129302979e-01" cType="1" res="2.1009111776947975e-02" rms="3.3616638183593750e-01" purity="5.0684255361557007e-01" nType="0">
            <Node pos="l" depth="3" NCoef="0" IVar="-1" Cut="0.0000000000000000e+00" cType="1" res="3.4695498645305634e-02" rms="3.3279851078987122e-01" purity="5.5116105079650879e-01" nType="-99"/>
            <Node pos="r" depth="3" NCoef="0" IVar="-1" Cut="0.0000000000000000e+00" cType="1" res="2.8391468804329634e-03" rms="3.3864560723304749e-01" purity="4.6164524555206299e-01" nType="-99"/>
          </Node>
          <Node pos="r" depth="2" NCoef="0" IVar="10" Cut="-1.3344709575176239e-01" cType="1" res="-1.9051586277782917e-03" rms="2.8540325164794922e-01" purity="7.3040300607681274e-01" nType="0">
            <Node pos="l" depth="3" NCoef="0" IVar="-1" Cut="0.0000000000000000e+00" cType="1" res="4.6079135499894619e-03" rms="2.9089921712875366e-01" purity="7.2497761249542236e-01" nType="-99"/>
            <Node pos="r" depth="3" NCoef="0" IVar="-1" Cut="0.0000000000000000e+00" cType="1" res="-7.9492712393403053e-03" rms="2.8088381886482239e-01" purity="7.3469966650009155e-01" nType="-99"/>
          </Node>
        </Node>
      </Node>
    </BinaryTree>
    <BinaryTree type="DecisionTree" boostWeight="1.0000000000000000e+00" itree="156">
      <Node pos="s" depth="0" NCoef="0" IVar="5" Cut="9.1451477050781250e+01" cType="1" res="-1.4156886609271169e-03" rms="2.9040977358818054e-01" purity="4.9966418743133545e-01" nType="0">
        <Node pos="l" depth="1" NCoef="0" IVar="11" Cut="-7.9048091173171997e-01" cType="1" res="-4.4238967821002007e-03" rms="3.0469375848770142e-01" purity="2.9068210721015930e-01" nType="0">
          <Node pos="l" depth="2" NCoef="0" IVar="11" Cut="-1.4220076799392700e+00" cType="1" res="-1.5008338959887624e-04" rms="2.9352524876594543e-01" purity="2.1717482805252075e-01" nType="0">
            <Node pos="l" depth="3" NCoef="0" IVar="-1" Cut="0.0000000000000000e+00" cType="1" res="-2.7879597619175911e-03" rms="2.8939893841743469e-01" purity="1.9616858661174774e-01" nType="-99"/>
            <Node pos="r" depth="3" NCoef="0" IVar="-1" Cut="0.0000000000000000e+00" cType="1" res="2.9247777536511421e-02" rms="3.5119545459747314e-01" purity="5.5420678853988647e-01" nType="-99"/>
          </Node>
          <Node pos="r" depth="2" NCoef="0" IVar="11" Cut="6.4518280327320099e-02" cType="1" res="-1.7796512693166733e-02" rms="3.3690890669822693e-01" purity="5.2068394422531128e-01" nType="0">
            <Node pos="l" depth="3" NCoef="0" IVar="-1" Cut="0.0000000000000000e+00" cType="1" res="-3.7795621901750565e-02" rms="3.4020575881004333e-01" purity="5.2983331680297852e-01" nType="-99"/>
            <Node pos="r" depth="3" NCoef="0" IVar="-1" Cut="0.0000000000000000e+00" cType="1" res="-3.6048432812094688e-03" rms="3.3445498347282410e-01" purity="5.1622128486633301e-01" nType="-99"/>
          </Node>
        </Node>
        <Node pos="r" depth="1" NCoef="0" IVar="6" Cut="6.1998222351074219e+01" cType="1" res="3.3868856262415648e-03" rms="2.6595005393028259e-01" purity="8.3330202102661133e-01" nType="0">
          <Node pos="l" depth="2" NCoef="0" IVar="7" Cut="-3.2409715652465820e-01" cType="1" res="1.3560439459979534e-02" rms="3.3765697479248047e-01" purity="6.4309221506118774e-01" nType="0">
            <Node pos="l" depth="3" NCoef="0" IVar="-1" Cut="0.0000000000000000e+00" cType="1" res="-1.0930907446891069e-03" rms="3.4109950065612793e-01" purity="5.6246608495712280e-01" nType="-99"/>
            <Node pos="r" depth="3" NCoef="0" IVar="-1" Cut="0.0000000000000000e+00" cType="1" res="1.7627757042646408e-02" rms="3.3563852310180664e-01" purity="6.8410301208496094e-01" nType="-99"/>
          </Node>
          <Node pos="r" depth="2" NCoef="0" IVar="0" Cut="1.7775025634765625e+03" cType="1" res="5.7585039030527696e-05" rms="2.3773966729640961e-01" purity="8.9554828405380249e-01" nType="0">
            <Node pos="l" depth="3" NCoef="0" IVar="-1" Cut="0.0000000000000000e+00" cType="1" res="-1.0564816184341908e-02" rms="3.0779269337654114e-01" purity="8.0399006605148315e-01" nType="-99"/>
            <Node pos="r" depth="3" NCoef="0" IVar="-1" Cut="0.0000000000000000e+00" cType="1" res="1.6657279804348946e-02" rms="1.7704334855079651e-01" purity="9.5563268661499023e-01" nType="-99"/>
          </Node>
        </Node>
      </Node>
    </BinaryTree>
    <BinaryTree type="DecisionTree" boostWeight="1.0000000000000000e+00" itree="157">
      <Node pos="s" depth="0" NCoef="0" IVar="10" Cut="-4.0020424127578735e-01" cType="1" res="-1.2584432261064649e-03" rms="2.9218953847885132e-01" purity="4.9770033359527588e-01" nType="0">
        <Node pos="l" depth="1" NCoef="0" IVar="0" Cut="1.4004692382812500e+03" cType="1" res="-6.7994450218975544e-03" rms="2.9265591502189636e-01" purity="4.6718531847000122e-01" nType="0">
          <Node pos="l" depth="2" NCoef="0" IVar="4" Cut="1.3174279785156250e+02" cType="1" res="-1.7405375838279724e-02" rms="2.8602892160415649e-01" purity="1.6538481414318085e-01" nType="0">
            <Node pos="l" depth="3" NCoef="0" IVar="-1" Cut="0.0000000000000000e+00" cType="1" res="-1.1333186179399490e-02" rms="2.4920922517776489e-01" purity="1.0728985071182251e-01" nType="-99"/>
            <Node pos="r" depth="3" NCoef="0" IVar="-1" Cut="0.0000000000000000e+00" cType="1" res="-2.9120501130819321e-02" rms="3.4600263833999634e-01" purity="2.7884310483932495e-01" nType="-99"/>
          </Node>
          <Node pos="r" depth="2" NCoef="0" IVar="11" Cut="-1.0668500661849976e+00" cType="1" res="2.3682699538767338e-03" rms="2.9796156287193298e-01" purity="7.2806012630462646e-01" nType="0">
            <Node pos="l" depth="3" NCoef="0" IVar="-1" Cut="0.0000000000000000e+00" cType="1" res="-8.5648382082581520e-03" rms="3.4322997927665710e-01" purity="5.4844826459884644e-01" nType="-99"/>
            <Node pos="r" depth="3" NCoef="0" IVar="-1" Cut="0.0000000000000000e+00" cType="1" res="1.6259286552667618e-02" rms="2.5821965932846069e-01" purity="8.6356514692306519e-01" nType="-99"/>
          </Node>
        </Node>
        <Node pos="r" depth="1" NCoef="0" IVar="8" Cut="1.1999348402023315e+00" cType="1" res="2.0366134122014046e-03" rms="2.9186195135116577e-01" purity="5.1584672927856445e-01" nType="0">
          <Node pos="l" depth="2" NCoef="0" IVar="1" Cut="4.1835803538560867e-02" cType="1" res="4.1070110164582729e-03" rms="2.9746642708778381e-01" purity="5.5816185474395752e-01" nType="0">
            <Node pos="l" depth="3" NCoef="0" IVar="-1" Cut="0.0000000000000000e+00" cType="1" res="1.3705271296203136e-02" rms="2.9228457808494568e-01" purity="2.6984778046607971e-01" nType="-99"/>
            <Node pos="r" depth="3" NCoef="0" IVar="-1" Cut="0.0000000000000000e+00" cType="1" res="-7.6849182369187474e-04" rms="3.0042976140975952e-01" purity="7.3112970590591431e-01" nType="-99"/>
          </Node>
          <Node pos="r" depth="2" NCoef="0" IVar="9" Cut="-1.3236397504806519e-01" cType="1" res="-1.2721293605864048e-02" rms="2.4777415394783020e-01" purity="2.1422190964221954e-01" nType="0">
            <Node pos="l" depth="3" NCoef="0" IVar="-1" Cut="0.0000000000000000e+00" cType="1" res="-6.6690951585769653e-02" rms="2.1524266898632050e-01" purity="1.6482718288898468e-01" nType="-99"/>
            <Node pos="r" depth="3" NCoef="0" IVar="-1" Cut="0.0000000000000000e+00" cType="1" res="4.9631167203187943e-03" rms="2.6150780916213989e-01" purity="2.3973385989665985e-01" nType="-99"/>
          </Node>
        </Node>
      </Node>
    </BinaryTree>
    <BinaryTree type="DecisionTree" boostWeight="1.0000000000000000e+00" itree="158">
      <Node pos="s" depth="0" NCoef="0" IVar="2" Cut="4.3557702636718750e+02" cType="1" res="2.9949334566481411e-04" rms="2.9112234711647034e-01" purity="5.0055956840515137e-01" nType="0">
        <Node pos="l" depth="1" NCoef="0" IVar="5" Cut="6.3406547546386719e+01" cType="1" res="3.2458631321787834e-03" rms="2.9161918163299561e-01" purity="4.6669977903366089e-01" nType="0">
          <Node pos="l" depth="2" NCoef="0" IVar="0" Cut="1.2582978515625000e+03" cType="1" res="-7.1847965009510517e-03" rms="2.6420056819915771e-01" purity="1.2623822689056396e-01" nType="0">
            <Node pos="l" depth="3" NCoef="0" IVar="-1" Cut="0.0000000000000000e+00" cType="1" res="9.7785063553601503e-04" rms="2.2290502488613129e-01" purity="6.6508382558822632e-02" nType="-99"/>
            <Node pos="r" depth="3" NCoef="0" IVar="-1" Cut="0.0000000000000000e+00" cType="1" res="-2.4368012323975563e-02" rms="3.7384793162345886e-01" purity="3.3676648139953613e-01" nType="-99"/>
          </Node>
          <Node pos="r" depth="2" NCoef="0" IVar="3" Cut="2.0840721130371094e+02" cType="1" res="8.0219479277729988e-03" rms="3.0322805047035217e-01" purity="6.2259346246719360e-01" nType="0">
            <Node pos="l" depth="3" NCoef="0" IVar="-1" Cut="0.0000000000000000e+00" cType="1" res="1.6089487820863724e-02" rms="3.1343421339988708e-01" purity="4.7936955094337463e-01" nType="-99"/>
            <Node pos="r" depth="3" NCoef="0" IVar="-1" Cut="0.0000000000000000e+00" cType="1" res="1.4857409987598658e-03" rms="2.9442206025123596e-01" purity="7.4007862806320190e-01" nType="-99"/>
          </Node>
        </Node>
        <Node pos="r" depth="1" NCoef="0" IVar="0" Cut="1.6171821289062500e+03" cType="1" res="-6.7902226001024246e-03" rms="2.8980061411857605e-01" purity="5.8203488588333130e-01" nType="0">
          <Node pos="l" depth="2" NCoef="0" IVar="9" Cut="4.0013307332992554e-01" cType="1" res="-2.5623381137847900e-02" rms="2.7044710516929626e-01" purity="1.3689342141151428e-01" nType="0">
            <Node pos="l" depth="3" NCoef="0" IVar="-1" Cut="0.0000000000000000e+00" cType="1" res="-4.4335596263408661e-02" rms="2.6580074429512024e-01" purity="1.3843993842601776e-01" nType="-99"/>
            <Node pos="r" depth="3" NCoef="0" IVar="-1" Cut="0.0000000000000000e+00" cType="1" res="-2.2731625358574092e-04" rms="2.7648210525512695e-01" purity="1.3421136140823364e-01" nType="-99"/>
          </Node>
          <Node pos="r" depth="2" NCoef="0" IVar="2" Cut="7.5528997802734375e+02" cType="1" res="1.3814168050885201e-04" rms="2.9630178213119507e-01" purity="7.4579399824142456e-01" nType="0">
            <Node pos="l" depth="3" NCoef="0" IVar="-1" Cut="0.0000000000000000e+00" cType="1" res="3.7742468994110823e-03" rms="2.8906458616256714e-01" purity="7.6931190490722656e-01" nType="-99"/>
            <Node pos="r" depth="3" NCoef="0" IVar="-1" Cut="0.0000000000000000e+00" cType="1" res="-1.8419779837131500e-02" rms="3.4322977066040039e-01" purity="5.7584798336029053e-01" nType="-99"/>
          </Node>
        </Node>
      </Node>
    </BinaryTree>
    <BinaryTree type="DecisionTree" boostWeight="1.0000000000000000e+00" itree="159">
      <Node pos="s" depth="0" NCoef="0" IVar="1" Cut="1.2539376318454742e-01" cType="1" res="1.7124974401667714e-03" rms="2.9163798689842224e-01" purity="5.0027602910995483e-01" nType="0">
        <Node pos="l" depth="1" NCoef="0" IVar="8" Cut="6.6663879156112671e-01" cType="1" res="3.2732447143644094e-03" rms="2.9963740706443787e-01" purity="4.0679222345352173e-01" nType="0">
          <Node pos="l" depth="2" NCoef="0" IVar="10" Cut="-1.3332812488079071e-01" cType="1" res="8.9019548613578081e-04" rms="3.0178892612457275e-01" purity="4.4341397285461426e-01" nType="0">
            <Node pos="l" depth="3" NCoef="0" IVar="-1" Cut="0.0000000000000000e+00" cType="1" res="-4.4869026169180870e-03" rms="3.0417951941490173e-01" purity="4.1857346892356873e-01" nType="-99"/>
            <Node pos="r" depth="3" NCoef="0" IVar="-1" Cut="0.0000000000000000e+00" cType="1" res="5.9811151586472988e-03" rms="2.9948970675468445e-01" purity="4.6633428335189819e-01" nType="-99"/>
          </Node>
          <Node pos="r" depth="2" NCoef="0" IVar="8" Cut="9.7156894207000732e-01" cType="1" res="9.6968226134777069e-03" rms="2.9366320371627808e-01" purity="3.0807724595069885e-01" nType="0">
            <Node pos="l" depth="3" NCoef="0" IVar="-1" Cut="0.0000000000000000e+00" cType="1" res="3.0366826802492142e-02" rms="3.4397855401039124e-01" purity="4.4105955958366394e-01" nType="-99"/>
            <Node pos="r" depth="3" NCoef="0" IVar="-1" Cut="0.0000000000000000e+00" cType="1" res="9.8333868663758039e-04" rms="2.6949125528335571e-01" purity="2.5278162956237793e-01" nType="-99"/>
          </Node>
        </Node>
        <Node pos="r" depth="1" NCoef="0" IVar="1" Cut="1.8510556221008301e-01" cType="1" res="-4.2187804356217384e-03" rms="2.5890815258026123e-01" purity="8.5554081201553345e-01" nType="0">
          <Node pos="l" depth="2" NCoef="0" IVar="-1" Cut="0.0000000000000000e+00" cType="1" res="-1.8965870141983032e-02" rms="2.8014791011810303e-01" purity="8.1974828243255615e-01" nType="-99"/>
          <Node pos="r" depth="2" NCoef="0" IVar="-1" Cut="0.0000000000000000e+00" cType="1" res="1.6901569440960884e-02" rms="2.2590886056423187e-01" purity="9.0452820062637329e-01" nType="-99"/>
        </Node>
      </Node>
    </BinaryTree>
    <BinaryTree type="DecisionTree" boostWeight="1.0000000000000000e+00" itree="160">
      <Node pos="s" depth="0" NCoef="0" IVar="9" Cut="-4.0009608864784241e-01" cType="1" res="6.7347002914175391e-04" rms="2.8931051492691040e-01" purity="5.0020194053649902e-01" nType="0">
        <Node pos="l" depth="1" NCoef="0" IVar="4" Cut="2.6167645263671875e+02" cType="1" res="-6.6193072125315666e-03" rms="2.8848144412040710e-01" purity="4.4600781798362732e-01" nType="0">
          <Node pos="l" depth="2" NCoef="0" IVar="11" Cut="3.6564610898494720e-02" cType="1" res="-4.2924378067255020e-03" rms="2.8993076086044312e-01" purity="4.1523689031600952e-01" nType="0">
            <Node pos="l" depth="3" NCoef="0" IVar="-1" Cut="0.0000000000000000e+00" cType="1" res="-9.7350981086492538e-03" rms="2.8568741679191589e-01" purity="3.3574768900871277e-01" nType="-99"/>
            <Node pos="r" depth="3" NCoef="0" IVar="-1" Cut="0.0000000000000000e+00" cType="1" res="1.0892026126384735e-02" rms="3.0452457070350647e-01" purity="7.0645743608474731e-01" nType="-99"/>
          </Node>
          <Node pos="r" depth="2" NCoef="0" IVar="-1" Cut="0.0000000000000000e+00" cType="1" res="-4.5548003166913986e-02" rms="2.6978251338005066e-01" purity="8.0051642656326294e-01" nType="-99"/>
        </Node>
        <Node pos="r" depth="1" NCoef="0" IVar="8" Cut="-1.1999527215957642e+00" cType="1" res="4.6757878735661507e-03" rms="2.8968650102615356e-01" purity="5.2994394302368164e-01" nType="0">
          <Node pos="l" depth="2" NCoef="0" IVar="8" Cut="-1.5808986425399780e+00" cType="1" res="-1.2297186069190502e-02" rms="2.6556062698364258e-01" purity="2.1178609132766724e-01" nType="0">
            <Node pos="l" depth="3" NCoef="0" IVar="-1" Cut="0.0000000000000000e+00" cType="1" res="1.4191833324730396e-02" rms="2.5265499949455261e-01" purity="1.6281677782535553e-01" nType="-99"/>
            <Node pos="r" depth="3" NCoef="0" IVar="-1" Cut="0.0000000000000000e+00" cType="1" res="-4.5785516500473022e-02" rms="2.7859541773796082e-01" purity="2.7248203754425049e-01" nType="-99"/>
          </Node>
          <Node pos="r" depth="2" NCoef="0" IVar="7" Cut="1.4949966669082642e+00" cType="1" res="6.6081583499908447e-03" rms="2.9224449396133423e-01" purity="5.6616622209548950e-01" nType="0">
            <Node pos="l" depth="3" NCoef="0" IVar="-1" Cut="0.0000000000000000e+00" cType="1" res="8.8755497708916664e-03" rms="2.9778161644935608e-01" purity="5.9381991624832153e-01" nType="-99"/>
            <Node pos="r" depth="3" NCoef="0" IVar="-1" Cut="0.0000000000000000e+00" cType="1" res="-2.9112162068486214e-02" rms="1.7940561473369598e-01" purity="1.2009297311306000e-01" nType="-99"/>
          </Node>
        </Node>
      </Node>
    </BinaryTree>
    <BinaryTree type="DecisionTree" boostWeight="1.0000000000000000e+00" itree="161">
      <Node pos="s" depth="0" NCoef="0" IVar="10" Cut="2.2665197849273682e+00" cType="1" res="2.4978746660053730e-03" rms="2.9312944412231445e-01" purity="5.0267970561981201e-01" nType="0">
        <Node pos="l" depth="1" NCoef="0" IVar="2" Cut="3.2477624511718750e+02" cType="1" res="3.3352770842611790e-03" rms="2.9368600249290466e-01" purity="5.1105839014053345e-01" nType="0">
          <Node pos="l" depth="2" NCoef="0" IVar="2" Cut="2.6536303710937500e+02" cType="1" res="9.0434802696108818e-03" rms="2.9398244619369507e-01" purity="4.3828418850898743e-01" nType="0">
            <Node pos="l" depth="3" NCoef="0" IVar="-1" Cut="0.0000000000000000e+00" cType="1" res="2.1282427012920380e-02" rms="3.0067861080169678e-01" purity="4.0250703692436218e-01" nType="-99"/>
            <Node pos="r" depth="3" NCoef="0" IVar="-1" Cut="0.0000000000000000e+00" cType="1" res="-8.3678087685257196e-04" rms="2.8613138198852539e-01" purity="4.7757044434547424e-01" nType="-99"/>
          </Node>
          <Node pos="r" depth="2" NCoef="0" IVar="9" Cut="-1.3338361680507660e-01" cType="1" res="-8.9087156811729074e-04" rms="2.9339477419853210e-01" purity="5.6493777036666870e-01" nType="0">
            <Node pos="l" depth="3" NCoef="0" IVar="-1" Cut="0.0000000000000000e+00" cType="1" res="-7.9937772825360298e-03" rms="2.9391565918922424e-01" purity="5.3687429428100586e-01" nType="-99"/>
            <Node pos="r" depth="3" NCoef="0" IVar="-1" Cut="0.0000000000000000e+00" cType="1" res="4.5490632764995098e-03" rms="2.9288199543952942e-01" purity="5.8754444122314453e-01" nType="-99"/>
          </Node>
        </Node>
        <Node pos="r" depth="1" NCoef="0" IVar="-1" Cut="0.0000000000000000e+00" cType="1" res="-3.6497086286544800e-02" rms="2.6995742321014404e-01" purity="1.9314868748188019e-01" nType="-99"/>
      </Node>
    </BinaryTree>
    <BinaryTree type="DecisionTree" boostWeight="1.0000000000000000e+00" itree="162">
      <Node pos="s" depth="0" NCoef="0" IVar="2" Cut="5.7430938720703125e+02" cType="1" res="-1.7672738758847117e-03" rms="2.9001379013061523e-01" purity="4.9952960014343262e-01" nType="0">
        <Node pos="l" depth="1" NCoef="0" IVar="2" Cut="5.0301184082031250e+02" cType="1" res="-1.9979084026999772e-04" rms="2.8774607181549072e-01" purity="4.8899605870246887e-01" nType="0">
          <Node pos="l" depth="2" NCoef="0" IVar="0" Cut="1.2591279296875000e+03" cType="1" res="1.4020747039467096e-03" rms="2.8804725408554077e-01" purity="4.8199185729026794e-01" nType="0">
            <Node pos="l" depth="3" NCoef="0" IVar="-1" Cut="0.0000000000000000e+00" cType="1" res="-8.3471871912479401e-03" rms="2.5826996564865112e-01" purity="1.1190722882747650e-01" nType="-99"/>
            <Node pos="r" depth="3" NCoef="0" IVar="-1" Cut="0.0000000000000000e+00" cType="1" res="6.2851719558238983e-03" rms="3.0493289232254028e-01" purity="7.1098017692565918e-01" nType="-99"/>
          </Node>
          <Node pos="r" depth="2" NCoef="0" IVar="0" Cut="1.7264024658203125e+03" cType="1" res="-1.8646517768502235e-02" rms="2.8360339999198914e-01" purity="5.6965494155883789e-01" nType="0">
            <Node pos="l" depth="3" NCoef="0" IVar="-1" Cut="0.0000000000000000e+00" cType="1" res="-4.1406407952308655e-02" rms="2.7629986405372620e-01" purity="1.3169699907302856e-01" nType="-99"/>
            <Node pos="r" depth="3" NCoef="0" IVar="-1" Cut="0.0000000000000000e+00" cType="1" res="-9.2899082228541374e-03" rms="2.8731033205986023e-01" purity="8.3073079586029053e-01" nType="-99"/>
          </Node>
        </Node>
        <Node pos="r" depth="1" NCoef="0" IVar="10" Cut="-1.3353699445724487e-01" cType="1" res="-1.4598006382584572e-02" rms="3.0764907598495483e-01" purity="5.8575266599655151e-01" nType="0">
          <Node pos="l" depth="2" NCoef="0" IVar="-1" Cut="0.0000000000000000e+00" cType="1" res="7.3117180727422237e-03" rms="3.0724677443504333e-01" purity="6.0211634635925293e-01" nType="-99"/>
          <Node pos="r" depth="2" NCoef="0" IVar="0" Cut="2.2602587890625000e+03" cType="1" res="-3.3739265054464340e-02" rms="3.0670830607414246e-01" purity="5.7164216041564941e-01" nType="0">
            <Node pos="l" depth="3" NCoef="0" IVar="-1" Cut="0.0000000000000000e+00" cType="1" res="-4.3653931468725204e-02" rms="3.3019766211509705e-01" purity="3.6620604991912842e-01" nType="-99"/>
            <Node pos="r" depth="3" NCoef="0" IVar="-1" Cut="0.0000000000000000e+00" cType="1" res="-2.0262653008103371e-02" rms="2.7204135060310364e-01" purity="8.3970212936401367e-01" nType="-99"/>
          </Node>
        </Node>
      </Node>
    </BinaryTree>
    <BinaryTree type="DecisionTree" boostWeight="1.0000000000000000e+00" itree="163">
      <Node pos="s" depth="0" NCoef="0" IVar="11" Cut="1.4190381765365601e+00" cType="1" res="-2.4175313301384449e-03" rms="2.9129183292388916e-01" purity="4.9402940273284912e-01" nType="0">
        <Node pos="l" depth="1" NCoef="0" IVar="9" Cut="-1.1999666690826416e+00" cType="1" res="-1.2918129796162248e-03" rms="2.8906705975532532e-01" purity="4.8622035980224609e-01" nType="0">
          <Node pos="l" depth="2" NCoef="0" IVar="9" Cut="-1.3523659706115723e+00" cType="1" res="8.2461005076766014e-03" rms="2.8595024347305298e-01" purity="2.7530044317245483e-01" nType="0">
            <Node pos="l" depth="3" NCoef="0" IVar="-1" Cut="0.0000000000000000e+00" cType="1" res="-2.3905502166599035e-03" rms="2.7087789773941040e-01" purity="2.2299660742282867e-01" nType="-99"/>
            <Node pos="r" depth="3" NCoef="0" IVar="-1" Cut="0.0000000000000000e+00" cType="1" res="4.3382212519645691e-02" rms="3.3277848362922668e-01" purity="4.6651688218116760e-01" nType="-99"/>
          </Node>
          <Node pos="r" depth="2" NCoef="0" IVar="8" Cut="-9.3330073356628418e-01" cType="1" res="-2.8294159565120935e-03" rms="2.8953698277473450e-01" purity="5.2022266387939453e-01" nType="0">
            <Node pos="l" depth="3" NCoef="0" IVar="-1" Cut="0.0000000000000000e+00" cType="1" res="-1.5271583572030067e-02" rms="2.6894602179527283e-01" purity="3.0167716741561890e-01" nType="-99"/>
            <Node pos="r" depth="3" NCoef="0" IVar="-1" Cut="0.0000000000000000e+00" cType="1" res="-1.1627558851614594e-03" rms="2.9344370961189270e-01" purity="5.6387901306152344e-01" nType="-99"/>
          </Node>
        </Node>
        <Node pos="r" depth="1" NCoef="0" IVar="8" Cut="1.3671983778476715e-01" cType="1" res="-2.0281035453081131e-02" rms="3.2403796911239624e-01" purity="6.1794638633728027e-01" nType="0">
          <Node pos="l" depth="2" NCoef="0" IVar="-1" Cut="0.0000000000000000e+00" cType="1" res="-2.4651272222399712e-02" rms="3.1261020898818970e-01" purity="6.1222583055496216e-01" nType="-99"/>
          <Node pos="r" depth="2" NCoef="0" IVar="-1" Cut="0.0000000000000000e+00" cType="1" res="-1.5591909177601337e-02" rms="3.3458942174911499e-01" purity="6.2343037128448486e-01" nType="-99"/>
        </Node>
      </Node>
    </BinaryTree>
    <BinaryTree type="DecisionTree" boostWeight="1.0000000000000000e+00" itree="164">
      <Node pos="s" depth="0" NCoef="0" IVar="7" Cut="4.1061356663703918e-01" cType="1" res="1.0541600640863180e-03" rms="2.8894722461700439e-01" purity="5.0188666582107544e-01" nType="0">
        <Node pos="l" depth="1" NCoef="0" IVar="5" Cut="8.8200126647949219e+01" cType="1" res="-1.7311779083684087e-03" rms="2.8847432136535645e-01" purity="5.4281014204025269e-01" nType="0">
          <Node pos="l" depth="2" NCoef="0" IVar="11" Cut="8.6665838956832886e-01" cType="1" res="-5.7656806893646717e-03" rms="3.0926099419593811e-01" purity="3.0390939116477966e-01" nType="0">
            <Node pos="l" depth="3" NCoef="0" IVar="-1" Cut="0.0000000000000000e+00" cType="1" res="-7.4732657521963120e-03" rms="3.0482405424118042e-01" purity="2.8209546208381653e-01" nType="-99"/>
            <Node pos="r" depth="3" NCoef="0" IVar="-1" Cut="0.0000000000000000e+00" cType="1" res="1.0116905905306339e-02" rms="3.5441550612449646e-01" purity="5.4661667346954346e-01" nType="-99"/>
          </Node>
          <Node pos="r" depth="2" NCoef="0" IVar="8" Cut="6.6553866863250732e-01" cType="1" res="3.3851223997771740e-03" rms="2.5964224338531494e-01" purity="8.4576892852783203e-01" nType="0">
            <Node pos="l" depth="3" NCoef="0" IVar="-1" Cut="0.0000000000000000e+00" cType="1" res="1.0096550919115543e-02" rms="2.5457233190536499e-01" purity="8.7203735113143921e-01" nType="-99"/>
            <Node pos="r" depth="3" NCoef="0" IVar="-1" Cut="0.0000000000000000e+00" cType="1" res="-1.3315713033080101e-02" rms="2.8003790974617004e-01" purity="7.3209941387176514e-01" nType="-99"/>
          </Node>
        </Node>
        <Node pos="r" depth="1" NCoef="0" IVar="7" Cut="1.3207136392593384e+00" cType="1" res="6.9919023662805557e-03" rms="2.8986346721649170e-01" purity="4.1464656591415405e-01" nType="0">
          <Node pos="l" depth="2" NCoef="0" IVar="1" Cut="3.8049273192882538e-02" cType="1" res="1.1303156614303589e-02" rms="3.1156888604164124e-01" purity="5.1133042573928833e-01" nType="0">
            <Node pos="l" depth="3" NCoef="0" IVar="-1" Cut="0.0000000000000000e+00" cType="1" res="2.7513770386576653e-02" rms="3.1612217426300049e-01" purity="2.5071579217910767e-01" nType="-99"/>
            <Node pos="r" depth="3" NCoef="0" IVar="-1" Cut="0.0000000000000000e+00" cType="1" res="3.4706245642155409e-03" rms="3.0866122245788574e-01" purity="6.6032278537750244e-01" nType="-99"/>
          </Node>
          <Node pos="r" depth="2" NCoef="0" IVar="10" Cut="6.6682291030883789e-01" cType="1" res="-5.4785748943686485e-03" rms="2.1459580957889557e-01" purity="1.3498453795909882e-01" nType="0">
            <Node pos="l" depth="3" NCoef="0" IVar="-1" Cut="0.0000000000000000e+00" cType="1" res="5.7058488018810749e-03" rms="2.2548335790634155e-01" purity="1.5510605275630951e-01" nType="-99"/>
            <Node pos="r" depth="3" NCoef="0" IVar="-1" Cut="0.0000000000000000e+00" cType="1" res="-3.9873532950878143e-02" rms="1.9428436458110809e-01" purity="1.0145959258079529e-01" nType="-99"/>
          </Node>
        </Node>
      </Node>
    </BinaryTree>
    <BinaryTree type="DecisionTree" boostWeight="1.0000000000000000e+00" itree="165">
      <Node pos="s" depth="0" NCoef="0" IVar="9" Cut="-3.9999350905418396e-01" cType="1" res="-1.4273127308115363e-03" rms="2.9133045673370361e-01" purity="4.9878740310668945e-01" nType="0">
        <Node pos="l" depth="1" NCoef="0" IVar="10" Cut="-9.3344289064407349e-01" cType="1" res="5.5175786837935448e-03" rms="2.9980745911598206e-01" purity="4.5508274435997009e-01" nType="0">
          <Node pos="l" depth="2" NCoef="0" IVar="4" Cut="1.5413192749023438e+02" cType="1" res="-1.3878648169338703e-02" rms="2.9344278573989868e-01" purity="3.5415041446685791e-01" nType="0">
            <Node pos="l" depth="3" NCoef="0" IVar="-1" Cut="0.0000000000000000e+00" cType="1" res="3.9796336204744875e-04" rms="2.7495485544204712e-01" purity="1.9378751516342163e-01" nType="-99"/>
            <Node pos="r" depth="3" NCoef="0" IVar="-1" Cut="0.0000000000000000e+00" cType="1" res="-3.3803306519985199e-02" rms="3.1734594702720642e-01" purity="5.8794289827346802e-01" nType="-99"/>
          </Node>
          <Node pos="r" depth="2" NCoef="0" IVar="6" Cut="1.3514389991760254e+01" cType="1" res="1.2400836683809757e-02" rms="3.0173429846763611e-01" purity="4.9090117216110229e-01" nType="0">
            <Node pos="l" depth="3" NCoef="0" IVar="-1" Cut="0.0000000000000000e+00" cType="1" res="2.8382727876305580e-02" rms="3.1374427676200867e-01" purity="2.3465204238891602e-01" nType="-99"/>
            <Node pos="r" depth="3" NCoef="0" IVar="-1" Cut="0.0000000000000000e+00" cType="1" res="4.9974716966971755e-04" rms="2.8940671682357788e-01" purity="7.3331505060195923e-01" nType="-99"/>
          </Node>
        </Node>
        <Node pos="r" depth="1" NCoef="0" IVar="4" Cut="2.1750732421875000e+02" cType="1" res="-5.1883189007639885e-03" rms="2.8656485676765442e-01" purity="5.2245563268661499e-01" nType="0">
          <Node pos="l" depth="2" NCoef="0" IVar="6" Cut="7.2377220153808594e+01" cType="1" res="-8.3792405202984810e-03" rms="2.9315212368965149e-01" purity="4.2824426293373108e-01" nType="0">
            <Node pos="l" depth="3" NCoef="0" IVar="-1" Cut="0.0000000000000000e+00" cType="1" res="-1.2001594528555870e-02" rms="3.0565178394317627e-01" purity="2.8673988580703735e-01" nType="-99"/>
            <Node pos="r" depth="3" NCoef="0" IVar="-1" Cut="0.0000000000000000e+00" cType="1" res="2.6225775945931673e-03" rms="2.5026518106460571e-01" purity="8.6625963449478149e-01" nType="-99"/>
          </Node>
          <Node pos="r" depth="2" NCoef="0" IVar="5" Cut="9.1457656860351562e+01" cType="1" res="5.7957135140895844e-03" rms="2.6233288645744324e-01" purity="8.4675729274749756e-01" nType="0">
            <Node pos="l" depth="3" NCoef="0" IVar="-1" Cut="0.0000000000000000e+00" cType="1" res="2.3538462817668915e-02" rms="3.4990063309669495e-01" purity="6.7847448587417603e-01" nType="-99"/>
            <Node pos="r" depth="3" NCoef="0" IVar="-1" Cut="0.0000000000000000e+00" cType="1" res="-7.9691605642437935e-03" rms="2.1705700457096100e-01" purity="9.1381108760833740e-01" nType="-99"/>
          </Node>
        </Node>
      </Node>
    </BinaryTree>
    <BinaryTree type="DecisionTree" boostWeight="1.0000000000000000e+00" itree="166">
      <Node pos="s" depth="0" NCoef="0" IVar="10" Cut="-6.6665834188461304e-01" cType="1" res="2.0553711801767349e-03" rms="2.8873866796493530e-01" purity="5.0252890586853027e-01" nType="0">
        <Node pos="l" depth="1" NCoef="0" IVar="8" Cut="-1.3320669531822205e-01" cType="1" res="9.2541407793760300e-03" rms="2.9236292839050293e-01" purity="4.6600395441055298e-01" nType="0">
          <Node pos="l" depth="2" NCoef="0" IVar="8" Cut="-3.8716042041778564e-01" cType="1" res="6.3296488951891661e-04" rms="2.8842779994010925e-01" purity="4.3144258856773376e-01" nType="0">
            <Node pos="l" depth="3" NCoef="0" IVar="-1" Cut="0.0000000000000000e+00" cType="1" res="7.9282606020569801e-03" rms="2.8604686260223389e-01" purity="4.0374451875686646e-01" nType="-99"/>
            <Node pos="r" depth="3" NCoef="0" IVar="-1" Cut="0.0000000000000000e+00" cType="1" res="-2.6054685935378075e-02" rms="2.9713472723960876e-01" purity="5.5087119340896606e-01" nType="-99"/>
          </Node>
          <Node pos="r" depth="2" NCoef="0" IVar="5" Cut="7.8888023376464844e+01" cType="1" res="1.8293967470526695e-02" rms="2.9616364836692810e-01" purity="5.0224369764328003e-01" nType="0">
            <Node pos="l" depth="3" NCoef="0" IVar="-1" Cut="0.0000000000000000e+00" cType="1" res="3.1761869788169861e-02" rms="3.1340131163597107e-01" purity="2.5387746095657349e-01" nType="-99"/>
            <Node pos="r" depth="3" NCoef="0" IVar="-1" Cut="0.0000000000000000e+00" cType="1" res="1.0471610352396965e-02" rms="2.7654877305030823e-01" purity="7.6346576213836670e-01" nType="-99"/>
          </Node>
        </Node>
        <Node pos="r" depth="1" NCoef="0" IVar="0" Cut="1.0976298828125000e+03" cType="1" res="-9.8962767515331507e-04" rms="2.8713756799697876e-01" purity="5.1797854900360107e-01" nType="0">
          <Node pos="l" depth="2" NCoef="0" IVar="7" Cut="4.1948261857032776e-01" cType="1" res="-1.0977824218571186e-02" rms="1.8477332592010498e-01" purity="3.9370290935039520e-02" nType="0">
            <Node pos="l" depth="3" NCoef="0" IVar="-1" Cut="0.0000000000000000e+00" cType="1" res="-4.2946740984916687e-02" rms="1.8447424471378326e-01" purity="3.8527499884366989e-02" nType="-99"/>
            <Node pos="r" depth="3" NCoef="0" IVar="-1" Cut="0.0000000000000000e+00" cType="1" res="9.6860490739345551e-03" rms="1.8429170548915863e-01" purity="4.0592309087514877e-02" nType="-99"/>
          </Node>
          <Node pos="r" depth="2" NCoef="0" IVar="3" Cut="1.4950196838378906e+02" cType="1" res="8.5141538875177503e-04" rms="3.0220890045166016e-01" purity="6.0619652271270752e-01" nType="0">
            <Node pos="l" depth="3" NCoef="0" IVar="-1" Cut="0.0000000000000000e+00" cType="1" res="1.7940631136298180e-02" rms="3.0527096986770630e-01" purity="2.6318845152854919e-01" nType="-99"/>
            <Node pos="r" depth="3" NCoef="0" IVar="-1" Cut="0.0000000000000000e+00" cType="1" res="-7.5924972770735621e-04" rms="3.0185973644256592e-01" purity="6.4005845785140991e-01" nType="-99"/>
          </Node>
        </Node>
      </Node>
    </BinaryTree>
    <BinaryTree type="DecisionTree" boostWeight="1.0000000000000000e+00" itree="167">
      <Node pos="s" depth="0" NCoef="0" IVar="10" Cut="6.6647225618362427e-01" cType="1" res="2.5161621160805225e-03" rms="2.8941479325294495e-01" purity="5.0332695245742798e-01" nType="0">
        <Node pos="l" depth="1" NCoef="0" IVar="9" Cut="-9.3333506584167480e-01" cType="1" res="-2.4157545994967222e-03" rms="2.8496104478836060e-01" purity="5.1784104108810425e-01" nType="0">
          <Node pos="l" depth="2" NCoef="0" IVar="4" Cut="9.2711013793945312e+01" cType="1" res="-1.4848154038190842e-02" rms="2.8717207908630371e-01" purity="3.3985391259193420e-01" nType="0">
            <Node pos="l" depth="3" NCoef="0" IVar="-1" Cut="0.0000000000000000e+00" cType="1" res="5.8368779718875885e-02" rms="2.3448410630226135e-01" purity="8.9890725910663605e-02" nType="-99"/>
            <Node pos="r" depth="3" NCoef="0" IVar="-1" Cut="0.0000000000000000e+00" cType="1" res="-2.5461148470640182e-02" rms="2.9803338646888733e-01" purity="4.0205016732215881e-01" nType="-99"/>
          </Node>
          <Node pos="r" depth="2" NCoef="0" IVar="9" Cut="-7.5546950101852417e-01" cType="1" res="8.1273011164739728e-04" rms="2.8429514169692993e-01" purity="5.6406128406524658e-01" nType="0">
            <Node pos="l" depth="3" NCoef="0" IVar="-1" Cut="0.0000000000000000e+00" cType="1" res="-2.1869610995054245e-02" rms="2.9583036899566650e-01" purity="5.4634213447570801e-01" nType="-99"/>
            <Node pos="r" depth="3" NCoef="0" IVar="-1" Cut="0.0000000000000000e+00" cType="1" res="2.6455924380570650e-03" rms="2.8343310952186584e-01" purity="5.6527394056320190e-01" nType="-99"/>
          </Node>
        </Node>
        <Node pos="r" depth="1" NCoef="0" IVar="5" Cut="6.5706596374511719e+01" cType="1" res="1.3996565714478493e-02" rms="2.9921102523803711e-01" purity="4.6954134106636047e-01" nType="0">
          <Node pos="l" depth="2" NCoef="0" IVar="4" Cut="1.3528567504882812e+02" cType="1" res="2.6087962090969086e-02" rms="2.9327329993247986e-01" purity="1.8147739768028259e-01" nType="0">
            <Node pos="l" depth="3" NCoef="0" IVar="-1" Cut="0.0000000000000000e+00" cType="1" res="2.3592282086610794e-02" rms="2.4636866152286530e-01" purity="8.9638888835906982e-02" nType="-99"/>
            <Node pos="r" depth="3" NCoef="0" IVar="-1" Cut="0.0000000000000000e+00" cType="1" res="4.2739376425743103e-02" rms="3.7135270237922668e-01" purity="3.7431347370147705e-01" nType="-99"/>
          </Node>
          <Node pos="r" depth="2" NCoef="0" IVar="2" Cut="3.0784420776367188e+02" cType="1" res="7.4490425176918507e-03" rms="3.0217581987380981e-01" purity="6.2552875280380249e-01" nType="0">
            <Node pos="l" depth="3" NCoef="0" IVar="-1" Cut="0.0000000000000000e+00" cType="1" res="2.1233547478914261e-02" rms="3.0945843458175659e-01" purity="5.6035631895065308e-01" nType="-99"/>
            <Node pos="r" depth="3" NCoef="0" IVar="-1" Cut="0.0000000000000000e+00" cType="1" res="5.0548033323138952e-04" rms="2.9811733961105347e-01" purity="6.5908074378967285e-01" nType="-99"/>
          </Node>
        </Node>
      </Node>
    </BinaryTree>
    <BinaryTree type="DecisionTree" boostWeight="1.0000000000000000e+00" itree="168">
      <Node pos="s" depth="0" NCoef="0" IVar="10" Cut="6.6652315855026245e-01" cType="1" res="-7.0297298952937126e-04" rms="2.8974390029907227e-01" purity="4.9957069754600525e-01" nType="0">
        <Node pos="l" depth="1" NCoef="0" IVar="9" Cut="1.4664388895034790e+00" cType="1" res="-3.3324800897389650e-03" rms="2.8711822628974915e-01" purity="5.1785451173782349e-01" nType="0">
          <Node pos="l" depth="2" NCoef="0" IVar="0" Cut="1.4007220458984375e+03" cType="1" res="-1.6588820144534111e-03" rms="2.8870654106140137e-01" purity="5.4368811845779419e-01" nType="0">
            <Node pos="l" depth="3" NCoef="0" IVar="-1" Cut="0.0000000000000000e+00" cType="1" res="-7.9799788072705269e-03" rms="2.9948419332504272e-01" purity="2.1049441397190094e-01" nType="-99"/>
            <Node pos="r" depth="3" NCoef="0" IVar="-1" Cut="0.0000000000000000e+00" cType="1" res="3.0013290233910084e-03" rms="2.8079000115394592e-01" purity="7.7850133180618286e-01" nType="-99"/>
          </Node>
          <Node pos="r" depth="2" NCoef="0" IVar="8" Cut="1.3198857009410858e-01" cType="1" res="-2.3836616426706314e-02" rms="2.6603940129280090e-01" purity="2.0135234296321869e-01" nType="0">
            <Node pos="l" depth="3" NCoef="0" IVar="-1" Cut="0.0000000000000000e+00" cType="1" res="-5.4371949285268784e-02" rms="2.5420382618904114e-01" purity="1.7757071554660797e-01" nType="-99"/>
            <Node pos="r" depth="3" NCoef="0" IVar="-1" Cut="0.0000000000000000e+00" cType="1" res="-9.7464583814144135e-03" rms="2.7738839387893677e-01" purity="2.2719345986843109e-01" nType="-99"/>
          </Node>
        </Node>
        <Node pos="r" depth="1" NCoef="0" IVar="9" Cut="-1.3339704275131226e-01" cType="1" res="5.4342006333172321e-03" rms="2.9569053649902344e-01" purity="4.5689705014228821e-01" nType="0">
          <Node pos="l" depth="2" NCoef="0" IVar="9" Cut="-5.1439619064331055e-01" cType="1" res="1.3306892476975918e-02" rms="2.9297286272048950e-01" purity="4.6851950883865356e-01" nType="0">
            <Node pos="l" depth="3" NCoef="0" IVar="-1" Cut="0.0000000000000000e+00" cType="1" res="6.4533585682511330e-03" rms="2.8682038187980652e-01" purity="4.0068417787551880e-01" nType="-99"/>
            <Node pos="r" depth="3" NCoef="0" IVar="-1" Cut="0.0000000000000000e+00" cType="1" res="3.1918674707412720e-02" rms="3.0499467253684998e-01" purity="6.1239176988601685e-01" nType="-99"/>
          </Node>
          <Node pos="r" depth="2" NCoef="0" IVar="8" Cut="-4.0019997954368591e-01" cType="1" res="1.1362965597072616e-04" rms="2.9739516973495483e-01" purity="4.4904235005378723e-01" nType="0">
            <Node pos="l" depth="3" NCoef="0" IVar="-1" Cut="0.0000000000000000e+00" cType="1" res="2.0378163084387779e-02" rms="3.0516383051872253e-01" purity="3.9289894700050354e-01" nType="-99"/>
            <Node pos="r" depth="3" NCoef="0" IVar="-1" Cut="0.0000000000000000e+00" cType="1" res="-7.0291897282004356e-03" rms="2.9413408041000366e-01" purity="4.7034385800361633e-01" nType="-99"/>
          </Node>
        </Node>
      </Node>
    </BinaryTree>
    <BinaryTree type="DecisionTree" boostWeight="1.0000000000000000e+00" itree="169">
      <Node pos="s" depth="0" NCoef="0" IVar="1" Cut="8.3502054214477539e-02" cType="1" res="-2.1428118925541639e-03" rms="2.9220589995384216e-01" purity="5.0025653839111328e-01" nType="0">
        <Node pos="l" depth="1" NCoef="0" IVar="1" Cut="7.5543299317359924e-02" cType="1" res="-5.8842976577579975e-03" rms="2.9429769515991211e-01" purity="3.2525604963302612e-01" nType="0">
          <Node pos="l" depth="2" NCoef="0" IVar="1" Cut="1.4388914220035076e-02" cType="1" res="-7.2228140197694302e-03" rms="2.9156279563903809e-01" purity="3.0451023578643799e-01" nType="0">
            <Node pos="l" depth="3" NCoef="0" IVar="-1" Cut="0.0000000000000000e+00" cType="1" res="6.1343461275100708e-03" rms="2.1334576606750488e-01" purity="9.4404250383377075e-02" nType="-99"/>
            <Node pos="r" depth="3" NCoef="0" IVar="-1" Cut="0.0000000000000000e+00" cType="1" res="-1.0835951194167137e-02" rms="3.1672602891921997e-01" purity="3.8624659180641174e-01" nType="-99"/>
          </Node>
          <Node pos="r" depth="2" NCoef="0" IVar="-1" Cut="0.0000000000000000e+00" cType="1" res="1.5268949791789055e-02" rms="3.3580332994461060e-01" purity="6.7069441080093384e-01" nType="-99"/>
        </Node>
        <Node pos="r" depth="1" NCoef="0" IVar="4" Cut="1.3633879089355469e+02" cType="1" res="4.3995981104671955e-03" rms="2.8839510679244995e-01" purity="8.0626463890075684e-01" nType="0">
          <Node pos="l" depth="2" NCoef="0" IVar="-1" Cut="0.0000000000000000e+00" cType="1" res="1.9822953268885612e-02" rms="3.7065973877906799e-01" purity="5.2514266967773438e-01" nType="-99"/>
          <Node pos="r" depth="2" NCoef="0" IVar="5" Cut="1.0328259277343750e+02" cType="1" res="-1.3974275207147002e-03" rms="2.6196584105491638e-01" purity="8.8085472583770752e-01" nType="0">
            <Node pos="l" depth="3" NCoef="0" IVar="-1" Cut="0.0000000000000000e+00" cType="1" res="-1.1887485161423683e-02" rms="3.4369409084320068e-01" purity="7.6818281412124634e-01" nType="-99"/>
            <Node pos="r" depth="3" NCoef="0" IVar="-1" Cut="0.0000000000000000e+00" cType="1" res="1.6409544274210930e-02" rms="1.8915036320686340e-01" purity="9.5525032281875610e-01" nType="-99"/>
          </Node>
        </Node>
      </Node>
    </BinaryTree>
    <BinaryTree type="DecisionTree" boostWeight="1.0000000000000000e+00" itree="170">
      <Node pos="s" depth="0" NCoef="0" IVar="5" Cut="6.9100181579589844e+01" cType="1" res="-1.6593794571235776e-03" rms="2.9137539863586426e-01" purity="5.0077998638153076e-01" nType="0">
        <Node pos="l" depth="1" NCoef="0" IVar="1" Cut="1.0458503663539886e-01" cType="1" res="-7.5002894736826420e-03" rms="2.8223177790641785e-01" purity="1.6555209457874298e-01" nType="0">
          <Node pos="l" depth="2" NCoef="0" IVar="1" Cut="7.4696257710456848e-02" cType="1" res="-4.5645786449313164e-03" rms="2.6373058557510376e-01" purity="1.2675333023071289e-01" nType="0">
            <Node pos="l" depth="3" NCoef="0" IVar="-1" Cut="0.0000000000000000e+00" cType="1" res="-1.3524077832698822e-02" rms="2.4518653750419617e-01" purity="1.0340643674135208e-01" nType="-99"/>
            <Node pos="r" depth="3" NCoef="0" IVar="-1" Cut="0.0000000000000000e+00" cType="1" res="2.5580840185284615e-02" rms="4.0063396096229553e-01" purity="3.5615664720535278e-01" nType="-99"/>
          </Node>
          <Node pos="r" depth="2" NCoef="0" IVar="-1" Cut="0.0000000000000000e+00" cType="1" res="-1.9850024953484535e-02" rms="3.9599835872650146e-01" purity="4.6414667367935181e-01" nType="-99"/>
        </Node>
        <Node pos="r" depth="1" NCoef="0" IVar="1" Cut="4.1763067245483398e-02" cType="1" res="1.7923298291862011e-03" rms="2.9659232497215271e-01" purity="6.9888424873352051e-01" nType="0">
          <Node pos="l" depth="2" NCoef="0" IVar="4" Cut="2.3420179748535156e+02" cType="1" res="1.1183327063918114e-02" rms="3.3177244663238525e-01" purity="3.8110983371734619e-01" nType="0">
            <Node pos="l" depth="3" NCoef="0" IVar="-1" Cut="0.0000000000000000e+00" cType="1" res="1.5418334864079952e-02" rms="3.3251500129699707e-01" purity="3.2740122079849243e-01" nType="-99"/>
            <Node pos="r" depth="3" NCoef="0" IVar="-1" Cut="0.0000000000000000e+00" cType="1" res="-1.6265215352177620e-02" rms="3.2619091868400574e-01" purity="6.7333406209945679e-01" nType="-99"/>
          </Node>
          <Node pos="r" depth="2" NCoef="0" IVar="5" Cut="8.7004020690917969e+01" cType="1" res="-1.8315017223358154e-03" rms="2.8176146745681763e-01" purity="8.2150822877883911e-01" nType="0">
            <Node pos="l" depth="3" NCoef="0" IVar="-1" Cut="0.0000000000000000e+00" cType="1" res="-1.1709849350154400e-02" rms="3.6358961462974548e-01" purity="5.9483826160430908e-01" nType="-99"/>
            <Node pos="r" depth="3" NCoef="0" IVar="-1" Cut="0.0000000000000000e+00" cType="1" res="4.0958239696919918e-03" rms="2.5008937716484070e-01" purity="8.9345580339431763e-01" nType="-99"/>
          </Node>
        </Node>
      </Node>
    </BinaryTree>
    <BinaryTree type="DecisionTree" boostWeight="1.0000000000000000e+00" itree="171">
      <Node pos="s" depth="0" NCoef="0" IVar="4" Cut="1.0650218200683594e+02" cType="1" res="-8.8055833475664258e-04" rms="2.8887555003166199e-01" purity="4.9358257651329041e-01" nType="0">
        <Node pos="l" depth="1" NCoef="0" IVar="1" Cut="4.0893431752920151e-02" cType="1" res="7.9079791903495789e-03" rms="2.3748487234115601e-01" purity="1.0607428103685379e-01" nType="0">
          <Node pos="l" depth="2" NCoef="0" IVar="9" Cut="-9.3333774805068970e-01" cType="1" res="-3.0661979690194130e-03" rms="1.8159967660903931e-01" purity="4.5823130756616592e-02" nType="0">
            <Node pos="l" depth="3" NCoef="0" IVar="-1" Cut="0.0000000000000000e+00" cType="1" res="3.6943484097719193e-02" rms="1.9102413952350616e-01" purity="5.1621820777654648e-02" nType="-99"/>
            <Node pos="r" depth="3" NCoef="0" IVar="-1" Cut="0.0000000000000000e+00" cType="1" res="-2.0743662491440773e-02" rms="1.7790015041828156e-01" purity="4.3779496103525162e-02" nType="-99"/>
          </Node>
          <Node pos="r" depth="2" NCoef="0" IVar="9" Cut="1.3163425028324127e-01" cType="1" res="3.0802419409155846e-02" rms="3.2323986291885376e-01" purity="2.3177082836627960e-01" nType="0">
            <Node pos="l" depth="3" NCoef="0" IVar="-1" Cut="0.0000000000000000e+00" cType="1" res="1.2118927203118801e-02" rms="3.2134950160980225e-01" purity="2.3311939835548401e-01" nType="-99"/>
            <Node pos="r" depth="3" NCoef="0" IVar="-1" Cut="0.0000000000000000e+00" cType="1" res="5.9907808899879456e-02" rms="3.2405576109886169e-01" purity="2.3015923798084259e-01" nType="-99"/>
          </Node>
        </Node>
        <Node pos="r" depth="1" NCoef="0" IVar="9" Cut="1.3326300680637360e-01" cType="1" res="-3.3816646318882704e-03" rms="3.0185914039611816e-01" purity="6.0386246442794800e-01" nType="0">
          <Node pos="l" depth="2" NCoef="0" IVar="0" Cut="1.1710056152343750e+03" cType="1" res="1.1592173250392079e-03" rms="3.0571413040161133e-01" purity="6.1659020185470581e-01" nType="0">
            <Node pos="l" depth="3" NCoef="0" IVar="-1" Cut="0.0000000000000000e+00" cType="1" res="2.2490208968520164e-02" rms="2.9645952582359314e-01" purity="1.4820984005928040e-01" nType="-99"/>
            <Node pos="r" depth="3" NCoef="0" IVar="-1" Cut="0.0000000000000000e+00" cType="1" res="-1.1562906438484788e-03" rms="3.0683800578117371e-01" purity="6.7814034223556519e-01" nType="-99"/>
          </Node>
          <Node pos="r" depth="2" NCoef="0" IVar="6" Cut="9.2986946105957031e+01" cType="1" res="-9.0991519391536713e-03" rms="2.9683533310890198e-01" purity="5.8783686161041260e-01" nType="0">
            <Node pos="l" depth="3" NCoef="0" IVar="-1" Cut="0.0000000000000000e+00" cType="1" res="-1.2194474227726460e-02" rms="3.1848818063735962e-01" purity="4.9581140279769897e-01" nType="-99"/>
            <Node pos="r" depth="3" NCoef="0" IVar="-1" Cut="0.0000000000000000e+00" cType="1" res="1.6906071454286575e-02" rms="1.9034336507320404e-01" purity="9.4396251440048218e-01" nType="-99"/>
          </Node>
        </Node>
      </Node>
    </BinaryTree>
    <BinaryTree type="DecisionTree" boostWeight="1.0000000000000000e+00" itree="172">
      <Node pos="s" depth="0" NCoef="0" IVar="1" Cut="6.2701150774955750e-02" cType="1" res="1.5144156059250236e-03" rms="2.8785854578018188e-01" purity="5.0033926963806152e-01" nType="0">
        <Node pos="l" depth="1" NCoef="0" IVar="1" Cut="3.5831581801176071e-02" cType="1" res="-2.1791299805045128e-03" rms="2.8688174486160278e-01" purity="2.6849299669265747e-01" nType="0">
          <Node pos="l" depth="2" NCoef="0" IVar="1" Cut="3.2419580966234207e-02" cType="1" res="-6.0092327184975147e-03" rms="2.5698465108871460e-01" purity="1.7287737131118774e-01" nType="0">
            <Node pos="l" depth="3" NCoef="0" IVar="-1" Cut="0.0000000000000000e+00" cType="1" res="-4.8468206077814102e-03" rms="2.5286433100700378e-01" purity="1.6304802894592285e-01" nType="-99"/>
            <Node pos="r" depth="3" NCoef="0" IVar="-1" Cut="0.0000000000000000e+00" cType="1" res="-3.8108207285404205e-02" rms="3.0200383067131042e-01" purity="2.9620757699012756e-01" nType="-99"/>
          </Node>
          <Node pos="r" depth="2" NCoef="0" IVar="1" Cut="3.9670754224061966e-02" cType="1" res="5.6118308566510677e-03" rms="3.3953756093978882e-01" purity="4.6298846602439880e-01" nType="0">
            <Node pos="l" depth="3" NCoef="0" IVar="-1" Cut="0.0000000000000000e+00" cType="1" res="4.2720962315797806e-02" rms="3.6118122935295105e-01" purity="4.5902884006500244e-01" nType="-99"/>
            <Node pos="r" depth="3" NCoef="0" IVar="-1" Cut="0.0000000000000000e+00" cType="1" res="-2.9105348512530327e-03" rms="3.3434447646141052e-01" purity="4.6378201246261597e-01" nType="-99"/>
          </Node>
        </Node>
        <Node pos="r" depth="1" NCoef="0" IVar="10" Cut="-6.6676700115203857e-01" cType="1" res="5.8533935807645321e-03" rms="2.8894150257110596e-01" purity="7.7269965410232544e-01" nType="0">
          <Node pos="l" depth="2" NCoef="0" IVar="5" Cut="9.1451576232910156e+01" cType="1" res="1.4217465184628963e-02" rms="3.0172657966613770e-01" purity="7.4612706899642944e-01" nType="0">
            <Node pos="l" depth="3" NCoef="0" IVar="-1" Cut="0.0000000000000000e+00" cType="1" res="1.9205695018172264e-02" rms="3.6480659246444702e-01" purity="5.6052726507186890e-01" nType="-99"/>
            <Node pos="r" depth="3" NCoef="0" IVar="-1" Cut="0.0000000000000000e+00" cType="1" res="4.7076242044568062e-03" rms="2.3024038970470428e-01" purity="9.1277283430099487e-01" nType="-99"/>
          </Node>
          <Node pos="r" depth="2" NCoef="0" IVar="1" Cut="8.0178529024124146e-02" cType="1" res="2.4291141889989376e-03" rms="2.8346979618072510e-01" purity="7.8357857465744019e-01" nType="0">
            <Node pos="l" depth="3" NCoef="0" IVar="-1" Cut="0.0000000000000000e+00" cType="1" res="1.5493818558752537e-02" rms="3.2477194070816040e-01" purity="6.6150289773941040e-01" nType="-99"/>
            <Node pos="r" depth="3" NCoef="0" IVar="-1" Cut="0.0000000000000000e+00" cType="1" res="-1.2343920534476638e-03" rms="2.7256727218627930e-01" purity="8.1274420022964478e-01" nType="-99"/>
          </Node>
        </Node>
      </Node>
    </BinaryTree>
    <BinaryTree type="DecisionTree" boostWeight="1.0000000000000000e+00" itree="173">
      <Node pos="s" depth="0" NCoef="0" IVar="1" Cut="8.3668172359466553e-02" cType="1" res="1.0693906806409359e-03" rms="2.9263767600059509e-01" purity="5.0161683559417725e-01" nType="0">
        <Node pos="l" depth="1" NCoef="0" IVar="7" Cut="-6.6001611948013306e-01" cType="1" res="4.3750796467065811e-03" rms="2.9714572429656982e-01" purity="3.3142036199569702e-01" nType="0">
          <Node pos="l" depth="2" NCoef="0" IVar="7" Cut="-9.6411997079849243e-01" cType="1" res="1.1526073329150677e-02" rms="2.7339157462120056e-01" purity="2.4187067151069641e-01" nType="0">
            <Node pos="l" depth="3" NCoef="0" IVar="-1" Cut="0.0000000000000000e+00" cType="1" res="1.8092925893142819e-03" rms="2.4929776787757874e-01" purity="1.7096558213233948e-01" nType="-99"/>
            <Node pos="r" depth="3" NCoef="0" IVar="-1" Cut="0.0000000000000000e+00" cType="1" res="3.3274978399276733e-02" rms="3.1791669130325317e-01" purity="3.9420986175537109e-01" nType="-99"/>
          </Node>
          <Node pos="r" depth="2" NCoef="0" IVar="7" Cut="-4.9529549479484558e-01" cType="1" res="1.5136355068534613e-03" rms="3.0608817934989929e-01" purity="3.6725330352783203e-01" nType="0">
            <Node pos="l" depth="3" NCoef="0" IVar="-1" Cut="0.0000000000000000e+00" cType="1" res="-2.3768993094563484e-02" rms="3.0090484023094177e-01" purity="4.0226233005523682e-01" nType="-99"/>
            <Node pos="r" depth="3" NCoef="0" IVar="-1" Cut="0.0000000000000000e+00" cType="1" res="3.8357698358595371e-03" rms="3.0641391873359680e-01" purity="3.6441108584403992e-01" nType="-99"/>
          </Node>
        </Node>
        <Node pos="r" depth="1" NCoef="0" IVar="0" Cut="1.6296927490234375e+03" cType="1" res="-4.7977515496313572e-03" rms="2.8436601161956787e-01" purity="8.0369210243225098e-01" nType="0">
          <Node pos="l" depth="2" NCoef="0" IVar="4" Cut="1.5242428588867188e+02" cType="1" res="-1.4709625393152237e-02" rms="3.6575743556022644e-01" purity="6.2966191768646240e-01" nType="0">
            <Node pos="l" depth="3" NCoef="0" IVar="-1" Cut="0.0000000000000000e+00" cType="1" res="-1.8192980438470840e-02" rms="3.7841320037841797e-01" purity="5.0571137666702271e-01" nType="-99"/>
            <Node pos="r" depth="3" NCoef="0" IVar="-1" Cut="0.0000000000000000e+00" cType="1" res="-1.8079373985528946e-03" rms="3.4996262192726135e-01" purity="7.7460420131683350e-01" nType="-99"/>
          </Node>
          <Node pos="r" depth="2" NCoef="0" IVar="4" Cut="2.2370993041992188e+02" cType="1" res="3.6401767283678055e-03" rms="1.8884751200675964e-01" purity="9.5184320211410522e-01" nType="0">
            <Node pos="l" depth="3" NCoef="0" IVar="-1" Cut="0.0000000000000000e+00" cType="1" res="1.9969819113612175e-02" rms="1.8697388470172882e-01" purity="9.5296901464462280e-01" nType="-99"/>
            <Node pos="r" depth="3" NCoef="0" IVar="-1" Cut="0.0000000000000000e+00" cType="1" res="-3.7121847271919250e-03" rms="1.9069176912307739e-01" purity="9.5064443349838257e-01" nType="-99"/>
          </Node>
        </Node>
      </Node>
    </BinaryTree>
    <BinaryTree type="DecisionTree" boostWeight="1.0000000000000000e+00" itree="174">
      <Node pos="s" depth="0" NCoef="0" IVar="8" Cut="6.6663879156112671e-01" cType="1" res="1.1349618434906006e-03" rms="2.8890246152877808e-01" purity="5.0042730569839478e-01" nType="0">
        <Node pos="l" depth="1" NCoef="0" IVar="11" Cut="1.1422823667526245e+00" cType="1" res="3.8336256984621286e-03" rms="2.9234695434570312e-01" purity="5.4478794336318970e-01" nType="0">
          <Node pos="l" depth="2" NCoef="0" IVar="10" Cut="9.3307399749755859e-01" cType="1" res="5.4691950790584087e-03" rms="2.9207894206047058e-01" purity="5.3104919195175171e-01" nType="0">
            <Node pos="l" depth="3" NCoef="0" IVar="-1" Cut="0.0000000000000000e+00" cType="1" res="2.7239089831709862e-03" rms="2.8829765319824219e-01" purity="5.4886955022811890e-01" nType="-99"/>
            <Node pos="r" depth="3" NCoef="0" IVar="-1" Cut="0.0000000000000000e+00" cType="1" res="1.9765548408031464e-02" rms="3.0614894628524780e-01" purity="4.6114391088485718e-01" nType="-99"/>
          </Node>
          <Node pos="r" depth="2" NCoef="0" IVar="-1" Cut="0.0000000000000000e+00" cType="1" res="-1.6565496101975441e-02" rms="2.9475474357604980e-01" purity="7.0233249664306641e-01" nType="-99"/>
        </Node>
        <Node pos="r" depth="1" NCoef="0" IVar="1" Cut="1.7885107547044754e-02" cType="1" res="-7.3324656113982201e-03" rms="2.7764770388603210e-01" purity="3.6123991012573242e-01" nType="0">
          <Node pos="l" depth="2" NCoef="0" IVar="8" Cut="1.3777990341186523e+00" cType="1" res="4.9462909810245037e-03" rms="1.9697090983390808e-01" purity="8.0756530165672302e-02" nType="0">
            <Node pos="l" depth="3" NCoef="0" IVar="-1" Cut="0.0000000000000000e+00" cType="1" res="3.7359006702899933e-02" rms="2.5828701257705688e-01" purity="1.5247301757335663e-01" nType="-99"/>
            <Node pos="r" depth="3" NCoef="0" IVar="-1" Cut="0.0000000000000000e+00" cType="1" res="-3.3081252127885818e-02" rms="1.3190521299839020e-01" purity="2.6933858171105385e-02" nType="-99"/>
          </Node>
          <Node pos="r" depth="2" NCoef="0" IVar="3" Cut="2.1226448059082031e+02" cType="1" res="-1.2356113642454147e-02" rms="3.0441308021545410e-01" purity="4.7599500417709351e-01" nType="0">
            <Node pos="l" depth="3" NCoef="0" IVar="-1" Cut="0.0000000000000000e+00" cType="1" res="-4.8604104667901993e-03" rms="2.9526236653327942e-01" purity="3.2396531105041504e-01" nType="-99"/>
            <Node pos="r" depth="3" NCoef="0" IVar="-1" Cut="0.0000000000000000e+00" cType="1" res="-1.9878190010786057e-02" rms="3.1368914246559143e-01" purity="6.3860112428665161e-01" nType="-99"/>
          </Node>
        </Node>
      </Node>
    </BinaryTree>
    <BinaryTree type="DecisionTree" boostWeight="1.0000000000000000e+00" itree="175">
      <Node pos="s" depth="0" NCoef="0" IVar="1" Cut="2.0900322124361992e-02" cType="1" res="1.6034641303122044e-03" rms="2.9414483904838562e-01" purity="5.0417983531951904e-01" nType="0">
        <Node pos="l" depth="1" NCoef="0" IVar="0" Cut="1.4008065185546875e+03" cType="1" res="8.2085635513067245e-03" rms="2.3878194391727448e-01" purity="1.3218550384044647e-01" nType="0">
          <Node pos="l" depth="2" NCoef="0" IVar="2" Cut="2.7281536865234375e+02" cType="1" res="6.0119474073871970e-04" rms="1.7182461917400360e-01" purity="3.6641571670770645e-02" nType="0">
            <Node pos="l" depth="3" NCoef="0" IVar="-1" Cut="0.0000000000000000e+00" cType="1" res="4.4449117034673691e-02" rms="1.9557622075080872e-01" purity="5.2041593939065933e-02" nType="-99"/>
            <Node pos="r" depth="3" NCoef="0" IVar="-1" Cut="0.0000000000000000e+00" cType="1" res="-2.1826555952429771e-02" rms="1.5717120468616486e-01" purity="2.8394749388098717e-02" nType="-99"/>
          </Node>
          <Node pos="r" depth="2" NCoef="0" IVar="9" Cut="-1.3299538195133209e-01" cType="1" res="2.1594097837805748e-02" rms="3.2420870661735535e-01" purity="3.0029967427253723e-01" nType="0">
            <Node pos="l" depth="3" NCoef="0" IVar="-1" Cut="0.0000000000000000e+00" cType="1" res="9.0248021297156811e-04" rms="3.0305540561676025e-01" purity="2.7147167921066284e-01" nType="-99"/>
            <Node pos="r" depth="3" NCoef="0" IVar="-1" Cut="0.0000000000000000e+00" cType="1" res="3.3983275294303894e-02" rms="3.3970168232917786e-01" purity="3.2404068112373352e-01" nType="-99"/>
          </Node>
        </Node>
        <Node pos="r" depth="1" NCoef="0" IVar="3" Cut="2.1070567321777344e+02" cType="1" res="-4.3049454689025879e-04" rms="3.0917489528656006e-01" purity="6.1873084306716919e-01" nType="0">
          <Node pos="l" depth="2" NCoef="0" IVar="9" Cut="-4.0002545714378357e-01" cType="1" res="5.6162616237998009e-03" rms="3.2242271304130554e-01" purity="4.2389950156211853e-01" nType="0">
            <Node pos="l" depth="3" NCoef="0" IVar="-1" Cut="0.0000000000000000e+00" cType="1" res="1.8812878057360649e-02" rms="3.2760196924209595e-01" purity="4.1347095370292664e-01" nType="-99"/>
            <Node pos="r" depth="3" NCoef="0" IVar="-1" Cut="0.0000000000000000e+00" cType="1" res="-1.9910556729882956e-03" rms="3.1919544935226440e-01" purity="4.2980912327766418e-01" nType="-99"/>
          </Node>
          <Node pos="r" depth="2" NCoef="0" IVar="0" Cut="1.6822432861328125e+03" cType="1" res="-4.8538781702518463e-03" rms="2.9903492331504822e-01" purity="7.6125586032867432e-01" nType="0">
            <Node pos="l" depth="3" NCoef="0" IVar="-1" Cut="0.0000000000000000e+00" cType="1" res="-1.1633807793259621e-02" rms="3.7329122424125671e-01" purity="5.2873879671096802e-01" nType="-99"/>
            <Node pos="r" depth="3" NCoef="0" IVar="-1" Cut="0.0000000000000000e+00" cType="1" res="2.7139768935739994e-03" rms="2.4404299259185791e-01" purity="8.9981186389923096e-01" nType="-99"/>
          </Node>
        </Node>
      </Node>
    </BinaryTree>
    <BinaryTree type="DecisionTree" boostWeight="1.0000000000000000e+00" itree="176">
      <Node pos="s" depth="0" NCoef="0" IVar="9" Cut="6.6665613651275635e-01" cType="1" res="4.4281920418143272e-04" rms="2.9549509286880493e-01" purity="5.0152516365051270e-01" nType="0">
        <Node pos="l" depth="1" NCoef="0" IVar="7" Cut="1.8536232411861420e-01" cType="1" res="-2.6141696143895388e-03" rms="2.9569816589355469e-01" purity="5.3156763315200806e-01" nType="0">
          <Node pos="l" depth="2" NCoef="0" IVar="10" Cut="1.7326267957687378e+00" cType="1" res="2.4823981802910566e-03" rms="2.9810282588005066e-01" purity="5.5941909551620483e-01" nType="0">
            <Node pos="l" depth="3" NCoef="0" IVar="-1" Cut="0.0000000000000000e+00" cType="1" res="5.2820858545601368e-03" rms="2.9818707704544067e-01" purity="5.7631099224090576e-01" nType="-99"/>
            <Node pos="r" depth="3" NCoef="0" IVar="-1" Cut="0.0000000000000000e+00" cType="1" res="-3.1623337417840958e-02" rms="2.9499590396881104e-01" purity="3.0645975470542908e-01" nType="-99"/>
          </Node>
          <Node pos="r" depth="2" NCoef="0" IVar="9" Cut="-4.8891079425811768e-01" cType="1" res="-1.0751754976809025e-02" rms="2.9163303971290588e-01" purity="4.8709779977798462e-01" nType="0">
            <Node pos="l" depth="3" NCoef="0" IVar="-1" Cut="0.0000000000000000e+00" cType="1" res="-2.6892576366662979e-02" rms="2.8357145190238953e-01" purity="3.7579965591430664e-01" nType="-99"/>
            <Node pos="r" depth="3" NCoef="0" IVar="-1" Cut="0.0000000000000000e+00" cType="1" res="-3.1898641027510166e-03" rms="2.9678624868392944e-01" purity="5.6355601549148560e-01" nType="-99"/>
          </Node>
        </Node>
        <Node pos="r" depth="1" NCoef="0" IVar="10" Cut="-1.3337656855583191e-01" cType="1" res="8.9804530143737793e-03" rms="2.9475933313369751e-01" purity="4.1762185096740723e-01" nType="0">
          <Node pos="l" depth="2" NCoef="0" IVar="5" Cut="8.6232704162597656e+01" cType="1" res="1.8791150301694870e-02" rms="3.0293220281600952e-01" purity="4.2660164833068848e-01" nType="0">
            <Node pos="l" depth="3" NCoef="0" IVar="-1" Cut="0.0000000000000000e+00" cType="1" res="3.3588528633117676e-02" rms="3.1275501847267151e-01" purity="2.4241752922534943e-01" nType="-99"/>
            <Node pos="r" depth="3" NCoef="0" IVar="-1" Cut="0.0000000000000000e+00" cType="1" res="2.5945736560970545e-03" rms="2.8459376096725464e-01" purity="7.4135917425155640e-01" nType="-99"/>
          </Node>
          <Node pos="r" depth="2" NCoef="0" IVar="8" Cut="-6.6766071319580078e-01" cType="1" res="2.4533115793019533e-03" rms="2.8900948166847229e-01" purity="4.1164752840995789e-01" nType="0">
            <Node pos="l" depth="3" NCoef="0" IVar="-1" Cut="0.0000000000000000e+00" cType="1" res="-1.9750710576772690e-02" rms="2.5805902481079102e-01" purity="2.5949251651763916e-01" nType="-99"/>
            <Node pos="r" depth="3" NCoef="0" IVar="-1" Cut="0.0000000000000000e+00" cType="1" res="6.9745923392474651e-03" rms="2.9547017812728882e-01" purity="4.4624611735343933e-01" nType="-99"/>
          </Node>
        </Node>
      </Node>
    </BinaryTree>
    <BinaryTree type="DecisionTree" boostWeight="1.0000000000000000e+00" itree="177">
      <Node pos="s" depth="0" NCoef="0" IVar="10" Cut="-6.6678351163864136e-01" cType="1" res="-2.1812436170876026e-04" rms="2.9028004407882690e-01" purity="5.0142061710357666e-01" nType="0">
        <Node pos="l" depth="1" NCoef="0" IVar="9" Cut="-1.4666690826416016e+00" cType="1" res="6.2735048122704029e-03" rms="2.9163277149200439e-01" purity="4.5754909515380859e-01" nType="0">
          <Node pos="l" depth="2" NCoef="0" IVar="-1" Cut="0.0000000000000000e+00" cType="1" res="4.0328785777091980e-02" rms="2.7526944875717163e-01" purity="2.0458345115184784e-01" nType="-99"/>
          <Node pos="r" depth="2" NCoef="0" IVar="0" Cut="1.3358012695312500e+03" cType="1" res="3.7920030299574137e-03" rms="2.9350009560585022e-01" purity="4.8886954784393311e-01" nType="0">
            <Node pos="l" depth="3" NCoef="0" IVar="-1" Cut="0.0000000000000000e+00" cType="1" res="-9.9025964736938477e-03" rms="2.8402054309844971e-01" purity="1.5455695986747742e-01" nType="-99"/>
            <Node pos="r" depth="3" NCoef="0" IVar="-1" Cut="0.0000000000000000e+00" cType="1" res="1.2702114880084991e-02" rms="2.9939565062522888e-01" purity="7.1211624145507812e-01" nType="-99"/>
          </Node>
        </Node>
        <Node pos="r" depth="1" NCoef="0" IVar="7" Cut="4.2039689421653748e-01" cType="1" res="-2.9149965848773718e-03" rms="2.8967344760894775e-01" purity="5.1964652538299561e-01" nType="0">
          <Node pos="l" depth="2" NCoef="0" IVar="9" Cut="1.3415990769863129e-01" cType="1" res="-7.7003091573715210e-03" rms="2.9016715288162231e-01" purity="5.6334501504898071e-01" nType="0">
            <Node pos="l" depth="3" NCoef="0" IVar="-1" Cut="0.0000000000000000e+00" cType="1" res="-1.4945716597139835e-02" rms="2.9448422789573669e-01" purity="5.7022798061370850e-01" nType="-99"/>
            <Node pos="r" depth="3" NCoef="0" IVar="-1" Cut="0.0000000000000000e+00" cType="1" res="-1.3653209898620844e-03" rms="2.8459179401397705e-01" purity="5.5481678247451782e-01" nType="-99"/>
          </Node>
          <Node pos="r" depth="2" NCoef="0" IVar="8" Cut="-1.1998360157012939e+00" cType="1" res="6.4175873994827271e-03" rms="2.8847983479499817e-01" purity="4.3442317843437195e-01" nType="0">
            <Node pos="l" depth="3" NCoef="0" IVar="-1" Cut="0.0000000000000000e+00" cType="1" res="-4.1357144713401794e-02" rms="1.9736614823341370e-01" purity="1.0589879006147385e-01" nType="-99"/>
            <Node pos="r" depth="3" NCoef="0" IVar="-1" Cut="0.0000000000000000e+00" cType="1" res="1.1249610222876072e-02" rms="2.9730430245399475e-01" purity="4.7362720966339111e-01" nType="-99"/>
          </Node>
        </Node>
      </Node>
    </BinaryTree>
    <BinaryTree type="DecisionTree" boostWeight="1.0000000000000000e+00" itree="178">
      <Node pos="s" depth="0" NCoef="0" IVar="9" Cut="-1.4666690826416016e+00" cType="1" res="2.2974556777626276e-03" rms="2.9248270392417908e-01" purity="5.0013816356658936e-01" nType="0">
        <Node pos="l" depth="1" NCoef="0" IVar="11" Cut="-2.4478998184204102e+00" cType="1" res="2.1400341764092445e-02" rms="2.8249657154083252e-01" purity="2.3273351788520813e-01" nType="0">
          <Node pos="l" depth="2" NCoef="0" IVar="10" Cut="-3.9978376030921936e-01" cType="1" res="6.1980322934687138e-03" rms="2.3429067432880402e-01" purity="8.5002958774566650e-02" nType="0">
            <Node pos="l" depth="3" NCoef="0" IVar="-1" Cut="0.0000000000000000e+00" cType="1" res="4.8603266477584839e-02" rms="2.6301914453506470e-01" purity="1.1296487599611282e-01" nType="-99"/>
            <Node pos="r" depth="3" NCoef="0" IVar="-1" Cut="0.0000000000000000e+00" cType="1" res="-2.6888675987720490e-02" rms="2.0205646753311157e-01" purity="5.8968216180801392e-02" nType="-99"/>
          </Node>
          <Node pos="r" depth="2" NCoef="0" IVar="-1" Cut="0.0000000000000000e+00" cType="1" res="4.1281804442405701e-02" rms="3.5190567374229431e-01" purity="5.0085496902465820e-01" nType="-99"/>
        </Node>
        <Node pos="r" depth="1" NCoef="0" IVar="11" Cut="-1.3429023027420044e+00" cType="1" res="4.4892221922054887e-04" rms="2.9336497187614441e-01" purity="5.2601414918899536e-01" nType="0">
          <Node pos="l" depth="2" NCoef="0" IVar="1" Cut="4.1845403611660004e-02" cType="1" res="4.9505243077874184e-03" rms="3.0612325668334961e-01" purity="2.9934796690940857e-01" nType="0">
            <Node pos="l" depth="3" NCoef="0" IVar="-1" Cut="0.0000000000000000e+00" cType="1" res="-3.8891567382961512e-03" rms="2.5058940052986145e-01" purity="1.3408648967742920e-01" nType="-99"/>
            <Node pos="r" depth="3" NCoef="0" IVar="-1" Cut="0.0000000000000000e+00" cType="1" res="1.0998726822435856e-02" rms="3.6010208725929260e-01" purity="4.9237239360809326e-01" nType="-99"/>
          </Node>
          <Node pos="r" depth="2" NCoef="0" IVar="11" Cut="1.2216538190841675e+00" cType="1" res="-4.4553983025252819e-03" rms="2.7871888875961304e-01" purity="7.7295804023742676e-01" nType="0">
            <Node pos="l" depth="3" NCoef="0" IVar="-1" Cut="0.0000000000000000e+00" cType="1" res="-1.1477121151983738e-02" rms="2.7362182736396790e-01" purity="7.9001748561859131e-01" nType="-99"/>
            <Node pos="r" depth="3" NCoef="0" IVar="-1" Cut="0.0000000000000000e+00" cType="1" res="1.4640103094279766e-02" rms="3.0038553476333618e-01" purity="6.9444727897644043e-01" nType="-99"/>
          </Node>
        </Node>
      </Node>
    </BinaryTree>
    <BinaryTree type="DecisionTree" boostWeight="1.0000000000000000e+00" itree="179">
      <Node pos="s" depth="0" NCoef="0" IVar="8" Cut="3.9997813105583191e-01" cType="1" res="1.7353002913296223e-03" rms="2.9603260755538940e-01" purity="4.9831345677375793e-01" nType="0">
        <Node pos="l" depth="1" NCoef="0" IVar="8" Cut="-1.5809023380279541e+00" cType="1" res="-2.2947574034333229e-03" rms="2.9662659764289856e-01" purity="5.2986299991607666e-01" nType="0">
          <Node pos="l" depth="2" NCoef="0" IVar="3" Cut="1.7149333190917969e+02" cType="1" res="-2.0672140643000603e-02" rms="2.0725651085376740e-01" purity="1.0739304125308990e-01" nType="0">
            <Node pos="l" depth="3" NCoef="0" IVar="-1" Cut="0.0000000000000000e+00" cType="1" res="8.4949815645813942e-03" rms="1.7440161108970642e-01" purity="5.3920835256576538e-02" nType="-99"/>
            <Node pos="r" depth="3" NCoef="0" IVar="-1" Cut="0.0000000000000000e+00" cType="1" res="-5.4514322429895401e-02" rms="2.2708284854888916e-01" purity="1.4712728559970856e-01" nType="-99"/>
          </Node>
          <Node pos="r" depth="2" NCoef="0" IVar="1" Cut="2.0503228530287743e-02" cType="1" res="-2.9003489180468023e-04" rms="3.0472752451896667e-01" purity="5.7594871520996094e-01" nType="0">
            <Node pos="l" depth="3" NCoef="0" IVar="-1" Cut="0.0000000000000000e+00" cType="1" res="1.7839323729276657e-02" rms="2.6990181207656860e-01" purity="1.9385324418544769e-01" nType="-99"/>
            <Node pos="r" depth="3" NCoef="0" IVar="-1" Cut="0.0000000000000000e+00" cType="1" res="-3.1569164711982012e-03" rms="3.1136581301689148e-01" purity="6.5486568212509155e-01" nType="-99"/>
          </Node>
        </Node>
        <Node pos="r" depth="1" NCoef="0" IVar="0" Cut="1.3362132568359375e+03" cType="1" res="9.3532539904117584e-03" rms="2.9475605487823486e-01" purity="4.3867582082748413e-01" nType="0">
          <Node pos="l" depth="2" NCoef="0" IVar="4" Cut="1.0346811676025391e+02" cType="1" res="5.3339690202847123e-04" rms="2.7112209796905518e-01" purity="1.3087946176528931e-01" nType="0">
            <Node pos="l" depth="3" NCoef="0" IVar="-1" Cut="0.0000000000000000e+00" cType="1" res="2.7218932285904884e-02" rms="2.1658396720886230e-01" purity="7.0111691951751709e-02" nType="-99"/>
            <Node pos="r" depth="3" NCoef="0" IVar="-1" Cut="0.0000000000000000e+00" cType="1" res="-8.8212070986628532e-03" rms="3.0995264649391174e-01" purity="1.8285758793354034e-01" nType="-99"/>
          </Node>
          <Node pos="r" depth="2" NCoef="0" IVar="6" Cut="5.3377632141113281e+01" cType="1" res="1.5994770452380180e-02" rms="3.1120616197586060e-01" purity="6.7045217752456665e-01" nType="0">
            <Node pos="l" depth="3" NCoef="0" IVar="-1" Cut="0.0000000000000000e+00" cType="1" res="2.9134841635823250e-02" rms="3.6595106124877930e-01" purity="4.1315636038780212e-01" nType="-99"/>
            <Node pos="r" depth="3" NCoef="0" IVar="-1" Cut="0.0000000000000000e+00" cType="1" res="5.6809610687196255e-03" rms="2.7460932731628418e-01" purity="8.1675922870635986e-01" nType="-99"/>
          </Node>
        </Node>
      </Node>
    </BinaryTree>
    <BinaryTree type="DecisionTree" boostWeight="1.0000000000000000e+00" itree="180">
      <Node pos="s" depth="0" NCoef="0" IVar="5" Cut="1.3290289306640625e+02" cType="1" res="9.2710863100364804e-04" rms="2.9400709271430969e-01" purity="4.9628427624702454e-01" nType="0">
        <Node pos="l" depth="1" NCoef="0" IVar="5" Cut="6.9738670349121094e+01" cType="1" res="2.9209842905402184e-03" rms="3.0486422777175903e-01" purity="4.2749214172363281e-01" nType="0">
          <Node pos="l" depth="2" NCoef="0" IVar="2" Cut="5.7004376220703125e+02" cType="1" res="-3.0522239394485950e-03" rms="2.8262168169021606e-01" purity="1.7871467769145966e-01" nType="0">
            <Node pos="l" depth="3" NCoef="0" IVar="-1" Cut="0.0000000000000000e+00" cType="1" res="-6.2675490044057369e-03" rms="2.7659282088279724e-01" purity="1.6765627264976501e-01" nType="-99"/>
            <Node pos="r" depth="3" NCoef="0" IVar="-1" Cut="0.0000000000000000e+00" cType="1" res="1.3272357173264027e-02" rms="3.3458507061004639e-01" purity="2.8511899709701538e-01" nType="-99"/>
          </Node>
          <Node pos="r" depth="2" NCoef="0" IVar="6" Cut="5.0476528167724609e+01" cType="1" res="7.7852886170148849e-03" rms="3.2176199555397034e-01" purity="6.3008493185043335e-01" nType="0">
            <Node pos="l" depth="3" NCoef="0" IVar="-1" Cut="0.0000000000000000e+00" cType="1" res="1.4750161208212376e-02" rms="3.5354894399642944e-01" purity="3.8741412758827209e-01" nType="-99"/>
            <Node pos="r" depth="3" NCoef="0" IVar="-1" Cut="0.0000000000000000e+00" cType="1" res="2.8171252924948931e-03" rms="3.0499881505966187e-01" purity="7.4795371294021606e-01" nType="-99"/>
          </Node>
        </Node>
        <Node pos="r" depth="1" NCoef="0" IVar="0" Cut="1.9520716552734375e+03" cType="1" res="-1.1338377371430397e-02" rms="2.1509885787963867e-01" purity="9.1946476697921753e-01" nType="0">
          <Node pos="l" depth="2" NCoef="0" IVar="-1" Cut="0.0000000000000000e+00" cType="1" res="-4.6956416219472885e-02" rms="2.7718350291252136e-01" purity="8.4765708446502686e-01" nType="-99"/>
          <Node pos="r" depth="2" NCoef="0" IVar="-1" Cut="0.0000000000000000e+00" cType="1" res="-2.3191531363409013e-04" rms="1.6791795194149017e-01" purity="9.6110981702804565e-01" nType="-99"/>
        </Node>
      </Node>
    </BinaryTree>
    <BinaryTree type="DecisionTree" boostWeight="1.0000000000000000e+00" itree="181">
      <Node pos="s" depth="0" NCoef="0" IVar="8" Cut="-6.6663235425949097e-01" cType="1" res="-1.6009144019335508e-03" rms="2.8947874903678894e-01" purity="5.0497359037399292e-01" nType="0">
        <Node pos="l" depth="1" NCoef="0" IVar="8" Cut="-7.6828742027282715e-01" cType="1" res="-8.2778353244066238e-03" rms="2.8239196538925171e-01" purity="3.6709895730018616e-01" nType="0">
          <Node pos="l" depth="2" NCoef="0" IVar="9" Cut="6.6652822494506836e-01" cType="1" res="-5.7026897557079792e-03" rms="2.8183022141456604e-01" purity="3.4039771556854248e-01" nType="0">
            <Node pos="l" depth="3" NCoef="0" IVar="-1" Cut="0.0000000000000000e+00" cType="1" res="-1.4436501078307629e-03" rms="2.8843897581100464e-01" purity="3.7990847229957581e-01" nType="-99"/>
            <Node pos="r" depth="3" NCoef="0" IVar="-1" Cut="0.0000000000000000e+00" cType="1" res="-2.8644356876611710e-02" rms="2.5926959514617920e-01" purity="2.1519318222999573e-01" nType="-99"/>
          </Node>
          <Node pos="r" depth="2" NCoef="0" IVar="-1" Cut="0.0000000000000000e+00" cType="1" res="-3.1568475067615509e-02" rms="2.8569415211677551e-01" purity="5.5753982067108154e-01" nType="-99"/>
        </Node>
        <Node pos="r" depth="1" NCoef="0" IVar="2" Cut="3.2476940917968750e+02" cType="1" res="5.3771870443597436e-04" rms="2.9167994856834412e-01" purity="5.4913520812988281e-01" nType="0">
          <Node pos="l" depth="2" NCoef="0" IVar="9" Cut="6.6778892278671265e-01" cType="1" res="7.1880249306559563e-03" rms="2.9672130942344666e-01" purity="4.7681641578674316e-01" nType="0">
            <Node pos="l" depth="3" NCoef="0" IVar="-1" Cut="0.0000000000000000e+00" cType="1" res="2.3362012580037117e-03" rms="3.0088558793067932e-01" purity="5.0472199916839600e-01" nType="-99"/>
            <Node pos="r" depth="3" NCoef="0" IVar="-1" Cut="0.0000000000000000e+00" cType="1" res="2.3190995678305626e-02" rms="2.8581064939498901e-01" purity="4.0805700421333313e-01" nType="-99"/>
          </Node>
          <Node pos="r" depth="2" NCoef="0" IVar="10" Cut="1.1997944116592407e+00" cType="1" res="-4.1392482817173004e-03" rms="2.8798970580101013e-01" purity="5.9999477863311768e-01" nType="0">
            <Node pos="l" depth="3" NCoef="0" IVar="-1" Cut="0.0000000000000000e+00" cType="1" res="-9.8447035998106003e-03" rms="2.8457555174827576e-01" purity="6.2163567543029785e-01" nType="-99"/>
            <Node pos="r" depth="3" NCoef="0" IVar="-1" Cut="0.0000000000000000e+00" cType="1" res="1.8966769799590111e-02" rms="3.0335667729377747e-01" purity="4.9283957481384277e-01" nType="-99"/>
          </Node>
        </Node>
      </Node>
    </BinaryTree>
    <BinaryTree type="DecisionTree" boostWeight="1.0000000000000000e+00" itree="182">
      <Node pos="s" depth="0" NCoef="0" IVar="0" Cut="2.0801359863281250e+03" cType="1" res="-2.0268619991838932e-03" rms="2.8884699940681458e-01" purity="4.9980273842811584e-01" nType="0">
        <Node pos="l" depth="1" NCoef="0" IVar="8" Cut="-4.0005475282669067e-01" cType="1" res="-3.7771221250295639e-03" rms="2.9875329136848450e-01" purity="4.2604941129684448e-01" nType="0">
          <Node pos="l" depth="2" NCoef="0" IVar="8" Cut="-9.7144788503646851e-01" cType="1" res="3.4620505757629871e-03" rms="2.9132199287414551e-01" purity="3.6787688732147217e-01" nType="0">
            <Node pos="l" depth="3" NCoef="0" IVar="-1" Cut="0.0000000000000000e+00" cType="1" res="-9.3411691486835480e-03" rms="2.5960016250610352e-01" purity="2.3248614370822906e-01" nType="-99"/>
            <Node pos="r" depth="3" NCoef="0" IVar="-1" Cut="0.0000000000000000e+00" cType="1" res="1.4239837415516376e-02" rms="3.2065096497535706e-01" purity="5.0871974229812622e-01" nType="-99"/>
          </Node>
          <Node pos="r" depth="2" NCoef="0" IVar="2" Cut="4.4986978149414062e+02" cType="1" res="-7.6854019425809383e-03" rms="3.0261749029159546e-01" purity="4.5745551586151123e-01" nType="0">
            <Node pos="l" depth="3" NCoef="0" IVar="-1" Cut="0.0000000000000000e+00" cType="1" res="-5.1981220021843910e-03" rms="2.9919877648353577e-01" purity="4.6909958124160767e-01" nType="-99"/>
            <Node pos="r" depth="3" NCoef="0" IVar="-1" Cut="0.0000000000000000e+00" cType="1" res="-1.8942084163427353e-02" rms="3.1685104966163635e-01" purity="4.0641883015632629e-01" nType="-99"/>
          </Node>
        </Node>
        <Node pos="r" depth="1" NCoef="0" IVar="5" Cut="9.3023918151855469e+01" cType="1" res="7.6025864109396935e-03" rms="2.2649016976356506e-01" purity="9.0557330846786499e-01" nType="0">
          <Node pos="l" depth="2" NCoef="0" IVar="-1" Cut="0.0000000000000000e+00" cType="1" res="2.3749452084302902e-02" rms="3.3424365520477295e-01" purity="7.4167776107788086e-01" nType="-99"/>
          <Node pos="r" depth="2" NCoef="0" IVar="8" Cut="-1.3181348145008087e-01" cType="1" res="1.1487783631309867e-03" rms="1.8384587764739990e-01" purity="9.5253163576126099e-01" nType="0">
            <Node pos="l" depth="3" NCoef="0" IVar="-1" Cut="0.0000000000000000e+00" cType="1" res="-2.1011590957641602e-02" rms="2.0165689289569855e-01" purity="9.4312596321105957e-01" nType="-99"/>
            <Node pos="r" depth="3" NCoef="0" IVar="-1" Cut="0.0000000000000000e+00" cType="1" res="2.0296944305300713e-02" rms="1.6956907510757446e-01" purity="9.5930975675582886e-01" nType="-99"/>
          </Node>
        </Node>
      </Node>
    </BinaryTree>
    <BinaryTree type="DecisionTree" boostWeight="1.0000000000000000e+00" itree="183">
      <Node pos="s" depth="0" NCoef="0" IVar="10" Cut="1.7327991724014282e+00" cType="1" res="-1.2267266865819693e-03" rms="2.8908264636993408e-01" purity="4.9766960740089417e-01" nType="0">
        <Node pos="l" depth="1" NCoef="0" IVar="8" Cut="-9.3329662084579468e-01" cType="1" res="-2.6415192405693233e-04" rms="2.8992047905921936e-01" purity="5.1495921611785889e-01" nType="0">
          <Node pos="l" depth="2" NCoef="0" IVar="7" Cut="1.6044017672538757e-01" cType="1" res="7.1408082731068134e-03" rms="2.7298846840858459e-01" purity="3.1010648608207703e-01" nType="0">
            <Node pos="l" depth="3" NCoef="0" IVar="-1" Cut="0.0000000000000000e+00" cType="1" res="1.7256857827305794e-02" rms="2.8755861520767212e-01" purity="3.5638931393623352e-01" nType="-99"/>
            <Node pos="r" depth="3" NCoef="0" IVar="-1" Cut="0.0000000000000000e+00" cType="1" res="-5.6210961192846298e-03" rms="2.4840420484542847e-01" purity="2.3857508599758148e-01" nType="-99"/>
          </Node>
          <Node pos="r" depth="2" NCoef="0" IVar="10" Cut="1.3010553121566772e+00" cType="1" res="-1.8172999843955040e-03" rms="2.9332420229911804e-01" purity="5.5792593955993652e-01" nType="0">
            <Node pos="l" depth="3" NCoef="0" IVar="-1" Cut="0.0000000000000000e+00" cType="1" res="-3.5723366308957338e-03" rms="2.9193693399429321e-01" purity="5.6452244520187378e-01" nType="-99"/>
            <Node pos="r" depth="3" NCoef="0" IVar="-1" Cut="0.0000000000000000e+00" cType="1" res="1.4468516223132610e-02" rms="3.0900087952613831e-01" purity="4.7908696532249451e-01" nType="-99"/>
          </Node>
        </Node>
        <Node pos="r" depth="1" NCoef="0" IVar="5" Cut="7.5999954223632812e+01" cType="1" res="-1.2894183397293091e-02" rms="2.7846229076385498e-01" purity="2.8810048103332520e-01" nType="0">
          <Node pos="l" depth="2" NCoef="0" IVar="-1" Cut="0.0000000000000000e+00" cType="1" res="-2.5322699919342995e-02" rms="2.5779792666435242e-01" purity="1.4185392856597900e-01" nType="-99"/>
          <Node pos="r" depth="2" NCoef="0" IVar="-1" Cut="0.0000000000000000e+00" cType="1" res="-2.1459287963807583e-03" rms="3.1138771772384644e-01" purity="5.4677081108093262e-01" nType="-99"/>
        </Node>
      </Node>
    </BinaryTree>
    <BinaryTree type="DecisionTree" boostWeight="1.0000000000000000e+00" itree="184">
      <Node pos="s" depth="0" NCoef="0" IVar="2" Cut="6.3790734863281250e+02" cType="1" res="-2.6272397371940315e-04" rms="2.9232653975486755e-01" purity="4.9396285414695740e-01" nType="0">
        <Node pos="l" depth="1" NCoef="0" IVar="9" Cut="1.9999085664749146e+00" cType="1" res="1.5722874086350203e-03" rms="2.9018682241439819e-01" purity="4.8899620771408081e-01" nType="0">
          <Node pos="l" depth="2" NCoef="0" IVar="7" Cut="-1.4580618143081665e+00" cType="1" res="2.3743161000311375e-03" rms="2.9321622848510742e-01" purity="5.0377953052520752e-01" nType="0">
            <Node pos="l" depth="3" NCoef="0" IVar="-1" Cut="0.0000000000000000e+00" cType="1" res="-2.8862103819847107e-02" rms="1.8788963556289673e-01" purity="9.2729523777961731e-02" nType="-99"/>
            <Node pos="r" depth="3" NCoef="0" IVar="-1" Cut="0.0000000000000000e+00" cType="1" res="3.7892027758061886e-03" rms="2.9854372143745422e-01" purity="5.2948755025863647e-01" nType="-99"/>
          </Node>
          <Node pos="r" depth="2" NCoef="0" IVar="-1" Cut="0.0000000000000000e+00" cType="1" res="-3.6317486315965652e-02" rms="1.9395388662815094e-01" purity="1.0309179127216339e-01" nType="-99"/>
        </Node>
        <Node pos="r" depth="1" NCoef="0" IVar="2" Cut="7.6303552246093750e+02" cType="1" res="-2.6665154844522476e-02" rms="3.2037925720214844e-01" purity="5.6542360782623291e-01" nType="0">
          <Node pos="l" depth="2" NCoef="0" IVar="-1" Cut="0.0000000000000000e+00" cType="1" res="-9.2937601730227470e-03" rms="2.9518339037895203e-01" purity="5.7353365421295166e-01" nType="-99"/>
          <Node pos="r" depth="2" NCoef="0" IVar="-1" Cut="0.0000000000000000e+00" cType="1" res="-4.2671207338571548e-02" rms="3.5267364978790283e-01" purity="5.5347549915313721e-01" nType="-99"/>
        </Node>
      </Node>
    </BinaryTree>
    <BinaryTree type="DecisionTree" boostWeight="1.0000000000000000e+00" itree="185">
      <Node pos="s" depth="0" NCoef="0" IVar="8" Cut="1.3330094516277313e-01" cType="1" res="1.1291896225884557e-03" rms="2.8950765728950500e-01" purity="5.0391882658004761e-01" nType="0">
        <Node pos="l" depth="1" NCoef="0" IVar="8" Cut="-1.4605920016765594e-01" cType="1" res="6.0552940703928471e-03" rms="2.8770706057548523e-01" purity="5.1906466484069824e-01" nType="0">
          <Node pos="l" depth="2" NCoef="0" IVar="10" Cut="-9.3337172269821167e-01" cType="1" res="2.6468150317668915e-03" rms="2.8619071841239929e-01" purity="4.8311492800712585e-01" nType="0">
            <Node pos="l" depth="3" NCoef="0" IVar="-1" Cut="0.0000000000000000e+00" cType="1" res="-8.1906672567129135e-03" rms="2.8669586777687073e-01" purity="3.9692893624305725e-01" nType="-99"/>
            <Node pos="r" depth="3" NCoef="0" IVar="-1" Cut="0.0000000000000000e+00" cType="1" res="7.2058360092341900e-03" rms="2.8592607378959656e-01" purity="5.1484596729278564e-01" nType="-99"/>
          </Node>
          <Node pos="r" depth="2" NCoef="0" IVar="8" Cut="2.7460925048217177e-04" cType="1" res="1.9065883010625839e-02" rms="2.9305884242057800e-01" purity="6.5628927946090698e-01" nType="0">
            <Node pos="l" depth="3" NCoef="0" IVar="-1" Cut="0.0000000000000000e+00" cType="1" res="3.2020222395658493e-02" rms="2.9836055636405945e-01" purity="6.6326230764389038e-01" nType="-99"/>
            <Node pos="r" depth="3" NCoef="0" IVar="-1" Cut="0.0000000000000000e+00" cType="1" res="6.5662548877298832e-03" rms="2.8633064031600952e-01" purity="6.4835149049758911e-01" nType="-99"/>
          </Node>
        </Node>
        <Node pos="r" depth="1" NCoef="0" IVar="10" Cut="-1.7331936359405518e+00" cType="1" res="-5.0923116505146027e-03" rms="2.9164695739746094e-01" purity="4.8479011654853821e-01" nType="0">
          <Node pos="l" depth="2" NCoef="0" IVar="-1" Cut="0.0000000000000000e+00" cType="1" res="-3.8253620266914368e-02" rms="2.6644298434257507e-01" purity="2.5030148029327393e-01" nType="-99"/>
          <Node pos="r" depth="2" NCoef="0" IVar="0" Cut="1.3952426757812500e+03" cType="1" res="-3.1149531714618206e-03" rms="2.9349821805953979e-01" purity="5.0372081995010376e-01" nType="0">
            <Node pos="l" depth="3" NCoef="0" IVar="-1" Cut="0.0000000000000000e+00" cType="1" res="5.3035407327115536e-03" rms="2.9653841257095337e-01" purity="2.0026646554470062e-01" nType="-99"/>
            <Node pos="r" depth="3" NCoef="0" IVar="-1" Cut="0.0000000000000000e+00" cType="1" res="-1.0589050129055977e-02" rms="2.9100662469863892e-01" purity="7.3612332344055176e-01" nType="-99"/>
          </Node>
        </Node>
      </Node>
    </BinaryTree>
    <BinaryTree type="DecisionTree" boostWeight="1.0000000000000000e+00" itree="186">
      <Node pos="s" depth="0" NCoef="0" IVar="10" Cut="-9.3331092596054077e-01" cType="1" res="8.5705355741083622e-04" rms="2.9120248556137085e-01" purity="5.0143325328826904e-01" nType="0">
        <Node pos="l" depth="1" NCoef="0" IVar="1" Cut="2.0514748990535736e-02" cType="1" res="7.0087998174130917e-03" rms="2.9850146174430847e-01" purity="4.1671276092529297e-01" nType="0">
          <Node pos="l" depth="2" NCoef="0" IVar="7" Cut="-5.1423914730548859e-02" cType="1" res="-7.9342825338244438e-03" rms="1.9394864141941071e-01" purity="7.4680969119071960e-02" nType="0">
            <Node pos="l" depth="3" NCoef="0" IVar="-1" Cut="0.0000000000000000e+00" cType="1" res="1.6710327472537756e-03" rms="2.0677796006202698e-01" purity="8.1224359571933746e-02" nType="-99"/>
            <Node pos="r" depth="3" NCoef="0" IVar="-1" Cut="0.0000000000000000e+00" cType="1" res="-4.4706404209136963e-02" rms="1.7534483969211578e-01" purity="6.6221661865711212e-02" nType="-99"/>
          </Node>
          <Node pos="r" depth="2" NCoef="0" IVar="1" Cut="5.9565741568803787e-02" cType="1" res="1.2388260103762150e-02" rms="3.2791608572006226e-01" purity="5.3984308242797852e-01" nType="0">
            <Node pos="l" depth="3" NCoef="0" IVar="-1" Cut="0.0000000000000000e+00" cType="1" res="3.0155681073665619e-02" rms="3.3511540293693542e-01" purity="3.2227927446365356e-01" nType="-99"/>
            <Node pos="r" depth="3" NCoef="0" IVar="-1" Cut="0.0000000000000000e+00" cType="1" res="5.1703036297112703e-04" rms="3.2234790921211243e-01" purity="6.8915486335754395e-01" nType="-99"/>
          </Node>
        </Node>
        <Node pos="r" depth="1" NCoef="0" IVar="10" Cut="1.3335560262203217e-01" cType="1" res="-9.1375206829980016e-04" rms="2.8904300928115845e-01" purity="5.2582043409347534e-01" nType="0">
          <Node pos="l" depth="2" NCoef="0" IVar="0" Cut="1.5646911621093750e+03" cType="1" res="-7.0818094536662102e-03" rms="2.8346350789070129e-01" purity="5.6221300363540649e-01" nType="0">
            <Node pos="l" depth="3" NCoef="0" IVar="-1" Cut="0.0000000000000000e+00" cType="1" res="-1.5077444724738598e-02" rms="3.0697920918464661e-01" purity="3.0549430847167969e-01" nType="-99"/>
            <Node pos="r" depth="3" NCoef="0" IVar="-1" Cut="0.0000000000000000e+00" cType="1" res="2.7005732990801334e-03" rms="2.5525939464569092e-01" purity="8.4031111001968384e-01" nType="-99"/>
          </Node>
          <Node pos="r" depth="2" NCoef="0" IVar="2" Cut="4.4429974365234375e+02" cType="1" res="3.2340548932552338e-03" rms="2.9266214370727539e-01" purity="5.0134772062301636e-01" nType="0">
            <Node pos="l" depth="3" NCoef="0" IVar="-1" Cut="0.0000000000000000e+00" cType="1" res="8.5990987718105316e-03" rms="2.9342547059059143e-01" purity="4.7535237669944763e-01" nType="-99"/>
            <Node pos="r" depth="3" NCoef="0" IVar="-1" Cut="0.0000000000000000e+00" cType="1" res="-8.4078162908554077e-03" rms="2.9038938879966736e-01" purity="5.6878274679183960e-01" nType="-99"/>
          </Node>
        </Node>
      </Node>
    </BinaryTree>
    <BinaryTree type="DecisionTree" boostWeight="1.0000000000000000e+00" itree="187">
      <Node pos="s" depth="0" NCoef="0" IVar="11" Cut="-1.6190851926803589e+00" cType="1" res="2.4317770730704069e-03" rms="2.8699341416358948e-01" purity="5.0674682855606079e-01" nType="0">
        <Node pos="l" depth="1" NCoef="0" IVar="9" Cut="3.9999049901962280e-01" cType="1" res="-3.4874111879616976e-03" rms="2.9764077067375183e-01" purity="2.5519880652427673e-01" nType="0">
          <Node pos="l" depth="2" NCoef="0" IVar="9" Cut="-1.2762317657470703e+00" cType="1" res="3.1632285099476576e-03" rms="3.0998188257217407e-01" purity="2.8062391281127930e-01" nType="0">
            <Node pos="l" depth="3" NCoef="0" IVar="-1" Cut="0.0000000000000000e+00" cType="1" res="-1.4614154584705830e-02" rms="2.5261491537094116e-01" purity="1.1228355765342712e-01" nType="-99"/>
            <Node pos="r" depth="3" NCoef="0" IVar="-1" Cut="0.0000000000000000e+00" cType="1" res="6.8312832154333591e-03" rms="3.2530355453491211e-01" purity="3.3174118399620056e-01" nType="-99"/>
          </Node>
          <Node pos="r" depth="2" NCoef="0" IVar="1" Cut="7.4431680142879486e-02" cType="1" res="-1.4960600063204765e-02" rms="2.7467402815818787e-01" purity="2.1133737266063690e-01" nType="0">
            <Node pos="l" depth="3" NCoef="0" IVar="-1" Cut="0.0000000000000000e+00" cType="1" res="-1.3896490447223186e-02" rms="2.4390271306037903e-01" purity="1.3517826795578003e-01" nType="-99"/>
            <Node pos="r" depth="3" NCoef="0" IVar="-1" Cut="0.0000000000000000e+00" cType="1" res="-2.4825079366564751e-02" rms="3.5846215486526489e-01" purity="4.6659162640571594e-01" nType="-99"/>
          </Node>
        </Node>
        <Node pos="r" depth="1" NCoef="0" IVar="5" Cut="7.0873840332031250e+01" cType="1" res="8.5162157192826271e-03" rms="2.7548792958259583e-01" purity="7.6531755924224854e-01" nType="0">
          <Node pos="l" depth="2" NCoef="0" IVar="1" Cut="3.7996008992195129e-02" cType="1" res="3.0712785199284554e-02" rms="3.4602692723274231e-01" purity="4.1498991847038269e-01" nType="0">
            <Node pos="l" depth="3" NCoef="0" IVar="-1" Cut="0.0000000000000000e+00" cType="1" res="1.1947589926421642e-02" rms="2.8686028718948364e-01" purity="1.7643038928508759e-01" nType="-99"/>
            <Node pos="r" depth="3" NCoef="0" IVar="-1" Cut="0.0000000000000000e+00" cType="1" res="3.0478352680802345e-02" rms="3.8578602671623230e-01" purity="6.0430932044982910e-01" nType="-99"/>
          </Node>
          <Node pos="r" depth="2" NCoef="0" IVar="7" Cut="9.3253064155578613e-01" cType="1" res="4.6930518001317978e-03" rms="2.6123338937759399e-01" purity="8.2565838098526001e-01" nType="0">
            <Node pos="l" depth="3" NCoef="0" IVar="-1" Cut="0.0000000000000000e+00" cType="1" res="3.1854084227234125e-03" rms="2.5537866353988647e-01" purity="8.5168761014938354e-01" nType="-99"/>
            <Node pos="r" depth="3" NCoef="0" IVar="-1" Cut="0.0000000000000000e+00" cType="1" res="2.1516725420951843e-02" rms="3.0344560742378235e-01" purity="6.1675643920898438e-01" nType="-99"/>
          </Node>
        </Node>
      </Node>
    </BinaryTree>
    <BinaryTree type="DecisionTree" boostWeight="1.0000000000000000e+00" itree="188">
      <Node pos="s" depth="0" NCoef="0" IVar="11" Cut="-2.4476957321166992e+00" cType="1" res="2.8425428899936378e-04" rms="2.8871309757232666e-01" purity="4.9697798490524292e-01" nType="0">
        <Node pos="l" depth="1" NCoef="0" IVar="10" Cut="-4.0005987882614136e-01" cType="1" res="-4.2808540165424347e-03" rms="2.9391682147979736e-01" purity="2.2149389982223511e-01" nType="0">
          <Node pos="l" depth="2" NCoef="0" IVar="3" Cut="2.9015542602539062e+02" cType="1" res="2.6871822774410248e-03" rms="2.9381644725799561e-01" purity="2.1299940347671509e-01" nType="0">
            <Node pos="l" depth="3" NCoef="0" IVar="-1" Cut="0.0000000000000000e+00" cType="1" res="-3.0339588411152363e-03" rms="2.7797022461891174e-01" purity="1.5561176836490631e-01" nType="-99"/>
            <Node pos="r" depth="3" NCoef="0" IVar="-1" Cut="0.0000000000000000e+00" cType="1" res="2.0541241392493248e-02" rms="3.5728764533996582e-01" purity="4.7897014021873474e-01" nType="-99"/>
          </Node>
          <Node pos="r" depth="2" NCoef="0" IVar="9" Cut="1.3328242301940918e-01" cType="1" res="-8.8038118556141853e-03" rms="2.9389354586601257e-01" purity="2.2700768709182739e-01" nType="0">
            <Node pos="l" depth="3" NCoef="0" IVar="-1" Cut="0.0000000000000000e+00" cType="1" res="-1.6985103487968445e-02" rms="2.9453966021537781e-01" purity="2.3140606284141541e-01" nType="-99"/>
            <Node pos="r" depth="3" NCoef="0" IVar="-1" Cut="0.0000000000000000e+00" cType="1" res="-1.9637371879070997e-03" rms="2.9307872056961060e-01" purity="2.2262752056121826e-01" nType="-99"/>
          </Node>
        </Node>
        <Node pos="r" depth="1" NCoef="0" IVar="8" Cut="-1.4666701555252075e+00" cType="1" res="4.5548402704298496e-03" rms="2.8369221091270447e-01" purity="7.5468897819519043e-01" nType="0">
          <Node pos="l" depth="2" NCoef="0" IVar="-1" Cut="0.0000000000000000e+00" cType="1" res="3.6569766700267792e-02" rms="3.3636084198951721e-01" purity="3.8692846894264221e-01" nType="-99"/>
          <Node pos="r" depth="2" NCoef="0" IVar="8" Cut="-1.0605356693267822e+00" cType="1" res="2.6668100617825985e-03" rms="2.8036695718765259e-01" purity="7.7504551410675049e-01" nType="0">
            <Node pos="l" depth="3" NCoef="0" IVar="-1" Cut="0.0000000000000000e+00" cType="1" res="-3.1867429614067078e-02" rms="3.0967679619789124e-01" purity="5.9509474039077759e-01" nType="-99"/>
            <Node pos="r" depth="3" NCoef="0" IVar="-1" Cut="0.0000000000000000e+00" cType="1" res="6.0295532457530499e-03" rms="2.7830764651298523e-01" purity="7.8614240884780884e-01" nType="-99"/>
          </Node>
        </Node>
      </Node>
    </BinaryTree>
    <BinaryTree type="DecisionTree" boostWeight="1.0000000000000000e+00" itree="189">
      <Node pos="s" depth="0" NCoef="0" IVar="10" Cut="-9.3344289064407349e-01" cType="1" res="-4.3684663251042366e-04" rms="2.8716140985488892e-01" purity="5.0077736377716064e-01" nType="0">
        <Node pos="l" depth="1" NCoef="0" IVar="5" Cut="8.4481079101562500e+01" cType="1" res="-1.0850133374333382e-02" rms="2.8199720382690430e-01" purity="4.1160696744918823e-01" nType="0">
          <Node pos="l" depth="2" NCoef="0" IVar="4" Cut="1.0761142730712891e+02" cType="1" res="-1.6289841383695602e-02" rms="2.7720880508422852e-01" purity="2.0749428868293762e-01" nType="0">
            <Node pos="l" depth="3" NCoef="0" IVar="-1" Cut="0.0000000000000000e+00" cType="1" res="-6.3819694332778454e-03" rms="2.1701885759830475e-01" purity="7.7377349138259888e-02" nType="-99"/>
            <Node pos="r" depth="3" NCoef="0" IVar="-1" Cut="0.0000000000000000e+00" cType="1" res="-2.3343853652477264e-02" rms="3.1228801608085632e-01" purity="2.9884335398674011e-01" nType="-99"/>
          </Node>
          <Node pos="r" depth="2" NCoef="0" IVar="2" Cut="4.1584564208984375e+02" cType="1" res="-1.8109058728441596e-03" rms="2.8955331444740295e-01" purity="7.5078332424163818e-01" nType="0">
            <Node pos="l" depth="3" NCoef="0" IVar="-1" Cut="0.0000000000000000e+00" cType="1" res="3.6164897028356791e-03" rms="2.9013195633888245e-01" purity="7.3215985298156738e-01" nType="-99"/>
            <Node pos="r" depth="3" NCoef="0" IVar="-1" Cut="0.0000000000000000e+00" cType="1" res="-1.3598378747701645e-02" rms="2.8831040859222412e-01" purity="7.8395324945449829e-01" nType="-99"/>
          </Node>
        </Node>
        <Node pos="r" depth="1" NCoef="0" IVar="9" Cut="-3.9999690651893616e-01" cType="1" res="2.6346237864345312e-03" rms="2.8859522938728333e-01" purity="5.2707886695861816e-01" nType="0">
          <Node pos="l" depth="2" NCoef="0" IVar="9" Cut="-1.4285274744033813e+00" cType="1" res="1.0411415249109268e-02" rms="2.9120767116546631e-01" purity="5.0291389226913452e-01" nType="0">
            <Node pos="l" depth="3" NCoef="0" IVar="-1" Cut="0.0000000000000000e+00" cType="1" res="-4.1338689625263214e-03" rms="2.6595786213874817e-01" purity="2.4112491309642792e-01" nType="-99"/>
            <Node pos="r" depth="3" NCoef="0" IVar="-1" Cut="0.0000000000000000e+00" cType="1" res="1.6502171754837036e-02" rms="2.9903569817543030e-01" purity="5.9045892953872681e-01" nType="-99"/>
          </Node>
          <Node pos="r" depth="2" NCoef="0" IVar="4" Cut="9.2904006958007812e+01" cType="1" res="-1.2014552485197783e-03" rms="2.8722029924392700e-01" purity="5.3899872303009033e-01" nType="0">
            <Node pos="l" depth="3" NCoef="0" IVar="-1" Cut="0.0000000000000000e+00" cType="1" res="-4.2535852640867233e-02" rms="1.8612802028656006e-01" purity="5.3432524204254150e-02" nType="-99"/>
            <Node pos="r" depth="3" NCoef="0" IVar="-1" Cut="0.0000000000000000e+00" cType="1" res="1.5982517506927252e-03" rms="2.9878029227256775e-01" purity="6.0830760002136230e-01" nType="-99"/>
          </Node>
        </Node>
      </Node>
    </BinaryTree>
    <BinaryTree type="DecisionTree" boostWeight="1.0000000000000000e+00" itree="190">
      <Node pos="s" depth="0" NCoef="0" IVar="10" Cut="1.1999232769012451e+00" cType="1" res="-1.8162067281082273e-03" rms="2.8698256611824036e-01" purity="4.9964725971221924e-01" nType="0">
        <Node pos="l" depth="1" NCoef="0" IVar="9" Cut="-9.3340748548507690e-01" cType="1" res="3.3878022804856300e-04" rms="2.8618040680885315e-01" purity="5.2315187454223633e-01" nType="0">
          <Node pos="l" depth="2" NCoef="0" IVar="10" Cut="-8.9524489641189575e-01" cType="1" res="-1.0380949825048447e-02" rms="2.8477072715759277e-01" purity="3.4679412841796875e-01" nType="0">
            <Node pos="l" depth="3" NCoef="0" IVar="-1" Cut="0.0000000000000000e+00" cType="1" res="-2.6310259476304054e-02" rms="2.6992005109786987e-01" purity="2.5054302811622620e-01" nType="-99"/>
            <Node pos="r" depth="3" NCoef="0" IVar="-1" Cut="0.0000000000000000e+00" cType="1" res="-4.4666873291134834e-03" rms="2.9269030690193176e-01" purity="4.0155526995658875e-01" nType="-99"/>
          </Node>
          <Node pos="r" depth="2" NCoef="0" IVar="9" Cut="-7.5560265779495239e-01" cType="1" res="2.9420820064842701e-03" rms="2.8646117448806763e-01" purity="5.6598067283630371e-01" nType="0">
            <Node pos="l" depth="3" NCoef="0" IVar="-1" Cut="0.0000000000000000e+00" cType="1" res="3.0244402587413788e-02" rms="3.0518901348114014e-01" purity="5.8730393648147583e-01" nType="-99"/>
            <Node pos="r" depth="3" NCoef="0" IVar="-1" Cut="0.0000000000000000e+00" cType="1" res="1.7099032411351800e-03" rms="2.8514927625656128e-01" purity="5.6460928916931152e-01" nType="-99"/>
          </Node>
        </Node>
        <Node pos="r" depth="1" NCoef="0" IVar="0" Cut="1.8150992431640625e+03" cType="1" res="-1.2639688327908516e-02" rms="2.9073652625083923e-01" purity="3.8159427046775818e-01" nType="0">
          <Node pos="l" depth="2" NCoef="0" IVar="4" Cut="1.6089762878417969e+02" cType="1" res="-1.8630772829055786e-02" rms="2.9321774840354919e-01" purity="2.6919540762901306e-01" nType="0">
            <Node pos="l" depth="3" NCoef="0" IVar="-1" Cut="0.0000000000000000e+00" cType="1" res="-1.3081795535981655e-02" rms="2.6432174444198608e-01" purity="1.9178448617458344e-01" nType="-99"/>
            <Node pos="r" depth="3" NCoef="0" IVar="-1" Cut="0.0000000000000000e+00" cType="1" res="-3.4578729420900345e-02" rms="3.5686996579170227e-01" purity="4.7126728296279907e-01" nType="-99"/>
          </Node>
          <Node pos="r" depth="2" NCoef="0" IVar="-1" Cut="0.0000000000000000e+00" cType="1" res="1.2310965918004513e-02" rms="2.7963468432426453e-01" purity="8.1966263055801392e-01" nType="-99"/>
        </Node>
      </Node>
    </BinaryTree>
    <BinaryTree type="DecisionTree" boostWeight="1.0000000000000000e+00" itree="191">
      <Node pos="s" depth="0" NCoef="0" IVar="11" Cut="1.6952279806137085e+00" cType="1" res="-3.4722273703664541e-03" rms="2.9146775603294373e-01" purity="4.9779358506202698e-01" nType="0">
        <Node pos="l" depth="1" NCoef="0" IVar="8" Cut="-6.6669636964797974e-01" cType="1" res="-2.3988904431462288e-03" rms="2.9080808162689209e-01" purity="4.9546849727630615e-01" nType="0">
          <Node pos="l" depth="2" NCoef="0" IVar="10" Cut="1.3312037289142609e-01" cType="1" res="3.8520356174558401e-03" rms="2.8337892889976501e-01" purity="3.7058755755424500e-01" nType="0">
            <Node pos="l" depth="3" NCoef="0" IVar="-1" Cut="0.0000000000000000e+00" cType="1" res="-3.0604691710323095e-03" rms="2.7562618255615234e-01" purity="3.6041155457496643e-01" nType="-99"/>
            <Node pos="r" depth="3" NCoef="0" IVar="-1" Cut="0.0000000000000000e+00" cType="1" res="1.6328839585185051e-02" rms="2.9441288113594055e-01" purity="3.8590574264526367e-01" nType="-99"/>
          </Node>
          <Node pos="r" depth="2" NCoef="0" IVar="9" Cut="1.3340885937213898e-01" cType="1" res="-4.4497135095298290e-03" rms="2.9317542910575867e-01" purity="5.3643983602523804e-01" nType="0">
            <Node pos="l" depth="3" NCoef="0" IVar="-1" Cut="0.0000000000000000e+00" cType="1" res="-1.0517538525164127e-02" rms="2.9329824447631836e-01" purity="5.4800218343734741e-01" nType="-99"/>
            <Node pos="r" depth="3" NCoef="0" IVar="-1" Cut="0.0000000000000000e+00" cType="1" res="1.3252976350486279e-03" rms="2.9293239116668701e-01" purity="5.2288657426834106e-01" nType="-99"/>
          </Node>
        </Node>
        <Node pos="r" depth="1" NCoef="0" IVar="-1" Cut="0.0000000000000000e+00" cType="1" res="-2.9858358204364777e-02" rms="3.0635172128677368e-01" purity="5.5623537302017212e-01" nType="-99"/>
      </Node>
    </BinaryTree>
    <BinaryTree type="DecisionTree" boostWeight="1.0000000000000000e+00" itree="192">
      <Node pos="s" depth="0" NCoef="0" IVar="10" Cut="1.1999448537826538e+00" cType="1" res="2.1106919739395380e-03" rms="2.8885588049888611e-01" purity="5.0623512268066406e-01" nType="0">
        <Node pos="l" depth="1" NCoef="0" IVar="10" Cut="8.1896936893463135e-01" cType="1" res="1.5535847342107445e-04" rms="2.8787893056869507e-01" purity="5.2681654691696167e-01" nType="0">
          <Node pos="l" depth="2" NCoef="0" IVar="5" Cut="8.8200210571289062e+01" cType="1" res="2.4374439381062984e-03" rms="2.8747013211250305e-01" purity="5.2741664648056030e-01" nType="0">
            <Node pos="l" depth="3" NCoef="0" IVar="-1" Cut="0.0000000000000000e+00" cType="1" res="6.6425087861716747e-03" rms="3.1088691949844360e-01" purity="2.8803586959838867e-01" nType="-99"/>
            <Node pos="r" depth="3" NCoef="0" IVar="-1" Cut="0.0000000000000000e+00" cType="1" res="-3.4884596243500710e-03" rms="2.5449544191360474e-01" purity="8.3200836181640625e-01" nType="-99"/>
          </Node>
          <Node pos="r" depth="2" NCoef="0" IVar="7" Cut="1.9612221419811249e-01" cType="1" res="-1.8257578834891319e-02" rms="2.9050129652023315e-01" purity="5.2197438478469849e-01" nType="0">
            <Node pos="l" depth="3" NCoef="0" IVar="-1" Cut="0.0000000000000000e+00" cType="1" res="7.2529278695583344e-03" rms="2.7941367030143738e-01" purity="5.7847988605499268e-01" nType="-99"/>
            <Node pos="r" depth="3" NCoef="0" IVar="-1" Cut="0.0000000000000000e+00" cType="1" res="-4.9279946833848953e-02" rms="2.9954531788825989e-01" purity="4.6250575780868530e-01" nType="-99"/>
          </Node>
        </Node>
        <Node pos="r" depth="1" NCoef="0" IVar="9" Cut="1.3363698124885559e-01" cType="1" res="1.2040741741657257e-02" rms="2.9356625676155090e-01" purity="4.0171352028846741e-01" nType="0">
          <Node pos="l" depth="2" NCoef="0" IVar="9" Cut="-5.6469506025314331e-01" cType="1" res="1.2980513274669647e-03" rms="2.8452384471893311e-01" purity="4.0375795960426331e-01" nType="0">
            <Node pos="l" depth="3" NCoef="0" IVar="-1" Cut="0.0000000000000000e+00" cType="1" res="1.2927492149174213e-02" rms="2.8299728035926819e-01" purity="3.2665079832077026e-01" nType="-99"/>
            <Node pos="r" depth="3" NCoef="0" IVar="-1" Cut="0.0000000000000000e+00" cType="1" res="-1.1461341753602028e-02" rms="2.8586649894714355e-01" purity="4.9281081557273865e-01" nType="-99"/>
          </Node>
          <Node pos="r" depth="2" NCoef="0" IVar="9" Cut="1.2763121128082275e+00" cType="1" res="2.2031618282198906e-02" rms="3.0138927698135376e-01" purity="3.9981216192245483e-01" nType="0">
            <Node pos="l" depth="3" NCoef="0" IVar="-1" Cut="0.0000000000000000e+00" cType="1" res="3.0043203383684158e-02" rms="3.1868639588356018e-01" purity="5.0321090221405029e-01" nType="-99"/>
            <Node pos="r" depth="3" NCoef="0" IVar="-1" Cut="0.0000000000000000e+00" cType="1" res="9.1910036280751228e-03" rms="2.6237294077873230e-01" purity="1.9121277332305908e-01" nType="-99"/>
          </Node>
        </Node>
      </Node>
    </BinaryTree>
    <BinaryTree type="DecisionTree" boostWeight="1.0000000000000000e+00" itree="193">
      <Node pos="s" depth="0" NCoef="0" IVar="8" Cut="9.3317383527755737e-01" cType="1" res="-6.0754548758268356e-04" rms="2.8969356417655945e-01" purity="4.9979329109191895e-01" nType="0">
        <Node pos="l" depth="1" NCoef="0" IVar="7" Cut="-3.8597044348716736e-01" cType="1" res="-2.9636153485625982e-03" rms="2.9110136628150940e-01" purity="5.3988432884216309e-01" nType="0">
          <Node pos="l" depth="2" NCoef="0" IVar="8" Cut="5.7760047912597656e-01" cType="1" res="3.5329880192875862e-03" rms="2.9569202661514282e-01" purity="4.6951609849929810e-01" nType="0">
            <Node pos="l" depth="3" NCoef="0" IVar="-1" Cut="0.0000000000000000e+00" cType="1" res="-1.5049894864205271e-04" rms="2.9270255565643311e-01" purity="4.6466100215911865e-01" nType="-99"/>
            <Node pos="r" depth="3" NCoef="0" IVar="-1" Cut="0.0000000000000000e+00" cType="1" res="3.6240909248590469e-02" rms="3.1756535172462463e-01" purity="5.0933891534805298e-01" nType="-99"/>
          </Node>
          <Node pos="r" depth="2" NCoef="0" IVar="10" Cut="1.1997421979904175e+00" cType="1" res="-6.1817425303161144e-03" rms="2.8874623775482178e-01" purity="5.7474154233932495e-01" nType="0">
            <Node pos="l" depth="3" NCoef="0" IVar="-1" Cut="0.0000000000000000e+00" cType="1" res="-4.3895537964999676e-03" rms="2.8317198157310486e-01" purity="5.9692698717117310e-01" nType="-99"/>
            <Node pos="r" depth="3" NCoef="0" IVar="-1" Cut="0.0000000000000000e+00" cType="1" res="-2.0168257877230644e-02" rms="3.1722253561019897e-01" purity="4.5308154821395874e-01" nType="-99"/>
          </Node>
        </Node>
        <Node pos="r" depth="1" NCoef="0" IVar="3" Cut="2.8331896972656250e+02" cType="1" res="1.0843180119991302e-02" rms="2.8247189521789551e-01" purity="3.0494725704193115e-01" nType="0">
          <Node pos="l" depth="2" NCoef="0" IVar="4" Cut="1.0647453308105469e+02" cType="1" res="1.6801398247480392e-02" rms="2.7693247795104980e-01" purity="2.7583199739456177e-01" nType="0">
            <Node pos="l" depth="3" NCoef="0" IVar="-1" Cut="0.0000000000000000e+00" cType="1" res="-1.5113740228116512e-02" rms="1.8062177300453186e-01" purity="5.1509052515029907e-02" nType="-99"/>
            <Node pos="r" depth="3" NCoef="0" IVar="-1" Cut="0.0000000000000000e+00" cType="1" res="2.9819674789905548e-02" rms="3.1636160612106323e-01" purity="3.9702621102333069e-01" nType="-99"/>
          </Node>
          <Node pos="r" depth="2" NCoef="0" IVar="-1" Cut="0.0000000000000000e+00" cType="1" res="-1.7141940072178841e-02" rms="3.0546173453330994e-01" purity="4.4075819849967957e-01" nType="-99"/>
        </Node>
      </Node>
    </BinaryTree>
    <BinaryTree type="DecisionTree" boostWeight="1.0000000000000000e+00" itree="194">
      <Node pos="s" depth="0" NCoef="0" IVar="2" Cut="6.9338275146484375e+02" cType="1" res="2.5435278075747192e-04" rms="2.8874677419662476e-01" purity="4.9976417422294617e-01" nType="0">
        <Node pos="l" depth="1" NCoef="0" IVar="8" Cut="-9.3325895071029663e-01" cType="1" res="-8.8784092804417014e-04" rms="2.8637310862541199e-01" purity="4.9356269836425781e-01" nType="0">
          <Node pos="l" depth="2" NCoef="0" IVar="8" Cut="-1.2888081073760986e+00" cType="1" res="9.7884088754653931e-03" rms="2.7181738615036011e-01" purity="3.0436861515045166e-01" nType="0">
            <Node pos="l" depth="3" NCoef="0" IVar="-1" Cut="0.0000000000000000e+00" cType="1" res="-4.9104477511718869e-04" rms="2.5127941370010376e-01" purity="1.9400908052921295e-01" nType="-99"/>
            <Node pos="r" depth="3" NCoef="0" IVar="-1" Cut="0.0000000000000000e+00" cType="1" res="2.7628896757960320e-02" rms="2.9936489462852478e-01" purity="4.6993234753608704e-01" nType="-99"/>
          </Node>
          <Node pos="r" depth="2" NCoef="0" IVar="3" Cut="2.0478157043457031e+02" cType="1" res="-3.2012953888624907e-03" rms="2.8937882184982300e-01" purity="5.3455954790115356e-01" nType="0">
            <Node pos="l" depth="3" NCoef="0" IVar="-1" Cut="0.0000000000000000e+00" cType="1" res="-1.1892914772033691e-02" rms="2.8444114327430725e-01" purity="3.1236806511878967e-01" nType="-99"/>
            <Node pos="r" depth="3" NCoef="0" IVar="-1" Cut="0.0000000000000000e+00" cType="1" res="2.2156448103487492e-03" rms="2.9289573431015015e-01" purity="6.9997757673263550e-01" nType="-99"/>
          </Node>
        </Node>
        <Node pos="r" depth="1" NCoef="0" IVar="-1" Cut="0.0000000000000000e+00" cType="1" res="2.0131278783082962e-02" rms="3.3263042569160461e-01" purity="6.2622255086898804e-01" nType="-99"/>
      </Node>
    </BinaryTree>
    <BinaryTree type="DecisionTree" boostWeight="1.0000000000000000e+00" itree="195">
      <Node pos="s" depth="0" NCoef="0" IVar="3" Cut="3.3792321777343750e+02" cType="1" res="1.9133200403302908e-03" rms="2.9159227013587952e-01" purity="5.0163304805755615e-01" nType="0">
        <Node pos="l" depth="1" NCoef="0" IVar="10" Cut="-1.4667085409164429e+00" cType="1" res="3.6937245167791843e-03" rms="2.9301533102989197e-01" purity="4.6355035901069641e-01" nType="0">
          <Node pos="l" depth="2" NCoef="0" IVar="8" Cut="-1.3537099957466125e-01" cType="1" res="1.7738634720444679e-02" rms="3.0199959874153137e-01" purity="3.2455515861511230e-01" nType="0">
            <Node pos="l" depth="3" NCoef="0" IVar="-1" Cut="0.0000000000000000e+00" cType="1" res="5.4734223522245884e-03" rms="2.8728449344635010e-01" purity="2.9898634552955627e-01" nType="-99"/>
            <Node pos="r" depth="3" NCoef="0" IVar="-1" Cut="0.0000000000000000e+00" cType="1" res="3.5317275673151016e-02" rms="3.1620579957962036e-01" purity="3.5160076618194580e-01" nType="-99"/>
          </Node>
          <Node pos="r" depth="2" NCoef="0" IVar="7" Cut="-1.1928853988647461e+00" cType="1" res="1.7921327380463481e-03" rms="2.9172569513320923e-01" purity="4.8236942291259766e-01" nType="0">
            <Node pos="l" depth="3" NCoef="0" IVar="-1" Cut="0.0000000000000000e+00" cType="1" res="2.6257250458002090e-02" rms="2.6054608821868896e-01" purity="1.8037986755371094e-01" nType="-99"/>
            <Node pos="r" depth="3" NCoef="0" IVar="-1" Cut="0.0000000000000000e+00" cType="1" res="2.7474728995002806e-04" rms="2.9487055540084839e-01" purity="5.1515150070190430e-01" nType="-99"/>
          </Node>
        </Node>
        <Node pos="r" depth="1" NCoef="0" IVar="5" Cut="1.2104325103759766e+02" cType="1" res="-9.0211862698197365e-03" rms="2.8244933485984802e-01" purity="7.3552119731903076e-01" nType="0">
          <Node pos="l" depth="2" NCoef="0" IVar="8" Cut="1.3377401232719421e-01" cType="1" res="-1.9700732082128525e-02" rms="3.2910248637199402e-01" purity="5.9742867946624756e-01" nType="0">
            <Node pos="l" depth="3" NCoef="0" IVar="-1" Cut="0.0000000000000000e+00" cType="1" res="-4.2753084562718868e-03" rms="3.2731518149375916e-01" purity="6.3675457239151001e-01" nType="-99"/>
            <Node pos="r" depth="3" NCoef="0" IVar="-1" Cut="0.0000000000000000e+00" cType="1" res="-3.6529131233692169e-02" rms="3.3043059706687927e-01" purity="5.4369479417800903e-01" nType="-99"/>
          </Node>
          <Node pos="r" depth="2" NCoef="0" IVar="-1" Cut="0.0000000000000000e+00" cType="1" res="1.5702333301305771e-02" rms="1.9193235039710999e-01" purity="9.4130545854568481e-01" nType="-99"/>
        </Node>
      </Node>
    </BinaryTree>
    <BinaryTree type="DecisionTree" boostWeight="1.0000000000000000e+00" itree="196">
      <Node pos="s" depth="0" NCoef="0" IVar="10" Cut="-1.7333701848983765e+00" cType="1" res="1.1379404459148645e-03" rms="2.8893947601318359e-01" purity="5.0221925973892212e-01" nType="0">
        <Node pos="l" depth="1" NCoef="0" IVar="5" Cut="6.5914230346679688e+01" cType="1" res="-1.4277594164013863e-02" rms="2.8246548771858215e-01" purity="2.7074244618415833e-01" nType="0">
          <Node pos="l" depth="2" NCoef="0" IVar="-1" Cut="0.0000000000000000e+00" cType="1" res="-3.5486684646457434e-03" rms="2.3609600961208344e-01" purity="1.1593059450387955e-01" nType="-99"/>
          <Node pos="r" depth="2" NCoef="0" IVar="-1" Cut="0.0000000000000000e+00" cType="1" res="-2.4050798267126083e-02" rms="3.1944879889488220e-01" purity="4.1578236222267151e-01" nType="-99"/>
        </Node>
        <Node pos="r" depth="1" NCoef="0" IVar="7" Cut="1.2156506776809692e+00" cType="1" res="2.3898552171885967e-03" rms="2.8942281007766724e-01" purity="5.2101773023605347e-01" nType="0">
          <Node pos="l" depth="2" NCoef="0" IVar="4" Cut="1.8618750000000000e+02" cType="1" res="3.9737415499985218e-03" rms="2.9631575942039490e-01" purity="5.5990171432495117e-01" nType="0">
            <Node pos="l" depth="3" NCoef="0" IVar="-1" Cut="0.0000000000000000e+00" cType="1" res="7.1674417704343796e-03" rms="3.1039658188819885e-01" purity="4.1267114877700806e-01" nType="-99"/>
            <Node pos="r" depth="3" NCoef="0" IVar="-1" Cut="0.0000000000000000e+00" cType="1" res="-1.8784512067213655e-03" rms="2.6899126172065735e-01" purity="8.2533270120620728e-01" nType="-99"/>
          </Node>
          <Node pos="r" depth="2" NCoef="0" IVar="3" Cut="2.0377618408203125e+02" cType="1" res="-1.2772820889949799e-02" rms="2.1180346608161926e-01" purity="1.4877861738204956e-01" nType="0">
            <Node pos="l" depth="3" NCoef="0" IVar="-1" Cut="0.0000000000000000e+00" cType="1" res="-8.1728566437959671e-03" rms="1.6344709694385529e-01" purity="7.5053855776786804e-02" nType="-99"/>
            <Node pos="r" depth="3" NCoef="0" IVar="-1" Cut="0.0000000000000000e+00" cType="1" res="-3.1890269368886948e-02" rms="2.6508751511573792e-01" purity="2.5336292386054993e-01" nType="-99"/>
          </Node>
        </Node>
      </Node>
    </BinaryTree>
    <BinaryTree type="DecisionTree" boostWeight="1.0000000000000000e+00" itree="197">
      <Node pos="s" depth="0" NCoef="0" IVar="9" Cut="-6.6667211055755615e-01" cType="1" res="-4.0409602224826813e-03" rms="2.8760880231857300e-01" purity="4.9243715405464172e-01" nType="0">
        <Node pos="l" depth="1" NCoef="0" IVar="4" Cut="2.1962312316894531e+02" cType="1" res="3.9370767772197723e-03" rms="2.9306754469871521e-01" purity="4.0462586283683777e-01" nType="0">
          <Node pos="l" depth="2" NCoef="0" IVar="10" Cut="-1.3379608094692230e-01" cType="1" res="7.8610582277178764e-03" rms="2.9539814591407776e-01" purity="3.5127115249633789e-01" nType="0">
            <Node pos="l" depth="3" NCoef="0" IVar="-1" Cut="0.0000000000000000e+00" cType="1" res="-2.7923819143325090e-03" rms="2.9386705160140991e-01" purity="3.2440778613090515e-01" nType="-99"/>
            <Node pos="r" depth="3" NCoef="0" IVar="-1" Cut="0.0000000000000000e+00" cType="1" res="2.2032022476196289e-02" rms="2.9667589068412781e-01" purity="3.8111630082130432e-01" nType="-99"/>
          </Node>
          <Node pos="r" depth="2" NCoef="0" IVar="-1" Cut="0.0000000000000000e+00" cType="1" res="-2.3789206519722939e-02" rms="2.7768042683601379e-01" purity="7.2158402204513550e-01" nType="-99"/>
        </Node>
        <Node pos="r" depth="1" NCoef="0" IVar="2" Cut="6.8858630371093750e+02" cType="1" res="-6.9687813520431519e-03" rms="2.8552341461181641e-01" purity="5.2466261386871338e-01" nType="0">
          <Node pos="l" depth="2" NCoef="0" IVar="0" Cut="1.6226237792968750e+03" cType="1" res="-5.9299571439623833e-03" rms="2.8347375988960266e-01" purity="5.2235835790634155e-01" nType="0">
            <Node pos="l" depth="3" NCoef="0" IVar="-1" Cut="0.0000000000000000e+00" cType="1" res="-1.1695404537022114e-02" rms="3.0334931612014771e-01" purity="3.0758404731750488e-01" nType="-99"/>
            <Node pos="r" depth="3" NCoef="0" IVar="-1" Cut="0.0000000000000000e+00" cType="1" res="4.1867862455546856e-03" rms="2.4780037999153137e-01" purity="8.6915779113769531e-01" nType="-99"/>
          </Node>
          <Node pos="r" depth="2" NCoef="0" IVar="-1" Cut="0.0000000000000000e+00" cType="1" res="-2.6989459991455078e-02" rms="3.2814067602157593e-01" purity="5.7750523090362549e-01" nType="-99"/>
        </Node>
      </Node>
    </BinaryTree>
    <BinaryTree type="DecisionTree" boostWeight="1.0000000000000000e+00" itree="198">
      <Node pos="s" depth="0" NCoef="0" IVar="10" Cut="-9.3336445093154907e-01" cType="1" res="7.7324005542322993e-04" rms="2.9349550604820251e-01" purity="4.9783194065093994e-01" nType="0">
        <Node pos="l" depth="1" NCoef="0" IVar="11" Cut="-1.6191785335540771e+00" cType="1" res="9.5928497612476349e-03" rms="2.9959514737129211e-01" purity="4.2444553971290588e-01" nType="0">
          <Node pos="l" depth="2" NCoef="0" IVar="10" Cut="-1.2000218629837036e+00" cType="1" res="1.9876100122928619e-02" rms="3.0584865808486938e-01" purity="2.3595128953456879e-01" nType="0">
            <Node pos="l" depth="3" NCoef="0" IVar="-1" Cut="0.0000000000000000e+00" cType="1" res="1.5405022539198399e-02" rms="2.9441508650779724e-01" purity="2.0996542274951935e-01" nType="-99"/>
            <Node pos="r" depth="3" NCoef="0" IVar="-1" Cut="0.0000000000000000e+00" cType="1" res="4.3399211019277573e-02" rms="3.3611023426055908e-01" purity="3.1177502870559692e-01" nType="-99"/>
          </Node>
          <Node pos="r" depth="2" NCoef="0" IVar="7" Cut="-7.6216712594032288e-02" cType="1" res="-4.7642197459936142e-03" rms="2.9003006219863892e-01" purity="6.8761372566223145e-01" nType="0">
            <Node pos="l" depth="3" NCoef="0" IVar="-1" Cut="0.0000000000000000e+00" cType="1" res="1.2538209557533264e-02" rms="2.8997948765754700e-01" purity="7.0731842517852783e-01" nType="-99"/>
            <Node pos="r" depth="3" NCoef="0" IVar="-1" Cut="0.0000000000000000e+00" cType="1" res="-2.6285441592335701e-02" rms="2.8893309831619263e-01" purity="6.6408175230026245e-01" nType="-99"/>
          </Node>
        </Node>
        <Node pos="r" depth="1" NCoef="0" IVar="1" Cut="8.1851691007614136e-02" cType="1" res="-1.7679559532552958e-03" rms="2.9166486859321594e-01" purity="5.1897680759429932e-01" nType="0">
          <Node pos="l" depth="2" NCoef="0" IVar="1" Cut="4.6776477247476578e-02" cType="1" res="2.9350148979574442e-03" rms="2.9848086833953857e-01" purity="3.5223358869552612e-01" nType="0">
            <Node pos="l" depth="3" NCoef="0" IVar="-1" Cut="0.0000000000000000e+00" cType="1" res="-2.0399265922605991e-03" rms="2.8031867742538452e-01" purity="2.4370850622653961e-01" nType="-99"/>
            <Node pos="r" depth="3" NCoef="0" IVar="-1" Cut="0.0000000000000000e+00" cType="1" res="1.2297959066927433e-02" rms="3.3582776784896851e-01" purity="5.9844428300857544e-01" nType="-99"/>
          </Node>
          <Node pos="r" depth="2" NCoef="0" IVar="0" Cut="1.3247043457031250e+03" cType="1" res="-9.7779370844364166e-03" rms="2.7949181199073792e-01" purity="8.0296969413757324e-01" nType="0">
            <Node pos="l" depth="3" NCoef="0" IVar="-1" Cut="0.0000000000000000e+00" cType="1" res="-2.1364931017160416e-02" rms="3.9164838194847107e-01" purity="3.7754112482070923e-01" nType="-99"/>
            <Node pos="r" depth="3" NCoef="0" IVar="-1" Cut="0.0000000000000000e+00" cType="1" res="-6.4265816472470760e-03" rms="2.4265640974044800e-01" purity="9.1065764427185059e-01" nType="-99"/>
          </Node>
        </Node>
      </Node>
    </BinaryTree>
    <BinaryTree type="DecisionTree" boostWeight="1.0000000000000000e+00" itree="199">
      <Node pos="s" depth="0" NCoef="0" IVar="7" Cut="1.5970027446746826e-01" cType="1" res="2.1446554455906153e-03" rms="2.8892621397972107e-01" purity="5.0302273035049438e-01" nType="0">
        <Node pos="l" depth="1" NCoef="0" IVar="3" Cut="2.4158047485351562e+02" cType="1" res="-1.4082309789955616e-03" rms="2.9114553332328796e-01" purity="5.2067732810974121e-01" nType="0">
          <Node pos="l" depth="2" NCoef="0" IVar="9" Cut="1.3310755789279938e-01" cType="1" res="3.3819463569670916e-03" rms="2.9435375332832336e-01" purity="3.8508918881416321e-01" nType="0">
            <Node pos="l" depth="3" NCoef="0" IVar="-1" Cut="0.0000000000000000e+00" cType="1" res="-1.9564495887607336e-03" rms="2.9551845788955688e-01" purity="3.8101154565811157e-01" nType="-99"/>
            <Node pos="r" depth="3" NCoef="0" IVar="-1" Cut="0.0000000000000000e+00" cType="1" res="1.2780275195837021e-02" rms="2.9249894618988037e-01" purity="3.9099177718162537e-01" nType="-99"/>
          </Node>
          <Node pos="r" depth="2" NCoef="0" IVar="1" Cut="4.1861750185489655e-02" cType="1" res="-8.1730280071496964e-03" rms="2.8641718626022339e-01" purity="7.1215790510177612e-01" nType="0">
            <Node pos="l" depth="3" NCoef="0" IVar="-1" Cut="0.0000000000000000e+00" cType="1" res="-2.0132696256041527e-02" rms="3.1574821472167969e-01" purity="3.7885835766792297e-01" nType="-99"/>
            <Node pos="r" depth="3" NCoef="0" IVar="-1" Cut="0.0000000000000000e+00" cType="1" res="-3.2048074062913656e-03" rms="2.7296614646911621e-01" purity="8.5204714536666870e-01" nType="-99"/>
          </Node>
        </Node>
        <Node pos="r" depth="1" NCoef="0" IVar="0" Cut="1.1205960693359375e+03" cType="1" res="6.8564238026738167e-03" rms="2.8588831424713135e-01" purity="4.7960951924324036e-01" nType="0">
          <Node pos="l" depth="2" NCoef="0" IVar="7" Cut="9.1401624679565430e-01" cType="1" res="-1.0460364632308483e-02" rms="1.8758688867092133e-01" purity="4.2710706591606140e-02" nType="0">
            <Node pos="l" depth="3" NCoef="0" IVar="-1" Cut="0.0000000000000000e+00" cType="1" res="-2.9086505994200706e-02" rms="2.4103796482086182e-01" purity="6.9753631949424744e-02" nType="-99"/>
            <Node pos="r" depth="3" NCoef="0" IVar="-1" Cut="0.0000000000000000e+00" cType="1" res="-1.1858243495225906e-02" rms="1.2405458837747574e-01" purity="1.9510742276906967e-02" nType="-99"/>
          </Node>
          <Node pos="r" depth="2" NCoef="0" IVar="8" Cut="-1.2001100778579712e+00" cType="1" res="1.1073681525886059e-02" rms="3.0492010712623596e-01" purity="5.8601009845733643e-01" nType="0">
            <Node pos="l" depth="3" NCoef="0" IVar="-1" Cut="0.0000000000000000e+00" cType="1" res="-1.8509326502680779e-02" rms="2.5494855642318726e-01" purity="1.9355307519435883e-01" nType="-99"/>
            <Node pos="r" depth="3" NCoef="0" IVar="-1" Cut="0.0000000000000000e+00" cType="1" res="1.4014373533427715e-02" rms="3.0979546904563904e-01" purity="6.2906754016876221e-01" nType="-99"/>
          </Node>
        </Node>
      </Node>
    </BinaryTree>
    <BinaryTree type="DecisionTree" boostWeight="1.0000000000000000e+00" itree="200">
      <Node pos="s" depth="0" NCoef="0" IVar="1" Cut="1.0449846088886261e-01" cType="1" res="1.7292160773649812e-03" rms="2.9276537895202637e-01" purity="5.0128817558288574e-01" nType="0">
        <Node pos="l" depth="1" NCoef="0" IVar="9" Cut="1.3326868414878845e-01" cType="1" res="-1.4013857580721378e-03" rms="3.0012235045433044e-01" purity="3.7306326627731323e-01" nType="0">
          <Node pos="l" depth="2" NCoef="0" IVar="8" Cut="6.6653066873550415e-01" cType="1" res="3.4253103658556938e-03" rms="3.0493184924125671e-01" purity="3.8706171512603760e-01" nType="0">
            <Node pos="l" depth="3" NCoef="0" IVar="-1" Cut="0.0000000000000000e+00" cType="1" res="-1.8941881135106087e-03" rms="3.0653771758079529e-01" purity="4.1234439611434937e-01" nType="-99"/>
            <Node pos="r" depth="3" NCoef="0" IVar="-1" Cut="0.0000000000000000e+00" cType="1" res="2.2312901914119720e-02" rms="2.9943075776100159e-01" purity="3.1009617447853088e-01" nType="-99"/>
          </Node>
          <Node pos="r" depth="2" NCoef="0" IVar="1" Cut="2.9859712347388268e-02" cType="1" res="-7.3520783334970474e-03" rms="2.9397553205490112e-01" purity="3.5580497980117798e-01" nType="0">
            <Node pos="l" depth="3" NCoef="0" IVar="-1" Cut="0.0000000000000000e+00" cType="1" res="4.2244591168127954e-04" rms="2.4986487627029419e-01" purity="1.5798425674438477e-01" nType="-99"/>
            <Node pos="r" depth="3" NCoef="0" IVar="-1" Cut="0.0000000000000000e+00" cType="1" res="-1.2756417505443096e-02" rms="3.2526376843452454e-01" purity="5.1628106832504272e-01" nType="-99"/>
          </Node>
        </Node>
        <Node pos="r" depth="1" NCoef="0" IVar="0" Cut="1.3526856689453125e+03" cType="1" res="1.0003457777202129e-02" rms="2.7219247817993164e-01" purity="8.4018909931182861e-01" nType="0">
          <Node pos="l" depth="2" NCoef="0" IVar="-1" Cut="0.0000000000000000e+00" cType="1" res="2.2690301761031151e-02" rms="3.9918312430381775e-01" purity="5.1652640104293823e-01" nType="-99"/>
          <Node pos="r" depth="2" NCoef="0" IVar="8" Cut="-1.4170324802398682e-01" cType="1" res="2.6725770439952612e-03" rms="2.2459214925765991e-01" purity="9.2901206016540527e-01" nType="0">
            <Node pos="l" depth="3" NCoef="0" IVar="-1" Cut="0.0000000000000000e+00" cType="1" res="-9.2505328357219696e-03" rms="2.2984856367111206e-01" purity="9.2335045337677002e-01" nType="-99"/>
            <Node pos="r" depth="3" NCoef="0" IVar="-1" Cut="0.0000000000000000e+00" cType="1" res="1.4623934403061867e-02" rms="2.2068184614181519e-01" purity="9.3298703432083130e-01" nType="-99"/>
          </Node>
        </Node>
      </Node>
    </BinaryTree>
    <BinaryTree type="DecisionTree" boostWeight="1.0000000000000000e+00" itree="201">
      <Node pos="s" depth="0" NCoef="0" IVar="11" Cut="-5.1429104804992676e-01" cType="1" res="-2.4152882397174835e-03" rms="2.9203948378562927e-01" purity="4.9461457133293152e-01" nType="0">
        <Node pos="l" depth="1" NCoef="0" IVar="10" Cut="6.6644299030303955e-01" cType="1" res="1.0202212724834681e-03" rms="2.9484203457832336e-01" purity="3.5960087180137634e-01" nType="0">
          <Node pos="l" depth="2" NCoef="0" IVar="9" Cut="-9.3336772918701172e-01" cType="1" res="-2.9830783605575562e-03" rms="2.9215088486671448e-01" purity="3.7204697728157043e-01" nType="0">
            <Node pos="l" depth="3" NCoef="0" IVar="-1" Cut="0.0000000000000000e+00" cType="1" res="-1.7146514728665352e-02" rms="2.7061098814010620e-01" purity="2.3955939710140228e-01" nType="-99"/>
            <Node pos="r" depth="3" NCoef="0" IVar="-1" Cut="0.0000000000000000e+00" cType="1" res="4.7949812142178416e-04" rms="2.9837906360626221e-01" purity="4.1278836131095886e-01" nType="-99"/>
          </Node>
          <Node pos="r" depth="2" NCoef="0" IVar="0" Cut="1.0692138671875000e+03" cType="1" res="1.0274477303028107e-02" rms="3.0076706409454346e-01" purity="3.3082967996597290e-01" nType="0">
            <Node pos="l" depth="3" NCoef="0" IVar="-1" Cut="0.0000000000000000e+00" cType="1" res="-2.9598060995340347e-02" rms="1.4639988541603088e-01" purity="2.4246066808700562e-02" nType="-99"/>
            <Node pos="r" depth="3" NCoef="0" IVar="-1" Cut="0.0000000000000000e+00" cType="1" res="1.4921647496521473e-02" rms="3.2802489399909973e-01" purity="4.0745812654495239e-01" nType="-99"/>
          </Node>
        </Node>
        <Node pos="r" depth="1" NCoef="0" IVar="0" Cut="2.1151147460937500e+03" cType="1" res="-8.8120885193347931e-03" rms="2.8663861751556396e-01" purity="7.4600541591644287e-01" nType="0">
          <Node pos="l" depth="2" NCoef="0" IVar="8" Cut="-4.0144422650337219e-01" cType="1" res="-1.3938084244728088e-02" rms="3.1217411160469055e-01" purity="6.8361377716064453e-01" nType="0">
            <Node pos="l" depth="3" NCoef="0" IVar="-1" Cut="0.0000000000000000e+00" cType="1" res="3.6175323184579611e-03" rms="3.1292343139648438e-01" purity="6.5290409326553345e-01" nType="-99"/>
            <Node pos="r" depth="3" NCoef="0" IVar="-1" Cut="0.0000000000000000e+00" cType="1" res="-2.3604968562722206e-02" rms="3.1152647733688354e-01" purity="6.9724589586257935e-01" nType="-99"/>
          </Node>
          <Node pos="r" depth="2" NCoef="0" IVar="0" Cut="2.5142932128906250e+03" cType="1" res="8.2449493929743767e-03" rms="1.7578887939453125e-01" purity="9.5361703634262085e-01" nType="0">
            <Node pos="l" depth="3" NCoef="0" IVar="-1" Cut="0.0000000000000000e+00" cType="1" res="1.1076448485255241e-02" rms="1.7680832743644714e-01" purity="9.5082831382751465e-01" nType="-99"/>
            <Node pos="r" depth="3" NCoef="0" IVar="-1" Cut="0.0000000000000000e+00" cType="1" res="3.6839857697486877e-02" rms="1.7369516193866730e-01" purity="9.5859825611114502e-01" nType="-99"/>
          </Node>
        </Node>
      </Node>
    </BinaryTree>
    <BinaryTree type="DecisionTree" boostWeight="1.0000000000000000e+00" itree="202">
      <Node pos="s" depth="0" NCoef="0" IVar="0" Cut="1.7601090087890625e+03" cType="1" res="6.1826047021895647e-04" rms="2.8796628117561340e-01" purity="5.0068062543869019e-01" nType="0">
        <Node pos="l" depth="1" NCoef="0" IVar="4" Cut="2.0889807128906250e+02" cType="1" res="-2.1101173479110003e-03" rms="3.0122494697570801e-01" purity="3.4658399224281311e-01" nType="0">
          <Node pos="l" depth="2" NCoef="0" IVar="9" Cut="-9.3339234590530396e-01" cType="1" res="-5.2669981960207224e-04" rms="2.9662474989891052e-01" purity="3.2606855034828186e-01" nType="0">
            <Node pos="l" depth="3" NCoef="0" IVar="-1" Cut="0.0000000000000000e+00" cType="1" res="-1.2639917433261871e-02" rms="2.8371149301528931e-01" purity="2.2660019993782043e-01" nType="-99"/>
            <Node pos="r" depth="3" NCoef="0" IVar="-1" Cut="0.0000000000000000e+00" cType="1" res="2.3877483326941729e-03" rms="3.0010560154914856e-01" purity="3.5410585999488831e-01" nType="-99"/>
          </Node>
          <Node pos="r" depth="2" NCoef="0" IVar="8" Cut="1.2885887920856476e-01" cType="1" res="-1.9271880388259888e-02" rms="3.4673175215721130e-01" purity="5.6893903017044067e-01" nType="0">
            <Node pos="l" depth="3" NCoef="0" IVar="-1" Cut="0.0000000000000000e+00" cType="1" res="-2.8801443986594677e-03" rms="3.4053358435630798e-01" purity="6.0722243785858154e-01" nType="-99"/>
            <Node pos="r" depth="3" NCoef="0" IVar="-1" Cut="0.0000000000000000e+00" cType="1" res="-3.3164840191602707e-02" rms="3.5374903678894043e-01" purity="5.1768290996551514e-01" nType="-99"/>
          </Node>
        </Node>
        <Node pos="r" depth="1" NCoef="0" IVar="2" Cut="5.7026800537109375e+02" cType="1" res="7.0436741225421429e-03" rms="2.5390654802322388e-01" purity="8.6358284950256348e-01" nType="0">
          <Node pos="l" depth="2" NCoef="0" IVar="3" Cut="3.9580001831054688e+02" cType="1" res="2.8850706294178963e-03" rms="2.1979910135269165e-01" purity="9.2261570692062378e-01" nType="0">
            <Node pos="l" depth="3" NCoef="0" IVar="-1" Cut="0.0000000000000000e+00" cType="1" res="1.0998703539371490e-02" rms="2.1328388154506683e-01" purity="9.3243360519409180e-01" nType="-99"/>
            <Node pos="r" depth="3" NCoef="0" IVar="-1" Cut="0.0000000000000000e+00" cType="1" res="-1.6029035672545433e-02" rms="2.5254315137863159e-01" purity="8.6804443597793579e-01" nType="-99"/>
          </Node>
          <Node pos="r" depth="2" NCoef="0" IVar="4" Cut="2.1804830932617188e+02" cType="1" res="1.6326373443007469e-02" rms="3.1687325239181519e-01" purity="7.3181170225143433e-01" nType="0">
            <Node pos="l" depth="3" NCoef="0" IVar="-1" Cut="0.0000000000000000e+00" cType="1" res="4.2703310027718544e-03" rms="3.5047820210456848e-01" purity="6.0241037607192993e-01" nType="-99"/>
            <Node pos="r" depth="3" NCoef="0" IVar="-1" Cut="0.0000000000000000e+00" cType="1" res="2.9281619936227798e-02" rms="2.8168570995330811e-01" purity="8.5211956501007080e-01" nType="-99"/>
          </Node>
        </Node>
      </Node>
    </BinaryTree>
    <BinaryTree type="DecisionTree" boostWeight="1.0000000000000000e+00" itree="203">
      <Node pos="s" depth="0" NCoef="0" IVar="10" Cut="6.6649252176284790e-01" cType="1" res="-3.1573750311508775e-04" rms="2.8728792071342468e-01" purity="5.0276046991348267e-01" nType="0">
        <Node pos="l" depth="1" NCoef="0" IVar="8" Cut="-3.9997431635856628e-01" cType="1" res="2.6681891176849604e-03" rms="2.8622353076934814e-01" purity="5.2412980794906616e-01" nType="0">
          <Node pos="l" depth="2" NCoef="0" IVar="8" Cut="-1.0856730937957764e+00" cType="1" res="-3.3206052612513304e-03" rms="2.8105130791664124e-01" purity="4.5083364844322205e-01" nType="0">
            <Node pos="l" depth="3" NCoef="0" IVar="-1" Cut="0.0000000000000000e+00" cType="1" res="1.1822012253105640e-02" rms="2.6501214504241943e-01" purity="2.7168941497802734e-01" nType="-99"/>
            <Node pos="r" depth="3" NCoef="0" IVar="-1" Cut="0.0000000000000000e+00" cType="1" res="-1.2871122919023037e-02" rms="2.9090961813926697e-01" purity="5.6937044858932495e-01" nType="-99"/>
          </Node>
          <Node pos="r" depth="2" NCoef="0" IVar="0" Cut="1.0976298828125000e+03" cType="1" res="5.9370370581746101e-03" rms="2.8895527124404907e-01" purity="5.6413692235946655e-01" nType="0">
            <Node pos="l" depth="3" NCoef="0" IVar="-1" Cut="0.0000000000000000e+00" cType="1" res="-2.1426767110824585e-02" rms="1.8856526911258698e-01" purity="4.4291645288467407e-02" nType="-99"/>
            <Node pos="r" depth="3" NCoef="0" IVar="-1" Cut="0.0000000000000000e+00" cType="1" res="9.1922851279377937e-03" rms="3.0191180109977722e-01" purity="6.4763838052749634e-01" nType="-99"/>
          </Node>
        </Node>
        <Node pos="r" depth="1" NCoef="0" IVar="3" Cut="2.4350422668457031e+02" cType="1" res="-7.3885936290025711e-03" rms="2.8967249393463135e-01" purity="4.5210823416709900e-01" nType="0">
          <Node pos="l" depth="2" NCoef="0" IVar="2" Cut="4.2288812255859375e+02" cType="1" res="-1.3387379236519337e-02" rms="2.8585824370384216e-01" purity="3.2201132178306580e-01" nType="0">
            <Node pos="l" depth="3" NCoef="0" IVar="-1" Cut="0.0000000000000000e+00" cType="1" res="-1.0545839555561543e-02" rms="2.8631129860877991e-01" purity="3.3603864908218384e-01" nType="-99"/>
            <Node pos="r" depth="3" NCoef="0" IVar="-1" Cut="0.0000000000000000e+00" cType="1" res="-3.8525525480508804e-02" rms="2.8278723359107971e-01" purity="2.5661328434944153e-01" nType="-99"/>
          </Node>
          <Node pos="r" depth="2" NCoef="0" IVar="8" Cut="-1.3284228742122650e-01" cType="1" res="2.2325108293443918e-03" rms="2.9543295502662659e-01" purity="6.6076302528381348e-01" nType="0">
            <Node pos="l" depth="3" NCoef="0" IVar="-1" Cut="0.0000000000000000e+00" cType="1" res="-1.1362535879015923e-02" rms="2.9603952169418335e-01" purity="6.3350981473922729e-01" nType="-99"/>
            <Node pos="r" depth="3" NCoef="0" IVar="-1" Cut="0.0000000000000000e+00" cType="1" res="1.0814818553626537e-02" rms="2.9479622840881348e-01" purity="6.7738711833953857e-01" nType="-99"/>
          </Node>
        </Node>
      </Node>
    </BinaryTree>
    <BinaryTree type="DecisionTree" boostWeight="1.0000000000000000e+00" itree="204">
      <Node pos="s" depth="0" NCoef="0" IVar="0" Cut="1.6877257080078125e+03" cType="1" res="4.6338423271663487e-04" rms="2.8932043910026550e-01" purity="4.9982622265815735e-01" nType="0">
        <Node pos="l" depth="1" NCoef="0" IVar="2" Cut="2.6218933105468750e+02" cType="1" res="-2.0606922917068005e-03" rms="3.0349728465080261e-01" purity="3.1538286805152893e-01" nType="0">
          <Node pos="l" depth="2" NCoef="0" IVar="0" Cut="1.0533400878906250e+03" cType="1" res="1.0101803578436375e-02" rms="2.9478344321250916e-01" purity="3.5123926401138306e-01" nType="0">
            <Node pos="l" depth="3" NCoef="0" IVar="-1" Cut="0.0000000000000000e+00" cType="1" res="-1.5423060394823551e-02" rms="1.9166451692581177e-01" purity="4.0740098804235458e-02" nType="-99"/>
            <Node pos="r" depth="3" NCoef="0" IVar="-1" Cut="0.0000000000000000e+00" cType="1" res="1.6642818227410316e-02" rms="3.3926200866699219e-01" purity="5.2728039026260376e-01" nType="-99"/>
          </Node>
          <Node pos="r" depth="2" NCoef="0" IVar="8" Cut="6.6661250591278076e-01" cType="1" res="-7.3762559331953526e-03" rms="3.0707681179046631e-01" purity="2.9971200227737427e-01" nType="0">
            <Node pos="l" depth="3" NCoef="0" IVar="-1" Cut="0.0000000000000000e+00" cType="1" res="-3.2920222729444504e-03" rms="3.2001858949661255e-01" purity="3.3304736018180847e-01" nType="-99"/>
            <Node pos="r" depth="3" NCoef="0" IVar="-1" Cut="0.0000000000000000e+00" cType="1" res="-2.0884927362203598e-02" rms="2.7130764722824097e-01" purity="2.1532969176769257e-01" nType="-99"/>
          </Node>
        </Node>
        <Node pos="r" depth="1" NCoef="0" IVar="5" Cut="9.3022583007812500e+01" cType="1" res="5.1997653208673000e-03" rms="2.6057907938957214e-01" purity="8.4593057632446289e-01" nType="0">
          <Node pos="l" depth="2" NCoef="0" IVar="11" Cut="-7.9078274965286255e-01" cType="1" res="1.9047327339649200e-02" rms="3.4011569619178772e-01" purity="6.7784136533737183e-01" nType="0">
            <Node pos="l" depth="3" NCoef="0" IVar="-1" Cut="0.0000000000000000e+00" cType="1" res="5.8204662054777145e-03" rms="3.5956183075904846e-01" purity="5.7908892631530762e-01" nType="-99"/>
            <Node pos="r" depth="3" NCoef="0" IVar="-1" Cut="0.0000000000000000e+00" cType="1" res="3.3834550529718399e-02" rms="3.0823978781700134e-01" purity="8.2440119981765747e-01" nType="-99"/>
          </Node>
          <Node pos="r" depth="2" NCoef="0" IVar="11" Cut="5.9013569355010986e-01" cType="1" res="-1.1306384112685919e-03" rms="2.1431845426559448e-01" purity="9.2277252674102783e-01" nType="0">
            <Node pos="l" depth="3" NCoef="0" IVar="-1" Cut="0.0000000000000000e+00" cType="1" res="4.9121263436973095e-03" rms="2.1339058876037598e-01" purity="9.2249464988708496e-01" nType="-99"/>
            <Node pos="r" depth="3" NCoef="0" IVar="-1" Cut="0.0000000000000000e+00" cType="1" res="-2.6636866852641106e-02" rms="2.1671260893344879e-01" purity="9.2359703779220581e-01" nType="-99"/>
          </Node>
        </Node>
      </Node>
    </BinaryTree>
    <BinaryTree type="DecisionTree" boostWeight="1.0000000000000000e+00" itree="205">
      <Node pos="s" depth="0" NCoef="0" IVar="9" Cut="-1.3334946334362030e-01" cType="1" res="-2.2405264899134636e-03" rms="2.8961083292961121e-01" purity="4.9845942854881287e-01" nType="0">
        <Node pos="l" depth="1" NCoef="0" IVar="2" Cut="6.5254827880859375e+02" cType="1" res="-6.7204781807959080e-03" rms="2.9099240899085999e-01" purity="4.8182660341262817e-01" nType="0">
          <Node pos="l" depth="2" NCoef="0" IVar="9" Cut="-5.1427710056304932e-01" cType="1" res="-4.9406816251575947e-03" rms="2.8882145881652832e-01" purity="4.7912889719009399e-01" nType="0">
            <Node pos="l" depth="3" NCoef="0" IVar="-1" Cut="0.0000000000000000e+00" cType="1" res="-1.8856525421142578e-03" rms="2.8951403498649597e-01" purity="4.3344849348068237e-01" nType="-99"/>
            <Node pos="r" depth="3" NCoef="0" IVar="-1" Cut="0.0000000000000000e+00" cType="1" res="-1.5407438389956951e-02" rms="2.8704029321670532e-01" purity="5.8620446920394897e-01" nType="-99"/>
          </Node>
          <Node pos="r" depth="2" NCoef="0" IVar="-1" Cut="0.0000000000000000e+00" cType="1" res="-3.2198674976825714e-02" rms="3.2281136512756348e-01" purity="5.2557867765426636e-01" nType="-99"/>
        </Node>
        <Node pos="r" depth="1" NCoef="0" IVar="1" Cut="1.0437739640474319e-01" cType="1" res="1.3594742631539702e-03" rms="2.8844544291496277e-01" purity="5.1182520389556885e-01" nType="0">
          <Node pos="l" depth="2" NCoef="0" IVar="5" Cut="9.3022583007812500e+01" cType="1" res="-2.0811976864933968e-03" rms="2.9590967297554016e-01" purity="3.7804183363914490e-01" nType="0">
            <Node pos="l" depth="3" NCoef="0" IVar="-1" Cut="0.0000000000000000e+00" cType="1" res="1.7121412092819810e-03" rms="2.9579958319664001e-01" purity="2.3133143782615662e-01" nType="-99"/>
            <Node pos="r" depth="3" NCoef="0" IVar="-1" Cut="0.0000000000000000e+00" cType="1" res="-1.1909543536603451e-02" rms="2.9599428176879883e-01" purity="7.4116104841232300e-01" nType="-99"/>
          </Node>
          <Node pos="r" depth="2" NCoef="0" IVar="3" Cut="2.3263400268554688e+02" cType="1" res="9.9279088899493217e-03" rms="2.6876685023307800e-01" purity="8.4499102830886841e-01" nType="0">
            <Node pos="l" depth="3" NCoef="0" IVar="-1" Cut="0.0000000000000000e+00" cType="1" res="2.2312590852379799e-02" rms="3.1150487065315247e-01" purity="7.6236766576766968e-01" nType="-99"/>
            <Node pos="r" depth="3" NCoef="0" IVar="-1" Cut="0.0000000000000000e+00" cType="1" res="1.8103076145052910e-03" rms="2.2868236899375916e-01" purity="9.1082406044006348e-01" nType="-99"/>
          </Node>
        </Node>
      </Node>
    </BinaryTree>
    <BinaryTree type="DecisionTree" boostWeight="1.0000000000000000e+00" itree="206">
      <Node pos="s" depth="0" NCoef="0" IVar="10" Cut="-1.7333047389984131e+00" cType="1" res="2.5756340473890305e-03" rms="2.9181799292564392e-01" purity="4.9930390715599060e-01" nType="0">
        <Node pos="l" depth="1" NCoef="0" IVar="3" Cut="2.3225473022460938e+02" cType="1" res="1.7479782924056053e-02" rms="3.0268424749374390e-01" purity="3.0856919288635254e-01" nType="0">
          <Node pos="l" depth="2" NCoef="0" IVar="-1" Cut="0.0000000000000000e+00" cType="1" res="3.3565048128366470e-02" rms="2.8871756792068481e-01" purity="2.3320637643337250e-01" nType="-99"/>
          <Node pos="r" depth="2" NCoef="0" IVar="-1" Cut="0.0000000000000000e+00" cType="1" res="1.2011668877676129e-03" rms="3.2810643315315247e-01" purity="4.5848447084426880e-01" nType="-99"/>
        </Node>
        <Node pos="r" depth="1" NCoef="0" IVar="7" Cut="-1.2055257707834244e-01" cType="1" res="1.3339507859200239e-03" rms="2.9085990786552429e-01" purity="5.1519429683685303e-01" nType="0">
          <Node pos="l" depth="2" NCoef="0" IVar="8" Cut="-1.1988093852996826e+00" cType="1" res="-3.2421059440821409e-03" rms="2.9002624750137329e-01" purity="4.8996761441230774e-01" nType="0">
            <Node pos="l" depth="3" NCoef="0" IVar="-1" Cut="0.0000000000000000e+00" cType="1" res="2.2152442485094070e-02" rms="2.7764862775802612e-01" purity="2.5788176059722900e-01" nType="-99"/>
            <Node pos="r" depth="3" NCoef="0" IVar="-1" Cut="0.0000000000000000e+00" cType="1" res="-6.8643405102193356e-03" rms="2.9159569740295410e-01" purity="5.2226114273071289e-01" nType="-99"/>
          </Node>
          <Node pos="r" depth="2" NCoef="0" IVar="9" Cut="1.1989736557006836e+00" cType="1" res="4.9177585169672966e-03" rms="2.9146099090576172e-01" purity="5.3495091199874878e-01" nType="0">
            <Node pos="l" depth="3" NCoef="0" IVar="-1" Cut="0.0000000000000000e+00" cType="1" res="2.4212414864450693e-03" rms="2.9016968607902527e-01" purity="5.6890714168548584e-01" nType="-99"/>
            <Node pos="r" depth="3" NCoef="0" IVar="-1" Cut="0.0000000000000000e+00" cType="1" res="2.7454424649477005e-02" rms="2.9879406094551086e-01" purity="3.2237634062767029e-01" nType="-99"/>
          </Node>
        </Node>
      </Node>
    </BinaryTree>
    <BinaryTree type="DecisionTree" boostWeight="1.0000000000000000e+00" itree="207">
      <Node pos="s" depth="0" NCoef="0" IVar="1" Cut="6.2696896493434906e-02" cType="1" res="2.5640300009399652e-03" rms="2.9286020994186401e-01" purity="5.0231522321701050e-01" nType="0">
        <Node pos="l" depth="1" NCoef="0" IVar="1" Cut="1.7913773655891418e-02" cType="1" res="6.7066065967082977e-03" rms="2.9135525226593018e-01" purity="2.7941182255744934e-01" nType="0">
          <Node pos="l" depth="2" NCoef="0" IVar="11" Cut="-2.3850262165069580e-01" cType="1" res="-1.2505446793511510e-03" rms="2.2492052614688873e-01" purity="1.0653745383024216e-01" nType="0">
            <Node pos="l" depth="3" NCoef="0" IVar="-1" Cut="0.0000000000000000e+00" cType="1" res="-9.0382145717740059e-03" rms="2.1126094460487366e-01" purity="8.3648338913917542e-02" nType="-99"/>
            <Node pos="r" depth="3" NCoef="0" IVar="-1" Cut="0.0000000000000000e+00" cType="1" res="2.0865080878138542e-02" rms="2.9918715357780457e-01" purity="2.5785192847251892e-01" nType="-99"/>
          </Node>
          <Node pos="r" depth="2" NCoef="0" IVar="10" Cut="-1.7330291271209717e+00" cType="1" res="1.1641842313110828e-02" rms="3.2572564482688904e-01" purity="3.8663303852081299e-01" nType="0">
            <Node pos="l" depth="3" NCoef="0" IVar="-1" Cut="0.0000000000000000e+00" cType="1" res="-1.8296465277671814e-02" rms="2.8534814715385437e-01" purity="1.9614852964878082e-01" nType="-99"/>
            <Node pos="r" depth="3" NCoef="0" IVar="-1" Cut="0.0000000000000000e+00" cType="1" res="1.3678058981895447e-02" rms="3.2919085025787354e-01" purity="4.0478238463401794e-01" nType="-99"/>
          </Node>
        </Node>
        <Node pos="r" depth="1" NCoef="0" IVar="10" Cut="-4.0011617541313171e-01" cType="1" res="-2.3057400248944759e-03" rms="2.9454505443572998e-01" purity="7.6434737443923950e-01" nType="0">
          <Node pos="l" depth="2" NCoef="0" IVar="0" Cut="1.5201667480468750e+03" cType="1" res="-9.4202319160103798e-03" rms="3.0941778421401978e-01" purity="7.4155616760253906e-01" nType="0">
            <Node pos="l" depth="3" NCoef="0" IVar="-1" Cut="0.0000000000000000e+00" cType="1" res="-1.5571444295346737e-02" rms="3.9076608419418335e-01" purity="4.9009579420089722e-01" nType="-99"/>
            <Node pos="r" depth="3" NCoef="0" IVar="-1" Cut="0.0000000000000000e+00" cType="1" res="-2.4743188987486064e-04" rms="2.3412489891052246e-01" purity="9.2131727933883667e-01" nType="-99"/>
          </Node>
          <Node pos="r" depth="2" NCoef="0" IVar="7" Cut="-7.5553119182586670e-02" cType="1" res="1.9040725892409682e-03" rms="2.8529617190361023e-01" purity="7.7783346176147461e-01" nType="0">
            <Node pos="l" depth="3" NCoef="0" IVar="-1" Cut="0.0000000000000000e+00" cType="1" res="-6.0193226672708988e-03" rms="2.8504863381385803e-01" purity="7.6999086141586304e-01" nType="-99"/>
            <Node pos="r" depth="3" NCoef="0" IVar="-1" Cut="0.0000000000000000e+00" cType="1" res="8.2708848640322685e-03" rms="2.8537589311599731e-01" purity="7.8378909826278687e-01" nType="-99"/>
          </Node>
        </Node>
      </Node>
    </BinaryTree>
    <BinaryTree type="DecisionTree" boostWeight="1.0000000000000000e+00" itree="208">
      <Node pos="s" depth="0" NCoef="0" IVar="10" Cut="-2.0000209808349609e+00" cType="1" res="1.0355979902669787e-03" rms="2.8842535614967346e-01" purity="5.0180476903915405e-01" nType="0">
        <Node pos="l" depth="1" NCoef="0" IVar="-1" Cut="0.0000000000000000e+00" cType="1" res="2.9085380956530571e-02" rms="2.9574829339981079e-01" purity="2.9603686928749084e-01" nType="-99"/>
        <Node pos="r" depth="1" NCoef="0" IVar="7" Cut="-1.0460089147090912e-01" cType="1" res="-1.8948345677927136e-04" rms="2.8798654675483704e-01" purity="5.1251089572906494e-01" nType="0">
          <Node pos="l" depth="2" NCoef="0" IVar="9" Cut="1.4667656421661377e+00" cType="1" res="3.8984827697277069e-03" rms="2.8741061687469482e-01" purity="5.0079905986785889e-01" nType="0">
            <Node pos="l" depth="3" NCoef="0" IVar="-1" Cut="0.0000000000000000e+00" cType="1" res="7.5322883203625679e-03" rms="2.9176253080368042e-01" purity="5.3034996986389160e-01" nType="-99"/>
            <Node pos="r" depth="3" NCoef="0" IVar="-1" Cut="0.0000000000000000e+00" cType="1" res="-3.9291005581617355e-02" rms="2.3116692900657654e-01" purity="1.6999638080596924e-01" nType="-99"/>
          </Node>
          <Node pos="r" depth="2" NCoef="0" IVar="9" Cut="9.3310928344726562e-01" cType="1" res="-3.5138314124196768e-03" rms="2.8841134905815125e-01" purity="5.2203512191772461e-01" nType="0">
            <Node pos="l" depth="3" NCoef="0" IVar="-1" Cut="0.0000000000000000e+00" cType="1" res="-8.4091043099761009e-03" rms="2.8747871518135071e-01" purity="5.5916911363601685e-01" nType="-99"/>
            <Node pos="r" depth="3" NCoef="0" IVar="-1" Cut="0.0000000000000000e+00" cType="1" res="1.1332922615110874e-02" rms="2.9142609238624573e-01" purity="3.8572508096694946e-01" nType="-99"/>
          </Node>
        </Node>
      </Node>
    </BinaryTree>
    <BinaryTree type="DecisionTree" boostWeight="1.0000000000000000e+00" itree="209">
      <Node pos="s" depth="0" NCoef="0" IVar="11" Cut="1.1428482532501221e+00" cType="1" res="-1.4081590052228421e-04" rms="2.8999185562133789e-01" purity="5.0025570392608643e-01" nType="0">
        <Node pos="l" depth="1" NCoef="0" IVar="10" Cut="-1.2000916004180908e+00" cType="1" res="-1.3521194923669100e-03" rms="2.8941613435745239e-01" purity="4.8137447237968445e-01" nType="0">
          <Node pos="l" depth="2" NCoef="0" IVar="5" Cut="9.1451492309570312e+01" cType="1" res="6.1951288953423500e-03" rms="2.9809811711311340e-01" purity="3.7049064040184021e-01" nType="0">
            <Node pos="l" depth="3" NCoef="0" IVar="-1" Cut="0.0000000000000000e+00" cType="1" res="1.6765458509325981e-02" rms="2.9829788208007812e-01" purity="2.4706348776817322e-01" nType="-99"/>
            <Node pos="r" depth="3" NCoef="0" IVar="-1" Cut="0.0000000000000000e+00" cType="1" res="-2.0145766437053680e-02" rms="2.9628309607505798e-01" purity="7.2548270225524902e-01" nType="-99"/>
          </Node>
          <Node pos="r" depth="2" NCoef="0" IVar="0" Cut="1.3358012695312500e+03" cType="1" res="-2.8827218338847160e-03" rms="2.8759929537773132e-01" purity="5.0386196374893188e-01" nType="0">
            <Node pos="l" depth="3" NCoef="0" IVar="-1" Cut="0.0000000000000000e+00" cType="1" res="-1.2989032082259655e-02" rms="2.7895203232765198e-01" purity="1.4741536974906921e-01" nType="-99"/>
            <Node pos="r" depth="3" NCoef="0" IVar="-1" Cut="0.0000000000000000e+00" cType="1" res="2.2436394356191158e-03" rms="2.9275959730148315e-01" purity="7.2615617513656616e-01" nType="-99"/>
          </Node>
        </Node>
        <Node pos="r" depth="1" NCoef="0" IVar="8" Cut="1.3577243685722351e-01" cType="1" res="1.1551009491086006e-02" rms="2.9523560404777527e-01" purity="6.8250244855880737e-01" nType="0">
          <Node pos="l" depth="2" NCoef="0" IVar="-1" Cut="0.0000000000000000e+00" cType="1" res="-4.1536160279065371e-04" rms="2.8927171230316162e-01" purity="6.8189167976379395e-01" nType="-99"/>
          <Node pos="r" depth="2" NCoef="0" IVar="-1" Cut="0.0000000000000000e+00" cType="1" res="2.4241970852017403e-02" rms="3.0047288537025452e-01" purity="6.8309694528579712e-01" nType="-99"/>
        </Node>
      </Node>
    </BinaryTree>
    <BinaryTree type="DecisionTree" boostWeight="1.0000000000000000e+00" itree="210">
      <Node pos="s" depth="0" NCoef="0" IVar="1" Cut="4.1799534112215042e-02" cType="1" res="1.5760449459776282e-03" rms="2.8715991973876953e-01" purity="5.0280666351318359e-01" nType="0">
        <Node pos="l" depth="1" NCoef="0" IVar="0" Cut="1.7444903564453125e+03" cType="1" res="-4.3627149425446987e-03" rms="2.6465213298797607e-01" purity="2.0645236968994141e-01" nType="0">
          <Node pos="l" depth="2" NCoef="0" IVar="0" Cut="1.5196062011718750e+03" cType="1" res="-2.0441256929188967e-03" rms="2.4556562304496765e-01" purity="1.1663324385881424e-01" nType="0">
            <Node pos="l" depth="3" NCoef="0" IVar="-1" Cut="0.0000000000000000e+00" cType="1" res="-1.1322098784148693e-02" rms="2.2027236223220825e-01" purity="7.9165264964103699e-02" nType="-99"/>
            <Node pos="r" depth="3" NCoef="0" IVar="-1" Cut="0.0000000000000000e+00" cType="1" res="1.8111189827322960e-02" rms="3.5760942101478577e-01" purity="3.3372095227241516e-01" nType="-99"/>
          </Node>
          <Node pos="r" depth="2" NCoef="0" IVar="0" Cut="2.0143392333984375e+03" cType="1" res="-1.4791683293879032e-02" rms="3.3720967173576355e-01" purity="6.1045694351196289e-01" nType="0">
            <Node pos="l" depth="3" NCoef="0" IVar="-1" Cut="0.0000000000000000e+00" cType="1" res="-2.3684445768594742e-02" rms="3.3884194493293762e-01" purity="4.9207112193107605e-01" nType="-99"/>
            <Node pos="r" depth="3" NCoef="0" IVar="-1" Cut="0.0000000000000000e+00" cType="1" res="-1.1927451705560088e-03" rms="3.3525934815406799e-01" purity="7.0858949422836304e-01" nType="-99"/>
          </Node>
        </Node>
        <Node pos="r" depth="1" NCoef="0" IVar="2" Cut="3.0035256958007812e+02" cType="1" res="5.7021924294531345e-03" rms="3.0174249410629272e-01" purity="7.0870846509933472e-01" nType="0">
          <Node pos="l" depth="2" NCoef="0" IVar="0" Cut="1.0834503173828125e+03" cType="1" res="1.6587363556027412e-02" rms="3.1759575009346008e-01" purity="6.1275559663772583e-01" nType="0">
            <Node pos="l" depth="3" NCoef="0" IVar="-1" Cut="0.0000000000000000e+00" cType="1" res="5.0195321440696716e-02" rms="3.1670701503753662e-01" purity="1.3653220236301422e-01" nType="-99"/>
            <Node pos="r" depth="3" NCoef="0" IVar="-1" Cut="0.0000000000000000e+00" cType="1" res="9.3008689582347870e-03" rms="3.1754797697067261e-01" purity="7.5100696086883545e-01" nType="-99"/>
          </Node>
          <Node pos="r" depth="2" NCoef="0" IVar="9" Cut="-1.2005904912948608e+00" cType="1" res="-3.7890468956902623e-04" rms="2.9233568906784058e-01" purity="7.6231330633163452e-01" nType="0">
            <Node pos="l" depth="3" NCoef="0" IVar="-1" Cut="0.0000000000000000e+00" cType="1" res="1.5157531015574932e-02" rms="3.4503480792045593e-01" purity="5.5253416299819946e-01" nType="-99"/>
            <Node pos="r" depth="3" NCoef="0" IVar="-1" Cut="0.0000000000000000e+00" cType="1" res="-2.5458433665335178e-03" rms="2.8675165772438049e-01" purity="7.8228485584259033e-01" nType="-99"/>
          </Node>
        </Node>
      </Node>
    </BinaryTree>
    <BinaryTree type="DecisionTree" boostWeight="1.0000000000000000e+00" itree="211">
      <Node pos="s" depth="0" NCoef="0" IVar="3" Cut="4.2869674682617188e+02" cType="1" res="-3.2203090377151966e-03" rms="2.8813055157661438e-01" purity="4.9819013476371765e-01" nType="0">
        <Node pos="l" depth="1" NCoef="0" IVar="0" Cut="1.5506364746093750e+03" cType="1" res="-2.3484383709728718e-03" rms="2.8777888417243958e-01" purity="4.8647823929786682e-01" nType="0">
          <Node pos="l" depth="2" NCoef="0" IVar="4" Cut="1.3364251708984375e+02" cType="1" res="-6.2492634169757366e-03" rms="3.0204468965530396e-01" purity="2.5899943709373474e-01" nType="0">
            <Node pos="l" depth="3" NCoef="0" IVar="-1" Cut="0.0000000000000000e+00" cType="1" res="4.8621166497468948e-03" rms="2.6524457335472107e-01" purity="1.5431541204452515e-01" nType="-99"/>
            <Node pos="r" depth="3" NCoef="0" IVar="-1" Cut="0.0000000000000000e+00" cType="1" res="-1.6884155571460724e-02" rms="3.4985128045082092e-01" purity="4.1705855727195740e-01" nType="-99"/>
          </Node>
          <Node pos="r" depth="2" NCoef="0" IVar="4" Cut="2.8434756469726562e+02" cType="1" res="3.2235884573310614e-03" rms="2.6597878336906433e-01" purity="8.1141412258148193e-01" nType="0">
            <Node pos="l" depth="3" NCoef="0" IVar="-1" Cut="0.0000000000000000e+00" cType="1" res="6.7839226685464382e-03" rms="2.6850995421409607e-01" purity="8.0454540252685547e-01" nType="-99"/>
            <Node pos="r" depth="3" NCoef="0" IVar="-1" Cut="0.0000000000000000e+00" cType="1" res="-2.0121846348047256e-02" rms="2.4359668791294098e-01" purity="8.6787009239196777e-01" nType="-99"/>
          </Node>
        </Node>
        <Node pos="r" depth="1" NCoef="0" IVar="-1" Cut="0.0000000000000000e+00" cType="1" res="-2.4313716217875481e-02" rms="2.9465436935424805e-01" purity="7.3727536201477051e-01" nType="-99"/>
      </Node>
    </BinaryTree>
    <BinaryTree type="DecisionTree" boostWeight="1.0000000000000000e+00" itree="212">
      <Node pos="s" depth="0" NCoef="0" IVar="7" Cut="-9.2584401369094849e-01" cType="1" res="-2.1285065449774265e-03" rms="2.8897967934608459e-01" purity="4.9914264678955078e-01" nType="0">
        <Node pos="l" depth="1" NCoef="0" IVar="4" Cut="1.9865660095214844e+02" cType="1" res="-1.1446616612374783e-02" rms="2.5528943538665771e-01" purity="2.2384931147098541e-01" nType="0">
          <Node pos="l" depth="2" NCoef="0" IVar="10" Cut="-9.3335533142089844e-01" cType="1" res="-4.5934151858091354e-03" rms="2.4455286562442780e-01" purity="1.7056730389595032e-01" nType="0">
            <Node pos="l" depth="3" NCoef="0" IVar="-1" Cut="0.0000000000000000e+00" cType="1" res="-4.1434947401285172e-02" rms="2.1344777941703796e-01" purity="1.1155748367309570e-01" nType="-99"/>
            <Node pos="r" depth="3" NCoef="0" IVar="-1" Cut="0.0000000000000000e+00" cType="1" res="6.5258890390396118e-03" rms="2.5759071111679077e-01" purity="1.9868548214435577e-01" nType="-99"/>
          </Node>
          <Node pos="r" depth="2" NCoef="0" IVar="-1" Cut="0.0000000000000000e+00" cType="1" res="-4.3450750410556793e-02" rms="3.0003541707992554e-01" purity="4.8394462466239929e-01" nType="-99"/>
        </Node>
        <Node pos="r" depth="1" NCoef="0" IVar="8" Cut="-1.2000734806060791e+00" cType="1" res="-4.9689417937770486e-04" rms="2.9445227980613708e-01" purity="5.4734683036804199e-01" nType="0">
          <Node pos="l" depth="2" NCoef="0" IVar="4" Cut="1.1511212158203125e+02" cType="1" res="-1.4713205397129059e-02" rms="2.5108206272125244e-01" purity="2.1835710108280182e-01" nType="0">
            <Node pos="l" depth="3" NCoef="0" IVar="-1" Cut="0.0000000000000000e+00" cType="1" res="1.0343221016228199e-02" rms="1.8831156194210052e-01" purity="5.1116690039634705e-02" nType="-99"/>
            <Node pos="r" depth="3" NCoef="0" IVar="-1" Cut="0.0000000000000000e+00" cType="1" res="-2.6996355503797531e-02" rms="2.8283300995826721e-01" purity="3.2319808006286621e-01" nType="-99"/>
          </Node>
          <Node pos="r" depth="2" NCoef="0" IVar="4" Cut="1.6109332275390625e+02" cType="1" res="1.1543796863406897e-03" rms="2.9903864860534668e-01" purity="5.8556014299392700e-01" nType="0">
            <Node pos="l" depth="3" NCoef="0" IVar="-1" Cut="0.0000000000000000e+00" cType="1" res="5.3941393271088600e-03" rms="3.1828215718269348e-01" purity="3.5347220301628113e-01" nType="-99"/>
            <Node pos="r" depth="3" NCoef="0" IVar="-1" Cut="0.0000000000000000e+00" cType="1" res="-3.4576083999127150e-03" rms="2.7954351902008057e-01" purity="8.0531466007232666e-01" nType="-99"/>
          </Node>
        </Node>
      </Node>
    </BinaryTree>
    <BinaryTree type="DecisionTree" boostWeight="1.0000000000000000e+00" itree="213">
      <Node pos="s" depth="0" NCoef="0" IVar="7" Cut="1.3843199610710144e-01" cType="1" res="-7.5669965008273721e-04" rms="2.9258388280868530e-01" purity="4.9736982583999634e-01" nType="0">
        <Node pos="l" depth="1" NCoef="0" IVar="1" Cut="1.2276313453912735e-01" cType="1" res="2.8524438384920359e-03" rms="2.9600483179092407e-01" purity="5.2177631855010986e-01" nType="0">
          <Node pos="l" depth="2" NCoef="0" IVar="5" Cut="9.7552787780761719e+01" cType="1" res="5.9408294036984444e-03" rms="3.0763867497444153e-01" purity="4.2064991593360901e-01" nType="0">
            <Node pos="l" depth="3" NCoef="0" IVar="-1" Cut="0.0000000000000000e+00" cType="1" res="1.0890680365264416e-02" rms="3.1349003314971924e-01" purity="2.8233689069747925e-01" nType="-99"/>
            <Node pos="r" depth="3" NCoef="0" IVar="-1" Cut="0.0000000000000000e+00" cType="1" res="-7.5824344530701637e-03" rms="2.9089424014091492e-01" purity="7.9417771100997925e-01" nType="-99"/>
          </Node>
          <Node pos="r" depth="2" NCoef="0" IVar="-1" Cut="0.0000000000000000e+00" cType="1" res="-1.1023041792213917e-02" rms="2.5376626849174500e-01" purity="8.5422897338867188e-01" nType="-99"/>
        </Node>
        <Node pos="r" depth="1" NCoef="0" IVar="8" Cut="-9.3320369720458984e-01" cType="1" res="-5.4470710456371307e-03" rms="2.8800979256629944e-01" purity="4.6565166115760803e-01" nType="0">
          <Node pos="l" depth="2" NCoef="0" IVar="5" Cut="7.4651115417480469e+01" cType="1" res="-2.3417998105287552e-02" rms="2.4492101371288300e-01" purity="2.0260322093963623e-01" nType="0">
            <Node pos="l" depth="3" NCoef="0" IVar="-1" Cut="0.0000000000000000e+00" cType="1" res="-2.9724156484007835e-02" rms="1.8315294384956360e-01" purity="5.0092540681362152e-02" nType="-99"/>
            <Node pos="r" depth="3" NCoef="0" IVar="-1" Cut="0.0000000000000000e+00" cType="1" res="-4.1991047561168671e-02" rms="3.1388792395591736e-01" purity="4.2786416411399841e-01" nType="-99"/>
          </Node>
          <Node pos="r" depth="2" NCoef="0" IVar="4" Cut="1.7779951477050781e+02" cType="1" res="-2.0355191081762314e-03" rms="2.9535740613937378e-01" purity="5.1558804512023926e-01" nType="0">
            <Node pos="l" depth="3" NCoef="0" IVar="-1" Cut="0.0000000000000000e+00" cType="1" res="-9.2022130265831947e-03" rms="3.0185475945472717e-01" purity="3.3858940005302429e-01" nType="-99"/>
            <Node pos="r" depth="3" NCoef="0" IVar="-1" Cut="0.0000000000000000e+00" cType="1" res="9.9118296056985855e-03" rms="2.8430369496345520e-01" purity="8.0000126361846924e-01" nType="-99"/>
          </Node>
        </Node>
      </Node>
    </BinaryTree>
    <BinaryTree type="DecisionTree" boostWeight="1.0000000000000000e+00" itree="214">
      <Node pos="s" depth="0" NCoef="0" IVar="3" Cut="2.4207023620605469e+02" cType="1" res="1.8348984885960817e-03" rms="2.8849676251411438e-01" purity="5.0215977430343628e-01" nType="0">
        <Node pos="l" depth="1" NCoef="0" IVar="4" Cut="1.8708865356445312e+02" cType="1" res="-1.9421036122366786e-03" rms="2.8625112771987915e-01" purity="3.6836478114128113e-01" nType="0">
          <Node pos="l" depth="2" NCoef="0" IVar="3" Cut="1.7007336425781250e+02" cType="1" res="-4.4583319686353207e-03" rms="2.8675112128257751e-01" purity="3.1366020441055298e-01" nType="0">
            <Node pos="l" depth="3" NCoef="0" IVar="-1" Cut="0.0000000000000000e+00" cType="1" res="2.3277690634131432e-03" rms="2.5593775510787964e-01" purity="1.8466910719871521e-01" nType="-99"/>
            <Node pos="r" depth="3" NCoef="0" IVar="-1" Cut="0.0000000000000000e+00" cType="1" res="-1.0915953665971756e-02" rms="3.1526893377304077e-01" purity="4.4669264554977417e-01" nType="-99"/>
          </Node>
          <Node pos="r" depth="2" NCoef="0" IVar="-1" Cut="0.0000000000000000e+00" cType="1" res="1.8702646717429161e-02" rms="2.8195884823799133e-01" purity="7.6257556676864624e-01" nType="-99"/>
        </Node>
        <Node pos="r" depth="1" NCoef="0" IVar="0" Cut="1.5074085693359375e+03" cType="1" res="7.3552657850086689e-03" rms="2.9165983200073242e-01" purity="6.9771099090576172e-01" nType="0">
          <Node pos="l" depth="2" NCoef="0" IVar="3" Cut="2.7544125366210938e+02" cType="1" res="2.2224102169275284e-02" rms="3.4726497530937195e-01" purity="2.9872345924377441e-01" nType="0">
            <Node pos="l" depth="3" NCoef="0" IVar="-1" Cut="0.0000000000000000e+00" cType="1" res="4.5374515466392040e-03" rms="3.4575468301773071e-01" purity="3.1447219848632812e-01" nType="-99"/>
            <Node pos="r" depth="3" NCoef="0" IVar="-1" Cut="0.0000000000000000e+00" cType="1" res="3.7906020879745483e-02" rms="3.4799188375473022e-01" purity="2.7925881743431091e-01" nType="-99"/>
          </Node>
          <Node pos="r" depth="2" NCoef="0" IVar="7" Cut="7.4314409494400024e-01" cType="1" res="3.9338502101600170e-03" rms="2.7717822790145874e-01" purity="7.8952062129974365e-01" nType="0">
            <Node pos="l" depth="3" NCoef="0" IVar="-1" Cut="0.0000000000000000e+00" cType="1" res="8.5554309189319611e-03" rms="2.7220970392227173e-01" purity="8.2045662403106689e-01" nType="-99"/>
            <Node pos="r" depth="3" NCoef="0" IVar="-1" Cut="0.0000000000000000e+00" cType="1" res="-1.3321306556463242e-02" rms="3.0478838086128235e-01" purity="6.0356193780899048e-01" nType="-99"/>
          </Node>
        </Node>
      </Node>
    </BinaryTree>
    <BinaryTree type="DecisionTree" boostWeight="1.0000000000000000e+00" itree="215">
      <Node pos="s" depth="0" NCoef="0" IVar="8" Cut="-3.9999249577522278e-01" cType="1" res="7.4797135312110186e-04" rms="2.8924694657325745e-01" purity="5.0048011541366577e-01" nType="0">
        <Node pos="l" depth="1" NCoef="0" IVar="10" Cut="6.6610074043273926e-01" cType="1" res="-4.6215555630624294e-03" rms="2.8704890608787537e-01" purity="4.3037858605384827e-01" nType="0">
          <Node pos="l" depth="2" NCoef="0" IVar="2" Cut="5.5311572265625000e+02" cType="1" res="-6.3139852136373520e-04" rms="2.8976884484291077e-01" purity="4.4886285066604614e-01" nType="0">
            <Node pos="l" depth="3" NCoef="0" IVar="-1" Cut="0.0000000000000000e+00" cType="1" res="-4.9266628921031952e-03" rms="2.8492873907089233e-01" purity="4.3309944868087769e-01" nType="-99"/>
            <Node pos="r" depth="3" NCoef="0" IVar="-1" Cut="0.0000000000000000e+00" cType="1" res="2.1954029798507690e-02" rms="3.2044607400894165e-01" purity="5.5844491720199585e-01" nType="-99"/>
          </Node>
          <Node pos="r" depth="2" NCoef="0" IVar="8" Cut="-9.7104418277740479e-01" cType="1" res="-1.6274230554699898e-02" rms="2.7862697839736938e-01" purity="3.7639787793159485e-01" nType="0">
            <Node pos="l" depth="3" NCoef="0" IVar="-1" Cut="0.0000000000000000e+00" cType="1" res="-3.0874037183821201e-03" rms="2.6625201106071472e-01" purity="2.3045682907104492e-01" nType="-99"/>
            <Node pos="r" depth="3" NCoef="0" IVar="-1" Cut="0.0000000000000000e+00" cType="1" res="-3.1123880296945572e-02" rms="2.8899043798446655e-01" purity="5.1144999265670776e-01" nType="-99"/>
          </Node>
        </Node>
        <Node pos="r" depth="1" NCoef="0" IVar="3" Cut="1.3133668518066406e+02" cType="1" res="3.5002522636204958e-03" rms="2.9032865166664124e-01" purity="5.3641241788864136e-01" nType="0">
          <Node pos="l" depth="2" NCoef="0" IVar="0" Cut="1.0460478515625000e+03" cType="1" res="-1.5925580635666847e-02" rms="2.0687389373779297e-01" purity="8.0179490149021149e-02" nType="0">
            <Node pos="l" depth="3" NCoef="0" IVar="-1" Cut="0.0000000000000000e+00" cType="1" res="-9.9482489749789238e-03" rms="1.6568146646022797e-01" purity="3.2382965087890625e-02" nType="-99"/>
            <Node pos="r" depth="3" NCoef="0" IVar="-1" Cut="0.0000000000000000e+00" cType="1" res="-3.9388418197631836e-02" rms="2.4761451780796051e-01" purity="1.3926754891872406e-01" nType="-99"/>
          </Node>
          <Node pos="r" depth="2" NCoef="0" IVar="11" Cut="5.8940476179122925e-01" cType="1" res="5.8354754000902176e-03" rms="2.9871055483818054e-01" purity="5.9125721454620361e-01" nType="0">
            <Node pos="l" depth="3" NCoef="0" IVar="-1" Cut="0.0000000000000000e+00" cType="1" res="8.5794376209378242e-03" rms="3.0242753028869629e-01" purity="5.5072236061096191e-01" nType="-99"/>
            <Node pos="r" depth="3" NCoef="0" IVar="-1" Cut="0.0000000000000000e+00" cType="1" res="-3.3509347122162580e-03" rms="2.8257608413696289e-01" purity="7.5969702005386353e-01" nType="-99"/>
          </Node>
        </Node>
      </Node>
    </BinaryTree>
    <BinaryTree type="DecisionTree" boostWeight="1.0000000000000000e+00" itree="216">
      <Node pos="s" depth="0" NCoef="0" IVar="7" Cut="-9.2586350440979004e-01" cType="1" res="1.8643537769094110e-03" rms="2.8903770446777344e-01" purity="5.0103724002838135e-01" nType="0">
        <Node pos="l" depth="1" NCoef="0" IVar="2" Cut="2.9229815673828125e+02" cType="1" res="-9.9467560648918152e-03" rms="2.5051206350326538e-01" purity="2.2991602122783661e-01" nType="0">
          <Node pos="l" depth="2" NCoef="0" IVar="-1" Cut="0.0000000000000000e+00" cType="1" res="-1.8875350942835212e-03" rms="2.5706908106803894e-01" purity="2.1750998497009277e-01" nType="-99"/>
          <Node pos="r" depth="2" NCoef="0" IVar="1" Cut="3.9176620543003082e-02" cType="1" res="-1.5371743589639664e-02" rms="2.4615134298801422e-01" purity="2.3770472407341003e-01" nType="0">
            <Node pos="l" depth="3" NCoef="0" IVar="-1" Cut="0.0000000000000000e+00" cType="1" res="-1.5493251383304596e-02" rms="2.1362897753715515e-01" purity="1.1280496418476105e-01" nType="-99"/>
            <Node pos="r" depth="3" NCoef="0" IVar="-1" Cut="0.0000000000000000e+00" cType="1" res="-3.1837828457355499e-02" rms="3.1490942835807800e-01" purity="5.6358861923217773e-01" nType="-99"/>
          </Node>
        </Node>
        <Node pos="r" depth="1" NCoef="0" IVar="8" Cut="-9.3306678533554077e-01" cType="1" res="3.9387219585478306e-03" rms="2.9523664712905884e-01" purity="5.4865384101867676e-01" nType="0">
          <Node pos="l" depth="2" NCoef="0" IVar="8" Cut="-1.5552312135696411e+00" cType="1" res="1.3483177870512009e-02" rms="2.9195803403854370e-01" purity="3.3376073837280273e-01" nType="0">
            <Node pos="l" depth="3" NCoef="0" IVar="-1" Cut="0.0000000000000000e+00" cType="1" res="-1.5428878832608461e-03" rms="2.3347736895084381e-01" purity="1.4842337369918823e-01" nType="-99"/>
            <Node pos="r" depth="3" NCoef="0" IVar="-1" Cut="0.0000000000000000e+00" cType="1" res="2.2856958210468292e-02" rms="3.2167130708694458e-01" purity="4.4493138790130615e-01" nType="-99"/>
          </Node>
          <Node pos="r" depth="2" NCoef="0" IVar="9" Cut="-4.0000143647193909e-01" cType="1" res="2.1831043995916843e-03" rms="2.9580223560333252e-01" purity="5.8818149566650391e-01" nType="0">
            <Node pos="l" depth="3" NCoef="0" IVar="-1" Cut="0.0000000000000000e+00" cType="1" res="8.4334118291735649e-03" rms="3.0320987105369568e-01" purity="5.6043696403503418e-01" nType="-99"/>
            <Node pos="r" depth="3" NCoef="0" IVar="-1" Cut="0.0000000000000000e+00" cType="1" res="-6.1711343005299568e-04" rms="2.9210829734802246e-01" purity="6.0161840915679932e-01" nType="-99"/>
          </Node>
        </Node>
      </Node>
    </BinaryTree>
    <BinaryTree type="DecisionTree" boostWeight="1.0000000000000000e+00" itree="217">
      <Node pos="s" depth="0" NCoef="0" IVar="4" Cut="2.7017102050781250e+02" cType="1" res="-1.7054624622687697e-03" rms="2.9062277078628540e-01" purity="4.9646663665771484e-01" nType="0">
        <Node pos="l" depth="1" NCoef="0" IVar="4" Cut="1.3428375244140625e+02" cType="1" res="-6.8494072183966637e-04" rms="2.9362440109252930e-01" purity="4.6297842264175415e-01" nType="0">
          <Node pos="l" depth="2" NCoef="0" IVar="10" Cut="6.6612148284912109e-01" cType="1" res="-6.4840642735362053e-03" rms="2.7092361450195312e-01" purity="1.8489338457584381e-01" nType="0">
            <Node pos="l" depth="3" NCoef="0" IVar="-1" Cut="0.0000000000000000e+00" cType="1" res="-1.5410070307552814e-02" rms="2.7072992920875549e-01" purity="1.8778973817825317e-01" nType="-99"/>
            <Node pos="r" depth="3" NCoef="0" IVar="-1" Cut="0.0000000000000000e+00" cType="1" res="6.5359883010387421e-03" rms="2.7097192406654358e-01" purity="1.7896349728107452e-01" nType="-99"/>
          </Node>
          <Node pos="r" depth="2" NCoef="0" IVar="1" Cut="4.1799534112215042e-02" cType="1" res="3.5116183571517467e-03" rms="3.0894571542739868e-01" purity="6.6421580314636230e-01" nType="0">
            <Node pos="l" depth="3" NCoef="0" IVar="-1" Cut="0.0000000000000000e+00" cType="1" res="1.2034431099891663e-02" rms="3.2208248972892761e-01" purity="3.4907993674278259e-01" nType="-99"/>
            <Node pos="r" depth="3" NCoef="0" IVar="-1" Cut="0.0000000000000000e+00" cType="1" res="-8.4254803368821740e-04" rms="3.0278107523918152e-01" purity="8.0533760786056519e-01" nType="-99"/>
          </Node>
        </Node>
        <Node pos="r" depth="1" NCoef="0" IVar="0" Cut="2.4166335449218750e+03" cType="1" res="-1.2579699978232384e-02" rms="2.5621417164802551e-01" purity="8.5330241918563843e-01" nType="0">
          <Node pos="l" depth="2" NCoef="0" IVar="-1" Cut="0.0000000000000000e+00" cType="1" res="-3.5066273063421249e-02" rms="2.8922370076179504e-01" purity="7.9205828905105591e-01" nType="-99"/>
          <Node pos="r" depth="2" NCoef="0" IVar="-1" Cut="0.0000000000000000e+00" cType="1" res="1.5711510553956032e-02" rms="2.0051939785480499e-01" purity="9.3745750188827515e-01" nType="-99"/>
        </Node>
      </Node>
    </BinaryTree>
    <BinaryTree type="DecisionTree" boostWeight="1.0000000000000000e+00" itree="218">
      <Node pos="s" depth="0" NCoef="0" IVar="11" Cut="1.6952279806137085e+00" cType="1" res="-7.5338053284212947e-04" rms="2.8996157646179199e-01" purity="4.9951016902923584e-01" nType="0">
        <Node pos="l" depth="1" NCoef="0" IVar="9" Cut="-1.3366018235683441e-01" cType="1" res="4.8836500354809687e-05" rms="2.8954643011093140e-01" purity="4.9602532386779785e-01" nType="0">
          <Node pos="l" depth="2" NCoef="0" IVar="10" Cut="-1.1999853849411011e+00" cType="1" res="4.3534245342016220e-03" rms="2.9322832822799683e-01" purity="4.8463791608810425e-01" nType="0">
            <Node pos="l" depth="3" NCoef="0" IVar="-1" Cut="0.0000000000000000e+00" cType="1" res="-9.3373144045472145e-03" rms="2.7582028508186340e-01" purity="3.3929923176765442e-01" nType="-99"/>
            <Node pos="r" depth="3" NCoef="0" IVar="-1" Cut="0.0000000000000000e+00" cType="1" res="8.3054751157760620e-03" rms="2.9712986946105957e-01" purity="5.1907974481582642e-01" nType="-99"/>
          </Node>
          <Node pos="r" depth="2" NCoef="0" IVar="4" Cut="1.6200474548339844e+02" cType="1" res="-3.5289116203784943e-03" rms="2.8640097379684448e-01" purity="5.0548994541168213e-01" nType="0">
            <Node pos="l" depth="3" NCoef="0" IVar="-1" Cut="0.0000000000000000e+00" cType="1" res="2.6069972664117813e-03" rms="2.8962066769599915e-01" purity="2.8657913208007812e-01" nType="-99"/>
            <Node pos="r" depth="3" NCoef="0" IVar="-1" Cut="0.0000000000000000e+00" cType="1" res="-1.2326353229582310e-02" rms="2.8252741694450378e-01" purity="7.5609803199768066e-01" nType="-99"/>
          </Node>
        </Node>
        <Node pos="r" depth="1" NCoef="0" IVar="-1" Cut="0.0000000000000000e+00" cType="1" res="-1.9732082262635231e-02" rms="2.9904654622077942e-01" purity="5.8253586292266846e-01" nType="-99"/>
      </Node>
    </BinaryTree>
    <BinaryTree type="DecisionTree" boostWeight="1.0000000000000000e+00" itree="219">
      <Node pos="s" depth="0" NCoef="0" IVar="8" Cut="6.6646701097488403e-01" cType="1" res="4.8306089593097568e-04" rms="2.8810712695121765e-01" purity="5.0129276514053345e-01" nType="0">
        <Node pos="l" depth="1" NCoef="0" IVar="9" Cut="-6.6664254665374756e-01" cType="1" res="2.2591901943087578e-03" rms="2.9092904925346375e-01" purity="5.4447579383850098e-01" nType="0">
          <Node pos="l" depth="2" NCoef="0" IVar="8" Cut="-6.5364712476730347e-01" cType="1" res="-4.7791027463972569e-03" rms="2.9972502589225769e-01" purity="4.3519839644432068e-01" nType="0">
            <Node pos="l" depth="3" NCoef="0" IVar="-1" Cut="0.0000000000000000e+00" cType="1" res="1.3952743262052536e-02" rms="2.9320293664932251e-01" purity="3.1108736991882324e-01" nType="-99"/>
            <Node pos="r" depth="3" NCoef="0" IVar="-1" Cut="0.0000000000000000e+00" cType="1" res="-1.6547052189707756e-02" rms="3.0354252457618713e-01" purity="5.1821511983871460e-01" nType="-99"/>
          </Node>
          <Node pos="r" depth="2" NCoef="0" IVar="2" Cut="4.5450225830078125e+02" cType="1" res="4.8560621216893196e-03" rms="2.8757220506668091e-01" purity="5.8479511737823486e-01" nType="0">
            <Node pos="l" depth="3" NCoef="0" IVar="-1" Cut="0.0000000000000000e+00" cType="1" res="9.1619230806827545e-03" rms="2.8708609938621521e-01" purity="5.5045241117477417e-01" nType="-99"/>
            <Node pos="r" depth="3" NCoef="0" IVar="-1" Cut="0.0000000000000000e+00" cType="1" res="-3.0022356659173965e-03" rms="2.8868621587753296e-01" purity="6.7307704687118530e-01" nType="-99"/>
          </Node>
        </Node>
        <Node pos="r" depth="1" NCoef="0" IVar="11" Cut="-2.4477839469909668e+00" cType="1" res="-4.8022051341831684e-03" rms="2.7947470545768738e-01" purity="3.7279212474822998e-01" nType="0">
          <Node pos="l" depth="2" NCoef="0" IVar="1" Cut="1.6076313331723213e-02" cType="1" res="-1.2588985264301300e-02" rms="2.6292645931243896e-01" purity="1.3457398116588593e-01" nType="0">
            <Node pos="l" depth="3" NCoef="0" IVar="-1" Cut="0.0000000000000000e+00" cType="1" res="1.6217973083257675e-02" rms="1.7634613811969757e-01" purity="5.5645097047090530e-02" nType="-99"/>
            <Node pos="r" depth="3" NCoef="0" IVar="-1" Cut="0.0000000000000000e+00" cType="1" res="-2.4690177291631699e-02" rms="3.0317109823226929e-01" purity="1.8250909447669983e-01" nType="-99"/>
          </Node>
          <Node pos="r" depth="2" NCoef="0" IVar="8" Cut="1.3773694038391113e+00" cType="1" res="4.1816369630396366e-03" rms="2.9717177152633667e-01" purity="6.4763152599334717e-01" nType="0">
            <Node pos="l" depth="3" NCoef="0" IVar="-1" Cut="0.0000000000000000e+00" cType="1" res="1.1800574138760567e-02" rms="3.0127504467964172e-01" purity="7.4880361557006836e-01" nType="-99"/>
            <Node pos="r" depth="3" NCoef="0" IVar="-1" Cut="0.0000000000000000e+00" cType="1" res="-1.3127543963491917e-02" rms="2.8580233454704285e-01" purity="3.9135998487472534e-01" nType="-99"/>
          </Node>
        </Node>
      </Node>
    </BinaryTree>
    <BinaryTree type="DecisionTree" boostWeight="1.0000000000000000e+00" itree="220">
      <Node pos="s" depth="0" NCoef="0" IVar="0" Cut="1.4400944824218750e+03" cType="1" res="2.7567283250391483e-03" rms="2.9153069853782654e-01" purity="5.0668722391128540e-01" nType="0">
        <Node pos="l" depth="1" NCoef="0" IVar="9" Cut="-4.0005892515182495e-01" cType="1" res="9.3235019594430923e-03" rms="3.0057039856910706e-01" purity="2.2086076438426971e-01" nType="0">
          <Node pos="l" depth="2" NCoef="0" IVar="4" Cut="1.5401893615722656e+02" cType="1" res="1.7764579504728317e-02" rms="3.0087754130363464e-01" purity="2.1384000778198242e-01" nType="0">
            <Node pos="l" depth="3" NCoef="0" IVar="-1" Cut="0.0000000000000000e+00" cType="1" res="1.4414148405194283e-02" rms="2.8110182285308838e-01" purity="1.6973504424095154e-01" nType="-99"/>
            <Node pos="r" depth="3" NCoef="0" IVar="-1" Cut="0.0000000000000000e+00" cType="1" res="3.6564964801073074e-02" rms="3.6927717924118042e-01" purity="3.9337375760078430e-01" nType="-99"/>
          </Node>
          <Node pos="r" depth="2" NCoef="0" IVar="3" Cut="1.7169190979003906e+02" cType="1" res="4.1634174995124340e-03" rms="3.0026566982269287e-01" purity="2.2515262663364410e-01" nType="0">
            <Node pos="l" depth="3" NCoef="0" IVar="-1" Cut="0.0000000000000000e+00" cType="1" res="-5.5191507562994957e-03" rms="2.5173825025558472e-01" purity="1.3586731255054474e-01" nType="-99"/>
            <Node pos="r" depth="3" NCoef="0" IVar="-1" Cut="0.0000000000000000e+00" cType="1" res="1.0658343322575092e-02" rms="3.4068679809570312e-01" purity="3.1190806627273560e-01" nType="-99"/>
          </Node>
        </Node>
        <Node pos="r" depth="1" NCoef="0" IVar="9" Cut="-6.6666549444198608e-01" cType="1" res="-3.1338257249444723e-03" rms="2.8304687142372131e-01" purity="7.6308035850524902e-01" nType="0">
          <Node pos="l" depth="2" NCoef="0" IVar="10" Cut="6.6633981466293335e-01" cType="1" res="-1.2182398699223995e-02" rms="3.0292204022407532e-01" purity="6.8053984642028809e-01" nType="0">
            <Node pos="l" depth="3" NCoef="0" IVar="-1" Cut="0.0000000000000000e+00" cType="1" res="-2.2021509706974030e-02" rms="2.9786899685859680e-01" purity="6.8702423572540283e-01" nType="-99"/>
            <Node pos="r" depth="3" NCoef="0" IVar="-1" Cut="0.0000000000000000e+00" cType="1" res="1.0311414487659931e-02" rms="3.1693091988563538e-01" purity="6.6059356927871704e-01" nType="-99"/>
          </Node>
          <Node pos="r" depth="2" NCoef="0" IVar="0" Cut="2.3087419433593750e+03" cType="1" res="-4.7218703548423946e-04" rms="2.7687293291091919e-01" purity="7.8735971450805664e-01" nType="0">
            <Node pos="l" depth="3" NCoef="0" IVar="-1" Cut="0.0000000000000000e+00" cType="1" res="-3.4578575287014246e-03" rms="2.8724956512451172e-01" purity="7.6111078262329102e-01" nType="-99"/>
            <Node pos="r" depth="3" NCoef="0" IVar="-1" Cut="0.0000000000000000e+00" cType="1" res="2.1400889381766319e-02" rms="2.1661010384559631e-01" purity="9.1989445686340332e-01" nType="-99"/>
          </Node>
        </Node>
      </Node>
    </BinaryTree>
    <BinaryTree type="DecisionTree" boostWeight="1.0000000000000000e+00" itree="221">
      <Node pos="s" depth="0" NCoef="0" IVar="9" Cut="1.7332476377487183e+00" cType="1" res="-2.2687218151986599e-03" rms="2.8990024328231812e-01" purity="4.9615511298179626e-01" nType="0">
        <Node pos="l" depth="1" NCoef="0" IVar="1" Cut="2.0900322124361992e-02" cType="1" res="-3.4214295446872711e-03" rms="2.9199293255805969e-01" purity="5.1642870903015137e-01" nType="0">
          <Node pos="l" depth="2" NCoef="0" IVar="11" Cut="-1.8954010009765625e+00" cType="1" res="4.5370706357061863e-03" rms="2.3183548450469971e-01" purity="1.3996386528015137e-01" nType="0">
            <Node pos="l" depth="3" NCoef="0" IVar="-1" Cut="0.0000000000000000e+00" cType="1" res="-7.6688406988978386e-03" rms="2.0228883624076843e-01" purity="7.8208200633525848e-02" nType="-99"/>
            <Node pos="r" depth="3" NCoef="0" IVar="-1" Cut="0.0000000000000000e+00" cType="1" res="3.1244430691003799e-02" rms="3.0513337254524231e-01" purity="3.3367091417312622e-01" nType="-99"/>
          </Node>
          <Node pos="r" depth="2" NCoef="0" IVar="5" Cut="1.0434881591796875e+02" cType="1" res="-5.7772709988057613e-03" rms="3.0751207470893860e-01" purity="6.2786823511123657e-01" nType="0">
            <Node pos="l" depth="3" NCoef="0" IVar="-1" Cut="0.0000000000000000e+00" cType="1" res="-8.9669479057192802e-03" rms="3.4562993049621582e-01" purity="4.5940724015235901e-01" nType="-99"/>
            <Node pos="r" depth="3" NCoef="0" IVar="-1" Cut="0.0000000000000000e+00" cType="1" res="3.6966120824217796e-03" rms="2.3054556548595428e-01" purity="9.0741401910781860e-01" nType="-99"/>
          </Node>
        </Node>
        <Node pos="r" depth="1" NCoef="0" IVar="5" Cut="6.5426788330078125e+01" cType="1" res="1.6675280407071114e-02" rms="2.5228723883628845e-01" purity="1.6297152638435364e-01" nType="0">
          <Node pos="l" depth="2" NCoef="0" IVar="-1" Cut="0.0000000000000000e+00" cType="1" res="-3.0556423589587212e-03" rms="1.8568867444992065e-01" purity="3.9431046694517136e-02" nType="-99"/>
          <Node pos="r" depth="2" NCoef="0" IVar="-1" Cut="0.0000000000000000e+00" cType="1" res="3.9217140525579453e-02" rms="3.0627757310867310e-01" purity="2.9355713725090027e-01" nType="-99"/>
        </Node>
      </Node>
    </BinaryTree>
    <BinaryTree type="DecisionTree" boostWeight="1.0000000000000000e+00" itree="222">
      <Node pos="s" depth="0" NCoef="0" IVar="9" Cut="-9.3344956636428833e-01" cType="1" res="2.5189414154738188e-03" rms="2.9112327098846436e-01" purity="4.9977573752403259e-01" nType="0">
        <Node pos="l" depth="1" NCoef="0" IVar="3" Cut="2.3570095825195312e+02" cType="1" res="-8.9094415307044983e-03" rms="2.9210242629051208e-01" purity="3.3642914891242981e-01" nType="0">
          <Node pos="l" depth="2" NCoef="0" IVar="3" Cut="1.5756384277343750e+02" cType="1" res="-1.5058087883517146e-03" rms="2.7545237541198730e-01" purity="2.5775200128555298e-01" nType="0">
            <Node pos="l" depth="3" NCoef="0" IVar="-1" Cut="0.0000000000000000e+00" cType="1" res="1.9751241430640221e-02" rms="2.3729084432125092e-01" purity="1.1861275136470795e-01" nType="-99"/>
            <Node pos="r" depth="3" NCoef="0" IVar="-1" Cut="0.0000000000000000e+00" cType="1" res="-1.1253336444497108e-02" rms="3.0178382992744446e-01" purity="3.6731112003326416e-01" nType="-99"/>
          </Node>
          <Node pos="r" depth="2" NCoef="0" IVar="2" Cut="4.5873971557617188e+02" cType="1" res="-2.4039374664425850e-02" rms="3.2294633984565735e-01" purity="4.9721223115921021e-01" nType="0">
            <Node pos="l" depth="3" NCoef="0" IVar="-1" Cut="0.0000000000000000e+00" cType="1" res="-1.4776467345654964e-02" rms="3.2901754975318909e-01" purity="5.0521004199981689e-01" nType="-99"/>
            <Node pos="r" depth="3" NCoef="0" IVar="-1" Cut="0.0000000000000000e+00" cType="1" res="-3.4616485238075256e-02" rms="3.1338512897491455e-01" purity="4.8543345928192139e-01" nType="-99"/>
          </Node>
        </Node>
        <Node pos="r" depth="1" NCoef="0" IVar="10" Cut="-9.3338441848754883e-01" cType="1" res="5.2380897104740143e-03" rms="2.9082369804382324e-01" purity="5.3864067792892456e-01" nType="0">
          <Node pos="l" depth="2" NCoef="0" IVar="1" Cut="2.0563546568155289e-02" cType="1" res="1.5561090782284737e-02" rms="3.0151939392089844e-01" purity="4.8722732067108154e-01" nType="0">
            <Node pos="l" depth="3" NCoef="0" IVar="-1" Cut="0.0000000000000000e+00" cType="1" res="-9.2745376750826836e-03" rms="1.9395802915096283e-01" purity="8.8103868067264557e-02" nType="-99"/>
            <Node pos="r" depth="3" NCoef="0" IVar="-1" Cut="0.0000000000000000e+00" cType="1" res="2.1252455189824104e-02" rms="3.2600730657577515e-01" purity="6.0344332456588745e-01" nType="-99"/>
          </Node>
          <Node pos="r" depth="2" NCoef="0" IVar="11" Cut="1.4189273118972778e+00" cType="1" res="2.4077624548226595e-03" rms="2.8775709867477417e-01" purity="5.5273705720901489e-01" nType="0">
            <Node pos="l" depth="3" NCoef="0" IVar="-1" Cut="0.0000000000000000e+00" cType="1" res="1.2103656772524118e-03" rms="2.8706645965576172e-01" purity="5.4364264011383057e-01" nType="-99"/>
            <Node pos="r" depth="3" NCoef="0" IVar="-1" Cut="0.0000000000000000e+00" cType="1" res="2.1163748577237129e-02" rms="2.9619377851486206e-01" purity="6.7396861314773560e-01" nType="-99"/>
          </Node>
        </Node>
      </Node>
    </BinaryTree>
    <BinaryTree type="DecisionTree" boostWeight="1.0000000000000000e+00" itree="223">
      <Node pos="s" depth="0" NCoef="0" IVar="8" Cut="-3.9994677901268005e-01" cType="1" res="9.1885554138571024e-04" rms="2.8992617130279541e-01" purity="4.9898213148117065e-01" nType="0">
        <Node pos="l" depth="1" NCoef="0" IVar="2" Cut="4.4669616699218750e+02" cType="1" res="7.1748765185475349e-03" rms="2.9392191767692566e-01" purity="4.3805122375488281e-01" nType="0">
          <Node pos="l" depth="2" NCoef="0" IVar="2" Cut="3.9969641113281250e+02" cType="1" res="1.0949034243822098e-02" rms="2.8930762410163879e-01" purity="4.0987879037857056e-01" nType="0">
            <Node pos="l" depth="3" NCoef="0" IVar="-1" Cut="0.0000000000000000e+00" cType="1" res="1.7563344910740852e-02" rms="2.8757074475288391e-01" purity="4.0162277221679688e-01" nType="-99"/>
            <Node pos="r" depth="3" NCoef="0" IVar="-1" Cut="0.0000000000000000e+00" cType="1" res="-1.4454093761742115e-02" rms="3.0054008960723877e-01" purity="4.6968132257461548e-01" nType="-99"/>
          </Node>
          <Node pos="r" depth="2" NCoef="0" IVar="6" Cut="1.2424906730651855e+01" cType="1" res="-3.9207302033901215e-03" rms="3.0681744217872620e-01" purity="5.2087509632110596e-01" nType="0">
            <Node pos="l" depth="3" NCoef="0" IVar="-1" Cut="0.0000000000000000e+00" cType="1" res="1.5351288020610809e-02" rms="3.1260043382644653e-01" purity="2.9454332590103149e-01" nType="-99"/>
            <Node pos="r" depth="3" NCoef="0" IVar="-1" Cut="0.0000000000000000e+00" cType="1" res="-2.5615708902478218e-02" rms="3.0024057626724243e-01" purity="7.3175883293151855e-01" nType="-99"/>
          </Node>
        </Node>
        <Node pos="r" depth="1" NCoef="0" IVar="0" Cut="2.2871962890625000e+03" cType="1" res="-2.3154080845415592e-03" rms="2.8778532147407532e-01" purity="5.3048241138458252e-01" nType="0">
          <Node pos="l" depth="2" NCoef="0" IVar="2" Cut="5.0636318969726562e+02" cType="1" res="-4.0098414756357670e-03" rms="2.9445925354957581e-01" purity="4.8734226822853088e-01" nType="0">
            <Node pos="l" depth="3" NCoef="0" IVar="-1" Cut="0.0000000000000000e+00" cType="1" res="-2.1007778123021126e-03" rms="2.9133972525596619e-01" purity="4.9253574013710022e-01" nType="-99"/>
            <Node pos="r" depth="3" NCoef="0" IVar="-1" Cut="0.0000000000000000e+00" cType="1" res="-1.7962545156478882e-02" rms="3.1451344490051270e-01" purity="4.5191690325737000e-01" nType="-99"/>
          </Node>
          <Node pos="r" depth="2" NCoef="0" IVar="0" Cut="2.5137819824218750e+03" cType="1" res="1.3232255354523659e-02" rms="2.1655665338039398e-01" purity="9.2632496356964111e-01" nType="0">
            <Node pos="l" depth="3" NCoef="0" IVar="-1" Cut="0.0000000000000000e+00" cType="1" res="2.6230558287352324e-03" rms="2.2300638258457184e-01" purity="9.1466444730758667e-01" nType="-99"/>
            <Node pos="r" depth="3" NCoef="0" IVar="-1" Cut="0.0000000000000000e+00" cType="1" res="4.1489176452159882e-02" rms="2.1108111739158630e-01" purity="9.3517589569091797e-01" nType="-99"/>
          </Node>
        </Node>
      </Node>
    </BinaryTree>
    <BinaryTree type="DecisionTree" boostWeight="1.0000000000000000e+00" itree="224">
      <Node pos="s" depth="0" NCoef="0" IVar="10" Cut="-1.4666881561279297e+00" cType="1" res="-1.9835736602544785e-03" rms="2.8686991333961487e-01" purity="5.0062912702560425e-01" nType="0">
        <Node pos="l" depth="1" NCoef="0" IVar="9" Cut="3.9980053901672363e-01" cType="1" res="-1.0879232548177242e-02" rms="2.8502875566482544e-01" purity="3.2044482231140137e-01" nType="0">
          <Node pos="l" depth="2" NCoef="0" IVar="9" Cut="-9.7156089544296265e-01" cType="1" res="-1.9501004368066788e-02" rms="2.7590739727020264e-01" purity="3.1859439611434937e-01" nType="0">
            <Node pos="l" depth="3" NCoef="0" IVar="-1" Cut="0.0000000000000000e+00" cType="1" res="-3.5046830307692289e-03" rms="2.6055890321731567e-01" purity="2.0121817290782928e-01" nType="-99"/>
            <Node pos="r" depth="3" NCoef="0" IVar="-1" Cut="0.0000000000000000e+00" cType="1" res="-3.3961772918701172e-02" rms="2.8526109457015991e-01" purity="3.9801892638206482e-01" nType="-99"/>
          </Node>
          <Node pos="r" depth="2" NCoef="0" IVar="-1" Cut="0.0000000000000000e+00" cType="1" res="9.2403814196586609e-03" rms="3.0323904752731323e-01" purity="3.2450768351554871e-01" nType="-99"/>
        </Node>
        <Node pos="r" depth="1" NCoef="0" IVar="9" Cut="9.3246692419052124e-01" cType="1" res="-8.1599625991657376e-04" rms="2.8709021210670471e-01" purity="5.2427887916564941e-01" nType="0">
          <Node pos="l" depth="2" NCoef="0" IVar="9" Cut="-1.0226358175277710e+00" cType="1" res="1.1833953903988004e-03" rms="2.8865629434585571e-01" purity="5.6324505805969238e-01" nType="0">
            <Node pos="l" depth="3" NCoef="0" IVar="-1" Cut="0.0000000000000000e+00" cType="1" res="-9.6980361267924309e-03" rms="2.9350021481513977e-01" purity="3.3163315057754517e-01" nType="-99"/>
            <Node pos="r" depth="3" NCoef="0" IVar="-1" Cut="0.0000000000000000e+00" cType="1" res="4.2662415653467178e-03" rms="2.8738400340080261e-01" purity="6.2095266580581665e-01" nType="-99"/>
          </Node>
          <Node pos="r" depth="2" NCoef="0" IVar="3" Cut="1.9876881408691406e+02" cType="1" res="-9.3221915885806084e-03" rms="2.8017038106918335e-01" purity="3.5850125551223755e-01" nType="0">
            <Node pos="l" depth="3" NCoef="0" IVar="-1" Cut="0.0000000000000000e+00" cType="1" res="7.3475576937198639e-03" rms="2.5720742344856262e-01" purity="1.9408862292766571e-01" nType="-99"/>
            <Node pos="r" depth="3" NCoef="0" IVar="-1" Cut="0.0000000000000000e+00" cType="1" res="-2.2541303187608719e-02" rms="2.9778748750686646e-01" purity="4.9838820099830627e-01" nType="-99"/>
          </Node>
        </Node>
      </Node>
    </BinaryTree>
    <BinaryTree type="DecisionTree" boostWeight="1.0000000000000000e+00" itree="225">
      <Node pos="s" depth="0" NCoef="0" IVar="6" Cut="1.5782839775085449e+01" cType="1" res="-3.4508656244724989e-04" rms="2.9006657004356384e-01" purity="5.0138950347900391e-01" nType="0">
        <Node pos="l" depth="1" NCoef="0" IVar="5" Cut="7.8603210449218750e+01" cType="1" res="4.6250447630882263e-03" rms="2.9986011981964111e-01" purity="2.3171666264533997e-01" nType="0">
          <Node pos="l" depth="2" NCoef="0" IVar="5" Cut="7.3154891967773438e+01" cType="1" res="-3.2301519240718335e-05" rms="2.8096818923950195e-01" purity="1.5462784469127655e-01" nType="0">
            <Node pos="l" depth="3" NCoef="0" IVar="-1" Cut="0.0000000000000000e+00" cType="1" res="3.4423442557454109e-03" rms="2.7663934230804443e-01" purity="1.4793029427528381e-01" nType="-99"/>
            <Node pos="r" depth="3" NCoef="0" IVar="-1" Cut="0.0000000000000000e+00" cType="1" res="-2.7695713564753532e-02" rms="3.2550480961799622e-01" purity="2.3231215775012970e-01" nType="-99"/>
          </Node>
          <Node pos="r" depth="2" NCoef="0" IVar="2" Cut="3.2476940917968750e+02" cType="1" res="1.9945774227380753e-02" rms="3.5455119609832764e-01" purity="4.8530665040016174e-01" nType="0">
            <Node pos="l" depth="3" NCoef="0" IVar="-1" Cut="0.0000000000000000e+00" cType="1" res="1.3339954894036055e-03" rms="3.5019063949584961e-01" purity="3.4895172715187073e-01" nType="-99"/>
            <Node pos="r" depth="3" NCoef="0" IVar="-1" Cut="0.0000000000000000e+00" cType="1" res="2.3524044081568718e-02" rms="3.5660034418106079e-01" purity="5.6321722269058228e-01" nType="-99"/>
          </Node>
        </Node>
        <Node pos="r" depth="1" NCoef="0" IVar="1" Cut="6.0634270310401917e-02" cType="1" res="-4.7573293559253216e-03" rms="2.8101286292076111e-01" purity="7.4079209566116333e-01" nType="0">
          <Node pos="l" depth="2" NCoef="0" IVar="11" Cut="1.2001136541366577e+00" cType="1" res="-1.0393650270998478e-02" rms="3.2361161708831787e-01" purity="4.8555994033813477e-01" nType="0">
            <Node pos="l" depth="3" NCoef="0" IVar="-1" Cut="0.0000000000000000e+00" cType="1" res="-4.9538556486368179e-03" rms="3.2496210932731628e-01" purity="5.1263111829757690e-01" nType="-99"/>
            <Node pos="r" depth="3" NCoef="0" IVar="-1" Cut="0.0000000000000000e+00" cType="1" res="-3.1725402921438217e-02" rms="3.1567350029945374e-01" purity="3.5196742415428162e-01" nType="-99"/>
          </Node>
          <Node pos="r" depth="2" NCoef="0" IVar="0" Cut="1.5511259765625000e+03" cType="1" res="-1.5594795113429427e-03" rms="2.5362730026245117e-01" purity="8.8560181856155396e-01" nType="0">
            <Node pos="l" depth="3" NCoef="0" IVar="-1" Cut="0.0000000000000000e+00" cType="1" res="-1.1027423664927483e-02" rms="3.6171230673789978e-01" purity="7.2455286979675293e-01" nType="-99"/>
            <Node pos="r" depth="3" NCoef="0" IVar="-1" Cut="0.0000000000000000e+00" cType="1" res="1.0046959854662418e-02" rms="1.8787315487861633e-01" purity="9.5565474033355713e-01" nType="-99"/>
          </Node>
        </Node>
      </Node>
    </BinaryTree>
    <BinaryTree type="DecisionTree" boostWeight="1.0000000000000000e+00" itree="226">
      <Node pos="s" depth="0" NCoef="0" IVar="3" Cut="3.6587402343750000e+02" cType="1" res="-1.0599328670650721e-03" rms="2.9041177034378052e-01" purity="5.0138080120086670e-01" nType="0">
        <Node pos="l" depth="1" NCoef="0" IVar="9" Cut="-1.3386738300323486e-01" cType="1" res="4.7707272460684180e-04" rms="2.9123315215110779e-01" purity="4.7352439165115356e-01" nType="0">
          <Node pos="l" depth="2" NCoef="0" IVar="8" Cut="6.6664135456085205e-01" cType="1" res="5.3282049484550953e-03" rms="2.9885554313659668e-01" purity="4.5909824967384338e-01" nType="0">
            <Node pos="l" depth="3" NCoef="0" IVar="-1" Cut="0.0000000000000000e+00" cType="1" res="-2.9340849141590297e-04" rms="2.9996666312217712e-01" purity="4.8846876621246338e-01" nType="-99"/>
            <Node pos="r" depth="3" NCoef="0" IVar="-1" Cut="0.0000000000000000e+00" cType="1" res="3.0201165005564690e-02" rms="2.9431936144828796e-01" purity="3.6050057411193848e-01" nType="-99"/>
          </Node>
          <Node pos="r" depth="2" NCoef="0" IVar="0" Cut="2.0513586425781250e+03" cType="1" res="-3.5001565702259541e-03" rms="2.8477013111114502e-01" purity="4.8535180091857910e-01" nType="0">
            <Node pos="l" depth="3" NCoef="0" IVar="-1" Cut="0.0000000000000000e+00" cType="1" res="-6.4692469313740730e-03" rms="2.9331141710281372e-01" purity="4.2965215444564819e-01" nType="-99"/>
            <Node pos="r" depth="3" NCoef="0" IVar="-1" Cut="0.0000000000000000e+00" cType="1" res="3.1615216284990311e-02" rms="2.0232789218425751e-01" purity="9.3416440486907959e-01" nType="-99"/>
          </Node>
        </Node>
        <Node pos="r" depth="1" NCoef="0" IVar="8" Cut="-3.9937683939933777e-01" cType="1" res="-1.4238754287362099e-02" rms="2.8292858600616455e-01" purity="7.4023103713989258e-01" nType="0">
          <Node pos="l" depth="2" NCoef="0" IVar="-1" Cut="0.0000000000000000e+00" cType="1" res="-4.7692224383354187e-02" rms="2.8821778297424316e-01" purity="6.3547301292419434e-01" nType="-99"/>
          <Node pos="r" depth="2" NCoef="0" IVar="8" Cut="2.0720711350440979e-01" cType="1" res="-4.1863368824124336e-03" rms="2.8035363554954529e-01" purity="7.7705562114715576e-01" nType="0">
            <Node pos="l" depth="3" NCoef="0" IVar="-1" Cut="0.0000000000000000e+00" cType="1" res="1.4610476791858673e-02" rms="2.6653134822845459e-01" purity="8.5864442586898804e-01" nType="-99"/>
            <Node pos="r" depth="3" NCoef="0" IVar="-1" Cut="0.0000000000000000e+00" cType="1" res="-2.1142601966857910e-02" rms="2.9128566384315491e-01" purity="7.0546734333038330e-01" nType="-99"/>
          </Node>
        </Node>
      </Node>
    </BinaryTree>
    <BinaryTree type="DecisionTree" boostWeight="1.0000000000000000e+00" itree="227">
      <Node pos="s" depth="0" NCoef="0" IVar="11" Cut="-1.3428606986999512e+00" cType="1" res="-3.0491854995489120e-03" rms="2.8703680634498596e-01" purity="4.9610087275505066e-01" nType="0">
        <Node pos="l" depth="1" NCoef="0" IVar="8" Cut="6.6661506891250610e-01" cType="1" res="-9.0135550126433372e-03" rms="2.9364439845085144e-01" purity="2.6614144444465637e-01" nType="0">
          <Node pos="l" depth="2" NCoef="0" IVar="9" Cut="1.3321724534034729e-01" cType="1" res="-4.8585250042378902e-03" rms="3.0917865037918091e-01" purity="3.0980011820793152e-01" nType="0">
            <Node pos="l" depth="3" NCoef="0" IVar="-1" Cut="0.0000000000000000e+00" cType="1" res="-1.0585423558950424e-02" rms="3.0752515792846680e-01" purity="3.0680114030838013e-01" nType="-99"/>
            <Node pos="r" depth="3" NCoef="0" IVar="-1" Cut="0.0000000000000000e+00" cType="1" res="2.5827605277299881e-03" rms="3.1130278110504150e-01" purity="3.1394484639167786e-01" nType="-99"/>
          </Node>
          <Node pos="r" depth="2" NCoef="0" IVar="10" Cut="-6.6706073284149170e-01" cType="1" res="-1.9977809861302376e-02" rms="2.4769052863121033e-01" purity="1.5093520283699036e-01" nType="0">
            <Node pos="l" depth="3" NCoef="0" IVar="-1" Cut="0.0000000000000000e+00" cType="1" res="3.7607576232403517e-03" rms="2.7115899324417114e-01" purity="1.5287393331527710e-01" nType="-99"/>
            <Node pos="r" depth="3" NCoef="0" IVar="-1" Cut="0.0000000000000000e+00" cType="1" res="-3.9697930216789246e-02" rms="2.3768152296543121e-01" purity="1.5020397305488586e-01" nType="-99"/>
          </Node>
        </Node>
        <Node pos="r" depth="1" NCoef="0" IVar="5" Cut="9.3162857055664062e+01" cType="1" res="3.9327386766672134e-03" rms="2.7894127368927002e-01" purity="7.6529276371002197e-01" nType="0">
          <Node pos="l" depth="2" NCoef="0" IVar="11" Cut="-7.5097811222076416e-01" cType="1" res="1.4253430999815464e-02" rms="3.3313372731208801e-01" purity="5.6208968162536621e-01" nType="0">
            <Node pos="l" depth="3" NCoef="0" IVar="-1" Cut="0.0000000000000000e+00" cType="1" res="3.7114404141902924e-02" rms="3.3089801669120789e-01" purity="5.9324413537979126e-01" nType="-99"/>
            <Node pos="r" depth="3" NCoef="0" IVar="-1" Cut="0.0000000000000000e+00" cType="1" res="7.3353955522179604e-03" rms="3.3328151702880859e-01" purity="5.5599582195281982e-01" nType="-99"/>
          </Node>
          <Node pos="r" depth="2" NCoef="0" IVar="1" Cut="4.2146053165197372e-02" cType="1" res="-2.4809117894619703e-03" rms="2.3893085122108459e-01" purity="8.9157038927078247e-01" nType="0">
            <Node pos="l" depth="3" NCoef="0" IVar="-1" Cut="0.0000000000000000e+00" cType="1" res="-1.4510439708828926e-02" rms="3.4739375114440918e-01" purity="6.5587353706359863e-01" nType="-99"/>
            <Node pos="r" depth="3" NCoef="0" IVar="-1" Cut="0.0000000000000000e+00" cType="1" res="7.8070891322568059e-04" rms="2.1133461594581604e-01" purity="9.3743926286697388e-01" nType="-99"/>
          </Node>
        </Node>
      </Node>
    </BinaryTree>
    <BinaryTree type="DecisionTree" boostWeight="1.0000000000000000e+00" itree="228">
      <Node pos="s" depth="0" NCoef="0" IVar="6" Cut="5.8700405120849609e+01" cType="1" res="1.5181530034169555e-03" rms="2.9065394401550293e-01" purity="4.9956965446472168e-01" nType="0">
        <Node pos="l" depth="1" NCoef="0" IVar="1" Cut="1.2550190091133118e-01" cType="1" res="5.4092137143015862e-03" rms="3.0764073133468628e-01" purity="2.7756378054618835e-01" nType="0">
          <Node pos="l" depth="2" NCoef="0" IVar="8" Cut="-4.0006333589553833e-01" cType="1" res="7.7013326808810234e-03" rms="2.9823181033134460e-01" purity="2.3363256454467773e-01" nType="0">
            <Node pos="l" depth="3" NCoef="0" IVar="-1" Cut="0.0000000000000000e+00" cType="1" res="-3.1858701258897781e-03" rms="2.7873337268829346e-01" purity="1.8367479741573334e-01" nType="-99"/>
            <Node pos="r" depth="3" NCoef="0" IVar="-1" Cut="0.0000000000000000e+00" cType="1" res="1.4640793204307556e-02" rms="3.0883786082267761e-01" purity="2.6265746355056763e-01" nType="-99"/>
          </Node>
          <Node pos="r" depth="2" NCoef="0" IVar="-1" Cut="0.0000000000000000e+00" cType="1" res="-9.3861268833279610e-03" rms="3.7448200583457947e-01" purity="6.3188987970352173e-01" nType="-99"/>
        </Node>
        <Node pos="r" depth="1" NCoef="0" IVar="4" Cut="1.3301631164550781e+02" cType="1" res="-3.9600166492164135e-03" rms="2.6480162143707275e-01" purity="8.1212854385375977e-01" nType="0">
          <Node pos="l" depth="2" NCoef="0" IVar="9" Cut="-1.3093236088752747e-01" cType="1" res="-1.8787899985909462e-02" rms="3.3952665328979492e-01" purity="4.9187174439430237e-01" nType="0">
            <Node pos="l" depth="3" NCoef="0" IVar="-1" Cut="0.0000000000000000e+00" cType="1" res="-2.7098294347524643e-02" rms="3.4137022495269775e-01" purity="4.9513214826583862e-01" nType="-99"/>
            <Node pos="r" depth="3" NCoef="0" IVar="-1" Cut="0.0000000000000000e+00" cType="1" res="-5.0838417373597622e-03" rms="3.3748546242713928e-01" purity="4.8923206329345703e-01" nType="-99"/>
          </Node>
          <Node pos="r" depth="2" NCoef="0" IVar="8" Cut="9.3184310197830200e-01" cType="1" res="-1.4202850870788097e-03" rms="2.4968183040618896e-01" purity="8.6698234081268311e-01" nType="0">
            <Node pos="l" depth="3" NCoef="0" IVar="-1" Cut="0.0000000000000000e+00" cType="1" res="1.4943954301998019e-03" rms="2.4234852194786072e-01" purity="8.8760465383529663e-01" nType="-99"/>
            <Node pos="r" depth="3" NCoef="0" IVar="-1" Cut="0.0000000000000000e+00" cType="1" res="-1.9873715937137604e-02" rms="2.9896974563598633e-01" purity="7.1041405200958252e-01" nType="-99"/>
          </Node>
        </Node>
      </Node>
    </BinaryTree>
    <BinaryTree type="DecisionTree" boostWeight="1.0000000000000000e+00" itree="229">
      <Node pos="s" depth="0" NCoef="0" IVar="0" Cut="1.1148542480468750e+03" cType="1" res="-1.6157807549461722e-03" rms="2.8769546747207642e-01" purity="4.9599394202232361e-01" nType="0">
        <Node pos="l" depth="1" NCoef="0" IVar="5" Cut="6.1946189880371094e+01" cType="1" res="-9.3435049057006836e-03" rms="1.9019013643264771e-01" purity="4.3352380394935608e-02" nType="0">
          <Node pos="l" depth="2" NCoef="0" IVar="5" Cut="5.3411693572998047e+01" cType="1" res="1.1884657578775659e-04" rms="1.7436526715755463e-01" purity="3.5192184150218964e-02" nType="0">
            <Node pos="l" depth="3" NCoef="0" IVar="-1" Cut="0.0000000000000000e+00" cType="1" res="-3.9912812411785126e-02" rms="1.3086713850498199e-01" purity="1.7941918224096298e-02" nType="-99"/>
            <Node pos="r" depth="3" NCoef="0" IVar="-1" Cut="0.0000000000000000e+00" cType="1" res="2.0191660150885582e-02" rms="1.9727632403373718e-01" purity="4.6408880501985550e-02" nType="-99"/>
          </Node>
          <Node pos="r" depth="2" NCoef="0" IVar="-1" Cut="0.0000000000000000e+00" cType="1" res="-3.9900254458189011e-02" rms="2.1313263475894928e-01" purity="5.7007480412721634e-02" nType="-99"/>
        </Node>
        <Node pos="r" depth="1" NCoef="0" IVar="10" Cut="1.4663610458374023e+00" cType="1" res="1.0794559057103470e-04" rms="3.0519837141036987e-01" purity="5.9695899486541748e-01" nType="0">
          <Node pos="l" depth="2" NCoef="0" IVar="11" Cut="1.1428482532501221e+00" cType="1" res="1.7597818514332175e-03" rms="3.0353918671607971e-01" purity="6.1753797531127930e-01" nType="0">
            <Node pos="l" depth="3" NCoef="0" IVar="-1" Cut="0.0000000000000000e+00" cType="1" res="3.7713441997766495e-03" rms="3.0338412523269653e-01" purity="6.0862296819686890e-01" nType="-99"/>
            <Node pos="r" depth="3" NCoef="0" IVar="-1" Cut="0.0000000000000000e+00" cType="1" res="-1.5285913832485676e-02" rms="3.0447971820831299e-01" purity="7.0039927959442139e-01" nType="-99"/>
          </Node>
          <Node pos="r" depth="2" NCoef="0" IVar="9" Cut="-1.3338980078697205e-01" cType="1" res="-1.4238194562494755e-02" rms="3.1888636946678162e-01" purity="4.1823127865791321e-01" nType="0">
            <Node pos="l" depth="3" NCoef="0" IVar="-1" Cut="0.0000000000000000e+00" cType="1" res="1.2828906765207648e-03" rms="3.2126829028129578e-01" purity="4.3355426192283630e-01" nType="-99"/>
            <Node pos="r" depth="3" NCoef="0" IVar="-1" Cut="0.0000000000000000e+00" cType="1" res="-2.4031920358538628e-02" rms="3.1682249903678894e-01" purity="4.0783455967903137e-01" nType="-99"/>
          </Node>
        </Node>
      </Node>
    </BinaryTree>
    <BinaryTree type="DecisionTree" boostWeight="1.0000000000000000e+00" itree="230">
      <Node pos="s" depth="0" NCoef="0" IVar="9" Cut="1.4665583372116089e+00" cType="1" res="-8.6113717406988144e-04" rms="2.8793919086456299e-01" purity="5.0331014394760132e-01" nType="0">
        <Node pos="l" depth="1" NCoef="0" IVar="8" Cut="-6.6664850711822510e-01" cType="1" res="3.1948616378940642e-04" rms="2.9069805145263672e-01" purity="5.3131908178329468e-01" nType="0">
          <Node pos="l" depth="2" NCoef="0" IVar="10" Cut="-1.4654270410537720e+00" cType="1" res="6.8861558102071285e-03" rms="2.8825977444648743e-01" purity="4.0289247035980225e-01" nType="0">
            <Node pos="l" depth="3" NCoef="0" IVar="-1" Cut="0.0000000000000000e+00" cType="1" res="4.4787161052227020e-02" rms="3.0396604537963867e-01" purity="2.9989597201347351e-01" nType="-99"/>
            <Node pos="r" depth="3" NCoef="0" IVar="-1" Cut="0.0000000000000000e+00" cType="1" res="1.5251967124640942e-03" rms="2.8489813208580017e-01" purity="4.2203405499458313e-01" nType="-99"/>
          </Node>
          <Node pos="r" depth="2" NCoef="0" IVar="10" Cut="-1.3337175548076630e-01" cType="1" res="-1.7975413938984275e-03" rms="2.9144826531410217e-01" purity="5.7272249460220337e-01" nType="0">
            <Node pos="l" depth="3" NCoef="0" IVar="-1" Cut="0.0000000000000000e+00" cType="1" res="-8.7334578856825829e-03" rms="2.9126381874084473e-01" purity="5.6528341770172119e-01" nType="-99"/>
            <Node pos="r" depth="3" NCoef="0" IVar="-1" Cut="0.0000000000000000e+00" cType="1" res="3.0660699121654034e-03" rms="2.9150977730751038e-01" purity="5.7838624715805054e-01" nType="-99"/>
          </Node>
        </Node>
        <Node pos="r" depth="1" NCoef="0" IVar="3" Cut="1.6947366333007812e+02" cType="1" res="-1.3936541043221951e-02" rms="2.5503447651863098e-01" purity="1.9311089813709259e-01" nType="0">
          <Node pos="l" depth="2" NCoef="0" IVar="-1" Cut="0.0000000000000000e+00" cType="1" res="2.4667821824550629e-02" rms="1.8727549910545349e-01" purity="8.0621853470802307e-02" nType="-99"/>
          <Node pos="r" depth="2" NCoef="0" IVar="-1" Cut="0.0000000000000000e+00" cType="1" res="-3.1410198658704758e-02" rms="2.8881070017814636e-01" purity="2.6423677802085876e-01" nType="-99"/>
        </Node>
      </Node>
    </BinaryTree>
    <BinaryTree type="DecisionTree" boostWeight="1.0000000000000000e+00" itree="231">
      <Node pos="s" depth="0" NCoef="0" IVar="2" Cut="7.1556433105468750e+02" cType="1" res="1.4131565694697201e-04" rms="2.8999224305152893e-01" purity="4.9848639965057373e-01" nType="0">
        <Node pos="l" depth="1" NCoef="0" IVar="11" Cut="1.6951103210449219e+00" cType="1" res="1.1231146054342389e-03" rms="2.8881183266639709e-01" purity="4.9538823962211609e-01" nType="0">
          <Node pos="l" depth="2" NCoef="0" IVar="11" Cut="-1.6586922407150269e+00" cType="1" res="3.3543788595125079e-04" rms="2.8810015320777893e-01" purity="4.8990660905838013e-01" nType="0">
            <Node pos="l" depth="3" NCoef="0" IVar="-1" Cut="0.0000000000000000e+00" cType="1" res="5.2713663317263126e-03" rms="2.9796546697616577e-01" purity="2.5664031505584717e-01" nType="-99"/>
            <Node pos="r" depth="3" NCoef="0" IVar="-1" Cut="0.0000000000000000e+00" cType="1" res="-5.9353704564273357e-03" rms="2.7612760663032532e-01" purity="7.6058256626129150e-01" nType="-99"/>
          </Node>
          <Node pos="r" depth="2" NCoef="0" IVar="-1" Cut="0.0000000000000000e+00" cType="1" res="1.9601725041866302e-02" rms="3.0476227402687073e-01" purity="6.2674850225448608e-01" nType="-99"/>
        </Node>
        <Node pos="r" depth="1" NCoef="0" IVar="-1" Cut="0.0000000000000000e+00" cType="1" res="-2.2862125188112259e-02" rms="3.1882640719413757e-01" purity="5.8133333921432495e-01" nType="-99"/>
      </Node>
    </BinaryTree>
    <BinaryTree type="DecisionTree" boostWeight="1.0000000000000000e+00" itree="232">
      <Node pos="s" depth="0" NCoef="0" IVar="1" Cut="1.4641939103603363e-01" cType="1" res="-4.2792482418008149e-04" rms="2.8952169418334961e-01" purity="4.9983599781990051e-01" nType="0">
        <Node pos="l" depth="1" NCoef="0" IVar="4" Cut="1.0664990997314453e+02" cType="1" res="-2.4387058801949024e-03" rms="2.9834404587745667e-01" purity="4.2484998703002930e-01" nType="0">
          <Node pos="l" depth="2" NCoef="0" IVar="5" Cut="6.0162372589111328e+01" cType="1" res="7.1642687544226646e-03" rms="2.4179312586784363e-01" purity="9.8579041659832001e-02" nType="0">
            <Node pos="l" depth="3" NCoef="0" IVar="-1" Cut="0.0000000000000000e+00" cType="1" res="-6.8683065474033356e-03" rms="1.9063460826873779e-01" purity="4.2996086180210114e-02" nType="-99"/>
            <Node pos="r" depth="3" NCoef="0" IVar="-1" Cut="0.0000000000000000e+00" cType="1" res="2.5239530950784683e-02" rms="2.9174116253852844e-01" purity="1.6616299748420715e-01" nType="-99"/>
          </Node>
          <Node pos="r" depth="2" NCoef="0" IVar="0" Cut="1.4981944580078125e+03" cType="1" res="-5.6986999697983265e-03" rms="3.1517720222473145e-01" purity="5.3561162948608398e-01" nType="0">
            <Node pos="l" depth="3" NCoef="0" IVar="-1" Cut="0.0000000000000000e+00" cType="1" res="-1.1250931769609451e-02" rms="3.2831400632858276e-01" purity="2.7069675922393799e-01" nType="-99"/>
            <Node pos="r" depth="3" NCoef="0" IVar="-1" Cut="0.0000000000000000e+00" cType="1" res="2.3169894120655954e-05" rms="3.0389717221260071e-01" purity="7.5217199325561523e-01" nType="-99"/>
          </Node>
        </Node>
        <Node pos="r" depth="1" NCoef="0" IVar="8" Cut="3.7086974829435349e-02" cType="1" res="9.9261039867997169e-03" rms="2.3872348666191101e-01" purity="8.8595813512802124e-01" nType="0">
          <Node pos="l" depth="2" NCoef="0" IVar="-1" Cut="0.0000000000000000e+00" cType="1" res="2.8845833614468575e-02" rms="2.4126295745372772e-01" purity="8.9296537637710571e-01" nType="-99"/>
          <Node pos="r" depth="2" NCoef="0" IVar="-1" Cut="0.0000000000000000e+00" cType="1" res="2.7728176792152226e-04" rms="2.3533776402473450e-01" purity="8.7774443626403809e-01" nType="-99"/>
        </Node>
      </Node>
    </BinaryTree>
    <BinaryTree type="DecisionTree" boostWeight="1.0000000000000000e+00" itree="233">
      <Node pos="s" depth="0" NCoef="0" IVar="3" Cut="1.4793902587890625e+02" cType="1" res="2.4801807012408972e-03" rms="2.9142022132873535e-01" purity="4.9859696626663208e-01" nType="0">
        <Node pos="l" depth="1" NCoef="0" IVar="4" Cut="1.1531732177734375e+02" cType="1" res="8.5806632414460182e-03" rms="2.4259586632251740e-01" purity="1.2241223454475403e-01" nType="0">
          <Node pos="l" depth="2" NCoef="0" IVar="9" Cut="3.9940539002418518e-01" cType="1" res="2.5080719497054815e-03" rms="2.1911692619323730e-01" purity="7.8607589006423950e-02" nType="0">
            <Node pos="l" depth="3" NCoef="0" IVar="-1" Cut="0.0000000000000000e+00" cType="1" res="2.0610624924302101e-02" rms="2.3243488371372223e-01" purity="9.7141355276107788e-02" nType="-99"/>
            <Node pos="r" depth="3" NCoef="0" IVar="-1" Cut="0.0000000000000000e+00" cType="1" res="-2.6062047109007835e-02" rms="1.9465409219264984e-01" purity="4.8282362520694733e-02" nType="-99"/>
          </Node>
          <Node pos="r" depth="2" NCoef="0" IVar="-1" Cut="0.0000000000000000e+00" cType="1" res="3.4988071769475937e-02" rms="3.2400172948837280e-01" purity="3.1223648786544800e-01" nType="-99"/>
        </Node>
        <Node pos="r" depth="1" NCoef="0" IVar="10" Cut="1.3316272199153900e-01" cType="1" res="1.1727821547538042e-03" rms="3.0083847045898438e-01" purity="5.7921737432479858e-01" nType="0">
          <Node pos="l" depth="2" NCoef="0" IVar="10" Cut="-8.4457349777221680e-01" cType="1" res="-3.4098087344318628e-03" rms="2.9924476146697998e-01" purity="5.8003914356231689e-01" nType="0">
            <Node pos="l" depth="3" NCoef="0" IVar="-1" Cut="0.0000000000000000e+00" cType="1" res="3.8084839470684528e-03" rms="3.0242747068405151e-01" purity="5.2420961856842041e-01" nType="-99"/>
            <Node pos="r" depth="3" NCoef="0" IVar="-1" Cut="0.0000000000000000e+00" cType="1" res="-1.0580601170659065e-02" rms="2.9643955826759338e-01" purity="6.2656712532043457e-01" nType="-99"/>
          </Node>
          <Node pos="r" depth="2" NCoef="0" IVar="11" Cut="5.8940476179122925e-01" cType="1" res="6.5343296155333519e-03" rms="3.0260431766510010e-01" purity="5.7825589179992676e-01" nType="0">
            <Node pos="l" depth="3" NCoef="0" IVar="-1" Cut="0.0000000000000000e+00" cType="1" res="1.1171233840286732e-02" rms="3.0533829331398010e-01" purity="5.4037636518478394e-01" nType="-99"/>
            <Node pos="r" depth="3" NCoef="0" IVar="-1" Cut="0.0000000000000000e+00" cType="1" res="-1.1316717602312565e-02" rms="2.9026404023170471e-01" purity="7.3705768585205078e-01" nType="-99"/>
          </Node>
        </Node>
      </Node>
    </BinaryTree>
    <BinaryTree type="DecisionTree" boostWeight="1.0000000000000000e+00" itree="234">
      <Node pos="s" depth="0" NCoef="0" IVar="10" Cut="3.9974027872085571e-01" cType="1" res="-3.2511207973584533e-04" rms="2.8917810320854187e-01" purity="5.0127595663070679e-01" nType="0">
        <Node pos="l" depth="1" NCoef="0" IVar="5" Cut="8.8200126647949219e+01" cType="1" res="5.2214628085494041e-03" rms="2.8797903656959534e-01" purity="5.1991927623748779e-01" nType="0">
          <Node pos="l" depth="2" NCoef="0" IVar="4" Cut="2.1721746826171875e+02" cType="1" res="1.7364323139190674e-03" rms="3.0619910359382629e-01" purity="2.8080168366432190e-01" nType="0">
            <Node pos="l" depth="3" NCoef="0" IVar="-1" Cut="0.0000000000000000e+00" cType="1" res="-1.2741710525006056e-03" rms="3.0095285177230835e-01" purity="2.4364608526229858e-01" nType="-99"/>
            <Node pos="r" depth="3" NCoef="0" IVar="-1" Cut="0.0000000000000000e+00" cType="1" res="2.2579284384846687e-02" rms="3.5041409730911255e-01" purity="6.2886804342269897e-01" nType="-99"/>
          </Node>
          <Node pos="r" depth="2" NCoef="0" IVar="3" Cut="2.4524235534667969e+02" cType="1" res="9.8464153707027435e-03" rms="2.6177737116813660e-01" purity="8.3725005388259888e-01" nType="0">
            <Node pos="l" depth="3" NCoef="0" IVar="-1" Cut="0.0000000000000000e+00" cType="1" res="2.4064978584647179e-02" rms="2.8459808230400085e-01" purity="7.8447556495666504e-01" nType="-99"/>
            <Node pos="r" depth="3" NCoef="0" IVar="-1" Cut="0.0000000000000000e+00" cType="1" res="1.8593787681311369e-03" rms="2.4162989854812622e-01" purity="8.7946033477783203e-01" nType="-99"/>
          </Node>
        </Node>
        <Node pos="r" depth="1" NCoef="0" IVar="11" Cut="3.1419548392295837e-01" cType="1" res="-9.7212623804807663e-03" rms="2.9095688462257385e-01" purity="4.6969342231750488e-01" nType="0">
          <Node pos="l" depth="2" NCoef="0" IVar="7" Cut="1.2069498300552368e+00" cType="1" res="-1.3850259594619274e-02" rms="2.8940936923027039e-01" purity="4.0012910962104797e-01" nType="0">
            <Node pos="l" depth="3" NCoef="0" IVar="-1" Cut="0.0000000000000000e+00" cType="1" res="-1.8464094027876854e-02" rms="3.0191993713378906e-01" purity="4.4369521737098694e-01" nType="-99"/>
            <Node pos="r" depth="3" NCoef="0" IVar="-1" Cut="0.0000000000000000e+00" cType="1" res="1.1113120242953300e-02" rms="1.8438559770584106e-01" purity="1.0944765061140060e-01" nType="-99"/>
          </Node>
          <Node pos="r" depth="2" NCoef="0" IVar="10" Cut="1.3133140802383423e+00" cType="1" res="4.2449296452105045e-03" rms="2.9570433497428894e-01" purity="7.0499235391616821e-01" nType="0">
            <Node pos="l" depth="3" NCoef="0" IVar="-1" Cut="0.0000000000000000e+00" cType="1" res="-3.7135139573365450e-03" rms="2.8021410107612610e-01" purity="7.4560439586639404e-01" nType="-99"/>
            <Node pos="r" depth="3" NCoef="0" IVar="-1" Cut="0.0000000000000000e+00" cType="1" res="1.6742410138249397e-02" rms="3.2096946239471436e-01" purity="6.3283324241638184e-01" nType="-99"/>
          </Node>
        </Node>
      </Node>
    </BinaryTree>
    <BinaryTree type="DecisionTree" boostWeight="1.0000000000000000e+00" itree="235">
      <Node pos="s" depth="0" NCoef="0" IVar="10" Cut="-6.6671693325042725e-01" cType="1" res="1.2191014830023050e-03" rms="2.9058554768562317e-01" purity="5.0162732601165771e-01" nType="0">
        <Node pos="l" depth="1" NCoef="0" IVar="4" Cut="1.6177598571777344e+02" cType="1" res="-5.4707727394998074e-03" rms="2.8714188933372498e-01" purity="4.4661152362823486e-01" nType="0">
          <Node pos="l" depth="2" NCoef="0" IVar="10" Cut="-1.6825414896011353e+00" cType="1" res="-1.2413816526532173e-02" rms="2.8044348955154419e-01" purity="2.4487385153770447e-01" nType="0">
            <Node pos="l" depth="3" NCoef="0" IVar="-1" Cut="0.0000000000000000e+00" cType="1" res="7.4397777207195759e-03" rms="2.7862566709518433e-01" purity="1.9182975590229034e-01" nType="-99"/>
            <Node pos="r" depth="3" NCoef="0" IVar="-1" Cut="0.0000000000000000e+00" cType="1" res="-2.4633822962641716e-02" rms="2.8091359138488770e-01" purity="2.7172896265983582e-01" nType="-99"/>
          </Node>
          <Node pos="r" depth="2" NCoef="0" IVar="9" Cut="1.3482543826103210e-01" cType="1" res="3.7106394302099943e-03" rms="2.9551658034324646e-01" purity="7.1338748931884766e-01" nType="0">
            <Node pos="l" depth="3" NCoef="0" IVar="-1" Cut="0.0000000000000000e+00" cType="1" res="1.2727175839245319e-02" rms="3.0134364962577820e-01" purity="7.2016060352325439e-01" nType="-99"/>
            <Node pos="r" depth="3" NCoef="0" IVar="-1" Cut="0.0000000000000000e+00" cType="1" res="-1.0632502846419811e-02" rms="2.8522607684135437e-01" purity="7.0227742195129395e-01" nType="-99"/>
          </Node>
        </Node>
        <Node pos="r" depth="1" NCoef="0" IVar="10" Cut="-3.3656322956085205e-01" cType="1" res="4.0101469494402409e-03" rms="2.9196491837501526e-01" purity="5.2458012104034424e-01" nType="0">
          <Node pos="l" depth="2" NCoef="0" IVar="7" Cut="-7.1964502334594727e-02" cType="1" res="1.6160875558853149e-02" rms="2.8920367360115051e-01" purity="5.7459807395935059e-01" nType="0">
            <Node pos="l" depth="3" NCoef="0" IVar="-1" Cut="0.0000000000000000e+00" cType="1" res="4.5665809884667397e-03" rms="2.8962367773056030e-01" purity="5.2805691957473755e-01" nType="-99"/>
            <Node pos="r" depth="3" NCoef="0" IVar="-1" Cut="0.0000000000000000e+00" cType="1" res="3.2645318657159805e-02" rms="2.8831690549850464e-01" purity="6.1918866634368896e-01" nType="-99"/>
          </Node>
          <Node pos="r" depth="2" NCoef="0" IVar="1" Cut="3.8912851363420486e-02" cType="1" res="2.0617861300706863e-03" rms="2.9235827922821045e-01" purity="5.1655983924865723e-01" nType="0">
            <Node pos="l" depth="3" NCoef="0" IVar="-1" Cut="0.0000000000000000e+00" cType="1" res="1.3817127794027328e-02" rms="2.7867242693901062e-01" purity="2.1807283163070679e-01" nType="-99"/>
            <Node pos="r" depth="3" NCoef="0" IVar="-1" Cut="0.0000000000000000e+00" cType="1" res="-3.8576503284275532e-03" rms="3.0068281292915344e-01" purity="7.0814204216003418e-01" nType="-99"/>
          </Node>
        </Node>
      </Node>
    </BinaryTree>
    <BinaryTree type="DecisionTree" boostWeight="1.0000000000000000e+00" itree="236">
      <Node pos="s" depth="0" NCoef="0" IVar="9" Cut="-1.4667158126831055e+00" cType="1" res="1.5779790701344609e-03" rms="2.9097861051559448e-01" purity="5.0255429744720459e-01" nType="0">
        <Node pos="l" depth="1" NCoef="0" IVar="7" Cut="-1.0476044565439224e-01" cType="1" res="1.6785955056548119e-02" rms="2.7591526508331299e-01" purity="2.2732117772102356e-01" nType="0">
          <Node pos="l" depth="2" NCoef="0" IVar="-1" Cut="0.0000000000000000e+00" cType="1" res="4.1543681174516678e-02" rms="2.9451829195022583e-01" purity="2.6946228742599487e-01" nType="-99"/>
          <Node pos="r" depth="2" NCoef="0" IVar="-1" Cut="0.0000000000000000e+00" cType="1" res="-3.9789038710296154e-03" rms="2.5182387232780457e-01" purity="1.7965765297412872e-01" nType="-99"/>
        </Node>
        <Node pos="r" depth="1" NCoef="0" IVar="10" Cut="-1.2000980377197266e+00" cType="1" res="1.0656785889295861e-04" rms="2.9235291481018066e-01" purity="5.2918386459350586e-01" nType="0">
          <Node pos="l" depth="2" NCoef="0" IVar="2" Cut="4.4669943237304688e+02" cType="1" res="-8.8742468506097794e-03" rms="2.9094558954238892e-01" purity="4.1167819499969482e-01" nType="0">
            <Node pos="l" depth="3" NCoef="0" IVar="-1" Cut="0.0000000000000000e+00" cType="1" res="-2.0898956805467606e-02" rms="2.7918598055839539e-01" purity="3.7027138471603394e-01" nType="-99"/>
            <Node pos="r" depth="3" NCoef="0" IVar="-1" Cut="0.0000000000000000e+00" cType="1" res="1.8672049045562744e-02" rms="3.2177934050559998e-01" purity="5.3450870513916016e-01" nType="-99"/>
          </Node>
          <Node pos="r" depth="2" NCoef="0" IVar="4" Cut="9.6033004760742188e+01" cType="1" res="1.7293675336986780e-03" rms="2.9257705807685852e-01" purity="5.5041664838790894e-01" nType="0">
            <Node pos="l" depth="3" NCoef="0" IVar="-1" Cut="0.0000000000000000e+00" cType="1" res="-1.9134778529405594e-02" rms="2.1325339376926422e-01" purity="6.9831520318984985e-02" nType="-99"/>
            <Node pos="r" depth="3" NCoef="0" IVar="-1" Cut="0.0000000000000000e+00" cType="1" res="3.7962268106639385e-03" rms="3.0307638645172119e-01" purity="6.2560391426086426e-01" nType="-99"/>
          </Node>
        </Node>
      </Node>
    </BinaryTree>
    <BinaryTree type="DecisionTree" boostWeight="1.0000000000000000e+00" itree="237">
      <Node pos="s" depth="0" NCoef="0" IVar="7" Cut="4.0452641248703003e-01" cType="1" res="4.8005694407038391e-04" rms="2.9078885912895203e-01" purity="4.9416717886924744e-01" nType="0">
        <Node pos="l" depth="1" NCoef="0" IVar="9" Cut="-9.3286031484603882e-01" cType="1" res="-2.3007011041045189e-03" rms="2.9287025332450867e-01" purity="5.3546148538589478e-01" nType="0">
          <Node pos="l" depth="2" NCoef="0" IVar="2" Cut="3.1314364624023438e+02" cType="1" res="8.2173626869916916e-03" rms="3.0806359648704529e-01" purity="3.9449834823608398e-01" nType="0">
            <Node pos="l" depth="3" NCoef="0" IVar="-1" Cut="0.0000000000000000e+00" cType="1" res="-7.6256920583546162e-03" rms="2.9111438989639282e-01" purity="3.2700154185295105e-01" nType="-99"/>
            <Node pos="r" depth="3" NCoef="0" IVar="-1" Cut="0.0000000000000000e+00" cType="1" res="1.9328841939568520e-02" rms="3.1880924105644226e-01" purity="4.4107443094253540e-01" nType="-99"/>
          </Node>
          <Node pos="r" depth="2" NCoef="0" IVar="5" Cut="1.0328232574462891e+02" cType="1" res="-4.8910733312368393e-03" rms="2.8894713521003723e-01" purity="5.7017761468887329e-01" nType="0">
            <Node pos="l" depth="3" NCoef="0" IVar="-1" Cut="0.0000000000000000e+00" cType="1" res="-9.1177402064204216e-03" rms="3.1826913356781006e-01" purity="3.9464265108108521e-01" nType="-99"/>
            <Node pos="r" depth="3" NCoef="0" IVar="-1" Cut="0.0000000000000000e+00" cType="1" res="6.7989169619977474e-03" rms="2.2164282202720642e-01" purity="9.0791517496109009e-01" nType="-99"/>
          </Node>
        </Node>
        <Node pos="r" depth="1" NCoef="0" IVar="7" Cut="1.0887814760208130e+00" cType="1" res="6.2833703123033047e-03" rms="2.8630936145782471e-01" purity="4.0798777341842651e-01" nType="0">
          <Node pos="l" depth="2" NCoef="0" IVar="5" Cut="8.2922691345214844e+01" cType="1" res="1.1544964276254177e-02" rms="3.1319779157638550e-01" purity="5.4448008537292480e-01" nType="0">
            <Node pos="l" depth="3" NCoef="0" IVar="-1" Cut="0.0000000000000000e+00" cType="1" res="2.1024541929364204e-02" rms="3.2677933573722839e-01" purity="3.0008885264396667e-01" nType="-99"/>
            <Node pos="r" depth="3" NCoef="0" IVar="-1" Cut="0.0000000000000000e+00" cType="1" res="-2.4150998797267675e-05" rms="2.9739624261856079e-01" purity="8.0852186679840088e-01" nType="-99"/>
          </Node>
          <Node pos="r" depth="2" NCoef="0" IVar="4" Cut="1.7546138000488281e+02" cType="1" res="-2.6279680896550417e-03" rms="2.3354934155941010e-01" purity="1.7681655287742615e-01" nType="0">
            <Node pos="l" depth="3" NCoef="0" IVar="-1" Cut="0.0000000000000000e+00" cType="1" res="1.2517589144408703e-02" rms="2.0098416507244110e-01" purity="1.0888163745403290e-01" nType="-99"/>
            <Node pos="r" depth="3" NCoef="0" IVar="-1" Cut="0.0000000000000000e+00" cType="1" res="-2.6710206642746925e-02" rms="3.1633141636848450e-01" purity="3.9986175298690796e-01" nType="-99"/>
          </Node>
        </Node>
      </Node>
    </BinaryTree>
    <BinaryTree type="DecisionTree" boostWeight="1.0000000000000000e+00" itree="238">
      <Node pos="s" depth="0" NCoef="0" IVar="10" Cut="-1.2000685930252075e+00" cType="1" res="9.4272434944286942e-04" rms="2.9067775607109070e-01" purity="4.9789249897003174e-01" nType="0">
        <Node pos="l" depth="1" NCoef="0" IVar="1" Cut="1.9661990925669670e-02" cType="1" res="1.3284187763929367e-02" rms="3.0016162991523743e-01" purity="3.8165357708930969e-01" nType="0">
          <Node pos="l" depth="2" NCoef="0" IVar="-1" Cut="0.0000000000000000e+00" cType="1" res="-2.2565772756934166e-02" rms="1.6694775223731995e-01" purity="5.0561144948005676e-02" nType="-99"/>
          <Node pos="r" depth="2" NCoef="0" IVar="4" Cut="1.6642082214355469e+02" cType="1" res="2.0875010639429092e-02" rms="3.3426564931869507e-01" purity="4.9795770645141602e-01" nType="0">
            <Node pos="l" depth="3" NCoef="0" IVar="-1" Cut="0.0000000000000000e+00" cType="1" res="3.5657979547977448e-02" rms="3.4915697574615479e-01" purity="3.5288324952125549e-01" nType="-99"/>
            <Node pos="r" depth="3" NCoef="0" IVar="-1" Cut="0.0000000000000000e+00" cType="1" res="-4.1992529295384884e-03" rms="3.0861225724220276e-01" purity="7.1814930438995361e-01" nType="-99"/>
          </Node>
        </Node>
        <Node pos="r" depth="1" NCoef="0" IVar="0" Cut="1.4007928466796875e+03" cType="1" res="-1.4714336721226573e-03" rms="2.8872448205947876e-01" purity="5.2063035964965820e-01" nType="0">
          <Node pos="l" depth="2" NCoef="0" IVar="11" Cut="-7.9172587394714355e-01" cType="1" res="-5.7722465135157108e-03" rms="2.9492679238319397e-01" purity="1.9683317840099335e-01" nType="0">
            <Node pos="l" depth="3" NCoef="0" IVar="-1" Cut="0.0000000000000000e+00" cType="1" res="-1.7252416582778096e-03" rms="2.7781313657760620e-01" purity="1.4172731339931488e-01" nType="-99"/>
            <Node pos="r" depth="3" NCoef="0" IVar="-1" Cut="0.0000000000000000e+00" cType="1" res="-1.7103087157011032e-02" rms="3.5105773806571960e-01" purity="4.0266308188438416e-01" nType="-99"/>
          </Node>
          <Node pos="r" depth="2" NCoef="0" IVar="8" Cut="-1.1998770236968994e+00" cType="1" res="1.7409486463293433e-03" rms="2.8396099805831909e-01" purity="7.6248246431350708e-01" nType="0">
            <Node pos="l" depth="3" NCoef="0" IVar="-1" Cut="0.0000000000000000e+00" cType="1" res="-1.8058668822050095e-02" rms="2.9504266381263733e-01" purity="4.9838191270828247e-01" nType="-99"/>
            <Node pos="r" depth="3" NCoef="0" IVar="-1" Cut="0.0000000000000000e+00" cType="1" res="4.0135262534022331e-03" rms="2.8303781151771545e-01" purity="7.8265380859375000e-01" nType="-99"/>
          </Node>
        </Node>
      </Node>
    </BinaryTree>
    <BinaryTree type="DecisionTree" boostWeight="1.0000000000000000e+00" itree="239">
      <Node pos="s" depth="0" NCoef="0" IVar="8" Cut="-6.6672676801681519e-01" cType="1" res="9.9725218024104834e-04" rms="2.9112219810485840e-01" purity="5.0773406028747559e-01" nType="0">
        <Node pos="l" depth="1" NCoef="0" IVar="10" Cut="9.3298071622848511e-01" cType="1" res="7.7092521823942661e-03" rms="2.8795316815376282e-01" purity="3.7629401683807373e-01" nType="0">
          <Node pos="l" depth="2" NCoef="0" IVar="8" Cut="-1.8857061862945557e+00" cType="1" res="1.1869573965668678e-02" rms="2.8801038861274719e-01" purity="4.0053084492683411e-01" nType="0">
            <Node pos="l" depth="3" NCoef="0" IVar="-1" Cut="0.0000000000000000e+00" cType="1" res="-3.7849459797143936e-02" rms="1.7743201553821564e-01" purity="7.3881380259990692e-02" nType="-99"/>
            <Node pos="r" depth="3" NCoef="0" IVar="-1" Cut="0.0000000000000000e+00" cType="1" res="1.7918871715664864e-02" rms="3.0229902267456055e-01" purity="4.5494514703750610e-01" nType="-99"/>
          </Node>
          <Node pos="r" depth="2" NCoef="0" IVar="-1" Cut="0.0000000000000000e+00" cType="1" res="-1.1419640854001045e-02" rms="2.8711882233619690e-01" purity="2.7910655736923218e-01" nType="-99"/>
        </Node>
        <Node pos="r" depth="1" NCoef="0" IVar="3" Cut="2.4268443298339844e+02" cType="1" res="-1.1783494846895337e-03" rms="2.9210895299911499e-01" purity="5.5033850669860840e-01" nType="0">
          <Node pos="l" depth="2" NCoef="0" IVar="11" Cut="1.1427444219589233e+00" cType="1" res="-5.9381444007158279e-03" rms="2.9597675800323486e-01" purity="4.0627011656761169e-01" nType="0">
            <Node pos="l" depth="3" NCoef="0" IVar="-1" Cut="0.0000000000000000e+00" cType="1" res="-9.5810256898403168e-03" rms="2.9313740134239197e-01" purity="3.8499268889427185e-01" nType="-99"/>
            <Node pos="r" depth="3" NCoef="0" IVar="-1" Cut="0.0000000000000000e+00" cType="1" res="1.8111329525709152e-02" rms="3.2203912734985352e-01" purity="6.1979472637176514e-01" nType="-99"/>
          </Node>
          <Node pos="r" depth="2" NCoef="0" IVar="5" Cut="6.8814674377441406e+01" cType="1" res="5.0693168304860592e-03" rms="2.8683310747146606e-01" purity="7.3944145441055298e-01" nType="0">
            <Node pos="l" depth="3" NCoef="0" IVar="-1" Cut="0.0000000000000000e+00" cType="1" res="1.4428031630814075e-02" rms="3.5740709304809570e-01" purity="3.9504739642143250e-01" nType="-99"/>
            <Node pos="r" depth="3" NCoef="0" IVar="-1" Cut="0.0000000000000000e+00" cType="1" res="2.1487288177013397e-03" rms="2.6474165916442871e-01" purity="8.3129328489303589e-01" nType="-99"/>
          </Node>
        </Node>
      </Node>
    </BinaryTree>
    <BinaryTree type="DecisionTree" boostWeight="1.0000000000000000e+00" itree="240">
      <Node pos="s" depth="0" NCoef="0" IVar="0" Cut="1.4002785644531250e+03" cType="1" res="-1.3410972314886749e-04" rms="2.9036030173301697e-01" purity="4.9696087837219238e-01" nType="0">
        <Node pos="l" depth="1" NCoef="0" IVar="11" Cut="-1.8956884145736694e+00" cType="1" res="-5.0345384515821934e-03" rms="2.9059764742851257e-01" purity="1.8396335840225220e-01" nType="0">
          <Node pos="l" depth="2" NCoef="0" IVar="1" Cut="8.3668172359466553e-02" cType="1" res="5.0847046077251434e-04" rms="2.6458951830863953e-01" purity="1.1410180479288101e-01" nType="0">
            <Node pos="l" depth="3" NCoef="0" IVar="-1" Cut="0.0000000000000000e+00" cType="1" res="-6.6392365843057632e-03" rms="2.2365806996822357e-01" purity="6.9339819252490997e-02" nType="-99"/>
            <Node pos="r" depth="3" NCoef="0" IVar="-1" Cut="0.0000000000000000e+00" cType="1" res="1.3358120806515217e-02" rms="4.1162726283073425e-01" purity="3.3790233731269836e-01" nType="-99"/>
          </Node>
          <Node pos="r" depth="2" NCoef="0" IVar="7" Cut="-4.5463301241397858e-02" cType="1" res="-2.0663516595959663e-02" rms="3.5331159830093384e-01" purity="3.8094389438629150e-01" nType="0">
            <Node pos="l" depth="3" NCoef="0" IVar="-1" Cut="0.0000000000000000e+00" cType="1" res="-1.2230586726218462e-03" rms="3.5911908745765686e-01" purity="4.0619379281997681e-01" nType="-99"/>
            <Node pos="r" depth="3" NCoef="0" IVar="-1" Cut="0.0000000000000000e+00" cType="1" res="-2.9215453192591667e-02" rms="3.4732198715209961e-01" purity="3.5893625020980835e-01" nType="-99"/>
          </Node>
        </Node>
        <Node pos="r" depth="1" NCoef="0" IVar="9" Cut="-6.6667211055755615e-01" cType="1" res="3.7997257895767689e-03" rms="2.9010975360870361e-01" purity="7.4822068214416504e-01" nType="0">
          <Node pos="l" depth="2" NCoef="0" IVar="5" Cut="8.0808311462402344e+01" cType="1" res="1.5609527938067913e-02" rms="3.0695462226867676e-01" purity="6.7766445875167847e-01" nType="0">
            <Node pos="l" depth="3" NCoef="0" IVar="-1" Cut="0.0000000000000000e+00" cType="1" res="2.5335125625133514e-02" rms="3.6146491765975952e-01" purity="4.2257675528526306e-01" nType="-99"/>
            <Node pos="r" depth="3" NCoef="0" IVar="-1" Cut="0.0000000000000000e+00" cType="1" res="8.9151076972484589e-03" rms="2.7456480264663696e-01" purity="8.0811494588851929e-01" nType="-99"/>
          </Node>
          <Node pos="r" depth="2" NCoef="0" IVar="9" Cut="1.4793618917465210e+00" cType="1" res="1.2842174328397959e-04" rms="2.8457033634185791e-01" purity="7.7015441656112671e-01" nType="0">
            <Node pos="l" depth="3" NCoef="0" IVar="-1" Cut="0.0000000000000000e+00" cType="1" res="-2.4396935477852821e-03" rms="2.8001421689987183e-01" purity="7.9494541883468628e-01" nType="-99"/>
            <Node pos="r" depth="3" NCoef="0" IVar="-1" Cut="0.0000000000000000e+00" cType="1" res="2.1966794505715370e-02" rms="3.3436515927314758e-01" purity="4.6651166677474976e-01" nType="-99"/>
          </Node>
        </Node>
      </Node>
    </BinaryTree>
    <BinaryTree type="DecisionTree" boostWeight="1.0000000000000000e+00" itree="241">
      <Node pos="s" depth="0" NCoef="0" IVar="11" Cut="-2.4476714134216309e+00" cType="1" res="2.7323767426423728e-04" rms="2.9099586606025696e-01" purity="4.9896273016929626e-01" nType="0">
        <Node pos="l" depth="1" NCoef="0" IVar="1" Cut="6.2751308083534241e-02" cType="1" res="-4.7956048510968685e-03" rms="2.9995080828666687e-01" purity="2.2294373810291290e-01" nType="0">
          <Node pos="l" depth="2" NCoef="0" IVar="1" Cut="4.7808129340410233e-02" cType="1" res="-1.3849561219103634e-04" rms="2.6476657390594482e-01" purity="1.4621733129024506e-01" nType="0">
            <Node pos="l" depth="3" NCoef="0" IVar="-1" Cut="0.0000000000000000e+00" cType="1" res="-6.0429461300373077e-03" rms="2.4690821766853333e-01" purity="1.2502413988113403e-01" nType="-99"/>
            <Node pos="r" depth="3" NCoef="0" IVar="-1" Cut="0.0000000000000000e+00" cType="1" res="2.3129066452383995e-02" rms="3.6322420835494995e-01" purity="2.9136636853218079e-01" nType="-99"/>
          </Node>
          <Node pos="r" depth="2" NCoef="0" IVar="7" Cut="4.9764859676361084e-01" cType="1" res="-1.7720635980367661e-02" rms="3.8063988089561462e-01" purity="4.3588513135910034e-01" nType="0">
            <Node pos="l" depth="3" NCoef="0" IVar="-1" Cut="0.0000000000000000e+00" cType="1" res="-5.8012679219245911e-03" rms="3.8599821925163269e-01" purity="4.6498921513557434e-01" nType="-99"/>
            <Node pos="r" depth="3" NCoef="0" IVar="-1" Cut="0.0000000000000000e+00" cType="1" res="-3.7911117076873779e-02" rms="3.6039301753044128e-01" purity="3.3888044953346252e-01" nType="-99"/>
          </Node>
        </Node>
        <Node pos="r" depth="1" NCoef="0" IVar="5" Cut="9.1592155456542969e+01" cType="1" res="4.8781498335301876e-03" rms="2.8253585100173950e-01" purity="7.4971878528594971e-01" nType="0">
          <Node pos="l" depth="2" NCoef="0" IVar="10" Cut="-1.1999562978744507e+00" cType="1" res="1.1471441015601158e-02" rms="3.4009987115859985e-01" purity="5.3091990947723389e-01" nType="0">
            <Node pos="l" depth="3" NCoef="0" IVar="-1" Cut="0.0000000000000000e+00" cType="1" res="-9.8377056419849396e-03" rms="3.2998925447463989e-01" purity="4.3166884779930115e-01" nType="-99"/>
            <Node pos="r" depth="3" NCoef="0" IVar="-1" Cut="0.0000000000000000e+00" cType="1" res="1.3602882623672485e-02" rms="3.4202411770820618e-01" purity="5.5212807655334473e-01" nType="-99"/>
          </Node>
          <Node pos="r" depth="2" NCoef="0" IVar="7" Cut="-3.2626149058341980e-01" cType="1" res="7.4823497561737895e-04" rms="2.3944064974784851e-01" purity="8.8677030801773071e-01" nType="0">
            <Node pos="l" depth="3" NCoef="0" IVar="-1" Cut="0.0000000000000000e+00" cType="1" res="-1.2343300506472588e-02" rms="2.6190268993377686e-01" purity="8.4917145967483521e-01" nType="-99"/>
            <Node pos="r" depth="3" NCoef="0" IVar="-1" Cut="0.0000000000000000e+00" cType="1" res="8.7372353300452232e-03" rms="2.2884909808635712e-01" purity="9.0314882993698120e-01" nType="-99"/>
          </Node>
        </Node>
      </Node>
    </BinaryTree>
    <BinaryTree type="DecisionTree" boostWeight="1.0000000000000000e+00" itree="242">
      <Node pos="s" depth="0" NCoef="0" IVar="9" Cut="9.3332934379577637e-01" cType="1" res="3.5830854903906584e-03" rms="2.9552128911018372e-01" purity="5.0180566310882568e-01" nType="0">
        <Node pos="l" depth="1" NCoef="0" IVar="10" Cut="1.7330732345581055e+00" cType="1" res="8.9410954387858510e-04" rms="2.9507410526275635e-01" purity="5.3653019666671753e-01" nType="0">
          <Node pos="l" depth="2" NCoef="0" IVar="1" Cut="1.0251536965370178e-01" cType="1" res="-5.0875107990577817e-04" rms="2.9479154944419861e-01" purity="5.5009597539901733e-01" nType="0">
            <Node pos="l" depth="3" NCoef="0" IVar="-1" Cut="0.0000000000000000e+00" cType="1" res="3.2464291434735060e-03" rms="3.0641722679138184e-01" purity="4.1812124848365784e-01" nType="-99"/>
            <Node pos="r" depth="3" NCoef="0" IVar="-1" Cut="0.0000000000000000e+00" cType="1" res="-1.2197947129607201e-02" rms="2.6696118712425232e-01" purity="8.4358686208724976e-01" nType="-99"/>
          </Node>
          <Node pos="r" depth="2" NCoef="0" IVar="4" Cut="1.3228474426269531e+02" cType="1" res="1.9556092098355293e-02" rms="2.9818013310432434e-01" purity="3.5606706142425537e-01" nType="0">
            <Node pos="l" depth="3" NCoef="0" IVar="-1" Cut="0.0000000000000000e+00" cType="1" res="1.1206638067960739e-02" rms="2.4751609563827515e-01" purity="1.2690541148185730e-01" nType="-99"/>
            <Node pos="r" depth="3" NCoef="0" IVar="-1" Cut="0.0000000000000000e+00" cType="1" res="2.7773078531026840e-02" rms="3.3564516901969910e-01" purity="5.5519694089889526e-01" nType="-99"/>
          </Node>
        </Node>
        <Node pos="r" depth="1" NCoef="0" IVar="8" Cut="-1.3374927639961243e-01" cType="1" res="1.4737688004970551e-02" rms="2.9710933566093445e-01" purity="3.5775879025459290e-01" nType="0">
          <Node pos="l" depth="2" NCoef="0" IVar="4" Cut="1.2178152465820312e+02" cType="1" res="8.2074338570237160e-04" rms="2.8779157996177673e-01" purity="3.0883756279945374e-01" nType="0">
            <Node pos="l" depth="3" NCoef="0" IVar="-1" Cut="0.0000000000000000e+00" cType="1" res="3.2886367291212082e-02" rms="2.4773940443992615e-01" purity="1.0888452082872391e-01" nType="-99"/>
            <Node pos="r" depth="3" NCoef="0" IVar="-1" Cut="0.0000000000000000e+00" cType="1" res="-1.0377965867519379e-02" rms="3.1205371022224426e-01" purity="4.4726386666297913e-01" nType="-99"/>
          </Node>
          <Node pos="r" depth="2" NCoef="0" IVar="5" Cut="6.5426216125488281e+01" cType="1" res="2.3192586377263069e-02" rms="3.0231738090515137e-01" purity="3.8747972249984741e-01" nType="0">
            <Node pos="l" depth="3" NCoef="0" IVar="-1" Cut="0.0000000000000000e+00" cType="1" res="5.8944672346115112e-02" rms="2.9310372471809387e-01" purity="1.6283689439296722e-01" nType="-99"/>
            <Node pos="r" depth="3" NCoef="0" IVar="-1" Cut="0.0000000000000000e+00" cType="1" res="1.3588670641183853e-02" rms="3.0773153901100159e-01" purity="5.3382670879364014e-01" nType="-99"/>
          </Node>
        </Node>
      </Node>
    </BinaryTree>
    <BinaryTree type="DecisionTree" boostWeight="1.0000000000000000e+00" itree="243">
      <Node pos="s" depth="0" NCoef="0" IVar="11" Cut="-1.3428606986999512e+00" cType="1" res="-1.6885529039427638e-03" rms="2.8643089532852173e-01" purity="4.9985823035240173e-01" nType="0">
        <Node pos="l" depth="1" NCoef="0" IVar="10" Cut="3.9991134405136108e-01" cType="1" res="-6.9900453090667725e-03" rms="2.9398566484451294e-01" purity="2.7028596401214600e-01" nType="0">
          <Node pos="l" depth="2" NCoef="0" IVar="7" Cut="-8.8813352584838867e-01" cType="1" res="-1.3942156918346882e-02" rms="2.9162684082984924e-01" purity="2.7353012561798096e-01" nType="0">
            <Node pos="l" depth="3" NCoef="0" IVar="-1" Cut="0.0000000000000000e+00" cType="1" res="-1.3811750104650855e-03" rms="2.3246334493160248e-01" purity="1.2976936995983124e-01" nType="-99"/>
            <Node pos="r" depth="3" NCoef="0" IVar="-1" Cut="0.0000000000000000e+00" cType="1" res="-1.7899606376886368e-02" rms="3.0572786927223206e-01" purity="3.1286320090293884e-01" nType="-99"/>
          </Node>
          <Node pos="r" depth="2" NCoef="0" IVar="5" Cut="6.5706848144531250e+01" cType="1" res="4.0379725396633148e-03" rms="2.9735586047172546e-01" purity="2.6513975858688354e-01" nType="0">
            <Node pos="l" depth="3" NCoef="0" IVar="-1" Cut="0.0000000000000000e+00" cType="1" res="1.8154688179492950e-02" rms="2.7080219984054565e-01" purity="1.5030927956104279e-01" nType="-99"/>
            <Node pos="r" depth="3" NCoef="0" IVar="-1" Cut="0.0000000000000000e+00" cType="1" res="-6.2676141969859600e-03" rms="3.2625648379325867e-01" purity="4.0395042300224304e-01" nType="-99"/>
          </Node>
        </Node>
        <Node pos="r" depth="1" NCoef="0" IVar="2" Cut="3.1339077758789062e+02" cType="1" res="4.5091267675161362e-03" rms="2.7720972895622253e-01" purity="7.6823836565017700e-01" nType="0">
          <Node pos="l" depth="2" NCoef="0" IVar="5" Cut="9.8819900512695312e+01" cType="1" res="1.5663994476199150e-02" rms="2.9447016119956970e-01" purity="7.2600030899047852e-01" nType="0">
            <Node pos="l" depth="3" NCoef="0" IVar="-1" Cut="0.0000000000000000e+00" cType="1" res="2.1398721262812614e-02" rms="3.4169244766235352e-01" purity="5.7299262285232544e-01" nType="-99"/>
            <Node pos="r" depth="3" NCoef="0" IVar="-1" Cut="0.0000000000000000e+00" cType="1" res="7.3864790610969067e-03" rms="2.3284298181533813e-01" purity="8.9028871059417725e-01" nType="-99"/>
          </Node>
          <Node pos="r" depth="2" NCoef="0" IVar="3" Cut="1.8754510498046875e+02" cType="1" res="-1.4314461732283235e-03" rms="2.6737377047538757e-01" purity="7.9073238372802734e-01" nType="0">
            <Node pos="l" depth="3" NCoef="0" IVar="-1" Cut="0.0000000000000000e+00" cType="1" res="1.6177112236618996e-02" rms="3.1744387745857239e-01" purity="4.9784216284751892e-01" nType="-99"/>
            <Node pos="r" depth="3" NCoef="0" IVar="-1" Cut="0.0000000000000000e+00" cType="1" res="-6.1016478575766087e-03" rms="2.5856742262840271e-01" purity="8.3645898103713989e-01" nType="-99"/>
          </Node>
        </Node>
      </Node>
    </BinaryTree>
    <BinaryTree type="DecisionTree" boostWeight="1.0000000000000000e+00" itree="244">
      <Node pos="s" depth="0" NCoef="0" IVar="7" Cut="9.3671518564224243e-01" cType="1" res="-1.3949071289971471e-03" rms="2.8806465864181519e-01" purity="4.9893119931221008e-01" nType="0">
        <Node pos="l" depth="1" NCoef="0" IVar="9" Cut="-1.9999928474426270e+00" cType="1" res="-7.6457603427115828e-05" rms="2.9432150721549988e-01" purity="5.4731863737106323e-01" nType="0">
          <Node pos="l" depth="2" NCoef="0" IVar="-1" Cut="0.0000000000000000e+00" cType="1" res="-3.0599717050790787e-02" rms="2.2233404219150543e-01" purity="1.1939538270235062e-01" nType="-99"/>
          <Node pos="r" depth="2" NCoef="0" IVar="11" Cut="5.9046846628189087e-01" cType="1" res="5.7568371994420886e-04" rms="2.9643341898918152e-01" purity="5.6182259321212769e-01" nType="0">
            <Node pos="l" depth="3" NCoef="0" IVar="-1" Cut="0.0000000000000000e+00" cType="1" res="2.1889498457312584e-03" rms="2.9880461096763611e-01" purity="5.2117967605590820e-01" nType="-99"/>
            <Node pos="r" depth="3" NCoef="0" IVar="-1" Cut="0.0000000000000000e+00" cType="1" res="-7.8842360526323318e-03" rms="2.8406909108161926e-01" purity="7.6678156852722168e-01" nType="-99"/>
          </Node>
        </Node>
        <Node pos="r" depth="1" NCoef="0" IVar="7" Cut="1.2028288841247559e+00" cType="1" res="-8.9149074628949165e-03" rms="2.4926123023033142e-01" purity="2.2294534742832184e-01" nType="0">
          <Node pos="l" depth="2" NCoef="0" IVar="-1" Cut="0.0000000000000000e+00" cType="1" res="-2.3536348715424538e-02" rms="2.9836317896842957e-01" purity="3.5996648669242859e-01" nType="-99"/>
          <Node pos="r" depth="2" NCoef="0" IVar="10" Cut="-1.3341967761516571e-01" cType="1" res="-2.0590447820723057e-03" rms="2.1939255297183990e-01" purity="1.5231929719448090e-01" nType="0">
            <Node pos="l" depth="3" NCoef="0" IVar="-1" Cut="0.0000000000000000e+00" cType="1" res="-2.5701180100440979e-02" rms="2.0907212793827057e-01" purity="1.0901013761758804e-01" nType="-99"/>
            <Node pos="r" depth="3" NCoef="0" IVar="-1" Cut="0.0000000000000000e+00" cType="1" res="7.4730687774717808e-03" rms="2.2532330453395844e-01" purity="1.7911696434020996e-01" nType="-99"/>
          </Node>
        </Node>
      </Node>
    </BinaryTree>
    <BinaryTree type="DecisionTree" boostWeight="1.0000000000000000e+00" itree="245">
      <Node pos="s" depth="0" NCoef="0" IVar="7" Cut="6.9271123409271240e-01" cType="1" res="8.0641533713787794e-04" rms="2.9009214043617249e-01" purity="4.9904868006706238e-01" nType="0">
        <Node pos="l" depth="1" NCoef="0" IVar="9" Cut="-1.1995894908905029e+00" cType="1" res="-1.8107889918610454e-03" rms="2.9288822412490845e-01" purity="5.4847228527069092e-01" nType="0">
          <Node pos="l" depth="2" NCoef="0" IVar="1" Cut="4.0900677442550659e-02" cType="1" res="8.6134485900402069e-03" rms="2.9898804426193237e-01" purity="3.4423908591270447e-01" nType="0">
            <Node pos="l" depth="3" NCoef="0" IVar="-1" Cut="0.0000000000000000e+00" cType="1" res="-5.1273712888360023e-03" rms="2.5708162784576416e-01" purity="1.2785160541534424e-01" nType="-99"/>
            <Node pos="r" depth="3" NCoef="0" IVar="-1" Cut="0.0000000000000000e+00" cType="1" res="1.7327919602394104e-02" rms="3.3506125211715698e-01" purity="5.5929630994796753e-01" nType="-99"/>
          </Node>
          <Node pos="r" depth="2" NCoef="0" IVar="4" Cut="1.3756301879882812e+02" cType="1" res="-3.4501284826546907e-03" rms="2.9188346862792969e-01" purity="5.8059054613113403e-01" nType="0">
            <Node pos="l" depth="3" NCoef="0" IVar="-1" Cut="0.0000000000000000e+00" cType="1" res="-1.0651417076587677e-02" rms="2.9605534672737122e-01" purity="2.4453334510326385e-01" nType="-99"/>
            <Node pos="r" depth="3" NCoef="0" IVar="-1" Cut="0.0000000000000000e+00" cType="1" res="-5.7737903262022883e-05" rms="2.8955054283142090e-01" purity="7.6191377639770508e-01" nType="-99"/>
          </Node>
        </Node>
        <Node pos="r" depth="1" NCoef="0" IVar="5" Cut="9.9383628845214844e+01" cType="1" res="1.0221278294920921e-02" rms="2.7960032224655151e-01" purity="3.2125726342201233e-01" nType="0">
          <Node pos="l" depth="2" NCoef="0" IVar="7" Cut="1.3948689699172974e+00" cType="1" res="3.9732973091304302e-03" rms="2.7229461073875427e-01" purity="1.7564269900321960e-01" nType="0">
            <Node pos="l" depth="3" NCoef="0" IVar="-1" Cut="0.0000000000000000e+00" cType="1" res="1.2921407818794250e-02" rms="3.2112926244735718e-01" purity="2.5617283582687378e-01" nType="-99"/>
            <Node pos="r" depth="3" NCoef="0" IVar="-1" Cut="0.0000000000000000e+00" cType="1" res="-2.9781175777316093e-02" rms="1.5760453045368195e-01" purity="3.9458412677049637e-02" nType="-99"/>
          </Node>
          <Node pos="r" depth="2" NCoef="0" IVar="-1" Cut="0.0000000000000000e+00" cType="1" res="3.0682254582643509e-02" rms="2.9978257417678833e-01" purity="7.6064729690551758e-01" nType="-99"/>
        </Node>
      </Node>
    </BinaryTree>
    <BinaryTree type="DecisionTree" boostWeight="1.0000000000000000e+00" itree="246">
      <Node pos="s" depth="0" NCoef="0" IVar="9" Cut="-9.3344688415527344e-01" cType="1" res="1.0826875222846866e-03" rms="2.8859829902648926e-01" purity="4.9830776453018188e-01" nType="0">
        <Node pos="l" depth="1" NCoef="0" IVar="4" Cut="1.3280215454101562e+02" cType="1" res="-9.1713182628154755e-03" rms="2.8190794587135315e-01" purity="3.3736082911491394e-01" nType="0">
          <Node pos="l" depth="2" NCoef="0" IVar="4" Cut="8.6557319641113281e+01" cType="1" res="2.7266745455563068e-03" rms="2.5374299287796021e-01" purity="1.5272226929664612e-01" nType="0">
            <Node pos="l" depth="3" NCoef="0" IVar="-1" Cut="0.0000000000000000e+00" cType="1" res="5.7094849646091461e-02" rms="2.2938206791877747e-01" purity="7.2394683957099915e-02" nType="-99"/>
            <Node pos="r" depth="3" NCoef="0" IVar="-1" Cut="0.0000000000000000e+00" cType="1" res="-7.2169299237430096e-03" rms="2.6395839452743530e-01" purity="1.9041359424591064e-01" nType="-99"/>
          </Node>
          <Node pos="r" depth="2" NCoef="0" IVar="9" Cut="-1.3779035806655884e+00" cType="1" res="-2.0531103014945984e-02" rms="3.0596080422401428e-01" purity="5.1364719867706299e-01" nType="0">
            <Node pos="l" depth="3" NCoef="0" IVar="-1" Cut="0.0000000000000000e+00" cType="1" res="-3.5694468766450882e-02" rms="2.8995352983474731e-01" purity="3.6003756523132324e-01" nType="-99"/>
            <Node pos="r" depth="3" NCoef="0" IVar="-1" Cut="0.0000000000000000e+00" cType="1" res="-7.1938219480216503e-03" rms="3.1790202856063843e-01" purity="6.3970386981964111e-01" nType="-99"/>
          </Node>
        </Node>
        <Node pos="r" depth="1" NCoef="0" IVar="10" Cut="-1.9999593496322632e+00" cType="1" res="3.5165413282811642e-03" rms="2.9011043906211853e-01" purity="5.3650951385498047e-01" nType="0">
          <Node pos="l" depth="2" NCoef="0" IVar="-1" Cut="0.0000000000000000e+00" cType="1" res="-1.9592860713601112e-02" rms="2.9677796363830566e-01" purity="2.7079504728317261e-01" nType="-99"/>
          <Node pos="r" depth="2" NCoef="0" IVar="10" Cut="2.8566357493400574e-01" cType="1" res="4.3929982930421829e-03" rms="2.8979817032814026e-01" purity="5.4749155044555664e-01" nType="0">
            <Node pos="l" depth="3" NCoef="0" IVar="-1" Cut="0.0000000000000000e+00" cType="1" res="9.1554652899503708e-03" rms="2.9040351510047913e-01" purity="5.7569682598114014e-01" nType="-99"/>
            <Node pos="r" depth="3" NCoef="0" IVar="-1" Cut="0.0000000000000000e+00" cType="1" res="1.2515112757682800e-04" rms="2.8896525502204895e-01" purity="5.1140260696411133e-01" nType="-99"/>
          </Node>
        </Node>
      </Node>
    </BinaryTree>
    <BinaryTree type="DecisionTree" boostWeight="1.0000000000000000e+00" itree="247">
      <Node pos="s" depth="0" NCoef="0" IVar="10" Cut="3.9996641874313354e-01" cType="1" res="7.8813673462718725e-04" rms="2.8931838274002075e-01" purity="5.0167798995971680e-01" nType="0">
        <Node pos="l" depth="1" NCoef="0" IVar="1" Cut="1.3794314861297607e-01" cType="1" res="-2.2159097716212273e-03" rms="2.8851801156997681e-01" purity="5.1763468980789185e-01" nType="0">
          <Node pos="l" depth="2" NCoef="0" IVar="10" Cut="-1.7332515716552734e+00" cType="1" res="-4.1204360313713551e-03" rms="2.9808419942855835e-01" purity="4.3415918946266174e-01" nType="0">
            <Node pos="l" depth="3" NCoef="0" IVar="-1" Cut="0.0000000000000000e+00" cType="1" res="-1.9383454695343971e-02" rms="2.8923550248146057e-01" purity="2.2206562757492065e-01" nType="-99"/>
            <Node pos="r" depth="3" NCoef="0" IVar="-1" Cut="0.0000000000000000e+00" cType="1" res="-2.4784039705991745e-03" rms="2.9936853051185608e-01" purity="4.6657037734985352e-01" nType="-99"/>
          </Node>
          <Node pos="r" depth="2" NCoef="0" IVar="-1" Cut="0.0000000000000000e+00" cType="1" res="1.0156529024243355e-02" rms="2.4201148748397827e-01" purity="8.8339030742645264e-01" nType="-99"/>
        </Node>
        <Node pos="r" depth="1" NCoef="0" IVar="2" Cut="4.4429974365234375e+02" cType="1" res="5.7490020990371704e-03" rms="2.9056733846664429e-01" purity="4.7532701492309570e-01" nType="0">
          <Node pos="l" depth="2" NCoef="0" IVar="5" Cut="8.4046379089355469e+01" cType="1" res="9.4345593824982643e-03" rms="2.9032418131828308e-01" purity="4.4862067699432373e-01" nType="0">
            <Node pos="l" depth="3" NCoef="0" IVar="-1" Cut="0.0000000000000000e+00" cType="1" res="4.9391798675060272e-03" rms="2.9454588890075684e-01" purity="2.2580620646476746e-01" nType="-99"/>
            <Node pos="r" depth="3" NCoef="0" IVar="-1" Cut="0.0000000000000000e+00" cType="1" res="2.0021414384245872e-02" rms="2.8392669558525085e-01" purity="7.7094012498855591e-01" nType="-99"/>
          </Node>
          <Node pos="r" depth="2" NCoef="0" IVar="4" Cut="2.1349765014648438e+02" cType="1" res="-3.7963495124131441e-03" rms="2.9097923636436462e-01" purity="5.4449468851089478e-01" nType="0">
            <Node pos="l" depth="3" NCoef="0" IVar="-1" Cut="0.0000000000000000e+00" cType="1" res="-1.2474996037781239e-02" rms="2.9547932744026184e-01" purity="3.7809801101684570e-01" nType="-99"/>
            <Node pos="r" depth="3" NCoef="0" IVar="-1" Cut="0.0000000000000000e+00" cType="1" res="1.2087916024029255e-02" rms="2.8286305069923401e-01" purity="8.1988656520843506e-01" nType="-99"/>
          </Node>
        </Node>
      </Node>
    </BinaryTree>
    <BinaryTree type="DecisionTree" boostWeight="1.0000000000000000e+00" itree="248">
      <Node pos="s" depth="0" NCoef="0" IVar="9" Cut="1.9999849796295166e+00" cType="1" res="-1.2002984294667840e-03" rms="2.9326203465461731e-01" purity="5.0061082839965820e-01" nType="0">
        <Node pos="l" depth="1" NCoef="0" IVar="8" Cut="-1.7334908246994019e+00" cType="1" res="-2.0498610101640224e-03" rms="2.9451143741607666e-01" purity="5.1249957084655762e-01" nType="0">
          <Node pos="l" depth="2" NCoef="0" IVar="-1" Cut="0.0000000000000000e+00" cType="1" res="3.4003037959337234e-02" rms="2.2812770307064056e-01" purity="1.3129580020904541e-01" nType="-99"/>
          <Node pos="r" depth="2" NCoef="0" IVar="4" Cut="1.6261836242675781e+02" cType="1" res="-2.9448412824422121e-03" rms="2.9741251468658447e-01" purity="5.3155201673507690e-01" nType="0">
            <Node pos="l" depth="3" NCoef="0" IVar="-1" Cut="0.0000000000000000e+00" cType="1" res="-8.1522623077034950e-03" rms="3.0399063229560852e-01" purity="3.0950483679771423e-01" nType="-99"/>
            <Node pos="r" depth="3" NCoef="0" IVar="-1" Cut="0.0000000000000000e+00" cType="1" res="2.5769914500415325e-03" rms="2.8996255993843079e-01" purity="7.7433729171752930e-01" nType="-99"/>
          </Node>
        </Node>
        <Node pos="r" depth="1" NCoef="0" IVar="-1" Cut="0.0000000000000000e+00" cType="1" res="4.1914392262697220e-02" rms="2.5328671932220459e-01" purity="1.5700370073318481e-01" nType="-99"/>
      </Node>
    </BinaryTree>
    <BinaryTree type="DecisionTree" boostWeight="1.0000000000000000e+00" itree="249">
      <Node pos="s" depth="0" NCoef="0" IVar="3" Cut="3.2024514770507812e+02" cType="1" res="-8.3468930097296834e-04" rms="2.9147511720657349e-01" purity="4.9534606933593750e-01" nType="0">
        <Node pos="l" depth="1" NCoef="0" IVar="7" Cut="-3.9362621307373047e-01" cType="1" res="1.3525227550417185e-03" rms="2.9158669710159302e-01" purity="4.4636991620063782e-01" nType="0">
          <Node pos="l" depth="2" NCoef="0" IVar="9" Cut="-1.3312263786792755e-01" cType="1" res="7.5904000550508499e-03" rms="2.8467288613319397e-01" purity="3.7692141532897949e-01" nType="0">
            <Node pos="l" depth="3" NCoef="0" IVar="-1" Cut="0.0000000000000000e+00" cType="1" res="1.9679488614201546e-02" rms="2.9524713754653931e-01" purity="3.8639870285987854e-01" nType="-99"/>
            <Node pos="r" depth="3" NCoef="0" IVar="-1" Cut="0.0000000000000000e+00" cType="1" res="-2.9615724924951792e-03" rms="2.7265578508377075e-01" purity="3.6685994267463684e-01" nType="-99"/>
          </Node>
          <Node pos="r" depth="2" NCoef="0" IVar="4" Cut="1.5307283020019531e+02" cType="1" res="-1.8368179444223642e-03" rms="2.9500812292098999e-01" purity="4.8187798261642456e-01" nType="0">
            <Node pos="l" depth="3" NCoef="0" IVar="-1" Cut="0.0000000000000000e+00" cType="1" res="-8.7673868983983994e-03" rms="2.9114073514938354e-01" purity="2.6559990644454956e-01" nType="-99"/>
            <Node pos="r" depth="3" NCoef="0" IVar="-1" Cut="0.0000000000000000e+00" cType="1" res="5.7396930642426014e-03" rms="2.9942038655281067e-01" purity="7.4054342508316040e-01" nType="-99"/>
          </Node>
        </Node>
        <Node pos="r" depth="1" NCoef="0" IVar="0" Cut="1.6963146972656250e+03" cType="1" res="-1.1042782105505466e-02" rms="2.9073619842529297e-01" purity="7.2392612695693970e-01" nType="0">
          <Node pos="l" depth="2" NCoef="0" IVar="-1" Cut="0.0000000000000000e+00" cType="1" res="-3.2560382038354874e-02" rms="3.2958996295928955e-01" purity="2.5717058777809143e-01" nType="-99"/>
          <Node pos="r" depth="2" NCoef="0" IVar="8" Cut="3.9840465784072876e-01" cType="1" res="-5.9593552723526955e-03" rms="2.8289014101028442e-01" purity="8.0780065059661865e-01" nType="0">
            <Node pos="l" depth="3" NCoef="0" IVar="-1" Cut="0.0000000000000000e+00" cType="1" res="3.1275930814445019e-04" rms="2.7418458461761475e-01" purity="8.3578288555145264e-01" nType="-99"/>
            <Node pos="r" depth="3" NCoef="0" IVar="-1" Cut="0.0000000000000000e+00" cType="1" res="-2.6132958009839058e-02" rms="3.0354437232017517e-01" purity="7.3587900400161743e-01" nType="-99"/>
          </Node>
        </Node>
      </Node>
    </BinaryTree>
    <BinaryTree type="DecisionTree" boostWeight="1.0000000000000000e+00" itree="250">
      <Node pos="s" depth="0" NCoef="0" IVar="4" Cut="1.6200474548339844e+02" cType="1" res="2.4445627350360155e-03" rms="2.9083317518234253e-01" purity="5.0087922811508179e-01" nType="0">
        <Node pos="l" depth="1" NCoef="0" IVar="1" Cut="8.3672188222408295e-02" cType="1" res="7.0599140599370003e-03" rms="2.9358687996864319e-01" purity="2.8907215595245361e-01" nType="0">
          <Node pos="l" depth="2" NCoef="0" IVar="3" Cut="1.9388299560546875e+02" cType="1" res="3.5432549193501472e-03" rms="2.7464064955711365e-01" purity="1.8165706098079681e-01" nType="0">
            <Node pos="l" depth="3" NCoef="0" IVar="-1" Cut="0.0000000000000000e+00" cType="1" res="-3.5019060596823692e-03" rms="2.4378363788127899e-01" purity="1.2965127825737000e-01" nType="-99"/>
            <Node pos="r" depth="3" NCoef="0" IVar="-1" Cut="0.0000000000000000e+00" cType="1" res="1.4857320114970207e-02" rms="3.2432597875595093e-01" purity="2.7898541092872620e-01" nType="-99"/>
          </Node>
          <Node pos="r" depth="2" NCoef="0" IVar="4" Cut="1.2549291992187500e+02" cType="1" res="1.8386838957667351e-02" rms="3.4742039442062378e-01" purity="6.3504910469055176e-01" nType="0">
            <Node pos="l" depth="3" NCoef="0" IVar="-1" Cut="0.0000000000000000e+00" cType="1" res="3.0357936397194862e-02" rms="3.7301966547966003e-01" purity="4.5986098051071167e-01" nType="-99"/>
            <Node pos="r" depth="3" NCoef="0" IVar="-1" Cut="0.0000000000000000e+00" cType="1" res="3.0245785601437092e-03" rms="3.2748663425445557e-01" purity="7.5767195224761963e-01" nType="-99"/>
          </Node>
        </Node>
        <Node pos="r" depth="1" NCoef="0" IVar="1" Cut="4.1760563850402832e-02" cType="1" res="-2.9690838418900967e-03" rms="2.8747516870498657e-01" purity="7.4932152032852173e-01" nType="0">
          <Node pos="l" depth="2" NCoef="0" IVar="1" Cut="1.5915319323539734e-02" cType="1" res="6.9123380817472935e-03" rms="3.3672401309013367e-01" purity="4.4213283061981201e-01" nType="0">
            <Node pos="l" depth="3" NCoef="0" IVar="-1" Cut="0.0000000000000000e+00" cType="1" res="-1.1124542914330959e-02" rms="2.8349983692169189e-01" purity="2.4916321039199829e-01" nType="-99"/>
            <Node pos="r" depth="3" NCoef="0" IVar="-1" Cut="0.0000000000000000e+00" cType="1" res="1.2414925731718540e-02" rms="3.6167892813682556e-01" purity="5.4538893699645996e-01" nType="-99"/>
          </Node>
          <Node pos="r" depth="2" NCoef="0" IVar="6" Cut="1.5782839775085449e+01" cType="1" res="-6.4688231796026230e-03" rms="2.6778247952461243e-01" purity="8.5811960697174072e-01" nType="0">
            <Node pos="l" depth="3" NCoef="0" IVar="-1" Cut="0.0000000000000000e+00" cType="1" res="-1.8272528424859047e-02" rms="3.9488670229911804e-01" purity="5.9704530239105225e-01" nType="-99"/>
            <Node pos="r" depth="3" NCoef="0" IVar="-1" Cut="0.0000000000000000e+00" cType="1" res="-1.9719079136848450e-03" rms="2.2235301136970520e-01" purity="9.2669266462326050e-01" nType="-99"/>
          </Node>
        </Node>
      </Node>
    </BinaryTree>
    <BinaryTree type="DecisionTree" boostWeight="1.0000000000000000e+00" itree="251">
      <Node pos="s" depth="0" NCoef="0" IVar="7" Cut="-1.2805169820785522e-01" cType="1" res="-9.0563471894711256e-04" rms="2.8670799732208252e-01" purity="5.0275760889053345e-01" nType="0">
        <Node pos="l" depth="1" NCoef="0" IVar="10" Cut="-3.9991137385368347e-01" cType="1" res="-5.9829517267644405e-03" rms="2.8551194071769714e-01" purity="4.7020226716995239e-01" nType="0">
          <Node pos="l" depth="2" NCoef="0" IVar="11" Cut="3.7483897060155869e-02" cType="1" res="1.5097227878868580e-03" rms="2.9416048526763916e-01" purity="4.4217616319656372e-01" nType="0">
            <Node pos="l" depth="3" NCoef="0" IVar="-1" Cut="0.0000000000000000e+00" cType="1" res="-5.2323583513498306e-03" rms="2.8788965940475464e-01" purity="3.7471351027488708e-01" nType="-99"/>
            <Node pos="r" depth="3" NCoef="0" IVar="-1" Cut="0.0000000000000000e+00" cType="1" res="2.7737088501453400e-02" rms="3.1737780570983887e-01" purity="7.1816444396972656e-01" nType="-99"/>
          </Node>
          <Node pos="r" depth="2" NCoef="0" IVar="1" Cut="7.6378598809242249e-02" cType="1" res="-1.1459009721875191e-02" rms="2.7889433503150940e-01" purity="4.9068531394004822e-01" nType="0">
            <Node pos="l" depth="3" NCoef="0" IVar="-1" Cut="0.0000000000000000e+00" cType="1" res="-2.1049231290817261e-02" rms="2.8151595592498779e-01" purity="2.8855848312377930e-01" nType="-99"/>
            <Node pos="r" depth="3" NCoef="0" IVar="-1" Cut="0.0000000000000000e+00" cType="1" res="-1.2624626979231834e-03" rms="2.7447426319122314e-01" purity="8.0230033397674561e-01" nType="-99"/>
          </Node>
        </Node>
        <Node pos="r" depth="1" NCoef="0" IVar="9" Cut="1.1997478008270264e+00" cType="1" res="3.0680089257657528e-03" rms="2.8757807612419128e-01" purity="5.2823626995086670e-01" nType="0">
          <Node pos="l" depth="2" NCoef="0" IVar="5" Cut="1.0434900665283203e+02" cType="1" res="5.0339992158114910e-03" rms="2.9001423716545105e-01" purity="5.6508827209472656e-01" nType="0">
            <Node pos="l" depth="3" NCoef="0" IVar="-1" Cut="0.0000000000000000e+00" cType="1" res="9.0423338115215302e-03" rms="3.1295010447502136e-01" purity="4.0572857856750488e-01" nType="-99"/>
            <Node pos="r" depth="3" NCoef="0" IVar="-1" Cut="0.0000000000000000e+00" cType="1" res="-6.1562354676425457e-03" rms="2.3566626012325287e-01" purity="8.9310085773468018e-01" nType="-99"/>
          </Node>
          <Node pos="r" depth="2" NCoef="0" IVar="10" Cut="-1.3352873921394348e-01" cType="1" res="-8.8858678936958313e-03" rms="2.7199092507362366e-01" purity="3.0416372418403625e-01" nType="0">
            <Node pos="l" depth="3" NCoef="0" IVar="-1" Cut="0.0000000000000000e+00" cType="1" res="1.2982416898012161e-02" rms="2.7159804105758667e-01" purity="3.4181496500968933e-01" nType="-99"/>
            <Node pos="r" depth="3" NCoef="0" IVar="-1" Cut="0.0000000000000000e+00" cType="1" res="-2.4590821936726570e-02" rms="2.7161690592765808e-01" purity="2.8265580534934998e-01" nType="-99"/>
          </Node>
        </Node>
      </Node>
    </BinaryTree>
    <BinaryTree type="DecisionTree" boostWeight="1.0000000000000000e+00" itree="252">
      <Node pos="s" depth="0" NCoef="0" IVar="2" Cut="6.9907977294921875e+02" cType="1" res="-2.7561567258089781e-03" rms="2.8815054893493652e-01" purity="4.9453002214431763e-01" nType="0">
        <Node pos="l" depth="1" NCoef="0" IVar="9" Cut="-4.0005511045455933e-01" cType="1" res="-1.8978394800797105e-03" rms="2.8673404455184937e-01" purity="4.9148800969123840e-01" nType="0">
          <Node pos="l" depth="2" NCoef="0" IVar="4" Cut="1.3516947937011719e+02" cType="1" res="-7.1524507366120815e-03" rms="2.9027089476585388e-01" purity="4.4054567813873291e-01" nType="0">
            <Node pos="l" depth="3" NCoef="0" IVar="-1" Cut="0.0000000000000000e+00" cType="1" res="2.4324797559529543e-03" rms="2.7554184198379517e-01" purity="1.8512041866779327e-01" nType="-99"/>
            <Node pos="r" depth="3" NCoef="0" IVar="-1" Cut="0.0000000000000000e+00" cType="1" res="-1.4860196970403194e-02" rms="3.0065709352493286e-01" purity="6.3189953565597534e-01" nType="-99"/>
          </Node>
          <Node pos="r" depth="2" NCoef="0" IVar="1" Cut="1.4641977846622467e-01" cType="1" res="9.2367222532629967e-04" rms="2.8477677702903748e-01" purity="5.1884198188781738e-01" nType="0">
            <Node pos="l" depth="3" NCoef="0" IVar="-1" Cut="0.0000000000000000e+00" cType="1" res="3.5818873438984156e-03" rms="2.9194542765617371e-01" purity="4.4601649045944214e-01" nType="-99"/>
            <Node pos="r" depth="3" NCoef="0" IVar="-1" Cut="0.0000000000000000e+00" cType="1" res="-1.6807235777378082e-02" rms="2.4628490209579468e-01" purity="8.7650722265243530e-01" nType="-99"/>
          </Node>
        </Node>
        <Node pos="r" depth="1" NCoef="0" IVar="-1" Cut="0.0000000000000000e+00" cType="1" res="-2.0131126046180725e-02" rms="3.1964060664176941e-01" purity="5.6768620014190674e-01" nType="-99"/>
      </Node>
    </BinaryTree>
    <BinaryTree type="DecisionTree" boostWeight="1.0000000000000000e+00" itree="253">
      <Node pos="s" depth="0" NCoef="0" IVar="9" Cut="6.6660052537918091e-01" cType="1" res="1.5843494329601526e-03" rms="2.9090291261672974e-01" purity="5.0293737649917603e-01" nType="0">
        <Node pos="l" depth="1" NCoef="0" IVar="7" Cut="-8.4104156494140625e-01" cType="1" res="-9.8266929853707552e-04" rms="2.9230526089668274e-01" purity="5.3499656915664673e-01" nType="0">
          <Node pos="l" depth="2" NCoef="0" IVar="8" Cut="1.3307462632656097e-01" cType="1" res="9.9517935886979103e-03" rms="2.8023874759674072e-01" purity="3.1237486004829407e-01" nType="0">
            <Node pos="l" depth="3" NCoef="0" IVar="-1" Cut="0.0000000000000000e+00" cType="1" res="-4.7058376367203891e-04" rms="2.8304967284202576e-01" purity="3.3123067021369934e-01" nType="-99"/>
            <Node pos="r" depth="3" NCoef="0" IVar="-1" Cut="0.0000000000000000e+00" cType="1" res="3.5259470343589783e-02" rms="2.7517679333686829e-01" purity="2.8376168012619019e-01" nType="-99"/>
          </Node>
          <Node pos="r" depth="2" NCoef="0" IVar="7" Cut="-4.9412098526954651e-01" cType="1" res="-3.3071713987737894e-03" rms="2.9475450515747070e-01" purity="5.8232265710830688e-01" nType="0">
            <Node pos="l" depth="3" NCoef="0" IVar="-1" Cut="0.0000000000000000e+00" cType="1" res="-2.1291203796863556e-02" rms="3.1443482637405396e-01" purity="6.0392558574676514e-01" nType="-99"/>
            <Node pos="r" depth="3" NCoef="0" IVar="-1" Cut="0.0000000000000000e+00" cType="1" res="-5.9144973056390882e-04" rms="2.9126405715942383e-01" purity="5.7873606681823730e-01" nType="-99"/>
          </Node>
        </Node>
        <Node pos="r" depth="1" NCoef="0" IVar="8" Cut="-1.2006477117538452e+00" cType="1" res="8.5578849539160728e-03" rms="2.8694278001785278e-01" purity="4.1584551334381104e-01" nType="0">
          <Node pos="l" depth="2" NCoef="0" IVar="-1" Cut="0.0000000000000000e+00" cType="1" res="-2.1359421312808990e-02" rms="2.1570718288421631e-01" purity="1.3429231941699982e-01" nType="-99"/>
          <Node pos="r" depth="2" NCoef="0" IVar="0" Cut="1.3948435058593750e+03" cType="1" res="1.1003836058080196e-02" rms="2.9428899288177490e-01" purity="4.4985660910606384e-01" nType="0">
            <Node pos="l" depth="3" NCoef="0" IVar="-1" Cut="0.0000000000000000e+00" cType="1" res="2.5235624983906746e-02" rms="2.8833743929862976e-01" purity="1.6847781836986542e-01" nType="-99"/>
            <Node pos="r" depth="3" NCoef="0" IVar="-1" Cut="0.0000000000000000e+00" cType="1" res="4.2947246693074703e-03" rms="2.9946863651275635e-01" purity="7.0757412910461426e-01" nType="-99"/>
          </Node>
        </Node>
      </Node>
    </BinaryTree>
    <BinaryTree type="DecisionTree" boostWeight="1.0000000000000000e+00" itree="254">
      <Node pos="s" depth="0" NCoef="0" IVar="10" Cut="-1.3346536457538605e-01" cType="1" res="-2.0558272954076529e-03" rms="2.8712293505668640e-01" purity="4.9976432323455811e-01" nType="0">
        <Node pos="l" depth="1" NCoef="0" IVar="11" Cut="-1.3430143594741821e+00" cType="1" res="1.8486239714547992e-03" rms="2.9350104928016663e-01" purity="4.9457347393035889e-01" nType="0">
          <Node pos="l" depth="2" NCoef="0" IVar="5" Cut="6.4171356201171875e+01" cType="1" res="6.7060850560665131e-03" rms="3.0369701981544495e-01" purity="2.8435710072517395e-01" nType="0">
            <Node pos="l" depth="3" NCoef="0" IVar="-1" Cut="0.0000000000000000e+00" cType="1" res="-4.1115824133157730e-03" rms="2.6738730072975159e-01" purity="1.2746934592723846e-01" nType="-99"/>
            <Node pos="r" depth="3" NCoef="0" IVar="-1" Cut="0.0000000000000000e+00" cType="1" res="1.4429296366870403e-02" rms="3.3338692784309387e-01" purity="4.2867925763130188e-01" nType="-99"/>
          </Node>
          <Node pos="r" depth="2" NCoef="0" IVar="11" Cut="-1.5941329300403595e-01" cType="1" res="-4.1266274638473988e-03" rms="2.8033539652824402e-01" purity="7.5316447019577026e-01" nType="0">
            <Node pos="l" depth="3" NCoef="0" IVar="-1" Cut="0.0000000000000000e+00" cType="1" res="-2.0416319370269775e-02" rms="2.8172248601913452e-01" purity="7.4899411201477051e-01" nType="-99"/>
            <Node pos="r" depth="3" NCoef="0" IVar="-1" Cut="0.0000000000000000e+00" cType="1" res="4.2401431128382683e-03" rms="2.7922117710113525e-01" purity="7.5571411848068237e-01" nType="-99"/>
          </Node>
        </Node>
        <Node pos="r" depth="1" NCoef="0" IVar="0" Cut="1.3016495361328125e+03" cType="1" res="-5.3121820092201233e-03" rms="2.8165167570114136e-01" purity="5.0409358739852905e-01" nType="0">
          <Node pos="l" depth="2" NCoef="0" IVar="5" Cut="7.4953506469726562e+01" cType="1" res="-1.6054468229413033e-02" rms="2.6262158155441284e-01" purity="1.2194394320249557e-01" nType="0">
            <Node pos="l" depth="3" NCoef="0" IVar="-1" Cut="0.0000000000000000e+00" cType="1" res="-9.8503669723868370e-03" rms="2.4055284261703491e-01" purity="8.5732504725456238e-02" nType="-99"/>
            <Node pos="r" depth="3" NCoef="0" IVar="-1" Cut="0.0000000000000000e+00" cType="1" res="-4.2486038058996201e-02" rms="3.2613423466682434e-01" purity="2.4906589090824127e-01" nType="-99"/>
          </Node>
          <Node pos="r" depth="2" NCoef="0" IVar="10" Cut="1.6822724342346191e+00" cType="1" res="2.3428101849276572e-04" rms="2.9083529114723206e-01" purity="7.0140528678894043e-01" nType="0">
            <Node pos="l" depth="3" NCoef="0" IVar="-1" Cut="0.0000000000000000e+00" cType="1" res="3.5003616940230131e-03" rms="2.8855767846107483e-01" purity="7.3166304826736450e-01" nType="-99"/>
            <Node pos="r" depth="3" NCoef="0" IVar="-1" Cut="0.0000000000000000e+00" cType="1" res="-1.9521011039614677e-02" rms="3.0607339739799500e-01" purity="4.8170837759971619e-01" nType="-99"/>
          </Node>
        </Node>
      </Node>
    </BinaryTree>
    <BinaryTree type="DecisionTree" boostWeight="1.0000000000000000e+00" itree="255">
      <Node pos="s" depth="0" NCoef="0" IVar="11" Cut="-7.9053634405136108e-01" cType="1" res="-3.0842584092170000e-03" rms="2.8339657187461853e-01" purity="4.9852570891380310e-01" nType="0">
        <Node pos="l" depth="1" NCoef="0" IVar="11" Cut="-1.6324248313903809e+00" cType="1" res="-6.6885566338896751e-03" rms="2.8945612907409668e-01" purity="3.2380545139312744e-01" nType="0">
          <Node pos="l" depth="2" NCoef="0" IVar="5" Cut="8.1826942443847656e+01" cType="1" res="-4.0647969581186771e-03" rms="2.9152247309684753e-01" purity="2.4767895042896271e-01" nType="0">
            <Node pos="l" depth="3" NCoef="0" IVar="-1" Cut="0.0000000000000000e+00" cType="1" res="-1.9260755507275462e-03" rms="2.7937105298042297e-01" purity="1.6467520594596863e-01" nType="-99"/>
            <Node pos="r" depth="3" NCoef="0" IVar="-1" Cut="0.0000000000000000e+00" cType="1" res="-1.0817008092999458e-02" rms="3.2945588231086731e-01" purity="5.3068262338638306e-01" nType="-99"/>
          </Node>
          <Node pos="r" depth="2" NCoef="0" IVar="5" Cut="9.1443260192871094e+01" cType="1" res="-2.1310653537511826e-02" rms="2.7720451354980469e-01" purity="7.4805527925491333e-01" nType="0">
            <Node pos="l" depth="3" NCoef="0" IVar="-1" Cut="0.0000000000000000e+00" cType="1" res="-3.4177374094724655e-02" rms="3.2967865467071533e-01" purity="5.1853996515274048e-01" nType="-99"/>
            <Node pos="r" depth="3" NCoef="0" IVar="-1" Cut="0.0000000000000000e+00" cType="1" res="-1.7430439591407776e-02" rms="2.3993986845016479e-01" purity="8.8444465398788452e-01" nType="-99"/>
          </Node>
        </Node>
        <Node pos="r" depth="1" NCoef="0" IVar="2" Cut="5.2620074462890625e+02" cType="1" res="2.3593700025230646e-03" rms="2.7390089631080627e-01" purity="7.6240831613540649e-01" nType="0">
          <Node pos="l" depth="2" NCoef="0" IVar="9" Cut="3.9905285835266113e-01" cType="1" res="5.6544938124716282e-03" rms="2.7299031615257263e-01" purity="7.5783598423004150e-01" nType="0">
            <Node pos="l" depth="3" NCoef="0" IVar="-1" Cut="0.0000000000000000e+00" cType="1" res="1.3867215253412724e-02" rms="2.6727297902107239e-01" purity="7.8492754697799683e-01" nType="-99"/>
            <Node pos="r" depth="3" NCoef="0" IVar="-1" Cut="0.0000000000000000e+00" cType="1" res="-5.1475102081894875e-03" rms="2.8317230939865112e-01" purity="7.0685124397277832e-01" nType="-99"/>
          </Node>
          <Node pos="r" depth="2" NCoef="0" IVar="0" Cut="2.3932302246093750e+03" cType="1" res="-1.4846347272396088e-02" rms="2.7797335386276245e-01" purity="7.8628349304199219e-01" nType="0">
            <Node pos="l" depth="3" NCoef="0" IVar="-1" Cut="0.0000000000000000e+00" cType="1" res="-3.2158568501472473e-02" rms="3.2778826355934143e-01" purity="6.7064017057418823e-01" nType="-99"/>
            <Node pos="r" depth="3" NCoef="0" IVar="-1" Cut="0.0000000000000000e+00" cType="1" res="1.8526365980505943e-02" rms="1.8867304921150208e-01" purity="9.4219553470611572e-01" nType="-99"/>
          </Node>
        </Node>
      </Node>
    </BinaryTree>
    <BinaryTree type="DecisionTree" boostWeight="1.0000000000000000e+00" itree="256">
      <Node pos="s" depth="0" NCoef="0" IVar="7" Cut="9.4981044530868530e-01" cType="1" res="1.9474930595606565e-03" rms="2.8951555490493774e-01" purity="5.0419574975967407e-01" nType="0">
        <Node pos="l" depth="1" NCoef="0" IVar="3" Cut="2.4428993225097656e+02" cType="1" res="8.4078172221779823e-05" rms="2.9506626725196838e-01" purity="5.4928475618362427e-01" nType="0">
          <Node pos="l" depth="2" NCoef="0" IVar="4" Cut="1.0601682281494141e+02" cType="1" res="-3.7358165718615055e-03" rms="2.9947766661643982e-01" purity="4.1586047410964966e-01" nType="0">
            <Node pos="l" depth="3" NCoef="0" IVar="-1" Cut="0.0000000000000000e+00" cType="1" res="1.2832384556531906e-02" rms="2.5056993961334229e-01" purity="1.1527132987976074e-01" nType="-99"/>
            <Node pos="r" depth="3" NCoef="0" IVar="-1" Cut="0.0000000000000000e+00" cType="1" res="-8.4699224680662155e-03" rms="3.1820940971374512e-01" purity="5.4605638980865479e-01" nType="-99"/>
          </Node>
          <Node pos="r" depth="2" NCoef="0" IVar="7" Cut="-9.2543083429336548e-01" cType="1" res="5.4730903357267380e-03" rms="2.8864219784736633e-01" purity="7.3751634359359741e-01" nType="0">
            <Node pos="l" depth="3" NCoef="0" IVar="-1" Cut="0.0000000000000000e+00" cType="1" res="2.5617558509111404e-02" rms="3.1807452440261841e-01" purity="4.3730655312538147e-01" nType="-99"/>
            <Node pos="r" depth="3" NCoef="0" IVar="-1" Cut="0.0000000000000000e+00" cType="1" res="3.2452393788844347e-03" rms="2.8411823511123657e-01" purity="7.8003287315368652e-01" nType="-99"/>
          </Node>
        </Node>
        <Node pos="r" depth="1" NCoef="0" IVar="4" Cut="1.3354689025878906e+02" cType="1" res="1.2694519944489002e-02" rms="2.5489118695259094e-01" purity="2.4415044486522675e-01" nType="0">
          <Node pos="l" depth="2" NCoef="0" IVar="8" Cut="3.9940136671066284e-01" cType="1" res="-4.1612875647842884e-03" rms="1.7364716529846191e-01" purity="5.3377576172351837e-02" nType="0">
            <Node pos="l" depth="3" NCoef="0" IVar="-1" Cut="0.0000000000000000e+00" cType="1" res="-3.7443183362483978e-02" rms="1.6755646467208862e-01" purity="5.0069972872734070e-02" nType="-99"/>
            <Node pos="r" depth="3" NCoef="0" IVar="-1" Cut="0.0000000000000000e+00" cType="1" res="2.6568774133920670e-02" rms="1.8147023022174835e-01" purity="5.8281712234020233e-02" nType="-99"/>
          </Node>
          <Node pos="r" depth="2" NCoef="0" IVar="7" Cut="1.3902649879455566e+00" cType="1" res="2.9195953160524368e-02" rms="3.1385231018066406e-01" purity="4.3091249465942383e-01" nType="0">
            <Node pos="l" depth="3" NCoef="0" IVar="-1" Cut="0.0000000000000000e+00" cType="1" res="3.7023939192295074e-02" rms="3.3574762940406799e-01" purity="5.7542413473129272e-01" nType="-99"/>
            <Node pos="r" depth="3" NCoef="0" IVar="-1" Cut="0.0000000000000000e+00" cType="1" res="1.3434529304504395e-02" rms="2.7773308753967285e-01" purity="2.2020843625068665e-01" nType="-99"/>
          </Node>
        </Node>
      </Node>
    </BinaryTree>
    <BinaryTree type="DecisionTree" boostWeight="1.0000000000000000e+00" itree="257">
      <Node pos="s" depth="0" NCoef="0" IVar="3" Cut="2.4234201049804688e+02" cType="1" res="2.6277941651642323e-03" rms="2.8912386298179626e-01" purity="4.9896812438964844e-01" nType="0">
        <Node pos="l" depth="1" NCoef="0" IVar="0" Cut="1.0455479736328125e+03" cType="1" res="6.6532925702631474e-03" rms="2.8909385204315186e-01" purity="3.7272933125495911e-01" nType="0">
          <Node pos="l" depth="2" NCoef="0" IVar="7" Cut="-3.3583995699882507e-01" cType="1" res="-4.7336444258689880e-03" rms="1.6933658719062805e-01" purity="3.2133322209119797e-02" nType="0">
            <Node pos="l" depth="3" NCoef="0" IVar="-1" Cut="0.0000000000000000e+00" cType="1" res="-4.1051432490348816e-02" rms="1.4241366088390350e-01" purity="2.1643735468387604e-02" nType="-99"/>
            <Node pos="r" depth="3" NCoef="0" IVar="-1" Cut="0.0000000000000000e+00" cType="1" res="1.0140051599591970e-03" rms="1.8496088683605194e-01" purity="3.9132233709096909e-02" nType="-99"/>
          </Node>
          <Node pos="r" depth="2" NCoef="0" IVar="4" Cut="1.6940174865722656e+02" cType="1" res="9.3598924577236176e-03" rms="3.1078380346298218e-01" purity="4.5368680357933044e-01" nType="0">
            <Node pos="l" depth="3" NCoef="0" IVar="-1" Cut="0.0000000000000000e+00" cType="1" res="1.4112533070147038e-02" rms="3.1463694572448730e-01" purity="3.6589625477790833e-01" nType="-99"/>
            <Node pos="r" depth="3" NCoef="0" IVar="-1" Cut="0.0000000000000000e+00" cType="1" res="-4.2490917257964611e-03" rms="2.9890996217727661e-01" purity="7.0903652906417847e-01" nType="-99"/>
          </Node>
        </Node>
        <Node pos="r" depth="1" NCoef="0" IVar="11" Cut="-1.0668500661849976e+00" cType="1" res="-3.3823191188275814e-03" rms="2.8906431794166565e-01" purity="6.8744397163391113e-01" nType="0">
          <Node pos="l" depth="2" NCoef="0" IVar="9" Cut="-1.3429550826549530e-01" cType="1" res="-1.3389886356890202e-02" rms="3.3594688773155212e-01" purity="4.7128188610076904e-01" nType="0">
            <Node pos="l" depth="3" NCoef="0" IVar="-1" Cut="0.0000000000000000e+00" cType="1" res="-2.6068704202771187e-02" rms="3.2745760679244995e-01" purity="4.3797579407691956e-01" nType="-99"/>
            <Node pos="r" depth="3" NCoef="0" IVar="-1" Cut="0.0000000000000000e+00" cType="1" res="-1.0540336370468140e-03" rms="3.4198203682899475e-01" purity="4.9748128652572632e-01" nType="-99"/>
          </Node>
          <Node pos="r" depth="2" NCoef="0" IVar="9" Cut="9.2900806665420532e-01" cType="1" res="4.7911140136420727e-03" rms="2.4388064444065094e-01" purity="8.6398899555206299e-01" nType="0">
            <Node pos="l" depth="3" NCoef="0" IVar="-1" Cut="0.0000000000000000e+00" cType="1" res="1.1395304463803768e-02" rms="2.3820732533931732e-01" purity="8.8042885065078735e-01" nType="-99"/>
            <Node pos="r" depth="3" NCoef="0" IVar="-1" Cut="0.0000000000000000e+00" cType="1" res="-1.3589419424533844e-02" rms="2.7932834625244141e-01" purity="7.5062924623489380e-01" nType="-99"/>
          </Node>
        </Node>
      </Node>
    </BinaryTree>
    <BinaryTree type="DecisionTree" boostWeight="1.0000000000000000e+00" itree="258">
      <Node pos="s" depth="0" NCoef="0" IVar="2" Cut="4.9194268798828125e+02" cType="1" res="1.1839031940326095e-03" rms="2.9102954268455505e-01" purity="5.0112468004226685e-01" nType="0">
        <Node pos="l" depth="1" NCoef="0" IVar="10" Cut="9.3322545289993286e-01" cType="1" res="-1.5200590714812279e-03" rms="2.8752601146697998e-01" purity="4.7644737362861633e-01" nType="0">
          <Node pos="l" depth="2" NCoef="0" IVar="3" Cut="2.8149914550781250e+02" cType="1" res="-4.1084429249167442e-03" rms="2.8388723731040955e-01" purity="4.9878960847854614e-01" nType="0">
            <Node pos="l" depth="3" NCoef="0" IVar="-1" Cut="0.0000000000000000e+00" cType="1" res="-8.6893783882260323e-03" rms="2.8506532311439514e-01" purity="4.3423706293106079e-01" nType="-99"/>
            <Node pos="r" depth="3" NCoef="0" IVar="-1" Cut="0.0000000000000000e+00" cType="1" res="1.0745444335043430e-02" rms="2.7870872616767883e-01" purity="7.5958025455474854e-01" nType="-99"/>
          </Node>
          <Node pos="r" depth="2" NCoef="0" IVar="9" Cut="-6.6477966308593750e-01" cType="1" res="7.0960032753646374e-03" rms="2.9915872216224670e-01" purity="4.0207573771476746e-01" nType="0">
            <Node pos="l" depth="3" NCoef="0" IVar="-1" Cut="0.0000000000000000e+00" cType="1" res="-1.7533803358674049e-02" rms="2.7194371819496155e-01" purity="3.0891591310501099e-01" nType="-99"/>
            <Node pos="r" depth="3" NCoef="0" IVar="-1" Cut="0.0000000000000000e+00" cType="1" res="1.5896424651145935e-02" rms="3.0661532282829285e-01" purity="4.3022096157073975e-01" nType="-99"/>
          </Node>
        </Node>
        <Node pos="r" depth="1" NCoef="0" IVar="8" Cut="9.3316882848739624e-01" cType="1" res="1.1881160549819469e-02" rms="3.0425962805747986e-01" purity="5.9875184297561646e-01" nType="0">
          <Node pos="l" depth="2" NCoef="0" IVar="9" Cut="-6.6617631912231445e-01" cType="1" res="1.5573138371109962e-02" rms="3.0857068300247192e-01" purity="6.4378428459167480e-01" nType="0">
            <Node pos="l" depth="3" NCoef="0" IVar="-1" Cut="0.0000000000000000e+00" cType="1" res="3.4973278641700745e-02" rms="3.2317504286766052e-01" purity="5.7061755657196045e-01" nType="-99"/>
            <Node pos="r" depth="3" NCoef="0" IVar="-1" Cut="0.0000000000000000e+00" cType="1" res="9.2311119660735130e-03" rms="3.0290433764457703e-01" purity="6.6965126991271973e-01" nType="-99"/>
          </Node>
          <Node pos="r" depth="2" NCoef="0" IVar="-1" Cut="0.0000000000000000e+00" cType="1" res="-1.2064594775438309e-02" rms="2.7652052044868469e-01" purity="3.3357232809066772e-01" nType="-99"/>
        </Node>
      </Node>
    </BinaryTree>
    <BinaryTree type="DecisionTree" boostWeight="1.0000000000000000e+00" itree="259">
      <Node pos="s" depth="0" NCoef="0" IVar="10" Cut="1.1997886896133423e+00" cType="1" res="-3.7998217158019543e-04" rms="2.8870701789855957e-01" purity="4.9536421895027161e-01" nType="0">
        <Node pos="l" depth="1" NCoef="0" IVar="11" Cut="3.8088720291852951e-02" cType="1" res="1.3686366146430373e-03" rms="2.8873738646507263e-01" purity="5.1835244894027710e-01" nType="0">
          <Node pos="l" depth="2" NCoef="0" IVar="10" Cut="1.0092437267303467e+00" cType="1" res="4.1680955328047276e-03" rms="2.9541072249412537e-01" purity="4.3427956104278564e-01" nType="0">
            <Node pos="l" depth="3" NCoef="0" IVar="-1" Cut="0.0000000000000000e+00" cType="1" res="3.4679374657571316e-03" rms="2.9476821422576904e-01" purity="4.3284156918525696e-01" nType="-99"/>
            <Node pos="r" depth="3" NCoef="0" IVar="-1" Cut="0.0000000000000000e+00" cType="1" res="2.6023842394351959e-02" rms="3.0613458156585693e-01" purity="4.6054473519325256e-01" nType="-99"/>
          </Node>
          <Node pos="r" depth="2" NCoef="0" IVar="5" Cut="8.7897758483886719e+01" cType="1" res="-6.6302064806222916e-03" rms="2.6859751343727112e-01" purity="7.5857257843017578e-01" nType="0">
            <Node pos="l" depth="3" NCoef="0" IVar="-1" Cut="0.0000000000000000e+00" cType="1" res="-1.5250187367200851e-02" rms="3.3061867952346802e-01" purity="4.9226328730583191e-01" nType="-99"/>
            <Node pos="r" depth="3" NCoef="0" IVar="-1" Cut="0.0000000000000000e+00" cType="1" res="-2.5040064938366413e-03" rms="2.3383347690105438e-01" purity="8.8313138484954834e-01" nType="-99"/>
          </Node>
        </Node>
        <Node pos="r" depth="1" NCoef="0" IVar="3" Cut="2.3302841186523438e+02" cType="1" res="-9.3626650050282478e-03" rms="2.8838381171226501e-01" purity="3.7727296352386475e-01" nType="0">
          <Node pos="l" depth="2" NCoef="0" IVar="10" Cut="1.8093459606170654e+00" cType="1" res="-7.6368491863831878e-04" rms="2.7459734678268433e-01" purity="2.7970781922340393e-01" nType="0">
            <Node pos="l" depth="3" NCoef="0" IVar="-1" Cut="0.0000000000000000e+00" cType="1" res="-1.3269180431962013e-02" rms="2.8375142812728882e-01" purity="3.2246217131614685e-01" nType="-99"/>
            <Node pos="r" depth="3" NCoef="0" IVar="-1" Cut="0.0000000000000000e+00" cType="1" res="1.8631109967827797e-02" rms="2.6125723123550415e-01" purity="2.2274297475814819e-01" nType="-99"/>
          </Node>
          <Node pos="r" depth="2" NCoef="0" IVar="8" Cut="1.2885677814483643e-01" cType="1" res="-2.3550331592559814e-02" rms="3.0926987528800964e-01" purity="5.3824800252914429e-01" nType="0">
            <Node pos="l" depth="3" NCoef="0" IVar="-1" Cut="0.0000000000000000e+00" cType="1" res="-5.2372500300407410e-02" rms="3.0316618084907532e-01" purity="5.2096086740493774e-01" nType="-99"/>
            <Node pos="r" depth="3" NCoef="0" IVar="-1" Cut="0.0000000000000000e+00" cType="1" res="1.8807965097948909e-03" rms="3.1302538514137268e-01" purity="5.5511158704757690e-01" nType="-99"/>
          </Node>
        </Node>
      </Node>
    </BinaryTree>
    <BinaryTree type="DecisionTree" boostWeight="1.0000000000000000e+00" itree="260">
      <Node pos="s" depth="0" NCoef="0" IVar="2" Cut="7.0899572753906250e+02" cType="1" res="-2.7595034334808588e-03" rms="2.8908857703208923e-01" purity="5.0090157985687256e-01" nType="0">
        <Node pos="l" depth="1" NCoef="0" IVar="10" Cut="2.2660834789276123e+00" cType="1" res="-1.7449865117669106e-03" rms="2.8665396571159363e-01" purity="4.9786826968193054e-01" nType="0">
          <Node pos="l" depth="2" NCoef="0" IVar="2" Cut="6.1204528808593750e+02" cType="1" res="-2.4716069456189871e-03" rms="2.8653031587600708e-01" purity="5.0512862205505371e-01" nType="0">
            <Node pos="l" depth="3" NCoef="0" IVar="-1" Cut="0.0000000000000000e+00" cType="1" res="-1.7668920336291194e-03" rms="2.8611874580383301e-01" purity="4.9995937943458557e-01" nType="-99"/>
            <Node pos="r" depth="3" NCoef="0" IVar="-1" Cut="0.0000000000000000e+00" cType="1" res="-2.5484055280685425e-02" rms="2.9392045736312866e-01" purity="6.0841834545135498e-01" nType="-99"/>
          </Node>
          <Node pos="r" depth="2" NCoef="0" IVar="-1" Cut="0.0000000000000000e+00" cType="1" res="2.9951661825180054e-02" rms="2.8975698351860046e-01" purity="2.4956655502319336e-01" nType="-99"/>
        </Node>
        <Node pos="r" depth="1" NCoef="0" IVar="-1" Cut="0.0000000000000000e+00" cType="1" res="-2.3424299433827400e-02" rms="3.4237876534461975e-01" purity="5.7511019706726074e-01" nType="-99"/>
      </Node>
    </BinaryTree>
    <BinaryTree type="DecisionTree" boostWeight="1.0000000000000000e+00" itree="261">
      <Node pos="s" depth="0" NCoef="0" IVar="11" Cut="-2.1714303493499756e+00" cType="1" res="-1.7091508489102125e-03" rms="2.8679513931274414e-01" purity="4.9794933199882507e-01" nType="0">
        <Node pos="l" depth="1" NCoef="0" IVar="4" Cut="1.6041624450683594e+02" cType="1" res="-6.5779276192188263e-03" rms="2.9192215204238892e-01" purity="2.2693906724452972e-01" nType="0">
          <Node pos="l" depth="2" NCoef="0" IVar="4" Cut="1.3428411865234375e+02" cType="1" res="-2.6193442754447460e-03" rms="2.6029273867607117e-01" purity="1.2570990622043610e-01" nType="0">
            <Node pos="l" depth="3" NCoef="0" IVar="-1" Cut="0.0000000000000000e+00" cType="1" res="-1.1627664789557457e-02" rms="2.3462332785129547e-01" purity="8.6269766092300415e-02" nType="-99"/>
            <Node pos="r" depth="3" NCoef="0" IVar="-1" Cut="0.0000000000000000e+00" cType="1" res="1.2055705301463604e-02" rms="3.4286999702453613e-01" purity="2.8143465518951416e-01" nType="-99"/>
          </Node>
          <Node pos="r" depth="2" NCoef="0" IVar="9" Cut="6.6654634475708008e-01" cType="1" res="-1.5896519646048546e-02" rms="3.5526144504547119e-01" purity="4.6523469686508179e-01" nType="0">
            <Node pos="l" depth="3" NCoef="0" IVar="-1" Cut="0.0000000000000000e+00" cType="1" res="-6.4268703572452068e-03" rms="3.5900101065635681e-01" purity="5.0032669305801392e-01" nType="-99"/>
            <Node pos="r" depth="3" NCoef="0" IVar="-1" Cut="0.0000000000000000e+00" cType="1" res="-3.1714465469121933e-02" rms="3.4245982766151428e-01" purity="3.5715529322624207e-01" nType="-99"/>
          </Node>
        </Node>
        <Node pos="r" depth="1" NCoef="0" IVar="11" Cut="1.8530598878860474e+00" cType="1" res="2.9679541476070881e-03" rms="2.8170290589332581e-01" purity="7.5829058885574341e-01" nType="0">
          <Node pos="l" depth="2" NCoef="0" IVar="7" Cut="-3.8684654235839844e-01" cType="1" res="1.2139987666159868e-03" rms="2.7991956472396851e-01" purity="7.6632732152938843e-01" nType="0">
            <Node pos="l" depth="3" NCoef="0" IVar="-1" Cut="0.0000000000000000e+00" cType="1" res="1.4466287568211555e-02" rms="2.9506981372833252e-01" purity="7.1584057807922363e-01" nType="-99"/>
            <Node pos="r" depth="3" NCoef="0" IVar="-1" Cut="0.0000000000000000e+00" cType="1" res="-5.2433912642300129e-03" rms="2.7271306514739990e-01" purity="7.8890204429626465e-01" nType="-99"/>
          </Node>
          <Node pos="r" depth="2" NCoef="0" IVar="-1" Cut="0.0000000000000000e+00" cType="1" res="2.7681663632392883e-02" rms="3.0559644103050232e-01" purity="6.3997596502304077e-01" nType="-99"/>
        </Node>
      </Node>
    </BinaryTree>
    <BinaryTree type="DecisionTree" boostWeight="1.0000000000000000e+00" itree="262">
      <Node pos="s" depth="0" NCoef="0" IVar="11" Cut="-1.0666707754135132e+00" cType="1" res="3.0436525121331215e-03" rms="2.8950691223144531e-01" purity="5.0150495767593384e-01" nType="0">
        <Node pos="l" depth="1" NCoef="0" IVar="1" Cut="1.2084504961967468e-01" cType="1" res="7.2010005824267864e-03" rms="2.9797226190567017e-01" purity="3.0770289897918701e-01" nType="0">
          <Node pos="l" depth="2" NCoef="0" IVar="1" Cut="9.2060640454292297e-02" cType="1" res="3.7842816673219204e-03" rms="2.9169702529907227e-01" purity="2.4139609932899475e-01" nType="0">
            <Node pos="l" depth="3" NCoef="0" IVar="-1" Cut="0.0000000000000000e+00" cType="1" res="6.8560903891921043e-03" rms="2.8465563058853149e-01" purity="2.1666046977043152e-01" nType="-99"/>
            <Node pos="r" depth="3" NCoef="0" IVar="-1" Cut="0.0000000000000000e+00" cType="1" res="-1.2494869530200958e-02" rms="3.6036598682403564e-01" purity="5.1692402362823486e-01" nType="-99"/>
          </Node>
          <Node pos="r" depth="2" NCoef="0" IVar="-1" Cut="0.0000000000000000e+00" cType="1" res="2.4931091815233231e-02" rms="3.3371216058731079e-01" purity="7.2171622514724731e-01" nType="-99"/>
        </Node>
        <Node pos="r" depth="1" NCoef="0" IVar="7" Cut="9.3417304754257202e-01" cType="1" res="-2.4902168661355972e-03" rms="2.7774226665496826e-01" purity="7.5947600603103638e-01" nType="0">
          <Node pos="l" depth="2" NCoef="0" IVar="4" Cut="1.2861900329589844e+02" cType="1" res="-9.0563041158020496e-04" rms="2.7509760856628418e-01" purity="7.9481291770935059e-01" nType="0">
            <Node pos="l" depth="3" NCoef="0" IVar="-1" Cut="0.0000000000000000e+00" cType="1" res="8.0992290750145912e-03" rms="3.5429611802101135e-01" purity="4.6449181437492371e-01" nType="-99"/>
            <Node pos="r" depth="3" NCoef="0" IVar="-1" Cut="0.0000000000000000e+00" cType="1" res="-4.5785624533891678e-03" rms="2.5616982579231262e-01" purity="8.6126047372817993e-01" nType="-99"/>
          </Node>
          <Node pos="r" depth="2" NCoef="0" IVar="-1" Cut="0.0000000000000000e+00" cType="1" res="-1.4919881708920002e-02" rms="2.9767552018165588e-01" purity="4.7792196273803711e-01" nType="-99"/>
        </Node>
      </Node>
    </BinaryTree>
    <BinaryTree type="DecisionTree" boostWeight="1.0000000000000000e+00" itree="263">
      <Node pos="s" depth="0" NCoef="0" IVar="2" Cut="4.4953674316406250e+02" cType="1" res="1.2441993458196521e-03" rms="2.8902795910835266e-01" purity="5.0141054391860962e-01" nType="0">
        <Node pos="l" depth="1" NCoef="0" IVar="10" Cut="1.9998537302017212e+00" cType="1" res="-2.0897428039461374e-03" rms="2.8560927510261536e-01" purity="4.6475392580032349e-01" nType="0">
          <Node pos="l" depth="2" NCoef="0" IVar="9" Cut="1.1990232467651367e+00" cType="1" res="-3.3533915411680937e-03" rms="2.8586083650588989e-01" purity="4.7574046254158020e-01" nType="0">
            <Node pos="l" depth="3" NCoef="0" IVar="-1" Cut="0.0000000000000000e+00" cType="1" res="-1.8398332176730037e-03" rms="2.8988561034202576e-01" purity="5.0848507881164551e-01" nType="-99"/>
            <Node pos="r" depth="3" NCoef="0" IVar="-1" Cut="0.0000000000000000e+00" cType="1" res="-2.0227566361427307e-02" rms="2.5697374343872070e-01" purity="2.5647243857383728e-01" nType="-99"/>
          </Node>
          <Node pos="r" depth="2" NCoef="0" IVar="-1" Cut="0.0000000000000000e+00" cType="1" res="2.7178252115845680e-02" rms="2.8002968430519104e-01" purity="2.6579204201698303e-01" nType="-99"/>
        </Node>
        <Node pos="r" depth="1" NCoef="0" IVar="7" Cut="7.2209012508392334e-01" cType="1" res="1.0191031731665134e-02" rms="2.9782402515411377e-01" purity="5.9978061914443970e-01" nType="0">
          <Node pos="l" depth="2" NCoef="0" IVar="6" Cut="6.1998222351074219e+01" cType="1" res="1.3631545007228851e-02" rms="3.0044859647750854e-01" purity="6.4927810430526733e-01" nType="0">
            <Node pos="l" depth="3" NCoef="0" IVar="-1" Cut="0.0000000000000000e+00" cType="1" res="1.9998939707875252e-02" rms="3.4763765335083008e-01" purity="4.5111930370330811e-01" nType="-99"/>
            <Node pos="r" depth="3" NCoef="0" IVar="-1" Cut="0.0000000000000000e+00" cType="1" res="2.8491623234003782e-03" rms="2.2988784313201904e-01" purity="8.9006876945495605e-01" nType="-99"/>
          </Node>
          <Node pos="r" depth="2" NCoef="0" IVar="-1" Cut="0.0000000000000000e+00" cType="1" res="-9.9946316331624985e-03" rms="2.8291210532188416e-01" purity="3.3911237120628357e-01" nType="-99"/>
        </Node>
      </Node>
    </BinaryTree>
    <BinaryTree type="DecisionTree" boostWeight="1.0000000000000000e+00" itree="264">
      <Node pos="s" depth="0" NCoef="0" IVar="10" Cut="-2.0000271797180176e+00" cType="1" res="6.0281675541773438e-04" rms="2.8534224629402161e-01" purity="4.9847429990768433e-01" nType="0">
        <Node pos="l" depth="1" NCoef="0" IVar="-1" Cut="0.0000000000000000e+00" cType="1" res="-1.8532536923885345e-02" rms="2.7040159702301025e-01" purity="2.3619467020034790e-01" nType="-99"/>
        <Node pos="r" depth="1" NCoef="0" IVar="7" Cut="-8.9525604248046875e-01" cType="1" res="1.3740002177655697e-03" rms="2.8604781627655029e-01" purity="5.1160335540771484e-01" nType="0">
          <Node pos="l" depth="2" NCoef="0" IVar="9" Cut="4.0028992295265198e-01" cType="1" res="-6.1137387529015541e-03" rms="2.5410938262939453e-01" purity="2.5419181585311890e-01" nType="0">
            <Node pos="l" depth="3" NCoef="0" IVar="-1" Cut="0.0000000000000000e+00" cType="1" res="-8.1998889800161123e-04" rms="2.6884061098098755e-01" purity="2.8702080249786377e-01" nType="-99"/>
            <Node pos="r" depth="3" NCoef="0" IVar="-1" Cut="0.0000000000000000e+00" cType="1" res="-3.0727095901966095e-02" rms="2.1808044612407684e-01" purity="1.8258285522460938e-01" nType="-99"/>
          </Node>
          <Node pos="r" depth="2" NCoef="0" IVar="8" Cut="1.7332185506820679e+00" cType="1" res="2.7220696210861206e-03" rms="2.9140591621398926e-01" purity="5.5794692039489746e-01" nType="0">
            <Node pos="l" depth="3" NCoef="0" IVar="-1" Cut="0.0000000000000000e+00" cType="1" res="3.9911759085953236e-03" rms="2.9520225524902344e-01" purity="5.7767742872238159e-01" nType="-99"/>
            <Node pos="r" depth="3" NCoef="0" IVar="-1" Cut="0.0000000000000000e+00" cType="1" res="-3.3793807029724121e-02" rms="1.8331636488437653e-01" purity="1.0641017556190491e-01" nType="-99"/>
          </Node>
        </Node>
      </Node>
    </BinaryTree>
    <BinaryTree type="DecisionTree" boostWeight="1.0000000000000000e+00" itree="265">
      <Node pos="s" depth="0" NCoef="0" IVar="2" Cut="3.4597100830078125e+02" cType="1" res="1.6280942363664508e-03" rms="2.8858155012130737e-01" purity="5.0875318050384521e-01" nType="0">
        <Node pos="l" depth="1" NCoef="0" IVar="9" Cut="4.0024322271347046e-01" cType="1" res="7.2743184864521027e-03" rms="2.8770923614501953e-01" purity="4.4080451130867004e-01" nType="0">
          <Node pos="l" depth="2" NCoef="0" IVar="2" Cut="2.5561094665527344e+02" cType="1" res="9.0308167273178697e-04" rms="2.8923222422599792e-01" purity="4.5737317204475403e-01" nType="0">
            <Node pos="l" depth="3" NCoef="0" IVar="-1" Cut="0.0000000000000000e+00" cType="1" res="1.6231596469879150e-02" rms="2.9223537445068359e-01" purity="4.2151209712028503e-01" nType="-99"/>
            <Node pos="r" depth="3" NCoef="0" IVar="-1" Cut="0.0000000000000000e+00" cType="1" res="-8.8156722486019135e-03" rms="2.8705364465713501e-01" purity="4.7962883114814758e-01" nType="-99"/>
          </Node>
          <Node pos="r" depth="2" NCoef="0" IVar="3" Cut="1.5248332214355469e+02" cType="1" res="1.8361300230026245e-02" rms="2.8469985723495483e-01" purity="4.1197231411933899e-01" nType="0">
            <Node pos="l" depth="3" NCoef="0" IVar="-1" Cut="0.0000000000000000e+00" cType="1" res="-2.1683021914213896e-03" rms="2.2314049303531647e-01" purity="1.0932484269142151e-01" nType="-99"/>
            <Node pos="r" depth="3" NCoef="0" IVar="-1" Cut="0.0000000000000000e+00" cType="1" res="2.7784967795014381e-02" rms="3.0431318283081055e-01" purity="5.2569979429244995e-01" nType="-99"/>
          </Node>
        </Node>
        <Node pos="r" depth="1" NCoef="0" IVar="0" Cut="1.8282183837890625e+03" cType="1" res="-3.6086295731365681e-03" rms="2.8928977251052856e-01" purity="5.7177376747131348e-01" nType="0">
          <Node pos="l" depth="2" NCoef="0" IVar="10" Cut="-6.6698116064071655e-01" cType="1" res="-8.2571879029273987e-03" rms="3.1519183516502380e-01" purity="3.3853933215141296e-01" nType="0">
            <Node pos="l" depth="3" NCoef="0" IVar="-1" Cut="0.0000000000000000e+00" cType="1" res="-2.2455740720033646e-02" rms="3.0051383376121521e-01" purity="2.7997437119483948e-01" nType="-99"/>
            <Node pos="r" depth="3" NCoef="0" IVar="-1" Cut="0.0000000000000000e+00" cType="1" res="-2.6789375115185976e-03" rms="3.2114347815513611e-01" purity="3.6373424530029297e-01" nType="-99"/>
          </Node>
          <Node pos="r" depth="2" NCoef="0" IVar="10" Cut="-1.1999715566635132e+00" cType="1" res="2.1039033308625221e-03" rms="2.5374862551689148e-01" purity="8.5839152336120605e-01" nType="0">
            <Node pos="l" depth="3" NCoef="0" IVar="-1" Cut="0.0000000000000000e+00" cType="1" res="2.6719667017459869e-02" rms="2.8203263878822327e-01" purity="8.1527525186538696e-01" nType="-99"/>
            <Node pos="r" depth="3" NCoef="0" IVar="-1" Cut="0.0000000000000000e+00" cType="1" res="-1.1871254537254572e-03" rms="2.4931457638740540e-01" purity="8.6454886198043823e-01" nType="-99"/>
          </Node>
        </Node>
      </Node>
    </BinaryTree>
    <BinaryTree type="DecisionTree" boostWeight="1.0000000000000000e+00" itree="266">
      <Node pos="s" depth="0" NCoef="0" IVar="2" Cut="5.7004022216796875e+02" cType="1" res="-2.4859344121068716e-03" rms="2.8281733393669128e-01" purity="5.0184458494186401e-01" nType="0">
        <Node pos="l" depth="1" NCoef="0" IVar="4" Cut="2.2773056030273438e+02" cType="1" res="-1.1718899477273226e-03" rms="2.8021478652954102e-01" purity="4.9039158225059509e-01" nType="0">
          <Node pos="l" depth="2" NCoef="0" IVar="5" Cut="8.2623237609863281e+01" cType="1" res="-2.9769495595246553e-03" rms="2.8649017214775085e-01" purity="4.2139741778373718e-01" nType="0">
            <Node pos="l" depth="3" NCoef="0" IVar="-1" Cut="0.0000000000000000e+00" cType="1" res="-7.5720786117017269e-03" rms="2.8313606977462769e-01" purity="2.1038390696048737e-01" nType="-99"/>
            <Node pos="r" depth="3" NCoef="0" IVar="-1" Cut="0.0000000000000000e+00" cType="1" res="2.5829880032688379e-03" rms="2.9148745536804199e-01" purity="7.4537760019302368e-01" nType="-99"/>
          </Node>
          <Node pos="r" depth="2" NCoef="0" IVar="0" Cut="1.7163642578125000e+03" cType="1" res="8.4202587604522705e-03" rms="2.4395222961902618e-01" purity="8.5702872276306152e-01" nType="0">
            <Node pos="l" depth="3" NCoef="0" IVar="-1" Cut="0.0000000000000000e+00" cType="1" res="2.2136678919196129e-02" rms="3.5491600632667542e-01" purity="5.7446116209030151e-01" nType="-99"/>
            <Node pos="r" depth="3" NCoef="0" IVar="-1" Cut="0.0000000000000000e+00" cType="1" res="7.5937304645776749e-03" rms="2.0969037711620331e-01" purity="9.2262780666351318e-01" nType="-99"/>
          </Node>
        </Node>
        <Node pos="r" depth="1" NCoef="0" IVar="7" Cut="-7.1007977239787579e-03" cType="1" res="-1.2780887074768543e-02" rms="3.0223554372787476e-01" purity="5.9157425165176392e-01" nType="0">
          <Node pos="l" depth="2" NCoef="0" IVar="7" Cut="-4.9027079343795776e-01" cType="1" res="-1.8345726421102881e-03" rms="3.0021828413009644e-01" purity="5.8659017086029053e-01" nType="0">
            <Node pos="l" depth="3" NCoef="0" IVar="-1" Cut="0.0000000000000000e+00" cType="1" res="-1.8201844766736031e-02" rms="2.9904726147651672e-01" purity="4.2460107803344727e-01" nType="-99"/>
            <Node pos="r" depth="3" NCoef="0" IVar="-1" Cut="0.0000000000000000e+00" cType="1" res="1.1352887377142906e-02" rms="3.0062866210937500e-01" purity="7.2991353273391724e-01" nType="-99"/>
          </Node>
          <Node pos="r" depth="2" NCoef="0" IVar="5" Cut="8.6232559204101562e+01" cType="1" res="-2.3283518850803375e-02" rms="3.0378791689872742e-01" purity="5.9635639190673828e-01" nType="0">
            <Node pos="l" depth="3" NCoef="0" IVar="-1" Cut="0.0000000000000000e+00" cType="1" res="-3.4437276422977448e-02" rms="3.3701130747795105e-01" purity="3.1579780578613281e-01" nType="-99"/>
            <Node pos="r" depth="3" NCoef="0" IVar="-1" Cut="0.0000000000000000e+00" cType="1" res="-1.3113795779645443e-02" rms="2.7218568325042725e-01" purity="8.3094692230224609e-01" nType="-99"/>
          </Node>
        </Node>
      </Node>
    </BinaryTree>
    <BinaryTree type="DecisionTree" boostWeight="1.0000000000000000e+00" itree="267">
      <Node pos="s" depth="0" NCoef="0" IVar="0" Cut="1.4003029785156250e+03" cType="1" res="2.1909661591053009e-03" rms="2.8951177000999451e-01" purity="5.0295084714889526e-01" nType="0">
        <Node pos="l" depth="1" NCoef="0" IVar="7" Cut="6.7035275697708130e-01" cType="1" res="6.0467836447060108e-03" rms="2.9410389065742493e-01" purity="1.9250895082950592e-01" nType="0">
          <Node pos="l" depth="2" NCoef="0" IVar="0" Cut="1.1430517578125000e+03" cType="1" res="9.7630508244037628e-03" rms="3.1378504633903503e-01" purity="2.2753556072711945e-01" nType="0">
            <Node pos="l" depth="3" NCoef="0" IVar="-1" Cut="0.0000000000000000e+00" cType="1" res="-3.2153120264410973e-04" rms="2.4360308051109314e-01" purity="7.5407840311527252e-02" nType="-99"/>
            <Node pos="r" depth="3" NCoef="0" IVar="-1" Cut="0.0000000000000000e+00" cType="1" res="1.4234380796551704e-02" rms="3.6180233955383301e-01" purity="3.5427802801132202e-01" nType="-99"/>
          </Node>
          <Node pos="r" depth="2" NCoef="0" IVar="4" Cut="1.2056460571289062e+02" cType="1" res="-3.3109223004430532e-03" rms="2.3716886341571808e-01" purity="1.0431058704853058e-01" nType="0">
            <Node pos="l" depth="3" NCoef="0" IVar="-1" Cut="0.0000000000000000e+00" cType="1" res="1.6280733048915863e-02" rms="1.8421562016010284e-01" purity="5.3986098617315292e-02" nType="-99"/>
            <Node pos="r" depth="3" NCoef="0" IVar="-1" Cut="0.0000000000000000e+00" cType="1" res="-1.7007917165756226e-02" rms="2.9634720087051392e-01" purity="1.7611882090568542e-01" nType="-99"/>
          </Node>
        </Node>
        <Node pos="r" depth="1" NCoef="0" IVar="0" Cut="1.9433857421875000e+03" cType="1" res="-8.1997353117913008e-04" rms="2.8583839535713196e-01" purity="7.4536943435668945e-01" nType="0">
          <Node pos="l" depth="2" NCoef="0" IVar="9" Cut="-1.1993848085403442e+00" cType="1" res="-4.8608845099806786e-03" rms="3.1199654936790466e-01" purity="6.6044223308563232e-01" nType="0">
            <Node pos="l" depth="3" NCoef="0" IVar="-1" Cut="0.0000000000000000e+00" cType="1" res="-2.3835066705942154e-02" rms="3.1465598940849304e-01" purity="4.4981095194816589e-01" nType="-99"/>
            <Node pos="r" depth="3" NCoef="0" IVar="-1" Cut="0.0000000000000000e+00" cType="1" res="-2.0754828583449125e-03" rms="3.1153115630149841e-01" purity="6.8839603662490845e-01" nType="-99"/>
          </Node>
          <Node pos="r" depth="2" NCoef="0" IVar="9" Cut="-9.3256139755249023e-01" cType="1" res="6.1275595799088478e-03" rms="2.3396664857864380e-01" purity="8.9138466119766235e-01" nType="0">
            <Node pos="l" depth="3" NCoef="0" IVar="-1" Cut="0.0000000000000000e+00" cType="1" res="3.1892236322164536e-02" rms="2.8334343433380127e-01" purity="8.2406699657440186e-01" nType="-99"/>
            <Node pos="r" depth="3" NCoef="0" IVar="-1" Cut="0.0000000000000000e+00" cType="1" res="5.3807110525667667e-03" rms="2.2536405920982361e-01" purity="9.0159231424331665e-01" nType="-99"/>
          </Node>
        </Node>
      </Node>
    </BinaryTree>
    <BinaryTree type="DecisionTree" boostWeight="1.0000000000000000e+00" itree="268">
      <Node pos="s" depth="0" NCoef="0" IVar="10" Cut="3.9983627200126648e-01" cType="1" res="-1.3965487014502287e-03" rms="2.8724148869514465e-01" purity="5.0262600183486938e-01" nType="0">
        <Node pos="l" depth="1" NCoef="0" IVar="9" Cut="-1.7332770824432373e+00" cType="1" res="3.0324477702379227e-03" rms="2.8738331794738770e-01" purity="5.1910454034805298e-01" nType="0">
          <Node pos="l" depth="2" NCoef="0" IVar="-1" Cut="0.0000000000000000e+00" cType="1" res="3.3644899725914001e-02" rms="2.7913111448287964e-01" purity="1.8013590574264526e-01" nType="-99"/>
          <Node pos="r" depth="2" NCoef="0" IVar="7" Cut="-6.6037017107009888e-01" cType="1" res="1.6990199219435453e-03" rms="2.8786590695381165e-01" purity="5.4132771492004395e-01" nType="0">
            <Node pos="l" depth="3" NCoef="0" IVar="-1" Cut="0.0000000000000000e+00" cType="1" res="-9.3637295067310333e-03" rms="2.8101938962936401e-01" purity="3.7371078133583069e-01" nType="-99"/>
            <Node pos="r" depth="3" NCoef="0" IVar="-1" Cut="0.0000000000000000e+00" cType="1" res="5.4807392880320549e-03" rms="2.8992745280265808e-01" purity="5.9420573711395264e-01" nType="-99"/>
          </Node>
        </Node>
        <Node pos="r" depth="1" NCoef="0" IVar="0" Cut="1.8359985351562500e+03" cType="1" res="-8.7959272786974907e-03" rms="2.8685185313224792e-01" purity="4.7509580850601196e-01" nType="0">
          <Node pos="l" depth="2" NCoef="0" IVar="0" Cut="1.1948902587890625e+03" cType="1" res="-1.3020944781601429e-02" rms="2.9680615663528442e-01" purity="3.5011106729507446e-01" nType="0">
            <Node pos="l" depth="3" NCoef="0" IVar="-1" Cut="0.0000000000000000e+00" cType="1" res="-3.3176341094076633e-03" rms="2.3279884457588196e-01" purity="8.6646512150764465e-02" nType="-99"/>
            <Node pos="r" depth="3" NCoef="0" IVar="-1" Cut="0.0000000000000000e+00" cType="1" res="-1.6735764220356941e-02" rms="3.2564729452133179e-01" purity="4.9042207002639771e-01" nType="-99"/>
          </Node>
          <Node pos="r" depth="2" NCoef="0" IVar="9" Cut="1.3297864794731140e-01" cType="1" res="4.3184072710573673e-03" rms="2.5302723050117493e-01" purity="8.6304485797882080e-01" nType="0">
            <Node pos="l" depth="3" NCoef="0" IVar="-1" Cut="0.0000000000000000e+00" cType="1" res="2.1268172189593315e-02" rms="2.4604378640651703e-01" purity="8.7780493497848511e-01" nType="-99"/>
            <Node pos="r" depth="3" NCoef="0" IVar="-1" Cut="0.0000000000000000e+00" cType="1" res="-9.9265156313776970e-03" rms="2.6031455397605896e-01" purity="8.4629231691360474e-01" nType="-99"/>
          </Node>
        </Node>
      </Node>
    </BinaryTree>
    <BinaryTree type="DecisionTree" boostWeight="1.0000000000000000e+00" itree="269">
      <Node pos="s" depth="0" NCoef="0" IVar="10" Cut="2.2663919925689697e+00" cType="1" res="4.7898429329507053e-04" rms="2.8963944315910339e-01" purity="4.9891376495361328e-01" nType="0">
        <Node pos="l" depth="1" NCoef="0" IVar="10" Cut="-1.8349521160125732e+00" cType="1" res="1.0442223865538836e-03" rms="2.9015067219734192e-01" purity="5.0722521543502808e-01" nType="0">
          <Node pos="l" depth="2" NCoef="0" IVar="8" Cut="-4.0119823813438416e-01" cType="1" res="-1.1300181038677692e-02" rms="2.8121352195739746e-01" purity="2.6871600747108459e-01" nType="0">
            <Node pos="l" depth="3" NCoef="0" IVar="-1" Cut="0.0000000000000000e+00" cType="1" res="3.4136045724153519e-03" rms="2.8285583853721619e-01" purity="2.4676896631717682e-01" nType="-99"/>
            <Node pos="r" depth="3" NCoef="0" IVar="-1" Cut="0.0000000000000000e+00" cType="1" res="-2.3394685238599777e-02" rms="2.7963367104530334e-01" purity="2.8418561816215515e-01" nType="-99"/>
          </Node>
          <Node pos="r" depth="2" NCoef="0" IVar="8" Cut="-1.7332438230514526e+00" cType="1" res="1.8845455488190055e-03" rms="2.9073002934455872e-01" purity="5.2346128225326538e-01" nType="0">
            <Node pos="l" depth="3" NCoef="0" IVar="-1" Cut="0.0000000000000000e+00" cType="1" res="-2.4924542754888535e-02" rms="2.0761336386203766e-01" purity="9.8990581929683685e-02" nType="-99"/>
            <Node pos="r" depth="3" NCoef="0" IVar="-1" Cut="0.0000000000000000e+00" cType="1" res="2.9572683852165937e-03" rms="2.9416307806968689e-01" purity="5.4414832592010498e-01" nType="-99"/>
          </Node>
        </Node>
        <Node pos="r" depth="1" NCoef="0" IVar="-1" Cut="0.0000000000000000e+00" cType="1" res="-2.6453375816345215e-02" rms="2.7041554450988770e-01" purity="2.0827861130237579e-01" nType="-99"/>
      </Node>
    </BinaryTree>
    <BinaryTree type="DecisionTree" boostWeight="1.0000000000000000e+00" itree="270">
      <Node pos="s" depth="0" NCoef="0" IVar="1" Cut="6.2648661434650421e-02" cType="1" res="-2.0488663576543331e-03" rms="2.8745236992835999e-01" purity="4.9942311644554138e-01" nType="0">
        <Node pos="l" depth="1" NCoef="0" IVar="5" Cut="8.6492210388183594e+01" cType="1" res="-7.7236285433173180e-03" rms="2.8060874342918396e-01" purity="2.6823818683624268e-01" nType="0">
          <Node pos="l" depth="2" NCoef="0" IVar="7" Cut="-3.5002750158309937e-01" cType="1" res="-4.3337023817002773e-03" rms="2.6269888877868652e-01" purity="1.5315482020378113e-01" nType="0">
            <Node pos="l" depth="3" NCoef="0" IVar="-1" Cut="0.0000000000000000e+00" cType="1" res="4.8639969900250435e-03" rms="2.5457924604415894e-01" purity="1.2888069450855255e-01" nType="-99"/>
            <Node pos="r" depth="3" NCoef="0" IVar="-1" Cut="0.0000000000000000e+00" cType="1" res="-1.1897486634552479e-02" rms="2.6789194345474243e-01" purity="1.6944316029548645e-01" nType="-99"/>
          </Node>
          <Node pos="r" depth="2" NCoef="0" IVar="9" Cut="3.9979740977287292e-01" cType="1" res="-1.7052898183465004e-02" rms="3.2465621829032898e-01" purity="5.8495414257049561e-01" nType="0">
            <Node pos="l" depth="3" NCoef="0" IVar="-1" Cut="0.0000000000000000e+00" cType="1" res="-2.5590825825929642e-02" rms="3.2901096343994141e-01" purity="5.9968012571334839e-01" nType="-99"/>
            <Node pos="r" depth="3" NCoef="0" IVar="-1" Cut="0.0000000000000000e+00" cType="1" res="1.4116974780336022e-03" rms="3.1601628661155701e-01" purity="5.5911314487457275e-01" nType="-99"/>
          </Node>
        </Node>
        <Node pos="r" depth="1" NCoef="0" IVar="11" Cut="-2.4479079246520996e+00" cType="1" res="4.6552447602152824e-03" rms="2.9519253969192505e-01" purity="7.7254283428192139e-01" nType="0">
          <Node pos="l" depth="2" NCoef="0" IVar="9" Cut="-6.6672706604003906e-01" cType="1" res="1.6586408019065857e-02" rms="3.8849604129791260e-01" purity="4.7997421026229858e-01" nType="0">
            <Node pos="l" depth="3" NCoef="0" IVar="-1" Cut="0.0000000000000000e+00" cType="1" res="2.7888759970664978e-02" rms="3.8298916816711426e-01" purity="4.3865680694580078e-01" nType="-99"/>
            <Node pos="r" depth="3" NCoef="0" IVar="-1" Cut="0.0000000000000000e+00" cType="1" res="5.4588923230767250e-03" rms="3.9018660783767700e-01" purity="4.9552991986274719e-01" nType="-99"/>
          </Node>
          <Node pos="r" depth="2" NCoef="0" IVar="5" Cut="8.5908500671386719e+01" cType="1" res="-3.0120171140879393e-04" rms="2.4607935547828674e-01" purity="8.9408183097839355e-01" nType="0">
            <Node pos="l" depth="3" NCoef="0" IVar="-1" Cut="0.0000000000000000e+00" cType="1" res="-1.1434297077357769e-02" rms="3.5854986310005188e-01" purity="7.2225493192672729e-01" nType="-99"/>
            <Node pos="r" depth="3" NCoef="0" IVar="-1" Cut="0.0000000000000000e+00" cType="1" res="8.8077159598469734e-03" rms="2.0154644548892975e-01" purity="9.4424277544021606e-01" nType="-99"/>
          </Node>
        </Node>
      </Node>
    </BinaryTree>
    <BinaryTree type="DecisionTree" boostWeight="1.0000000000000000e+00" itree="271">
      <Node pos="s" depth="0" NCoef="0" IVar="10" Cut="1.9993669986724854e+00" cType="1" res="1.2646226969081908e-04" rms="2.8518563508987427e-01" purity="4.9759721755981445e-01" nType="0">
        <Node pos="l" depth="1" NCoef="0" IVar="7" Cut="4.2978340387344360e-01" cType="1" res="1.3240821426734328e-03" rms="2.8614702820777893e-01" purity="5.1124310493469238e-01" nType="0">
          <Node pos="l" depth="2" NCoef="0" IVar="2" Cut="7.0898986816406250e+02" cType="1" res="4.4767777435481548e-03" rms="2.9096978902816772e-01" purity="5.5940335988998413e-01" nType="0">
            <Node pos="l" depth="3" NCoef="0" IVar="-1" Cut="0.0000000000000000e+00" cType="1" res="6.1350348405539989e-03" rms="2.8925067186355591e-01" purity="5.5668455362319946e-01" nType="-99"/>
            <Node pos="r" depth="3" NCoef="0" IVar="-1" Cut="0.0000000000000000e+00" cType="1" res="-1.2473211623728275e-02" rms="3.3010259270668030e-01" purity="6.2668251991271973e-01" nType="-99"/>
          </Node>
          <Node pos="r" depth="2" NCoef="0" IVar="10" Cut="1.7104789614677429e-01" cType="1" res="-5.7000047527253628e-03" rms="2.7496826648712158e-01" purity="4.0394389629364014e-01" nType="0">
            <Node pos="l" depth="3" NCoef="0" IVar="-1" Cut="0.0000000000000000e+00" cType="1" res="6.1618471518158913e-03" rms="2.8265273571014404e-01" purity="4.1619351506233215e-01" nType="-99"/>
            <Node pos="r" depth="3" NCoef="0" IVar="-1" Cut="0.0000000000000000e+00" cType="1" res="-2.1521650254726410e-02" rms="2.6578411459922791e-01" purity="3.9048454165458679e-01" nType="-99"/>
          </Node>
        </Node>
        <Node pos="r" depth="1" NCoef="0" IVar="-1" Cut="0.0000000000000000e+00" cType="1" res="-3.1839188188314438e-02" rms="2.6322057843208313e-01" purity="2.1442566812038422e-01" nType="-99"/>
      </Node>
    </BinaryTree>
    <BinaryTree type="DecisionTree" boostWeight="1.0000000000000000e+00" itree="272">
      <Node pos="s" depth="0" NCoef="0" IVar="11" Cut="-1.6192392110824585e+00" cType="1" res="1.8386573065072298e-03" rms="2.9120627045631409e-01" purity="4.9931794404983521e-01" nType="0">
        <Node pos="l" depth="1" NCoef="0" IVar="1" Cut="1.4312291145324707e-01" cType="1" res="6.1143091879785061e-03" rms="3.0272591114044189e-01" purity="2.6314225792884827e-01" nType="0">
          <Node pos="l" depth="2" NCoef="0" IVar="1" Cut="8.1772319972515106e-02" cType="1" res="8.1826476380228996e-03" rms="2.9664853215217590e-01" purity="2.2814215719699860e-01" nType="0">
            <Node pos="l" depth="3" NCoef="0" IVar="-1" Cut="0.0000000000000000e+00" cType="1" res="6.8723033182322979e-03" rms="2.7857398986816406e-01" purity="1.7986342310905457e-01" nType="-99"/>
            <Node pos="r" depth="3" NCoef="0" IVar="-1" Cut="0.0000000000000000e+00" cType="1" res="1.8024345859885216e-02" rms="3.8236546516418457e-01" purity="5.0003045797348022e-01" nType="-99"/>
          </Node>
          <Node pos="r" depth="2" NCoef="0" IVar="-1" Cut="0.0000000000000000e+00" cType="1" res="-1.3839281164109707e-02" rms="3.6426824331283569e-01" purity="6.6340148448944092e-01" nType="-99"/>
        </Node>
        <Node pos="r" depth="1" NCoef="0" IVar="9" Cut="-4.0107759833335876e-01" cType="1" res="-2.7117975987493992e-03" rms="2.7835103869438171e-01" purity="7.5067311525344849e-01" nType="0">
          <Node pos="l" depth="2" NCoef="0" IVar="6" Cut="6.0541011810302734e+01" cType="1" res="-1.3388524763286114e-02" rms="2.8881403803825378e-01" purity="7.0861321687698364e-01" nType="0">
            <Node pos="l" depth="3" NCoef="0" IVar="-1" Cut="0.0000000000000000e+00" cType="1" res="-3.4505020827054977e-02" rms="3.3283504843711853e-01" purity="4.2340293526649475e-01" nType="-99"/>
            <Node pos="r" depth="3" NCoef="0" IVar="-1" Cut="0.0000000000000000e+00" cType="1" res="-5.5613596923649311e-03" rms="2.7135944366455078e-01" purity="8.0714482069015503e-01" nType="-99"/>
          </Node>
          <Node pos="r" depth="2" NCoef="0" IVar="10" Cut="-1.3359288871288300e-01" cType="1" res="2.2929287515580654e-03" rms="2.7316504716873169e-01" purity="7.7038866281509399e-01" nType="0">
            <Node pos="l" depth="3" NCoef="0" IVar="-1" Cut="0.0000000000000000e+00" cType="1" res="1.4039729721844196e-02" rms="2.7444243431091309e-01" purity="7.8404211997985840e-01" nType="-99"/>
            <Node pos="r" depth="3" NCoef="0" IVar="-1" Cut="0.0000000000000000e+00" cType="1" res="-4.9920282326638699e-03" rms="2.7205199003219604e-01" purity="7.6028001308441162e-01" nType="-99"/>
          </Node>
        </Node>
      </Node>
    </BinaryTree>
    <BinaryTree type="DecisionTree" boostWeight="1.0000000000000000e+00" itree="273">
      <Node pos="s" depth="0" NCoef="0" IVar="10" Cut="-9.3331092596054077e-01" cType="1" res="-1.4092980418354273e-03" rms="2.8946095705032349e-01" purity="5.0046718120574951e-01" nType="0">
        <Node pos="l" depth="1" NCoef="0" IVar="10" Cut="-1.1111555099487305e+00" cType="1" res="-9.2326439917087555e-03" rms="2.9106009006500244e-01" purity="4.0615949034690857e-01" nType="0">
          <Node pos="l" depth="2" NCoef="0" IVar="2" Cut="4.2299761962890625e+02" cType="1" res="-5.3302957676351070e-03" rms="2.8968036174774170e-01" purity="3.8882151246070862e-01" nType="0">
            <Node pos="l" depth="3" NCoef="0" IVar="-1" Cut="0.0000000000000000e+00" cType="1" res="-1.3934356160461903e-02" rms="2.8038647770881653e-01" purity="3.3981004357337952e-01" nType="-99"/>
            <Node pos="r" depth="3" NCoef="0" IVar="-1" Cut="0.0000000000000000e+00" cType="1" res="1.0285583324730396e-02" rms="3.1023570895195007e-01" purity="5.0578844547271729e-01" nType="-99"/>
          </Node>
          <Node pos="r" depth="2" NCoef="0" IVar="-1" Cut="0.0000000000000000e+00" cType="1" res="-3.1865321099758148e-02" rms="2.9642894864082336e-01" purity="4.8219257593154907e-01" nType="-99"/>
        </Node>
        <Node pos="r" depth="1" NCoef="0" IVar="11" Cut="-1.8953913450241089e+00" cType="1" res="8.9232716709375381e-04" rms="2.8894847631454468e-01" purity="5.2821248769760132e-01" nType="0">
          <Node pos="l" depth="2" NCoef="0" IVar="10" Cut="1.7332639694213867e+00" cType="1" res="-3.1575814355164766e-03" rms="3.0052193999290466e-01" purity="2.5928631424903870e-01" nType="0">
            <Node pos="l" depth="3" NCoef="0" IVar="-1" Cut="0.0000000000000000e+00" cType="1" res="-5.6682471185922623e-03" rms="3.0418720841407776e-01" purity="2.7605175971984863e-01" nType="-99"/>
            <Node pos="r" depth="3" NCoef="0" IVar="-1" Cut="0.0000000000000000e+00" cType="1" res="1.7649596557021141e-02" rms="2.7420333027839661e-01" purity="1.4693036675453186e-01" nType="-99"/>
          </Node>
          <Node pos="r" depth="2" NCoef="0" IVar="8" Cut="1.2001494169235229e+00" cType="1" res="4.5541399158537388e-03" rms="2.7801892161369324e-01" purity="7.7136790752410889e-01" nType="0">
            <Node pos="l" depth="3" NCoef="0" IVar="-1" Cut="0.0000000000000000e+00" cType="1" res="3.2699871808290482e-03" rms="2.7464017271995544e-01" purity="7.9764956235885620e-01" nType="-99"/>
            <Node pos="r" depth="3" NCoef="0" IVar="-1" Cut="0.0000000000000000e+00" cType="1" res="2.4155709892511368e-02" rms="3.0983635783195496e-01" purity="5.0146943330764771e-01" nType="-99"/>
          </Node>
        </Node>
      </Node>
    </BinaryTree>
    <BinaryTree type="DecisionTree" boostWeight="1.0000000000000000e+00" itree="274">
      <Node pos="s" depth="0" NCoef="0" IVar="9" Cut="-1.2000631093978882e+00" cType="1" res="5.1173870451748371e-03" rms="2.9446294903755188e-01" purity="5.0160419940948486e-01" nType="0">
        <Node pos="l" depth="1" NCoef="0" IVar="4" Cut="9.2026252746582031e+01" cType="1" res="2.0283849909901619e-02" rms="2.9909613728523254e-01" purity="3.0035120248794556e-01" nType="0">
          <Node pos="l" depth="2" NCoef="0" IVar="-1" Cut="0.0000000000000000e+00" cType="1" res="-1.5115294605493546e-02" rms="1.8330302834510803e-01" purity="5.2405372262001038e-02" nType="-99"/>
          <Node pos="r" depth="2" NCoef="0" IVar="8" Cut="-1.3388817012310028e-01" cType="1" res="2.6717970147728920e-02" rms="3.2093212008476257e-01" purity="3.6137837171554565e-01" nType="0">
            <Node pos="l" depth="3" NCoef="0" IVar="-1" Cut="0.0000000000000000e+00" cType="1" res="4.5225892215967178e-02" rms="3.2727882266044617e-01" purity="3.6834472417831421e-01" nType="-99"/>
            <Node pos="r" depth="3" NCoef="0" IVar="-1" Cut="0.0000000000000000e+00" cType="1" res="1.1589128524065018e-02" rms="3.1335332989692688e-01" purity="3.5406678915023804e-01" nType="-99"/>
          </Node>
        </Node>
        <Node pos="r" depth="1" NCoef="0" IVar="11" Cut="-2.3810116946697235e-01" cType="1" res="2.7492516674101353e-03" rms="2.9366222023963928e-01" purity="5.3302842378616333e-01" nType="0">
          <Node pos="l" depth="2" NCoef="0" IVar="7" Cut="6.7605900764465332e-01" cType="1" res="5.9705516323447227e-03" rms="2.9721438884735107e-01" purity="4.2740660905838013e-01" nType="0">
            <Node pos="l" depth="3" NCoef="0" IVar="-1" Cut="0.0000000000000000e+00" cType="1" res="3.8472746964544058e-03" rms="3.0512511730194092e-01" purity="4.8074331879615784e-01" nType="-99"/>
            <Node pos="r" depth="3" NCoef="0" IVar="-1" Cut="0.0000000000000000e+00" cType="1" res="1.9347874447703362e-02" rms="2.6926633715629578e-01" purity="2.5105354189872742e-01" nType="-99"/>
          </Node>
          <Node pos="r" depth="2" NCoef="0" IVar="11" Cut="9.1930240392684937e-01" cType="1" res="-4.2051696218550205e-03" rms="2.8571924567222595e-01" purity="7.6105386018753052e-01" nType="0">
            <Node pos="l" depth="3" NCoef="0" IVar="-1" Cut="0.0000000000000000e+00" cType="1" res="-1.4421411789953709e-02" rms="2.7750492095947266e-01" purity="7.8633964061737061e-01" nType="-99"/>
            <Node pos="r" depth="3" NCoef="0" IVar="-1" Cut="0.0000000000000000e+00" cType="1" res="7.2014522738754749e-03" rms="2.9826790094375610e-01" purity="7.2001844644546509e-01" nType="-99"/>
          </Node>
        </Node>
      </Node>
    </BinaryTree>
    <BinaryTree type="DecisionTree" boostWeight="1.0000000000000000e+00" itree="275">
      <Node pos="s" depth="0" NCoef="0" IVar="7" Cut="4.2366495728492737e-01" cType="1" res="5.6479248451068997e-04" rms="2.8884664177894592e-01" purity="5.0032138824462891e-01" nType="0">
        <Node pos="l" depth="1" NCoef="0" IVar="9" Cut="-1.7330340147018433e+00" cType="1" res="3.0547480564564466e-03" rms="2.9450729489326477e-01" purity="5.4995924234390259e-01" nType="0">
          <Node pos="l" depth="2" NCoef="0" IVar="-1" Cut="0.0000000000000000e+00" cType="1" res="-2.0424181595444679e-02" rms="2.6673737168312073e-01" purity="1.6502434015274048e-01" nType="-99"/>
          <Node pos="r" depth="2" NCoef="0" IVar="10" Cut="1.7331047058105469e+00" cType="1" res="4.1895690374076366e-03" rms="2.9608121514320374e-01" purity="5.7346951961517334e-01" nType="0">
            <Node pos="l" depth="3" NCoef="0" IVar="-1" Cut="0.0000000000000000e+00" cType="1" res="3.4760944545269012e-03" rms="2.9502940177917480e-01" purity="5.8894133567810059e-01" nType="-99"/>
            <Node pos="r" depth="3" NCoef="0" IVar="-1" Cut="0.0000000000000000e+00" cType="1" res="2.1979449316859245e-02" rms="3.0979132652282715e-01" purity="3.5957825183868408e-01" nType="-99"/>
          </Node>
        </Node>
        <Node pos="r" depth="1" NCoef="0" IVar="9" Cut="1.4658623933792114e+00" cType="1" res="-4.8454552888870239e-03" rms="2.7606990933418274e-01" purity="3.9246678352355957e-01" nType="0">
          <Node pos="l" depth="2" NCoef="0" IVar="1" Cut="7.6848588883876801e-02" cType="1" res="-7.6104174368083477e-03" rms="2.7933639287948608e-01" purity="4.1695106029510498e-01" nType="0">
            <Node pos="l" depth="3" NCoef="0" IVar="-1" Cut="0.0000000000000000e+00" cType="1" res="-1.8510913476347923e-02" rms="2.7769830822944641e-01" purity="2.4700970947742462e-01" nType="-99"/>
            <Node pos="r" depth="3" NCoef="0" IVar="-1" Cut="0.0000000000000000e+00" cType="1" res="8.8733239099383354e-03" rms="2.8229239583015442e-01" purity="7.8883868455886841e-01" nType="-99"/>
          </Node>
          <Node pos="r" depth="2" NCoef="0" IVar="-1" Cut="0.0000000000000000e+00" cType="1" res="2.5581378489732742e-02" rms="2.4794936180114746e-01" purity="2.0073220133781433e-01" nType="-99"/>
        </Node>
      </Node>
    </BinaryTree>
    <BinaryTree type="DecisionTree" boostWeight="1.0000000000000000e+00" itree="276">
      <Node pos="s" depth="0" NCoef="0" IVar="3" Cut="4.2650070190429688e+02" cType="1" res="4.1792946285568178e-04" rms="2.8962516784667969e-01" purity="5.0063556432723999e-01" nType="0">
        <Node pos="l" depth="1" NCoef="0" IVar="5" Cut="1.4748474121093750e+02" cType="1" res="1.4950212789699435e-03" rms="2.8928050398826599e-01" purity="4.8895364999771118e-01" nType="0">
          <Node pos="l" depth="2" NCoef="0" IVar="8" Cut="-1.3333176076412201e-01" cType="1" res="2.6322668418288231e-03" rms="2.9578137397766113e-01" purity="4.4715964794158936e-01" nType="0">
            <Node pos="l" depth="3" NCoef="0" IVar="-1" Cut="0.0000000000000000e+00" cType="1" res="-2.7210537809878588e-03" rms="2.9216659069061279e-01" purity="4.2663374543190002e-01" nType="-99"/>
            <Node pos="r" depth="3" NCoef="0" IVar="-1" Cut="0.0000000000000000e+00" cType="1" res="7.4579147621989250e-03" rms="2.9857930541038513e-01" purity="4.6356648206710815e-01" nType="-99"/>
          </Node>
          <Node pos="r" depth="2" NCoef="0" IVar="-1" Cut="0.0000000000000000e+00" cType="1" res="-2.7983278036117554e-02" rms="2.0829680562019348e-01" purity="9.3001168966293335e-01" nType="-99"/>
        </Node>
        <Node pos="r" depth="1" NCoef="0" IVar="-1" Cut="0.0000000000000000e+00" cType="1" res="-2.3470578715205193e-02" rms="2.9551330208778381e-01" purity="7.2982299327850342e-01" nType="-99"/>
      </Node>
    </BinaryTree>
    <BinaryTree type="DecisionTree" boostWeight="1.0000000000000000e+00" itree="277">
      <Node pos="s" depth="0" NCoef="0" IVar="11" Cut="1.1427444219589233e+00" cType="1" res="-1.0237687965855002e-03" rms="2.8862118721008301e-01" purity="4.9845448136329651e-01" nType="0">
        <Node pos="l" depth="1" NCoef="0" IVar="7" Cut="-9.2584401369094849e-01" cType="1" res="4.4258683919906616e-04" rms="2.8621110320091248e-01" purity="4.8446407914161682e-01" nType="0">
          <Node pos="l" depth="2" NCoef="0" IVar="2" Cut="4.5269421386718750e+02" cType="1" res="9.5057133585214615e-03" rms="2.6674178242683411e-01" purity="2.4790164828300476e-01" nType="0">
            <Node pos="l" depth="3" NCoef="0" IVar="-1" Cut="0.0000000000000000e+00" cType="1" res="2.1957080811262131e-02" rms="2.6954466104507446e-01" purity="2.4521255493164062e-01" nType="-99"/>
            <Node pos="r" depth="3" NCoef="0" IVar="-1" Cut="0.0000000000000000e+00" cType="1" res="-1.6586093232035637e-02" rms="2.5318595767021179e-01" purity="2.5940379500389099e-01" nType="-99"/>
          </Node>
          <Node pos="r" depth="2" NCoef="0" IVar="3" Cut="3.3689160156250000e+02" cType="1" res="-1.1963850120082498e-03" rms="2.8956192731857300e-01" purity="5.2724391222000122e-01" nType="0">
            <Node pos="l" depth="3" NCoef="0" IVar="-1" Cut="0.0000000000000000e+00" cType="1" res="-3.7752815987914801e-03" rms="2.8932821750640869e-01" purity="4.8527806997299194e-01" nType="-99"/>
            <Node pos="r" depth="3" NCoef="0" IVar="-1" Cut="0.0000000000000000e+00" cType="1" res="1.1797336861491203e-02" rms="2.9059070348739624e-01" purity="7.5874233245849609e-01" nType="-99"/>
          </Node>
        </Node>
        <Node pos="r" depth="1" NCoef="0" IVar="11" Cut="1.8529416322708130e+00" cType="1" res="-1.6235895454883575e-02" rms="3.1212303042411804e-01" purity="6.4359241724014282e-01" nType="0">
          <Node pos="l" depth="2" NCoef="0" IVar="-1" Cut="0.0000000000000000e+00" cType="1" res="-2.8785334900021553e-02" rms="3.0595237016677856e-01" purity="6.7767083644866943e-01" nType="-99"/>
          <Node pos="r" depth="2" NCoef="0" IVar="-1" Cut="0.0000000000000000e+00" cType="1" res="1.4808791456744075e-03" rms="3.2286667823791504e-01" purity="5.7835125923156738e-01" nType="-99"/>
        </Node>
      </Node>
    </BinaryTree>
    <BinaryTree type="DecisionTree" boostWeight="1.0000000000000000e+00" itree="278">
      <Node pos="s" depth="0" NCoef="0" IVar="7" Cut="-3.8569763302803040e-01" cType="1" res="-1.2188248365418985e-04" rms="2.8831738233566284e-01" purity="4.9721106886863708e-01" nType="0">
        <Node pos="l" depth="1" NCoef="0" IVar="0" Cut="1.8914932861328125e+03" cType="1" res="-8.5284188389778137e-03" rms="2.8359028697013855e-01" purity="4.1015878319740295e-01" nType="0">
          <Node pos="l" depth="2" NCoef="0" IVar="4" Cut="2.0017755126953125e+02" cType="1" res="-1.1603568680584431e-02" rms="2.8810247778892517e-01" purity="3.0614045262336731e-01" nType="0">
            <Node pos="l" depth="3" NCoef="0" IVar="-1" Cut="0.0000000000000000e+00" cType="1" res="-9.9586918950080872e-03" rms="2.8216037154197693e-01" purity="2.7270036935806274e-01" nType="-99"/>
            <Node pos="r" depth="3" NCoef="0" IVar="-1" Cut="0.0000000000000000e+00" cType="1" res="-3.1121958047151566e-02" rms="3.2546180486679077e-01" purity="5.3876900672912598e-01" nType="-99"/>
          </Node>
          <Node pos="r" depth="2" NCoef="0" IVar="10" Cut="1.3335636258125305e-01" cType="1" res="4.4847768731415272e-03" rms="2.6324522495269775e-01" purity="8.5033583641052246e-01" nType="0">
            <Node pos="l" depth="3" NCoef="0" IVar="-1" Cut="0.0000000000000000e+00" cType="1" res="-1.2507697567343712e-02" rms="2.6563924551010132e-01" purity="8.4724187850952148e-01" nType="-99"/>
            <Node pos="r" depth="3" NCoef="0" IVar="-1" Cut="0.0000000000000000e+00" cType="1" res="3.0249075964093208e-02" rms="2.5881928205490112e-01" purity="8.5465341806411743e-01" nType="-99"/>
          </Node>
        </Node>
        <Node pos="r" depth="1" NCoef="0" IVar="9" Cut="3.9987275004386902e-01" cType="1" res="3.9920466952025890e-03" rms="2.9051405191421509e-01" purity="5.3981208801269531e-01" nType="0">
          <Node pos="l" depth="2" NCoef="0" IVar="8" Cut="-1.1997784376144409e+00" cType="1" res="8.1309499219059944e-03" rms="2.8861683607101440e-01" purity="5.7250618934631348e-01" nType="0">
            <Node pos="l" depth="3" NCoef="0" IVar="-1" Cut="0.0000000000000000e+00" cType="1" res="3.8616932928562164e-02" rms="2.9511511325836182e-01" purity="2.6322966814041138e-01" nType="-99"/>
            <Node pos="r" depth="3" NCoef="0" IVar="-1" Cut="0.0000000000000000e+00" cType="1" res="6.4111710526049137e-03" rms="2.8768870234489441e-01" purity="6.1098855733871460e-01" nType="-99"/>
          </Node>
          <Node pos="r" depth="2" NCoef="0" IVar="9" Cut="1.4284032583236694e+00" cType="1" res="-3.1394136603921652e-03" rms="2.9361739754676819e-01" purity="4.8347920179367065e-01" nType="0">
            <Node pos="l" depth="3" NCoef="0" IVar="-1" Cut="0.0000000000000000e+00" cType="1" res="-8.9880954474210739e-03" rms="2.9387760162353516e-01" purity="5.5434906482696533e-01" nType="-99"/>
            <Node pos="r" depth="3" NCoef="0" IVar="-1" Cut="0.0000000000000000e+00" cType="1" res="1.3380377553403378e-02" rms="2.9238134622573853e-01" purity="2.7058145403862000e-01" nType="-99"/>
          </Node>
        </Node>
      </Node>
    </BinaryTree>
    <BinaryTree type="DecisionTree" boostWeight="1.0000000000000000e+00" itree="279">
      <Node pos="s" depth="0" NCoef="0" IVar="2" Cut="4.4581460571289062e+02" cType="1" res="2.1134263370186090e-03" rms="2.9234635829925537e-01" purity="5.0347000360488892e-01" nType="0">
        <Node pos="l" depth="1" NCoef="0" IVar="6" Cut="8.0188293457031250e+01" cType="1" res="4.4458741322159767e-03" rms="2.9111853241920471e-01" purity="4.7328624129295349e-01" nType="0">
          <Node pos="l" depth="2" NCoef="0" IVar="10" Cut="3.9968690276145935e-01" cType="1" res="7.4692619964480400e-03" rms="3.0774170160293579e-01" purity="3.5043096542358398e-01" nType="0">
            <Node pos="l" depth="3" NCoef="0" IVar="-1" Cut="0.0000000000000000e+00" cType="1" res="1.3072432018816471e-02" rms="3.0751723051071167e-01" purity="3.6220800876617432e-01" nType="-99"/>
            <Node pos="r" depth="3" NCoef="0" IVar="-1" Cut="0.0000000000000000e+00" cType="1" res="-5.3868832765147090e-04" rms="3.0795004963874817e-01" purity="3.3081522583961487e-01" nType="-99"/>
          </Node>
          <Node pos="r" depth="2" NCoef="0" IVar="0" Cut="1.6938061523437500e+03" cType="1" res="-6.1659771017730236e-03" rms="2.2285471856594086e-01" purity="9.0449869632720947e-01" nType="0">
            <Node pos="l" depth="3" NCoef="0" IVar="-1" Cut="0.0000000000000000e+00" cType="1" res="-2.8935680165886879e-02" rms="2.9986265301704407e-01" purity="8.0651831626892090e-01" nType="-99"/>
            <Node pos="r" depth="3" NCoef="0" IVar="-1" Cut="0.0000000000000000e+00" cType="1" res="2.0045906305313110e-02" rms="1.4909258484840393e-01" purity="9.7044539451599121e-01" nType="-99"/>
          </Node>
        </Node>
        <Node pos="r" depth="1" NCoef="0" IVar="10" Cut="3.9990496635437012e-01" cType="1" res="-4.0406277403235435e-03" rms="2.9547300934791565e-01" purity="5.8310824632644653e-01" nType="0">
          <Node pos="l" depth="2" NCoef="0" IVar="8" Cut="-6.6677212715148926e-01" cType="1" res="-9.1833015903830528e-03" rms="2.9538717865943909e-01" purity="5.9520369768142700e-01" nType="0">
            <Node pos="l" depth="3" NCoef="0" IVar="-1" Cut="0.0000000000000000e+00" cType="1" res="5.3522526286542416e-03" rms="2.9987242817878723e-01" purity="4.7310745716094971e-01" nType="-99"/>
            <Node pos="r" depth="3" NCoef="0" IVar="-1" Cut="0.0000000000000000e+00" cType="1" res="-1.6121080145239830e-02" rms="2.9378482699394226e-01" purity="6.3466209173202515e-01" nType="-99"/>
          </Node>
          <Node pos="r" depth="2" NCoef="0" IVar="5" Cut="6.6213142395019531e+01" cType="1" res="4.5313257724046707e-03" rms="2.9541715979576111e-01" purity="5.6294715404510498e-01" nType="0">
            <Node pos="l" depth="3" NCoef="0" IVar="-1" Cut="0.0000000000000000e+00" cType="1" res="-1.2016393244266510e-02" rms="3.0432605743408203e-01" purity="2.0121431350708008e-01" nType="-99"/>
            <Node pos="r" depth="3" NCoef="0" IVar="-1" Cut="0.0000000000000000e+00" cType="1" res="1.2039172463119030e-02" rms="2.9154354333877563e-01" purity="7.0766937732696533e-01" nType="-99"/>
          </Node>
        </Node>
      </Node>
    </BinaryTree>
    <BinaryTree type="DecisionTree" boostWeight="1.0000000000000000e+00" itree="280">
      <Node pos="s" depth="0" NCoef="0" IVar="10" Cut="-1.2000583410263062e+00" cType="1" res="1.0802367469295859e-03" rms="2.8802230954170227e-01" purity="5.0611776113510132e-01" nType="0">
        <Node pos="l" depth="1" NCoef="0" IVar="7" Cut="-5.8353799581527710e-01" cType="1" res="-6.0346508398652077e-03" rms="2.8984117507934570e-01" purity="3.6322328448295593e-01" nType="0">
          <Node pos="l" depth="2" NCoef="0" IVar="4" Cut="1.3182971191406250e+02" cType="1" res="9.8216040059924126e-03" rms="2.7614265680313110e-01" purity="2.6954051852226257e-01" nType="0">
            <Node pos="l" depth="3" NCoef="0" IVar="-1" Cut="0.0000000000000000e+00" cType="1" res="-8.8948588818311691e-03" rms="2.1236035227775574e-01" purity="8.8481470942497253e-02" nType="-99"/>
            <Node pos="r" depth="3" NCoef="0" IVar="-1" Cut="0.0000000000000000e+00" cType="1" res="2.4456685408949852e-02" rms="3.2797399163246155e-01" purity="4.5399078726768494e-01" nType="-99"/>
          </Node>
          <Node pos="r" depth="2" NCoef="0" IVar="6" Cut="5.5285301208496094e+01" cType="1" res="-1.3958294875919819e-02" rms="2.9613152146339417e-01" purity="4.1003817319869995e-01" nType="0">
            <Node pos="l" depth="3" NCoef="0" IVar="-1" Cut="0.0000000000000000e+00" cType="1" res="-2.4960262700915337e-02" rms="3.0241122841835022e-01" purity="2.0439626276493073e-01" nType="-99"/>
            <Node pos="r" depth="3" NCoef="0" IVar="-1" Cut="0.0000000000000000e+00" cType="1" res="3.7816847907379270e-04" rms="2.8564491868019104e-01" purity="7.2537380456924438e-01" nType="-99"/>
          </Node>
        </Node>
        <Node pos="r" depth="1" NCoef="0" IVar="1" Cut="8.2006268203258514e-02" cType="1" res="2.4270112626254559e-03" rms="2.8765690326690674e-01" purity="5.3316617012023926e-01" nType="0">
          <Node pos="l" depth="2" NCoef="0" IVar="1" Cut="5.4669741541147232e-02" cType="1" res="4.9719065427780151e-03" rms="2.9681023955345154e-01" purity="3.6426120996475220e-01" nType="0">
            <Node pos="l" depth="3" NCoef="0" IVar="-1" Cut="0.0000000000000000e+00" cType="1" res="1.5742455143481493e-03" rms="2.8702372312545776e-01" purity="2.8307634592056274e-01" nType="-99"/>
            <Node pos="r" depth="3" NCoef="0" IVar="-1" Cut="0.0000000000000000e+00" cType="1" res="1.6210827976465225e-02" rms="3.2731896638870239e-01" purity="6.3758867979049683e-01" nType="-99"/>
          </Node>
          <Node pos="r" depth="2" NCoef="0" IVar="10" Cut="1.2760196924209595e+00" cType="1" res="-1.8445985624566674e-03" rms="2.7154681086540222e-01" purity="8.1667333841323853e-01" nType="0">
            <Node pos="l" depth="3" NCoef="0" IVar="-1" Cut="0.0000000000000000e+00" cType="1" res="-7.4241096153855324e-03" rms="2.6242542266845703e-01" purity="8.3224934339523315e-01" nType="-99"/>
            <Node pos="r" depth="3" NCoef="0" IVar="-1" Cut="0.0000000000000000e+00" cType="1" res="1.8013015389442444e-02" rms="3.1946524977684021e-01" purity="7.2447437047958374e-01" nType="-99"/>
          </Node>
        </Node>
      </Node>
    </BinaryTree>
    <BinaryTree type="DecisionTree" boostWeight="1.0000000000000000e+00" itree="281">
      <Node pos="s" depth="0" NCoef="0" IVar="11" Cut="-1.0666707754135132e+00" cType="1" res="-2.9602227732539177e-03" rms="2.8746786713600159e-01" purity="4.9653226137161255e-01" nType="0">
        <Node pos="l" depth="1" NCoef="0" IVar="5" Cut="6.4855369567871094e+01" cType="1" res="-6.6531309857964516e-03" rms="2.9433202743530273e-01" purity="2.9572990536689758e-01" nType="0">
          <Node pos="l" depth="2" NCoef="0" IVar="5" Cut="6.2025634765625000e+01" cType="1" res="-1.7163993325084448e-03" rms="2.6535752415657043e-01" purity="1.3036541640758514e-01" nType="0">
            <Node pos="l" depth="3" NCoef="0" IVar="-1" Cut="0.0000000000000000e+00" cType="1" res="3.7228541914373636e-03" rms="2.6487210392951965e-01" purity="1.3005664944648743e-01" nType="-99"/>
            <Node pos="r" depth="3" NCoef="0" IVar="-1" Cut="0.0000000000000000e+00" cType="1" res="-3.6128297448158264e-02" rms="2.6683169603347778e-01" purity="1.3236087560653687e-01" nType="-99"/>
          </Node>
          <Node pos="r" depth="2" NCoef="0" IVar="10" Cut="-4.0026250481605530e-01" cType="1" res="-1.1272118426859379e-02" rms="3.1899872422218323e-01" purity="4.5045098662376404e-01" nType="0">
            <Node pos="l" depth="3" NCoef="0" IVar="-1" Cut="0.0000000000000000e+00" cType="1" res="-2.4086678400635719e-02" rms="3.1741514801979065e-01" purity="4.1573825478553772e-01" nType="-99"/>
            <Node pos="r" depth="3" NCoef="0" IVar="-1" Cut="0.0000000000000000e+00" cType="1" res="-2.6429560966789722e-03" rms="3.1969362497329712e-01" purity="4.7217524051666260e-01" nType="-99"/>
          </Node>
        </Node>
        <Node pos="r" depth="1" NCoef="0" IVar="1" Cut="4.1066236793994904e-02" cType="1" res="1.8987711519002914e-03" rms="2.7810359001159668e-01" purity="7.6074069738388062e-01" nType="0">
          <Node pos="l" depth="2" NCoef="0" IVar="1" Cut="2.5446083396673203e-02" cType="1" res="1.3153645209968090e-02" rms="3.1854185461997986e-01" purity="4.4473552703857422e-01" nType="0">
            <Node pos="l" depth="3" NCoef="0" IVar="-1" Cut="0.0000000000000000e+00" cType="1" res="-4.2441710829734802e-03" rms="3.0406886339187622e-01" purity="3.0784520506858826e-01" nType="-99"/>
            <Node pos="r" depth="3" NCoef="0" IVar="-1" Cut="0.0000000000000000e+00" cType="1" res="2.7785489335656166e-02" rms="3.3425045013427734e-01" purity="6.1293941736221313e-01" nType="-99"/>
          </Node>
          <Node pos="r" depth="2" NCoef="0" IVar="0" Cut="1.3560701904296875e+03" cType="1" res="-1.7719968454912305e-03" rms="2.6347243785858154e-01" purity="8.6380553245544434e-01" nType="0">
            <Node pos="l" depth="3" NCoef="0" IVar="-1" Cut="0.0000000000000000e+00" cType="1" res="-1.2060114182531834e-02" rms="4.1544145345687866e-01" purity="5.1957589387893677e-01" nType="-99"/>
            <Node pos="r" depth="3" NCoef="0" IVar="-1" Cut="0.0000000000000000e+00" cType="1" res="2.7171394322067499e-03" rms="2.2641418874263763e-01" purity="9.2414069175720215e-01" nType="-99"/>
          </Node>
        </Node>
      </Node>
    </BinaryTree>
    <BinaryTree type="DecisionTree" boostWeight="1.0000000000000000e+00" itree="282">
      <Node pos="s" depth="0" NCoef="0" IVar="10" Cut="2.2663934230804443e+00" cType="1" res="1.4480577083304524e-03" rms="2.9177582263946533e-01" purity="4.9596056342124939e-01" nType="0">
        <Node pos="l" depth="1" NCoef="0" IVar="9" Cut="1.9999073743820190e+00" cType="1" res="8.0725003499537706e-04" rms="2.9190686345100403e-01" purity="5.0274944305419922e-01" nType="0">
          <Node pos="l" depth="2" NCoef="0" IVar="9" Cut="-2.8579306602478027e-01" cType="1" res="1.4979238621890545e-03" rms="2.9397308826446533e-01" purity="5.1640683412551880e-01" nType="0">
            <Node pos="l" depth="3" NCoef="0" IVar="-1" Cut="0.0000000000000000e+00" cType="1" res="-4.2633116245269775e-03" rms="2.9574981331825256e-01" purity="4.7030010819435120e-01" nType="-99"/>
            <Node pos="r" depth="3" NCoef="0" IVar="-1" Cut="0.0000000000000000e+00" cType="1" res="5.8923037722706795e-03" rms="2.9268750548362732e-01" purity="5.4819041490554810e-01" nType="-99"/>
          </Node>
          <Node pos="r" depth="2" NCoef="0" IVar="-1" Cut="0.0000000000000000e+00" cType="1" res="-3.1229425221681595e-02" rms="2.2573208808898926e-01" purity="1.2065461277961731e-01" nType="-99"/>
        </Node>
        <Node pos="r" depth="1" NCoef="0" IVar="-1" Cut="0.0000000000000000e+00" cType="1" res="3.1645059585571289e-02" rms="2.8614422678947449e-01" purity="2.5447371602058411e-01" nType="-99"/>
      </Node>
    </BinaryTree>
    <BinaryTree type="DecisionTree" boostWeight="1.0000000000000000e+00" itree="283">
      <Node pos="s" depth="0" NCoef="0" IVar="4" Cut="1.8750300598144531e+02" cType="1" res="-2.4658786132931709e-03" rms="2.8454652428627014e-01" purity="4.9603414535522461e-01" nType="0">
        <Node pos="l" depth="1" NCoef="0" IVar="4" Cut="1.0278892517089844e+02" cType="1" res="-4.8720547929406166e-03" rms="2.8961175680160522e-01" purity="3.4880781173706055e-01" nType="0">
          <Node pos="l" depth="2" NCoef="0" IVar="6" Cut="5.2167694091796875e+01" cType="1" res="3.3571650274097919e-03" rms="2.2620649635791779e-01" purity="9.2816561460494995e-02" nType="0">
            <Node pos="l" depth="3" NCoef="0" IVar="-1" Cut="0.0000000000000000e+00" cType="1" res="-1.0549049824476242e-02" rms="2.0063993334770203e-01" purity="5.1738798618316650e-02" nType="-99"/>
            <Node pos="r" depth="3" NCoef="0" IVar="-1" Cut="0.0000000000000000e+00" cType="1" res="3.9031501859426498e-02" rms="3.2188311219215393e-01" purity="2.9702281951904297e-01" nType="-99"/>
          </Node>
          <Node pos="r" depth="2" NCoef="0" IVar="4" Cut="1.1892410278320312e+02" cType="1" res="-8.2980627194046974e-03" rms="3.1217160820960999e-01" purity="4.5538267493247986e-01" nType="0">
            <Node pos="l" depth="3" NCoef="0" IVar="-1" Cut="0.0000000000000000e+00" cType="1" res="-2.4368874728679657e-02" rms="2.8000456094741821e-01" purity="2.0039346814155579e-01" nType="-99"/>
            <Node pos="r" depth="3" NCoef="0" IVar="-1" Cut="0.0000000000000000e+00" cType="1" res="-4.7917556948959827e-03" rms="3.1960150599479675e-01" purity="5.1895660161972046e-01" nType="-99"/>
          </Node>
        </Node>
        <Node pos="r" depth="1" NCoef="0" IVar="10" Cut="-4.0032491087913513e-01" cType="1" res="2.4649496190249920e-03" rms="2.7380809187889099e-01" purity="7.9773604869842529e-01" nType="0">
          <Node pos="l" depth="2" NCoef="0" IVar="1" Cut="5.8522019535303116e-02" cType="1" res="9.1206561774015427e-03" rms="2.8249707818031311e-01" purity="7.8547447919845581e-01" nType="0">
            <Node pos="l" depth="3" NCoef="0" IVar="-1" Cut="0.0000000000000000e+00" cType="1" res="2.8212986886501312e-02" rms="3.4157744050025940e-01" purity="5.6828266382217407e-01" nType="-99"/>
            <Node pos="r" depth="3" NCoef="0" IVar="-1" Cut="0.0000000000000000e+00" cType="1" res="-6.2322192825376987e-03" rms="2.4423830211162567e-01" purity="9.0141171216964722e-01" nType="-99"/>
          </Node>
          <Node pos="r" depth="2" NCoef="0" IVar="9" Cut="3.9994373917579651e-01" cType="1" res="-1.2050891527906060e-03" rms="2.6882630586624146e-01" purity="8.0449724197387695e-01" nType="0">
            <Node pos="l" depth="3" NCoef="0" IVar="-1" Cut="0.0000000000000000e+00" cType="1" res="-9.0220263227820396e-03" rms="2.6575163006782532e-01" purity="8.1750965118408203e-01" nType="-99"/>
            <Node pos="r" depth="3" NCoef="0" IVar="-1" Cut="0.0000000000000000e+00" cType="1" res="1.0684159584343433e-02" rms="2.7415555715560913e-01" purity="7.8042113780975342e-01" nType="-99"/>
          </Node>
        </Node>
      </Node>
    </BinaryTree>
    <BinaryTree type="DecisionTree" boostWeight="1.0000000000000000e+00" itree="284">
      <Node pos="s" depth="0" NCoef="0" IVar="11" Cut="5.9046846628189087e-01" cType="1" res="-2.5064528454095125e-03" rms="2.8828370571136475e-01" purity="4.9509930610656738e-01" nType="0">
        <Node pos="l" depth="1" NCoef="0" IVar="8" Cut="-9.3325001001358032e-01" cType="1" res="-4.1165677830576897e-03" rms="2.8782382607460022e-01" purity="4.4967022538185120e-01" nType="0">
          <Node pos="l" depth="2" NCoef="0" IVar="2" Cut="4.4669891357421875e+02" cType="1" res="-1.2385413050651550e-02" rms="2.5867858529090881e-01" purity="2.5244823098182678e-01" nType="0">
            <Node pos="l" depth="3" NCoef="0" IVar="-1" Cut="0.0000000000000000e+00" cType="1" res="-1.1530118994414806e-02" rms="2.5604882836341858e-01" purity="2.4601526558399200e-01" nType="-99"/>
            <Node pos="r" depth="3" NCoef="0" IVar="-1" Cut="0.0000000000000000e+00" cType="1" res="-3.5085339099168777e-02" rms="2.6716297864913940e-01" purity="2.7523174881935120e-01" nType="-99"/>
          </Node>
          <Node pos="r" depth="2" NCoef="0" IVar="10" Cut="1.3325425982475281e-01" cType="1" res="-2.2796159610152245e-03" rms="2.9387485980987549e-01" purity="4.9348378181457520e-01" nType="0">
            <Node pos="l" depth="3" NCoef="0" IVar="-1" Cut="0.0000000000000000e+00" cType="1" res="3.4825785551220179e-03" rms="2.9619583487510681e-01" purity="5.1798373460769653e-01" nType="-99"/>
            <Node pos="r" depth="3" NCoef="0" IVar="-1" Cut="0.0000000000000000e+00" cType="1" res="-9.5098000019788742e-03" rms="2.9110884666442871e-01" purity="4.6575310826301575e-01" nType="-99"/>
          </Node>
        </Node>
        <Node pos="r" depth="1" NCoef="0" IVar="10" Cut="1.1994775533676147e+00" cType="1" res="5.3808134980499744e-03" rms="2.9039710760116577e-01" purity="7.1763694286346436e-01" nType="0">
          <Node pos="l" depth="2" NCoef="0" IVar="9" Cut="1.3658949732780457e-01" cType="1" res="-8.2810613093897700e-04" rms="2.8420600295066833e-01" purity="7.3710030317306519e-01" nType="0">
            <Node pos="l" depth="3" NCoef="0" IVar="-1" Cut="0.0000000000000000e+00" cType="1" res="-1.2691527605056763e-02" rms="2.8393056988716125e-01" purity="7.3409706354141235e-01" nType="-99"/>
            <Node pos="r" depth="3" NCoef="0" IVar="-1" Cut="0.0000000000000000e+00" cType="1" res="1.1662340722978115e-02" rms="2.8413826227188110e-01" purity="7.4041396379470825e-01" nType="-99"/>
          </Node>
          <Node pos="r" depth="2" NCoef="0" IVar="-1" Cut="0.0000000000000000e+00" cType="1" res="3.0398894101381302e-02" rms="3.1621730327606201e-01" purity="6.2630826234817505e-01" nType="-99"/>
        </Node>
      </Node>
    </BinaryTree>
    <BinaryTree type="DecisionTree" boostWeight="1.0000000000000000e+00" itree="285">
      <Node pos="s" depth="0" NCoef="0" IVar="8" Cut="-1.1999636888504028e+00" cType="1" res="1.6310034552589059e-03" rms="2.8850212693214417e-01" purity="5.0183987617492676e-01" nType="0">
        <Node pos="l" depth="1" NCoef="0" IVar="11" Cut="-5.1452147960662842e-01" cType="1" res="1.5916395932435989e-02" rms="2.6427212357521057e-01" purity="2.3758974671363831e-01" nType="0">
          <Node pos="l" depth="2" NCoef="0" IVar="4" Cut="1.4591921997070312e+02" cType="1" res="5.0014080479741096e-03" rms="2.3438955843448639e-01" purity="1.5337014198303223e-01" nType="0">
            <Node pos="l" depth="3" NCoef="0" IVar="-1" Cut="0.0000000000000000e+00" cType="1" res="3.8338862359523773e-02" rms="2.1418635547161102e-01" purity="7.2923459112644196e-02" nType="-99"/>
            <Node pos="r" depth="3" NCoef="0" IVar="-1" Cut="0.0000000000000000e+00" cType="1" res="-1.3720074668526649e-02" rms="2.6871934533119202e-01" purity="3.1109941005706787e-01" nType="-99"/>
          </Node>
          <Node pos="r" depth="2" NCoef="0" IVar="-1" Cut="0.0000000000000000e+00" cType="1" res="5.0282027572393417e-02" rms="3.4053367376327515e-01" purity="5.0733578205108643e-01" nType="-99"/>
        </Node>
        <Node pos="r" depth="1" NCoef="0" IVar="9" Cut="-1.7333276271820068e+00" cType="1" res="-2.8856089920736849e-04" rms="2.9155123233795166e-01" purity="5.3734779357910156e-01" nType="0">
          <Node pos="l" depth="2" NCoef="0" IVar="-1" Cut="0.0000000000000000e+00" cType="1" res="2.9528226703405380e-02" rms="2.7684012055397034e-01" purity="2.1376250684261322e-01" nType="-99"/>
          <Node pos="r" depth="2" NCoef="0" IVar="0" Cut="1.1005866699218750e+03" cType="1" res="-1.5796339139342308e-03" rms="2.9233661293983459e-01" purity="5.5626243352890015e-01" nType="0">
            <Node pos="l" depth="3" NCoef="0" IVar="-1" Cut="0.0000000000000000e+00" cType="1" res="2.3001553490757942e-02" rms="2.2888095676898956e-01" purity="6.5371781587600708e-02" nType="-99"/>
            <Node pos="r" depth="3" NCoef="0" IVar="-1" Cut="0.0000000000000000e+00" cType="1" res="-3.8500507362186909e-03" rms="3.0166038870811462e-01" purity="6.3888788223266602e-01" nType="-99"/>
          </Node>
        </Node>
      </Node>
    </BinaryTree>
    <BinaryTree type="DecisionTree" boostWeight="1.0000000000000000e+00" itree="286">
      <Node pos="s" depth="0" NCoef="0" IVar="10" Cut="-1.7333701848983765e+00" cType="1" res="-1.8373872153460979e-03" rms="2.8728449344635010e-01" purity="4.9848741292953491e-01" nType="0">
        <Node pos="l" depth="1" NCoef="0" IVar="1" Cut="5.3723242133855820e-02" cType="1" res="1.6636190935969353e-02" rms="2.9559412598609924e-01" purity="2.9786342382431030e-01" nType="0">
          <Node pos="l" depth="2" NCoef="0" IVar="-1" Cut="0.0000000000000000e+00" cType="1" res="-6.2213707715272903e-03" rms="2.2488553822040558e-01" purity="1.0540468245744705e-01" nType="-99"/>
          <Node pos="r" depth="2" NCoef="0" IVar="-1" Cut="0.0000000000000000e+00" cType="1" res="3.6780949681997299e-02" rms="3.7632745504379272e-01" purity="5.8958452939987183e-01" nType="-99"/>
        </Node>
        <Node pos="r" depth="1" NCoef="0" IVar="10" Cut="-6.4719971269369125e-03" cType="1" res="-3.4047001972794533e-03" rms="2.8651359677314758e-01" purity="5.1550847291946411e-01" nType="0">
          <Node pos="l" depth="2" NCoef="0" IVar="11" Cut="3.1427860260009766e-01" cType="1" res="-8.9546777307987213e-03" rms="2.8611078858375549e-01" purity="5.2741724252700806e-01" nType="0">
            <Node pos="l" depth="3" NCoef="0" IVar="-1" Cut="0.0000000000000000e+00" cType="1" res="-1.4746169559657574e-02" rms="2.9141288995742798e-01" purity="4.5952525734901428e-01" nType="-99"/>
            <Node pos="r" depth="3" NCoef="0" IVar="-1" Cut="0.0000000000000000e+00" cType="1" res="4.9343393184244633e-03" rms="2.6609086990356445e-01" purity="7.6794797182083130e-01" nType="-99"/>
          </Node>
          <Node pos="r" depth="2" NCoef="0" IVar="11" Cut="1.4184345006942749e+00" cType="1" res="1.1780320201069117e-03" rms="2.8676483035087585e-01" purity="5.0567519664764404e-01" nType="0">
            <Node pos="l" depth="3" NCoef="0" IVar="-1" Cut="0.0000000000000000e+00" cType="1" res="3.5947479773312807e-03" rms="2.8551554679870605e-01" purity="4.9753156304359436e-01" nType="-99"/>
            <Node pos="r" depth="3" NCoef="0" IVar="-1" Cut="0.0000000000000000e+00" cType="1" res="-2.6267590001225471e-02" rms="3.0343881249427795e-01" purity="6.2673234939575195e-01" nType="-99"/>
          </Node>
        </Node>
      </Node>
    </BinaryTree>
    <BinaryTree type="DecisionTree" boostWeight="1.0000000000000000e+00" itree="287">
      <Node pos="s" depth="0" NCoef="0" IVar="2" Cut="7.0898944091796875e+02" cType="1" res="9.8222773522138596e-04" rms="2.8850540518760681e-01" purity="5.0463253259658813e-01" nType="0">
        <Node pos="l" depth="1" NCoef="0" IVar="11" Cut="3.7807099521160126e-02" cType="1" res="1.7553167708683759e-04" rms="2.8618583083152771e-01" purity="5.0001013278961182e-01" nType="0">
          <Node pos="l" depth="2" NCoef="0" IVar="11" Cut="-2.5158521533012390e-01" cType="1" res="-1.9354430260136724e-03" rms="2.8768053650856018e-01" purity="4.1214126348495483e-01" nType="0">
            <Node pos="l" depth="3" NCoef="0" IVar="-1" Cut="0.0000000000000000e+00" cType="1" res="-3.8766112993471324e-04" rms="2.8875830769538879e-01" purity="3.8719347119331360e-01" nType="-99"/>
            <Node pos="r" depth="3" NCoef="0" IVar="-1" Cut="0.0000000000000000e+00" cType="1" res="-3.4648381173610687e-02" rms="2.7050805091857910e-01" purity="7.7372938394546509e-01" nType="-99"/>
          </Node>
          <Node pos="r" depth="2" NCoef="0" IVar="4" Cut="1.1201774597167969e+02" cType="1" res="6.2068491242825985e-03" rms="2.8178450465202332e-01" purity="7.5106251239776611e-01" nType="0">
            <Node pos="l" depth="3" NCoef="0" IVar="-1" Cut="0.0000000000000000e+00" cType="1" res="3.2476015388965607e-02" rms="3.4755674004554749e-01" purity="3.3932507038116455e-01" nType="-99"/>
            <Node pos="r" depth="3" NCoef="0" IVar="-1" Cut="0.0000000000000000e+00" cType="1" res="2.6733654085546732e-03" rms="2.7116060256958008e-01" purity="8.0806666612625122e-01" nType="-99"/>
          </Node>
        </Node>
        <Node pos="r" depth="1" NCoef="0" IVar="-1" Cut="0.0000000000000000e+00" cType="1" res="1.6828013584017754e-02" rms="3.3827713131904602e-01" purity="6.1412703990936279e-01" nType="-99"/>
      </Node>
    </BinaryTree>
    <BinaryTree type="DecisionTree" boostWeight="1.0000000000000000e+00" itree="288">
      <Node pos="s" depth="0" NCoef="0" IVar="7" Cut="9.4960731267929077e-01" cType="1" res="-1.7108777537941933e-03" rms="2.8785833716392517e-01" purity="4.9966686964035034e-01" nType="0">
        <Node pos="l" depth="1" NCoef="0" IVar="2" Cut="3.2889315795898438e+02" cType="1" res="-3.7510870024561882e-03" rms="2.9405853152275085e-01" purity="5.4542160034179688e-01" nType="0">
          <Node pos="l" depth="2" NCoef="0" IVar="4" Cut="1.2754531097412109e+02" cType="1" res="-1.0407055728137493e-02" rms="2.9574945569038391e-01" purity="4.6451374888420105e-01" nType="0">
            <Node pos="l" depth="3" NCoef="0" IVar="-1" Cut="0.0000000000000000e+00" cType="1" res="-2.2363893222063780e-03" rms="2.6990935206413269e-01" purity="1.8224319815635681e-01" nType="-99"/>
            <Node pos="r" depth="3" NCoef="0" IVar="-1" Cut="0.0000000000000000e+00" cType="1" res="-1.7220305278897285e-02" rms="3.1200703978538513e-01" purity="6.5700131654739380e-01" nType="-99"/>
          </Node>
          <Node pos="r" depth="2" NCoef="0" IVar="7" Cut="-1.4867590665817261e+00" cType="1" res="1.1404780671000481e-03" rms="2.9271313548088074e-01" purity="6.0488182306289673e-01" nType="0">
            <Node pos="l" depth="3" NCoef="0" IVar="-1" Cut="0.0000000000000000e+00" cType="1" res="4.1398499161005020e-02" rms="2.2756949067115784e-01" purity="1.3197447359561920e-01" nType="-99"/>
            <Node pos="r" depth="3" NCoef="0" IVar="-1" Cut="0.0000000000000000e+00" cType="1" res="-7.1834388108982239e-06" rms="2.9602420330047607e-01" purity="6.3241457939147949e-01" nType="-99"/>
          </Node>
        </Node>
        <Node pos="r" depth="1" NCoef="0" IVar="9" Cut="-9.3376666307449341e-01" cType="1" res="1.0105756111443043e-02" rms="2.4859933555126190e-01" purity="2.3466165363788605e-01" nType="0">
          <Node pos="l" depth="2" NCoef="0" IVar="-1" Cut="0.0000000000000000e+00" cType="1" res="-3.6986045539379120e-02" rms="1.9690170884132385e-01" purity="8.2331098616123199e-02" nType="-99"/>
          <Node pos="r" depth="2" NCoef="0" IVar="9" Cut="3.1053629517555237e-01" cType="1" res="1.6367396339774132e-02" rms="2.5874483585357666e-01" purity="2.7008053660392761e-01" nType="0">
            <Node pos="l" depth="3" NCoef="0" IVar="-1" Cut="0.0000000000000000e+00" cType="1" res="4.7267328947782516e-02" rms="2.9407504200935364e-01" purity="3.4811875224113464e-01" nType="-99"/>
            <Node pos="r" depth="3" NCoef="0" IVar="-1" Cut="0.0000000000000000e+00" cType="1" res="8.2635245053097606e-04" rms="2.2765426337718964e-01" purity="2.1201510727405548e-01" nType="-99"/>
          </Node>
        </Node>
      </Node>
    </BinaryTree>
    <BinaryTree type="DecisionTree" boostWeight="1.0000000000000000e+00" itree="289">
      <Node pos="s" depth="0" NCoef="0" IVar="10" Cut="1.1998825073242188e+00" cType="1" res="1.9708518811967224e-04" rms="2.8849023580551147e-01" purity="4.9817070364952087e-01" nType="0">
        <Node pos="l" depth="1" NCoef="0" IVar="9" Cut="6.6665613651275635e-01" cType="1" res="2.5301526766270399e-03" rms="2.8821891546249390e-01" purity="5.2357745170593262e-01" nType="0">
          <Node pos="l" depth="2" NCoef="0" IVar="7" Cut="4.2127606272697449e-01" cType="1" res="5.1427162252366543e-03" rms="2.8832402825355530e-01" purity="5.5783826112747192e-01" nType="0">
            <Node pos="l" depth="3" NCoef="0" IVar="-1" Cut="0.0000000000000000e+00" cType="1" res="1.6765128821134567e-03" rms="2.8687494993209839e-01" purity="5.9425806999206543e-01" nType="-99"/>
            <Node pos="r" depth="3" NCoef="0" IVar="-1" Cut="0.0000000000000000e+00" cType="1" res="1.7948525026440620e-02" rms="2.9186758399009705e-01" purity="4.6241813898086548e-01" nType="-99"/>
          </Node>
          <Node pos="r" depth="2" NCoef="0" IVar="10" Cut="-1.2761880159378052e+00" cType="1" res="-5.4595484398305416e-03" rms="2.8775003552436829e-01" purity="4.1880151629447937e-01" nType="0">
            <Node pos="l" depth="3" NCoef="0" IVar="-1" Cut="0.0000000000000000e+00" cType="1" res="2.5558959692716599e-02" rms="2.8582537174224854e-01" purity="3.1414330005645752e-01" nType="-99"/>
            <Node pos="r" depth="3" NCoef="0" IVar="-1" Cut="0.0000000000000000e+00" cType="1" res="-1.2763951905071735e-02" rms="2.8786101937294006e-01" purity="4.4103363156318665e-01" nType="-99"/>
          </Node>
        </Node>
        <Node pos="r" depth="1" NCoef="0" IVar="8" Cut="-1.3265173137187958e-01" cType="1" res="-1.1284079402685165e-02" rms="2.8954789042472839e-01" purity="3.7314230203628540e-01" nType="0">
          <Node pos="l" depth="2" NCoef="0" IVar="9" Cut="1.3351769745349884e-01" cType="1" res="6.5835483837872744e-04" rms="2.9537963867187500e-01" purity="3.7679636478424072e-01" nType="0">
            <Node pos="l" depth="3" NCoef="0" IVar="-1" Cut="0.0000000000000000e+00" cType="1" res="-1.4586359262466431e-02" rms="2.8408107161521912e-01" purity="3.7923476099967957e-01" nType="-99"/>
            <Node pos="r" depth="3" NCoef="0" IVar="-1" Cut="0.0000000000000000e+00" cType="1" res="1.9273083657026291e-02" rms="3.0759438872337341e-01" purity="3.7389016151428223e-01" nType="-99"/>
          </Node>
          <Node pos="r" depth="2" NCoef="0" IVar="5" Cut="6.3601696014404297e+01" cType="1" res="-1.8884247168898582e-02" rms="2.8551459312438965e-01" purity="3.7081685662269592e-01" nType="0">
            <Node pos="l" depth="3" NCoef="0" IVar="-1" Cut="0.0000000000000000e+00" cType="1" res="-5.3131300956010818e-03" rms="2.5577670335769653e-01" purity="1.3004299998283386e-01" nType="-99"/>
            <Node pos="r" depth="3" NCoef="0" IVar="-1" Cut="0.0000000000000000e+00" cType="1" res="-2.9417719691991806e-02" rms="3.0137509107589722e-01" purity="5.1328176259994507e-01" nType="-99"/>
          </Node>
        </Node>
      </Node>
    </BinaryTree>
    <BinaryTree type="DecisionTree" boostWeight="1.0000000000000000e+00" itree="290">
      <Node pos="s" depth="0" NCoef="0" IVar="7" Cut="-3.9365124702453613e-01" cType="1" res="1.5718872891739011e-03" rms="2.8895756602287292e-01" purity="5.0106412172317505e-01" nType="0">
        <Node pos="l" depth="1" NCoef="0" IVar="2" Cut="4.2242367553710938e+02" cType="1" res="-2.6383544318377972e-03" rms="2.8911000490188599e-01" purity="4.0494713187217712e-01" nType="0">
          <Node pos="l" depth="2" NCoef="0" IVar="9" Cut="9.3337541818618774e-01" cType="1" res="2.5949168484658003e-03" rms="2.8650262951850891e-01" purity="3.8144227862358093e-01" nType="0">
            <Node pos="l" depth="3" NCoef="0" IVar="-1" Cut="0.0000000000000000e+00" cType="1" res="-1.2194331502541900e-03" rms="2.9071843624114990e-01" purity="4.0779981017112732e-01" nType="-99"/>
            <Node pos="r" depth="3" NCoef="0" IVar="-1" Cut="0.0000000000000000e+00" cType="1" res="2.9821537435054779e-02" rms="2.6484927535057068e-01" purity="2.5602045655250549e-01" nType="-99"/>
          </Node>
          <Node pos="r" depth="2" NCoef="0" IVar="5" Cut="6.9102096557617188e+01" cType="1" res="-1.4902144670486450e-02" rms="2.9476618766784668e-01" purity="4.6002903580665588e-01" nType="0">
            <Node pos="l" depth="3" NCoef="0" IVar="-1" Cut="0.0000000000000000e+00" cType="1" res="2.5077334139496088e-03" rms="2.7786269783973694e-01" purity="1.8951505422592163e-01" nType="-99"/>
            <Node pos="r" depth="3" NCoef="0" IVar="-1" Cut="0.0000000000000000e+00" cType="1" res="-2.7109211310744286e-02" rms="3.0439260601997375e-01" purity="6.2929064035415649e-01" nType="-99"/>
          </Node>
        </Node>
        <Node pos="r" depth="1" NCoef="0" IVar="7" Cut="2.1460959315299988e-01" cType="1" res="3.5758034791797400e-03" rms="2.8886345028877258e-01" purity="5.4681217670440674e-01" nType="0">
          <Node pos="l" depth="2" NCoef="0" IVar="7" Cut="-4.6068511903285980e-02" cType="1" res="9.9137919023633003e-03" rms="2.9650717973709106e-01" purity="6.7754828929901123e-01" nType="0">
            <Node pos="l" depth="3" NCoef="0" IVar="-1" Cut="0.0000000000000000e+00" cType="1" res="2.9493831098079681e-03" rms="2.9953837394714355e-01" purity="6.7191094160079956e-01" nType="-99"/>
            <Node pos="r" depth="3" NCoef="0" IVar="-1" Cut="0.0000000000000000e+00" cType="1" res="2.1690163761377335e-02" rms="2.9216498136520386e-01" purity="6.8501740694046021e-01" nType="-99"/>
          </Node>
          <Node pos="r" depth="2" NCoef="0" IVar="9" Cut="-4.0015023946762085e-01" cType="1" res="-7.7997142216190696e-04" rms="2.8340864181518555e-01" purity="4.5696377754211426e-01" nType="0">
            <Node pos="l" depth="3" NCoef="0" IVar="-1" Cut="0.0000000000000000e+00" cType="1" res="1.1594384908676147e-02" rms="2.8920158743858337e-01" purity="4.0466210246086121e-01" nType="-99"/>
            <Node pos="r" depth="3" NCoef="0" IVar="-1" Cut="0.0000000000000000e+00" cType="1" res="-6.3244518823921680e-03" rms="2.8062546253204346e-01" purity="4.8069065809249878e-01" nType="-99"/>
          </Node>
        </Node>
      </Node>
    </BinaryTree>
    <BinaryTree type="DecisionTree" boostWeight="1.0000000000000000e+00" itree="291">
      <Node pos="s" depth="0" NCoef="0" IVar="8" Cut="6.6663306951522827e-01" cType="1" res="-1.5983710763975978e-03" rms="2.8839221596717834e-01" purity="5.0214928388595581e-01" nType="0">
        <Node pos="l" depth="1" NCoef="0" IVar="0" Cut="2.4001630859375000e+03" cType="1" res="-4.2250538244843483e-03" rms="2.8950631618499756e-01" purity="5.4252219200134277e-01" nType="0">
          <Node pos="l" depth="2" NCoef="0" IVar="3" Cut="1.5927517700195312e+02" cType="1" res="-5.3743179887533188e-03" rms="2.9532727599143982e-01" purity="5.1091659069061279e-01" nType="0">
            <Node pos="l" depth="3" NCoef="0" IVar="-1" Cut="0.0000000000000000e+00" cType="1" res="-2.7353405952453613e-02" rms="2.4118228256702423e-01" purity="1.4979533851146698e-01" nType="-99"/>
            <Node pos="r" depth="3" NCoef="0" IVar="-1" Cut="0.0000000000000000e+00" cType="1" res="-1.8355222418904305e-03" rms="3.0794444680213928e-01" purity="6.0632526874542236e-01" nType="-99"/>
          </Node>
          <Node pos="r" depth="2" NCoef="0" IVar="3" Cut="4.3170913696289062e+02" cType="1" res="9.6859410405158997e-03" rms="2.0590786635875702e-01" purity="9.2508512735366821e-01" nType="0">
            <Node pos="l" depth="3" NCoef="0" IVar="-1" Cut="0.0000000000000000e+00" cType="1" res="-7.9713864251971245e-03" rms="1.8278305232524872e-01" purity="9.3912392854690552e-01" nType="-99"/>
            <Node pos="r" depth="3" NCoef="0" IVar="-1" Cut="0.0000000000000000e+00" cType="1" res="3.6235764622688293e-02" rms="2.3014144599437714e-01" purity="9.0790754556655884e-01" nType="-99"/>
          </Node>
        </Node>
        <Node pos="r" depth="1" NCoef="0" IVar="9" Cut="1.3332903385162354e-01" cType="1" res="6.4516528509557247e-03" rms="2.8479981422424316e-01" purity="3.7841778993606567e-01" nType="0">
          <Node pos="l" depth="2" NCoef="0" IVar="11" Cut="-1.8955677747726440e+00" cType="1" res="1.3742115348577499e-02" rms="2.8556069731712341e-01" purity="4.0077316761016846e-01" nType="0">
            <Node pos="l" depth="3" NCoef="0" IVar="-1" Cut="0.0000000000000000e+00" cType="1" res="3.0555848497897387e-03" rms="2.7570101618766785e-01" purity="1.5915499627590179e-01" nType="-99"/>
            <Node pos="r" depth="3" NCoef="0" IVar="-1" Cut="0.0000000000000000e+00" cType="1" res="2.9437651857733727e-02" rms="2.9637217521667480e-01" purity="6.9098734855651855e-01" nType="-99"/>
          </Node>
          <Node pos="r" depth="2" NCoef="0" IVar="11" Cut="3.5429898649454117e-02" cType="1" res="-1.0946476832032204e-03" rms="2.8381294012069702e-01" purity="3.5527789592742920e-01" nType="0">
            <Node pos="l" depth="3" NCoef="0" IVar="-1" Cut="0.0000000000000000e+00" cType="1" res="9.0252980589866638e-03" rms="2.7136909961700439e-01" purity="2.8141677379608154e-01" nType="-99"/>
            <Node pos="r" depth="3" NCoef="0" IVar="-1" Cut="0.0000000000000000e+00" cType="1" res="-2.5587024167180061e-02" rms="3.1847283244132996e-01" purity="5.8760190010070801e-01" nType="-99"/>
          </Node>
        </Node>
      </Node>
    </BinaryTree>
    <BinaryTree type="DecisionTree" boostWeight="1.0000000000000000e+00" itree="292">
      <Node pos="s" depth="0" NCoef="0" IVar="6" Cut="1.3364715576171875e+01" cType="1" res="1.8911198712885380e-03" rms="2.8970858454704285e-01" purity="4.9644309282302856e-01" nType="0">
        <Node pos="l" depth="1" NCoef="0" IVar="4" Cut="1.3280952453613281e+02" cType="1" res="6.8159950897097588e-03" rms="2.9558321833610535e-01" purity="2.3023626208305359e-01" nType="0">
          <Node pos="l" depth="2" NCoef="0" IVar="10" Cut="1.3298974931240082e-01" cType="1" res="-2.2050025872886181e-03" rms="2.3186540603637695e-01" purity="8.2958340644836426e-02" nType="0">
            <Node pos="l" depth="3" NCoef="0" IVar="-1" Cut="0.0000000000000000e+00" cType="1" res="9.5469541847705841e-03" rms="2.4028129875659943e-01" purity="9.0769127011299133e-02" nType="-99"/>
            <Node pos="r" depth="3" NCoef="0" IVar="-1" Cut="0.0000000000000000e+00" cType="1" res="-1.9737707450985909e-02" rms="2.2138969600200653e-01" purity="7.3903582990169525e-02" nType="-99"/>
          </Node>
          <Node pos="r" depth="2" NCoef="0" IVar="3" Cut="3.1508328247070312e+02" cType="1" res="1.8008681014180183e-02" rms="3.5894528031349182e-01" purity="4.1296947002410889e-01" nType="0">
            <Node pos="l" depth="3" NCoef="0" IVar="-1" Cut="0.0000000000000000e+00" cType="1" res="1.9197102636098862e-02" rms="3.5930138826370239e-01" purity="3.7634125351905823e-01" nType="-99"/>
            <Node pos="r" depth="3" NCoef="0" IVar="-1" Cut="0.0000000000000000e+00" cType="1" res="-2.8170023579150438e-03" rms="3.5689583420753479e-01" purity="5.3583282232284546e-01" nType="-99"/>
          </Node>
        </Node>
        <Node pos="r" depth="1" NCoef="0" IVar="4" Cut="9.2616577148437500e+01" cType="1" res="-2.5932209100574255e-03" rms="2.8417962789535522e-01" purity="7.3883754014968872e-01" nType="0">
          <Node pos="l" depth="2" NCoef="0" IVar="-1" Cut="0.0000000000000000e+00" cType="1" res="-2.8246168047189713e-02" rms="2.9813134670257568e-01" purity="1.7619571089744568e-01" nType="-99"/>
          <Node pos="r" depth="2" NCoef="0" IVar="5" Cut="9.1555557250976562e+01" cType="1" res="-1.2636440806090832e-03" rms="2.8336739540100098e-01" purity="7.6830267906188965e-01" nType="0">
            <Node pos="l" depth="3" NCoef="0" IVar="-1" Cut="0.0000000000000000e+00" cType="1" res="5.1870821043848991e-03" rms="3.4147980809211731e-01" purity="5.7023739814758301e-01" nType="-99"/>
            <Node pos="r" depth="3" NCoef="0" IVar="-1" Cut="0.0000000000000000e+00" cType="1" res="-9.3195186927914619e-03" rms="2.4489581584930420e-01" purity="8.7888580560684204e-01" nType="-99"/>
          </Node>
        </Node>
      </Node>
    </BinaryTree>
    <BinaryTree type="DecisionTree" boostWeight="1.0000000000000000e+00" itree="293">
      <Node pos="s" depth="0" NCoef="0" IVar="11" Cut="1.6952279806137085e+00" cType="1" res="-1.4295277651399374e-03" rms="2.9059070348739624e-01" purity="4.9941745400428772e-01" nType="0">
        <Node pos="l" depth="1" NCoef="0" IVar="10" Cut="-2.2665302753448486e+00" cType="1" res="-1.0603386908769608e-04" rms="2.8915342688560486e-01" purity="4.9626088142395020e-01" nType="0">
          <Node pos="l" depth="2" NCoef="0" IVar="-1" Cut="0.0000000000000000e+00" cType="1" res="3.2511454075574875e-02" rms="2.9916825890541077e-01" purity="2.5705182552337646e-01" nType="-99"/>
          <Node pos="r" depth="2" NCoef="0" IVar="10" Cut="-9.5210514962673187e-02" cType="1" res="-8.3182955859228969e-04" rms="2.8883144259452820e-01" purity="5.0304079055786133e-01" nType="0">
            <Node pos="l" depth="3" NCoef="0" IVar="-1" Cut="0.0000000000000000e+00" cType="1" res="-6.7120916210114956e-03" rms="2.8741574287414551e-01" purity="4.9964338541030884e-01" nType="-99"/>
            <Node pos="r" depth="3" NCoef="0" IVar="-1" Cut="0.0000000000000000e+00" cType="1" res="3.6825027782469988e-03" rms="2.8991004824638367e-01" purity="5.0578254461288452e-01" nType="-99"/>
          </Node>
        </Node>
        <Node pos="r" depth="1" NCoef="0" IVar="-1" Cut="0.0000000000000000e+00" cType="1" res="-3.4327123314142227e-02" rms="3.2262632250785828e-01" purity="5.7812863588333130e-01" nType="-99"/>
      </Node>
    </BinaryTree>
    <BinaryTree type="DecisionTree" boostWeight="1.0000000000000000e+00" itree="294">
      <Node pos="s" depth="0" NCoef="0" IVar="11" Cut="-2.3891939222812653e-01" cType="1" res="1.9021866610273719e-03" rms="2.9030343890190125e-01" purity="5.0593310594558716e-01" nType="0">
        <Node pos="l" depth="1" NCoef="0" IVar="0" Cut="1.4401062011718750e+03" cType="1" res="4.9461149610579014e-03" rms="2.9387989640235901e-01" purity="3.9999905228614807e-01" nType="0">
          <Node pos="l" depth="2" NCoef="0" IVar="0" Cut="1.1962727050781250e+03" cType="1" res="9.9209574982523918e-03" rms="2.8685486316680908e-01" purity="1.7766255140304565e-01" nType="0">
            <Node pos="l" depth="3" NCoef="0" IVar="-1" Cut="0.0000000000000000e+00" cType="1" res="-1.7177863046526909e-03" rms="2.2516363859176636e-01" purity="7.1574389934539795e-02" nType="-99"/>
            <Node pos="r" depth="3" NCoef="0" IVar="-1" Cut="0.0000000000000000e+00" cType="1" res="2.0283572375774384e-02" rms="3.5250979661941528e-01" purity="3.1987982988357544e-01" nType="-99"/>
          </Node>
          <Node pos="r" depth="2" NCoef="0" IVar="5" Cut="6.8116592407226562e+01" cType="1" res="-1.4858170179650187e-03" rms="3.0259975790977478e-01" purity="6.8745607137680054e-01" nType="0">
            <Node pos="l" depth="3" NCoef="0" IVar="-1" Cut="0.0000000000000000e+00" cType="1" res="-1.0278639383614063e-02" rms="3.4954479336738586e-01" purity="3.5959434509277344e-01" nType="-99"/>
            <Node pos="r" depth="3" NCoef="0" IVar="-1" Cut="0.0000000000000000e+00" cType="1" res="2.3887541610747576e-03" rms="2.8692218661308289e-01" purity="7.8586798906326294e-01" nType="-99"/>
          </Node>
        </Node>
        <Node pos="r" depth="1" NCoef="0" IVar="8" Cut="-6.6589725017547607e-01" cType="1" res="-5.0952252931892872e-03" rms="2.8178521990776062e-01" purity="7.4945515394210815e-01" nType="0">
          <Node pos="l" depth="2" NCoef="0" IVar="10" Cut="-1.3188526034355164e-01" cType="1" res="1.2524215504527092e-02" rms="3.0798211693763733e-01" purity="6.4814817905426025e-01" nType="0">
            <Node pos="l" depth="3" NCoef="0" IVar="-1" Cut="0.0000000000000000e+00" cType="1" res="5.8330793399363756e-04" rms="3.0001744627952576e-01" purity="6.5953552722930908e-01" nType="-99"/>
            <Node pos="r" depth="3" NCoef="0" IVar="-1" Cut="0.0000000000000000e+00" cType="1" res="2.5806451216340065e-02" rms="3.1553053855895996e-01" purity="6.3636964559555054e-01" nType="-99"/>
          </Node>
          <Node pos="r" depth="2" NCoef="0" IVar="0" Cut="1.3506940917968750e+03" cType="1" res="-9.1921454295516014e-03" rms="2.7517530322074890e-01" purity="7.7301138639450073e-01" nType="0">
            <Node pos="l" depth="3" NCoef="0" IVar="-1" Cut="0.0000000000000000e+00" cType="1" res="-2.9797475785017014e-02" rms="3.5471212863922119e-01" purity="3.4529939293861389e-01" nType="-99"/>
            <Node pos="r" depth="3" NCoef="0" IVar="-1" Cut="0.0000000000000000e+00" cType="1" res="-3.8773515261709690e-03" rms="2.5416359305381775e-01" purity="8.6583501100540161e-01" nType="-99"/>
          </Node>
        </Node>
      </Node>
    </BinaryTree>
    <BinaryTree type="DecisionTree" boostWeight="1.0000000000000000e+00" itree="295">
      <Node pos="s" depth="0" NCoef="0" IVar="11" Cut="-7.9048091173171997e-01" cType="1" res="7.4544781818985939e-04" rms="2.8610655665397644e-01" purity="4.9977195262908936e-01" nType="0">
        <Node pos="l" depth="1" NCoef="0" IVar="5" Cut="7.1511116027832031e+01" cType="1" res="3.9022739510983229e-03" rms="2.9395943880081177e-01" purity="3.3343142271041870e-01" nType="0">
          <Node pos="l" depth="2" NCoef="0" IVar="2" Cut="5.5311840820312500e+02" cType="1" res="-1.1782566616602708e-05" rms="2.7380570769309998e-01" purity="1.5516784787178040e-01" nType="0">
            <Node pos="l" depth="3" NCoef="0" IVar="-1" Cut="0.0000000000000000e+00" cType="1" res="-3.1837245915085077e-03" rms="2.6536557078361511e-01" purity="1.4399515092372894e-01" nType="-99"/>
            <Node pos="r" depth="3" NCoef="0" IVar="-1" Cut="0.0000000000000000e+00" cType="1" res="1.9549764692783356e-02" rms="3.3736893534660339e-01" purity="2.5161233544349670e-01" nType="-99"/>
          </Node>
          <Node pos="r" depth="2" NCoef="0" IVar="0" Cut="1.3975887451171875e+03" cType="1" res="9.1827893629670143e-03" rms="3.1906262040138245e-01" purity="5.7392954826354980e-01" nType="0">
            <Node pos="l" depth="3" NCoef="0" IVar="-1" Cut="0.0000000000000000e+00" cType="1" res="1.9686570391058922e-02" rms="3.3720597624778748e-01" purity="2.9050025343894958e-01" nType="-99"/>
            <Node pos="r" depth="3" NCoef="0" IVar="-1" Cut="0.0000000000000000e+00" cType="1" res="1.6866056248545647e-03" rms="3.0809202790260315e-01" purity="7.3397219181060791e-01" nType="-99"/>
          </Node>
        </Node>
        <Node pos="r" depth="1" NCoef="0" IVar="1" Cut="6.2686741352081299e-02" cType="1" res="-4.1534071788191795e-03" rms="2.7340197563171387e-01" purity="7.5790405273437500e-01" nType="0">
          <Node pos="l" depth="2" NCoef="0" IVar="1" Cut="2.3923464119434357e-02" cType="1" res="-1.8860215321183205e-02" rms="3.1648269295692444e-01" purity="5.0697284936904907e-01" nType="0">
            <Node pos="l" depth="3" NCoef="0" IVar="-1" Cut="0.0000000000000000e+00" cType="1" res="-8.2484813174232841e-04" rms="2.8588947653770447e-01" purity="3.0177256464958191e-01" nType="-99"/>
            <Node pos="r" depth="3" NCoef="0" IVar="-1" Cut="0.0000000000000000e+00" cType="1" res="-2.5252340361475945e-02" rms="3.3117765188217163e-01" purity="6.1590057611465454e-01" nType="-99"/>
          </Node>
          <Node pos="r" depth="2" NCoef="0" IVar="3" Cut="3.0698910522460938e+02" cType="1" res="4.1025821119546890e-03" rms="2.4554657936096191e-01" purity="8.9876973628997803e-01" nType="0">
            <Node pos="l" depth="3" NCoef="0" IVar="-1" Cut="0.0000000000000000e+00" cType="1" res="1.1182365007698536e-02" rms="2.6014235615730286e-01" purity="8.8203841447830200e-01" nType="-99"/>
            <Node pos="r" depth="3" NCoef="0" IVar="-1" Cut="0.0000000000000000e+00" cType="1" res="-1.7496800050139427e-02" rms="2.0000849664211273e-01" purity="9.4439607858657837e-01" nType="-99"/>
          </Node>
        </Node>
      </Node>
    </BinaryTree>
    <BinaryTree type="DecisionTree" boostWeight="1.0000000000000000e+00" itree="296">
      <Node pos="s" depth="0" NCoef="0" IVar="10" Cut="-2.2666265964508057e+00" cType="1" res="3.3517892006784678e-05" rms="2.8835585713386536e-01" purity="4.9505022168159485e-01" nType="0">
        <Node pos="l" depth="1" NCoef="0" IVar="-1" Cut="0.0000000000000000e+00" cType="1" res="-4.2633876204490662e-02" rms="2.5492507219314575e-01" purity="1.7686279118061066e-01" nType="-99"/>
        <Node pos="r" depth="1" NCoef="0" IVar="9" Cut="-1.7333347797393799e+00" cType="1" res="8.9927134104073048e-04" rms="2.8915920853614807e-01" purity="5.0367587804794312e-01" nType="0">
          <Node pos="l" depth="2" NCoef="0" IVar="9" Cut="-2.0889236927032471e+00" cType="1" res="-2.0072959363460541e-02" rms="2.3586481809616089e-01" purity="1.5288785099983215e-01" nType="0">
            <Node pos="l" depth="3" NCoef="0" IVar="-1" Cut="0.0000000000000000e+00" cType="1" res="-1.8743272870779037e-02" rms="2.1351091563701630e-01" purity="1.1774531006813049e-01" nType="-99"/>
            <Node pos="r" depth="3" NCoef="0" IVar="-1" Cut="0.0000000000000000e+00" cType="1" res="-3.7547841668128967e-02" rms="2.5698870420455933e-01" purity="1.9004555046558380e-01" nType="-99"/>
          </Node>
          <Node pos="r" depth="2" NCoef="0" IVar="9" Cut="1.0730398893356323e+00" cType="1" res="2.1191681735217571e-03" rms="2.9191359877586365e-01" purity="5.2408021688461304e-01" nType="0">
            <Node pos="l" depth="3" NCoef="0" IVar="-1" Cut="0.0000000000000000e+00" cType="1" res="3.6920738057233393e-04" rms="2.9301840066909790e-01" purity="5.6737583875656128e-01" nType="-99"/>
            <Node pos="r" depth="3" NCoef="0" IVar="-1" Cut="0.0000000000000000e+00" cType="1" res="1.4136949554085732e-02" rms="2.8609031438827515e-01" purity="3.0519658327102661e-01" nType="-99"/>
          </Node>
        </Node>
      </Node>
    </BinaryTree>
    <BinaryTree type="DecisionTree" boostWeight="1.0000000000000000e+00" itree="297">
      <Node pos="s" depth="0" NCoef="0" IVar="8" Cut="9.3328803777694702e-01" cType="1" res="1.0197849042015150e-04" rms="2.8652328252792358e-01" purity="5.0337040424346924e-01" nType="0">
        <Node pos="l" depth="1" NCoef="0" IVar="10" Cut="1.9998557567596436e+00" cType="1" res="1.9825561903417110e-03" rms="2.9036733508110046e-01" purity="5.4619902372360229e-01" nType="0">
          <Node pos="l" depth="2" NCoef="0" IVar="9" Cut="9.3326324224472046e-01" cType="1" res="9.1733993031084538e-04" rms="2.8980830311775208e-01" purity="5.5601561069488525e-01" nType="0">
            <Node pos="l" depth="3" NCoef="0" IVar="-1" Cut="0.0000000000000000e+00" cType="1" res="3.2942509278655052e-03" rms="2.8932821750640869e-01" purity="5.9106898307800293e-01" nType="-99"/>
            <Node pos="r" depth="3" NCoef="0" IVar="-1" Cut="0.0000000000000000e+00" cType="1" res="-9.9021149799227715e-03" rms="2.9196676611900330e-01" purity="3.8408276438713074e-01" nType="-99"/>
          </Node>
          <Node pos="r" depth="2" NCoef="0" IVar="-1" Cut="0.0000000000000000e+00" cType="1" res="2.7897115796804428e-02" rms="3.0148315429687500e-01" purity="3.2960689067840576e-01" nType="-99"/>
        </Node>
        <Node pos="r" depth="1" NCoef="0" IVar="3" Cut="2.5657641601562500e+02" cType="1" res="-9.0943370014429092e-03" rms="2.6673820614814758e-01" purity="2.9393208026885986e-01" nType="0">
          <Node pos="l" depth="2" NCoef="0" IVar="5" Cut="8.3455940246582031e+01" cType="1" res="-2.7738502249121666e-03" rms="2.6117166876792908e-01" purity="2.4348141252994537e-01" nType="0">
            <Node pos="l" depth="3" NCoef="0" IVar="-1" Cut="0.0000000000000000e+00" cType="1" res="-2.1565631031990051e-02" rms="2.3211927711963654e-01" purity="1.0013834387063980e-01" nType="-99"/>
            <Node pos="r" depth="3" NCoef="0" IVar="-1" Cut="0.0000000000000000e+00" cType="1" res="2.0533137023448944e-02" rms="3.2122769951820374e-01" purity="6.0181248188018799e-01" nType="-99"/>
          </Node>
          <Node pos="r" depth="2" NCoef="0" IVar="-1" Cut="0.0000000000000000e+00" cType="1" res="-3.1052695587277412e-02" rms="2.8211659193038940e-01" purity="4.4725883007049561e-01" nType="-99"/>
        </Node>
      </Node>
    </BinaryTree>
    <BinaryTree type="DecisionTree" boostWeight="1.0000000000000000e+00" itree="298">
      <Node pos="s" depth="0" NCoef="0" IVar="0" Cut="1.6287470703125000e+03" cType="1" res="-1.6816264251247048e-03" rms="2.8771072626113892e-01" purity="4.9690702557563782e-01" nType="0">
        <Node pos="l" depth="1" NCoef="0" IVar="0" Cut="1.4708951416015625e+03" cType="1" res="-5.5936663411557674e-03" rms="3.0220532417297363e-01" purity="2.9131835699081421e-01" nType="0">
          <Node pos="l" depth="2" NCoef="0" IVar="3" Cut="1.5324786376953125e+02" cType="1" res="-8.7685370817780495e-03" rms="2.9397243261337280e-01" purity="2.2027194499969482e-01" nType="0">
            <Node pos="l" depth="3" NCoef="0" IVar="-1" Cut="0.0000000000000000e+00" cType="1" res="3.2735135755501688e-04" rms="2.3541420698165894e-01" purity="1.1074327677488327e-01" nType="-99"/>
            <Node pos="r" depth="3" NCoef="0" IVar="-1" Cut="0.0000000000000000e+00" cType="1" res="-1.2925704941153526e-02" rms="3.2370716333389282e-01" purity="2.8543317317962646e-01" nType="-99"/>
          </Node>
          <Node pos="r" depth="2" NCoef="0" IVar="10" Cut="9.3315941095352173e-01" cType="1" res="8.0826003104448318e-03" rms="3.3502355217933655e-01" purity="5.9736216068267822e-01" nType="0">
            <Node pos="l" depth="3" NCoef="0" IVar="-1" Cut="0.0000000000000000e+00" cType="1" res="4.8378037172369659e-04" rms="3.2726064324378967e-01" purity="6.1431157588958740e-01" nType="-99"/>
            <Node pos="r" depth="3" NCoef="0" IVar="-1" Cut="0.0000000000000000e+00" cType="1" res="2.7820391580462456e-02" rms="3.6021694540977478e-01" purity="5.3651392459869385e-01" nType="-99"/>
          </Node>
        </Node>
        <Node pos="r" depth="1" NCoef="0" IVar="9" Cut="3.9989307522773743e-01" cType="1" res="4.6270168386399746e-03" rms="2.6253399252891541e-01" purity="8.2844388484954834e-01" nType="0">
          <Node pos="l" depth="2" NCoef="0" IVar="7" Cut="7.3179912567138672e-01" cType="1" res="-3.6941046710126102e-04" rms="2.5536036491394043e-01" purity="8.3853840827941895e-01" nType="0">
            <Node pos="l" depth="3" NCoef="0" IVar="-1" Cut="0.0000000000000000e+00" cType="1" res="3.7966631352901459e-03" rms="2.4819549918174744e-01" purity="8.6149305105209351e-01" nType="-99"/>
            <Node pos="r" depth="3" NCoef="0" IVar="-1" Cut="0.0000000000000000e+00" cType="1" res="-2.2575382143259048e-02" rms="3.0000251531600952e-01" purity="6.7797935009002686e-01" nType="-99"/>
          </Node>
          <Node pos="r" depth="2" NCoef="0" IVar="1" Cut="4.1756246238946915e-02" cType="1" res="1.4524871483445168e-02" rms="2.7592819929122925e-01" purity="8.0844670534133911e-01" nType="0">
            <Node pos="l" depth="3" NCoef="0" IVar="-1" Cut="0.0000000000000000e+00" cType="1" res="2.9433367773890495e-02" rms="3.5965090990066528e-01" purity="5.3299927711486816e-01" nType="-99"/>
            <Node pos="r" depth="3" NCoef="0" IVar="-1" Cut="0.0000000000000000e+00" cType="1" res="1.0095678269863129e-02" rms="2.3481786251068115e-01" purity="9.1580724716186523e-01" nType="-99"/>
          </Node>
        </Node>
      </Node>
    </BinaryTree>
    <BinaryTree type="DecisionTree" boostWeight="1.0000000000000000e+00" itree="299">
      <Node pos="s" depth="0" NCoef="0" IVar="10" Cut="-9.3341779708862305e-01" cType="1" res="6.5309047931805253e-04" rms="2.8699508309364319e-01" purity="4.9991261959075928e-01" nType="0">
        <Node pos="l" depth="1" NCoef="0" IVar="10" Cut="-1.6445417404174805e+00" cType="1" res="9.6117369830608368e-03" rms="2.9649531841278076e-01" purity="4.1915789246559143e-01" nType="0">
          <Node pos="l" depth="2" NCoef="0" IVar="1" Cut="5.7764705270528793e-02" cType="1" res="-2.8051990084350109e-03" rms="2.9667323827743530e-01" purity="3.0125811696052551e-01" nType="0">
            <Node pos="l" depth="3" NCoef="0" IVar="-1" Cut="0.0000000000000000e+00" cType="1" res="1.1537699028849602e-02" rms="2.5817918777465820e-01" purity="1.3676844537258148e-01" nType="-99"/>
            <Node pos="r" depth="3" NCoef="0" IVar="-1" Cut="0.0000000000000000e+00" cType="1" res="-1.4675941318273544e-02" rms="3.4899857640266418e-01" purity="5.6442123651504517e-01" nType="-99"/>
          </Node>
          <Node pos="r" depth="2" NCoef="0" IVar="7" Cut="-1.0167943686246872e-01" cType="1" res="1.7376491799950600e-02" rms="2.9611954092979431e-01" purity="4.9288490414619446e-01" nType="0">
            <Node pos="l" depth="3" NCoef="0" IVar="-1" Cut="0.0000000000000000e+00" cType="1" res="3.2333102077245712e-02" rms="3.0249443650245667e-01" purity="4.9103397130966187e-01" nType="-99"/>
            <Node pos="r" depth="3" NCoef="0" IVar="-1" Cut="0.0000000000000000e+00" cType="1" res="6.3751973211765289e-03" rms="2.8824463486671448e-01" purity="4.9498295783996582e-01" nType="-99"/>
          </Node>
        </Node>
        <Node pos="r" depth="1" NCoef="0" IVar="0" Cut="1.3383861083984375e+03" cType="1" res="-1.9838358275592327e-03" rms="2.8408443927764893e-01" purity="5.2368235588073730e-01" nType="0">
          <Node pos="l" depth="2" NCoef="0" IVar="5" Cut="6.1792617797851562e+01" cType="1" res="-9.7884675487875938e-03" rms="2.7686625719070435e-01" purity="1.5738959610462189e-01" nType="0">
            <Node pos="l" depth="3" NCoef="0" IVar="-1" Cut="0.0000000000000000e+00" cType="1" res="5.8524603955447674e-03" rms="2.3407894372940063e-01" purity="7.6289683580398560e-02" nType="-99"/>
            <Node pos="r" depth="3" NCoef="0" IVar="-1" Cut="0.0000000000000000e+00" cType="1" res="-1.9772933796048164e-02" rms="3.0974665284156799e-01" purity="2.2998064756393433e-01" nType="-99"/>
          </Node>
          <Node pos="r" depth="2" NCoef="0" IVar="3" Cut="2.3536447143554688e+02" cType="1" res="2.5586097035557032e-03" rms="2.8810501098632812e-01" purity="7.3687171936035156e-01" nType="0">
            <Node pos="l" depth="3" NCoef="0" IVar="-1" Cut="0.0000000000000000e+00" cType="1" res="9.2138890177011490e-03" rms="2.9735678434371948e-01" purity="7.0886474847793579e-01" nType="-99"/>
            <Node pos="r" depth="3" NCoef="0" IVar="-1" Cut="0.0000000000000000e+00" cType="1" res="-8.0977508332580328e-04" rms="2.8288891911506653e-01" purity="7.5211864709854126e-01" nType="-99"/>
          </Node>
        </Node>
      </Node>
    </BinaryTree>
    <BinaryTree type="DecisionTree" boostWeight="1.0000000000000000e+00" itree="300">
      <Node pos="s" depth="0" NCoef="0" IVar="11" Cut="1.6942932605743408e+00" cType="1" res="3.6037887912243605e-03" rms="2.8945723176002502e-01" purity="5.0974804162979126e-01" nType="0">
        <Node pos="l" depth="1" NCoef="0" IVar="11" Cut="5.7644909620285034e-01" cType="1" res="2.6549473404884338e-03" rms="2.8840550780296326e-01" purity="5.0376462936401367e-01" nType="0">
          <Node pos="l" depth="2" NCoef="0" IVar="5" Cut="6.6289405822753906e+01" cType="1" res="3.9670439437031746e-03" rms="2.8822383284568787e-01" purity="4.6597883105278015e-01" nType="0">
            <Node pos="l" depth="3" NCoef="0" IVar="-1" Cut="0.0000000000000000e+00" cType="1" res="-2.9217326082289219e-03" rms="2.7579107880592346e-01" purity="1.5229883790016174e-01" nType="-99"/>
            <Node pos="r" depth="3" NCoef="0" IVar="-1" Cut="0.0000000000000000e+00" cType="1" res="8.5519896820187569e-03" rms="2.9537892341613770e-01" purity="6.5439510345458984e-01" nType="-99"/>
          </Node>
          <Node pos="r" depth="2" NCoef="0" IVar="0" Cut="1.8574935302734375e+03" cType="1" res="-5.7962248101830482e-03" rms="2.8943049907684326e-01" purity="7.4714171886444092e-01" nType="0">
            <Node pos="l" depth="3" NCoef="0" IVar="-1" Cut="0.0000000000000000e+00" cType="1" res="-1.3278457336127758e-02" rms="3.2865187525749207e-01" purity="6.3704144954681396e-01" nType="-99"/>
            <Node pos="r" depth="3" NCoef="0" IVar="-1" Cut="0.0000000000000000e+00" cType="1" res="1.7947534099221230e-02" rms="2.0381021499633789e-01" purity="9.3753498792648315e-01" nType="-99"/>
          </Node>
        </Node>
        <Node pos="r" depth="1" NCoef="0" IVar="-1" Cut="0.0000000000000000e+00" cType="1" res="2.4554021656513214e-02" rms="3.1156381964683533e-01" purity="6.4530676603317261e-01" nType="-99"/>
      </Node>
    </BinaryTree>
    <BinaryTree type="DecisionTree" boostWeight="1.0000000000000000e+00" itree="301">
      <Node pos="s" depth="0" NCoef="0" IVar="1" Cut="4.1835278272628784e-02" cType="1" res="-1.1679637245833874e-03" rms="2.8388714790344238e-01" purity="4.9746245145797729e-01" nType="0">
        <Node pos="l" depth="1" NCoef="0" IVar="10" Cut="-1.9999049901962280e+00" cType="1" res="-6.8043661303818226e-03" rms="2.5797846913337708e-01" purity="1.9820506870746613e-01" nType="0">
          <Node pos="l" depth="2" NCoef="0" IVar="-1" Cut="0.0000000000000000e+00" cType="1" res="-5.9175856411457062e-02" rms="1.8885912001132965e-01" purity="6.1281811445951462e-02" nType="-99"/>
          <Node pos="r" depth="2" NCoef="0" IVar="10" Cut="5.7050500065088272e-02" cType="1" res="-5.3773340769112110e-03" rms="2.6208043098449707e-01" purity="2.0780032873153687e-01" nType="0">
            <Node pos="l" depth="3" NCoef="0" IVar="-1" Cut="0.0000000000000000e+00" cType="1" res="2.7134707197546959e-03" rms="2.7381134033203125e-01" purity="2.3039832711219788e-01" nType="-99"/>
            <Node pos="r" depth="3" NCoef="0" IVar="-1" Cut="0.0000000000000000e+00" cType="1" res="-1.7363687977194786e-02" rms="2.5026607513427734e-01" purity="1.8641006946563721e-01" nType="-99"/>
          </Node>
        </Node>
        <Node pos="r" depth="1" NCoef="0" IVar="2" Cut="3.0019769287109375e+02" cType="1" res="2.7613672427833080e-03" rms="3.0056849122047424e-01" purity="7.0608514547348022e-01" nType="0">
          <Node pos="l" depth="2" NCoef="0" IVar="2" Cut="2.5725781250000000e+02" cType="1" res="1.1972018517553806e-02" rms="3.1990370154380798e-01" purity="5.9843438863754272e-01" nType="0">
            <Node pos="l" depth="3" NCoef="0" IVar="-1" Cut="0.0000000000000000e+00" cType="1" res="2.6662079617381096e-02" rms="3.2299691438674927e-01" purity="5.7860416173934937e-01" nType="-99"/>
            <Node pos="r" depth="3" NCoef="0" IVar="-1" Cut="0.0000000000000000e+00" cType="1" res="-7.5171920470893383e-03" rms="3.1512817740440369e-01" purity="6.2176114320755005e-01" nType="-99"/>
          </Node>
          <Node pos="r" depth="2" NCoef="0" IVar="8" Cut="-3.6714324355125427e-01" cType="1" res="-2.2624917328357697e-03" rms="2.8935492038726807e-01" purity="7.6480221748352051e-01" nType="0">
            <Node pos="l" depth="3" NCoef="0" IVar="-1" Cut="0.0000000000000000e+00" cType="1" res="-1.5043147839605808e-02" rms="2.9217997193336487e-01" purity="7.3060810565948486e-01" nType="-99"/>
            <Node pos="r" depth="3" NCoef="0" IVar="-1" Cut="0.0000000000000000e+00" cType="1" res="3.1404674518853426e-03" rms="2.8795108199119568e-01" purity="7.8002882003784180e-01" nType="-99"/>
          </Node>
        </Node>
      </Node>
    </BinaryTree>
    <BinaryTree type="DecisionTree" boostWeight="1.0000000000000000e+00" itree="302">
      <Node pos="s" depth="0" NCoef="0" IVar="10" Cut="1.9997111558914185e+00" cType="1" res="-8.1548391608521342e-04" rms="2.8797021508216858e-01" purity="5.0010585784912109e-01" nType="0">
        <Node pos="l" depth="1" NCoef="0" IVar="11" Cut="3.8088720291852951e-02" cType="1" res="2.5807449128478765e-04" rms="2.8888505697250366e-01" purity="5.1312685012817383e-01" nType="0">
          <Node pos="l" depth="2" NCoef="0" IVar="0" Cut="1.4002785644531250e+03" cType="1" res="-1.9120735814794898e-03" rms="2.9314553737640381e-01" purity="4.2562970519065857e-01" nType="0">
            <Node pos="l" depth="3" NCoef="0" IVar="-1" Cut="0.0000000000000000e+00" cType="1" res="3.6303577944636345e-03" rms="2.8690049052238464e-01" purity="1.6947411000728607e-01" nType="-99"/>
            <Node pos="r" depth="3" NCoef="0" IVar="-1" Cut="0.0000000000000000e+00" cType="1" res="-7.5526055879890919e-03" rms="2.9941126704216003e-01" purity="6.9168817996978760e-01" nType="-99"/>
          </Node>
          <Node pos="r" depth="2" NCoef="0" IVar="9" Cut="6.6510343551635742e-01" cType="1" res="6.3238088041543961e-03" rms="2.7653849124908447e-01" purity="7.5768810510635376e-01" nType="0">
            <Node pos="l" depth="3" NCoef="0" IVar="-1" Cut="0.0000000000000000e+00" cType="1" res="1.4010547660291195e-02" rms="2.7023461461067200e-01" purity="7.8862339258193970e-01" nType="-99"/>
            <Node pos="r" depth="3" NCoef="0" IVar="-1" Cut="0.0000000000000000e+00" cType="1" res="-7.0087122730910778e-03" rms="2.9348385334014893e-01" purity="6.6905301809310913e-01" nType="-99"/>
          </Node>
        </Node>
        <Node pos="r" depth="1" NCoef="0" IVar="-1" Cut="0.0000000000000000e+00" cType="1" res="-2.8343366459012032e-02" rms="2.6792740821838379e-01" purity="2.3735271394252777e-01" nType="-99"/>
      </Node>
    </BinaryTree>
    <BinaryTree type="DecisionTree" boostWeight="1.0000000000000000e+00" itree="303">
      <Node pos="s" depth="0" NCoef="0" IVar="1" Cut="1.4641977846622467e-01" cType="1" res="-7.8601931454613805e-04" rms="2.8788796067237854e-01" purity="4.9924013018608093e-01" nType="0">
        <Node pos="l" depth="1" NCoef="0" IVar="1" Cut="4.1832782328128815e-02" cType="1" res="-2.3429333232343197e-03" rms="2.9570326209068298e-01" purity="4.2649087309837341e-01" nType="0">
          <Node pos="l" depth="2" NCoef="0" IVar="1" Cut="3.5856828093528748e-02" cType="1" res="2.7411936316639185e-03" rms="2.6630726456642151e-01" purity="2.0694313943386078e-01" nType="0">
            <Node pos="l" depth="3" NCoef="0" IVar="-1" Cut="0.0000000000000000e+00" cType="1" res="-6.9189263740554452e-04" rms="2.5722554326057434e-01" purity="1.8013402819633484e-01" nType="-99"/>
            <Node pos="r" depth="3" NCoef="0" IVar="-1" Cut="0.0000000000000000e+00" cType="1" res="2.7769213542342186e-02" rms="3.3113718032836914e-01" purity="4.2986014485359192e-01" nType="-99"/>
          </Node>
          <Node pos="r" depth="2" NCoef="0" IVar="9" Cut="3.9933386445045471e-01" cType="1" res="-7.1839061565697193e-03" rms="3.2112789154052734e-01" purity="6.3553851842880249e-01" nType="0">
            <Node pos="l" depth="3" NCoef="0" IVar="-1" Cut="0.0000000000000000e+00" cType="1" res="-1.1999217793345451e-02" rms="3.1655326485633850e-01" purity="6.5132492780685425e-01" nType="-99"/>
            <Node pos="r" depth="3" NCoef="0" IVar="-1" Cut="0.0000000000000000e+00" cType="1" res="2.8018667362630367e-03" rms="3.3008283376693726e-01" purity="6.0315185785293579e-01" nType="-99"/>
          </Node>
        </Node>
        <Node pos="r" depth="1" NCoef="0" IVar="11" Cut="-1.3443797826766968e+00" cType="1" res="7.4340058490633965e-03" rms="2.4231940507888794e-01" purity="8.8333398103713989e-01" nType="0">
          <Node pos="l" depth="2" NCoef="0" IVar="-1" Cut="0.0000000000000000e+00" cType="1" res="1.1615782976150513e-02" rms="3.4141686558723450e-01" purity="7.1960735321044922e-01" nType="-99"/>
          <Node pos="r" depth="2" NCoef="0" IVar="-1" Cut="0.0000000000000000e+00" cType="1" res="1.1840792372822762e-02" rms="1.8622292578220367e-01" purity="9.5130652189254761e-01" nType="-99"/>
        </Node>
      </Node>
    </BinaryTree>
    <BinaryTree type="DecisionTree" boostWeight="1.0000000000000000e+00" itree="304">
      <Node pos="s" depth="0" NCoef="0" IVar="2" Cut="6.7659875488281250e+02" cType="1" res="-6.2764668837189674e-04" rms="2.8964334726333618e-01" purity="5.0482052564620972e-01" nType="0">
        <Node pos="l" depth="1" NCoef="0" IVar="4" Cut="1.5995005798339844e+02" cType="1" res="3.7102788337506354e-04" rms="2.8799888491630554e-01" purity="5.0131374597549438e-01" nType="0">
          <Node pos="l" depth="2" NCoef="0" IVar="0" Cut="1.1267233886718750e+03" cType="1" res="3.3180513419210911e-03" rms="2.8964486718177795e-01" purity="2.8195506334304810e-01" nType="0">
            <Node pos="l" depth="3" NCoef="0" IVar="-1" Cut="0.0000000000000000e+00" cType="1" res="-1.2746437452733517e-02" rms="2.0220011472702026e-01" purity="5.1831126213073730e-02" nType="-99"/>
            <Node pos="r" depth="3" NCoef="0" IVar="-1" Cut="0.0000000000000000e+00" cType="1" res="7.9462910071015358e-03" rms="3.2884240150451660e-01" purity="4.1205331683158875e-01" nType="-99"/>
          </Node>
          <Node pos="r" depth="2" NCoef="0" IVar="1" Cut="5.8425530791282654e-02" cType="1" res="-3.0157908331602812e-03" rms="2.8605809807777405e-01" purity="7.5340813398361206e-01" nType="0">
            <Node pos="l" depth="3" NCoef="0" IVar="-1" Cut="0.0000000000000000e+00" cType="1" res="-1.1217214167118073e-02" rms="3.3294868469238281e-01" purity="4.9711051583290100e-01" nType="-99"/>
            <Node pos="r" depth="3" NCoef="0" IVar="-1" Cut="0.0000000000000000e+00" cType="1" res="2.8648050501942635e-03" rms="2.5819987058639526e-01" purity="8.8666605949401855e-01" nType="-99"/>
          </Node>
        </Node>
        <Node pos="r" depth="1" NCoef="0" IVar="-1" Cut="0.0000000000000000e+00" cType="1" res="-1.8364544957876205e-02" rms="3.1991657614707947e-01" purity="5.7446956634521484e-01" nType="-99"/>
      </Node>
    </BinaryTree>
    <BinaryTree type="DecisionTree" boostWeight="1.0000000000000000e+00" itree="305">
      <Node pos="s" depth="0" NCoef="0" IVar="1" Cut="2.0900873467326164e-02" cType="1" res="-9.1436588263604790e-05" rms="2.8976893424987793e-01" purity="4.9845537543296814e-01" nType="0">
        <Node pos="l" depth="1" NCoef="0" IVar="3" Cut="2.4207023620605469e+02" cType="1" res="6.9074011407792568e-03" rms="2.3379598557949066e-01" purity="1.3071252405643463e-01" nType="0">
          <Node pos="l" depth="2" NCoef="0" IVar="1" Cut="1.4930910430848598e-02" cType="1" res="-1.2957227881997824e-03" rms="1.9006559252738953e-01" purity="6.5274126827716827e-02" nType="0">
            <Node pos="l" depth="3" NCoef="0" IVar="-1" Cut="0.0000000000000000e+00" cType="1" res="-2.0022384822368622e-02" rms="1.6436329483985901e-01" purity="4.3633144348859787e-02" nType="-99"/>
            <Node pos="r" depth="3" NCoef="0" IVar="-1" Cut="0.0000000000000000e+00" cType="1" res="2.2489940747618675e-02" rms="2.4907845258712769e-01" purity="1.2756961584091187e-01" nType="-99"/>
          </Node>
          <Node pos="r" depth="2" NCoef="0" IVar="9" Cut="1.3309679925441742e-01" cType="1" res="2.5155939161777496e-02" rms="3.0888819694519043e-01" purity="2.7628573775291443e-01" nType="0">
            <Node pos="l" depth="3" NCoef="0" IVar="-1" Cut="0.0000000000000000e+00" cType="1" res="4.1594710201025009e-02" rms="3.1243231892585754e-01" purity="2.9029908776283264e-01" nType="-99"/>
            <Node pos="r" depth="3" NCoef="0" IVar="-1" Cut="0.0000000000000000e+00" cType="1" res="1.2373588047921658e-02" rms="3.0404576659202576e-01" purity="2.5962719321250916e-01" nType="-99"/>
          </Node>
        </Node>
        <Node pos="r" depth="1" NCoef="0" IVar="10" Cut="-1.7333586215972900e+00" cType="1" res="-2.2447027731686831e-03" rms="3.0489745736122131e-01" purity="6.1159527301788330e-01" nType="0">
          <Node pos="l" depth="2" NCoef="0" IVar="7" Cut="-1.9497469067573547e-01" cType="1" res="1.2649677693843842e-02" rms="3.2773420214653015e-01" purity="4.0206736326217651e-01" nType="0">
            <Node pos="l" depth="3" NCoef="0" IVar="-1" Cut="0.0000000000000000e+00" cType="1" res="6.0483077540993690e-03" rms="3.1506437063217163e-01" purity="3.9748260378837585e-01" nType="-99"/>
            <Node pos="r" depth="3" NCoef="0" IVar="-1" Cut="0.0000000000000000e+00" cType="1" res="1.6268204897642136e-02" rms="3.3916428685188293e-01" purity="4.0640190243721008e-01" nType="-99"/>
          </Node>
          <Node pos="r" depth="2" NCoef="0" IVar="11" Cut="-1.6190506219863892e+00" cType="1" res="-3.4369148779660463e-03" rms="3.0296346545219421e-01" purity="6.2836688756942749e-01" nType="0">
            <Node pos="l" depth="3" NCoef="0" IVar="-1" Cut="0.0000000000000000e+00" cType="1" res="-7.7667292207479477e-03" rms="3.3784097433090210e-01" purity="3.6429557204246521e-01" nType="-99"/>
            <Node pos="r" depth="3" NCoef="0" IVar="-1" Cut="0.0000000000000000e+00" cType="1" res="7.7866722131147981e-04" rms="2.7352046966552734e-01" purity="8.2846999168395996e-01" nType="-99"/>
          </Node>
        </Node>
      </Node>
    </BinaryTree>
    <BinaryTree type="DecisionTree" boostWeight="1.0000000000000000e+00" itree="306">
      <Node pos="s" depth="0" NCoef="0" IVar="4" Cut="2.3372267150878906e+02" cType="1" res="4.3743508867919445e-03" rms="2.8889447450637817e-01" purity="5.0490427017211914e-01" nType="0">
        <Node pos="l" depth="1" NCoef="0" IVar="9" Cut="6.6665768623352051e-01" cType="1" res="5.8564399369060993e-03" rms="2.9460769891738892e-01" purity="4.4149681925773621e-01" nType="0">
          <Node pos="l" depth="2" NCoef="0" IVar="5" Cut="1.0837054443359375e+02" cType="1" res="3.3762396778911352e-03" rms="2.9588329792022705e-01" purity="4.7121617197990417e-01" nType="0">
            <Node pos="l" depth="3" NCoef="0" IVar="-1" Cut="0.0000000000000000e+00" cType="1" res="5.9377234429121017e-03" rms="3.0891925096511841e-01" purity="3.6274507641792297e-01" nType="-99"/>
            <Node pos="r" depth="3" NCoef="0" IVar="-1" Cut="0.0000000000000000e+00" cType="1" res="-8.3538098260760307e-03" rms="2.4192553758621216e-01" purity="8.6919754743576050e-01" nType="-99"/>
          </Node>
          <Node pos="r" depth="2" NCoef="0" IVar="8" Cut="6.6683280467987061e-01" cType="1" res="1.2301025912165642e-02" rms="2.9116824269294739e-01" purity="3.6427354812622070e-01" nType="0">
            <Node pos="l" depth="3" NCoef="0" IVar="-1" Cut="0.0000000000000000e+00" cType="1" res="2.0536873489618301e-02" rms="3.0552545189857483e-01" purity="4.1045710444450378e-01" nType="-99"/>
            <Node pos="r" depth="3" NCoef="0" IVar="-1" Cut="0.0000000000000000e+00" cType="1" res="-3.0763729591853917e-04" rms="2.5570711493492126e-01" purity="2.6095220446586609e-01" nType="-99"/>
          </Node>
        </Node>
        <Node pos="r" depth="1" NCoef="0" IVar="10" Cut="-9.3219512701034546e-01" cType="1" res="-3.4580763895064592e-03" rms="2.5645574927330017e-01" purity="8.3999538421630859e-01" nType="0">
          <Node pos="l" depth="2" NCoef="0" IVar="-1" Cut="0.0000000000000000e+00" cType="1" res="-3.4568641334772110e-02" rms="2.7790987491607666e-01" purity="7.7255046367645264e-01" nType="-99"/>
          <Node pos="r" depth="2" NCoef="0" IVar="9" Cut="6.6117513179779053e-01" cType="1" res="1.6841157339513302e-03" rms="2.5126621127128601e-01" purity="8.5462343692779541e-01" nType="0">
            <Node pos="l" depth="3" NCoef="0" IVar="-1" Cut="0.0000000000000000e+00" cType="1" res="1.0965626686811447e-02" rms="2.4713616073131561e-01" purity="8.7178677320480347e-01" nType="-99"/>
            <Node pos="r" depth="3" NCoef="0" IVar="-1" Cut="0.0000000000000000e+00" cType="1" res="-2.3472908884286880e-02" rms="2.6451015472412109e-01" purity="7.9370951652526855e-01" nType="-99"/>
          </Node>
        </Node>
      </Node>
    </BinaryTree>
    <BinaryTree type="DecisionTree" boostWeight="1.0000000000000000e+00" itree="307">
      <Node pos="s" depth="0" NCoef="0" IVar="8" Cut="9.3316882848739624e-01" cType="1" res="1.7904933774843812e-03" rms="2.9268601536750793e-01" purity="4.9992799758911133e-01" nType="0">
        <Node pos="l" depth="1" NCoef="0" IVar="9" Cut="-4.0019303560256958e-01" cType="1" res="-3.9681536145508289e-04" rms="2.9522359371185303e-01" purity="5.4020392894744873e-01" nType="0">
          <Node pos="l" depth="2" NCoef="0" IVar="7" Cut="1.7381475865840912e-01" cType="1" res="5.8150771073997021e-03" rms="2.9975306987762451e-01" purity="4.9258625507354736e-01" nType="0">
            <Node pos="l" depth="3" NCoef="0" IVar="-1" Cut="0.0000000000000000e+00" cType="1" res="4.3006482883356512e-04" rms="3.0063077807426453e-01" purity="5.1705676317214966e-01" nType="-99"/>
            <Node pos="r" depth="3" NCoef="0" IVar="-1" Cut="0.0000000000000000e+00" cType="1" res="1.7397439107298851e-02" rms="2.9798287153244019e-01" purity="4.4996318221092224e-01" nType="-99"/>
          </Node>
          <Node pos="r" depth="2" NCoef="0" IVar="1" Cut="6.2627516686916351e-02" cType="1" res="-3.9841048419475555e-03" rms="2.9251587390899658e-01" purity="5.6770253181457520e-01" nType="0">
            <Node pos="l" depth="3" NCoef="0" IVar="-1" Cut="0.0000000000000000e+00" cType="1" res="2.0373186562210321e-03" rms="2.9730349779129028e-01" purity="3.3461979031562805e-01" nType="-99"/>
            <Node pos="r" depth="3" NCoef="0" IVar="-1" Cut="0.0000000000000000e+00" cType="1" res="-1.1409137398004532e-02" rms="2.8798356652259827e-01" purity="7.8001672029495239e-01" nType="-99"/>
          </Node>
        </Node>
        <Node pos="r" depth="1" NCoef="0" IVar="0" Cut="1.3239932861328125e+03" cType="1" res="1.2235843576490879e-02" rms="2.8001576662063599e-01" purity="3.0759280920028687e-01" nType="0">
          <Node pos="l" depth="2" NCoef="0" IVar="10" Cut="-1.3397523760795593e-01" cType="1" res="1.8662341171875596e-03" rms="2.2521272301673889e-01" purity="7.9970024526119232e-02" nType="0">
            <Node pos="l" depth="3" NCoef="0" IVar="-1" Cut="0.0000000000000000e+00" cType="1" res="1.9874146208167076e-02" rms="2.3508919775485992e-01" purity="8.8358081877231598e-02" nType="-99"/>
            <Node pos="r" depth="3" NCoef="0" IVar="-1" Cut="0.0000000000000000e+00" cType="1" res="-6.4733610488474369e-03" rms="2.1857301890850067e-01" purity="7.4661798775196075e-02" nType="-99"/>
          </Node>
          <Node pos="r" depth="2" NCoef="0" IVar="6" Cut="5.7891853332519531e+01" cType="1" res="2.2340511903166771e-02" rms="3.2431861758232117e-01" purity="5.2939987182617188e-01" nType="0">
            <Node pos="l" depth="3" NCoef="0" IVar="-1" Cut="0.0000000000000000e+00" cType="1" res="3.2786618918180466e-02" rms="3.4203234314918518e-01" purity="3.1178402900695801e-01" nType="-99"/>
            <Node pos="r" depth="3" NCoef="0" IVar="-1" Cut="0.0000000000000000e+00" cType="1" res="9.3199172988533974e-03" rms="3.0537927150726318e-01" purity="7.4276632070541382e-01" nType="-99"/>
          </Node>
        </Node>
      </Node>
    </BinaryTree>
    <BinaryTree type="DecisionTree" boostWeight="1.0000000000000000e+00" itree="308">
      <Node pos="s" depth="0" NCoef="0" IVar="9" Cut="-1.3366018235683441e-01" cType="1" res="-2.3757957387715578e-03" rms="2.8928360342979431e-01" purity="5.0127446651458740e-01" nType="0">
        <Node pos="l" depth="1" NCoef="0" IVar="8" Cut="3.9930608868598938e-01" cType="1" res="-7.7495025470852852e-03" rms="2.9050120711326599e-01" purity="4.8206689953804016e-01" nType="0">
          <Node pos="l" depth="2" NCoef="0" IVar="8" Cut="-2.1013285219669342e-01" cType="1" res="-3.1743915751576424e-03" rms="2.9139626026153564e-01" purity="5.1087033748626709e-01" nType="0">
            <Node pos="l" depth="3" NCoef="0" IVar="-1" Cut="0.0000000000000000e+00" cType="1" res="-1.1531033553183079e-02" rms="2.8766646981239319e-01" purity="4.4901129603385925e-01" nType="-99"/>
            <Node pos="r" depth="3" NCoef="0" IVar="-1" Cut="0.0000000000000000e+00" cType="1" res="1.0969826951622963e-02" rms="2.9798385500907898e-01" purity="6.2924844026565552e-01" nType="-99"/>
          </Node>
          <Node pos="r" depth="2" NCoef="0" IVar="8" Cut="8.5634458065032959e-01" cType="1" res="-1.8088772892951965e-02" rms="2.8820085525512695e-01" purity="4.1697424650192261e-01" nType="0">
            <Node pos="l" depth="3" NCoef="0" IVar="-1" Cut="0.0000000000000000e+00" cType="1" res="-6.1922767199575901e-03" rms="3.1366914510726929e-01" purity="5.8004784584045410e-01" nType="-99"/>
            <Node pos="r" depth="3" NCoef="0" IVar="-1" Cut="0.0000000000000000e+00" cType="1" res="-3.5578124225139618e-02" rms="2.6621803641319275e-01" purity="2.8957575559616089e-01" nType="-99"/>
          </Node>
        </Node>
        <Node pos="r" depth="1" NCoef="0" IVar="11" Cut="1.1427444219589233e+00" cType="1" res="2.0030622836202383e-03" rms="2.8821355104446411e-01" purity="5.1692610979080200e-01" nType="0">
          <Node pos="l" depth="2" NCoef="0" IVar="9" Cut="2.8534287214279175e-01" cType="1" res="-3.8266915362328291e-04" rms="2.8692093491554260e-01" purity="4.9787762761116028e-01" nType="0">
            <Node pos="l" depth="3" NCoef="0" IVar="-1" Cut="0.0000000000000000e+00" cType="1" res="1.2399147264659405e-02" rms="2.8516072034835815e-01" purity="6.0583502054214478e-01" nType="-99"/>
            <Node pos="r" depth="3" NCoef="0" IVar="-1" Cut="0.0000000000000000e+00" cType="1" res="-5.8918646536767483e-03" rms="2.8752341866493225e-01" purity="4.5340552926063538e-01" nType="-99"/>
          </Node>
          <Node pos="r" depth="2" NCoef="0" IVar="-1" Cut="0.0000000000000000e+00" cType="1" res="2.6020364835858345e-02" rms="2.9886904358863831e-01" purity="6.9067752361297607e-01" nType="-99"/>
        </Node>
      </Node>
    </BinaryTree>
    <BinaryTree type="DecisionTree" boostWeight="1.0000000000000000e+00" itree="309">
      <Node pos="s" depth="0" NCoef="0" IVar="10" Cut="3.9984241127967834e-01" cType="1" res="9.5888855867087841e-04" rms="2.8534036874771118e-01" purity="5.0735723972320557e-01" nType="0">
        <Node pos="l" depth="1" NCoef="0" IVar="9" Cut="1.4658105373382568e+00" cType="1" res="-3.3445053268224001e-03" rms="2.8078684210777283e-01" purity="5.1689875125885010e-01" nType="0">
          <Node pos="l" depth="2" NCoef="0" IVar="9" Cut="-1.7843500375747681e+00" cType="1" res="-1.3970620930194855e-03" rms="2.8298389911651611e-01" purity="5.4266041517257690e-01" nType="0">
            <Node pos="l" depth="3" NCoef="0" IVar="-1" Cut="0.0000000000000000e+00" cType="1" res="-3.1401045620441437e-02" rms="2.3514094948768616e-01" purity="1.2599213421344757e-01" nType="-99"/>
            <Node pos="r" depth="3" NCoef="0" IVar="-1" Cut="0.0000000000000000e+00" cType="1" res="-1.7971717170439661e-04" rms="2.8574213385581970e-01" purity="5.6945770978927612e-01" nType="-99"/>
          </Node>
          <Node pos="r" depth="2" NCoef="0" IVar="-1" Cut="0.0000000000000000e+00" cType="1" res="-3.7636239081621170e-02" rms="2.5013807415962219e-01" purity="1.9200068712234497e-01" nType="-99"/>
        </Node>
        <Node pos="r" depth="1" NCoef="0" IVar="9" Cut="6.6641336679458618e-01" cType="1" res="8.1507293507456779e-03" rms="2.9265096783638000e-01" purity="4.9141138792037964e-01" nType="0">
          <Node pos="l" depth="2" NCoef="0" IVar="11" Cut="8.6613017320632935e-01" cType="1" res="2.9892292805016041e-03" rms="2.9526856541633606e-01" purity="5.2651828527450562e-01" nType="0">
            <Node pos="l" depth="3" NCoef="0" IVar="-1" Cut="0.0000000000000000e+00" cType="1" res="7.8680441947653890e-04" rms="2.9557123780250549e-01" purity="4.9658036231994629e-01" nType="-99"/>
            <Node pos="r" depth="3" NCoef="0" IVar="-1" Cut="0.0000000000000000e+00" cType="1" res="1.8876608461141586e-02" rms="2.9288473725318909e-01" purity="7.1832662820816040e-01" nType="-99"/>
          </Node>
          <Node pos="r" depth="2" NCoef="0" IVar="1" Cut="1.9092408940196037e-02" cType="1" res="1.9859721884131432e-02" rms="2.8627943992614746e-01" purity="4.1177046298980713e-01" nType="0">
            <Node pos="l" depth="3" NCoef="0" IVar="-1" Cut="0.0000000000000000e+00" cType="1" res="-3.1003446783870459e-03" rms="1.8496526777744293e-01" purity="7.4126958847045898e-02" nType="-99"/>
            <Node pos="r" depth="3" NCoef="0" IVar="-1" Cut="0.0000000000000000e+00" cType="1" res="2.6949303224682808e-02" rms="3.1403464078903198e-01" purity="5.3110837936401367e-01" nType="-99"/>
          </Node>
        </Node>
      </Node>
    </BinaryTree>
    <BinaryTree type="DecisionTree" boostWeight="1.0000000000000000e+00" itree="310">
      <Node pos="s" depth="0" NCoef="0" IVar="8" Cut="-1.3340555131435394e-01" cType="1" res="-3.5582329146564007e-03" rms="2.8612753748893738e-01" purity="4.9412664771080017e-01" nType="0">
        <Node pos="l" depth="1" NCoef="0" IVar="11" Cut="-1.0669518709182739e+00" cType="1" res="2.5164894759654999e-03" rms="2.8643786907196045e-01" purity="4.8001480102539062e-01" nType="0">
          <Node pos="l" depth="2" NCoef="0" IVar="7" Cut="1.6044017672538757e-01" cType="1" res="-1.5570068499073386e-03" rms="2.8993663191795349e-01" purity="2.9232570528984070e-01" nType="0">
            <Node pos="l" depth="3" NCoef="0" IVar="-1" Cut="0.0000000000000000e+00" cType="1" res="-7.1224090643227100e-03" rms="2.9843491315841675e-01" purity="3.1868007779121399e-01" nType="-99"/>
            <Node pos="r" depth="3" NCoef="0" IVar="-1" Cut="0.0000000000000000e+00" cType="1" res="7.8120208345353603e-03" rms="2.7672424912452698e-01" purity="2.5335898995399475e-01" nType="-99"/>
          </Node>
          <Node pos="r" depth="2" NCoef="0" IVar="11" Cut="2.2176718711853027e-01" cType="1" res="8.4110591560602188e-03" rms="2.8119352459907532e-01" purity="7.5161111354827881e-01" nType="0">
            <Node pos="l" depth="3" NCoef="0" IVar="-1" Cut="0.0000000000000000e+00" cType="1" res="1.9495189189910889e-02" rms="2.7693566679954529e-01" purity="7.8038483858108521e-01" nType="-99"/>
            <Node pos="r" depth="3" NCoef="0" IVar="-1" Cut="0.0000000000000000e+00" cType="1" res="3.4421953023411334e-04" rms="2.8553855419158936e-01" purity="7.2026360034942627e-01" nType="-99"/>
          </Node>
        </Node>
        <Node pos="r" depth="1" NCoef="0" IVar="5" Cut="1.0643840026855469e+02" cType="1" res="-8.4360176697373390e-03" rms="2.8578463196754456e-01" purity="5.0545793771743774e-01" nType="0">
          <Node pos="l" depth="2" NCoef="0" IVar="8" Cut="1.5426532030105591e+00" cType="1" res="-1.1870507150888443e-02" rms="3.0418822169303894e-01" purity="3.5238763689994812e-01" nType="0">
            <Node pos="l" depth="3" NCoef="0" IVar="-1" Cut="0.0000000000000000e+00" cType="1" res="-1.4178710058331490e-02" rms="3.1909570097923279e-01" purity="4.0275111794471741e-01" nType="-99"/>
            <Node pos="r" depth="3" NCoef="0" IVar="-1" Cut="0.0000000000000000e+00" cType="1" res="1.0568276047706604e-02" rms="2.0380322635173798e-01" purity="7.7685199677944183e-02" nType="-99"/>
          </Node>
          <Node pos="r" depth="2" NCoef="0" IVar="5" Cut="1.2257000732421875e+02" cType="1" res="-6.9167239416856319e-05" rms="2.3478406667709351e-01" purity="8.7835651636123657e-01" nType="0">
            <Node pos="l" depth="3" NCoef="0" IVar="-1" Cut="0.0000000000000000e+00" cType="1" res="-1.3425097800791264e-02" rms="2.8549984097480774e-01" purity="7.8708493709564209e-01" nType="-99"/>
            <Node pos="r" depth="3" NCoef="0" IVar="-1" Cut="0.0000000000000000e+00" cType="1" res="9.9218469113111496e-03" rms="2.0716977119445801e-01" purity="9.2031615972518921e-01" nType="-99"/>
          </Node>
        </Node>
      </Node>
    </BinaryTree>
    <BinaryTree type="DecisionTree" boostWeight="1.0000000000000000e+00" itree="311">
      <Node pos="s" depth="0" NCoef="0" IVar="9" Cut="1.3332676887512207e-01" cType="1" res="1.4125518500804901e-03" rms="2.8575539588928223e-01" purity="5.0071728229522705e-01" nType="0">
        <Node pos="l" depth="1" NCoef="0" IVar="11" Cut="3.7673722952604294e-02" cType="1" res="5.2841440774500370e-03" rms="2.8970819711685181e-01" purity="5.1085627079010010e-01" nType="0">
          <Node pos="l" depth="2" NCoef="0" IVar="10" Cut="1.3288480043411255e-01" cType="1" res="2.0517073571681976e-03" rms="2.9147887229919434e-01" purity="4.2528304457664490e-01" nType="0">
            <Node pos="l" depth="3" NCoef="0" IVar="-1" Cut="0.0000000000000000e+00" cType="1" res="8.6275693029165268e-03" rms="2.9849565029144287e-01" purity="4.3193057179450989e-01" nType="-99"/>
            <Node pos="r" depth="3" NCoef="0" IVar="-1" Cut="0.0000000000000000e+00" cType="1" res="-6.7383628338575363e-03" rms="2.8102162480354309e-01" purity="4.1583684086799622e-01" nType="-99"/>
          </Node>
          <Node pos="r" depth="2" NCoef="0" IVar="5" Cut="9.7929809570312500e+01" cType="1" res="1.5118936076760292e-02" rms="2.8402692079544067e-01" purity="7.7121567726135254e-01" nType="0">
            <Node pos="l" depth="3" NCoef="0" IVar="-1" Cut="0.0000000000000000e+00" cType="1" res="2.5865916162729263e-02" rms="3.4039831161499023e-01" purity="6.0764127969741821e-01" nType="-99"/>
            <Node pos="r" depth="3" NCoef="0" IVar="-1" Cut="0.0000000000000000e+00" cType="1" res="3.8580074906349182e-03" rms="2.2803571820259094e-01" purity="9.0267300605773926e-01" nType="-99"/>
          </Node>
        </Node>
        <Node pos="r" depth="1" NCoef="0" IVar="0" Cut="2.2870463867187500e+03" cType="1" res="-3.4540358465164900e-03" rms="2.8063198924064636e-01" purity="4.8797252774238586e-01" nType="0">
          <Node pos="l" depth="2" NCoef="0" IVar="2" Cut="3.6707925415039062e+02" cType="1" res="-5.1745953969657421e-03" rms="2.8472912311553955e-01" purity="4.4933310151100159e-01" nType="0">
            <Node pos="l" depth="3" NCoef="0" IVar="-1" Cut="0.0000000000000000e+00" cType="1" res="1.5235552564263344e-04" rms="2.7434659004211426e-01" purity="4.3536734580993652e-01" nType="-99"/>
            <Node pos="r" depth="3" NCoef="0" IVar="-1" Cut="0.0000000000000000e+00" cType="1" res="-1.4076036401093006e-02" rms="2.9911509156227112e-01" purity="4.6978482604026794e-01" nType="-99"/>
          </Node>
          <Node pos="r" depth="2" NCoef="0" IVar="-1" Cut="0.0000000000000000e+00" cType="1" res="2.6839504018425941e-02" rms="2.2992606461048126e-01" purity="9.1329425573348999e-01" nType="-99"/>
        </Node>
      </Node>
    </BinaryTree>
    <BinaryTree type="DecisionTree" boostWeight="1.0000000000000000e+00" itree="312">
      <Node pos="s" depth="0" NCoef="0" IVar="11" Cut="-2.4476339817047119e+00" cType="1" res="-2.8007541550323367e-04" rms="2.8632149100303650e-01" purity="4.9769437313079834e-01" nType="0">
        <Node pos="l" depth="1" NCoef="0" IVar="0" Cut="2.0593022460937500e+03" cType="1" res="3.5256638657301664e-03" rms="2.9646208882331848e-01" purity="2.3428381979465485e-01" nType="0">
          <Node pos="l" depth="2" NCoef="0" IVar="0" Cut="1.5196188964843750e+03" cType="1" res="4.9578184261918068e-03" rms="2.9390788078308105e-01" purity="2.0582136511802673e-01" nType="0">
            <Node pos="l" depth="3" NCoef="0" IVar="-1" Cut="0.0000000000000000e+00" cType="1" res="1.6356870764866471e-03" rms="2.7320399880409241e-01" purity="1.3386882841587067e-01" nType="-99"/>
            <Node pos="r" depth="3" NCoef="0" IVar="-1" Cut="0.0000000000000000e+00" cType="1" res="1.5421429648995399e-02" rms="3.6415565013885498e-01" purity="4.9080571532249451e-01" nType="-99"/>
          </Node>
          <Node pos="r" depth="2" NCoef="0" IVar="-1" Cut="0.0000000000000000e+00" cType="1" res="-1.6944434493780136e-02" rms="3.3371856808662415e-01" purity="6.8789327144622803e-01" nType="-99"/>
        </Node>
        <Node pos="r" depth="1" NCoef="0" IVar="10" Cut="-1.7330770492553711e+00" cType="1" res="-3.7902027834206820e-03" rms="2.7659279108047485e-01" purity="7.4064445495605469e-01" nType="0">
          <Node pos="l" depth="2" NCoef="0" IVar="-1" Cut="0.0000000000000000e+00" cType="1" res="1.7076930031180382e-02" rms="3.1224527955055237e-01" purity="5.6324315071105957e-01" nType="-99"/>
          <Node pos="r" depth="2" NCoef="0" IVar="1" Cut="6.1608787626028061e-02" cType="1" res="-5.1370770670473576e-03" rms="2.7409830689430237e-01" purity="7.5199759006500244e-01" nType="0">
            <Node pos="l" depth="3" NCoef="0" IVar="-1" Cut="0.0000000000000000e+00" cType="1" res="-1.1886161752045155e-02" rms="3.1973254680633545e-01" purity="5.0206851959228516e-01" nType="-99"/>
            <Node pos="r" depth="3" NCoef="0" IVar="-1" Cut="0.0000000000000000e+00" cType="1" res="-1.2618933105841279e-03" rms="2.4385516345500946e-01" purity="8.9599174261093140e-01" nType="-99"/>
          </Node>
        </Node>
      </Node>
    </BinaryTree>
    <BinaryTree type="DecisionTree" boostWeight="1.0000000000000000e+00" itree="313">
      <Node pos="s" depth="0" NCoef="0" IVar="8" Cut="9.3329524993896484e-01" cType="1" res="-2.7771561872214079e-04" rms="2.8927403688430786e-01" purity="5.0345671176910400e-01" nType="0">
        <Node pos="l" depth="1" NCoef="0" IVar="1" Cut="4.1842527687549591e-02" cType="1" res="-3.4227734431624413e-03" rms="2.9169255495071411e-01" purity="5.4187256097793579e-01" nType="0">
          <Node pos="l" depth="2" NCoef="0" IVar="9" Cut="1.4663915634155273e+00" cType="1" res="2.7508377097547054e-03" rms="2.7717223763465881e-01" purity="2.4308541417121887e-01" nType="0">
            <Node pos="l" depth="3" NCoef="0" IVar="-1" Cut="0.0000000000000000e+00" cType="1" res="7.1048205718398094e-03" rms="2.8590935468673706e-01" purity="2.6767128705978394e-01" nType="-99"/>
            <Node pos="r" depth="3" NCoef="0" IVar="-1" Cut="0.0000000000000000e+00" cType="1" res="-4.3541319668292999e-02" rms="2.0176559686660767e-01" purity="6.5714135766029358e-02" nType="-99"/>
          </Node>
          <Node pos="r" depth="2" NCoef="0" IVar="9" Cut="-1.2001093626022339e+00" cType="1" res="-7.0764799602329731e-03" rms="2.9989531636238098e-01" purity="7.1870267391204834e-01" nType="0">
            <Node pos="l" depth="3" NCoef="0" IVar="-1" Cut="0.0000000000000000e+00" cType="1" res="-2.1697722375392914e-02" rms="3.4272915124893188e-01" purity="4.9950453639030457e-01" nType="-99"/>
            <Node pos="r" depth="3" NCoef="0" IVar="-1" Cut="0.0000000000000000e+00" cType="1" res="-5.9137949720025063e-03" rms="2.9473283886909485e-01" purity="7.4283581972122192e-01" nType="-99"/>
          </Node>
        </Node>
        <Node pos="r" depth="1" NCoef="0" IVar="7" Cut="7.1935510635375977e-01" cType="1" res="1.4664989896118641e-02" rms="2.7700796723365784e-01" purity="3.2093641161918640e-01" nType="0">
          <Node pos="l" depth="2" NCoef="0" IVar="5" Cut="8.5522521972656250e+01" cType="1" res="7.7159209176898003e-03" rms="2.8283926844596863e-01" purity="3.5444378852844238e-01" nType="0">
            <Node pos="l" depth="3" NCoef="0" IVar="-1" Cut="0.0000000000000000e+00" cType="1" res="3.4013326512649655e-04" rms="2.6822352409362793e-01" purity="1.6188791394233704e-01" nType="-99"/>
            <Node pos="r" depth="3" NCoef="0" IVar="-1" Cut="0.0000000000000000e+00" cType="1" res="2.2084061056375504e-02" rms="3.0734109878540039e-01" purity="7.0706236362457275e-01" nType="-99"/>
          </Node>
          <Node pos="r" depth="2" NCoef="0" IVar="-1" Cut="0.0000000000000000e+00" cType="1" res="5.1654383540153503e-02" rms="2.5944447517395020e-01" purity="2.2929500043392181e-01" nType="-99"/>
        </Node>
      </Node>
    </BinaryTree>
    <BinaryTree type="DecisionTree" boostWeight="1.0000000000000000e+00" itree="314">
      <Node pos="s" depth="0" NCoef="0" IVar="2" Cut="5.8667639160156250e+02" cType="1" res="2.1724672988057137e-03" rms="2.8913378715515137e-01" purity="5.0452852249145508e-01" nType="0">
        <Node pos="l" depth="1" NCoef="0" IVar="5" Cut="8.1701690673828125e+01" cType="1" res="3.4390308428555727e-03" rms="2.8822633624076843e-01" purity="4.9385094642639160e-01" nType="0">
          <Node pos="l" depth="2" NCoef="0" IVar="1" Cut="4.1834436357021332e-02" cType="1" res="7.9150050878524780e-03" rms="2.9821321368217468e-01" purity="2.4600271880626678e-01" nType="0">
            <Node pos="l" depth="3" NCoef="0" IVar="-1" Cut="0.0000000000000000e+00" cType="1" res="1.0969515424221754e-03" rms="2.3196743428707123e-01" purity="1.0404659807682037e-01" nType="-99"/>
            <Node pos="r" depth="3" NCoef="0" IVar="-1" Cut="0.0000000000000000e+00" cType="1" res="1.3239092193543911e-02" rms="3.6607313156127930e-01" purity="4.2883560061454773e-01" nType="-99"/>
          </Node>
          <Node pos="r" depth="2" NCoef="0" IVar="1" Cut="4.1762348264455795e-02" cType="1" res="-1.7164939781650901e-03" rms="2.7618631720542908e-01" purity="7.7932798862457275e-01" nType="0">
            <Node pos="l" depth="3" NCoef="0" IVar="-1" Cut="0.0000000000000000e+00" cType="1" res="7.9584345221519470e-03" rms="3.2476946711540222e-01" purity="4.5461982488632202e-01" nType="-99"/>
            <Node pos="r" depth="3" NCoef="0" IVar="-1" Cut="0.0000000000000000e+00" cType="1" res="-6.5392823889851570e-03" rms="2.6141244173049927e-01" purity="8.6724215745925903e-01" nType="-99"/>
          </Node>
        </Node>
        <Node pos="r" depth="1" NCoef="0" IVar="4" Cut="1.6279562377929688e+02" cType="1" res="-9.0504912659525871e-03" rms="2.9681748151779175e-01" purity="5.9914141893386841e-01" nType="0">
          <Node pos="l" depth="2" NCoef="0" IVar="-1" Cut="0.0000000000000000e+00" cType="1" res="-3.1086826696991920e-02" rms="2.9784700274467468e-01" purity="2.8289914131164551e-01" nType="-99"/>
          <Node pos="r" depth="2" NCoef="0" IVar="9" Cut="1.3356205821037292e-01" cType="1" res="2.8097264003008604e-03" rms="2.9558491706848145e-01" purity="7.6568204164505005e-01" nType="0">
            <Node pos="l" depth="3" NCoef="0" IVar="-1" Cut="0.0000000000000000e+00" cType="1" res="1.8103031441569328e-02" rms="2.9270705580711365e-01" purity="7.7404797077178955e-01" nType="-99"/>
            <Node pos="r" depth="3" NCoef="0" IVar="-1" Cut="0.0000000000000000e+00" cType="1" res="-1.6623400151729584e-02" rms="2.9812508821487427e-01" purity="7.5530993938446045e-01" nType="-99"/>
          </Node>
        </Node>
      </Node>
    </BinaryTree>
    <BinaryTree type="DecisionTree" boostWeight="1.0000000000000000e+00" itree="315">
      <Node pos="s" depth="0" NCoef="0" IVar="7" Cut="4.1064694523811340e-01" cType="1" res="4.2058256804011762e-04" rms="2.8593745827674866e-01" purity="5.0196826457977295e-01" nType="0">
        <Node pos="l" depth="1" NCoef="0" IVar="2" Cut="4.9194268798828125e+02" cType="1" res="2.7833562344312668e-03" rms="2.8888472914695740e-01" purity="5.5176937580108643e-01" nType="0">
          <Node pos="l" depth="2" NCoef="0" IVar="0" Cut="1.0637969970703125e+03" cType="1" res="5.2988016977906227e-03" rms="2.8565225005149841e-01" purity="5.3138923645019531e-01" nType="0">
            <Node pos="l" depth="3" NCoef="0" IVar="-1" Cut="0.0000000000000000e+00" cType="1" res="-2.7332348749041557e-02" rms="1.7385922372341156e-01" purity="3.4722309559583664e-02" nType="-99"/>
            <Node pos="r" depth="3" NCoef="0" IVar="-1" Cut="0.0000000000000000e+00" cType="1" res="8.6193913593888283e-03" rms="3.0069506168365479e-01" purity="6.1715966463088989e-01" nType="-99"/>
          </Node>
          <Node pos="r" depth="2" NCoef="0" IVar="1" Cut="3.7784323096275330e-02" cType="1" res="-6.7494851537048817e-03" rms="3.0062890052795410e-01" purity="6.2900447845458984e-01" nType="0">
            <Node pos="l" depth="3" NCoef="0" IVar="-1" Cut="0.0000000000000000e+00" cType="1" res="3.5722013562917709e-03" rms="3.1784012913703918e-01" purity="3.6555060744285583e-01" nType="-99"/>
            <Node pos="r" depth="3" NCoef="0" IVar="-1" Cut="0.0000000000000000e+00" cType="1" res="-1.7112465575337410e-02" rms="2.8785476088523865e-01" purity="8.1191688776016235e-01" nType="-99"/>
          </Node>
        </Node>
        <Node pos="r" depth="1" NCoef="0" IVar="6" Cut="6.6722038269042969e+01" cType="1" res="-4.5740786008536816e-03" rms="2.7953925728797913e-01" purity="3.9669379591941833e-01" nType="0">
          <Node pos="l" depth="2" NCoef="0" IVar="0" Cut="1.4400944824218750e+03" cType="1" res="-3.4163886448368430e-04" rms="2.8464433550834656e-01" purity="2.3048202693462372e-01" nType="0">
            <Node pos="l" depth="3" NCoef="0" IVar="-1" Cut="0.0000000000000000e+00" cType="1" res="-9.0255979448556900e-03" rms="2.5186440348625183e-01" purity="1.1663295328617096e-01" nType="-99"/>
            <Node pos="r" depth="3" NCoef="0" IVar="-1" Cut="0.0000000000000000e+00" cType="1" res="1.0509251616895199e-02" rms="3.4748861193656921e-01" purity="4.8921072483062744e-01" nType="-99"/>
          </Node>
          <Node pos="r" depth="2" NCoef="0" IVar="5" Cut="1.0698145294189453e+02" cType="1" res="-1.4660207554697990e-02" rms="2.6670974493026733e-01" purity="7.9278534650802612e-01" nType="0">
            <Node pos="l" depth="3" NCoef="0" IVar="-1" Cut="0.0000000000000000e+00" cType="1" res="-3.5686593502759933e-02" rms="3.2445994019508362e-01" purity="6.2441819906234741e-01" nType="-99"/>
            <Node pos="r" depth="3" NCoef="0" IVar="-1" Cut="0.0000000000000000e+00" cType="1" res="4.5374303590506315e-04" rms="2.2101429104804993e-01" purity="8.9987546205520630e-01" nType="-99"/>
          </Node>
        </Node>
      </Node>
    </BinaryTree>
    <BinaryTree type="DecisionTree" boostWeight="1.0000000000000000e+00" itree="316">
      <Node pos="s" depth="0" NCoef="0" IVar="2" Cut="6.3790783691406250e+02" cType="1" res="-1.4085160801187158e-03" rms="2.8640252351760864e-01" purity="4.9788755178451538e-01" nType="0">
        <Node pos="l" depth="1" NCoef="0" IVar="2" Cut="2.4170713806152344e+02" cType="1" res="-2.9843547381460667e-03" rms="2.8381839394569397e-01" purity="4.9005365371704102e-01" nType="0">
          <Node pos="l" depth="2" NCoef="0" IVar="3" Cut="1.8088607788085938e+02" cType="1" res="1.1327262036502361e-02" rms="2.8685587644577026e-01" purity="3.7662920355796814e-01" nType="0">
            <Node pos="l" depth="3" NCoef="0" IVar="-1" Cut="0.0000000000000000e+00" cType="1" res="-4.6934876590967178e-03" rms="2.7034792304039001e-01" purity="2.3239119350910187e-01" nType="-99"/>
            <Node pos="r" depth="3" NCoef="0" IVar="-1" Cut="0.0000000000000000e+00" cType="1" res="3.1541146337985992e-02" rms="3.0610358715057373e-01" purity="5.6610095500946045e-01" nType="-99"/>
          </Node>
          <Node pos="r" depth="2" NCoef="0" IVar="0" Cut="1.5712698974609375e+03" cType="1" res="-5.5212695151567459e-03" rms="2.8320109844207764e-01" purity="5.1015955209732056e-01" nType="0">
            <Node pos="l" depth="3" NCoef="0" IVar="-1" Cut="0.0000000000000000e+00" cType="1" res="-1.1836337856948376e-02" rms="2.9786324501037598e-01" purity="2.4572089314460754e-01" nType="-99"/>
            <Node pos="r" depth="3" NCoef="0" IVar="-1" Cut="0.0000000000000000e+00" cType="1" res="1.9197316141799092e-03" rms="2.6345798373222351e-01" purity="8.4252989292144775e-01" nType="-99"/>
          </Node>
        </Node>
        <Node pos="r" depth="1" NCoef="0" IVar="8" Cut="-1.3566514849662781e-01" cType="1" res="2.0094141364097595e-02" rms="3.1880503892898560e-01" purity="6.0478216409683228e-01" nType="0">
          <Node pos="l" depth="2" NCoef="0" IVar="-1" Cut="0.0000000000000000e+00" cType="1" res="3.0803147703409195e-02" rms="3.3697062730789185e-01" purity="6.1307954788208008e-01" nType="-99"/>
          <Node pos="r" depth="2" NCoef="0" IVar="-1" Cut="0.0000000000000000e+00" cType="1" res="8.2053169608116150e-03" rms="3.0238518118858337e-01" purity="5.9788340330123901e-01" nType="-99"/>
        </Node>
      </Node>
    </BinaryTree>
    <BinaryTree type="DecisionTree" boostWeight="1.0000000000000000e+00" itree="317">
      <Node pos="s" depth="0" NCoef="0" IVar="9" Cut="1.9999079704284668e+00" cType="1" res="-3.3499294659122825e-04" rms="2.8749608993530273e-01" purity="4.9706435203552246e-01" nType="0">
        <Node pos="l" depth="1" NCoef="0" IVar="7" Cut="-9.2605620622634888e-01" cType="1" res="-1.0045933304354548e-03" rms="2.8969499468803406e-01" purity="5.0979703664779663e-01" nType="0">
          <Node pos="l" depth="2" NCoef="0" IVar="3" Cut="2.5313908386230469e+02" cType="1" res="-9.5580955967307091e-03" rms="2.5007146596908569e-01" purity="2.3655192553997040e-01" nType="0">
            <Node pos="l" depth="3" NCoef="0" IVar="-1" Cut="0.0000000000000000e+00" cType="1" res="-2.6574367657303810e-02" rms="2.2397388517856598e-01" purity="1.6372038424015045e-01" nType="-99"/>
            <Node pos="r" depth="3" NCoef="0" IVar="-1" Cut="0.0000000000000000e+00" cType="1" res="8.1910612061619759e-03" rms="3.1120058894157410e-01" purity="4.4103905558586121e-01" nType="-99"/>
          </Node>
          <Node pos="r" depth="2" NCoef="0" IVar="10" Cut="-1.3356970250606537e-01" cType="1" res="4.5051323832012713e-04" rms="2.9588344693183899e-01" purity="5.5628097057342529e-01" nType="0">
            <Node pos="l" depth="3" NCoef="0" IVar="-1" Cut="0.0000000000000000e+00" cType="1" res="5.2288006991147995e-03" rms="3.0030062794685364e-01" purity="5.5766040086746216e-01" nType="-99"/>
            <Node pos="r" depth="3" NCoef="0" IVar="-1" Cut="0.0000000000000000e+00" cType="1" res="-3.3783791586756706e-03" rms="2.9223564267158508e-01" purity="5.5517089366912842e-01" nType="-99"/>
          </Node>
        </Node>
        <Node pos="r" depth="1" NCoef="0" IVar="-1" Cut="0.0000000000000000e+00" cType="1" res="3.8854014128446579e-02" rms="2.1277575194835663e-01" purity="1.2600389122962952e-01" nType="-99"/>
      </Node>
    </BinaryTree>
    <BinaryTree type="DecisionTree" boostWeight="1.0000000000000000e+00" itree="318">
      <Node pos="s" depth="0" NCoef="0" IVar="4" Cut="1.8750300598144531e+02" cType="1" res="6.7689531715586782e-04" rms="2.8796041011810303e-01" purity="5.0414657592773438e-01" nType="0">
        <Node pos="l" depth="1" NCoef="0" IVar="2" Cut="5.8174261474609375e+02" cType="1" res="3.4959195181727409e-03" rms="2.9598966240882874e-01" purity="3.5987612605094910e-01" nType="0">
          <Node pos="l" depth="2" NCoef="0" IVar="4" Cut="1.7446984863281250e+02" cType="1" res="5.0896182656288147e-03" rms="2.9451665282249451e-01" purity="3.6045438051223755e-01" nType="0">
            <Node pos="l" depth="3" NCoef="0" IVar="-1" Cut="0.0000000000000000e+00" cType="1" res="3.4007693175226450e-03" rms="2.9368373751640320e-01" purity="3.2120993733406067e-01" nType="-99"/>
            <Node pos="r" depth="3" NCoef="0" IVar="-1" Cut="0.0000000000000000e+00" cType="1" res="2.6212951168417931e-02" rms="3.0127176642417908e-01" purity="7.1798759698867798e-01" nType="-99"/>
          </Node>
          <Node pos="r" depth="2" NCoef="0" IVar="-1" Cut="0.0000000000000000e+00" cType="1" res="-1.6377147287130356e-02" rms="3.1392702460289001e-01" purity="3.5229086875915527e-01" nType="-99"/>
        </Node>
        <Node pos="r" depth="1" NCoef="0" IVar="11" Cut="-1.6197696924209595e+00" cType="1" res="-5.0288643687963486e-03" rms="2.7089223265647888e-01" purity="7.9615277051925659e-01" nType="0">
          <Node pos="l" depth="2" NCoef="0" IVar="10" Cut="4.0035912394523621e-01" cType="1" res="-1.9187374040484428e-02" rms="3.4858253598213196e-01" purity="5.7126587629318237e-01" nType="0">
            <Node pos="l" depth="3" NCoef="0" IVar="-1" Cut="0.0000000000000000e+00" cType="1" res="-2.6098368689417839e-02" rms="3.4284260869026184e-01" purity="5.7275593280792236e-01" nType="-99"/>
            <Node pos="r" depth="3" NCoef="0" IVar="-1" Cut="0.0000000000000000e+00" cType="1" res="-4.2654660319385584e-06" rms="3.5723394155502319e-01" purity="5.6875324249267578e-01" nType="-99"/>
          </Node>
          <Node pos="r" depth="2" NCoef="0" IVar="1" Cut="4.2036686092615128e-02" cType="1" res="1.3506403192877769e-03" rms="2.2708272933959961e-01" purity="8.9748179912567139e-01" nType="0">
            <Node pos="l" depth="3" NCoef="0" IVar="-1" Cut="0.0000000000000000e+00" cType="1" res="2.0896224305033684e-02" rms="3.0488833785057068e-01" purity="7.1085888147354126e-01" nType="-99"/>
            <Node pos="r" depth="3" NCoef="0" IVar="-1" Cut="0.0000000000000000e+00" cType="1" res="-7.4624591507017612e-03" rms="2.0637862384319305e-01" purity="9.3740659952163696e-01" nType="-99"/>
          </Node>
        </Node>
      </Node>
    </BinaryTree>
    <BinaryTree type="DecisionTree" boostWeight="1.0000000000000000e+00" itree="319">
      <Node pos="s" depth="0" NCoef="0" IVar="1" Cut="1.9707651808857918e-02" cType="1" res="-6.0838559875264764e-04" rms="2.8361144661903381e-01" purity="5.0038373470306396e-01" nType="0">
        <Node pos="l" depth="1" NCoef="0" IVar="1" Cut="1.3138968497514725e-02" cType="1" res="-8.3208354189991951e-03" rms="2.1529437601566315e-01" purity="1.0386260598897934e-01" nType="0">
          <Node pos="l" depth="2" NCoef="0" IVar="7" Cut="-1.2754511833190918e-01" cType="1" res="-2.9762259218841791e-03" rms="1.9608773291110992e-01" purity="7.6426655054092407e-02" nType="0">
            <Node pos="l" depth="3" NCoef="0" IVar="-1" Cut="0.0000000000000000e+00" cType="1" res="8.0856624990701675e-03" rms="1.9936291873455048e-01" purity="7.9482376575469971e-02" nType="-99"/>
            <Node pos="r" depth="3" NCoef="0" IVar="-1" Cut="0.0000000000000000e+00" cType="1" res="-2.0229451358318329e-02" rms="1.9279155135154724e-01" purity="7.3572494089603424e-02" nType="-99"/>
          </Node>
          <Node pos="r" depth="2" NCoef="0" IVar="0" Cut="1.3245477294921875e+03" cType="1" res="-2.0514240488409996e-02" rms="2.5330632925033569e-01" purity="1.6645605862140656e-01" nType="0">
            <Node pos="l" depth="3" NCoef="0" IVar="-1" Cut="0.0000000000000000e+00" cType="1" res="-1.8067823722958565e-02" rms="1.7209812998771667e-01" purity="3.6692593246698380e-02" nType="-99"/>
            <Node pos="r" depth="3" NCoef="0" IVar="-1" Cut="0.0000000000000000e+00" cType="1" res="-3.2779432833194733e-02" rms="3.2599061727523804e-01" purity="3.2665023207664490e-01" nType="-99"/>
          </Node>
        </Node>
        <Node pos="r" depth="1" NCoef="0" IVar="10" Cut="1.1999654769897461e+00" cType="1" res="1.6378801083192229e-03" rms="3.0056619644165039e-01" purity="6.1587131023406982e-01" nType="0">
          <Node pos="l" depth="2" NCoef="0" IVar="4" Cut="1.6175860595703125e+02" cType="1" res="-2.7120002778246999e-04" rms="2.9806342720985413e-01" purity="6.3461476564407349e-01" nType="0">
            <Node pos="l" depth="3" NCoef="0" IVar="-1" Cut="0.0000000000000000e+00" cType="1" res="4.8199589364230633e-03" rms="3.2362943887710571e-01" purity="4.0606275200843811e-01" nType="-99"/>
            <Node pos="r" depth="3" NCoef="0" IVar="-1" Cut="0.0000000000000000e+00" cType="1" res="-5.9848502278327942e-03" rms="2.7549108862876892e-01" purity="8.2015317678451538e-01" nType="-99"/>
          </Node>
          <Node pos="r" depth="2" NCoef="0" IVar="6" Cut="5.3377632141113281e+01" cType="1" res="1.1460377834737301e-02" rms="3.1294319033622742e-01" purity="5.1943355798721313e-01" nType="0">
            <Node pos="l" depth="3" NCoef="0" IVar="-1" Cut="0.0000000000000000e+00" cType="1" res="-2.4867437314242125e-03" rms="3.2485434412956238e-01" purity="2.5768837332725525e-01" nType="-99"/>
            <Node pos="r" depth="3" NCoef="0" IVar="-1" Cut="0.0000000000000000e+00" cType="1" res="2.7159692719578743e-02" rms="2.9988771677017212e-01" purity="7.8141212463378906e-01" nType="-99"/>
          </Node>
        </Node>
      </Node>
    </BinaryTree>
    <BinaryTree type="DecisionTree" boostWeight="1.0000000000000000e+00" itree="320">
      <Node pos="s" depth="0" NCoef="0" IVar="8" Cut="-1.3304726779460907e-01" cType="1" res="4.2247882811352611e-04" rms="2.8589889407157898e-01" purity="4.9979308247566223e-01" nType="0">
        <Node pos="l" depth="1" NCoef="0" IVar="4" Cut="1.3372694396972656e+02" cType="1" res="-5.0604455173015594e-03" rms="2.8400471806526184e-01" purity="4.7629335522651672e-01" nType="0">
          <Node pos="l" depth="2" NCoef="0" IVar="8" Cut="-3.8695958256721497e-01" cType="1" res="-1.5717877075076103e-02" rms="2.5043603777885437e-01" purity="1.6384305059909821e-01" nType="0">
            <Node pos="l" depth="3" NCoef="0" IVar="-1" Cut="0.0000000000000000e+00" cType="1" res="-1.4311927370727062e-02" rms="2.4182096123695374e-01" purity="1.5065994858741760e-01" nType="-99"/>
            <Node pos="r" depth="3" NCoef="0" IVar="-1" Cut="0.0000000000000000e+00" cType="1" res="-4.9630768597126007e-02" rms="2.8746208548545837e-01" purity="2.2940857708454132e-01" nType="-99"/>
          </Node>
          <Node pos="r" depth="2" NCoef="0" IVar="7" Cut="-3.6842638254165649e-01" cType="1" res="1.8143501365557313e-03" rms="3.0349794030189514e-01" purity="6.7784583568572998e-01" nType="0">
            <Node pos="l" depth="3" NCoef="0" IVar="-1" Cut="0.0000000000000000e+00" cType="1" res="1.8233260139822960e-02" rms="3.2246217131614685e-01" purity="6.5283757448196411e-01" nType="-99"/>
            <Node pos="r" depth="3" NCoef="0" IVar="-1" Cut="0.0000000000000000e+00" cType="1" res="-8.0741001293063164e-03" rms="2.9271572828292847e-01" purity="6.9090646505355835e-01" nType="-99"/>
          </Node>
        </Node>
        <Node pos="r" depth="1" NCoef="0" IVar="8" Cut="1.4031339883804321e+00" cType="1" res="4.8314440064132214e-03" rms="2.8733712434768677e-01" purity="5.1868981122970581e-01" nType="0">
          <Node pos="l" depth="2" NCoef="0" IVar="1" Cut="6.1504758894443512e-02" cType="1" res="8.0567896366119385e-03" rms="2.9788318276405334e-01" purity="5.8380311727523804e-01" nType="0">
            <Node pos="l" depth="3" NCoef="0" IVar="-1" Cut="0.0000000000000000e+00" cType="1" res="1.6307527199387550e-02" rms="3.0784401297569275e-01" purity="3.5296159982681274e-01" nType="-99"/>
            <Node pos="r" depth="3" NCoef="0" IVar="-1" Cut="0.0000000000000000e+00" cType="1" res="2.0135466475039721e-03" rms="2.8888806700706482e-01" purity="7.8239619731903076e-01" nType="-99"/>
          </Node>
          <Node pos="r" depth="2" NCoef="0" IVar="3" Cut="1.6496730041503906e+02" cType="1" res="-1.3431205414235592e-02" rms="2.1731156110763550e-01" purity="1.5000361204147339e-01" nType="0">
            <Node pos="l" depth="3" NCoef="0" IVar="-1" Cut="0.0000000000000000e+00" cType="1" res="1.1319016106426716e-02" rms="1.7903931438922882e-01" purity="6.9097913801670074e-02" nType="-99"/>
            <Node pos="r" depth="3" NCoef="0" IVar="-1" Cut="0.0000000000000000e+00" cType="1" res="-3.2780654728412628e-02" rms="2.3745937645435333e-01" purity="2.0045241713523865e-01" nType="-99"/>
          </Node>
        </Node>
      </Node>
    </BinaryTree>
    <BinaryTree type="DecisionTree" boostWeight="1.0000000000000000e+00" itree="321">
      <Node pos="s" depth="0" NCoef="0" IVar="11" Cut="1.1424642801284790e+00" cType="1" res="-7.9243298387154937e-05" rms="2.8654509782791138e-01" purity="5.0052177906036377e-01" nType="0">
        <Node pos="l" depth="1" NCoef="0" IVar="7" Cut="1.9825847446918488e-01" cType="1" res="1.3910924317315221e-03" rms="2.8511533141136169e-01" purity="4.8450574278831482e-01" nType="0">
          <Node pos="l" depth="2" NCoef="0" IVar="9" Cut="-9.3282204866409302e-01" cType="1" res="5.6016608141362667e-03" rms="2.9046717286109924e-01" purity="5.1810216903686523e-01" nType="0">
            <Node pos="l" depth="3" NCoef="0" IVar="-1" Cut="0.0000000000000000e+00" cType="1" res="1.9709831103682518e-02" rms="2.9878747463226318e-01" purity="4.0211513638496399e-01" nType="-99"/>
            <Node pos="r" depth="3" NCoef="0" IVar="-1" Cut="0.0000000000000000e+00" cType="1" res="2.6508010923862457e-03" rms="2.8805443644523621e-01" purity="5.4987078905105591e-01" nType="-99"/>
          </Node>
          <Node pos="r" depth="2" NCoef="0" IVar="8" Cut="1.4667046070098877e+00" cType="1" res="-4.8146615736186504e-03" rms="2.7692240476608276e-01" purity="4.3498957157135010e-01" nType="0">
            <Node pos="l" depth="3" NCoef="0" IVar="-1" Cut="0.0000000000000000e+00" cType="1" res="-8.0526489764451981e-03" rms="2.8036412596702576e-01" purity="4.6008896827697754e-01" nType="-99"/>
            <Node pos="r" depth="3" NCoef="0" IVar="-1" Cut="0.0000000000000000e+00" cType="1" res="2.8312664479017258e-02" rms="2.3473359644412994e-01" purity="1.5841199457645416e-01" nType="-99"/>
          </Node>
        </Node>
        <Node pos="r" depth="1" NCoef="0" IVar="0" Cut="1.5182891845703125e+03" cType="1" res="-1.4825589023530483e-02" rms="3.0011031031608582e-01" purity="6.6115039587020874e-01" nType="0">
          <Node pos="l" depth="2" NCoef="0" IVar="-1" Cut="0.0000000000000000e+00" cType="1" res="-2.8895966708660126e-02" rms="3.2946440577507019e-01" purity="3.7586086988449097e-01" nType="-99"/>
          <Node pos="r" depth="2" NCoef="0" IVar="-1" Cut="0.0000000000000000e+00" cType="1" res="-4.6175690367817879e-03" rms="2.7938523888587952e-01" purity="8.4135925769805908e-01" nType="-99"/>
        </Node>
      </Node>
    </BinaryTree>
    <BinaryTree type="DecisionTree" boostWeight="1.0000000000000000e+00" itree="322">
      <Node pos="s" depth="0" NCoef="0" IVar="9" Cut="1.4666531085968018e+00" cType="1" res="8.2317501073703170e-04" rms="2.8739488124847412e-01" purity="4.9968242645263672e-01" nType="0">
        <Node pos="l" depth="1" NCoef="0" IVar="7" Cut="-1.4285942316055298e+00" cType="1" res="-4.9335957737639546e-04" rms="2.8921332955360413e-01" purity="5.2557939291000366e-01" nType="0">
          <Node pos="l" depth="2" NCoef="0" IVar="7" Cut="-1.8061467409133911e+00" cType="1" res="-1.0989766567945480e-02" rms="1.9265601038932800e-01" purity="9.2498496174812317e-02" nType="0">
            <Node pos="l" depth="3" NCoef="0" IVar="-1" Cut="0.0000000000000000e+00" cType="1" res="-9.3062752857804298e-03" rms="1.5599989891052246e-01" purity="8.0009900033473969e-02" nType="-99"/>
            <Node pos="r" depth="3" NCoef="0" IVar="-1" Cut="0.0000000000000000e+00" cType="1" res="-3.3090006560087204e-02" rms="2.2249713540077209e-01" purity="1.0471801459789276e-01" nType="-99"/>
          </Node>
          <Node pos="r" depth="2" NCoef="0" IVar="7" Cut="-1.2271548509597778e+00" cType="1" res="2.1976036077830940e-04" rms="2.9461404681205750e-01" purity="5.5500262975692749e-01" nType="0">
            <Node pos="l" depth="3" NCoef="0" IVar="-1" Cut="0.0000000000000000e+00" cType="1" res="2.7447503060102463e-02" rms="3.0481022596359253e-01" purity="3.1670004129409790e-01" nType="-99"/>
            <Node pos="r" depth="3" NCoef="0" IVar="-1" Cut="0.0000000000000000e+00" cType="1" res="-5.7283224305137992e-04" rms="2.9426640272140503e-01" purity="5.6230157613754272e-01" nType="-99"/>
          </Node>
        </Node>
        <Node pos="r" depth="1" NCoef="0" IVar="1" Cut="3.7732031196355820e-02" cType="1" res="1.4588117599487305e-02" rms="2.6725521683692932e-01" purity="2.2891835868358612e-01" nType="0">
          <Node pos="l" depth="2" NCoef="0" IVar="7" Cut="2.1390616893768311e-01" cType="1" res="5.2219646750018001e-04" rms="2.1495458483695984e-01" purity="8.0200143158435822e-02" nType="0">
            <Node pos="l" depth="3" NCoef="0" IVar="-1" Cut="0.0000000000000000e+00" cType="1" res="-4.7251150012016296e-02" rms="1.8390840291976929e-01" purity="4.9507711082696915e-02" nType="-99"/>
            <Node pos="r" depth="3" NCoef="0" IVar="-1" Cut="0.0000000000000000e+00" cType="1" res="3.8726083934307098e-02" rms="2.4006116390228271e-01" purity="1.1017573624849319e-01" nType="-99"/>
          </Node>
          <Node pos="r" depth="2" NCoef="0" IVar="-1" Cut="0.0000000000000000e+00" cType="1" res="3.3133640885353088e-02" rms="3.2592689990997314e-01" purity="4.3809607625007629e-01" nType="-99"/>
        </Node>
      </Node>
    </BinaryTree>
    <BinaryTree type="DecisionTree" boostWeight="1.0000000000000000e+00" itree="323">
      <Node pos="s" depth="0" NCoef="0" IVar="6" Cut="6.6419250488281250e+01" cType="1" res="-2.1334216580726206e-04" rms="2.8900596499443054e-01" purity="4.9587094783782959e-01" nType="0">
        <Node pos="l" depth="1" NCoef="0" IVar="11" Cut="8.6613017320632935e-01" cType="1" res="2.7047861367464066e-03" rms="3.0737844109535217e-01" purity="3.0858537554740906e-01" nType="0">
          <Node pos="l" depth="2" NCoef="0" IVar="4" Cut="2.1750732421875000e+02" cType="1" res="1.1200177250429988e-03" rms="3.0430251359939575e-01" purity="2.9374882578849792e-01" nType="0">
            <Node pos="l" depth="3" NCoef="0" IVar="-1" Cut="0.0000000000000000e+00" cType="1" res="-1.1762169888243079e-03" rms="2.9752770066261292e-01" purity="2.3750294744968414e-01" nType="-99"/>
            <Node pos="r" depth="3" NCoef="0" IVar="-1" Cut="0.0000000000000000e+00" cType="1" res="1.2941445223987103e-02" rms="3.4615635871887207e-01" purity="6.7267769575119019e-01" nType="-99"/>
          </Node>
          <Node pos="r" depth="2" NCoef="0" IVar="-1" Cut="0.0000000000000000e+00" cType="1" res="1.9304996356368065e-02" rms="3.4270340204238892e-01" purity="4.9297487735748291e-01" nType="-99"/>
        </Node>
        <Node pos="r" depth="1" NCoef="0" IVar="9" Cut="1.1995631456375122e+00" cType="1" res="-5.8412356302142143e-03" rms="2.4968907237052917e-01" purity="8.5706931352615356e-01" nType="0">
          <Node pos="l" depth="2" NCoef="0" IVar="10" Cut="9.3278938531875610e-01" cType="1" res="-3.3929632045328617e-03" rms="2.4438171088695526e-01" purity="8.7651437520980835e-01" nType="0">
            <Node pos="l" depth="3" NCoef="0" IVar="-1" Cut="0.0000000000000000e+00" cType="1" res="-2.7703723753802478e-04" rms="2.3883984982967377e-01" purity="8.8821703195571899e-01" nType="-99"/>
            <Node pos="r" depth="3" NCoef="0" IVar="-1" Cut="0.0000000000000000e+00" cType="1" res="-2.7022888883948326e-02" rms="2.6779380440711975e-01" purity="8.2294631004333496e-01" nType="-99"/>
          </Node>
          <Node pos="r" depth="2" NCoef="0" IVar="-1" Cut="0.0000000000000000e+00" cType="1" res="-3.2525882124900818e-02" rms="2.9939550161361694e-01" purity="6.4911735057830811e-01" nType="-99"/>
        </Node>
      </Node>
    </BinaryTree>
    <BinaryTree type="DecisionTree" boostWeight="1.0000000000000000e+00" itree="324">
      <Node pos="s" depth="0" NCoef="0" IVar="10" Cut="-1.7333379983901978e+00" cType="1" res="1.2503125471994281e-03" rms="2.8522250056266785e-01" purity="4.9866929650306702e-01" nType="0">
        <Node pos="l" depth="1" NCoef="0" IVar="5" Cut="6.0826423645019531e+01" cType="1" res="-1.3691839762032032e-02" rms="2.7562388777732849e-01" purity="2.7904897928237915e-01" nType="0">
          <Node pos="l" depth="2" NCoef="0" IVar="-1" Cut="0.0000000000000000e+00" cType="1" res="8.2492604851722717e-03" rms="2.3030032217502594e-01" purity="1.1770719289779663e-01" nType="-99"/>
          <Node pos="r" depth="2" NCoef="0" IVar="-1" Cut="0.0000000000000000e+00" cType="1" res="-2.4891981855034828e-02" rms="2.9959878325462341e-01" purity="3.7845009565353394e-01" nType="-99"/>
        </Node>
        <Node pos="r" depth="1" NCoef="0" IVar="4" Cut="1.3503230285644531e+02" cType="1" res="2.5010688696056604e-03" rms="2.8597593307495117e-01" purity="5.1705294847488403e-01" nType="0">
          <Node pos="l" depth="2" NCoef="0" IVar="1" Cut="3.8181237876415253e-02" cType="1" res="7.4295545928180218e-03" rms="2.7554646134376526e-01" purity="1.9961044192314148e-01" nType="0">
            <Node pos="l" depth="3" NCoef="0" IVar="-1" Cut="0.0000000000000000e+00" cType="1" res="-6.6803717345464975e-05" rms="2.1029675006866455e-01" purity="7.1442499756813049e-02" nType="-99"/>
            <Node pos="r" depth="3" NCoef="0" IVar="-1" Cut="0.0000000000000000e+00" cType="1" res="1.5353718772530556e-02" rms="3.4370592236518860e-01" purity="3.7096023559570312e-01" nType="-99"/>
          </Node>
          <Node pos="r" depth="2" NCoef="0" IVar="9" Cut="-1.1994366645812988e+00" cType="1" res="-4.7423178330063820e-04" rms="2.9205167293548584e-01" purity="7.0869129896163940e-01" nType="0">
            <Node pos="l" depth="3" NCoef="0" IVar="-1" Cut="0.0000000000000000e+00" cType="1" res="-2.2941311821341515e-02" rms="3.0752843618392944e-01" purity="4.5536684989929199e-01" nType="-99"/>
            <Node pos="r" depth="3" NCoef="0" IVar="-1" Cut="0.0000000000000000e+00" cType="1" res="2.1061229053884745e-03" rms="2.9034450650215149e-01" purity="7.3423963785171509e-01" nType="-99"/>
          </Node>
        </Node>
      </Node>
    </BinaryTree>
    <BinaryTree type="DecisionTree" boostWeight="1.0000000000000000e+00" itree="325">
      <Node pos="s" depth="0" NCoef="0" IVar="10" Cut="-1.7334388494491577e+00" cType="1" res="-6.4400701376143843e-05" rms="2.8888490796089172e-01" purity="5.0309890508651733e-01" nType="0">
        <Node pos="l" depth="1" NCoef="0" IVar="2" Cut="3.2335461425781250e+02" cType="1" res="1.6175039112567902e-02" rms="3.0338630080223083e-01" purity="3.1613495945930481e-01" nType="0">
          <Node pos="l" depth="2" NCoef="0" IVar="-1" Cut="0.0000000000000000e+00" cType="1" res="1.7093768110498786e-03" rms="2.8068846464157104e-01" purity="2.3799051344394684e-01" nType="-99"/>
          <Node pos="r" depth="2" NCoef="0" IVar="-1" Cut="0.0000000000000000e+00" cType="1" res="3.2074749469757080e-02" rms="3.2145285606384277e-01" purity="3.8480037450790405e-01" nType="-99"/>
        </Node>
        <Node pos="r" depth="1" NCoef="0" IVar="10" Cut="1.5042572021484375e+00" cType="1" res="-1.3987006386741996e-03" rms="2.8762015700340271e-01" purity="5.1846069097518921e-01" nType="0">
          <Node pos="l" depth="2" NCoef="0" IVar="11" Cut="5.9037846326828003e-01" cType="1" res="6.3621359004173428e-05" rms="2.8807300329208374e-01" purity="5.4296034574508667e-01" nType="0">
            <Node pos="l" depth="3" NCoef="0" IVar="-1" Cut="0.0000000000000000e+00" cType="1" res="2.3664443287998438e-03" rms="2.8937974572181702e-01" purity="5.0380581617355347e-01" nType="-99"/>
            <Node pos="r" depth="3" NCoef="0" IVar="-1" Cut="0.0000000000000000e+00" cType="1" res="-1.1480743996798992e-02" rms="2.8148058056831360e-01" purity="7.3229050636291504e-01" nType="-99"/>
          </Node>
          <Node pos="r" depth="2" NCoef="0" IVar="7" Cut="-8.7579622864723206e-02" cType="1" res="-1.2308227829635143e-02" rms="2.8398153185844421e-01" purity="3.3568298816680908e-01" nType="0">
            <Node pos="l" depth="3" NCoef="0" IVar="-1" Cut="0.0000000000000000e+00" cType="1" res="-3.5854708403348923e-02" rms="2.7776592969894409e-01" purity="2.9532003402709961e-01" nType="-99"/>
            <Node pos="r" depth="3" NCoef="0" IVar="-1" Cut="0.0000000000000000e+00" cType="1" res="-1.2898746645078063e-03" rms="2.8762659430503845e-01" purity="3.6332380771636963e-01" nType="-99"/>
          </Node>
        </Node>
      </Node>
    </BinaryTree>
    <BinaryTree type="DecisionTree" boostWeight="1.0000000000000000e+00" itree="326">
      <Node pos="s" depth="0" NCoef="0" IVar="8" Cut="9.3329304456710815e-01" cType="1" res="-1.4568993356078863e-03" rms="2.8404882550239563e-01" purity="5.0158673524856567e-01" nType="0">
        <Node pos="l" depth="1" NCoef="0" IVar="8" Cut="-8.4440433979034424e-01" cType="1" res="7.1082683280110359e-04" rms="2.8882738947868347e-01" purity="5.4897534847259521e-01" nType="0">
          <Node pos="l" depth="2" NCoef="0" IVar="8" Cut="-1.6825040578842163e+00" cType="1" res="-8.7676243856549263e-03" rms="2.7283111214637756e-01" purity="3.1796339154243469e-01" nType="0">
            <Node pos="l" depth="3" NCoef="0" IVar="-1" Cut="0.0000000000000000e+00" cType="1" res="7.6734642498195171e-03" rms="2.1693384647369385e-01" purity="1.2421716004610062e-01" nType="-99"/>
            <Node pos="r" depth="3" NCoef="0" IVar="-1" Cut="0.0000000000000000e+00" cType="1" res="-1.5650905668735504e-02" rms="2.9158991575241089e-01" purity="3.9349162578582764e-01" nType="-99"/>
          </Node>
          <Node pos="r" depth="2" NCoef="0" IVar="8" Cut="1.7144869267940521e-01" cType="1" res="3.5833562724292278e-03" rms="2.9344263672828674e-01" purity="6.1898565292358398e-01" nType="0">
            <Node pos="l" depth="3" NCoef="0" IVar="-1" Cut="0.0000000000000000e+00" cType="1" res="1.0346744209527969e-02" rms="2.9458016157150269e-01" purity="6.2479734420776367e-01" nType="-99"/>
            <Node pos="r" depth="3" NCoef="0" IVar="-1" Cut="0.0000000000000000e+00" cType="1" res="-4.8276092857122421e-03" rms="2.9159453511238098e-01" purity="6.1050450801849365e-01" nType="-99"/>
          </Node>
        </Node>
        <Node pos="r" depth="1" NCoef="0" IVar="3" Cut="1.7752314758300781e+02" cType="1" res="-1.1752952821552753e-02" rms="2.5990957021713257e-01" purity="2.7650502324104309e-01" nType="0">
          <Node pos="l" depth="2" NCoef="0" IVar="0" Cut="1.1750417480468750e+03" cType="1" res="5.4806997068226337e-03" rms="2.2643032670021057e-01" purity="1.4223787188529968e-01" nType="0">
            <Node pos="l" depth="3" NCoef="0" IVar="-1" Cut="0.0000000000000000e+00" cType="1" res="-2.9728326946496964e-02" rms="1.6087749600410461e-01" purity="3.6004394292831421e-02" nType="-99"/>
            <Node pos="r" depth="3" NCoef="0" IVar="-1" Cut="0.0000000000000000e+00" cType="1" res="3.4833095967769623e-02" rms="3.0535495281219482e-01" purity="3.2255932688713074e-01" nType="-99"/>
          </Node>
          <Node pos="r" depth="2" NCoef="0" IVar="1" Cut="4.0184512734413147e-02" cType="1" res="-2.3975849151611328e-02" rms="2.8060841560363770e-01" purity="3.7173345685005188e-01" nType="0">
            <Node pos="l" depth="3" NCoef="0" IVar="-1" Cut="0.0000000000000000e+00" cType="1" res="-1.8055181950330734e-02" rms="2.4841111898422241e-01" purity="1.5270115435123444e-01" nType="-99"/>
            <Node pos="r" depth="3" NCoef="0" IVar="-1" Cut="0.0000000000000000e+00" cType="1" res="-3.4530106931924820e-02" rms="3.1364914774894714e-01" purity="6.2811559438705444e-01" nType="-99"/>
          </Node>
        </Node>
      </Node>
    </BinaryTree>
    <BinaryTree type="DecisionTree" boostWeight="1.0000000000000000e+00" itree="327">
      <Node pos="s" depth="0" NCoef="0" IVar="8" Cut="1.3326278328895569e-01" cType="1" res="-3.1213765032589436e-03" rms="2.8605282306671143e-01" purity="4.9443292617797852e-01" nType="0">
        <Node pos="l" depth="1" NCoef="0" IVar="2" Cut="6.3791265869140625e+02" cType="1" res="-6.9104786962270737e-03" rms="2.8607797622680664e-01" purity="5.0832390785217285e-01" nType="0">
          <Node pos="l" depth="2" NCoef="0" IVar="9" Cut="1.1999262571334839e+00" cType="1" res="-5.0894315354526043e-03" rms="2.8318732976913452e-01" purity="5.0463086366653442e-01" nType="0">
            <Node pos="l" depth="3" NCoef="0" IVar="-1" Cut="0.0000000000000000e+00" cType="1" res="-8.7626688182353973e-03" rms="2.8396406769752502e-01" purity="5.3269422054290771e-01" nType="-99"/>
            <Node pos="r" depth="3" NCoef="0" IVar="-1" Cut="0.0000000000000000e+00" cType="1" res="1.5236198902130127e-02" rms="2.7654036879539490e-01" purity="2.8715053200721741e-01" nType="-99"/>
          </Node>
          <Node pos="r" depth="2" NCoef="0" IVar="-1" Cut="0.0000000000000000e+00" cType="1" res="-3.0269032344222069e-02" rms="3.2306069135665894e-01" purity="5.6047141551971436e-01" nType="-99"/>
        </Node>
        <Node pos="r" depth="1" NCoef="0" IVar="9" Cut="4.0038889646530151e-01" cType="1" res="1.4725979417562485e-03" rms="2.8595498204231262e-01" purity="4.7759109735488892e-01" nType="0">
          <Node pos="l" depth="2" NCoef="0" IVar="9" Cut="-2.0917332172393799e-01" cType="1" res="5.7850289158523083e-03" rms="2.9074910283088684e-01" purity="5.1572841405868530e-01" nType="0">
            <Node pos="l" depth="3" NCoef="0" IVar="-1" Cut="0.0000000000000000e+00" cType="1" res="-3.3595035783946514e-03" rms="2.8868681192398071e-01" purity="4.5567736029624939e-01" nType="-99"/>
            <Node pos="r" depth="3" NCoef="0" IVar="-1" Cut="0.0000000000000000e+00" cType="1" res="2.3387394845485687e-02" rms="2.9367136955261230e-01" purity="6.1911904811859131e-01" nType="-99"/>
          </Node>
          <Node pos="r" depth="2" NCoef="0" IVar="8" Cut="1.1489030122756958e+00" cType="1" res="-5.2035534754395485e-03" rms="2.7823847532272339e-01" purity="4.1855016350746155e-01" nType="0">
            <Node pos="l" depth="3" NCoef="0" IVar="-1" Cut="0.0000000000000000e+00" cType="1" res="-1.9503310322761536e-02" rms="2.8750026226043701e-01" purity="5.1439708471298218e-01" nType="-99"/>
            <Node pos="r" depth="3" NCoef="0" IVar="-1" Cut="0.0000000000000000e+00" cType="1" res="3.0694808810949326e-02" rms="2.5618374347686768e-01" purity="2.2024038434028625e-01" nType="-99"/>
          </Node>
        </Node>
      </Node>
    </BinaryTree>
    <BinaryTree type="DecisionTree" boostWeight="1.0000000000000000e+00" itree="328">
      <Node pos="s" depth="0" NCoef="0" IVar="7" Cut="4.0470051765441895e-01" cType="1" res="-1.6043805517256260e-03" rms="2.8592476248741150e-01" purity="4.9464210867881775e-01" nType="0">
        <Node pos="l" depth="1" NCoef="0" IVar="10" Cut="9.3325215578079224e-01" cType="1" res="-4.2279008775949478e-03" rms="2.8748962283134460e-01" purity="5.3707724809646606e-01" nType="0">
          <Node pos="l" depth="2" NCoef="0" IVar="0" Cut="1.9836251220703125e+03" cType="1" res="-7.2304508648812771e-03" rms="2.8326466679573059e-01" purity="5.5487710237503052e-01" nType="0">
            <Node pos="l" depth="3" NCoef="0" IVar="-1" Cut="0.0000000000000000e+00" cType="1" res="-1.1265078559517860e-02" rms="2.9656881093978882e-01" purity="4.5567733049392700e-01" nType="-99"/>
            <Node pos="r" depth="3" NCoef="0" IVar="-1" Cut="0.0000000000000000e+00" cType="1" res="8.7110251188278198e-03" rms="2.2860620915889740e-01" purity="9.1234004497528076e-01" nType="-99"/>
          </Node>
          <Node pos="r" depth="2" NCoef="0" IVar="0" Cut="1.5779512939453125e+03" cType="1" res="7.2261984460055828e-03" rms="3.0279317498207092e-01" purity="4.6917459368705750e-01" nType="0">
            <Node pos="l" depth="3" NCoef="0" IVar="-1" Cut="0.0000000000000000e+00" cType="1" res="1.6767723485827446e-02" rms="3.0187955498695374e-01" purity="2.7391657233238220e-01" nType="-99"/>
            <Node pos="r" depth="3" NCoef="0" IVar="-1" Cut="0.0000000000000000e+00" cType="1" res="-6.7790783941745758e-03" rms="3.0378270149230957e-01" purity="7.7651268243789673e-01" nType="-99"/>
          </Node>
        </Node>
        <Node pos="r" depth="1" NCoef="0" IVar="9" Cut="9.3214201927185059e-01" cType="1" res="3.8983412086963654e-03" rms="2.8253525495529175e-01" purity="4.0563613176345825e-01" nType="0">
          <Node pos="l" depth="2" NCoef="0" IVar="9" Cut="5.7665926218032837e-01" cType="1" res="-6.5815116977319121e-04" rms="2.8474798798561096e-01" purity="4.3870905041694641e-01" nType="0">
            <Node pos="l" depth="3" NCoef="0" IVar="-1" Cut="0.0000000000000000e+00" cType="1" res="4.0931515395641327e-03" rms="2.8382974863052368e-01" purity="4.3738374114036560e-01" nType="-99"/>
            <Node pos="r" depth="3" NCoef="0" IVar="-1" Cut="0.0000000000000000e+00" cType="1" res="-3.1691640615463257e-02" rms="2.8902980685234070e-01" purity="4.4667354226112366e-01" nType="-99"/>
          </Node>
          <Node pos="r" depth="2" NCoef="0" IVar="8" Cut="6.6660934686660767e-01" cType="1" res="1.8098244443535805e-02" rms="2.7504175901412964e-01" purity="3.0256736278533936e-01" nType="0">
            <Node pos="l" depth="3" NCoef="0" IVar="-1" Cut="0.0000000000000000e+00" cType="1" res="1.0771882720291615e-02" rms="2.8058749437332153e-01" purity="3.2659488916397095e-01" nType="-99"/>
            <Node pos="r" depth="3" NCoef="0" IVar="-1" Cut="0.0000000000000000e+00" cType="1" res="5.0230216234922409e-02" rms="2.6300451159477234e-01" purity="2.5603798031806946e-01" nType="-99"/>
          </Node>
        </Node>
      </Node>
    </BinaryTree>
    <BinaryTree type="DecisionTree" boostWeight="1.0000000000000000e+00" itree="329">
      <Node pos="s" depth="0" NCoef="0" IVar="9" Cut="-1.2000005245208740e+00" cType="1" res="-6.8454514257609844e-04" rms="2.8624370694160461e-01" purity="5.0045412778854370e-01" nType="0">
        <Node pos="l" depth="1" NCoef="0" IVar="0" Cut="1.2795357666015625e+03" cType="1" res="8.9695779606699944e-03" rms="2.8688639402389526e-01" purity="2.8472590446472168e-01" nType="0">
          <Node pos="l" depth="2" NCoef="0" IVar="-1" Cut="0.0000000000000000e+00" cType="1" res="-8.8293338194489479e-03" rms="2.2376288473606110e-01" purity="8.3092264831066132e-02" nType="-99"/>
          <Node pos="r" depth="2" NCoef="0" IVar="11" Cut="-7.9159927368164062e-01" cType="1" res="2.1488744765520096e-02" rms="3.3324021100997925e-01" purity="4.6660372614860535e-01" nType="0">
            <Node pos="l" depth="3" NCoef="0" IVar="-1" Cut="0.0000000000000000e+00" cType="1" res="3.1700104475021362e-02" rms="3.3921521902084351e-01" purity="3.5488349199295044e-01" nType="-99"/>
            <Node pos="r" depth="3" NCoef="0" IVar="-1" Cut="0.0000000000000000e+00" cType="1" res="-4.1068723658099771e-04" rms="3.2235944271087646e-01" purity="6.4313614368438721e-01" nType="-99"/>
          </Node>
        </Node>
        <Node pos="r" depth="1" NCoef="0" IVar="10" Cut="-1.9999928474426270e+00" cType="1" res="-2.1304432302713394e-03" rms="2.8611928224563599e-01" purity="5.3276371955871582e-01" nType="0">
          <Node pos="l" depth="2" NCoef="0" IVar="-1" Cut="0.0000000000000000e+00" cType="1" res="-2.9197974130511284e-02" rms="2.8183460235595703e-01" purity="2.5335559248924255e-01" nType="-99"/>
          <Node pos="r" depth="2" NCoef="0" IVar="11" Cut="1.6952279806137085e+00" cType="1" res="-1.0947888949885964e-03" rms="2.8625893592834473e-01" purity="5.4489856958389282e-01" nType="0">
            <Node pos="l" depth="3" NCoef="0" IVar="-1" Cut="0.0000000000000000e+00" cType="1" res="-4.7050180728547275e-04" rms="2.8622740507125854e-01" purity="5.4146450757980347e-01" nType="-99"/>
            <Node pos="r" depth="3" NCoef="0" IVar="-1" Cut="0.0000000000000000e+00" cType="1" res="-1.7946247011423111e-02" rms="2.8650566935539246e-01" purity="6.2415432929992676e-01" nType="-99"/>
          </Node>
        </Node>
      </Node>
    </BinaryTree>
    <BinaryTree type="DecisionTree" boostWeight="1.0000000000000000e+00" itree="330">
      <Node pos="s" depth="0" NCoef="0" IVar="6" Cut="6.6419250488281250e+01" cType="1" res="1.8478560959920287e-03" rms="2.8909558057785034e-01" purity="4.9664545059204102e-01" nType="0">
        <Node pos="l" depth="1" NCoef="0" IVar="8" Cut="9.3304842710494995e-01" cType="1" res="-1.3260719133540988e-03" rms="3.0982923507690430e-01" purity="3.0392050743103027e-01" nType="0">
          <Node pos="l" depth="2" NCoef="0" IVar="6" Cut="6.0093318939208984e+01" cType="1" res="1.8947290955111384e-03" rms="3.2296431064605713e-01" purity="3.4323954582214355e-01" nType="0">
            <Node pos="l" depth="3" NCoef="0" IVar="-1" Cut="0.0000000000000000e+00" cType="1" res="4.4309454970061779e-03" rms="3.2184559106826782e-01" purity="3.1101876497268677e-01" nType="-99"/>
            <Node pos="r" depth="3" NCoef="0" IVar="-1" Cut="0.0000000000000000e+00" cType="1" res="-1.9209979102015495e-02" rms="3.3205404877662659e-01" purity="6.3596260547637939e-01" nType="-99"/>
          </Node>
          <Node pos="r" depth="2" NCoef="0" IVar="0" Cut="1.2859974365234375e+03" cType="1" res="-1.4628794044256210e-02" rms="2.4788005650043488e-01" purity="1.4152291417121887e-01" nType="0">
            <Node pos="l" depth="3" NCoef="0" IVar="-1" Cut="0.0000000000000000e+00" cType="1" res="-1.6139239072799683e-02" rms="1.9471956789493561e-01" purity="5.4684665054082870e-02" nType="-99"/>
            <Node pos="r" depth="3" NCoef="0" IVar="-1" Cut="0.0000000000000000e+00" cType="1" res="-2.4514075368642807e-02" rms="3.0672535300254822e-01" purity="2.6270249485969543e-01" nType="-99"/>
          </Node>
        </Node>
        <Node pos="r" depth="1" NCoef="0" IVar="9" Cut="-1.2007139921188354e+00" cType="1" res="7.9141100868582726e-03" rms="2.4451208114624023e-01" purity="8.6499601602554321e-01" nType="0">
          <Node pos="l" depth="2" NCoef="0" IVar="-1" Cut="0.0000000000000000e+00" cType="1" res="3.4629292786121368e-02" rms="3.2503840327262878e-01" purity="7.3631161451339722e-01" nType="-99"/>
          <Node pos="r" depth="2" NCoef="0" IVar="3" Cut="2.0940815734863281e+02" cType="1" res="4.7730533406138420e-03" rms="2.3468650877475739e-01" purity="8.7790316343307495e-01" nType="0">
            <Node pos="l" depth="3" NCoef="0" IVar="-1" Cut="0.0000000000000000e+00" cType="1" res="2.0948424935340881e-02" rms="2.7202087640762329e-01" purity="7.9296642541885376e-01" nType="-99"/>
            <Node pos="r" depth="3" NCoef="0" IVar="-1" Cut="0.0000000000000000e+00" cType="1" res="2.0039983792230487e-04" rms="2.1906584501266479e-01" purity="9.0936428308486938e-01" nType="-99"/>
          </Node>
        </Node>
      </Node>
    </BinaryTree>
    <BinaryTree type="DecisionTree" boostWeight="1.0000000000000000e+00" itree="331">
      <Node pos="s" depth="0" NCoef="0" IVar="7" Cut="-6.6001611948013306e-01" cType="1" res="2.9426903929561377e-03" rms="2.8867018222808838e-01" purity="5.0392925739288330e-01" nType="0">
        <Node pos="l" depth="1" NCoef="0" IVar="7" Cut="-9.6414095163345337e-01" cType="1" res="1.1974904686212540e-02" rms="2.7947729825973511e-01" purity="3.4930512309074402e-01" nType="0">
          <Node pos="l" depth="2" NCoef="0" IVar="4" Cut="1.2416834259033203e+02" cType="1" res="4.5249294489622116e-03" rms="2.5433251261711121e-01" purity="2.3675593733787537e-01" nType="0">
            <Node pos="l" depth="3" NCoef="0" IVar="-1" Cut="0.0000000000000000e+00" cType="1" res="-2.8579376637935638e-02" rms="1.5238565206527710e-01" purity="3.8535814732313156e-02" nType="-99"/>
            <Node pos="r" depth="3" NCoef="0" IVar="-1" Cut="0.0000000000000000e+00" cType="1" res="1.5083443373441696e-02" rms="3.0845123529434204e-01" purity="3.8340294361114502e-01" nType="-99"/>
          </Node>
          <Node pos="r" depth="2" NCoef="0" IVar="10" Cut="-3.9973631501197815e-01" cType="1" res="2.4465980008244514e-02" rms="3.1680199503898621e-01" purity="5.3801178932189941e-01" nType="0">
            <Node pos="l" depth="3" NCoef="0" IVar="-1" Cut="0.0000000000000000e+00" cType="1" res="4.2305812239646912e-02" rms="3.1627392768859863e-01" purity="5.5463993549346924e-01" nType="-99"/>
            <Node pos="r" depth="3" NCoef="0" IVar="-1" Cut="0.0000000000000000e+00" cType="1" res="1.0167516767978668e-02" rms="3.1654319167137146e-01" purity="5.2366399765014648e-01" nType="-99"/>
          </Node>
        </Node>
        <Node pos="r" depth="1" NCoef="0" IVar="9" Cut="-4.0000647306442261e-01" cType="1" res="3.7359361886046827e-04" rms="2.9118081927299500e-01" purity="5.4791015386581421e-01" nType="0">
          <Node pos="l" depth="2" NCoef="0" IVar="2" Cut="3.1284432983398438e+02" cType="1" res="6.9527062587440014e-03" rms="2.9796257615089417e-01" purity="5.1084256172180176e-01" nType="0">
            <Node pos="l" depth="3" NCoef="0" IVar="-1" Cut="0.0000000000000000e+00" cType="1" res="2.2130448371171951e-02" rms="3.0749028921127319e-01" purity="4.2762345075607300e-01" nType="-99"/>
            <Node pos="r" depth="3" NCoef="0" IVar="-1" Cut="0.0000000000000000e+00" cType="1" res="-6.5821368480101228e-04" rms="2.9181972146034241e-01" purity="5.6092333793640137e-01" nType="-99"/>
          </Node>
          <Node pos="r" depth="2" NCoef="0" IVar="0" Cut="1.4400944824218750e+03" cType="1" res="-2.9222802259027958e-03" rms="2.8766676783561707e-01" purity="5.6647950410842896e-01" nType="0">
            <Node pos="l" depth="3" NCoef="0" IVar="-1" Cut="0.0000000000000000e+00" cType="1" res="-1.0569004341959953e-02" rms="3.0549553036689758e-01" purity="2.4433904886245728e-01" nType="-99"/>
            <Node pos="r" depth="3" NCoef="0" IVar="-1" Cut="0.0000000000000000e+00" cType="1" res="3.5724493209272623e-03" rms="2.7323168516159058e-01" purity="8.1090337038040161e-01" nType="-99"/>
          </Node>
        </Node>
      </Node>
    </BinaryTree>
    <BinaryTree type="DecisionTree" boostWeight="1.0000000000000000e+00" itree="332">
      <Node pos="s" depth="0" NCoef="0" IVar="11" Cut="8.6656141281127930e-01" cType="1" res="1.2836307287216187e-03" rms="2.8479972481727600e-01" purity="5.0359272956848145e-01" nType="0">
        <Node pos="l" depth="1" NCoef="0" IVar="8" Cut="-6.6664439439773560e-01" cType="1" res="-1.3239403488114476e-03" rms="2.8218534588813782e-01" purity="4.7316551208496094e-01" nType="0">
          <Node pos="l" depth="2" NCoef="0" IVar="7" Cut="6.8554323911666870e-01" cType="1" res="-7.4821822345256805e-03" rms="2.7024471759796143e-01" purity="3.4842821955680847e-01" nType="0">
            <Node pos="l" depth="3" NCoef="0" IVar="-1" Cut="0.0000000000000000e+00" cType="1" res="-1.3823126442730427e-02" rms="2.8016886115074158e-01" purity="4.0133836865425110e-01" nType="-99"/>
            <Node pos="r" depth="3" NCoef="0" IVar="-1" Cut="0.0000000000000000e+00" cType="1" res="1.2950974516570568e-02" rms="2.3203502595424652e-01" purity="1.6506220400333405e-01" nType="-99"/>
          </Node>
          <Node pos="r" depth="2" NCoef="0" IVar="1" Cut="8.3502806723117828e-02" cType="1" res="7.7580538345500827e-04" rms="2.8611248731613159e-01" purity="5.1569658517837524e-01" nType="0">
            <Node pos="l" depth="3" NCoef="0" IVar="-1" Cut="0.0000000000000000e+00" cType="1" res="5.9601212851703167e-03" rms="2.9219156503677368e-01" purity="3.5105231404304504e-01" nType="-99"/>
            <Node pos="r" depth="3" NCoef="0" IVar="-1" Cut="0.0000000000000000e+00" cType="1" res="-8.3604501560330391e-03" rms="2.7537512779235840e-01" purity="7.9388833045959473e-01" nType="-99"/>
          </Node>
        </Node>
        <Node pos="r" depth="1" NCoef="0" IVar="4" Cut="1.3371398925781250e+02" cType="1" res="1.8934046849608421e-02" rms="3.0130881071090698e-01" purity="7.0955163240432739e-01" nType="0">
          <Node pos="l" depth="2" NCoef="0" IVar="-1" Cut="0.0000000000000000e+00" cType="1" res="3.7099074572324753e-02" rms="3.4390559792518616e-01" purity="4.4835886359214783e-01" nType="-99"/>
          <Node pos="r" depth="2" NCoef="0" IVar="9" Cut="1.3798610866069794e-01" cType="1" res="1.0294328443706036e-02" rms="2.8488960862159729e-01" purity="7.9822224378585815e-01" nType="0">
            <Node pos="l" depth="3" NCoef="0" IVar="-1" Cut="0.0000000000000000e+00" cType="1" res="2.8876328840851784e-02" rms="2.7929118275642395e-01" purity="8.2473695278167725e-01" nType="-99"/>
            <Node pos="r" depth="3" NCoef="0" IVar="-1" Cut="0.0000000000000000e+00" cType="1" res="-3.9507066830992699e-03" rms="2.8999283909797668e-01" purity="7.7053362131118774e-01" nType="-99"/>
          </Node>
        </Node>
      </Node>
    </BinaryTree>
    <BinaryTree type="DecisionTree" boostWeight="1.0000000000000000e+00" itree="333">
      <Node pos="s" depth="0" NCoef="0" IVar="6" Cut="5.4057559967041016e+01" cType="1" res="2.6388259138911963e-03" rms="2.8550744056701660e-01" purity="5.0548666715621948e-01" nType="0">
        <Node pos="l" depth="1" NCoef="0" IVar="2" Cut="4.5778692626953125e+02" cType="1" res="-1.4732195995748043e-03" rms="2.9904907941818237e-01" purity="2.4539232254028320e-01" nType="0">
          <Node pos="l" depth="2" NCoef="0" IVar="0" Cut="1.1168227539062500e+03" cType="1" res="-4.3017091229557991e-03" rms="2.9157653450965881e-01" purity="2.1391654014587402e-01" nType="0">
            <Node pos="l" depth="3" NCoef="0" IVar="-1" Cut="0.0000000000000000e+00" cType="1" res="1.1639145202934742e-02" rms="1.9314374029636383e-01" purity="4.6417087316513062e-02" nType="-99"/>
            <Node pos="r" depth="3" NCoef="0" IVar="-1" Cut="0.0000000000000000e+00" cType="1" res="-8.4990756586194038e-03" rms="3.4330120682716370e-01" purity="3.2949334383010864e-01" nType="-99"/>
          </Node>
          <Node pos="r" depth="2" NCoef="0" IVar="9" Cut="9.3332177400588989e-01" cType="1" res="7.6828324235975742e-03" rms="3.2188102602958679e-01" purity="3.4728193283081055e-01" nType="0">
            <Node pos="l" depth="3" NCoef="0" IVar="-1" Cut="0.0000000000000000e+00" cType="1" res="5.8654321037465706e-05" rms="3.2277768850326538e-01" purity="3.6612948775291443e-01" nType="-99"/>
            <Node pos="r" depth="3" NCoef="0" IVar="-1" Cut="0.0000000000000000e+00" cType="1" res="3.8323123008012772e-02" rms="3.1689721345901489e-01" purity="2.7692013978958130e-01" nType="-99"/>
          </Node>
        </Node>
        <Node pos="r" depth="1" NCoef="0" IVar="2" Cut="3.0478424072265625e+02" cType="1" res="7.1862651966512203e-03" rms="2.6966848969459534e-01" purity="7.9312038421630859e-01" nType="0">
          <Node pos="l" depth="2" NCoef="0" IVar="2" Cut="2.4489254760742188e+02" cType="1" res="1.7005316913127899e-02" rms="2.8712245821952820e-01" purity="7.4967175722122192e-01" nType="0">
            <Node pos="l" depth="3" NCoef="0" IVar="-1" Cut="0.0000000000000000e+00" cType="1" res="3.1599685549736023e-02" rms="3.0498078465461731e-01" purity="7.2373229265213013e-01" nType="-99"/>
            <Node pos="r" depth="3" NCoef="0" IVar="-1" Cut="0.0000000000000000e+00" cType="1" res="9.1478955000638962e-03" rms="2.7432379126548767e-01" purity="7.6675212383270264e-01" nType="-99"/>
          </Node>
          <Node pos="r" depth="2" NCoef="0" IVar="11" Cut="-1.1999380588531494e+00" cType="1" res="2.4384646676480770e-03" rms="2.6067778468132019e-01" purity="8.1412917375564575e-01" nType="0">
            <Node pos="l" depth="3" NCoef="0" IVar="-1" Cut="0.0000000000000000e+00" cType="1" res="-1.6836967319250107e-02" rms="2.8612476587295532e-01" purity="7.2776079177856445e-01" nType="-99"/>
            <Node pos="r" depth="3" NCoef="0" IVar="-1" Cut="0.0000000000000000e+00" cType="1" res="7.1015562862157822e-03" rms="2.5648722052574158e-01" purity="8.2726919651031494e-01" nType="-99"/>
          </Node>
        </Node>
      </Node>
    </BinaryTree>
    <BinaryTree type="DecisionTree" boostWeight="1.0000000000000000e+00" itree="334">
      <Node pos="s" depth="0" NCoef="0" IVar="4" Cut="1.6068252563476562e+02" cType="1" res="-6.9269404048100114e-04" rms="2.8521108627319336e-01" purity="4.9941784143447876e-01" nType="0">
        <Node pos="l" depth="1" NCoef="0" IVar="11" Cut="-1.0666707754135132e+00" cType="1" res="-5.4823500104248524e-03" rms="2.8517502546310425e-01" purity="2.6961520314216614e-01" nType="0">
          <Node pos="l" depth="2" NCoef="0" IVar="4" Cut="1.2410632324218750e+02" cType="1" res="9.3427411047741771e-04" rms="2.7004301548004150e-01" purity="1.6436399519443512e-01" nType="0">
            <Node pos="l" depth="3" NCoef="0" IVar="-1" Cut="0.0000000000000000e+00" cType="1" res="9.3077411875128746e-03" rms="2.3913457989692688e-01" purity="9.5928311347961426e-02" nType="-99"/>
            <Node pos="r" depth="3" NCoef="0" IVar="-1" Cut="0.0000000000000000e+00" cType="1" res="-6.7389365285634995e-03" rms="3.2377034425735474e-01" purity="3.0355396866798401e-01" nType="-99"/>
          </Node>
          <Node pos="r" depth="2" NCoef="0" IVar="10" Cut="6.6727465391159058e-01" cType="1" res="-2.1406399086117744e-02" rms="3.1909099221229553e-01" purity="5.3081566095352173e-01" nType="0">
            <Node pos="l" depth="3" NCoef="0" IVar="-1" Cut="0.0000000000000000e+00" cType="1" res="-1.1678815819323063e-02" rms="3.1839981675148010e-01" purity="5.6111931800842285e-01" nType="-99"/>
            <Node pos="r" depth="3" NCoef="0" IVar="-1" Cut="0.0000000000000000e+00" cType="1" res="-3.8043584674596786e-02" rms="3.1974408030509949e-01" purity="4.6420302987098694e-01" nType="-99"/>
          </Node>
        </Node>
        <Node pos="r" depth="1" NCoef="0" IVar="7" Cut="-5.7885980606079102e-01" cType="1" res="4.6274936757981777e-03" rms="2.8515684604644775e-01" purity="7.5467485189437866e-01" nType="0">
          <Node pos="l" depth="2" NCoef="0" IVar="10" Cut="3.9902320504188538e-01" cType="1" res="-9.7069321200251579e-03" rms="3.0100560188293457e-01" purity="6.1829215288162231e-01" nType="0">
            <Node pos="l" depth="3" NCoef="0" IVar="-1" Cut="0.0000000000000000e+00" cType="1" res="-3.6220548208802938e-03" rms="3.0111619830131531e-01" purity="6.4360952377319336e-01" nType="-99"/>
            <Node pos="r" depth="3" NCoef="0" IVar="-1" Cut="0.0000000000000000e+00" cType="1" res="-2.3286810144782066e-02" rms="3.0029657483100891e-01" purity="5.6287360191345215e-01" nType="-99"/>
          </Node>
          <Node pos="r" depth="2" NCoef="0" IVar="5" Cut="9.1452827453613281e+01" cType="1" res="8.4770964458584785e-03" rms="2.8062352538108826e-01" purity="7.9130125045776367e-01" nType="0">
            <Node pos="l" depth="3" NCoef="0" IVar="-1" Cut="0.0000000000000000e+00" cType="1" res="1.6288915649056435e-02" rms="3.5865432024002075e-01" purity="5.8893704414367676e-01" nType="-99"/>
            <Node pos="r" depth="3" NCoef="0" IVar="-1" Cut="0.0000000000000000e+00" cType="1" res="3.3236781600862741e-03" rms="2.2921907901763916e-01" purity="8.9709955453872681e-01" nType="-99"/>
          </Node>
        </Node>
      </Node>
    </BinaryTree>
    <BinaryTree type="DecisionTree" boostWeight="1.0000000000000000e+00" itree="335">
      <Node pos="s" depth="0" NCoef="0" IVar="10" Cut="1.3325425982475281e-01" cType="1" res="-2.1464160818140954e-04" rms="2.8466314077377319e-01" purity="4.9780878424644470e-01" nType="0">
        <Node pos="l" depth="1" NCoef="0" IVar="3" Cut="3.6037359619140625e+02" cType="1" res="-3.3707721158862114e-03" rms="2.8445371985435486e-01" purity="4.9606978893280029e-01" nType="0">
          <Node pos="l" depth="2" NCoef="0" IVar="10" Cut="-2.2412679195404053e+00" cType="1" res="-5.1441551186144352e-03" rms="2.8418949246406555e-01" purity="4.6105563640594482e-01" nType="0">
            <Node pos="l" depth="3" NCoef="0" IVar="-1" Cut="0.0000000000000000e+00" cType="1" res="1.7618518322706223e-02" rms="2.8947642445564270e-01" purity="2.1889498829841614e-01" nType="-99"/>
            <Node pos="r" depth="3" NCoef="0" IVar="-1" Cut="0.0000000000000000e+00" cType="1" res="-7.5192404910922050e-03" rms="2.8382825851440430e-01" purity="4.7562664747238159e-01" nType="-99"/>
          </Node>
          <Node pos="r" depth="2" NCoef="0" IVar="11" Cut="-1.0674071311950684e+00" cType="1" res="1.0245852172374725e-02" rms="2.8610831499099731e-01" purity="7.6491981744766235e-01" nType="0">
            <Node pos="l" depth="3" NCoef="0" IVar="-1" Cut="0.0000000000000000e+00" cType="1" res="1.9422266632318497e-02" rms="3.4170603752136230e-01" purity="6.0400074720382690e-01" nType="-99"/>
            <Node pos="r" depth="3" NCoef="0" IVar="-1" Cut="0.0000000000000000e+00" cType="1" res="9.1045023873448372e-04" rms="2.3246873915195465e-01" purity="8.9217066764831543e-01" nType="-99"/>
          </Node>
        </Node>
        <Node pos="r" depth="1" NCoef="0" IVar="5" Cut="8.7625602722167969e+01" cType="1" res="3.4607984125614166e-03" rms="2.8486278653144836e-01" purity="4.9983400106430054e-01" nType="0">
          <Node pos="l" depth="2" NCoef="0" IVar="5" Cut="8.0458808898925781e+01" cType="1" res="-1.2804622529074550e-03" rms="3.0128109455108643e-01" purity="2.6271480321884155e-01" nType="0">
            <Node pos="l" depth="3" NCoef="0" IVar="-1" Cut="0.0000000000000000e+00" cType="1" res="3.0173345003277063e-03" rms="2.9734966158866882e-01" purity="2.2790428996086121e-01" nType="-99"/>
            <Node pos="r" depth="3" NCoef="0" IVar="-1" Cut="0.0000000000000000e+00" cType="1" res="-2.4152737110853195e-02" rms="3.2654383778572083e-01" purity="5.1027333736419678e-01" nType="-99"/>
          </Node>
          <Node pos="r" depth="2" NCoef="0" IVar="10" Cut="1.5294077396392822e+00" cType="1" res="9.9306786432862282e-03" rms="2.6065719127655029e-01" purity="8.2340461015701294e-01" nType="0">
            <Node pos="l" depth="3" NCoef="0" IVar="-1" Cut="0.0000000000000000e+00" cType="1" res="1.9759599119424820e-02" rms="2.5016409158706665e-01" purity="8.5211426019668579e-01" nType="-99"/>
            <Node pos="r" depth="3" NCoef="0" IVar="-1" Cut="0.0000000000000000e+00" cType="1" res="-1.4887707307934761e-02" rms="3.1150072813034058e-01" purity="6.6399401426315308e-01" nType="-99"/>
          </Node>
        </Node>
      </Node>
    </BinaryTree>
    <BinaryTree type="DecisionTree" boostWeight="1.0000000000000000e+00" itree="336">
      <Node pos="s" depth="0" NCoef="0" IVar="10" Cut="-1.9999843835830688e+00" cType="1" res="-1.6042938223108649e-03" rms="2.8530201315879822e-01" purity="4.9718862771987915e-01" nType="0">
        <Node pos="l" depth="1" NCoef="0" IVar="-1" Cut="0.0000000000000000e+00" cType="1" res="2.5149513036012650e-02" rms="2.9017323255538940e-01" purity="2.7235564589500427e-01" nType="-99"/>
        <Node pos="r" depth="1" NCoef="0" IVar="10" Cut="7.4268394708633423e-01" cType="1" res="-2.6966957375407219e-03" rms="2.8501167893409729e-01" purity="5.0846493244171143e-01" nType="0">
          <Node pos="l" depth="2" NCoef="0" IVar="10" Cut="-3.0212473869323730e-01" cType="1" res="2.4170793767552823e-04" rms="2.8242662549018860e-01" purity="5.4217565059661865e-01" nType="0">
            <Node pos="l" depth="3" NCoef="0" IVar="-1" Cut="0.0000000000000000e+00" cType="1" res="-5.1503130234777927e-03" rms="2.8178605437278748e-01" purity="5.0819694995880127e-01" nType="-99"/>
            <Node pos="r" depth="3" NCoef="0" IVar="-1" Cut="0.0000000000000000e+00" cType="1" res="6.3484669663012028e-03" rms="2.8303417563438416e-01" purity="5.7890677452087402e-01" nType="-99"/>
          </Node>
          <Node pos="r" depth="2" NCoef="0" IVar="0" Cut="2.1462390136718750e+03" cType="1" res="-1.0159950703382492e-02" rms="2.9134121537208557e-01" purity="4.2284297943115234e-01" nType="0">
            <Node pos="l" depth="3" NCoef="0" IVar="-1" Cut="0.0000000000000000e+00" cType="1" res="-1.4280891045928001e-02" rms="2.9438892006874084e-01" purity="3.6972847580909729e-01" nType="-99"/>
            <Node pos="r" depth="3" NCoef="0" IVar="-1" Cut="0.0000000000000000e+00" cType="1" res="1.6752110794186592e-02" rms="2.6272559165954590e-01" purity="8.7990581989288330e-01" nType="-99"/>
          </Node>
        </Node>
      </Node>
    </BinaryTree>
    <BinaryTree type="DecisionTree" boostWeight="1.0000000000000000e+00" itree="337">
      <Node pos="s" depth="0" NCoef="0" IVar="10" Cut="-1.2000685930252075e+00" cType="1" res="5.9439532924443483e-04" rms="2.8747180104255676e-01" purity="4.9929931759834290e-01" nType="0">
        <Node pos="l" depth="1" NCoef="0" IVar="10" Cut="-1.3525378704071045e+00" cType="1" res="-1.5263300389051437e-02" rms="2.8470423817634583e-01" purity="3.5456126928329468e-01" nType="0">
          <Node pos="l" depth="2" NCoef="0" IVar="2" Cut="4.4669943237304688e+02" cType="1" res="-9.1042835265398026e-03" rms="2.8386121988296509e-01" purity="3.4375229477882385e-01" nType="0">
            <Node pos="l" depth="3" NCoef="0" IVar="-1" Cut="0.0000000000000000e+00" cType="1" res="-1.7835386097431183e-02" rms="2.7063843607902527e-01" purity="3.0643111467361450e-01" nType="-99"/>
            <Node pos="r" depth="3" NCoef="0" IVar="-1" Cut="0.0000000000000000e+00" cType="1" res="8.5021331906318665e-03" rms="3.2283464074134827e-01" purity="4.6609029173851013e-01" nType="-99"/>
          </Node>
          <Node pos="r" depth="2" NCoef="0" IVar="-1" Cut="0.0000000000000000e+00" cType="1" res="-5.3878344595432281e-02" rms="2.8690242767333984e-01" purity="4.0825402736663818e-01" nType="-99"/>
        </Node>
        <Node pos="r" depth="1" NCoef="0" IVar="7" Cut="-1.6931788921356201e+00" cType="1" res="3.7323893047869205e-03" rms="2.8791281580924988e-01" purity="5.2794075012207031e-01" nType="0">
          <Node pos="l" depth="2" NCoef="0" IVar="-1" Cut="0.0000000000000000e+00" cType="1" res="-5.5652312934398651e-02" rms="1.5901419520378113e-01" purity="6.2012024223804474e-02" nType="-99"/>
          <Node pos="r" depth="2" NCoef="0" IVar="4" Cut="2.5329763793945312e+02" cType="1" res="4.5531755313277245e-03" rms="2.9135721921920776e-01" purity="5.4423910379409790e-01" nType="0">
            <Node pos="l" depth="3" NCoef="0" IVar="-1" Cut="0.0000000000000000e+00" cType="1" res="6.8785077892243862e-03" rms="2.9757449030876160e-01" purity="4.9656409025192261e-01" nType="-99"/>
            <Node pos="r" depth="3" NCoef="0" IVar="-1" Cut="0.0000000000000000e+00" cType="1" res="-1.0262622497975826e-02" rms="2.4394355714321136e-01" purity="8.7295240163803101e-01" nType="-99"/>
          </Node>
        </Node>
      </Node>
    </BinaryTree>
    <BinaryTree type="DecisionTree" boostWeight="1.0000000000000000e+00" itree="338">
      <Node pos="s" depth="0" NCoef="0" IVar="8" Cut="1.3330809772014618e-01" cType="1" res="-8.1521185347810388e-04" rms="2.8459748625755310e-01" purity="4.9912574887275696e-01" nType="0">
        <Node pos="l" depth="1" NCoef="0" IVar="10" Cut="1.7328079938888550e+00" cType="1" res="4.5207650400698185e-03" rms="2.8837776184082031e-01" purity="5.1657652854919434e-01" nType="0">
          <Node pos="l" depth="2" NCoef="0" IVar="10" Cut="-6.4149266481399536e-01" cType="1" res="2.4095636326819658e-03" rms="2.8617203235626221e-01" purity="5.2953183650970459e-01" nType="0">
            <Node pos="l" depth="3" NCoef="0" IVar="-1" Cut="0.0000000000000000e+00" cType="1" res="1.0579092428088188e-02" rms="2.9161950945854187e-01" purity="4.7385525703430176e-01" nType="-99"/>
            <Node pos="r" depth="3" NCoef="0" IVar="-1" Cut="0.0000000000000000e+00" cType="1" res="-1.7301774350926280e-03" rms="2.8293412923812866e-01" purity="5.6141775846481323e-01" nType="-99"/>
          </Node>
          <Node pos="r" depth="2" NCoef="0" IVar="-1" Cut="0.0000000000000000e+00" cType="1" res="3.9095342159271240e-02" rms="3.1604543328285217e-01" purity="3.3614945411682129e-01" nType="-99"/>
        </Node>
        <Node pos="r" depth="1" NCoef="0" IVar="9" Cut="-1.4660899639129639e+00" cType="1" res="-7.5584338046610355e-03" rms="2.7960154414176941e-01" purity="4.7707274556159973e-01" nType="0">
          <Node pos="l" depth="2" NCoef="0" IVar="-1" Cut="0.0000000000000000e+00" cType="1" res="2.2811133414506912e-02" rms="2.7480474114418030e-01" purity="2.1037004888057709e-01" nType="-99"/>
          <Node pos="r" depth="2" NCoef="0" IVar="4" Cut="2.1767337036132812e+02" cType="1" res="-9.7282854840159416e-03" rms="2.7993780374526978e-01" purity="5.0155735015869141e-01" nType="0">
            <Node pos="l" depth="3" NCoef="0" IVar="-1" Cut="0.0000000000000000e+00" cType="1" res="-1.6848426312208176e-02" rms="2.8602269291877747e-01" purity="4.0743863582611084e-01" nType="-99"/>
            <Node pos="r" depth="3" NCoef="0" IVar="-1" Cut="0.0000000000000000e+00" cType="1" res="9.4939256086945534e-03" rms="2.5655120611190796e-01" purity="8.3486449718475342e-01" nType="-99"/>
          </Node>
        </Node>
      </Node>
    </BinaryTree>
    <BinaryTree type="DecisionTree" boostWeight="1.0000000000000000e+00" itree="339">
      <Node pos="s" depth="0" NCoef="0" IVar="10" Cut="-1.1999392509460449e+00" cType="1" res="-3.2669026404619217e-03" rms="2.8842923045158386e-01" purity="4.9437540769577026e-01" nType="0">
        <Node pos="l" depth="1" NCoef="0" IVar="5" Cut="6.7240547180175781e+01" cType="1" res="8.0296583473682404e-03" rms="3.0015733838081360e-01" purity="3.7870576977729797e-01" nType="0">
          <Node pos="l" depth="2" NCoef="0" IVar="8" Cut="-1.3587835431098938e-01" cType="1" res="2.1687401458621025e-02" rms="2.8929254412651062e-01" purity="1.7425966262817383e-01" nType="0">
            <Node pos="l" depth="3" NCoef="0" IVar="-1" Cut="0.0000000000000000e+00" cType="1" res="1.3009815476834774e-02" rms="2.7161368727684021e-01" purity="1.4006967842578888e-01" nType="-99"/>
            <Node pos="r" depth="3" NCoef="0" IVar="-1" Cut="0.0000000000000000e+00" cType="1" res="4.7327984124422073e-02" rms="3.0622133612632751e-01" purity="2.1029089391231537e-01" nType="-99"/>
          </Node>
          <Node pos="r" depth="2" NCoef="0" IVar="7" Cut="-8.5191046819090843e-03" cType="1" res="-3.0896419193595648e-03" rms="3.0827400088310242e-01" purity="5.4515331983566284e-01" nType="0">
            <Node pos="l" depth="3" NCoef="0" IVar="-1" Cut="0.0000000000000000e+00" cType="1" res="-1.2494388036429882e-02" rms="3.0918022990226746e-01" purity="5.5524826049804688e-01" nType="-99"/>
            <Node pos="r" depth="3" NCoef="0" IVar="-1" Cut="0.0000000000000000e+00" cType="1" res="8.6353663355112076e-03" rms="3.0670565366744995e-01" purity="5.3211510181427002e-01" nType="-99"/>
          </Node>
        </Node>
        <Node pos="r" depth="1" NCoef="0" IVar="1" Cut="4.1835803538560867e-02" cType="1" res="-5.4392674937844276e-03" rms="2.8606763482093811e-01" purity="5.1661902666091919e-01" nType="0">
          <Node pos="l" depth="2" NCoef="0" IVar="8" Cut="-1.3344165682792664e-01" cType="1" res="-5.5090052774176002e-04" rms="2.7328100800514221e-01" purity="2.2283335030078888e-01" nType="0">
            <Node pos="l" depth="3" NCoef="0" IVar="-1" Cut="0.0000000000000000e+00" cType="1" res="8.5612963885068893e-03" rms="2.7686876058578491e-01" purity="2.2916577756404877e-01" nType="-99"/>
            <Node pos="r" depth="3" NCoef="0" IVar="-1" Cut="0.0000000000000000e+00" cType="1" res="-8.1383958458900452e-03" rms="2.7016851305961609e-01" purity="2.1764035522937775e-01" nType="-99"/>
          </Node>
          <Node pos="r" depth="2" NCoef="0" IVar="1" Cut="1.5538524091243744e-01" cType="1" res="-8.7611041963100433e-03" rms="2.9439362883567810e-01" purity="7.1625781059265137e-01" nType="0">
            <Node pos="l" depth="3" NCoef="0" IVar="-1" Cut="0.0000000000000000e+00" cType="1" res="-1.3236893340945244e-02" rms="3.1385812163352966e-01" purity="6.5709263086318970e-01" nType="-99"/>
            <Node pos="r" depth="3" NCoef="0" IVar="-1" Cut="0.0000000000000000e+00" cType="1" res="7.4889645911753178e-03" rms="2.2367818653583527e-01" purity="8.9822536706924438e-01" nType="-99"/>
          </Node>
        </Node>
      </Node>
    </BinaryTree>
    <BinaryTree type="DecisionTree" boostWeight="1.0000000000000000e+00" itree="340">
      <Node pos="s" depth="0" NCoef="0" IVar="7" Cut="-8.3691962063312531e-02" cType="1" res="2.9349438846111298e-03" rms="2.8740024566650391e-01" purity="5.0530207157135010e-01" nType="0">
        <Node pos="l" depth="1" NCoef="0" IVar="5" Cut="1.2640169525146484e+02" cType="1" res="8.3536366000771523e-03" rms="2.9147177934646606e-01" purity="4.9673748016357422e-01" nType="0">
          <Node pos="l" depth="2" NCoef="0" IVar="9" Cut="-9.3310266733169556e-01" cType="1" res="1.1932365596294403e-02" rms="3.0420362949371338e-01" purity="4.1644284129142761e-01" nType="0">
            <Node pos="l" depth="3" NCoef="0" IVar="-1" Cut="0.0000000000000000e+00" cType="1" res="2.6285594329237938e-02" rms="3.1229326128959656e-01" purity="3.2555338740348816e-01" nType="-99"/>
            <Node pos="r" depth="3" NCoef="0" IVar="-1" Cut="0.0000000000000000e+00" cType="1" res="8.9232400059700012e-03" rms="3.0155143141746521e-01" purity="4.4469898939132690e-01" nType="-99"/>
          </Node>
          <Node pos="r" depth="2" NCoef="0" IVar="-1" Cut="0.0000000000000000e+00" cType="1" res="-2.1786401048302650e-02" rms="2.1435405313968658e-01" purity="9.0552419424057007e-01" nType="-99"/>
        </Node>
        <Node pos="r" depth="1" NCoef="0" IVar="9" Cut="-4.0015023946762085e-01" cType="1" res="-1.7269351519644260e-03" rms="2.8376784920692444e-01" purity="5.1267045736312866e-01" nType="0">
          <Node pos="l" depth="2" NCoef="0" IVar="9" Cut="-1.0858312845230103e+00" cType="1" res="-1.5196659602224827e-02" rms="2.8017103672027588e-01" purity="4.4441777467727661e-01" nType="0">
            <Node pos="l" depth="3" NCoef="0" IVar="-1" Cut="0.0000000000000000e+00" cType="1" res="-3.4187313169240952e-02" rms="2.6706120371818542e-01" purity="2.7203911542892456e-01" nType="-99"/>
            <Node pos="r" depth="3" NCoef="0" IVar="-1" Cut="0.0000000000000000e+00" cType="1" res="-6.7412438802421093e-03" rms="2.8934085369110107e-01" purity="5.7480180263519287e-01" nType="-99"/>
          </Node>
          <Node pos="r" depth="2" NCoef="0" IVar="7" Cut="1.0145125389099121e+00" cType="1" res="4.4806152582168579e-03" rms="2.8519612550735474e-01" purity="5.4412478208541870e-01" nType="0">
            <Node pos="l" depth="3" NCoef="0" IVar="-1" Cut="0.0000000000000000e+00" cType="1" res="8.4218587726354599e-03" rms="2.9870894551277161e-01" purity="6.4203637838363647e-01" nType="-99"/>
            <Node pos="r" depth="3" NCoef="0" IVar="-1" Cut="0.0000000000000000e+00" cType="1" res="-8.5360873490571976e-03" rms="2.3783567547798157e-01" purity="2.3835980892181396e-01" nType="-99"/>
          </Node>
        </Node>
      </Node>
    </BinaryTree>
    <BinaryTree type="DecisionTree" boostWeight="1.0000000000000000e+00" itree="341">
      <Node pos="s" depth="0" NCoef="0" IVar="10" Cut="1.3326108455657959e-01" cType="1" res="6.5140041988343000e-04" rms="2.8713920712471008e-01" purity="5.0491881370544434e-01" nType="0">
        <Node pos="l" depth="1" NCoef="0" IVar="5" Cut="7.0725753784179688e+01" cType="1" res="-3.8707540370523930e-03" rms="2.8321751952171326e-01" purity="5.0747400522232056e-01" nType="0">
          <Node pos="l" depth="2" NCoef="0" IVar="4" Cut="1.3082356262207031e+02" cType="1" res="-1.1565663851797581e-02" rms="2.8468379378318787e-01" purity="1.7680646479129791e-01" nType="0">
            <Node pos="l" depth="3" NCoef="0" IVar="-1" Cut="0.0000000000000000e+00" cType="1" res="-1.6896476736292243e-03" rms="2.3758216202259064e-01" purity="9.4962231814861298e-02" nType="-99"/>
            <Node pos="r" depth="3" NCoef="0" IVar="-1" Cut="0.0000000000000000e+00" cType="1" res="-2.5495765730738640e-02" rms="3.5470196604728699e-01" purity="3.2772013545036316e-01" nType="-99"/>
          </Node>
          <Node pos="r" depth="2" NCoef="0" IVar="7" Cut="6.6834759712219238e-01" cType="1" res="1.0153788607567549e-03" rms="2.8217360377311707e-01" purity="7.1744203567504883e-01" nType="0">
            <Node pos="l" depth="3" NCoef="0" IVar="-1" Cut="0.0000000000000000e+00" cType="1" res="5.1715155132114887e-03" rms="2.8129276633262634e-01" purity="7.5666999816894531e-01" nType="-99"/>
            <Node pos="r" depth="3" NCoef="0" IVar="-1" Cut="0.0000000000000000e+00" cType="1" res="-1.7184581607580185e-02" rms="2.8604900836944580e-01" purity="5.1748758554458618e-01" nType="-99"/>
          </Node>
        </Node>
        <Node pos="r" depth="1" NCoef="0" IVar="7" Cut="-1.3558266162872314e+00" cType="1" res="6.0513289645314217e-03" rms="2.9166123270988464e-01" purity="5.0186771154403687e-01" nType="0">
          <Node pos="l" depth="2" NCoef="0" IVar="-1" Cut="0.0000000000000000e+00" cType="1" res="5.2683077752590179e-02" rms="2.6103171706199646e-01" purity="1.6223502159118652e-01" nType="-99"/>
          <Node pos="r" depth="2" NCoef="0" IVar="7" Cut="1.2156845331192017e+00" cType="1" res="4.4719148427248001e-03" rms="2.9358989000320435e-01" purity="5.2528876066207886e-01" nType="0">
            <Node pos="l" depth="3" NCoef="0" IVar="-1" Cut="0.0000000000000000e+00" cType="1" res="6.9533721543848515e-03" rms="3.0300632119178772e-01" purity="5.7935422658920288e-01" nType="-99"/>
            <Node pos="r" depth="3" NCoef="0" IVar="-1" Cut="0.0000000000000000e+00" cType="1" res="-1.7239723354578018e-02" rms="2.1279813349246979e-01" purity="1.3365598022937775e-01" nType="-99"/>
          </Node>
        </Node>
      </Node>
    </BinaryTree>
    <BinaryTree type="DecisionTree" boostWeight="1.0000000000000000e+00" itree="342">
      <Node pos="s" depth="0" NCoef="0" IVar="10" Cut="-6.6658025979995728e-01" cType="1" res="-6.1618379550054669e-04" rms="2.8922781348228455e-01" purity="4.9711027741432190e-01" nType="0">
        <Node pos="l" depth="1" NCoef="0" IVar="9" Cut="1.1997425556182861e+00" cType="1" res="7.4568255804479122e-03" rms="2.9767274856567383e-01" purity="4.5996633172035217e-01" nType="0">
          <Node pos="l" depth="2" NCoef="0" IVar="8" Cut="9.3239647150039673e-01" cType="1" res="3.7350086495280266e-03" rms="2.9773893952369690e-01" purity="4.8195156455039978e-01" nType="0">
            <Node pos="l" depth="3" NCoef="0" IVar="-1" Cut="0.0000000000000000e+00" cType="1" res="3.8784538628533483e-04" rms="2.9809024930000305e-01" purity="5.1304584741592407e-01" nType="-99"/>
            <Node pos="r" depth="3" NCoef="0" IVar="-1" Cut="0.0000000000000000e+00" cType="1" res="3.1648661941289902e-02" rms="2.9473099112510681e-01" purity="2.9164642095565796e-01" nType="-99"/>
          </Node>
          <Node pos="r" depth="2" NCoef="0" IVar="-1" Cut="0.0000000000000000e+00" cType="1" res="4.8824470490217209e-02" rms="2.9575291275978088e-01" purity="2.9842102527618408e-01" nType="-99"/>
        </Node>
        <Node pos="r" depth="1" NCoef="0" IVar="10" Cut="8.1902754306793213e-01" cType="1" res="-4.0695560164749622e-03" rms="2.8546938300132751e-01" purity="5.1299929618835449e-01" nType="0">
          <Node pos="l" depth="2" NCoef="0" IVar="3" Cut="2.4148150634765625e+02" cType="1" res="-1.2040280271321535e-03" rms="2.8483122587203979e-01" purity="5.6463629007339478e-01" nType="0">
            <Node pos="l" depth="3" NCoef="0" IVar="-1" Cut="0.0000000000000000e+00" cType="1" res="5.2345902658998966e-03" rms="2.9313939809799194e-01" purity="4.3551260232925415e-01" nType="-99"/>
            <Node pos="r" depth="3" NCoef="0" IVar="-1" Cut="0.0000000000000000e+00" cType="1" res="-1.1226771399378777e-02" rms="2.7306348085403442e-01" purity="7.3845326900482178e-01" nType="-99"/>
          </Node>
          <Node pos="r" depth="2" NCoef="0" IVar="9" Cut="4.0021219849586487e-01" cType="1" res="-9.0920682996511459e-03" rms="2.8651532530784607e-01" purity="4.2249315977096558e-01" nType="0">
            <Node pos="l" depth="3" NCoef="0" IVar="-1" Cut="0.0000000000000000e+00" cType="1" res="-3.8010058924555779e-03" rms="2.8619828820228577e-01" purity="4.5913094282150269e-01" nType="-99"/>
            <Node pos="r" depth="3" NCoef="0" IVar="-1" Cut="0.0000000000000000e+00" cType="1" res="-2.0085791125893593e-02" rms="2.8675690293312073e-01" purity="3.7245911359786987e-01" nType="-99"/>
          </Node>
        </Node>
      </Node>
    </BinaryTree>
    <BinaryTree type="DecisionTree" boostWeight="1.0000000000000000e+00" itree="343">
      <Node pos="s" depth="0" NCoef="0" IVar="8" Cut="1.3323667645454407e-01" cType="1" res="3.5096951760351658e-03" rms="2.9064613580703735e-01" purity="4.9591067433357239e-01" nType="0">
        <Node pos="l" depth="1" NCoef="0" IVar="8" Cut="-6.4674587920308113e-03" cType="1" res="-8.0060691107064486e-04" rms="2.9149854183197021e-01" purity="5.0464004278182983e-01" nType="0">
          <Node pos="l" depth="2" NCoef="0" IVar="2" Cut="6.3791265869140625e+02" cType="1" res="1.3700869167223573e-03" rms="2.9130941629409790e-01" purity="4.9241897463798523e-01" nType="0">
            <Node pos="l" depth="3" NCoef="0" IVar="-1" Cut="0.0000000000000000e+00" cType="1" res="3.8653796073049307e-03" rms="2.8966665267944336e-01" purity="4.8575922846794128e-01" nType="-99"/>
            <Node pos="r" depth="3" NCoef="0" IVar="-1" Cut="0.0000000000000000e+00" cType="1" res="-2.2505054250359535e-02" rms="3.1153374910354614e-01" purity="5.8191817998886108e-01" nType="-99"/>
          </Node>
          <Node pos="r" depth="2" NCoef="0" IVar="-1" Cut="0.0000000000000000e+00" cType="1" res="-2.3297568783164024e-02" rms="2.9246303439140320e-01" purity="6.1202549934387207e-01" nType="-99"/>
        </Node>
        <Node pos="r" depth="1" NCoef="0" IVar="7" Cut="-6.1278420686721802e-01" cType="1" res="8.7703531607985497e-03" rms="2.8951546549797058e-01" purity="4.8525664210319519e-01" nType="0">
          <Node pos="l" depth="2" NCoef="0" IVar="5" Cut="9.0570701599121094e+01" cType="1" res="-5.1321410574018955e-03" rms="2.5462043285369873e-01" purity="3.0346038937568665e-01" nType="0">
            <Node pos="l" depth="3" NCoef="0" IVar="-1" Cut="0.0000000000000000e+00" cType="1" res="-2.0881550386548042e-02" rms="2.2677503526210785e-01" purity="1.3112924993038177e-01" nType="-99"/>
            <Node pos="r" depth="3" NCoef="0" IVar="-1" Cut="0.0000000000000000e+00" cType="1" res="1.2426290661096573e-02" rms="3.0600154399871826e-01" purity="6.7911607027053833e-01" nType="-99"/>
          </Node>
          <Node pos="r" depth="2" NCoef="0" IVar="6" Cut="7.8267204284667969e+01" cType="1" res="1.2768227607011795e-02" rms="2.9867681860923767e-01" purity="5.3753495216369629e-01" nType="0">
            <Node pos="l" depth="3" NCoef="0" IVar="-1" Cut="0.0000000000000000e+00" cType="1" res="1.8032368272542953e-02" rms="3.2238402962684631e-01" purity="4.0734052658081055e-01" nType="-99"/>
            <Node pos="r" depth="3" NCoef="0" IVar="-1" Cut="0.0000000000000000e+00" cType="1" res="-8.7835453450679779e-03" rms="2.1383315324783325e-01" purity="9.1861605644226074e-01" nType="-99"/>
          </Node>
        </Node>
      </Node>
    </BinaryTree>
    <BinaryTree type="DecisionTree" boostWeight="1.0000000000000000e+00" itree="344">
      <Node pos="s" depth="0" NCoef="0" IVar="10" Cut="1.9997111558914185e+00" cType="1" res="1.4940440887585282e-03" rms="2.8835263848304749e-01" purity="4.9863323569297791e-01" nType="0">
        <Node pos="l" depth="1" NCoef="0" IVar="1" Cut="1.6733564436435699e-01" cType="1" res="5.1713699940592051e-04" rms="2.8822371363639832e-01" purity="5.1002275943756104e-01" nType="0">
          <Node pos="l" depth="2" NCoef="0" IVar="10" Cut="-1.2000595331192017e+00" cType="1" res="1.9736958201974630e-03" rms="2.9434350132942200e-01" purity="4.5733612775802612e-01" nType="0">
            <Node pos="l" depth="3" NCoef="0" IVar="-1" Cut="0.0000000000000000e+00" cType="1" res="-8.1376926973462105e-03" rms="2.8503024578094482e-01" purity="3.2807585597038269e-01" nType="-99"/>
            <Node pos="r" depth="3" NCoef="0" IVar="-1" Cut="0.0000000000000000e+00" cType="1" res="4.3208668939769268e-03" rms="2.9622337222099304e-01" purity="4.8441770672798157e-01" nType="-99"/>
          </Node>
          <Node pos="r" depth="2" NCoef="0" IVar="-1" Cut="0.0000000000000000e+00" cType="1" res="-1.7619863152503967e-02" rms="2.4010409414768219e-01" purity="8.8392382860183716e-01" nType="-99"/>
        </Node>
        <Node pos="r" depth="1" NCoef="0" IVar="-1" Cut="0.0000000000000000e+00" cType="1" res="2.6354089379310608e-02" rms="2.9020237922668457e-01" purity="2.7584084868431091e-01" nType="-99"/>
      </Node>
    </BinaryTree>
    <BinaryTree type="DecisionTree" boostWeight="1.0000000000000000e+00" itree="345">
      <Node pos="s" depth="0" NCoef="0" IVar="2" Cut="5.8667376708984375e+02" cType="1" res="1.0778791038319468e-03" rms="2.8646671772003174e-01" purity="5.0392693281173706e-01" nType="0">
        <Node pos="l" depth="1" NCoef="0" IVar="4" Cut="1.7273989868164062e+02" cType="1" res="-2.1560658933594823e-04" rms="2.8254139423370361e-01" purity="4.9342259764671326e-01" nType="0">
          <Node pos="l" depth="2" NCoef="0" IVar="2" Cut="4.0252920532226562e+02" cType="1" res="-3.8049654103815556e-03" rms="2.8761178255081177e-01" purity="3.0746898055076599e-01" nType="0">
            <Node pos="l" depth="3" NCoef="0" IVar="-1" Cut="0.0000000000000000e+00" cType="1" res="-1.6751775983721018e-03" rms="2.8809964656829834e-01" purity="3.0498713254928589e-01" nType="-99"/>
            <Node pos="r" depth="3" NCoef="0" IVar="-1" Cut="0.0000000000000000e+00" cType="1" res="-1.3718821108341217e-02" rms="2.8573513031005859e-01" purity="3.1616589426994324e-01" nType="-99"/>
          </Node>
          <Node pos="r" depth="2" NCoef="0" IVar="0" Cut="1.4484913330078125e+03" cType="1" res="5.3760022856295109e-03" rms="2.7436247467994690e-01" purity="7.8310650587081909e-01" nType="0">
            <Node pos="l" depth="3" NCoef="0" IVar="-1" Cut="0.0000000000000000e+00" cType="1" res="1.9698681309819221e-02" rms="3.6889135837554932e-01" purity="4.3201744556427002e-01" nType="-99"/>
            <Node pos="r" depth="3" NCoef="0" IVar="-1" Cut="0.0000000000000000e+00" cType="1" res="2.3243653122335672e-03" rms="2.5270491838455200e-01" purity="8.4847581386566162e-01" nType="-99"/>
          </Node>
        </Node>
        <Node pos="r" depth="1" NCoef="0" IVar="0" Cut="2.3507609863281250e+03" cType="1" res="1.2820871546864510e-02" rms="3.1966772675514221e-01" purity="5.9929162263870239e-01" nType="0">
          <Node pos="l" depth="2" NCoef="0" IVar="6" Cut="8.8758296966552734e+00" cType="1" res="2.3658057674765587e-02" rms="3.4394600987434387e-01" purity="4.4317919015884399e-01" nType="0">
            <Node pos="l" depth="3" NCoef="0" IVar="-1" Cut="0.0000000000000000e+00" cType="1" res="3.6322493106126785e-02" rms="3.3304625749588013e-01" purity="3.1469509005546570e-01" nType="-99"/>
            <Node pos="r" depth="3" NCoef="0" IVar="-1" Cut="0.0000000000000000e+00" cType="1" res="7.2873153840191662e-05" rms="3.5784408450126648e-01" purity="6.2935978174209595e-01" nType="-99"/>
          </Node>
          <Node pos="r" depth="2" NCoef="0" IVar="-1" Cut="0.0000000000000000e+00" cType="1" res="-5.6447098031640053e-03" rms="2.7568301558494568e-01" purity="8.4831488132476807e-01" nType="-99"/>
        </Node>
      </Node>
    </BinaryTree>
    <BinaryTree type="DecisionTree" boostWeight="1.0000000000000000e+00" itree="346">
      <Node pos="s" depth="0" NCoef="0" IVar="10" Cut="1.1998825073242188e+00" cType="1" res="-1.3430577237159014e-03" rms="2.8701072931289673e-01" purity="4.9681505560874939e-01" nType="0">
        <Node pos="l" depth="1" NCoef="0" IVar="10" Cut="4.3800488114356995e-01" cType="1" res="-2.9242490418255329e-03" rms="2.8680336475372314e-01" purity="5.1886492967605591e-01" nType="0">
          <Node pos="l" depth="2" NCoef="0" IVar="3" Cut="4.2838800048828125e+02" cType="1" res="-6.8333611125126481e-04" rms="2.8826966881752014e-01" purity="5.1709961891174316e-01" nType="0">
            <Node pos="l" depth="3" NCoef="0" IVar="-1" Cut="0.0000000000000000e+00" cType="1" res="2.0138836407568306e-04" rms="2.8877365589141846e-01" purity="5.0393092632293701e-01" nType="-99"/>
            <Node pos="r" depth="3" NCoef="0" IVar="-1" Cut="0.0000000000000000e+00" cType="1" res="-2.0159756764769554e-02" rms="2.7826020121574402e-01" purity="7.6189959049224854e-01" nType="-99"/>
          </Node>
          <Node pos="r" depth="2" NCoef="0" IVar="5" Cut="8.2425704956054688e+01" cType="1" res="-1.0113456286489964e-02" rms="2.8192752599716187e-01" purity="5.2452850341796875e-01" nType="0">
            <Node pos="l" depth="3" NCoef="0" IVar="-1" Cut="0.0000000000000000e+00" cType="1" res="-2.3508664220571518e-02" rms="2.8767636418342590e-01" purity="2.3937775194644928e-01" nType="-99"/>
            <Node pos="r" depth="3" NCoef="0" IVar="-1" Cut="0.0000000000000000e+00" cType="1" res="8.7412865832448006e-04" rms="2.7597698569297791e-01" purity="7.9273498058319092e-01" nType="-99"/>
          </Node>
        </Node>
        <Node pos="r" depth="1" NCoef="0" IVar="8" Cut="9.3316501379013062e-01" cType="1" res="6.4597381278872490e-03" rms="2.8790485858917236e-01" purity="3.8800409436225891e-01" nType="0">
          <Node pos="l" depth="2" NCoef="0" IVar="10" Cut="2.1903321743011475e+00" cType="1" res="1.2239448726177216e-02" rms="3.0217424035072327e-01" purity="4.4162756204605103e-01" nType="0">
            <Node pos="l" depth="3" NCoef="0" IVar="-1" Cut="0.0000000000000000e+00" cType="1" res="1.9625887274742126e-02" rms="3.0752587318420410e-01" purity="4.8575067520141602e-01" nType="-99"/>
            <Node pos="r" depth="3" NCoef="0" IVar="-1" Cut="0.0000000000000000e+00" cType="1" res="-1.2631234712898731e-02" rms="2.7779960632324219e-01" purity="2.5925794243812561e-01" nType="-99"/>
          </Node>
          <Node pos="r" depth="2" NCoef="0" IVar="-1" Cut="0.0000000000000000e+00" cType="1" res="-2.0350152626633644e-02" rms="2.3072166740894318e-01" purity="2.0241867005825043e-01" nType="-99"/>
        </Node>
      </Node>
    </BinaryTree>
    <BinaryTree type="DecisionTree" boostWeight="1.0000000000000000e+00" itree="347">
      <Node pos="s" depth="0" NCoef="0" IVar="0" Cut="1.1001665039062500e+03" cType="1" res="-1.1078243842348456e-03" rms="2.8657963871955872e-01" purity="5.0006949901580811e-01" nType="0">
        <Node pos="l" depth="1" NCoef="0" IVar="1" Cut="5.4894708096981049e-02" cType="1" res="1.1674347333610058e-02" rms="2.1355618536472321e-01" purity="5.9157740324735641e-02" nType="0">
          <Node pos="l" depth="2" NCoef="0" IVar="1" Cut="2.3555926978588104e-02" cType="1" res="3.9704749360680580e-03" rms="1.5110054612159729e-01" purity="2.5699457153677940e-02" nType="0">
            <Node pos="l" depth="3" NCoef="0" IVar="-1" Cut="0.0000000000000000e+00" cType="1" res="-1.2881998904049397e-02" rms="9.7472384572029114e-02" purity="1.0712013579905033e-02" nType="-99"/>
            <Node pos="r" depth="3" NCoef="0" IVar="-1" Cut="0.0000000000000000e+00" cType="1" res="3.6785699427127838e-02" rms="2.0575307309627533e-01" purity="4.7748204320669174e-02" nType="-99"/>
          </Node>
          <Node pos="r" depth="2" NCoef="0" IVar="-1" Cut="0.0000000000000000e+00" cType="1" res="3.6719933152198792e-02" rms="3.2747736573219299e-01" purity="1.5059469640254974e-01" nType="-99"/>
        </Node>
        <Node pos="r" depth="1" NCoef="0" IVar="1" Cut="1.6733871400356293e-01" cType="1" res="-3.6466279998421669e-03" rms="2.9890289902687073e-01" purity="5.8764368295669556e-01" nType="0">
          <Node pos="l" depth="2" NCoef="0" IVar="10" Cut="1.7330579757690430e+00" cType="1" res="-6.0167848132550716e-03" rms="3.0981257557868958e-01" purity="5.3284221887588501e-01" nType="0">
            <Node pos="l" depth="3" NCoef="0" IVar="-1" Cut="0.0000000000000000e+00" cType="1" res="-4.6986681409180164e-03" rms="3.1033369898796082e-01" purity="5.4989892244338989e-01" nType="-99"/>
            <Node pos="r" depth="3" NCoef="0" IVar="-1" Cut="0.0000000000000000e+00" cType="1" res="-2.3242399096488953e-02" rms="3.0286017060279846e-01" purity="3.2392212748527527e-01" nType="-99"/>
          </Node>
          <Node pos="r" depth="2" NCoef="0" IVar="-1" Cut="0.0000000000000000e+00" cType="1" res="2.0787443965673447e-02" rms="2.1818153560161591e-01" purity="9.2998713254928589e-01" nType="-99"/>
        </Node>
      </Node>
    </BinaryTree>
    <BinaryTree type="DecisionTree" boostWeight="1.0000000000000000e+00" itree="348">
      <Node pos="s" depth="0" NCoef="0" IVar="10" Cut="-2.2666718959808350e+00" cType="1" res="1.0314623796148226e-04" rms="2.8875565528869629e-01" purity="4.9594181776046753e-01" nType="0">
        <Node pos="l" depth="1" NCoef="0" IVar="-1" Cut="0.0000000000000000e+00" cType="1" res="-3.8099613040685654e-02" rms="2.7162680029869080e-01" purity="1.9682276248931885e-01" nType="-99"/>
        <Node pos="r" depth="1" NCoef="0" IVar="2" Cut="5.5310260009765625e+02" cType="1" res="1.0148973669856787e-03" rms="2.8918531537055969e-01" purity="5.0460064411163330e-01" nType="0">
          <Node pos="l" depth="2" NCoef="0" IVar="10" Cut="-1.5426908731460571e+00" cType="1" res="2.4762435350567102e-03" rms="2.8833499550819397e-01" purity="4.9062615633010864e-01" nType="0">
            <Node pos="l" depth="3" NCoef="0" IVar="-1" Cut="0.0000000000000000e+00" cType="1" res="-1.2649263255298138e-02" rms="2.8904294967651367e-01" purity="3.5227024555206299e-01" nType="-99"/>
            <Node pos="r" depth="3" NCoef="0" IVar="-1" Cut="0.0000000000000000e+00" cType="1" res="4.3770992197096348e-03" rms="2.8824505209922791e-01" purity="5.0263917446136475e-01" nType="-99"/>
          </Node>
          <Node pos="r" depth="2" NCoef="0" IVar="1" Cut="7.4398733675479889e-02" cType="1" res="-8.7750582024455070e-03" rms="2.9463163018226624e-01" purity="5.9821933507919312e-01" nType="0">
            <Node pos="l" depth="3" NCoef="0" IVar="-1" Cut="0.0000000000000000e+00" cType="1" res="-1.6054902225732803e-02" rms="3.1821042299270630e-01" purity="4.5762273669242859e-01" nType="-99"/>
            <Node pos="r" depth="3" NCoef="0" IVar="-1" Cut="0.0000000000000000e+00" cType="1" res="1.4323553070425987e-02" rms="2.3360572755336761e-01" purity="9.0707707405090332e-01" nType="-99"/>
          </Node>
        </Node>
      </Node>
    </BinaryTree>
    <BinaryTree type="DecisionTree" boostWeight="1.0000000000000000e+00" itree="349">
      <Node pos="s" depth="0" NCoef="0" IVar="9" Cut="-6.6679739952087402e-01" cType="1" res="-1.3727494515478611e-03" rms="2.8821933269500732e-01" purity="4.9651229381561279e-01" nType="0">
        <Node pos="l" depth="1" NCoef="0" IVar="5" Cut="9.2032348632812500e+01" cType="1" res="-9.2266341671347618e-03" rms="2.9400381445884705e-01" purity="3.9685919880867004e-01" nType="0">
          <Node pos="l" depth="2" NCoef="0" IVar="5" Cut="5.4001033782958984e+01" cType="1" res="-2.1954989060759544e-03" rms="2.9375010728836060e-01" purity="2.4156801402568817e-01" nType="0">
            <Node pos="l" depth="3" NCoef="0" IVar="-1" Cut="0.0000000000000000e+00" cType="1" res="4.7034144401550293e-02" rms="2.6108223199844360e-01" purity="1.0878472775220871e-01" nType="-99"/>
            <Node pos="r" depth="3" NCoef="0" IVar="-1" Cut="0.0000000000000000e+00" cType="1" res="-8.7065119296312332e-03" rms="3.0049380660057068e-01" purity="2.7234348654747009e-01" nType="-99"/>
          </Node>
          <Node pos="r" depth="2" NCoef="0" IVar="6" Cut="7.7497779846191406e+01" cType="1" res="-2.4474233388900757e-02" rms="2.9397606849670410e-01" purity="7.3362094163894653e-01" nType="0">
            <Node pos="l" depth="3" NCoef="0" IVar="-1" Cut="0.0000000000000000e+00" cType="1" res="-4.4080533087253571e-02" rms="3.4946703910827637e-01" purity="5.2724236249923706e-01" nType="-99"/>
            <Node pos="r" depth="3" NCoef="0" IVar="-1" Cut="0.0000000000000000e+00" cType="1" res="-6.5277549438178539e-03" rms="2.4580749869346619e-01" purity="8.7801426649093628e-01" nType="-99"/>
          </Node>
        </Node>
        <Node pos="r" depth="1" NCoef="0" IVar="9" Cut="2.1393716335296631e+00" cType="1" res="1.4211091911420226e-03" rms="2.8608143329620361e-01" purity="5.3196185827255249e-01" nType="0">
          <Node pos="l" depth="2" NCoef="0" IVar="2" Cut="3.4597048950195312e+02" cType="1" res="2.6028444990515709e-03" rms="2.8909793496131897e-01" purity="5.4919356107711792e-01" nType="0">
            <Node pos="l" depth="3" NCoef="0" IVar="-1" Cut="0.0000000000000000e+00" cType="1" res="9.0261409059166908e-03" rms="2.9078200459480286e-01" purity="4.8741644620895386e-01" nType="-99"/>
            <Node pos="r" depth="3" NCoef="0" IVar="-1" Cut="0.0000000000000000e+00" cType="1" res="-2.4118628352880478e-03" rms="2.8747916221618652e-01" purity="6.0539990663528442e-01" nType="-99"/>
          </Node>
          <Node pos="r" depth="2" NCoef="0" IVar="-1" Cut="0.0000000000000000e+00" cType="1" res="-5.6388642638921738e-02" rms="1.8840771913528442e-01" purity="8.1514313817024231e-02" nType="-99"/>
        </Node>
      </Node>
    </BinaryTree>
    <BinaryTree type="DecisionTree" boostWeight="1.0000000000000000e+00" itree="350">
      <Node pos="s" depth="0" NCoef="0" IVar="9" Cut="-6.6670382022857666e-01" cType="1" res="-5.4035382345318794e-04" rms="2.8912156820297241e-01" purity="4.9830162525177002e-01" nType="0">
        <Node pos="l" depth="1" NCoef="0" IVar="2" Cut="3.1316186523437500e+02" cType="1" res="7.4201663956046104e-03" rms="3.0140045285224915e-01" purity="4.1594555974006653e-01" nType="0">
          <Node pos="l" depth="2" NCoef="0" IVar="1" Cut="3.8385510444641113e-02" cType="1" res="1.7640814185142517e-02" rms="3.0212759971618652e-01" purity="3.6483338475227356e-01" nType="0">
            <Node pos="l" depth="3" NCoef="0" IVar="-1" Cut="0.0000000000000000e+00" cType="1" res="6.0069553554058075e-02" rms="2.7337193489074707e-01" purity="1.4342579245567322e-01" nType="-99"/>
            <Node pos="r" depth="3" NCoef="0" IVar="-1" Cut="0.0000000000000000e+00" cType="1" res="3.8258247077465057e-03" rms="3.2325619459152222e-01" purity="5.4700833559036255e-01" nType="-99"/>
          </Node>
          <Node pos="r" depth="2" NCoef="0" IVar="2" Cut="5.2865802001953125e+02" cType="1" res="3.2275920966640115e-04" rms="3.0069017410278320e-01" purity="4.5143884420394897e-01" nType="0">
            <Node pos="l" depth="3" NCoef="0" IVar="-1" Cut="0.0000000000000000e+00" cType="1" res="-7.0393173955380917e-03" rms="2.9542320966720581e-01" purity="4.3232583999633789e-01" nType="-99"/>
            <Node pos="r" depth="3" NCoef="0" IVar="-1" Cut="0.0000000000000000e+00" cType="1" res="1.9130209460854530e-02" rms="3.1552872061729431e-01" purity="5.1005864143371582e-01" nType="-99"/>
          </Node>
        </Node>
        <Node pos="r" depth="1" NCoef="0" IVar="9" Cut="3.2375967502593994e-01" cType="1" res="-3.4449631348252296e-03" rms="2.8445389866828918e-01" purity="5.2835148572921753e-01" nType="0">
          <Node pos="l" depth="2" NCoef="0" IVar="5" Cut="7.1512168884277344e+01" cType="1" res="-9.2616109177470207e-03" rms="2.8737732768058777e-01" purity="5.9423446655273438e-01" nType="0">
            <Node pos="l" depth="3" NCoef="0" IVar="-1" Cut="0.0000000000000000e+00" cType="1" res="-8.2476279931142926e-04" rms="3.1023350358009338e-01" purity="2.5144752860069275e-01" nType="-99"/>
            <Node pos="r" depth="3" NCoef="0" IVar="-1" Cut="0.0000000000000000e+00" cType="1" res="-1.8087219446897507e-02" rms="2.7412688732147217e-01" purity="7.7945762872695923e-01" nType="-99"/>
          </Node>
          <Node pos="r" depth="2" NCoef="0" IVar="0" Cut="1.3918389892578125e+03" cType="1" res="2.0153752993792295e-03" rms="2.8157261013984680e-01" purity="4.6650424599647522e-01" nType="0">
            <Node pos="l" depth="3" NCoef="0" IVar="-1" Cut="0.0000000000000000e+00" cType="1" res="-5.8737234212458134e-03" rms="2.6906034350395203e-01" purity="1.5978558361530304e-01" nType="-99"/>
            <Node pos="r" depth="3" NCoef="0" IVar="-1" Cut="0.0000000000000000e+00" cType="1" res="8.6046867072582245e-03" rms="2.9156222939491272e-01" purity="7.2432810068130493e-01" nType="-99"/>
          </Node>
        </Node>
      </Node>
    </BinaryTree>
    <BinaryTree type="DecisionTree" boostWeight="1.0000000000000000e+00" itree="351">
      <Node pos="s" depth="0" NCoef="0" IVar="11" Cut="1.4190381765365601e+00" cType="1" res="4.6275607310235500e-03" rms="2.8940910100936890e-01" purity="5.0175964832305908e-01" nType="0">
        <Node pos="l" depth="1" NCoef="0" IVar="9" Cut="1.3326209783554077e-01" cType="1" res="3.4860288724303246e-03" rms="2.8877377510070801e-01" purity="4.9058628082275391e-01" nType="0">
          <Node pos="l" depth="2" NCoef="0" IVar="9" Cut="-2.1015975475311279e+00" cType="1" res="7.8928349539637566e-03" rms="2.9123950004577637e-01" purity="5.0671994686126709e-01" nType="0">
            <Node pos="l" depth="3" NCoef="0" IVar="-1" Cut="0.0000000000000000e+00" cType="1" res="-3.4954924136400223e-02" rms="1.9965071976184845e-01" purity="9.2545226216316223e-02" nType="-99"/>
            <Node pos="r" depth="3" NCoef="0" IVar="-1" Cut="0.0000000000000000e+00" cType="1" res="1.0710543021559715e-02" rms="2.9552137851715088e-01" purity="5.3021472692489624e-01" nType="-99"/>
          </Node>
          <Node pos="r" depth="2" NCoef="0" IVar="9" Cut="6.4126384258270264e-01" cType="1" res="-2.1019782871007919e-03" rms="2.8551876544952393e-01" purity="4.7012817859649658e-01" nType="0">
            <Node pos="l" depth="3" NCoef="0" IVar="-1" Cut="0.0000000000000000e+00" cType="1" res="-9.0451166033744812e-03" rms="2.8580918908119202e-01" purity="5.8566838502883911e-01" nType="-99"/>
            <Node pos="r" depth="3" NCoef="0" IVar="-1" Cut="0.0000000000000000e+00" cType="1" res="1.7848169663920999e-03" rms="2.8527015447616577e-01" purity="3.9331239461898804e-01" nType="-99"/>
          </Node>
        </Node>
        <Node pos="r" depth="1" NCoef="0" IVar="3" Cut="2.4162384033203125e+02" cType="1" res="2.2162342444062233e-02" rms="2.9845005273818970e-01" purity="6.7339032888412476e-01" nType="0">
          <Node pos="l" depth="2" NCoef="0" IVar="-1" Cut="0.0000000000000000e+00" cType="1" res="4.7795837745070457e-03" rms="3.0248531699180603e-01" purity="5.7889717817306519e-01" nType="-99"/>
          <Node pos="r" depth="2" NCoef="0" IVar="-1" Cut="0.0000000000000000e+00" cType="1" res="4.6100702136754990e-02" rms="2.9137310385704041e-01" purity="7.9973548650741577e-01" nType="-99"/>
        </Node>
      </Node>
    </BinaryTree>
    <BinaryTree type="DecisionTree" boostWeight="1.0000000000000000e+00" itree="352">
      <Node pos="s" depth="0" NCoef="0" IVar="2" Cut="3.2725183105468750e+02" cType="1" res="-1.0925221722573042e-03" rms="2.8555023670196533e-01" purity="4.9895253777503967e-01" nType="0">
        <Node pos="l" depth="1" NCoef="0" IVar="8" Cut="-1.3315117359161377e-01" cType="1" res="-7.2149932384490967e-03" rms="2.8263998031616211e-01" purity="4.1813778877258301e-01" nType="0">
          <Node pos="l" depth="2" NCoef="0" IVar="5" Cut="6.9238212585449219e+01" cType="1" res="-1.4187834225594997e-02" rms="2.8223624825477600e-01" purity="3.9664986729621887e-01" nType="0">
            <Node pos="l" depth="3" NCoef="0" IVar="-1" Cut="0.0000000000000000e+00" cType="1" res="-3.9709087461233139e-02" rms="2.4546611309051514e-01" purity="1.1131704598665237e-01" nType="-99"/>
            <Node pos="r" depth="3" NCoef="0" IVar="-1" Cut="0.0000000000000000e+00" cType="1" res="-4.5535643585026264e-03" rms="3.0795767903327942e-01" purity="6.2316757440567017e-01" nType="-99"/>
          </Node>
          <Node pos="r" depth="2" NCoef="0" IVar="10" Cut="-6.6650104522705078e-01" cType="1" res="-1.2847031466662884e-03" rms="2.8284767270088196e-01" purity="4.3641287088394165e-01" nType="0">
            <Node pos="l" depth="3" NCoef="0" IVar="-1" Cut="0.0000000000000000e+00" cType="1" res="-2.0330037921667099e-02" rms="2.7967801690101624e-01" purity="3.8108363747596741e-01" nType="-99"/>
            <Node pos="r" depth="3" NCoef="0" IVar="-1" Cut="0.0000000000000000e+00" cType="1" res="5.6832395493984222e-03" rms="2.8377327322959900e-01" purity="4.5692902803421021e-01" nType="-99"/>
          </Node>
        </Node>
        <Node pos="r" depth="1" NCoef="0" IVar="4" Cut="1.6200474548339844e+02" cType="1" res="3.4875078126788139e-03" rms="2.8762286901473999e-01" purity="5.5940753221511841e-01" nType="0">
          <Node pos="l" depth="2" NCoef="0" IVar="4" Cut="1.4085769653320312e+02" cType="1" res="1.1045740917325020e-02" rms="2.9953730106353760e-01" purity="2.9593545198440552e-01" nType="0">
            <Node pos="l" depth="3" NCoef="0" IVar="-1" Cut="0.0000000000000000e+00" cType="1" res="4.9030599184334278e-03" rms="2.8286820650100708e-01" purity="2.1792832016944885e-01" nType="-99"/>
            <Node pos="r" depth="3" NCoef="0" IVar="-1" Cut="0.0000000000000000e+00" cType="1" res="2.9952168464660645e-02" rms="3.4738525748252869e-01" purity="5.5031961202621460e-01" nType="-99"/>
          </Node>
          <Node pos="r" depth="2" NCoef="0" IVar="9" Cut="-9.3333339691162109e-01" cType="1" res="-2.4701431393623352e-03" rms="2.7772676944732666e-01" purity="7.6708489656448364e-01" nType="0">
            <Node pos="l" depth="3" NCoef="0" IVar="-1" Cut="0.0000000000000000e+00" cType="1" res="2.0293990150094032e-02" rms="3.0996993184089661e-01" purity="6.2480980157852173e-01" nType="-99"/>
            <Node pos="r" depth="3" NCoef="0" IVar="-1" Cut="0.0000000000000000e+00" cType="1" res="-8.4387380629777908e-03" rms="2.7137488126754761e-01" purity="7.9241740703582764e-01" nType="-99"/>
          </Node>
        </Node>
      </Node>
    </BinaryTree>
    <BinaryTree type="DecisionTree" boostWeight="1.0000000000000000e+00" itree="353">
      <Node pos="s" depth="0" NCoef="0" IVar="9" Cut="1.7332160472869873e+00" cType="1" res="1.1161260772496462e-03" rms="2.8522872924804688e-01" purity="5.0307160615921021e-01" nType="0">
        <Node pos="l" depth="1" NCoef="0" IVar="5" Cut="6.9100051879882812e+01" cType="1" res="2.2114266175776720e-03" rms="2.8836780786514282e-01" purity="5.2401900291442871e-01" nType="0">
          <Node pos="l" depth="2" NCoef="0" IVar="3" Cut="3.3311090087890625e+02" cType="1" res="-2.2083797957748175e-03" rms="2.8709858655929565e-01" purity="1.8234087526798248e-01" nType="0">
            <Node pos="l" depth="3" NCoef="0" IVar="-1" Cut="0.0000000000000000e+00" cType="1" res="7.7683193376287818e-04" rms="2.8163066506385803e-01" purity="1.6764172911643982e-01" nType="-99"/>
            <Node pos="r" depth="3" NCoef="0" IVar="-1" Cut="0.0000000000000000e+00" cType="1" res="-2.6367444545030594e-02" rms="3.4022480249404907e-01" purity="3.4486052393913269e-01" nType="-99"/>
          </Node>
          <Node pos="r" depth="2" NCoef="0" IVar="7" Cut="-1.1919529438018799e+00" cType="1" res="4.7327126376330853e-03" rms="2.8905904293060303e-01" purity="7.1892994642257690e-01" nType="0">
            <Node pos="l" depth="3" NCoef="0" IVar="-1" Cut="0.0000000000000000e+00" cType="1" res="-1.6398429870605469e-02" rms="2.9090312123298645e-01" purity="3.1207203865051270e-01" nType="-99"/>
            <Node pos="r" depth="3" NCoef="0" IVar="-1" Cut="0.0000000000000000e+00" cType="1" res="7.3173996061086655e-03" rms="2.8886395692825317e-01" purity="7.4953991174697876e-01" nType="-99"/>
          </Node>
        </Node>
        <Node pos="r" depth="1" NCoef="0" IVar="10" Cut="1.3455779850482941e-01" cType="1" res="-1.7614090815186501e-02" rms="2.2403967380523682e-01" purity="1.4485916495323181e-01" nType="0">
          <Node pos="l" depth="2" NCoef="0" IVar="-1" Cut="0.0000000000000000e+00" cType="1" res="-3.8865599781274796e-03" rms="2.2791427373886108e-01" purity="1.6927149891853333e-01" nType="-99"/>
          <Node pos="r" depth="2" NCoef="0" IVar="-1" Cut="0.0000000000000000e+00" cType="1" res="-5.3450442850589752e-02" rms="2.1941280364990234e-01" purity="1.2199151515960693e-01" nType="-99"/>
        </Node>
      </Node>
    </BinaryTree>
    <BinaryTree type="DecisionTree" boostWeight="1.0000000000000000e+00" itree="354">
      <Node pos="s" depth="0" NCoef="0" IVar="11" Cut="1.6952279806137085e+00" cType="1" res="-7.1220984682440758e-04" rms="2.8577798604965210e-01" purity="4.9438416957855225e-01" nType="0">
        <Node pos="l" depth="1" NCoef="0" IVar="10" Cut="1.4665086269378662e+00" cType="1" res="2.2682399139739573e-04" rms="2.8470471501350403e-01" purity="4.9055811762809753e-01" nType="0">
          <Node pos="l" depth="2" NCoef="0" IVar="2" Cut="6.3790783691406250e+02" cType="1" res="1.8904389580711722e-03" rms="2.8500005602836609e-01" purity="5.1135635375976562e-01" nType="0">
            <Node pos="l" depth="3" NCoef="0" IVar="-1" Cut="0.0000000000000000e+00" cType="1" res="3.8619767874479294e-03" rms="2.8392791748046875e-01" purity="5.0543844699859619e-01" nType="-99"/>
            <Node pos="r" depth="3" NCoef="0" IVar="-1" Cut="0.0000000000000000e+00" cType="1" res="-1.5983313322067261e-02" rms="2.9917487502098083e-01" purity="5.9496116638183594e-01" nType="-99"/>
          </Node>
          <Node pos="r" depth="2" NCoef="0" IVar="8" Cut="6.6669821739196777e-01" cType="1" res="-1.2960696592926979e-02" rms="2.8200539946556091e-01" purity="3.2568997144699097e-01" nType="0">
            <Node pos="l" depth="3" NCoef="0" IVar="-1" Cut="0.0000000000000000e+00" cType="1" res="-2.3742578923702240e-02" rms="2.8482148051261902e-01" purity="3.7101602554321289e-01" nType="-99"/>
            <Node pos="r" depth="3" NCoef="0" IVar="-1" Cut="0.0000000000000000e+00" cType="1" res="5.8853123337030411e-03" rms="2.7478903532028198e-01" purity="2.2393718361854553e-01" nType="-99"/>
          </Node>
        </Node>
        <Node pos="r" depth="1" NCoef="0" IVar="-1" Cut="0.0000000000000000e+00" cType="1" res="-2.3932069540023804e-02" rms="3.1011900305747986e-01" purity="5.8848905563354492e-01" nType="-99"/>
      </Node>
    </BinaryTree>
    <BinaryTree type="DecisionTree" boostWeight="1.0000000000000000e+00" itree="355">
      <Node pos="s" depth="0" NCoef="0" IVar="0" Cut="2.0801359863281250e+03" cType="1" res="2.5837272914941423e-05" rms="2.8911405801773071e-01" purity="4.9902015924453735e-01" nType="0">
        <Node pos="l" depth="1" NCoef="0" IVar="4" Cut="2.2259222412109375e+02" cType="1" res="-1.3743760064244270e-03" rms="2.9947093129158020e-01" purity="4.2580521106719971e-01" nType="0">
          <Node pos="l" depth="2" NCoef="0" IVar="11" Cut="8.6665838956832886e-01" cType="1" res="4.6114507131278515e-04" rms="2.9781338572502136e-01" purity="3.9276099205017090e-01" nType="0">
            <Node pos="l" depth="3" NCoef="0" IVar="-1" Cut="0.0000000000000000e+00" cType="1" res="-1.5316964127123356e-03" rms="2.9665094614028931e-01" purity="3.6068150401115417e-01" nType="-99"/>
            <Node pos="r" depth="3" NCoef="0" IVar="-1" Cut="0.0000000000000000e+00" cType="1" res="1.3601697981357574e-02" rms="3.0601134896278381e-01" purity="6.3195484876632690e-01" nType="-99"/>
          </Node>
          <Node pos="r" depth="2" NCoef="0" IVar="2" Cut="4.2500540161132812e+02" cType="1" res="-1.6929961740970612e-02" rms="3.1273382902145386e-01" purity="7.0584690570831299e-01" nType="0">
            <Node pos="l" depth="3" NCoef="0" IVar="-1" Cut="0.0000000000000000e+00" cType="1" res="-5.3191636689007282e-03" rms="2.8944781422615051e-01" purity="7.5970941781997681e-01" nType="-99"/>
            <Node pos="r" depth="3" NCoef="0" IVar="-1" Cut="0.0000000000000000e+00" cType="1" res="-3.2746300101280212e-02" rms="3.5133612155914307e-01" purity="6.0419076681137085e-01" nType="-99"/>
          </Node>
        </Node>
        <Node pos="r" depth="1" NCoef="0" IVar="2" Cut="6.7794287109375000e+02" cType="1" res="7.7924574725329876e-03" rms="2.2294263541698456e-01" purity="9.0512472391128540e-01" nType="0">
          <Node pos="l" depth="2" NCoef="0" IVar="3" Cut="3.6780154418945312e+02" cType="1" res="3.4092832356691360e-03" rms="1.8117204308509827e-01" purity="9.5319354534149170e-01" nType="0">
            <Node pos="l" depth="3" NCoef="0" IVar="-1" Cut="0.0000000000000000e+00" cType="1" res="3.4416940063238144e-02" rms="1.5508067607879639e-01" purity="9.7267651557922363e-01" nType="-99"/>
            <Node pos="r" depth="3" NCoef="0" IVar="-1" Cut="0.0000000000000000e+00" cType="1" res="-1.0468429885804653e-02" rms="2.1227480471134186e-01" purity="9.2575907707214355e-01" nType="-99"/>
          </Node>
          <Node pos="r" depth="2" NCoef="0" IVar="-1" Cut="0.0000000000000000e+00" cType="1" res="1.9604280591011047e-02" rms="3.2106336951255798e-01" purity="7.5239533185958862e-01" nType="-99"/>
        </Node>
      </Node>
    </BinaryTree>
    <BinaryTree type="DecisionTree" boostWeight="1.0000000000000000e+00" itree="356">
      <Node pos="s" depth="0" NCoef="0" IVar="1" Cut="1.4629244804382324e-01" cType="1" res="8.1271881936118007e-04" rms="2.8827399015426636e-01" purity="5.0176477432250977e-01" nType="0">
        <Node pos="l" depth="1" NCoef="0" IVar="1" Cut="4.1795071214437485e-02" cType="1" res="2.9388030525296926e-03" rms="2.9590353369712830e-01" purity="4.3248790502548218e-01" nType="0">
          <Node pos="l" depth="2" NCoef="0" IVar="11" Cut="-1.3431016206741333e+00" cType="1" res="-2.0155392121523619e-03" rms="2.6609602570533752e-01" purity="2.0299023389816284e-01" nType="0">
            <Node pos="l" depth="3" NCoef="0" IVar="-1" Cut="0.0000000000000000e+00" cType="1" res="-1.1353949084877968e-02" rms="2.4268563091754913e-01" purity="1.1359942704439163e-01" nType="-99"/>
            <Node pos="r" depth="3" NCoef="0" IVar="-1" Cut="0.0000000000000000e+00" cType="1" res="1.0128097608685493e-02" rms="3.1923738121986389e-01" purity="4.3808057904243469e-01" nType="-99"/>
          </Node>
          <Node pos="r" depth="2" NCoef="0" IVar="10" Cut="9.3289995193481445e-01" cType="1" res="7.6032951474189758e-03" rms="3.2138109207153320e-01" purity="6.4855891466140747e-01" nType="0">
            <Node pos="l" depth="3" NCoef="0" IVar="-1" Cut="0.0000000000000000e+00" cType="1" res="1.1780278757214546e-02" rms="3.1812718510627747e-01" purity="6.7378920316696167e-01" nType="-99"/>
            <Node pos="r" depth="3" NCoef="0" IVar="-1" Cut="0.0000000000000000e+00" cType="1" res="-7.0848250761628151e-03" rms="3.3245196938514709e-01" purity="5.5709141492843628e-01" nType="-99"/>
          </Node>
        </Node>
        <Node pos="r" depth="1" NCoef="0" IVar="11" Cut="-1.3443797826766968e+00" cType="1" res="-1.0366672649979591e-02" rms="2.4396149814128876e-01" purity="8.6603701114654541e-01" nType="0">
          <Node pos="l" depth="2" NCoef="0" IVar="-1" Cut="0.0000000000000000e+00" cType="1" res="-1.9156752154231071e-02" rms="3.4064576029777527e-01" purity="6.7246335744857788e-01" nType="-99"/>
          <Node pos="r" depth="2" NCoef="0" IVar="-1" Cut="0.0000000000000000e+00" cType="1" res="-1.4641188085079193e-02" rms="1.9314937293529510e-01" purity="9.4183164834976196e-01" nType="-99"/>
        </Node>
      </Node>
    </BinaryTree>
    <BinaryTree type="DecisionTree" boostWeight="1.0000000000000000e+00" itree="357">
      <Node pos="s" depth="0" NCoef="0" IVar="4" Cut="1.6196507263183594e+02" cType="1" res="-4.2567923665046692e-03" rms="2.8538843989372253e-01" purity="4.9343803524971008e-01" nType="0">
        <Node pos="l" depth="1" NCoef="0" IVar="10" Cut="9.3324214220046997e-01" cType="1" res="4.2158603901043534e-04" rms="2.8940838575363159e-01" purity="2.8329855203628540e-01" nType="0">
          <Node pos="l" depth="2" NCoef="0" IVar="11" Cut="3.1427860260009766e-01" cType="1" res="-3.7858851719647646e-03" rms="2.8761133551597595e-01" purity="2.9646882414817810e-01" nType="0">
            <Node pos="l" depth="3" NCoef="0" IVar="-1" Cut="0.0000000000000000e+00" cType="1" res="-7.5592589564621449e-03" rms="2.7933228015899658e-01" purity="2.4586614966392517e-01" nType="-99"/>
            <Node pos="r" depth="3" NCoef="0" IVar="-1" Cut="0.0000000000000000e+00" cType="1" res="9.1064972802996635e-03" rms="3.2811281085014343e-01" purity="5.6755852699279785e-01" nType="-99"/>
          </Node>
          <Node pos="r" depth="2" NCoef="0" IVar="2" Cut="3.1599114990234375e+02" cType="1" res="1.2971573509275913e-02" rms="2.9434654116630554e-01" purity="2.4401450157165527e-01" nType="0">
            <Node pos="l" depth="3" NCoef="0" IVar="-1" Cut="0.0000000000000000e+00" cType="1" res="-2.7505673933774233e-03" rms="2.7601104974746704e-01" purity="2.1803732216358185e-01" nType="-99"/>
            <Node pos="r" depth="3" NCoef="0" IVar="-1" Cut="0.0000000000000000e+00" cType="1" res="3.2735068351030350e-02" rms="3.1003525853157043e-01" purity="2.6859292387962341e-01" nType="-99"/>
          </Node>
        </Node>
        <Node pos="r" depth="1" NCoef="0" IVar="0" Cut="1.5895588378906250e+03" cType="1" res="-9.8015889525413513e-03" rms="2.8044834733009338e-01" purity="7.4249464273452759e-01" nType="0">
          <Node pos="l" depth="2" NCoef="0" IVar="0" Cut="1.3219888916015625e+03" cType="1" res="-2.8130194172263145e-02" rms="3.4044656157493591e-01" purity="4.5911785960197449e-01" nType="0">
            <Node pos="l" depth="3" NCoef="0" IVar="-1" Cut="0.0000000000000000e+00" cType="1" res="-4.5630425214767456e-02" rms="3.3049395680427551e-01" purity="2.4247668683528900e-01" nType="-99"/>
            <Node pos="r" depth="3" NCoef="0" IVar="-1" Cut="0.0000000000000000e+00" cType="1" res="-1.2761410325765610e-02" rms="3.4361702203750610e-01" purity="5.4691141843795776e-01" nType="-99"/>
          </Node>
          <Node pos="r" depth="2" NCoef="0" IVar="7" Cut="7.2190153598785400e-01" cType="1" res="-2.4693433661013842e-03" rms="2.5211197137832642e-01" purity="8.5585778951644897e-01" nType="0">
            <Node pos="l" depth="3" NCoef="0" IVar="-1" Cut="0.0000000000000000e+00" cType="1" res="-3.2730084058130160e-05" rms="2.4453753232955933e-01" purity="8.7858045101165771e-01" nType="-99"/>
            <Node pos="r" depth="3" NCoef="0" IVar="-1" Cut="0.0000000000000000e+00" cType="1" res="-2.0128594711422920e-02" rms="2.9348805546760559e-01" purity="7.1794503927230835e-01" nType="-99"/>
          </Node>
        </Node>
      </Node>
    </BinaryTree>
    <BinaryTree type="DecisionTree" boostWeight="1.0000000000000000e+00" itree="358">
      <Node pos="s" depth="0" NCoef="0" IVar="7" Cut="-9.0007930994033813e-01" cType="1" res="3.2170116901397705e-03" rms="2.8718104958534241e-01" purity="4.9984911084175110e-01" nType="0">
        <Node pos="l" depth="1" NCoef="0" IVar="10" Cut="-9.3302851915359497e-01" cType="1" res="1.1119958013296127e-02" rms="2.6098167896270752e-01" purity="2.4301074445247650e-01" nType="0">
          <Node pos="l" depth="2" NCoef="0" IVar="-1" Cut="0.0000000000000000e+00" cType="1" res="-8.2487277686595917e-03" rms="2.2709682583808899e-01" purity="1.8412978947162628e-01" nType="-99"/>
          <Node pos="r" depth="2" NCoef="0" IVar="1" Cut="1.4601195231080055e-02" cType="1" res="1.7493082210421562e-02" rms="2.7315324544906616e-01" purity="2.6666143536567688e-01" nType="0">
            <Node pos="l" depth="3" NCoef="0" IVar="-1" Cut="0.0000000000000000e+00" cType="1" res="-3.9631868712604046e-03" rms="1.7120863497257233e-01" purity="5.7902399450540543e-02" nType="-99"/>
            <Node pos="r" depth="3" NCoef="0" IVar="-1" Cut="0.0000000000000000e+00" cType="1" res="3.0153736472129822e-02" rms="3.1595683097839355e-01" purity="3.8430237770080566e-01" nType="-99"/>
          </Node>
        </Node>
        <Node pos="r" depth="1" NCoef="0" IVar="2" Cut="5.6644378662109375e+02" cType="1" res="1.7318013124167919e-03" rms="2.9181843996047974e-01" purity="5.4811710119247437e-01" nType="0">
          <Node pos="l" depth="2" NCoef="0" IVar="9" Cut="-1.3339704275131226e-01" cType="1" res="1.7859024228528142e-04" rms="2.8987967967987061e-01" purity="5.3279048204421997e-01" nType="0">
            <Node pos="l" depth="3" NCoef="0" IVar="-1" Cut="0.0000000000000000e+00" cType="1" res="-5.9999595396220684e-03" rms="2.9185524582862854e-01" purity="5.2492433786392212e-01" nType="-99"/>
            <Node pos="r" depth="3" NCoef="0" IVar="-1" Cut="0.0000000000000000e+00" cType="1" res="5.1179989241063595e-03" rms="2.8828796744346619e-01" purity="5.3882598876953125e-01" nType="-99"/>
          </Node>
          <Node pos="r" depth="2" NCoef="0" IVar="8" Cut="-4.0121337771415710e-01" cType="1" res="1.2717642821371555e-02" rms="3.0495396256446838e-01" purity="6.5652191638946533e-01" nType="0">
            <Node pos="l" depth="3" NCoef="0" IVar="-1" Cut="0.0000000000000000e+00" cType="1" res="2.8424059972167015e-02" rms="3.1378066539764404e-01" purity="6.2455469369888306e-01" nType="-99"/>
            <Node pos="r" depth="3" NCoef="0" IVar="-1" Cut="0.0000000000000000e+00" cType="1" res="4.6765832230448723e-03" rms="2.9999068379402161e-01" purity="6.7292892932891846e-01" nType="-99"/>
          </Node>
        </Node>
      </Node>
    </BinaryTree>
    <BinaryTree type="DecisionTree" boostWeight="1.0000000000000000e+00" itree="359">
      <Node pos="s" depth="0" NCoef="0" IVar="1" Cut="8.3669394254684448e-02" cType="1" res="-5.6340745650231838e-03" rms="2.8543612360954285e-01" purity="4.9884718656539917e-01" nType="0">
        <Node pos="l" depth="1" NCoef="0" IVar="1" Cut="1.9922390580177307e-02" cType="1" res="-9.0174954384565353e-03" rms="2.8594088554382324e-01" purity="3.2612568140029907e-01" nType="0">
          <Node pos="l" depth="2" NCoef="0" IVar="0" Cut="1.4405245361328125e+03" cType="1" res="-8.8241416960954666e-04" rms="2.2160908579826355e-01" purity="1.1823572963476181e-01" nType="0">
            <Node pos="l" depth="3" NCoef="0" IVar="-1" Cut="0.0000000000000000e+00" cType="1" res="-1.8805390223860741e-02" rms="1.5093940496444702e-01" purity="3.1080832704901695e-02" nType="-99"/>
            <Node pos="r" depth="3" NCoef="0" IVar="-1" Cut="0.0000000000000000e+00" cType="1" res="7.6478151604533195e-03" rms="3.1891894340515137e-01" purity="2.9272830486297607e-01" nType="-99"/>
          </Node>
          <Node pos="r" depth="2" NCoef="0" IVar="9" Cut="1.3280411064624786e-01" cType="1" res="-1.3365738093852997e-02" rms="3.1489735841751099e-01" purity="4.3724390864372253e-01" nType="0">
            <Node pos="l" depth="3" NCoef="0" IVar="-1" Cut="0.0000000000000000e+00" cType="1" res="-2.0668199285864830e-02" rms="3.1344673037528992e-01" purity="4.4379600882530212e-01" nType="-99"/>
            <Node pos="r" depth="3" NCoef="0" IVar="-1" Cut="0.0000000000000000e+00" cType="1" res="-3.3773211762309074e-03" rms="3.1637334823608398e-01" purity="4.2925643920898438e-01" nType="-99"/>
          </Node>
        </Node>
        <Node pos="r" depth="1" NCoef="0" IVar="1" Cut="1.0060384124517441e-01" cType="1" res="3.5652180667966604e-04" rms="2.8444153070449829e-01" purity="8.0466341972351074e-01" nType="0">
          <Node pos="l" depth="2" NCoef="0" IVar="-1" Cut="0.0000000000000000e+00" cType="1" res="-1.0302857495844364e-02" rms="3.2722237706184387e-01" purity="7.0385080575942993e-01" nType="-99"/>
          <Node pos="r" depth="2" NCoef="0" IVar="1" Cut="1.3285887241363525e-01" cType="1" res="2.9524727724492550e-03" rms="2.7333635091781616e-01" purity="8.2839095592498779e-01" nType="0">
            <Node pos="l" depth="3" NCoef="0" IVar="-1" Cut="0.0000000000000000e+00" cType="1" res="1.4328085817396641e-02" rms="3.1207212805747986e-01" purity="7.5975579023361206e-01" nType="-99"/>
            <Node pos="r" depth="3" NCoef="0" IVar="-1" Cut="0.0000000000000000e+00" cType="1" res="-4.7124559059739113e-03" rms="2.4993559718132019e-01" purity="8.6514127254486084e-01" nType="-99"/>
          </Node>
        </Node>
      </Node>
    </BinaryTree>
    <BinaryTree type="DecisionTree" boostWeight="1.0000000000000000e+00" itree="360">
      <Node pos="s" depth="0" NCoef="0" IVar="11" Cut="-2.7238171100616455e+00" cType="1" res="2.7323206886649132e-03" rms="2.8757715225219727e-01" purity="5.0243961811065674e-01" nType="0">
        <Node pos="l" depth="1" NCoef="0" IVar="4" Cut="1.3462727355957031e+02" cType="1" res="8.6127808317542076e-03" rms="2.9757970571517944e-01" purity="2.3179487884044647e-01" nType="0">
          <Node pos="l" depth="2" NCoef="0" IVar="1" Cut="4.1834436357021332e-02" cType="1" res="3.0866242013871670e-03" rms="2.3999637365341187e-01" purity="8.8542543351650238e-02" nType="0">
            <Node pos="l" depth="3" NCoef="0" IVar="-1" Cut="0.0000000000000000e+00" cType="1" res="-9.2725902795791626e-03" rms="1.7985984683036804e-01" purity="3.9838090538978577e-02" nType="-99"/>
            <Node pos="r" depth="3" NCoef="0" IVar="-1" Cut="0.0000000000000000e+00" cType="1" res="1.5468224883079529e-02" rms="3.3116716146469116e-01" purity="1.8944957852363586e-01" nType="-99"/>
          </Node>
          <Node pos="r" depth="2" NCoef="0" IVar="3" Cut="2.2551048278808594e+02" cType="1" res="1.5530182048678398e-02" rms="3.5667386651039124e-01" purity="4.1111186146736145e-01" nType="0">
            <Node pos="l" depth="3" NCoef="0" IVar="-1" Cut="0.0000000000000000e+00" cType="1" res="-3.7348526529967785e-03" rms="3.4183347225189209e-01" purity="2.7781957387924194e-01" nType="-99"/>
            <Node pos="r" depth="3" NCoef="0" IVar="-1" Cut="0.0000000000000000e+00" cType="1" res="2.1752081811428070e-02" rms="3.6548602581024170e-01" purity="4.9849483370780945e-01" nType="-99"/>
          </Node>
        </Node>
        <Node pos="r" depth="1" NCoef="0" IVar="2" Cut="6.1913116455078125e+02" cType="1" res="-2.5397613644599915e-03" rms="2.7819833159446716e-01" purity="7.4508410692214966e-01" nType="0">
          <Node pos="l" depth="2" NCoef="0" IVar="0" Cut="1.2829284667968750e+03" cType="1" res="-5.2912801038473845e-04" rms="2.7564212679862976e-01" purity="7.4362081289291382e-01" nType="0">
            <Node pos="l" depth="3" NCoef="0" IVar="-1" Cut="0.0000000000000000e+00" cType="1" res="-1.7143478617072105e-02" rms="3.1885921955108643e-01" purity="2.7380937337875366e-01" nType="-99"/>
            <Node pos="r" depth="3" NCoef="0" IVar="-1" Cut="0.0000000000000000e+00" cType="1" res="4.6426970511674881e-03" rms="2.6640459895133972e-01" purity="8.3343982696533203e-01" nType="-99"/>
          </Node>
          <Node pos="r" depth="2" NCoef="0" IVar="-1" Cut="0.0000000000000000e+00" cType="1" res="-2.6796313002705574e-02" rms="3.0351477861404419e-01" purity="7.6083517074584961e-01" nType="-99"/>
        </Node>
      </Node>
    </BinaryTree>
    <BinaryTree type="DecisionTree" boostWeight="1.0000000000000000e+00" itree="361">
      <Node pos="s" depth="0" NCoef="0" IVar="7" Cut="6.7077326774597168e-01" cType="1" res="4.7310972586274147e-03" rms="2.9247316718101501e-01" purity="5.0177019834518433e-01" nType="0">
        <Node pos="l" depth="1" NCoef="0" IVar="9" Cut="4.0006494522094727e-01" cType="1" res="2.2243708372116089e-03" rms="2.9599803686141968e-01" purity="5.4820138216018677e-01" nType="0">
          <Node pos="l" depth="2" NCoef="0" IVar="2" Cut="5.8668383789062500e+02" cType="1" res="-8.4534293273463845e-04" rms="2.9429200291633606e-01" purity="5.6475299596786499e-01" nType="0">
            <Node pos="l" depth="3" NCoef="0" IVar="-1" Cut="0.0000000000000000e+00" cType="1" res="1.6451167175546288e-03" rms="2.9219141602516174e-01" purity="5.5631589889526367e-01" nType="-99"/>
            <Node pos="r" depth="3" NCoef="0" IVar="-1" Cut="0.0000000000000000e+00" cType="1" res="-2.0796541124582291e-02" rms="3.1133389472961426e-01" purity="6.3838183879852295e-01" nType="-99"/>
          </Node>
          <Node pos="r" depth="2" NCoef="0" IVar="9" Cut="9.7145414352416992e-01" cType="1" res="8.2786949351429939e-03" rms="2.9924201965332031e-01" purity="5.1555699110031128e-01" nType="0">
            <Node pos="l" depth="3" NCoef="0" IVar="-1" Cut="0.0000000000000000e+00" cType="1" res="2.1559556946158409e-02" rms="2.9315820336341858e-01" purity="6.5292459726333618e-01" nType="-99"/>
            <Node pos="r" depth="3" NCoef="0" IVar="-1" Cut="0.0000000000000000e+00" cType="1" res="-2.6124834548681974e-03" rms="3.0503514409065247e-01" purity="3.7371933460235596e-01" nType="-99"/>
          </Node>
        </Node>
        <Node pos="r" depth="1" NCoef="0" IVar="2" Cut="3.1771105957031250e+02" cType="1" res="1.3679654337465763e-02" rms="2.7934426069259644e-01" purity="3.3601906895637512e-01" nType="0">
          <Node pos="l" depth="2" NCoef="0" IVar="7" Cut="1.3800628185272217e+00" cType="1" res="2.9306596145033836e-02" rms="2.7939864993095398e-01" purity="3.0767065286636353e-01" nType="0">
            <Node pos="l" depth="3" NCoef="0" IVar="-1" Cut="0.0000000000000000e+00" cType="1" res="4.4331848621368408e-02" rms="3.1120035052299500e-01" purity="4.0904688835144043e-01" nType="-99"/>
            <Node pos="r" depth="3" NCoef="0" IVar="-1" Cut="0.0000000000000000e+00" cType="1" res="1.8966326490044594e-02" rms="2.0917426049709320e-01" purity="1.2638455629348755e-01" nType="-99"/>
          </Node>
          <Node pos="r" depth="2" NCoef="0" IVar="10" Cut="3.9902403950691223e-01" cType="1" res="6.4917838926703553e-07" rms="2.7857807278633118e-01" purity="3.6083376407623291e-01" nType="0">
            <Node pos="l" depth="3" NCoef="0" IVar="-1" Cut="0.0000000000000000e+00" cType="1" res="-1.0740235447883606e-02" rms="2.7129971981048584e-01" purity="3.6528280377388000e-01" nType="-99"/>
            <Node pos="r" depth="3" NCoef="0" IVar="-1" Cut="0.0000000000000000e+00" cType="1" res="1.2903603725135326e-02" rms="2.8707960247993469e-01" purity="3.5528224706649780e-01" nType="-99"/>
          </Node>
        </Node>
      </Node>
    </BinaryTree>
    <BinaryTree type="DecisionTree" boostWeight="1.0000000000000000e+00" itree="362">
      <Node pos="s" depth="0" NCoef="0" IVar="5" Cut="6.8246124267578125e+01" cType="1" res="-2.5839963927865028e-03" rms="2.8688862919807434e-01" purity="4.9754208326339722e-01" nType="0">
        <Node pos="l" depth="1" NCoef="0" IVar="0" Cut="1.7601090087890625e+03" cType="1" res="3.3850595355033875e-03" rms="2.8237476944923401e-01" purity="1.7768363654613495e-01" nType="0">
          <Node pos="l" depth="2" NCoef="0" IVar="4" Cut="1.1597418975830078e+02" cType="1" res="6.3780904747545719e-03" rms="2.7343755960464478e-01" purity="1.4856655895709991e-01" nType="0">
            <Node pos="l" depth="3" NCoef="0" IVar="-1" Cut="0.0000000000000000e+00" cType="1" res="-5.3706974722445011e-03" rms="2.0855775475502014e-01" purity="6.5354742109775543e-02" nType="-99"/>
            <Node pos="r" depth="3" NCoef="0" IVar="-1" Cut="0.0000000000000000e+00" cType="1" res="1.6265861690044403e-02" rms="3.3941435813903809e-01" purity="2.5678515434265137e-01" nType="-99"/>
          </Node>
          <Node pos="r" depth="2" NCoef="0" IVar="-1" Cut="0.0000000000000000e+00" cType="1" res="-2.2738656029105186e-02" rms="3.6427116394042969e-01" purity="4.9490809440612793e-01" nType="-99"/>
        </Node>
        <Node pos="r" depth="1" NCoef="0" IVar="0" Cut="2.0011540527343750e+03" cType="1" res="-6.0360529460012913e-03" rms="2.8941076993942261e-01" purity="6.8252432346343994e-01" nType="0">
          <Node pos="l" depth="2" NCoef="0" IVar="7" Cut="9.6235090494155884e-01" cType="1" res="-9.5724454149603844e-03" rms="3.1248477101325989e-01" purity="5.9841454029083252e-01" nType="0">
            <Node pos="l" depth="3" NCoef="0" IVar="-1" Cut="0.0000000000000000e+00" cType="1" res="-7.3960339650511742e-03" rms="3.1607022881507874e-01" purity="6.4344543218612671e-01" nType="-99"/>
            <Node pos="r" depth="3" NCoef="0" IVar="-1" Cut="0.0000000000000000e+00" cType="1" res="-2.4674953892827034e-02" rms="2.8719308972358704e-01" purity="2.9985192418098450e-01" nType="-99"/>
          </Node>
          <Node pos="r" depth="2" NCoef="0" IVar="6" Cut="6.6722038269042969e+01" cType="1" res="4.2287507094442844e-03" rms="2.0809841156005859e-01" purity="9.2666316032409668e-01" nType="0">
            <Node pos="l" depth="3" NCoef="0" IVar="-1" Cut="0.0000000000000000e+00" cType="1" res="-1.2744796462357044e-02" rms="3.0164572596549988e-01" purity="8.0856776237487793e-01" nType="-99"/>
            <Node pos="r" depth="3" NCoef="0" IVar="-1" Cut="0.0000000000000000e+00" cType="1" res="2.6850203052163124e-02" rms="1.6980803012847900e-01" purity="9.6224421262741089e-01" nType="-99"/>
          </Node>
        </Node>
      </Node>
    </BinaryTree>
    <BinaryTree type="DecisionTree" boostWeight="1.0000000000000000e+00" itree="363">
      <Node pos="s" depth="0" NCoef="0" IVar="4" Cut="2.7297439575195312e+02" cType="1" res="1.4320674818009138e-03" rms="2.8721320629119873e-01" purity="5.0089097023010254e-01" nType="0">
        <Node pos="l" depth="1" NCoef="0" IVar="9" Cut="1.4666531085968018e+00" cType="1" res="1.7184892203658819e-04" rms="2.9121610522270203e-01" purity="4.6416601538658142e-01" nType="0">
          <Node pos="l" depth="2" NCoef="0" IVar="9" Cut="1.0603026151657104e+00" cType="1" res="-1.2033025268465281e-03" rms="2.9346254467964172e-01" purity="4.8948127031326294e-01" nType="0">
            <Node pos="l" depth="3" NCoef="0" IVar="-1" Cut="0.0000000000000000e+00" cType="1" res="3.7748523754999042e-04" rms="2.9219171404838562e-01" purity="4.9773854017257690e-01" nType="-99"/>
            <Node pos="r" depth="3" NCoef="0" IVar="-1" Cut="0.0000000000000000e+00" cType="1" res="-2.0367266610264778e-02" rms="3.0685722827911377e-01" purity="3.9669719338417053e-01" nType="-99"/>
          </Node>
          <Node pos="r" depth="2" NCoef="0" IVar="7" Cut="1.4486530423164368e-01" cType="1" res="1.3407007791101933e-02" rms="2.6827642321586609e-01" purity="2.2051922976970673e-01" nType="0">
            <Node pos="l" depth="3" NCoef="0" IVar="-1" Cut="0.0000000000000000e+00" cType="1" res="-5.5466714547947049e-04" rms="2.5094029307365417e-01" purity="1.9965781271457672e-01" nType="-99"/>
            <Node pos="r" depth="3" NCoef="0" IVar="-1" Cut="0.0000000000000000e+00" cType="1" res="3.5280238837003708e-02" rms="2.8324154019355774e-01" purity="2.4047012627124786e-01" nType="-99"/>
          </Node>
        </Node>
        <Node pos="r" depth="1" NCoef="0" IVar="0" Cut="2.1232658691406250e+03" cType="1" res="1.4430753886699677e-02" rms="2.4170972406864166e-01" purity="8.7969499826431274e-01" nType="0">
          <Node pos="l" depth="2" NCoef="0" IVar="-1" Cut="0.0000000000000000e+00" cType="1" res="3.1110376119613647e-02" rms="3.1305563449859619e-01" purity="7.5935000181198120e-01" nType="-99"/>
          <Node pos="r" depth="2" NCoef="0" IVar="-1" Cut="0.0000000000000000e+00" cType="1" res="1.1656829155981541e-02" rms="1.9929082691669464e-01" purity="9.3579119443893433e-01" nType="-99"/>
        </Node>
      </Node>
    </BinaryTree>
    <BinaryTree type="DecisionTree" boostWeight="1.0000000000000000e+00" itree="364">
      <Node pos="s" depth="0" NCoef="0" IVar="7" Cut="1.2069498300552368e+00" cType="1" res="-1.7262485926039517e-04" rms="2.8952741622924805e-01" purity="4.9862465262413025e-01" nType="0">
        <Node pos="l" depth="1" NCoef="0" IVar="7" Cut="6.3812965154647827e-01" cType="1" res="-1.4500232646241784e-03" rms="2.9564642906188965e-01" purity="5.3412050008773804e-01" nType="0">
          <Node pos="l" depth="2" NCoef="0" IVar="11" Cut="5.9013569355010986e-01" cType="1" res="6.1380525585263968e-04" rms="2.9350695013999939e-01" purity="5.4939067363739014e-01" nType="0">
            <Node pos="l" depth="3" NCoef="0" IVar="-1" Cut="0.0000000000000000e+00" cType="1" res="2.6345283258706331e-03" rms="2.9457771778106689e-01" purity="5.0723457336425781e-01" nType="-99"/>
            <Node pos="r" depth="3" NCoef="0" IVar="-1" Cut="0.0000000000000000e+00" cType="1" res="-9.4024697318673134e-03" rms="2.8795585036277771e-01" purity="7.5979351997375488e-01" nType="-99"/>
          </Node>
          <Node pos="r" depth="2" NCoef="0" IVar="11" Cut="-7.9196894168853760e-01" cType="1" res="-1.3036515563726425e-02" rms="3.0712389945983887e-01" purity="4.4839218258857727e-01" nType="0">
            <Node pos="l" depth="3" NCoef="0" IVar="-1" Cut="0.0000000000000000e+00" cType="1" res="-2.5128584355115891e-02" rms="3.0272364616394043e-01" purity="2.5566589832305908e-01" nType="-99"/>
            <Node pos="r" depth="3" NCoef="0" IVar="-1" Cut="0.0000000000000000e+00" cType="1" res="3.4838325809687376e-03" rms="3.1287685036659241e-01" purity="7.3653322458267212e-01" nType="-99"/>
          </Node>
        </Node>
        <Node pos="r" depth="1" NCoef="0" IVar="1" Cut="2.5026094168424606e-02" cType="1" res="1.1530963703989983e-02" rms="2.2553884983062744e-01" purity="1.7341031134128571e-01" nType="0">
          <Node pos="l" depth="2" NCoef="0" IVar="10" Cut="3.9924082159996033e-01" cType="1" res="4.0062808693619445e-05" rms="1.7182393372058868e-01" purity="5.4847303777933121e-02" nType="0">
            <Node pos="l" depth="3" NCoef="0" IVar="-1" Cut="0.0000000000000000e+00" cType="1" res="2.7162497863173485e-02" rms="1.8131908774375916e-01" purity="6.7395515739917755e-02" nType="-99"/>
            <Node pos="r" depth="3" NCoef="0" IVar="-1" Cut="0.0000000000000000e+00" cType="1" res="-3.3235825598239899e-02" rms="1.5924979746341705e-01" purity="3.9999019354581833e-02" nType="-99"/>
          </Node>
          <Node pos="r" depth="2" NCoef="0" IVar="-1" Cut="0.0000000000000000e+00" cType="1" res="3.6625757813453674e-02" rms="3.0820724368095398e-01" purity="4.2331361770629883e-01" nType="-99"/>
        </Node>
      </Node>
    </BinaryTree>
    <BinaryTree type="DecisionTree" boostWeight="1.0000000000000000e+00" itree="365">
      <Node pos="s" depth="0" NCoef="0" IVar="2" Cut="6.9338275146484375e+02" cType="1" res="6.3889089506119490e-04" rms="2.8756889700889587e-01" purity="5.0204432010650635e-01" nType="0">
        <Node pos="l" depth="1" NCoef="0" IVar="2" Cut="2.4698968505859375e+02" cType="1" res="-2.4066321202553809e-04" rms="2.8551280498504639e-01" purity="4.9727252125740051e-01" nType="0">
          <Node pos="l" depth="2" NCoef="0" IVar="2" Cut="2.2908932495117188e+02" cType="1" res="-1.1242145672440529e-02" rms="2.8590625524520874e-01" purity="3.5396352410316467e-01" nType="0">
            <Node pos="l" depth="3" NCoef="0" IVar="-1" Cut="0.0000000000000000e+00" cType="1" res="-1.5787755837664008e-03" rms="2.8840821981430054e-01" purity="3.4948670864105225e-01" nType="-99"/>
            <Node pos="r" depth="3" NCoef="0" IVar="-1" Cut="0.0000000000000000e+00" cType="1" res="-2.9846396297216415e-02" rms="2.8160849213600159e-01" purity="3.6046233773231506e-01" nType="-99"/>
          </Node>
          <Node pos="r" depth="2" NCoef="0" IVar="3" Cut="2.9595532226562500e+02" cType="1" res="1.8794529605656862e-03" rms="2.8538817167282104e-01" purity="5.2488988637924194e-01" nType="0">
            <Node pos="l" depth="3" NCoef="0" IVar="-1" Cut="0.0000000000000000e+00" cType="1" res="5.6935301981866360e-03" rms="2.8862795233726501e-01" purity="4.5371273159980774e-01" nType="-99"/>
            <Node pos="r" depth="3" NCoef="0" IVar="-1" Cut="0.0000000000000000e+00" cType="1" res="-8.4220012649893761e-03" rms="2.7563056349754333e-01" purity="7.3075938224792480e-01" nType="-99"/>
          </Node>
        </Node>
        <Node pos="r" depth="1" NCoef="0" IVar="-1" Cut="0.0000000000000000e+00" cType="1" res="1.7486779019236565e-02" rms="3.2817766070365906e-01" purity="6.0482621192932129e-01" nType="-99"/>
      </Node>
    </BinaryTree>
    <BinaryTree type="DecisionTree" boostWeight="1.0000000000000000e+00" itree="366">
      <Node pos="s" depth="0" NCoef="0" IVar="1" Cut="4.1751381009817123e-02" cType="1" res="1.9644640851765871e-03" rms="2.9055592417716980e-01" purity="5.0129759311676025e-01" nType="0">
        <Node pos="l" depth="1" NCoef="0" IVar="10" Cut="1.3323061168193817e-01" cType="1" res="7.0032435469329357e-03" rms="2.7118536829948425e-01" purity="2.1104557812213898e-01" nType="0">
          <Node pos="l" depth="2" NCoef="0" IVar="3" Cut="2.1127970886230469e+02" cType="1" res="1.3909358531236649e-03" rms="2.6364129781723022e-01" purity="2.1054127812385559e-01" nType="0">
            <Node pos="l" depth="3" NCoef="0" IVar="-1" Cut="0.0000000000000000e+00" cType="1" res="-1.5779560431838036e-02" rms="2.1024146676063538e-01" purity="9.6943199634552002e-02" nType="-99"/>
            <Node pos="r" depth="3" NCoef="0" IVar="-1" Cut="0.0000000000000000e+00" cType="1" res="1.3911937363445759e-02" rms="3.1914159655570984e-01" purity="3.5691377520561218e-01" nType="-99"/>
          </Node>
          <Node pos="r" depth="2" NCoef="0" IVar="1" Cut="1.5905728563666344e-02" cType="1" res="1.3384844176471233e-02" rms="2.7937930822372437e-01" purity="2.1161900460720062e-01" nType="0">
            <Node pos="l" depth="3" NCoef="0" IVar="-1" Cut="0.0000000000000000e+00" cType="1" res="-5.4735678713768721e-04" rms="2.0982047915458679e-01" purity="8.9739277958869934e-02" nType="-99"/>
            <Node pos="r" depth="3" NCoef="0" IVar="-1" Cut="0.0000000000000000e+00" cType="1" res="2.5384012609720230e-02" rms="3.2465577125549316e-01" purity="3.1055381894111633e-01" nType="-99"/>
          </Node>
        </Node>
        <Node pos="r" depth="1" NCoef="0" IVar="9" Cut="-1.4660092592239380e+00" cType="1" res="-1.5213706064969301e-03" rms="3.0318424105644226e-01" purity="7.0209431648254395e-01" nType="0">
          <Node pos="l" depth="2" NCoef="0" IVar="-1" Cut="0.0000000000000000e+00" cType="1" res="-1.8488826230168343e-02" rms="3.2678875327110291e-01" purity="4.0589216351509094e-01" nType="-99"/>
          <Node pos="r" depth="2" NCoef="0" IVar="10" Cut="-1.7333452701568604e+00" cType="1" res="-3.8754669367335737e-04" rms="3.0170717835426331e-01" purity="7.1942818164825439e-01" nType="0">
            <Node pos="l" depth="3" NCoef="0" IVar="-1" Cut="0.0000000000000000e+00" cType="1" res="1.7175555229187012e-02" rms="3.4599393606185913e-01" purity="5.5767464637756348e-01" nType="-99"/>
            <Node pos="r" depth="3" NCoef="0" IVar="-1" Cut="0.0000000000000000e+00" cType="1" res="-2.0324545912444592e-03" rms="2.9847985506057739e-01" purity="7.3016673326492310e-01" nType="-99"/>
          </Node>
        </Node>
      </Node>
    </BinaryTree>
    <BinaryTree type="DecisionTree" boostWeight="1.0000000000000000e+00" itree="367">
      <Node pos="s" depth="0" NCoef="0" IVar="9" Cut="9.3326479196548462e-01" cType="1" res="9.4943668227642775e-04" rms="2.8986132144927979e-01" purity="5.0067234039306641e-01" nType="0">
        <Node pos="l" depth="1" NCoef="0" IVar="5" Cut="7.1511329650878906e+01" cType="1" res="3.4002824686467648e-03" rms="2.9129356145858765e-01" purity="5.3811532258987427e-01" nType="0">
          <Node pos="l" depth="2" NCoef="0" IVar="6" Cut="5.4180454254150391e+01" cType="1" res="8.2921367138624191e-03" rms="2.9839172959327698e-01" purity="2.1792398393154144e-01" nType="0">
            <Node pos="l" depth="3" NCoef="0" IVar="-1" Cut="0.0000000000000000e+00" cType="1" res="5.2148140966892242e-03" rms="2.8893700242042542e-01" purity="1.7577411234378815e-01" nType="-99"/>
            <Node pos="r" depth="3" NCoef="0" IVar="-1" Cut="0.0000000000000000e+00" cType="1" res="2.7104847133159637e-02" rms="3.5205194354057312e-01" purity="4.8883825540542603e-01" nType="-99"/>
          </Node>
          <Node pos="r" depth="2" NCoef="0" IVar="2" Cut="6.3790734863281250e+02" cType="1" res="3.0663004145026207e-04" rms="2.8667083382606506e-01" purity="7.4060720205307007e-01" nType="0">
            <Node pos="l" depth="3" NCoef="0" IVar="-1" Cut="0.0000000000000000e+00" cType="1" res="-1.8104462651535869e-03" rms="2.8631585836410522e-01" purity="7.3642975091934204e-01" nType="-99"/>
            <Node pos="r" depth="3" NCoef="0" IVar="-1" Cut="0.0000000000000000e+00" cType="1" res="2.0934253931045532e-02" rms="2.8990247845649719e-01" purity="7.8822571039199829e-01" nType="-99"/>
          </Node>
        </Node>
        <Node pos="r" depth="1" NCoef="0" IVar="11" Cut="-2.4477303028106689e+00" cType="1" res="-9.6632903441786766e-03" rms="2.8333139419555664e-01" purity="3.3853554725646973e-01" nType="0">
          <Node pos="l" depth="2" NCoef="0" IVar="8" Cut="3.9928355813026428e-01" cType="1" res="1.3087554834783077e-03" rms="2.6375570893287659e-01" purity="1.5164384245872498e-01" nType="0">
            <Node pos="l" depth="3" NCoef="0" IVar="-1" Cut="0.0000000000000000e+00" cType="1" res="1.6535816714167595e-02" rms="2.8276672959327698e-01" purity="1.7877067625522614e-01" nType="-99"/>
            <Node pos="r" depth="3" NCoef="0" IVar="-1" Cut="0.0000000000000000e+00" cType="1" res="-1.9717451184988022e-02" rms="2.3601824045181274e-01" purity="1.1634466797113419e-01" nType="-99"/>
          </Node>
          <Node pos="r" depth="2" NCoef="0" IVar="1" Cut="3.8517516106367111e-02" cType="1" res="-2.3930955678224564e-02" rms="3.0633798241615295e-01" purity="5.8156293630599976e-01" nType="0">
            <Node pos="l" depth="3" NCoef="0" IVar="-1" Cut="0.0000000000000000e+00" cType="1" res="5.0984104163944721e-03" rms="3.0129984021186829e-01" purity="2.6728776097297668e-01" nType="-99"/>
            <Node pos="r" depth="3" NCoef="0" IVar="-1" Cut="0.0000000000000000e+00" cType="1" res="-3.9040818810462952e-02" rms="3.0781075358390808e-01" purity="7.3390215635299683e-01" nType="-99"/>
          </Node>
        </Node>
      </Node>
    </BinaryTree>
    <BinaryTree type="DecisionTree" boostWeight="1.0000000000000000e+00" itree="368">
      <Node pos="s" depth="0" NCoef="0" IVar="1" Cut="4.1838925331830978e-02" cType="1" res="7.0451380452141166e-04" rms="2.8653433918952942e-01" purity="5.0386518239974976e-01" nType="0">
        <Node pos="l" depth="1" NCoef="0" IVar="11" Cut="-5.1502746343612671e-01" cType="1" res="-4.7941743396222591e-03" rms="2.6091414690017700e-01" purity="2.0354579389095306e-01" nType="0">
          <Node pos="l" depth="2" NCoef="0" IVar="5" Cut="1.0080338287353516e+02" cType="1" res="-7.6352525502443314e-03" rms="2.4272736907005310e-01" purity="1.3818159699440002e-01" nType="0">
            <Node pos="l" depth="3" NCoef="0" IVar="-1" Cut="0.0000000000000000e+00" cType="1" res="-9.2647112905979156e-03" rms="2.3298504948616028e-01" purity="1.0654386878013611e-01" nType="-99"/>
            <Node pos="r" depth="3" NCoef="0" IVar="-1" Cut="0.0000000000000000e+00" cType="1" res="-2.8683468699455261e-02" rms="3.2935708761215210e-01" purity="4.8108452558517456e-01" nType="-99"/>
          </Node>
          <Node pos="r" depth="2" NCoef="0" IVar="1" Cut="2.5926368311047554e-02" cType="1" res="5.6471838615834713e-03" rms="3.1874817609786987e-01" purity="4.4376829266548157e-01" nType="0">
            <Node pos="l" depth="3" NCoef="0" IVar="-1" Cut="0.0000000000000000e+00" cType="1" res="-8.4518557414412498e-03" rms="3.0049335956573486e-01" purity="3.2287859916687012e-01" nType="-99"/>
            <Node pos="r" depth="3" NCoef="0" IVar="-1" Cut="0.0000000000000000e+00" cType="1" res="1.9361607730388641e-02" rms="3.3936369419097900e-01" purity="5.9432256221771240e-01" nType="-99"/>
          </Node>
        </Node>
        <Node pos="r" depth="1" NCoef="0" IVar="7" Cut="1.0099794864654541e+00" cType="1" res="4.5716147869825363e-03" rms="3.0319908261299133e-01" purity="7.1507292985916138e-01" nType="0">
          <Node pos="l" depth="2" NCoef="0" IVar="6" Cut="5.4057559967041016e+01" cType="1" res="5.9336312115192413e-03" rms="3.0273056030273438e-01" purity="7.2694677114486694e-01" nType="0">
            <Node pos="l" depth="3" NCoef="0" IVar="-1" Cut="0.0000000000000000e+00" cType="1" res="9.6463765949010849e-03" rms="3.7454223632812500e-01" purity="4.5183131098747253e-01" nType="-99"/>
            <Node pos="r" depth="3" NCoef="0" IVar="-1" Cut="0.0000000000000000e+00" cType="1" res="2.8438775334507227e-03" rms="2.5129520893096924e-01" purity="8.8788384199142456e-01" nType="-99"/>
          </Node>
          <Node pos="r" depth="2" NCoef="0" IVar="-1" Cut="0.0000000000000000e+00" cType="1" res="-1.7246965318918228e-02" rms="3.1010827422142029e-01" purity="5.1435345411300659e-01" nType="-99"/>
        </Node>
      </Node>
    </BinaryTree>
    <BinaryTree type="DecisionTree" boostWeight="1.0000000000000000e+00" itree="369">
      <Node pos="s" depth="0" NCoef="0" IVar="7" Cut="6.7062079906463623e-01" cType="1" res="-9.5927616348490119e-04" rms="2.8909963369369507e-01" purity="5.0270092487335205e-01" nType="0">
        <Node pos="l" depth="1" NCoef="0" IVar="10" Cut="1.7332462072372437e+00" cType="1" res="-3.2588685862720013e-03" rms="2.9417088627815247e-01" purity="5.5029022693634033e-01" nType="0">
          <Node pos="l" depth="2" NCoef="0" IVar="2" Cut="3.2725573730468750e+02" cType="1" res="-1.3730267528444529e-03" rms="2.9395025968551636e-01" purity="5.6632828712463379e-01" nType="0">
            <Node pos="l" depth="3" NCoef="0" IVar="-1" Cut="0.0000000000000000e+00" cType="1" res="-7.7851633541285992e-03" rms="2.9503348469734192e-01" purity="4.8448398709297180e-01" nType="-99"/>
            <Node pos="r" depth="3" NCoef="0" IVar="-1" Cut="0.0000000000000000e+00" cType="1" res="2.8662569820880890e-03" rms="2.9311975836753845e-01" purity="6.2433987855911255e-01" nType="-99"/>
          </Node>
          <Node pos="r" depth="2" NCoef="0" IVar="-1" Cut="0.0000000000000000e+00" cType="1" res="-3.4439209848642349e-02" rms="2.9600363969802856e-01" purity="3.1805032491683960e-01" nType="-99"/>
        </Node>
        <Node pos="r" depth="1" NCoef="0" IVar="8" Cut="9.3329304456710815e-01" cType="1" res="6.9953659549355507e-03" rms="2.7067542076110840e-01" purity="3.3808216452598572e-01" nType="0">
          <Node pos="l" depth="2" NCoef="0" IVar="10" Cut="6.6631764173507690e-01" cType="1" res="1.2172867543995380e-02" rms="2.8010711073875427e-01" purity="3.6965271830558777e-01" nType="0">
            <Node pos="l" depth="3" NCoef="0" IVar="-1" Cut="0.0000000000000000e+00" cType="1" res="5.1466757431626320e-03" rms="2.7396732568740845e-01" purity="3.7734723091125488e-01" nType="-99"/>
            <Node pos="r" depth="3" NCoef="0" IVar="-1" Cut="0.0000000000000000e+00" cType="1" res="3.5126894712448120e-02" rms="2.9052343964576721e-01" purity="3.5540461540222168e-01" nType="-99"/>
          </Node>
          <Node pos="r" depth="2" NCoef="0" IVar="-1" Cut="0.0000000000000000e+00" cType="1" res="-1.8101043999195099e-02" rms="2.3206950724124908e-01" purity="2.2289077937602997e-01" nType="-99"/>
        </Node>
      </Node>
    </BinaryTree>
    <BinaryTree type="DecisionTree" boostWeight="1.0000000000000000e+00" itree="370">
      <Node pos="s" depth="0" NCoef="0" IVar="3" Cut="1.4719407653808594e+02" cType="1" res="2.2708612959831953e-04" rms="2.8590431809425354e-01" purity="4.9957230687141418e-01" nType="0">
        <Node pos="l" depth="1" NCoef="0" IVar="3" Cut="1.2932504272460938e+02" cType="1" res="7.1634394116699696e-03" rms="2.4074666202068329e-01" purity="1.2804719805717468e-01" nType="0">
          <Node pos="l" depth="2" NCoef="0" IVar="9" Cut="9.3422609567642212e-01" cType="1" res="-4.1219014674425125e-03" rms="2.0568408071994781e-01" purity="7.3345884680747986e-02" nType="0">
            <Node pos="l" depth="3" NCoef="0" IVar="-1" Cut="0.0000000000000000e+00" cType="1" res="8.3452602848410606e-04" rms="2.2187736630439758e-01" purity="8.7638914585113525e-02" nType="-99"/>
            <Node pos="r" depth="3" NCoef="0" IVar="-1" Cut="0.0000000000000000e+00" cType="1" res="-5.2691984921693802e-02" rms="1.4559479057788849e-01" purity="3.0283557251095772e-02" nType="-99"/>
          </Node>
          <Node pos="r" depth="2" NCoef="0" IVar="7" Cut="1.4316824078559875e-01" cType="1" res="2.7534518390893936e-02" rms="2.9252216219902039e-01" purity="2.2678808867931366e-01" nType="0">
            <Node pos="l" depth="3" NCoef="0" IVar="-1" Cut="0.0000000000000000e+00" cType="1" res="5.0416413694620132e-02" rms="3.1000015139579773e-01" purity="2.6223245263099670e-01" nType="-99"/>
            <Node pos="r" depth="3" NCoef="0" IVar="-1" Cut="0.0000000000000000e+00" cType="1" res="1.4670611359179020e-02" rms="2.6775586605072021e-01" purity="1.8185707926750183e-01" nType="-99"/>
          </Node>
        </Node>
        <Node pos="r" depth="1" NCoef="0" IVar="4" Cut="1.6237586975097656e+02" cType="1" res="-1.2339703971520066e-03" rms="2.9451394081115723e-01" purity="5.7782942056655884e-01" nType="0">
          <Node pos="l" depth="2" NCoef="0" IVar="9" Cut="-1.7328050136566162e+00" cType="1" res="-5.4736942984163761e-03" rms="3.0567836761474609e-01" purity="3.5261696577072144e-01" nType="0">
            <Node pos="l" depth="3" NCoef="0" IVar="-1" Cut="0.0000000000000000e+00" cType="1" res="2.6593761518597603e-02" rms="2.6799339056015015e-01" purity="1.6229812800884247e-01" nType="-99"/>
            <Node pos="r" depth="3" NCoef="0" IVar="-1" Cut="0.0000000000000000e+00" cType="1" res="-7.4780182912945747e-03" rms="3.0850160121917725e-01" purity="3.6830770969390869e-01" nType="-99"/>
          </Node>
          <Node pos="r" depth="2" NCoef="0" IVar="5" Cut="9.1451995849609375e+01" cType="1" res="2.1596888545900583e-03" rms="2.8521737456321716e-01" purity="7.5809925794601440e-01" nType="0">
            <Node pos="l" depth="3" NCoef="0" IVar="-1" Cut="0.0000000000000000e+00" cType="1" res="7.0674428716301918e-03" rms="3.4971889853477478e-01" purity="5.4128283262252808e-01" nType="-99"/>
            <Node pos="r" depth="3" NCoef="0" IVar="-1" Cut="0.0000000000000000e+00" cType="1" res="-2.4020941928029060e-03" rms="2.4190878868103027e-01" purity="8.7876701354980469e-01" nType="-99"/>
          </Node>
        </Node>
      </Node>
    </BinaryTree>
    <BinaryTree type="DecisionTree" boostWeight="1.0000000000000000e+00" itree="371">
      <Node pos="s" depth="0" NCoef="0" IVar="6" Cut="6.7571945190429688e+01" cType="1" res="-2.3474348708987236e-03" rms="2.8426331281661987e-01" purity="4.9960264563560486e-01" nType="0">
        <Node pos="l" depth="1" NCoef="0" IVar="1" Cut="1.2550190091133118e-01" cType="1" res="-5.0722095184028149e-03" rms="3.0366399884223938e-01" purity="3.1241315603256226e-01" nType="0">
          <Node pos="l" depth="2" NCoef="0" IVar="6" Cut="3.2175221443176270e+00" cType="1" res="-3.1753673683851957e-03" rms="2.9724121093750000e-01" purity="2.6004645228385925e-01" nType="0">
            <Node pos="l" depth="3" NCoef="0" IVar="-1" Cut="0.0000000000000000e+00" cType="1" res="7.4820534791797400e-04" rms="2.8356039524078369e-01" purity="1.8905788660049438e-01" nType="-99"/>
            <Node pos="r" depth="3" NCoef="0" IVar="-1" Cut="0.0000000000000000e+00" cType="1" res="-1.1313227005302906e-02" rms="3.3026754856109619e-01" purity="4.4640716910362244e-01" nType="-99"/>
          </Node>
          <Node pos="r" depth="2" NCoef="0" IVar="-1" Cut="0.0000000000000000e+00" cType="1" res="-1.4904526062309742e-02" rms="3.4546265006065369e-01" purity="6.8335318565368652e-01" nType="-99"/>
        </Node>
        <Node pos="r" depth="1" NCoef="0" IVar="2" Cut="2.9682843017578125e+02" cType="1" res="3.1168365385383368e-03" rms="2.4059692025184631e-01" purity="8.7499308586120605e-01" nType="0">
          <Node pos="l" depth="2" NCoef="0" IVar="-1" Cut="0.0000000000000000e+00" cType="1" res="2.1798893809318542e-02" rms="2.5516524910926819e-01" purity="8.5384047031402588e-01" nType="-99"/>
          <Node pos="r" depth="2" NCoef="0" IVar="0" Cut="1.7940739746093750e+03" cType="1" res="-1.8442407017573714e-03" rms="2.3440021276473999e-01" purity="8.8335919380187988e-01" nType="0">
            <Node pos="l" depth="3" NCoef="0" IVar="-1" Cut="0.0000000000000000e+00" cType="1" res="-1.2745472602546215e-02" rms="3.1097853183746338e-01" purity="7.4235808849334717e-01" nType="-99"/>
            <Node pos="r" depth="3" NCoef="0" IVar="-1" Cut="0.0000000000000000e+00" cType="1" res="7.7133928425610065e-03" rms="1.8970026075839996e-01" purity="9.4710826873779297e-01" nType="-99"/>
          </Node>
        </Node>
      </Node>
    </BinaryTree>
    <BinaryTree type="DecisionTree" boostWeight="1.0000000000000000e+00" itree="372">
      <Node pos="s" depth="0" NCoef="0" IVar="6" Cut="5.8700405120849609e+01" cType="1" res="2.1535162813961506e-03" rms="2.9146102070808411e-01" purity="5.0382930040359497e-01" nType="0">
        <Node pos="l" depth="1" NCoef="0" IVar="2" Cut="3.2291293334960938e+02" cType="1" res="5.7950150221586227e-03" rms="3.1134930253028870e-01" purity="2.7644610404968262e-01" nType="0">
          <Node pos="l" depth="2" NCoef="0" IVar="3" Cut="1.3002883911132812e+02" cType="1" res="-2.5837526191025972e-03" rms="2.9499197006225586e-01" purity="2.0484547317028046e-01" nType="0">
            <Node pos="l" depth="3" NCoef="0" IVar="-1" Cut="0.0000000000000000e+00" cType="1" res="4.4801685959100723e-02" rms="2.1282537281513214e-01" purity="6.4883664250373840e-02" nType="-99"/>
            <Node pos="r" depth="3" NCoef="0" IVar="-1" Cut="0.0000000000000000e+00" cType="1" res="-8.1992419436573982e-03" rms="3.1478306651115417e-01" purity="2.4578319489955902e-01" nType="-99"/>
          </Node>
          <Node pos="r" depth="2" NCoef="0" IVar="6" Cut="5.3109336853027344e+01" cType="1" res="1.2583195231854916e-02" rms="3.2383754849433899e-01" purity="3.3445441722869873e-01" nType="0">
            <Node pos="l" depth="3" NCoef="0" IVar="-1" Cut="0.0000000000000000e+00" cType="1" res="8.7935496121644974e-03" rms="3.1965613365173340e-01" purity="3.0125126242637634e-01" nType="-99"/>
            <Node pos="r" depth="3" NCoef="0" IVar="-1" Cut="0.0000000000000000e+00" cType="1" res="3.4642379730939865e-02" rms="3.5205435752868652e-01" purity="5.8186364173889160e-01" nType="-99"/>
          </Node>
        </Node>
        <Node pos="r" depth="1" NCoef="0" IVar="5" Cut="9.5574630737304688e+01" cType="1" res="-2.8344341553747654e-03" rms="2.6169580221176147e-01" purity="8.1528788805007935e-01" nType="0">
          <Node pos="l" depth="2" NCoef="0" IVar="11" Cut="1.3203759491443634e-01" cType="1" res="-1.2630866840481758e-02" rms="3.2741218805313110e-01" purity="6.2063127756118774e-01" nType="0">
            <Node pos="l" depth="3" NCoef="0" IVar="-1" Cut="0.0000000000000000e+00" cType="1" res="-1.1353727895766497e-03" rms="3.1930133700370789e-01" purity="6.4461070299148560e-01" nType="-99"/>
            <Node pos="r" depth="3" NCoef="0" IVar="-1" Cut="0.0000000000000000e+00" cType="1" res="-2.2919544950127602e-02" rms="3.3651393651962280e-01" purity="5.9140884876251221e-01" nType="-99"/>
          </Node>
          <Node pos="r" depth="2" NCoef="0" IVar="11" Cut="-9.3319910764694214e-01" cType="1" res="1.7242090543732047e-03" rms="2.2450871765613556e-01" purity="9.0586888790130615e-01" nType="0">
            <Node pos="l" depth="3" NCoef="0" IVar="-1" Cut="0.0000000000000000e+00" cType="1" res="-1.8429139629006386e-02" rms="2.4201607704162598e-01" purity="8.6616098880767822e-01" nType="-99"/>
            <Node pos="r" depth="3" NCoef="0" IVar="-1" Cut="0.0000000000000000e+00" cType="1" res="9.1622099280357361e-03" rms="2.2031010687351227e-01" purity="9.1472947597503662e-01" nType="-99"/>
          </Node>
        </Node>
      </Node>
    </BinaryTree>
    <BinaryTree type="DecisionTree" boostWeight="1.0000000000000000e+00" itree="373">
      <Node pos="s" depth="0" NCoef="0" IVar="10" Cut="-2.0000209808349609e+00" cType="1" res="5.2647688426077366e-04" rms="2.8759774565696716e-01" purity="5.0486075878143311e-01" nType="0">
        <Node pos="l" depth="1" NCoef="0" IVar="-1" Cut="0.0000000000000000e+00" cType="1" res="-2.4452431127429008e-02" rms="2.6869443058967590e-01" purity="2.3284545540809631e-01" nType="-99"/>
        <Node pos="r" depth="1" NCoef="0" IVar="4" Cut="1.3518283081054688e+02" cType="1" res="1.5576893929392099e-03" rms="2.8849750757217407e-01" purity="5.1883208751678467e-01" nType="0">
          <Node pos="l" depth="2" NCoef="0" IVar="6" Cut="6.7406570434570312e+01" cType="1" res="8.3186030387878418e-03" rms="2.7450045943260193e-01" purity="2.0877507328987122e-01" nType="0">
            <Node pos="l" depth="3" NCoef="0" IVar="-1" Cut="0.0000000000000000e+00" cType="1" res="4.2729345150291920e-03" rms="2.7039289474487305e-01" purity="1.5155188739299774e-01" nType="-99"/>
            <Node pos="r" depth="3" NCoef="0" IVar="-1" Cut="0.0000000000000000e+00" cType="1" res="4.6957828104496002e-02" rms="3.0448752641677856e-01" purity="7.1225243806838989e-01" nType="-99"/>
          </Node>
          <Node pos="r" depth="2" NCoef="0" IVar="1" Cut="2.0904559642076492e-02" cType="1" res="-2.4977140128612518e-03" rms="2.9650261998176575e-01" purity="7.0481371879577637e-01" nType="0">
            <Node pos="l" depth="3" NCoef="0" IVar="-1" Cut="0.0000000000000000e+00" cType="1" res="1.0943321511149406e-02" rms="2.9999616742134094e-01" purity="2.6879882812500000e-01" nType="-99"/>
            <Node pos="r" depth="3" NCoef="0" IVar="-1" Cut="0.0000000000000000e+00" cType="1" res="-5.1995110698044300e-03" rms="2.9587653279304504e-01" purity="7.7617645263671875e-01" nType="-99"/>
          </Node>
        </Node>
      </Node>
    </BinaryTree>
    <BinaryTree type="DecisionTree" boostWeight="1.0000000000000000e+00" itree="374">
      <Node pos="s" depth="0" NCoef="0" IVar="2" Cut="7.0898944091796875e+02" cType="1" res="-3.0061169527471066e-03" rms="2.8396123647689819e-01" purity="4.9618300795555115e-01" nType="0">
        <Node pos="l" depth="1" NCoef="0" IVar="2" Cut="5.3932434082031250e+02" cType="1" res="-1.9865047652274370e-03" rms="2.8302538394927979e-01" purity="4.9296453595161438e-01" nType="0">
          <Node pos="l" depth="2" NCoef="0" IVar="9" Cut="-9.3326467275619507e-01" cType="1" res="-5.0672434736043215e-04" rms="2.8315907716751099e-01" purity="4.8371884226799011e-01" nType="0">
            <Node pos="l" depth="3" NCoef="0" IVar="-1" Cut="0.0000000000000000e+00" cType="1" res="-1.0386268608272076e-02" rms="2.7887457609176636e-01" purity="3.1993454694747925e-01" nType="-99"/>
            <Node pos="r" depth="3" NCoef="0" IVar="-1" Cut="0.0000000000000000e+00" cType="1" res="1.8172669224441051e-03" rms="2.8417769074440002e-01" purity="5.2441000938415527e-01" nType="-99"/>
          </Node>
          <Node pos="r" depth="2" NCoef="0" IVar="5" Cut="6.5338356018066406e+01" cType="1" res="-1.4590502716600895e-02" rms="2.8156927227973938e-01" purity="5.7171440124511719e-01" nType="0">
            <Node pos="l" depth="3" NCoef="0" IVar="-1" Cut="0.0000000000000000e+00" cType="1" res="-4.0510527789592743e-02" rms="2.6218906044960022e-01" purity="2.0287887752056122e-01" nType="-99"/>
            <Node pos="r" depth="3" NCoef="0" IVar="-1" Cut="0.0000000000000000e+00" cType="1" res="-7.9738534986972809e-03" rms="2.8796166181564331e-01" purity="7.0702880620956421e-01" nType="-99"/>
          </Node>
        </Node>
        <Node pos="r" depth="1" NCoef="0" IVar="-1" Cut="0.0000000000000000e+00" cType="1" res="-2.5789679959416389e-02" rms="3.0515077710151672e-01" purity="5.7592558860778809e-01" nType="-99"/>
      </Node>
    </BinaryTree>
    <BinaryTree type="DecisionTree" boostWeight="1.0000000000000000e+00" itree="375">
      <Node pos="s" depth="0" NCoef="0" IVar="9" Cut="-1.3340963423252106e-01" cType="1" res="1.3206771109253168e-03" rms="2.8847000002861023e-01" purity="5.0319635868072510e-01" nType="0">
        <Node pos="l" depth="1" NCoef="0" IVar="8" Cut="-9.3334174156188965e-01" cType="1" res="5.3611448965966702e-03" rms="2.9600444436073303e-01" purity="4.9433618783950806e-01" nType="0">
          <Node pos="l" depth="2" NCoef="0" IVar="4" Cut="1.5690766906738281e+02" cType="1" res="1.9136503338813782e-02" rms="2.8673699498176575e-01" purity="3.1985461711883545e-01" nType="0">
            <Node pos="l" depth="3" NCoef="0" IVar="-1" Cut="0.0000000000000000e+00" cType="1" res="6.3249403610825539e-03" rms="2.6814803481101990e-01" purity="1.5679921209812164e-01" nType="-99"/>
            <Node pos="r" depth="3" NCoef="0" IVar="-1" Cut="0.0000000000000000e+00" cType="1" res="4.2956039309501648e-02" rms="3.1559079885482788e-01" purity="6.1235380172729492e-01" nType="-99"/>
          </Node>
          <Node pos="r" depth="2" NCoef="0" IVar="10" Cut="-4.0025043487548828e-01" cType="1" res="1.8251196015626192e-03" rms="2.9823428392410278e-01" purity="5.3912425041198730e-01" nType="0">
            <Node pos="l" depth="3" NCoef="0" IVar="-1" Cut="0.0000000000000000e+00" cType="1" res="1.1765306815505028e-02" rms="3.0388855934143066e-01" purity="5.1575648784637451e-01" nType="-99"/>
            <Node pos="r" depth="3" NCoef="0" IVar="-1" Cut="0.0000000000000000e+00" cType="1" res="-4.6665677800774574e-03" rms="2.9428645968437195e-01" purity="5.5459642410278320e-01" nType="-99"/>
          </Node>
        </Node>
        <Node pos="r" depth="1" NCoef="0" IVar="10" Cut="1.9999151229858398e+00" cType="1" res="-1.9961190409958363e-03" rms="2.8209143877029419e-01" purity="5.1046961545944214e-01" nType="0">
          <Node pos="l" depth="2" NCoef="0" IVar="7" Cut="-6.5975737571716309e-01" cType="1" res="-3.2533113844692707e-03" rms="2.8205716609954834e-01" purity="5.2291554212570190e-01" nType="0">
            <Node pos="l" depth="3" NCoef="0" IVar="-1" Cut="0.0000000000000000e+00" cType="1" res="-1.9799534231424332e-02" rms="2.6624152064323425e-01" purity="3.4349015355110168e-01" nType="-99"/>
            <Node pos="r" depth="3" NCoef="0" IVar="-1" Cut="0.0000000000000000e+00" cType="1" res="-6.4642843790352345e-04" rms="2.8568598628044128e-01" purity="5.6632494926452637e-01" nType="-99"/>
          </Node>
          <Node pos="r" depth="2" NCoef="0" IVar="-1" Cut="0.0000000000000000e+00" cType="1" res="2.4590570479631424e-02" rms="2.8177753090858459e-01" purity="2.9142686724662781e-01" nType="-99"/>
        </Node>
      </Node>
    </BinaryTree>
    <BinaryTree type="DecisionTree" boostWeight="1.0000000000000000e+00" itree="376">
      <Node pos="s" depth="0" NCoef="0" IVar="8" Cut="1.4664328098297119e+00" cType="1" res="-1.6789081273600459e-03" rms="2.8694963455200195e-01" purity="4.9847263097763062e-01" nType="0">
        <Node pos="l" depth="1" NCoef="0" IVar="0" Cut="1.0762613525390625e+03" cType="1" res="-7.1247661253437400e-04" rms="2.9220691323280334e-01" purity="5.3004169464111328e-01" nType="0">
          <Node pos="l" depth="2" NCoef="0" IVar="1" Cut="3.7930477410554886e-02" cType="1" res="-8.8040204718708992e-03" rms="1.8812984228134155e-01" purity="4.1697222739458084e-02" nType="0">
            <Node pos="l" depth="3" NCoef="0" IVar="-1" Cut="0.0000000000000000e+00" cType="1" res="-8.2377047510817647e-04" rms="1.2646757066249847e-01" purity="1.6582785174250603e-02" nType="-99"/>
            <Node pos="r" depth="3" NCoef="0" IVar="-1" Cut="0.0000000000000000e+00" cType="1" res="-2.6305643841624260e-02" rms="2.4502396583557129e-01" purity="7.3887042701244354e-02" nType="-99"/>
          </Node>
          <Node pos="r" depth="2" NCoef="0" IVar="8" Cut="8.5691875219345093e-01" cType="1" res="5.3476204629987478e-04" rms="3.0508860945701599e-01" purity="6.0531562566757202e-01" nType="0">
            <Node pos="l" depth="3" NCoef="0" IVar="-1" Cut="0.0000000000000000e+00" cType="1" res="-8.2780199591070414e-04" rms="3.0192846059799194e-01" purity="6.1674958467483521e-01" nType="-99"/>
            <Node pos="r" depth="3" NCoef="0" IVar="-1" Cut="0.0000000000000000e+00" cType="1" res="9.9131138995289803e-03" rms="3.2690140604972839e-01" purity="5.2254277467727661e-01" nType="-99"/>
          </Node>
        </Node>
        <Node pos="r" depth="1" NCoef="0" IVar="8" Cut="1.7203913927078247e+00" cType="1" res="-1.3201211579144001e-02" rms="2.1423047780990601e-01" purity="1.2208964675664902e-01" nType="0">
          <Node pos="l" depth="2" NCoef="0" IVar="-1" Cut="0.0000000000000000e+00" cType="1" res="-4.7524843364953995e-02" rms="2.6149499416351318e-01" purity="1.9225282967090607e-01" nType="-99"/>
          <Node pos="r" depth="2" NCoef="0" IVar="7" Cut="-6.0357388108968735e-02" cType="1" res="-2.0484554115682840e-03" rms="1.8528816103935242e-01" purity="8.7176017463207245e-02" nType="0">
            <Node pos="l" depth="3" NCoef="0" IVar="-1" Cut="0.0000000000000000e+00" cType="1" res="1.5175407752394676e-02" rms="1.7501550912857056e-01" purity="8.2851514220237732e-02" nType="-99"/>
            <Node pos="r" depth="3" NCoef="0" IVar="-1" Cut="0.0000000000000000e+00" cType="1" res="-2.0323939621448517e-02" rms="1.9480231404304504e-01" purity="9.1531783342361450e-02" nType="-99"/>
          </Node>
        </Node>
      </Node>
    </BinaryTree>
    <BinaryTree type="DecisionTree" boostWeight="1.0000000000000000e+00" itree="377">
      <Node pos="s" depth="0" NCoef="0" IVar="11" Cut="1.4189273118972778e+00" cType="1" res="2.1087725181132555e-03" rms="2.8630632162094116e-01" purity="5.0324165821075439e-01" nType="0">
        <Node pos="l" depth="1" NCoef="0" IVar="10" Cut="1.9998537302017212e+00" cType="1" res="6.9601787254214287e-04" rms="2.8494507074356079e-01" purity="4.9220362305641174e-01" nType="0">
          <Node pos="l" depth="2" NCoef="0" IVar="10" Cut="1.5427197217941284e+00" cType="1" res="1.6024328069761395e-03" rms="2.8555524349212646e-01" purity="5.0529885292053223e-01" nType="0">
            <Node pos="l" depth="3" NCoef="0" IVar="-1" Cut="0.0000000000000000e+00" cType="1" res="7.5970479520037770e-04" rms="2.8552231192588806e-01" purity="5.1214873790740967e-01" nType="-99"/>
            <Node pos="r" depth="3" NCoef="0" IVar="-1" Cut="0.0000000000000000e+00" cType="1" res="1.9510647282004356e-02" rms="2.8561460971832275e-01" purity="3.9298838376998901e-01" nType="-99"/>
          </Node>
          <Node pos="r" depth="2" NCoef="0" IVar="-1" Cut="0.0000000000000000e+00" cType="1" res="-2.3736976087093353e-02" rms="2.7130684256553650e-01" purity="2.2073364257812500e-01" nType="-99"/>
        </Node>
        <Node pos="r" depth="1" NCoef="0" IVar="8" Cut="1.3046762347221375e-01" cType="1" res="2.3306129500269890e-02" rms="3.0522039532661438e-01" purity="6.6885882616043091e-01" nType="0">
          <Node pos="l" depth="2" NCoef="0" IVar="-1" Cut="0.0000000000000000e+00" cType="1" res="9.6009466797113419e-03" rms="3.0093130469322205e-01" purity="6.7709666490554810e-01" nType="-99"/>
          <Node pos="r" depth="2" NCoef="0" IVar="-1" Cut="0.0000000000000000e+00" cType="1" res="3.6318808794021606e-02" rms="3.0868831276893616e-01" purity="6.6081744432449341e-01" nType="-99"/>
        </Node>
      </Node>
    </BinaryTree>
    <BinaryTree type="DecisionTree" boostWeight="1.0000000000000000e+00" itree="378">
      <Node pos="s" depth="0" NCoef="0" IVar="8" Cut="1.1998351812362671e+00" cType="1" res="-8.2029111217707396e-04" rms="2.8639590740203857e-01" purity="5.0036215782165527e-01" nType="0">
        <Node pos="l" depth="1" NCoef="0" IVar="11" Cut="8.6665838956832886e-01" cType="1" res="-3.0166122596710920e-03" rms="2.8911840915679932e-01" purity="5.3549724817276001e-01" nType="0">
          <Node pos="l" depth="2" NCoef="0" IVar="11" Cut="-7.9053348302841187e-01" cType="1" res="-1.4479268575087190e-03" rms="2.8772518038749695e-01" purity="5.0967341661453247e-01" nType="0">
            <Node pos="l" depth="3" NCoef="0" IVar="-1" Cut="0.0000000000000000e+00" cType="1" res="-5.7928911410272121e-03" rms="2.9904267191886902e-01" purity="3.6132323741912842e-01" nType="-99"/>
            <Node pos="r" depth="3" NCoef="0" IVar="-1" Cut="0.0000000000000000e+00" cType="1" res="9.3018719926476479e-03" rms="2.6222476363182068e-01" purity="8.2073849439620972e-01" nType="-99"/>
          </Node>
          <Node pos="r" depth="2" NCoef="0" IVar="2" Cut="4.9098065185546875e+02" cType="1" res="-1.4011156745254993e-02" rms="2.9846951365470886e-01" purity="7.1649003028869629e-01" nType="0">
            <Node pos="l" depth="3" NCoef="0" IVar="-1" Cut="0.0000000000000000e+00" cType="1" res="-2.7077630162239075e-02" rms="3.0040034651756287e-01" purity="6.9376266002655029e-01" nType="-99"/>
            <Node pos="r" depth="3" NCoef="0" IVar="-1" Cut="0.0000000000000000e+00" cType="1" res="1.9434900954365730e-02" rms="2.8989815711975098e-01" purity="7.9291313886642456e-01" nType="-99"/>
          </Node>
        </Node>
        <Node pos="r" depth="1" NCoef="0" IVar="4" Cut="1.5737188720703125e+02" cType="1" res="1.5860449522733688e-02" rms="2.6421165466308594e-01" purity="2.3351658880710602e-01" nType="0">
          <Node pos="l" depth="2" NCoef="0" IVar="8" Cut="1.8093280792236328e+00" cType="1" res="4.8668631352484226e-03" rms="2.1835936605930328e-01" purity="1.0277332365512848e-01" nType="0">
            <Node pos="l" depth="3" NCoef="0" IVar="-1" Cut="0.0000000000000000e+00" cType="1" res="2.2189158946275711e-02" rms="2.6537814736366272e-01" purity="1.5633644163608551e-01" nType="-99"/>
            <Node pos="r" depth="3" NCoef="0" IVar="-1" Cut="0.0000000000000000e+00" cType="1" res="-3.4440975636243820e-02" rms="1.2419892102479935e-01" purity="2.7472835034132004e-02" nType="-99"/>
          </Node>
          <Node pos="r" depth="2" NCoef="0" IVar="-1" Cut="0.0000000000000000e+00" cType="1" res="3.4675270318984985e-02" rms="3.3264684677124023e-01" purity="4.7871813178062439e-01" nType="-99"/>
        </Node>
      </Node>
    </BinaryTree>
    <BinaryTree type="DecisionTree" boostWeight="1.0000000000000000e+00" itree="379">
      <Node pos="s" depth="0" NCoef="0" IVar="10" Cut="-1.9999899864196777e+00" cType="1" res="1.9551808945834637e-03" rms="2.8784501552581787e-01" purity="5.0309169292449951e-01" nType="0">
        <Node pos="l" depth="1" NCoef="0" IVar="-1" Cut="0.0000000000000000e+00" cType="1" res="2.9575580731034279e-02" rms="3.0555996298789978e-01" purity="2.8028094768524170e-01" nType="-99"/>
        <Node pos="r" depth="1" NCoef="0" IVar="11" Cut="1.1427444219589233e+00" cType="1" res="7.9536269186064601e-04" rms="2.8684002161026001e-01" purity="5.1476019620895386e-01" nType="0">
          <Node pos="l" depth="2" NCoef="0" IVar="4" Cut="1.8027830505371094e+02" cType="1" res="2.1074835676699877e-03" rms="2.8637066483497620e-01" purity="4.9853217601776123e-01" nType="0">
            <Node pos="l" depth="3" NCoef="0" IVar="-1" Cut="0.0000000000000000e+00" cType="1" res="5.7249004021286964e-03" rms="2.9578554630279541e-01" purity="3.3432084321975708e-01" nType="-99"/>
            <Node pos="r" depth="3" NCoef="0" IVar="-1" Cut="0.0000000000000000e+00" cType="1" res="-3.7777137476950884e-03" rms="2.6899474859237671e-01" purity="7.8648793697357178e-01" nType="-99"/>
          </Node>
          <Node pos="r" depth="2" NCoef="0" IVar="0" Cut="1.6997641601562500e+03" cType="1" res="-1.2246270664036274e-02" rms="2.9114276170730591e-01" purity="6.7605608701705933e-01" nType="0">
            <Node pos="l" depth="3" NCoef="0" IVar="-1" Cut="0.0000000000000000e+00" cType="1" res="-2.6024866849184036e-02" rms="3.3210343122482300e-01" purity="4.7353300452232361e-01" nType="-99"/>
            <Node pos="r" depth="3" NCoef="0" IVar="-1" Cut="0.0000000000000000e+00" cType="1" res="1.0454978793859482e-02" rms="2.3681834340095520e-01" purity="8.9832174777984619e-01" nType="-99"/>
          </Node>
        </Node>
      </Node>
    </BinaryTree>
    <BinaryTree type="DecisionTree" boostWeight="1.0000000000000000e+00" itree="380">
      <Node pos="s" depth="0" NCoef="0" IVar="1" Cut="8.3668172359466553e-02" cType="1" res="5.8149969845544547e-05" rms="2.8495344519615173e-01" purity="5.0552541017532349e-01" nType="0">
        <Node pos="l" depth="1" NCoef="0" IVar="0" Cut="2.0005513916015625e+03" cType="1" res="-2.7625388465821743e-03" rms="2.9002124071121216e-01" purity="3.3231094479560852e-01" nType="0">
          <Node pos="l" depth="2" NCoef="0" IVar="1" Cut="3.5855740308761597e-02" cType="1" res="-1.0032434947788715e-03" rms="2.8918072581291199e-01" purity="2.6081526279449463e-01" nType="0">
            <Node pos="l" depth="3" NCoef="0" IVar="-1" Cut="0.0000000000000000e+00" cType="1" res="4.5810928568243980e-03" rms="2.5100529193878174e-01" purity="1.4760853350162506e-01" nType="-99"/>
            <Node pos="r" depth="3" NCoef="0" IVar="-1" Cut="0.0000000000000000e+00" cType="1" res="-5.9361574240028858e-03" rms="3.3876714110374451e-01" purity="4.3207743763923645e-01" nType="-99"/>
          </Node>
          <Node pos="r" depth="2" NCoef="0" IVar="1" Cut="3.1873043626546860e-02" cType="1" res="-1.4301418326795101e-02" rms="2.9521480202674866e-01" purity="8.0123728513717651e-01" nType="0">
            <Node pos="l" depth="3" NCoef="0" IVar="-1" Cut="0.0000000000000000e+00" cType="1" res="-2.8958883136510849e-02" rms="3.4925654530525208e-01" purity="6.2741065025329590e-01" nType="-99"/>
            <Node pos="r" depth="3" NCoef="0" IVar="-1" Cut="0.0000000000000000e+00" cType="1" res="-5.8507719077169895e-03" rms="2.6184898614883423e-01" purity="8.9244097471237183e-01" nType="-99"/>
          </Node>
        </Node>
        <Node pos="r" depth="1" NCoef="0" IVar="11" Cut="-1.8960645198822021e+00" cType="1" res="5.0175474025309086e-03" rms="2.7574747800827026e-01" purity="8.1007504463195801e-01" nType="0">
          <Node pos="l" depth="2" NCoef="0" IVar="8" Cut="-6.6518940031528473e-02" cType="1" res="1.3703683391213417e-02" rms="3.6887118220329285e-01" purity="5.4634684324264526e-01" nType="0">
            <Node pos="l" depth="3" NCoef="0" IVar="-1" Cut="0.0000000000000000e+00" cType="1" res="2.5539214257150888e-03" rms="3.5470342636108398e-01" purity="5.2398312091827393e-01" nType="-99"/>
            <Node pos="r" depth="3" NCoef="0" IVar="-1" Cut="0.0000000000000000e+00" cType="1" res="1.5725394710898399e-02" rms="3.8088643550872803e-01" purity="5.6638938188552856e-01" nType="-99"/>
          </Node>
          <Node pos="r" depth="2" NCoef="0" IVar="8" Cut="-2.9638451337814331e-01" cType="1" res="1.4961151173338294e-03" rms="2.2728246450424194e-01" purity="9.1699266433715820e-01" nType="0">
            <Node pos="l" depth="3" NCoef="0" IVar="-1" Cut="0.0000000000000000e+00" cType="1" res="-1.2873962521553040e-02" rms="2.3216466605663300e-01" purity="9.0684175491333008e-01" nType="-99"/>
            <Node pos="r" depth="3" NCoef="0" IVar="-1" Cut="0.0000000000000000e+00" cType="1" res="1.0321276262402534e-02" rms="2.2466617822647095e-01" purity="9.2209541797637939e-01" nType="-99"/>
          </Node>
        </Node>
      </Node>
    </BinaryTree>
    <BinaryTree type="DecisionTree" boostWeight="1.0000000000000000e+00" itree="381">
      <Node pos="s" depth="0" NCoef="0" IVar="4" Cut="1.3462727355957031e+02" cType="1" res="8.8760985818225890e-05" rms="2.8965106606483459e-01" purity="4.9800011515617371e-01" nType="0">
        <Node pos="l" depth="1" NCoef="0" IVar="5" Cut="8.1234672546386719e+01" cType="1" res="-6.3805612735450268e-03" rms="2.6927247643470764e-01" purity="1.8631757795810699e-01" nType="0">
          <Node pos="l" depth="2" NCoef="0" IVar="6" Cut="5.4069385528564453e+01" cType="1" res="-3.3952340018004179e-03" rms="2.5418019294738770e-01" purity="1.2636286020278931e-01" nType="0">
            <Node pos="l" depth="3" NCoef="0" IVar="-1" Cut="0.0000000000000000e+00" cType="1" res="-1.1369166895747185e-02" rms="2.3403097689151764e-01" purity="7.9927928745746613e-02" nType="-99"/>
            <Node pos="r" depth="3" NCoef="0" IVar="-1" Cut="0.0000000000000000e+00" cType="1" res="1.0144166648387909e-02" rms="3.4154713153839111e-01" purity="3.7342587113380432e-01" nType="-99"/>
          </Node>
          <Node pos="r" depth="2" NCoef="0" IVar="4" Cut="1.1721677398681641e+02" cType="1" res="-2.1522432565689087e-02" rms="3.3511680364608765e-01" purity="4.9041372537612915e-01" nType="0">
            <Node pos="l" depth="3" NCoef="0" IVar="-1" Cut="0.0000000000000000e+00" cType="1" res="-3.5419121384620667e-02" rms="3.2952600717544556e-01" purity="3.6700937151908875e-01" nType="-99"/>
            <Node pos="r" depth="3" NCoef="0" IVar="-1" Cut="0.0000000000000000e+00" cType="1" res="-7.6100700534880161e-03" rms="3.3814236521720886e-01" purity="5.7206588983535767e-01" nType="-99"/>
          </Node>
        </Node>
        <Node pos="r" depth="1" NCoef="0" IVar="6" Cut="1.3344408035278320e+01" cType="1" res="4.1255834512412548e-03" rms="3.0160018801689148e-01" purity="6.9248843193054199e-01" nType="0">
          <Node pos="l" depth="2" NCoef="0" IVar="0" Cut="1.5068878173828125e+03" cType="1" res="1.5389444306492805e-02" rms="3.6429023742675781e-01" purity="4.1888642311096191e-01" nType="0">
            <Node pos="l" depth="3" NCoef="0" IVar="-1" Cut="0.0000000000000000e+00" cType="1" res="2.2075518965721130e-02" rms="3.5662013292312622e-01" purity="2.8340026736259460e-01" nType="-99"/>
            <Node pos="r" depth="3" NCoef="0" IVar="-1" Cut="0.0000000000000000e+00" cType="1" res="1.2929113581776619e-03" rms="3.7259685993194580e-01" purity="5.7735264301300049e-01" nType="-99"/>
          </Node>
          <Node pos="r" depth="2" NCoef="0" IVar="8" Cut="1.3184225559234619e-01" cType="1" res="-1.6245043370872736e-03" rms="2.6373201608657837e-01" purity="8.3215939998626709e-01" nType="0">
            <Node pos="l" depth="3" NCoef="0" IVar="-1" Cut="0.0000000000000000e+00" cType="1" res="-9.0999938547611237e-03" rms="2.6549044251441956e-01" purity="8.3928054571151733e-01" nType="-99"/>
            <Node pos="r" depth="3" NCoef="0" IVar="-1" Cut="0.0000000000000000e+00" cType="1" res="5.5428128689527512e-03" rms="2.6139387488365173e-01" purity="8.2321429252624512e-01" nType="-99"/>
          </Node>
        </Node>
      </Node>
    </BinaryTree>
    <BinaryTree type="DecisionTree" boostWeight="1.0000000000000000e+00" itree="382">
      <Node pos="s" depth="0" NCoef="0" IVar="5" Cut="6.9100074768066406e+01" cType="1" res="-8.1517582293599844e-04" rms="2.8301855921745300e-01" purity="4.9748587608337402e-01" nType="0">
        <Node pos="l" depth="1" NCoef="0" IVar="1" Cut="6.1342779546976089e-02" cType="1" res="-6.9590639322996140e-03" rms="2.7747771143913269e-01" purity="1.7513735592365265e-01" nType="0">
          <Node pos="l" depth="2" NCoef="0" IVar="2" Cut="5.7004638671875000e+02" cType="1" res="-1.6276236856356263e-03" rms="2.3971666395664215e-01" purity="1.0460361838340759e-01" nType="0">
            <Node pos="l" depth="3" NCoef="0" IVar="-1" Cut="0.0000000000000000e+00" cType="1" res="-8.7667852640151978e-03" rms="2.2728808224201202e-01" purity="8.9698679745197296e-02" nType="-99"/>
            <Node pos="r" depth="3" NCoef="0" IVar="-1" Cut="0.0000000000000000e+00" cType="1" res="2.3738145828247070e-02" rms="3.2317811250686646e-01" purity="2.2705374658107758e-01" nType="-99"/>
          </Node>
          <Node pos="r" depth="2" NCoef="0" IVar="1" Cut="1.1391831934452057e-01" cType="1" res="-2.1986318752169609e-02" rms="3.6295294761657715e-01" purity="3.7394446134567261e-01" nType="0">
            <Node pos="l" depth="3" NCoef="0" IVar="-1" Cut="0.0000000000000000e+00" cType="1" res="-2.5104312226176262e-02" rms="3.4970650076866150e-01" purity="2.8465583920478821e-01" nType="-99"/>
            <Node pos="r" depth="3" NCoef="0" IVar="-1" Cut="0.0000000000000000e+00" cType="1" res="-3.0902808066457510e-03" rms="3.8124707341194153e-01" purity="5.0737428665161133e-01" nType="-99"/>
          </Node>
        </Node>
        <Node pos="r" depth="1" NCoef="0" IVar="6" Cut="5.8700405120849609e+01" cType="1" res="2.9894388280808926e-03" rms="2.8632992506027222e-01" purity="6.9710081815719604e-01" nType="0">
          <Node pos="l" depth="2" NCoef="0" IVar="7" Cut="6.8769633769989014e-01" cType="1" res="9.4478549435734749e-03" rms="3.3858394622802734e-01" purity="4.5099565386772156e-01" nType="0">
            <Node pos="l" depth="3" NCoef="0" IVar="-1" Cut="0.0000000000000000e+00" cType="1" res="1.3081287033855915e-02" rms="3.4972396492958069e-01" purity="5.0703978538513184e-01" nType="-99"/>
            <Node pos="r" depth="3" NCoef="0" IVar="-1" Cut="0.0000000000000000e+00" cType="1" res="-1.4966387301683426e-02" rms="2.9367479681968689e-01" purity="2.4882057309150696e-01" nType="-99"/>
          </Node>
          <Node pos="r" depth="2" NCoef="0" IVar="8" Cut="-1.1999071836471558e+00" cType="1" res="-6.2989135039970279e-04" rms="2.5228697061538696e-01" purity="8.3501946926116943e-01" nType="0">
            <Node pos="l" depth="3" NCoef="0" IVar="-1" Cut="0.0000000000000000e+00" cType="1" res="-2.3638915270566940e-02" rms="3.1603351235389709e-01" purity="5.6875520944595337e-01" nType="-99"/>
            <Node pos="r" depth="3" NCoef="0" IVar="-1" Cut="0.0000000000000000e+00" cType="1" res="1.6850272659212351e-03" rms="2.4715867638587952e-01" purity="8.5350686311721802e-01" nType="-99"/>
          </Node>
        </Node>
      </Node>
    </BinaryTree>
    <BinaryTree type="DecisionTree" boostWeight="1.0000000000000000e+00" itree="383">
      <Node pos="s" depth="0" NCoef="0" IVar="10" Cut="-2.2666306495666504e+00" cType="1" res="2.8301072306931019e-03" rms="2.9039722681045532e-01" purity="5.0273776054382324e-01" nType="0">
        <Node pos="l" depth="1" NCoef="0" IVar="-1" Cut="0.0000000000000000e+00" cType="1" res="4.5533519238233566e-02" rms="3.1278422474861145e-01" purity="2.4722006916999817e-01" nType="-99"/>
        <Node pos="r" depth="1" NCoef="0" IVar="11" Cut="1.6951103210449219e+00" cType="1" res="1.8823740538209677e-03" rms="2.8967940807342529e-01" purity="5.1000231504440308e-01" nType="0">
          <Node pos="l" depth="2" NCoef="0" IVar="0" Cut="1.4400817871093750e+03" cType="1" res="1.1570198694244027e-03" rms="2.8868392109870911e-01" purity="5.0559294223785400e-01" nType="0">
            <Node pos="l" depth="3" NCoef="0" IVar="-1" Cut="0.0000000000000000e+00" cType="1" res="5.1547489129006863e-03" rms="2.9787132143974304e-01" purity="2.1947476267814636e-01" nType="-99"/>
            <Node pos="r" depth="3" NCoef="0" IVar="-1" Cut="0.0000000000000000e+00" cType="1" res="-2.3523215204477310e-03" rms="2.8001534938812256e-01" purity="7.6631349325180054e-01" nType="-99"/>
          </Node>
          <Node pos="r" depth="2" NCoef="0" IVar="-1" Cut="0.0000000000000000e+00" cType="1" res="1.9943475723266602e-02" rms="3.1281334161758423e-01" purity="6.1932224035263062e-01" nType="-99"/>
        </Node>
      </Node>
    </BinaryTree>
    <BinaryTree type="DecisionTree" boostWeight="1.0000000000000000e+00" itree="384">
      <Node pos="s" depth="0" NCoef="0" IVar="1" Cut="2.0917570218443871e-02" cType="1" res="-4.3000844307243824e-03" rms="2.8463724255561829e-01" purity="4.9848860502243042e-01" nType="0">
        <Node pos="l" depth="1" NCoef="0" IVar="5" Cut="6.8246238708496094e+01" cType="1" res="2.2391728125512600e-03" rms="2.2845709323883057e-01" purity="1.3071110844612122e-01" nType="0">
          <Node pos="l" depth="2" NCoef="0" IVar="9" Cut="-9.3363839387893677e-01" cType="1" res="-4.1288300417363644e-03" rms="1.7793673276901245e-01" purity="5.0130449235439301e-02" nType="0">
            <Node pos="l" depth="3" NCoef="0" IVar="-1" Cut="0.0000000000000000e+00" cType="1" res="-5.2635584026575089e-02" rms="1.4050537347793579e-01" purity="2.0202744752168655e-02" nType="-99"/>
            <Node pos="r" depth="3" NCoef="0" IVar="-1" Cut="0.0000000000000000e+00" cType="1" res="-9.9604786373674870e-04" rms="1.8951509892940521e-01" purity="6.0945365577936172e-02" nType="-99"/>
          </Node>
          <Node pos="r" depth="2" NCoef="0" IVar="1" Cut="9.9660726264119148e-03" cType="1" res="1.2631875462830067e-02" rms="2.9244777560234070e-01" purity="2.6222029328346252e-01" nType="0">
            <Node pos="l" depth="3" NCoef="0" IVar="-1" Cut="0.0000000000000000e+00" cType="1" res="-6.0764029622077942e-03" rms="2.3491486907005310e-01" purity="1.4678880572319031e-01" nType="-99"/>
            <Node pos="r" depth="3" NCoef="0" IVar="-1" Cut="0.0000000000000000e+00" cType="1" res="2.3846842348575592e-02" rms="3.2460817694664001e-01" purity="3.3883336186408997e-01" nType="-99"/>
          </Node>
        </Node>
        <Node pos="r" depth="1" NCoef="0" IVar="6" Cut="5.8700405120849609e+01" cType="1" res="-6.3119148835539818e-03" rms="2.9978242516517639e-01" purity="6.1163699626922607e-01" nType="0">
          <Node pos="l" depth="2" NCoef="0" IVar="8" Cut="3.9853972196578979e-01" cType="1" res="-1.1799123138189316e-02" rms="3.3912429213523865e-01" purity="3.5808104276657104e-01" nType="0">
            <Node pos="l" depth="3" NCoef="0" IVar="-1" Cut="0.0000000000000000e+00" cType="1" res="-3.1618664506822824e-03" rms="3.4472638368606567e-01" purity="3.8607135415077209e-01" nType="-99"/>
            <Node pos="r" depth="3" NCoef="0" IVar="-1" Cut="0.0000000000000000e+00" cType="1" res="-2.4001495912671089e-02" rms="3.2743299007415771e-01" purity="3.0381599068641663e-01" nType="-99"/>
          </Node>
          <Node pos="r" depth="2" NCoef="0" IVar="4" Cut="1.7273060607910156e+02" cType="1" res="-9.2201092047616839e-04" rms="2.5518783926963806e-01" purity="8.6069655418395996e-01" nType="0">
            <Node pos="l" depth="3" NCoef="0" IVar="-1" Cut="0.0000000000000000e+00" cType="1" res="-1.4445808716118336e-02" rms="3.1791263818740845e-01" purity="7.3855823278427124e-01" nType="-99"/>
            <Node pos="r" depth="3" NCoef="0" IVar="-1" Cut="0.0000000000000000e+00" cType="1" res="1.4029188081622124e-02" rms="2.1100303530693054e-01" purity="9.3010324239730835e-01" nType="-99"/>
          </Node>
        </Node>
      </Node>
    </BinaryTree>
    <BinaryTree type="DecisionTree" boostWeight="1.0000000000000000e+00" itree="385">
      <Node pos="s" depth="0" NCoef="0" IVar="9" Cut="-4.0015023946762085e-01" cType="1" res="-2.6699162845034152e-05" rms="2.8690469264984131e-01" purity="4.9903732538223267e-01" nType="0">
        <Node pos="l" depth="1" NCoef="0" IVar="1" Cut="1.0251294821500778e-01" cType="1" res="4.9964236095547676e-03" rms="2.9183107614517212e-01" purity="4.6414560079574585e-01" nType="0">
          <Node pos="l" depth="2" NCoef="0" IVar="9" Cut="-2.1143310070037842e+00" cType="1" res="9.0126814320683479e-03" rms="2.9651239514350891e-01" purity="3.4275481104850769e-01" nType="0">
            <Node pos="l" depth="3" NCoef="0" IVar="-1" Cut="0.0000000000000000e+00" cType="1" res="-2.2118186578154564e-02" rms="2.0634603500366211e-01" purity="8.6755059659481049e-02" nType="-99"/>
            <Node pos="r" depth="3" NCoef="0" IVar="-1" Cut="0.0000000000000000e+00" cType="1" res="1.2247358448803425e-02" rms="3.0475208163261414e-01" purity="3.7100586295127869e-01" nType="-99"/>
          </Node>
          <Node pos="r" depth="2" NCoef="0" IVar="-1" Cut="0.0000000000000000e+00" cType="1" res="-8.4353070706129074e-03" rms="2.7741891145706177e-01" purity="8.1763869524002075e-01" nType="-99"/>
        </Node>
        <Node pos="r" depth="1" NCoef="0" IVar="9" Cut="8.1882095336914062e-01" cType="1" res="-2.7958089485764503e-03" rms="2.8411439061164856e-01" purity="5.1827222108840942e-01" nType="0">
          <Node pos="l" depth="2" NCoef="0" IVar="4" Cut="2.6664495849609375e+02" cType="1" res="-7.3921196162700653e-03" rms="2.8210529685020447e-01" purity="5.9710860252380371e-01" nType="0">
            <Node pos="l" depth="3" NCoef="0" IVar="-1" Cut="0.0000000000000000e+00" cType="1" res="-1.1305248364806175e-02" rms="2.8884553909301758e-01" purity="5.5096662044525146e-01" nType="-99"/>
            <Node pos="r" depth="3" NCoef="0" IVar="-1" Cut="0.0000000000000000e+00" cType="1" res="1.4209307730197906e-02" rms="2.3040142655372620e-01" purity="9.1146636009216309e-01" nType="-99"/>
          </Node>
          <Node pos="r" depth="2" NCoef="0" IVar="4" Cut="1.9489173889160156e+02" cType="1" res="5.8434274978935719e-03" rms="2.8765410184860229e-01" purity="3.7009119987487793e-01" nType="0">
            <Node pos="l" depth="3" NCoef="0" IVar="-1" Cut="0.0000000000000000e+00" cType="1" res="1.2178099714219570e-02" rms="2.8435549139976501e-01" purity="2.8149944543838501e-01" nType="-99"/>
            <Node pos="r" depth="3" NCoef="0" IVar="-1" Cut="0.0000000000000000e+00" cType="1" res="-7.9822558909654617e-03" rms="2.9906794428825378e-01" purity="6.9545876979827881e-01" nType="-99"/>
          </Node>
        </Node>
      </Node>
    </BinaryTree>
    <BinaryTree type="DecisionTree" boostWeight="1.0000000000000000e+00" itree="386">
      <Node pos="s" depth="0" NCoef="0" IVar="1" Cut="1.0250684618949890e-01" cType="1" res="7.7779806451871991e-04" rms="2.8905814886093140e-01" purity="4.9787095189094543e-01" nType="0">
        <Node pos="l" depth="1" NCoef="0" IVar="11" Cut="-1.8952404260635376e+00" cType="1" res="3.7599189672619104e-03" rms="2.9540562629699707e-01" purity="3.7171477079391479e-01" nType="0">
          <Node pos="l" depth="2" NCoef="0" IVar="0" Cut="1.6877441406250000e+03" cType="1" res="-2.2983543749433011e-04" rms="2.8114125132560730e-01" purity="1.8800584971904755e-01" nType="0">
            <Node pos="l" depth="3" NCoef="0" IVar="-1" Cut="0.0000000000000000e+00" cType="1" res="3.5431222058832645e-03" rms="2.6433494687080383e-01" purity="1.2584869563579559e-01" nType="-99"/>
            <Node pos="r" depth="3" NCoef="0" IVar="-1" Cut="0.0000000000000000e+00" cType="1" res="-1.1703707277774811e-02" rms="3.6066299676895142e-01" purity="5.3588920831680298e-01" nType="-99"/>
          </Node>
          <Node pos="r" depth="2" NCoef="0" IVar="11" Cut="-3.3014670014381409e-01" cType="1" res="9.4699831679463387e-03" rms="3.1460967659950256e-01" purity="6.3463568687438965e-01" nType="0">
            <Node pos="l" depth="3" NCoef="0" IVar="-1" Cut="0.0000000000000000e+00" cType="1" res="2.2104488685727119e-02" rms="3.2428857684135437e-01" purity="6.4324992895126343e-01" nType="-99"/>
            <Node pos="r" depth="3" NCoef="0" IVar="-1" Cut="0.0000000000000000e+00" cType="1" res="1.9887445960193872e-03" rms="3.0885484814643860e-01" purity="6.2985938787460327e-01" nType="-99"/>
          </Node>
        </Node>
        <Node pos="r" depth="1" NCoef="0" IVar="6" Cut="6.6419250488281250e+01" cType="1" res="-6.9230524823069572e-03" rms="2.7183121442794800e-01" purity="8.2364916801452637e-01" nType="0">
          <Node pos="l" depth="2" NCoef="0" IVar="1" Cut="1.3116982579231262e-01" cType="1" res="-1.8521426245570183e-02" rms="3.6325711011886597e-01" purity="6.3202327489852905e-01" nType="0">
            <Node pos="l" depth="3" NCoef="0" IVar="-1" Cut="0.0000000000000000e+00" cType="1" res="-2.5968257337808609e-02" rms="3.8172656297683716e-01" purity="5.3879159688949585e-01" nType="-99"/>
            <Node pos="r" depth="3" NCoef="0" IVar="-1" Cut="0.0000000000000000e+00" cType="1" res="-6.3405917026102543e-03" rms="3.5159668326377869e-01" purity="6.8647372722625732e-01" nType="-99"/>
          </Node>
          <Node pos="r" depth="2" NCoef="0" IVar="-1" Cut="0.0000000000000000e+00" cType="1" res="3.3174620475620031e-03" rms="1.8232817947864532e-01" purity="9.5727562904357910e-01" nType="-99"/>
        </Node>
      </Node>
    </BinaryTree>
    <BinaryTree type="DecisionTree" boostWeight="1.0000000000000000e+00" itree="387">
      <Node pos="s" depth="0" NCoef="0" IVar="7" Cut="1.3843199610710144e-01" cType="1" res="1.4103225839789957e-04" rms="2.8525835275650024e-01" purity="4.9983692169189453e-01" nType="0">
        <Node pos="l" depth="1" NCoef="0" IVar="3" Cut="4.2914477539062500e+02" cType="1" res="-5.4643708281219006e-03" rms="2.8513926267623901e-01" purity="5.1257115602493286e-01" nType="0">
          <Node pos="l" depth="2" NCoef="0" IVar="11" Cut="1.1427444219589233e+00" cType="1" res="-6.9476072676479816e-03" rms="2.8480985760688782e-01" purity="4.9669119715690613e-01" nType="0">
            <Node pos="l" depth="3" NCoef="0" IVar="-1" Cut="0.0000000000000000e+00" cType="1" res="-6.5005826763808727e-03" rms="2.8311467170715332e-01" purity="4.8388987779617310e-01" nType="-99"/>
            <Node pos="r" depth="3" NCoef="0" IVar="-1" Cut="0.0000000000000000e+00" cType="1" res="-2.8568653389811516e-02" rms="3.0367439985275269e-01" purity="6.4904201030731201e-01" nType="-99"/>
          </Node>
          <Node pos="r" depth="2" NCoef="0" IVar="-1" Cut="0.0000000000000000e+00" cType="1" res="2.4035841226577759e-02" rms="2.8961688280105591e-01" purity="7.9051184654235840e-01" nType="-99"/>
        </Node>
        <Node pos="r" depth="1" NCoef="0" IVar="11" Cut="1.4177290201187134e+00" cType="1" res="7.3781996034085751e-03" rms="2.8524917364120483e-01" purity="4.8339575529098511e-01" nType="0">
          <Node pos="l" depth="2" NCoef="0" IVar="8" Cut="9.3378847837448120e-01" cType="1" res="5.3885895758867264e-03" rms="2.8398862481117249e-01" purity="4.6837851405143738e-01" nType="0">
            <Node pos="l" depth="3" NCoef="0" IVar="-1" Cut="0.0000000000000000e+00" cType="1" res="2.3553974460810423e-03" rms="2.8566098213195801e-01" purity="5.0589174032211304e-01" nType="-99"/>
            <Node pos="r" depth="3" NCoef="0" IVar="-1" Cut="0.0000000000000000e+00" cType="1" res="2.5947561487555504e-02" rms="2.7639618515968323e-01" purity="3.1102624535560608e-01" nType="-99"/>
          </Node>
          <Node pos="r" depth="2" NCoef="0" IVar="-1" Cut="0.0000000000000000e+00" cType="1" res="3.2918460667133331e-02" rms="2.9984804987907410e-01" purity="6.7699903249740601e-01" nType="-99"/>
        </Node>
      </Node>
    </BinaryTree>
    <BinaryTree type="DecisionTree" boostWeight="1.0000000000000000e+00" itree="388">
      <Node pos="s" depth="0" NCoef="0" IVar="5" Cut="9.3022178649902344e+01" cType="1" res="4.4175046496093273e-03" rms="2.9122063517570496e-01" purity="5.0379717350006104e-01" nType="0">
        <Node pos="l" depth="1" NCoef="0" IVar="8" Cut="-1.1999919414520264e+00" cType="1" res="7.9036550596356392e-03" rms="3.0864477157592773e-01" purity="2.9949092864990234e-01" nType="0">
          <Node pos="l" depth="2" NCoef="0" IVar="4" Cut="1.1864058685302734e+02" cType="1" res="-7.4224141426384449e-03" rms="2.1351657807826996e-01" purity="9.1414481401443481e-02" nType="0">
            <Node pos="l" depth="3" NCoef="0" IVar="-1" Cut="0.0000000000000000e+00" cType="1" res="2.2976364940404892e-02" rms="1.9140684604644775e-01" purity="5.3785108029842377e-02" nType="-99"/>
            <Node pos="r" depth="3" NCoef="0" IVar="-1" Cut="0.0000000000000000e+00" cType="1" res="-3.3449083566665649e-02" rms="2.3621495068073273e-01" purity="1.3677065074443817e-01" nType="-99"/>
          </Node>
          <Node pos="r" depth="2" NCoef="0" IVar="3" Cut="3.6833599853515625e+02" cType="1" res="1.0517370887100697e-02" rms="3.2200285792350769e-01" purity="3.3497640490531921e-01" nType="0">
            <Node pos="l" depth="3" NCoef="0" IVar="-1" Cut="0.0000000000000000e+00" cType="1" res="8.8183684274554253e-03" rms="3.1855270266532898e-01" purity="3.1460380554199219e-01" nType="-99"/>
            <Node pos="r" depth="3" NCoef="0" IVar="-1" Cut="0.0000000000000000e+00" cType="1" res="2.6310503482818604e-02" rms="3.6133626103401184e-01" purity="5.8816850185394287e-01" nType="-99"/>
          </Node>
        </Node>
        <Node pos="r" depth="1" NCoef="0" IVar="11" Cut="5.8861458301544189e-01" cType="1" res="-1.3317361008375883e-03" rms="2.5984424352645874e-01" purity="8.4073215723037720e-01" nType="0">
          <Node pos="l" depth="2" NCoef="0" IVar="9" Cut="1.3520136475563049e-01" cType="1" res="2.1155017893761396e-03" rms="2.5972566008567810e-01" purity="8.3347368240356445e-01" nType="0">
            <Node pos="l" depth="3" NCoef="0" IVar="-1" Cut="0.0000000000000000e+00" cType="1" res="-3.1113696750253439e-03" rms="2.5912991166114807e-01" purity="8.3197760581970215e-01" nType="-99"/>
            <Node pos="r" depth="3" NCoef="0" IVar="-1" Cut="0.0000000000000000e+00" cType="1" res="1.1671295389533043e-02" rms="2.6043474674224854e-01" purity="8.3556205034255981e-01" nType="-99"/>
          </Node>
          <Node pos="r" depth="2" NCoef="0" IVar="-1" Cut="0.0000000000000000e+00" cType="1" res="-1.8129279837012291e-02" rms="2.5992795825004578e-01" purity="8.6206150054931641e-01" nType="-99"/>
        </Node>
      </Node>
    </BinaryTree>
    <BinaryTree type="DecisionTree" boostWeight="1.0000000000000000e+00" itree="389">
      <Node pos="s" depth="0" NCoef="0" IVar="11" Cut="-1.3430143594741821e+00" cType="1" res="1.9511223945301026e-04" rms="2.8853389620780945e-01" purity="4.9945941567420959e-01" nType="0">
        <Node pos="l" depth="1" NCoef="0" IVar="8" Cut="-6.6670978069305420e-01" cType="1" res="3.2941191457211971e-03" rms="2.9946660995483398e-01" purity="2.8108328580856323e-01" nType="0">
          <Node pos="l" depth="2" NCoef="0" IVar="1" Cut="6.2974996864795685e-02" cType="1" res="1.1743016541004181e-02" rms="2.8373205661773682e-01" purity="2.0377781987190247e-01" nType="0">
            <Node pos="l" depth="3" NCoef="0" IVar="-1" Cut="0.0000000000000000e+00" cType="1" res="1.2112453579902649e-02" rms="2.4953964352607727e-01" purity="1.1850011348724365e-01" nType="-99"/>
            <Node pos="r" depth="3" NCoef="0" IVar="-1" Cut="0.0000000000000000e+00" cType="1" res="2.1212926134467125e-02" rms="3.7908190488815308e-01" purity="5.0101625919342041e-01" nType="-99"/>
          </Node>
          <Node pos="r" depth="2" NCoef="0" IVar="1" Cut="1.0223419219255447e-01" cType="1" res="-4.3825999455293640e-05" rms="3.0539524555206299e-01" purity="3.1162473559379578e-01" nType="0">
            <Node pos="l" depth="3" NCoef="0" IVar="-1" Cut="0.0000000000000000e+00" cType="1" res="-3.1905546784400940e-03" rms="2.9124489426612854e-01" purity="2.3073072731494904e-01" nType="-99"/>
            <Node pos="r" depth="3" NCoef="0" IVar="-1" Cut="0.0000000000000000e+00" cType="1" res="9.3187987804412842e-03" rms="3.5963228344917297e-01" purity="6.5885114669799805e-01" nType="-99"/>
          </Node>
        </Node>
        <Node pos="r" depth="1" NCoef="0" IVar="3" Cut="1.9770326232910156e+02" cType="1" res="-3.4459705930203199e-03" rms="2.7508974075317383e-01" purity="7.5603371858596802e-01" nType="0">
          <Node pos="l" depth="2" NCoef="0" IVar="2" Cut="3.7076943969726562e+02" cType="1" res="-1.3757105916738510e-02" rms="3.1480148434638977e-01" purity="5.3515905141830444e-01" nType="0">
            <Node pos="l" depth="3" NCoef="0" IVar="-1" Cut="0.0000000000000000e+00" cType="1" res="-6.3193696551024914e-03" rms="3.1485393643379211e-01" purity="5.5227535963058472e-01" nType="-99"/>
            <Node pos="r" depth="3" NCoef="0" IVar="-1" Cut="0.0000000000000000e+00" cType="1" res="-3.6983806639909744e-02" rms="3.1347307562828064e-01" purity="4.7975450754165649e-01" nType="-99"/>
          </Node>
          <Node pos="r" depth="2" NCoef="0" IVar="8" Cut="-9.3454295396804810e-01" cType="1" res="4.4407803216017783e-04" rms="2.5842100381851196e-01" purity="8.3936244249343872e-01" nType="0">
            <Node pos="l" depth="3" NCoef="0" IVar="-1" Cut="0.0000000000000000e+00" cType="1" res="-2.0996117964386940e-02" rms="3.1383201479911804e-01" purity="6.6348779201507568e-01" nType="-99"/>
            <Node pos="r" depth="3" NCoef="0" IVar="-1" Cut="0.0000000000000000e+00" cType="1" res="4.5359442010521889e-03" rms="2.5059834122657776e-01" purity="8.6112868785858154e-01" nType="-99"/>
          </Node>
        </Node>
      </Node>
    </BinaryTree>
    <BinaryTree type="DecisionTree" boostWeight="1.0000000000000000e+00" itree="390">
      <Node pos="s" depth="0" NCoef="0" IVar="11" Cut="1.4190381765365601e+00" cType="1" res="-2.0137903629802167e-04" rms="2.8556397557258606e-01" purity="5.0240510702133179e-01" nType="0">
        <Node pos="l" depth="1" NCoef="0" IVar="8" Cut="-1.3299155235290527e-01" cType="1" res="-1.1845583794638515e-03" rms="2.8449326753616333e-01" purity="4.9410623311996460e-01" nType="0">
          <Node pos="l" depth="2" NCoef="0" IVar="1" Cut="1.3515606522560120e-01" cType="1" res="2.7095270343124866e-03" rms="2.8365877270698547e-01" purity="4.7853532433509827e-01" nType="0">
            <Node pos="l" depth="3" NCoef="0" IVar="-1" Cut="0.0000000000000000e+00" cType="1" res="-4.7680860006948933e-05" rms="2.8942963480949402e-01" purity="3.9477512240409851e-01" nType="-99"/>
            <Node pos="r" depth="3" NCoef="0" IVar="-1" Cut="0.0000000000000000e+00" cType="1" res="2.2934768348932266e-02" rms="2.5394421815872192e-01" purity="8.7784713506698608e-01" nType="-99"/>
          </Node>
          <Node pos="r" depth="2" NCoef="0" IVar="7" Cut="-6.2378531694412231e-01" cType="1" res="-4.4545484706759453e-03" rms="2.8515103459358215e-01" purity="5.0718164443969727e-01" nType="0">
            <Node pos="l" depth="3" NCoef="0" IVar="-1" Cut="0.0000000000000000e+00" cType="1" res="-1.9987579435110092e-02" rms="2.6674175262451172e-01" purity="3.2914176583290100e-01" nType="-99"/>
            <Node pos="r" depth="3" NCoef="0" IVar="-1" Cut="0.0000000000000000e+00" cType="1" res="-1.8563630292192101e-03" rms="2.9005250334739685e-01" purity="5.5724644660949707e-01" nType="-99"/>
          </Node>
        </Node>
        <Node pos="r" depth="1" NCoef="0" IVar="4" Cut="1.5577992248535156e+02" cType="1" res="1.4881861396133900e-02" rms="3.0111190676689148e-01" purity="6.2971967458724976e-01" nType="0">
          <Node pos="l" depth="2" NCoef="0" IVar="-1" Cut="0.0000000000000000e+00" cType="1" res="2.9889622703194618e-02" rms="3.1287258863449097e-01" purity="4.1560873389244080e-01" nType="-99"/>
          <Node pos="r" depth="2" NCoef="0" IVar="-1" Cut="0.0000000000000000e+00" cType="1" res="1.7721481854096055e-03" rms="2.9103654623031616e-01" purity="7.9441577196121216e-01" nType="-99"/>
        </Node>
      </Node>
    </BinaryTree>
    <BinaryTree type="DecisionTree" boostWeight="1.0000000000000000e+00" itree="391">
      <Node pos="s" depth="0" NCoef="0" IVar="9" Cut="1.9999079704284668e+00" cType="1" res="-1.1034862836822867e-03" rms="2.8629103302955627e-01" purity="4.9860501289367676e-01" nType="0">
        <Node pos="l" depth="1" NCoef="0" IVar="2" Cut="6.9339111328125000e+02" cType="1" res="-2.1128943189978600e-03" rms="2.8794601559638977e-01" purity="5.1142841577529907e-01" nType="0">
          <Node pos="l" depth="2" NCoef="0" IVar="10" Cut="1.4662829637527466e+00" cType="1" res="-1.3602226972579956e-03" rms="2.8642734885215759e-01" purity="5.0854104757308960e-01" nType="0">
            <Node pos="l" depth="3" NCoef="0" IVar="-1" Cut="0.0000000000000000e+00" cType="1" res="-3.4288933966308832e-03" rms="2.8590580821037292e-01" purity="5.2700603008270264e-01" nType="-99"/>
            <Node pos="r" depth="3" NCoef="0" IVar="-1" Cut="0.0000000000000000e+00" cType="1" res="1.2246184982359409e-02" rms="2.9031401872634888e-01" purity="3.5974946618080139e-01" nType="-99"/>
          </Node>
          <Node pos="r" depth="2" NCoef="0" IVar="-1" Cut="0.0000000000000000e+00" cType="1" res="-1.8334746360778809e-02" rms="3.2077893614768982e-01" purity="5.7864594459533691e-01" nType="-99"/>
        </Node>
        <Node pos="r" depth="1" NCoef="0" IVar="-1" Cut="0.0000000000000000e+00" cType="1" res="4.9608912318944931e-02" rms="2.3449914157390594e-01" purity="1.4545963704586029e-01" nType="-99"/>
      </Node>
    </BinaryTree>
    <BinaryTree type="DecisionTree" boostWeight="1.0000000000000000e+00" itree="392">
      <Node pos="s" depth="0" NCoef="0" IVar="10" Cut="1.3316272199153900e-01" cType="1" res="3.1552310101687908e-03" rms="2.8896319866180420e-01" purity="5.0371223688125610e-01" nType="0">
        <Node pos="l" depth="1" NCoef="0" IVar="10" Cut="-2.1016390323638916e+00" cType="1" res="6.5433704294264317e-03" rms="2.8856724500656128e-01" purity="5.1315981149673462e-01" nType="0">
          <Node pos="l" depth="2" NCoef="0" IVar="-1" Cut="0.0000000000000000e+00" cType="1" res="-2.7272444218397141e-02" rms="2.7709436416625977e-01" purity="1.9147993624210358e-01" nType="-99"/>
          <Node pos="r" depth="2" NCoef="0" IVar="6" Cut="8.0188293457031250e+01" cType="1" res="8.5660619661211967e-03" rms="2.8931707143783569e-01" purity="5.3751868009567261e-01" nType="0">
            <Node pos="l" depth="3" NCoef="0" IVar="-1" Cut="0.0000000000000000e+00" cType="1" res="1.2983891181647778e-02" rms="3.1260487437248230e-01" purity="4.0754026174545288e-01" nType="-99"/>
            <Node pos="r" depth="3" NCoef="0" IVar="-1" Cut="0.0000000000000000e+00" cType="1" res="-7.9624885693192482e-03" rms="2.0526616275310516e-01" purity="9.2117905616760254e-01" nType="-99"/>
          </Node>
        </Node>
        <Node pos="r" depth="1" NCoef="0" IVar="11" Cut="3.8012538105249405e-02" cType="1" res="-8.6175656178966165e-04" rms="2.8938055038452148e-01" purity="4.9251118302345276e-01" nType="0">
          <Node pos="l" depth="2" NCoef="0" IVar="1" Cut="3.8288645446300507e-02" cType="1" res="2.1993431728333235e-03" rms="2.8945416212081909e-01" purity="4.1041222214698792e-01" nType="0">
            <Node pos="l" depth="3" NCoef="0" IVar="-1" Cut="0.0000000000000000e+00" cType="1" res="-9.8804784938693047e-03" rms="2.4199922382831573e-01" purity="1.5102140605449677e-01" nType="-99"/>
            <Node pos="r" depth="3" NCoef="0" IVar="-1" Cut="0.0000000000000000e+00" cType="1" res="8.7607279419898987e-03" rms="3.2175165414810181e-01" purity="6.1450254917144775e-01" nType="-99"/>
          </Node>
          <Node pos="r" depth="2" NCoef="0" IVar="10" Cut="1.4029256105422974e+00" cType="1" res="-9.0031065046787262e-03" rms="2.8902685642242432e-01" purity="7.1086281538009644e-01" nType="0">
            <Node pos="l" depth="3" NCoef="0" IVar="-1" Cut="0.0000000000000000e+00" cType="1" res="-2.0240275189280510e-02" rms="2.8827145695686340e-01" purity="7.4390667676925659e-01" nType="-99"/>
            <Node pos="r" depth="3" NCoef="0" IVar="-1" Cut="0.0000000000000000e+00" cType="1" res="1.3071703724563122e-02" rms="2.9022815823554993e-01" purity="6.0870778560638428e-01" nType="-99"/>
          </Node>
        </Node>
      </Node>
    </BinaryTree>
    <BinaryTree type="DecisionTree" boostWeight="1.0000000000000000e+00" itree="393">
      <Node pos="s" depth="0" NCoef="0" IVar="11" Cut="1.4181584119796753e+00" cType="1" res="-2.4072718806564808e-03" rms="2.8591763973236084e-01" purity="4.9979472160339355e-01" nType="0">
        <Node pos="l" depth="1" NCoef="0" IVar="1" Cut="6.2751308083534241e-02" cType="1" res="-3.5862352233380079e-03" rms="2.8479632735252380e-01" purity="4.8913389444351196e-01" nType="0">
          <Node pos="l" depth="2" NCoef="0" IVar="7" Cut="6.8535459041595459e-01" cType="1" res="6.7611964186653495e-04" rms="2.8043502569198608e-01" purity="2.7067387104034424e-01" nType="0">
            <Node pos="l" depth="3" NCoef="0" IVar="-1" Cut="0.0000000000000000e+00" cType="1" res="5.9832883998751640e-03" rms="2.9349699616432190e-01" purity="3.1636753678321838e-01" nType="-99"/>
            <Node pos="r" depth="3" NCoef="0" IVar="-1" Cut="0.0000000000000000e+00" cType="1" res="-1.5871187672019005e-02" rms="2.4596123397350311e-01" purity="1.6107665002346039e-01" nType="-99"/>
          </Node>
          <Node pos="r" depth="2" NCoef="0" IVar="5" Cut="9.9383720397949219e+01" cType="1" res="-8.7283048778772354e-03" rms="2.8988707065582275e-01" purity="7.5268238782882690e-01" nType="0">
            <Node pos="l" depth="3" NCoef="0" IVar="-1" Cut="0.0000000000000000e+00" cType="1" res="-1.5612847171723843e-02" rms="3.5243588685989380e-01" purity="5.6712728738784790e-01" nType="-99"/>
            <Node pos="r" depth="3" NCoef="0" IVar="-1" Cut="0.0000000000000000e+00" cType="1" res="4.7457255423069000e-03" rms="2.0965100824832916e-01" purity="9.3669480085372925e-01" nType="-99"/>
          </Node>
        </Node>
        <Node pos="r" depth="1" NCoef="0" IVar="9" Cut="1.2994042038917542e-01" cType="1" res="1.5119974501430988e-02" rms="3.0155444145202637e-01" purity="6.5828520059585571e-01" nType="0">
          <Node pos="l" depth="2" NCoef="0" IVar="-1" Cut="0.0000000000000000e+00" cType="1" res="1.9621720537543297e-02" rms="2.9864722490310669e-01" purity="6.8568068742752075e-01" nType="-99"/>
          <Node pos="r" depth="2" NCoef="0" IVar="-1" Cut="0.0000000000000000e+00" cType="1" res="1.1853413656353951e-02" rms="3.0437111854553223e-01" purity="6.3108521699905396e-01" nType="-99"/>
        </Node>
      </Node>
    </BinaryTree>
    <BinaryTree type="DecisionTree" boostWeight="1.0000000000000000e+00" itree="394">
      <Node pos="s" depth="0" NCoef="0" IVar="3" Cut="2.3124438476562500e+02" cType="1" res="-1.6178454970940948e-03" rms="2.8655955195426941e-01" purity="4.9160742759704590e-01" nType="0">
        <Node pos="l" depth="1" NCoef="0" IVar="1" Cut="1.2300722301006317e-01" cType="1" res="2.2087148390710354e-03" rms="2.8363421559333801e-01" purity="3.4650009870529175e-01" nType="0">
          <Node pos="l" depth="2" NCoef="0" IVar="3" Cut="2.2277349853515625e+02" cType="1" res="-8.0018467269837856e-04" rms="2.8129628300666809e-01" purity="2.5617188215255737e-01" nType="0">
            <Node pos="l" depth="3" NCoef="0" IVar="-1" Cut="0.0000000000000000e+00" cType="1" res="8.1482337554916739e-04" rms="2.7999785542488098e-01" purity="2.4539141356945038e-01" nType="-99"/>
            <Node pos="r" depth="3" NCoef="0" IVar="-1" Cut="0.0000000000000000e+00" cType="1" res="-2.4708045646548271e-02" rms="3.0132690072059631e-01" purity="4.3805482983589172e-01" nType="-99"/>
          </Node>
          <Node pos="r" depth="2" NCoef="0" IVar="-1" Cut="0.0000000000000000e+00" cType="1" res="1.7843166366219521e-02" rms="2.9431450366973877e-01" purity="7.8634548187255859e-01" nType="-99"/>
        </Node>
        <Node pos="r" depth="1" NCoef="0" IVar="9" Cut="1.1998380422592163e+00" cType="1" res="-6.5570040605962276e-03" rms="2.9021731019020081e-01" purity="6.7890578508377075e-01" nType="0">
          <Node pos="l" depth="2" NCoef="0" IVar="8" Cut="3.9977774024009705e-01" cType="1" res="-4.0789116173982620e-03" rms="2.8866222500801086e-01" purity="7.0799946784973145e-01" nType="0">
            <Node pos="l" depth="3" NCoef="0" IVar="-1" Cut="0.0000000000000000e+00" cType="1" res="-1.0074637830257416e-02" rms="2.8473854064941406e-01" purity="7.3367369174957275e-01" nType="-99"/>
            <Node pos="r" depth="3" NCoef="0" IVar="-1" Cut="0.0000000000000000e+00" cType="1" res="5.7887132279574871e-03" rms="2.9707708954811096e-01" purity="6.5033632516860962e-01" nType="-99"/>
          </Node>
          <Node pos="r" depth="2" NCoef="0" IVar="-1" Cut="0.0000000000000000e+00" cType="1" res="-2.8161123394966125e-02" rms="3.0319330096244812e-01" purity="4.1144490242004395e-01" nType="-99"/>
        </Node>
      </Node>
    </BinaryTree>
    <BinaryTree type="DecisionTree" boostWeight="1.0000000000000000e+00" itree="395">
      <Node pos="s" depth="0" NCoef="0" IVar="7" Cut="1.3843199610710144e-01" cType="1" res="-1.4053025515750051e-03" rms="2.8772965073585510e-01" purity="4.9700236320495605e-01" nType="0">
        <Node pos="l" depth="1" NCoef="0" IVar="8" Cut="-1.4666671752929688e+00" cType="1" res="-4.3201954104006290e-03" rms="2.8805109858512878e-01" purity="5.1518976688385010e-01" nType="0">
          <Node pos="l" depth="2" NCoef="0" IVar="-1" Cut="0.0000000000000000e+00" cType="1" res="2.9188545420765877e-02" rms="2.6695889234542847e-01" purity="2.0016559958457947e-01" nType="-99"/>
          <Node pos="r" depth="2" NCoef="0" IVar="11" Cut="-2.7238357067108154e+00" cType="1" res="-6.3879913650453091e-03" rms="2.8967976570129395e-01" purity="5.4197907447814941e-01" nType="0">
            <Node pos="l" depth="3" NCoef="0" IVar="-1" Cut="0.0000000000000000e+00" cType="1" res="-1.4291146770119667e-02" rms="3.0809384584426880e-01" purity="2.4533686041831970e-01" nType="-99"/>
            <Node pos="r" depth="3" NCoef="0" IVar="-1" Cut="0.0000000000000000e+00" cType="1" res="-5.2902137394994497e-04" rms="2.7377131581306458e-01" purity="7.8138810396194458e-01" nType="-99"/>
          </Node>
        </Node>
        <Node pos="r" depth="1" NCoef="0" IVar="8" Cut="-9.3328660726547241e-01" cType="1" res="2.2975313477218151e-03" rms="2.8727814555168152e-01" purity="4.7389858961105347e-01" nType="0">
          <Node pos="l" depth="2" NCoef="0" IVar="7" Cut="6.4543205499649048e-01" cType="1" res="-1.0020324960350990e-02" rms="2.4531973898410797e-01" purity="2.1551342308521271e-01" nType="0">
            <Node pos="l" depth="3" NCoef="0" IVar="-1" Cut="0.0000000000000000e+00" cType="1" res="-3.0104113742709160e-02" rms="2.7580732107162476e-01" purity="3.6048284173011780e-01" nType="-99"/>
            <Node pos="r" depth="3" NCoef="0" IVar="-1" Cut="0.0000000000000000e+00" cType="1" res="-5.1120662828907371e-04" rms="2.2338971495628357e-01" purity="1.2397744506597519e-01" nType="-99"/>
          </Node>
          <Node pos="r" depth="2" NCoef="0" IVar="8" Cut="1.1999475955963135e+00" cType="1" res="4.5654280111193657e-03" rms="2.9429587721824646e-01" purity="5.2147108316421509e-01" nType="0">
            <Node pos="l" depth="3" NCoef="0" IVar="-1" Cut="0.0000000000000000e+00" cType="1" res="7.9397875815629959e-03" rms="3.0392903089523315e-01" purity="5.7632035017013550e-01" nType="-99"/>
            <Node pos="r" depth="3" NCoef="0" IVar="-1" Cut="0.0000000000000000e+00" cType="1" res="-1.4389417134225368e-02" rms="2.3541088402271271e-01" purity="2.2681780159473419e-01" nType="-99"/>
          </Node>
        </Node>
      </Node>
    </BinaryTree>
    <BinaryTree type="DecisionTree" boostWeight="1.0000000000000000e+00" itree="396">
      <Node pos="s" depth="0" NCoef="0" IVar="10" Cut="1.9998537302017212e+00" cType="1" res="-1.5505591873079538e-03" rms="2.8732937574386597e-01" purity="5.0150877237319946e-01" nType="0">
        <Node pos="l" depth="1" NCoef="0" IVar="10" Cut="-1.6571691036224365e+00" cType="1" res="-2.6287015061825514e-03" rms="2.8664633631706238e-01" purity="5.1317548751831055e-01" nType="0">
          <Node pos="l" depth="2" NCoef="0" IVar="9" Cut="-9.3333506584167480e-01" cType="1" res="-1.7754357308149338e-02" rms="2.7684828639030457e-01" purity="2.9756596684455872e-01" nType="0">
            <Node pos="l" depth="3" NCoef="0" IVar="-1" Cut="0.0000000000000000e+00" cType="1" res="1.0072161443531513e-02" rms="2.7000573277473450e-01" purity="2.4091315269470215e-01" nType="-99"/>
            <Node pos="r" depth="3" NCoef="0" IVar="-1" Cut="0.0000000000000000e+00" cType="1" res="-3.2959118485450745e-02" rms="2.7901479601860046e-01" purity="3.2162562012672424e-01" nType="-99"/>
          </Node>
          <Node pos="r" depth="2" NCoef="0" IVar="10" Cut="1.4773881435394287e+00" cType="1" res="-1.1404760880395770e-03" rms="2.8754934668540955e-01" purity="5.3438949584960938e-01" nType="0">
            <Node pos="l" depth="3" NCoef="0" IVar="-1" Cut="0.0000000000000000e+00" cType="1" res="-5.8791243645828217e-05" rms="2.8672680258750916e-01" purity="5.4617589712142944e-01" nType="-99"/>
            <Node pos="r" depth="3" NCoef="0" IVar="-1" Cut="0.0000000000000000e+00" cType="1" res="-1.6859514638781548e-02" rms="2.9731655120849609e-01" purity="3.8682329654693604e-01" nType="-99"/>
          </Node>
        </Node>
        <Node pos="r" depth="1" NCoef="0" IVar="-1" Cut="0.0000000000000000e+00" cType="1" res="2.3885358124971390e-02" rms="2.9972591996192932e-01" purity="2.7071958780288696e-01" nType="-99"/>
      </Node>
    </BinaryTree>
    <BinaryTree type="DecisionTree" boostWeight="1.0000000000000000e+00" itree="397">
      <Node pos="s" depth="0" NCoef="0" IVar="7" Cut="-1.2751729786396027e-01" cType="1" res="8.1465113908052444e-05" rms="2.8707563877105713e-01" purity="5.0187176465988159e-01" nType="0">
        <Node pos="l" depth="1" NCoef="0" IVar="9" Cut="-1.1997059583663940e+00" cType="1" res="5.0531020388007164e-03" rms="2.8865179419517517e-01" purity="4.8291197419166565e-01" nType="0">
          <Node pos="l" depth="2" NCoef="0" IVar="10" Cut="-6.6644513607025146e-01" cType="1" res="-1.0651186108589172e-02" rms="2.7676650881767273e-01" purity="2.6107254624366760e-01" nType="0">
            <Node pos="l" depth="3" NCoef="0" IVar="-1" Cut="0.0000000000000000e+00" cType="1" res="6.8910592235624790e-03" rms="2.8698951005935669e-01" purity="2.6231631636619568e-01" nType="-99"/>
            <Node pos="r" depth="3" NCoef="0" IVar="-1" Cut="0.0000000000000000e+00" cType="1" res="-3.0204614624381065e-02" rms="2.6764211058616638e-01" purity="2.6008439064025879e-01" nType="-99"/>
          </Node>
          <Node pos="r" depth="2" NCoef="0" IVar="5" Cut="1.2640028381347656e+02" cType="1" res="7.7913687564432621e-03" rms="2.9058751463890076e-01" purity="5.2159285545349121e-01" nType="0">
            <Node pos="l" depth="3" NCoef="0" IVar="-1" Cut="0.0000000000000000e+00" cType="1" res="1.1396581307053566e-02" rms="3.0760627985000610e-01" purity="4.3167796730995178e-01" nType="-99"/>
            <Node pos="r" depth="3" NCoef="0" IVar="-1" Cut="0.0000000000000000e+00" cType="1" res="-1.2869322672486305e-02" rms="1.9626373052597046e-01" purity="9.2533844709396362e-01" nType="-99"/>
          </Node>
        </Node>
        <Node pos="r" depth="1" NCoef="0" IVar="8" Cut="-1.1999529600143433e+00" cType="1" res="-3.8003642112016678e-03" rms="2.8577882051467896e-01" purity="5.1667553186416626e-01" nType="0">
          <Node pos="l" depth="2" NCoef="0" IVar="5" Cut="7.2520317077636719e+01" cType="1" res="1.4480497688055038e-02" rms="2.6235929131507874e-01" purity="2.1036490797996521e-01" nType="0">
            <Node pos="l" depth="3" NCoef="0" IVar="-1" Cut="0.0000000000000000e+00" cType="1" res="-3.9904806762933731e-03" rms="1.9470953941345215e-01" purity="5.0573650747537613e-02" nType="-99"/>
            <Node pos="r" depth="3" NCoef="0" IVar="-1" Cut="0.0000000000000000e+00" cType="1" res="3.4336846321821213e-02" rms="3.3208304643630981e-01" purity="4.2876353859901428e-01" nType="-99"/>
          </Node>
          <Node pos="r" depth="2" NCoef="0" IVar="10" Cut="1.9997825622558594e+00" cType="1" res="-6.0190865769982338e-03" rms="2.8841301798820496e-01" purity="5.5385202169418335e-01" nType="0">
            <Node pos="l" depth="3" NCoef="0" IVar="-1" Cut="0.0000000000000000e+00" cType="1" res="-8.9350920170545578e-03" rms="2.8721544146537781e-01" purity="5.6636291742324829e-01" nType="-99"/>
            <Node pos="r" depth="3" NCoef="0" IVar="-1" Cut="0.0000000000000000e+00" cType="1" res="2.2843243554234505e-02" rms="3.0788901448249817e-01" purity="3.2875651121139526e-01" nType="-99"/>
          </Node>
        </Node>
      </Node>
    </BinaryTree>
    <BinaryTree type="DecisionTree" boostWeight="1.0000000000000000e+00" itree="398">
      <Node pos="s" depth="0" NCoef="0" IVar="8" Cut="-1.3333176076412201e-01" cType="1" res="-3.6073586670681834e-04" rms="2.8559383749961853e-01" purity="4.9634513258934021e-01" nType="0">
        <Node pos="l" depth="1" NCoef="0" IVar="1" Cut="3.8510646671056747e-02" cType="1" res="-4.8562134616076946e-03" rms="2.8591349720954895e-01" purity="4.6830976009368896e-01" nType="0">
          <Node pos="l" depth="2" NCoef="0" IVar="1" Cut="2.0185306668281555e-02" cType="1" res="2.0164551679044962e-03" rms="2.5678080320358276e-01" purity="1.9794423878192902e-01" nType="0">
            <Node pos="l" depth="3" NCoef="0" IVar="-1" Cut="0.0000000000000000e+00" cType="1" res="-9.4883115962147713e-03" rms="2.0806671679019928e-01" purity="1.1060740798711777e-01" nType="-99"/>
            <Node pos="r" depth="3" NCoef="0" IVar="-1" Cut="0.0000000000000000e+00" cType="1" res="1.2437706813216209e-02" rms="3.1382486224174500e-01" purity="3.2412007451057434e-01" nType="-99"/>
          </Node>
          <Node pos="r" depth="2" NCoef="0" IVar="8" Cut="-1.2184146642684937e+00" cType="1" res="-9.6310311928391457e-03" rms="3.0442580580711365e-01" purity="6.5614742040634155e-01" nType="0">
            <Node pos="l" depth="3" NCoef="0" IVar="-1" Cut="0.0000000000000000e+00" cType="1" res="9.5293596386909485e-03" rms="3.1475254893302917e-01" purity="4.3701243400573730e-01" nType="-99"/>
            <Node pos="r" depth="3" NCoef="0" IVar="-1" Cut="0.0000000000000000e+00" cType="1" res="-1.4275930821895599e-02" rms="3.0242663621902466e-01" purity="6.9498950242996216e-01" nType="-99"/>
          </Node>
        </Node>
        <Node pos="r" depth="1" NCoef="0" IVar="8" Cut="1.1237595081329346e+00" cType="1" res="3.2069585286080837e-03" rms="2.8528946638107300e-01" purity="5.1859444379806519e-01" nType="0">
          <Node pos="l" depth="2" NCoef="0" IVar="10" Cut="-1.4667189121246338e+00" cType="1" res="6.3380552455782890e-03" rms="2.9577514529228210e-01" purity="6.0776156187057495e-01" nType="0">
            <Node pos="l" depth="3" NCoef="0" IVar="-1" Cut="0.0000000000000000e+00" cType="1" res="2.2322360426187515e-02" rms="3.2030814886093140e-01" purity="4.7052276134490967e-01" nType="-99"/>
            <Node pos="r" depth="3" NCoef="0" IVar="-1" Cut="0.0000000000000000e+00" cType="1" res="5.2390857599675655e-03" rms="2.9297736287117004e-01" purity="6.2240976095199585e-01" nType="-99"/>
          </Node>
          <Node pos="r" depth="2" NCoef="0" IVar="4" Cut="1.7100105285644531e+02" cType="1" res="-7.1366005577147007e-03" rms="2.4723069369792938e-01" purity="2.2403132915496826e-01" nType="0">
            <Node pos="l" depth="3" NCoef="0" IVar="-1" Cut="0.0000000000000000e+00" cType="1" res="2.3285932547878474e-04" rms="2.1620352566242218e-01" purity="1.3793869316577911e-01" nType="-99"/>
            <Node pos="r" depth="3" NCoef="0" IVar="-1" Cut="0.0000000000000000e+00" cType="1" res="-2.8681656345725060e-02" rms="3.2071018218994141e-01" purity="4.7756505012512207e-01" nType="-99"/>
          </Node>
        </Node>
      </Node>
    </BinaryTree>
    <BinaryTree type="DecisionTree" boostWeight="1.0000000000000000e+00" itree="399">
      <Node pos="s" depth="0" NCoef="0" IVar="10" Cut="-1.2000583410263062e+00" cType="1" res="6.7233829759061337e-04" rms="2.8396332263946533e-01" purity="4.9734997749328613e-01" nType="0">
        <Node pos="l" depth="1" NCoef="0" IVar="8" Cut="1.3183906674385071e-01" cType="1" res="1.0750891640782356e-02" rms="2.8790819644927979e-01" purity="3.8694941997528076e-01" nType="0">
          <Node pos="l" depth="2" NCoef="0" IVar="10" Cut="-1.9619766473770142e+00" cType="1" res="2.0996086299419403e-02" rms="2.9228746891021729e-01" purity="4.0461051464080811e-01" nType="0">
            <Node pos="l" depth="3" NCoef="0" IVar="-1" Cut="0.0000000000000000e+00" cType="1" res="4.5010674744844437e-02" rms="3.1187155842781067e-01" purity="3.0623427033424377e-01" nType="-99"/>
            <Node pos="r" depth="3" NCoef="0" IVar="-1" Cut="0.0000000000000000e+00" cType="1" res="1.5194804407656193e-02" rms="2.8183671832084656e-01" purity="4.5292428135871887e-01" nType="-99"/>
          </Node>
          <Node pos="r" depth="2" NCoef="0" IVar="1" Cut="3.6197923123836517e-02" cType="1" res="-4.5734536834061146e-03" rms="2.8053307533264160e-01" purity="3.6053267121315002e-01" nType="0">
            <Node pos="l" depth="3" NCoef="0" IVar="-1" Cut="0.0000000000000000e+00" cType="1" res="-3.8668412715196609e-02" rms="2.0594477653503418e-01" purity="8.1772640347480774e-02" nType="-99"/>
            <Node pos="r" depth="3" NCoef="0" IVar="-1" Cut="0.0000000000000000e+00" cType="1" res="4.9352520145475864e-03" rms="3.2365238666534424e-01" purity="5.6252741813659668e-01" nType="-99"/>
          </Node>
        </Node>
        <Node pos="r" depth="1" NCoef="0" IVar="3" Cut="3.3591986083984375e+02" cType="1" res="-1.3681759592145681e-03" rms="2.8311428427696228e-01" purity="5.1970183849334717e-01" nType="0">
          <Node pos="l" depth="2" NCoef="0" IVar="4" Cut="1.9975531005859375e+02" cType="1" res="-2.8662397526204586e-03" rms="2.8336131572723389e-01" purity="4.7635683417320251e-01" nType="0">
            <Node pos="l" depth="3" NCoef="0" IVar="-1" Cut="0.0000000000000000e+00" cType="1" res="-5.7821432128548622e-03" rms="2.8788661956787109e-01" purity="3.8917362689971924e-01" nType="-99"/>
            <Node pos="r" depth="3" NCoef="0" IVar="-1" Cut="0.0000000000000000e+00" cType="1" res="6.5766372717916965e-03" rms="2.6556926965713501e-01" purity="8.0315220355987549e-01" nType="-99"/>
          </Node>
          <Node pos="r" depth="2" NCoef="0" IVar="0" Cut="2.0581433105468750e+03" cType="1" res="6.8066800013184547e-03" rms="2.8162205219268799e-01" purity="7.5623297691345215e-01" nType="0">
            <Node pos="l" depth="3" NCoef="0" IVar="-1" Cut="0.0000000000000000e+00" cType="1" res="1.4868848957121372e-02" rms="3.4550616145133972e-01" purity="5.4133975505828857e-01" nType="-99"/>
            <Node pos="r" depth="3" NCoef="0" IVar="-1" Cut="0.0000000000000000e+00" cType="1" res="-1.1621431622188538e-04" rms="2.3249335587024689e-01" purity="8.9105355739593506e-01" nType="-99"/>
          </Node>
        </Node>
      </Node>
    </BinaryTree>
    <BinaryTree type="DecisionTree" boostWeight="1.0000000000000000e+00" itree="400">
      <Node pos="s" depth="0" NCoef="0" IVar="7" Cut="1.2029855251312256e+00" cType="1" res="3.3253472065553069e-04" rms="2.8632152080535889e-01" purity="4.9759545922279358e-01" nType="0">
        <Node pos="l" depth="1" NCoef="0" IVar="2" Cut="6.3790734863281250e+02" cType="1" res="-1.5004955930635333e-03" rms="2.9220560193061829e-01" purity="5.3313761949539185e-01" nType="0">
          <Node pos="l" depth="2" NCoef="0" IVar="8" Cut="-1.4666560888290405e+00" cType="1" res="-4.7583630657754838e-04" rms="2.9051309823989868e-01" purity="5.2827924489974976e-01" nType="0">
            <Node pos="l" depth="3" NCoef="0" IVar="-1" Cut="0.0000000000000000e+00" cType="1" res="-2.4670463055372238e-02" rms="2.3027174174785614e-01" purity="1.4595513045787811e-01" nType="-99"/>
            <Node pos="r" depth="3" NCoef="0" IVar="-1" Cut="0.0000000000000000e+00" cType="1" res="7.2556268423795700e-04" rms="2.9473841190338135e-01" purity="5.5861932039260864e-01" nType="-99"/>
          </Node>
          <Node pos="r" depth="2" NCoef="0" IVar="8" Cut="-1.3533321022987366e-01" cType="1" res="-1.5364653430879116e-02" rms="3.1388249993324280e-01" purity="5.9887415170669556e-01" nType="0">
            <Node pos="l" depth="3" NCoef="0" IVar="-1" Cut="0.0000000000000000e+00" cType="1" res="-3.3324744552373886e-02" rms="3.2944092154502869e-01" purity="5.6975913047790527e-01" nType="-99"/>
            <Node pos="r" depth="3" NCoef="0" IVar="-1" Cut="0.0000000000000000e+00" cType="1" res="-1.2108653318136930e-03" rms="3.0133801698684692e-01" purity="6.1993968486785889e-01" nType="-99"/>
          </Node>
        </Node>
        <Node pos="r" depth="1" NCoef="0" IVar="5" Cut="7.0725730895996094e+01" cType="1" res="1.6566449776291847e-02" rms="2.2702156007289886e-01" purity="1.8282243609428406e-01" nType="0">
          <Node pos="l" depth="2" NCoef="0" IVar="7" Cut="1.5831754207611084e+00" cType="1" res="4.9445597687736154e-04" rms="1.6428510844707489e-01" purity="3.5895384848117828e-02" nType="0">
            <Node pos="l" depth="3" NCoef="0" IVar="-1" Cut="0.0000000000000000e+00" cType="1" res="2.3831801488995552e-02" rms="2.2458001971244812e-01" purity="7.0456087589263916e-02" nType="-99"/>
            <Node pos="r" depth="3" NCoef="0" IVar="-1" Cut="0.0000000000000000e+00" cType="1" res="-5.8410018682479858e-02" rms="8.4798380732536316e-02" purity="6.9200731813907623e-03" nType="-99"/>
          </Node>
          <Node pos="r" depth="2" NCoef="0" IVar="-1" Cut="0.0000000000000000e+00" cType="1" res="4.0875956416130066e-02" rms="2.8566411137580872e-01" purity="3.6713498830795288e-01" nType="-99"/>
        </Node>
      </Node>
    </BinaryTree>
    <BinaryTree type="DecisionTree" boostWeight="1.0000000000000000e+00" itree="401">
      <Node pos="s" depth="0" NCoef="0" IVar="10" Cut="-1.4667189121246338e+00" cType="1" res="1.8379390239715576e-03" rms="2.8397098183631897e-01" purity="4.9960318207740784e-01" nType="0">
        <Node pos="l" depth="1" NCoef="0" IVar="9" Cut="-9.3348020315170288e-01" cType="1" res="-1.4779514633119106e-02" rms="2.7829468250274658e-01" purity="3.2313242554664612e-01" nType="0">
          <Node pos="l" depth="2" NCoef="0" IVar="-1" Cut="0.0000000000000000e+00" cType="1" res="-4.6012949198484421e-02" rms="2.5267913937568665e-01" purity="2.0510645210742950e-01" nType="-99"/>
          <Node pos="r" depth="2" NCoef="0" IVar="1" Cut="5.7783871889114380e-02" cType="1" res="-6.5944669768214226e-03" rms="2.8681561350822449e-01" purity="3.6706095933914185e-01" nType="0">
            <Node pos="l" depth="3" NCoef="0" IVar="-1" Cut="0.0000000000000000e+00" cType="1" res="-3.5384841263294220e-02" rms="2.2947505116462708e-01" purity="1.2097138166427612e-01" nType="-99"/>
            <Node pos="r" depth="3" NCoef="0" IVar="-1" Cut="0.0000000000000000e+00" cType="1" res="9.2543847858905792e-03" rms="3.4090599417686462e-01" purity="6.5396714210510254e-01" nType="-99"/>
          </Node>
        </Node>
        <Node pos="r" depth="1" NCoef="0" IVar="10" Cut="1.1743776798248291e+00" cType="1" res="3.9792340248823166e-03" rms="2.8462365269660950e-01" purity="5.2234292030334473e-01" nType="0">
          <Node pos="l" depth="2" NCoef="0" IVar="7" Cut="9.4981044530868530e-01" cType="1" res="5.9071625582873821e-03" rms="2.8436198830604553e-01" purity="5.5521106719970703e-01" nType="0">
            <Node pos="l" depth="3" NCoef="0" IVar="-1" Cut="0.0000000000000000e+00" cType="1" res="5.0789453089237213e-03" rms="2.8958857059478760e-01" purity="5.9474372863769531e-01" nType="-99"/>
            <Node pos="r" depth="3" NCoef="0" IVar="-1" Cut="0.0000000000000000e+00" cType="1" res="2.2609544917941093e-02" rms="2.4726754426956177e-01" purity="2.9692217707633972e-01" nType="-99"/>
          </Node>
          <Node pos="r" depth="2" NCoef="0" IVar="9" Cut="9.3314003944396973e-01" cType="1" res="-4.4053029268980026e-03" rms="2.8560754656791687e-01" purity="3.7939965724945068e-01" nType="0">
            <Node pos="l" depth="3" NCoef="0" IVar="-1" Cut="0.0000000000000000e+00" cType="1" res="2.6187477633357048e-03" rms="2.8920376300811768e-01" purity="4.3131163716316223e-01" nType="-99"/>
            <Node pos="r" depth="3" NCoef="0" IVar="-1" Cut="0.0000000000000000e+00" cType="1" res="-3.1506042927503586e-02" rms="2.7400571107864380e-01" purity="2.2914254665374756e-01" nType="-99"/>
          </Node>
        </Node>
      </Node>
    </BinaryTree>
    <BinaryTree type="DecisionTree" boostWeight="1.0000000000000000e+00" itree="402">
      <Node pos="s" depth="0" NCoef="0" IVar="6" Cut="1.5782839775085449e+01" cType="1" res="-1.7248881340492517e-04" rms="2.9069513082504272e-01" purity="4.9735999107360840e-01" nType="0">
        <Node pos="l" depth="1" NCoef="0" IVar="9" Cut="1.7332251071929932e+00" cType="1" res="4.8431428149342537e-03" rms="2.9909962415695190e-01" purity="2.2842969000339508e-01" nType="0">
          <Node pos="l" depth="2" NCoef="0" IVar="7" Cut="1.4830710887908936e+00" cType="1" res="6.1317561194300652e-03" rms="3.0666437745094299e-01" purity="2.4365426599979401e-01" nType="0">
            <Node pos="l" depth="3" NCoef="0" IVar="-1" Cut="0.0000000000000000e+00" cType="1" res="7.8085856512188911e-03" rms="3.1865647435188293e-01" purity="2.6466295123100281e-01" nType="-99"/>
            <Node pos="r" depth="3" NCoef="0" IVar="-1" Cut="0.0000000000000000e+00" cType="1" res="-4.8690225929021835e-02" rms="1.1424291133880615e-01" purity="1.7518669366836548e-02" nType="-99"/>
          </Node>
          <Node pos="r" depth="2" NCoef="0" IVar="-1" Cut="0.0000000000000000e+00" cType="1" res="-2.3853184655308723e-02" rms="1.9060945510864258e-01" purity="5.2716162055730820e-02" nType="-99"/>
        </Node>
        <Node pos="r" depth="1" NCoef="0" IVar="8" Cut="-1.2004164457321167e+00" cType="1" res="-4.6969624236226082e-03" rms="2.8282323479652405e-01" purity="7.3995506763458252e-01" nType="0">
          <Node pos="l" depth="2" NCoef="0" IVar="-1" Cut="0.0000000000000000e+00" cType="1" res="-2.1607525646686554e-02" rms="3.1396752595901489e-01" purity="4.1518670320510864e-01" nType="-99"/>
          <Node pos="r" depth="2" NCoef="0" IVar="10" Cut="9.3295913934707642e-01" cType="1" res="-3.1337020918726921e-03" rms="2.7982857823371887e-01" purity="7.6887422800064087e-01" nType="0">
            <Node pos="l" depth="3" NCoef="0" IVar="-1" Cut="0.0000000000000000e+00" cType="1" res="-8.9324973523616791e-03" rms="2.7532422542572021e-01" purity="7.8040254116058350e-01" nType="-99"/>
            <Node pos="r" depth="3" NCoef="0" IVar="-1" Cut="0.0000000000000000e+00" cType="1" res="1.1936127208173275e-02" rms="2.9619380831718445e-01" purity="7.2425794601440430e-01" nType="-99"/>
          </Node>
        </Node>
      </Node>
    </BinaryTree>
    <BinaryTree type="DecisionTree" boostWeight="1.0000000000000000e+00" itree="403">
      <Node pos="s" depth="0" NCoef="0" IVar="3" Cut="1.4757579040527344e+02" cType="1" res="-1.6714631346985698e-03" rms="2.8494378924369812e-01" purity="5.0299960374832153e-01" nType="0">
        <Node pos="l" depth="1" NCoef="0" IVar="8" Cut="1.3369205594062805e-01" cType="1" res="-8.6435703560709953e-03" rms="2.2079423069953918e-01" purity="1.1399258673191071e-01" nType="0">
          <Node pos="l" depth="2" NCoef="0" IVar="8" Cut="-1.1232668161392212e+00" cType="1" res="-1.5304307453334332e-02" rms="2.1505646407604218e-01" purity="1.1203127354383469e-01" nType="0">
            <Node pos="l" depth="3" NCoef="0" IVar="-1" Cut="0.0000000000000000e+00" cType="1" res="1.5945101156830788e-02" rms="1.9137482345104218e-01" purity="7.2268985211849213e-02" nType="-99"/>
            <Node pos="r" depth="3" NCoef="0" IVar="-1" Cut="0.0000000000000000e+00" cType="1" res="-3.9908763021230698e-02" rms="2.2658264636993408e-01" purity="1.3475482165813446e-01" nType="-99"/>
          </Node>
          <Node pos="r" depth="2" NCoef="0" IVar="7" Cut="1.9921955466270447e-01" cType="1" res="-2.1161987388040870e-04" rms="2.2757121920585632e-01" purity="1.1647545546293259e-01" nType="0">
            <Node pos="l" depth="3" NCoef="0" IVar="-1" Cut="0.0000000000000000e+00" cType="1" res="1.8788319081068039e-02" rms="2.4134117364883423e-01" purity="1.3939133286476135e-01" nType="-99"/>
            <Node pos="r" depth="3" NCoef="0" IVar="-1" Cut="0.0000000000000000e+00" cType="1" res="-2.1986246109008789e-02" rms="2.1108426153659821e-01" purity="9.1725885868072510e-02" nType="-99"/>
          </Node>
        </Node>
        <Node pos="r" depth="1" NCoef="0" IVar="4" Cut="1.0653713226318359e+02" cType="1" res="-1.8870052008423954e-04" rms="2.9678285121917725e-01" purity="5.8572995662689209e-01" nType="0">
          <Node pos="l" depth="2" NCoef="0" IVar="5" Cut="6.5803840637207031e+01" cType="1" res="1.0986294597387314e-02" rms="2.8742691874504089e-01" purity="1.6303519904613495e-01" nType="0">
            <Node pos="l" depth="3" NCoef="0" IVar="-1" Cut="0.0000000000000000e+00" cType="1" res="-4.4201640412211418e-03" rms="2.5463226437568665e-01" purity="8.5634842514991760e-02" nType="-99"/>
            <Node pos="r" depth="3" NCoef="0" IVar="-1" Cut="0.0000000000000000e+00" cType="1" res="3.8127247244119644e-02" rms="3.4468331933021545e-01" purity="3.2583007216453552e-01" nType="-99"/>
          </Node>
          <Node pos="r" depth="2" NCoef="0" IVar="9" Cut="-1.7333446741104126e+00" cType="1" res="-1.6723694279789925e-03" rms="2.9797142744064331e-01" purity="6.4184987545013428e-01" nType="0">
            <Node pos="l" depth="3" NCoef="0" IVar="-1" Cut="0.0000000000000000e+00" cType="1" res="-2.9356131330132484e-02" rms="2.5674259662628174e-01" purity="2.0963364839553833e-01" nType="-99"/>
            <Node pos="r" depth="3" NCoef="0" IVar="-1" Cut="0.0000000000000000e+00" cType="1" res="-7.6843961142003536e-04" rms="2.9949739575386047e-01" purity="6.5953046083450317e-01" nType="-99"/>
          </Node>
        </Node>
      </Node>
    </BinaryTree>
    <BinaryTree type="DecisionTree" boostWeight="1.0000000000000000e+00" itree="404">
      <Node pos="s" depth="0" NCoef="0" IVar="9" Cut="-4.0004268288612366e-01" cType="1" res="-9.9375925492495298e-04" rms="2.8342917561531067e-01" purity="4.9742850661277771e-01" nType="0">
        <Node pos="l" depth="1" NCoef="0" IVar="5" Cut="1.2029355621337891e+02" cType="1" res="-7.0661539211869240e-03" rms="2.8353759646415710e-01" purity="4.3988981842994690e-01" nType="0">
          <Node pos="l" depth="2" NCoef="0" IVar="4" Cut="2.1552159118652344e+02" cType="1" res="-1.1223988607525826e-02" rms="2.9560372233390808e-01" purity="3.4049862623214722e-01" nType="0">
            <Node pos="l" depth="3" NCoef="0" IVar="-1" Cut="0.0000000000000000e+00" cType="1" res="-8.6168209090828896e-03" rms="2.9362761974334717e-01" purity="3.0336859822273254e-01" nType="-99"/>
            <Node pos="r" depth="3" NCoef="0" IVar="-1" Cut="0.0000000000000000e+00" cType="1" res="-3.8238968700170517e-02" rms="3.0903434753417969e-01" purity="6.2593257427215576e-01" nType="-99"/>
          </Node>
          <Node pos="r" depth="2" NCoef="0" IVar="-1" Cut="0.0000000000000000e+00" cType="1" res="2.1346984431147575e-02" rms="2.1764421463012695e-01" purity="9.0311652421951294e-01" nType="-99"/>
        </Node>
        <Node pos="r" depth="1" NCoef="0" IVar="10" Cut="1.1998968124389648e+00" cType="1" res="2.3298596497625113e-03" rms="2.8331467509269714e-01" purity="5.2892130613327026e-01" nType="0">
          <Node pos="l" depth="2" NCoef="0" IVar="8" Cut="9.3319207429885864e-01" cType="1" res="3.0679078190587461e-04" rms="2.8034374117851257e-01" purity="5.5484449863433838e-01" nType="0">
            <Node pos="l" depth="3" NCoef="0" IVar="-1" Cut="0.0000000000000000e+00" cType="1" res="-2.1905663888901472e-03" rms="2.8126606345176697e-01" purity="5.9507185220718384e-01" nType="-99"/>
            <Node pos="r" depth="3" NCoef="0" IVar="-1" Cut="0.0000000000000000e+00" cType="1" res="1.4101726934313774e-02" rms="2.7536842226982117e-01" purity="3.5071820020675659e-01" nType="-99"/>
          </Node>
          <Node pos="r" depth="2" NCoef="0" IVar="9" Cut="1.1237688064575195e+00" cType="1" res="1.1701138690114021e-02" rms="2.9650887846946716e-01" purity="4.0883976221084595e-01" nType="0">
            <Node pos="l" depth="3" NCoef="0" IVar="-1" Cut="0.0000000000000000e+00" cType="1" res="4.6307221055030823e-03" rms="3.0008757114410400e-01" purity="4.8361194133758545e-01" nType="-99"/>
            <Node pos="r" depth="3" NCoef="0" IVar="-1" Cut="0.0000000000000000e+00" cType="1" res="3.7136971950531006e-02" rms="2.8803968429565430e-01" purity="2.4926117062568665e-01" nType="-99"/>
          </Node>
        </Node>
      </Node>
    </BinaryTree>
    <BinaryTree type="DecisionTree" boostWeight="1.0000000000000000e+00" itree="405">
      <Node pos="s" depth="0" NCoef="0" IVar="11" Cut="1.4177290201187134e+00" cType="1" res="3.9049258339218795e-04" rms="2.8875282406806946e-01" purity="5.0369256734848022e-01" nType="0">
        <Node pos="l" depth="1" NCoef="0" IVar="7" Cut="6.9207334518432617e-01" cType="1" res="1.4080728869885206e-03" rms="2.8678980469703674e-01" purity="4.9677845835685730e-01" nType="0">
          <Node pos="l" depth="2" NCoef="0" IVar="9" Cut="-6.6612911224365234e-01" cType="1" res="3.6196405999362469e-03" rms="2.9332455992698669e-01" purity="5.5023723840713501e-01" nType="0">
            <Node pos="l" depth="3" NCoef="0" IVar="-1" Cut="0.0000000000000000e+00" cType="1" res="1.2311388738453388e-02" rms="3.0256396532058716e-01" purity="4.6292418241500854e-01" nType="-99"/>
            <Node pos="r" depth="3" NCoef="0" IVar="-1" Cut="0.0000000000000000e+00" cType="1" res="8.0199731746688485e-04" rms="2.8955981135368347e-01" purity="5.8454787731170654e-01" nType="-99"/>
          </Node>
          <Node pos="r" depth="2" NCoef="0" IVar="11" Cut="-8.9643937349319458e-01" cType="1" res="-6.7984811030328274e-03" rms="2.6095178723335266e-01" purity="2.9840677976608276e-01" nType="0">
            <Node pos="l" depth="3" NCoef="0" IVar="-1" Cut="0.0000000000000000e+00" cType="1" res="2.9575079679489136e-04" rms="2.4832157790660858e-01" purity="1.5836155414581299e-01" nType="-99"/>
            <Node pos="r" depth="3" NCoef="0" IVar="-1" Cut="0.0000000000000000e+00" cType="1" res="-2.4918941780924797e-02" rms="2.8639981150627136e-01" purity="6.0925513505935669e-01" nType="-99"/>
          </Node>
        </Node>
        <Node pos="r" depth="1" NCoef="0" IVar="8" Cut="1.3738758862018585e-01" cType="1" res="-1.5564868226647377e-02" rms="3.1752532720565796e-01" purity="6.1210405826568604e-01" nType="0">
          <Node pos="l" depth="2" NCoef="0" IVar="-1" Cut="0.0000000000000000e+00" cType="1" res="-5.8409181656315923e-04" rms="3.1552180647850037e-01" purity="6.0439968109130859e-01" nType="-99"/>
          <Node pos="r" depth="2" NCoef="0" IVar="-1" Cut="0.0000000000000000e+00" cType="1" res="-3.1918648630380630e-02" rms="3.1879985332489014e-01" purity="6.1967992782592773e-01" nType="-99"/>
        </Node>
      </Node>
    </BinaryTree>
    <BinaryTree type="DecisionTree" boostWeight="1.0000000000000000e+00" itree="406">
      <Node pos="s" depth="0" NCoef="0" IVar="9" Cut="1.4666584730148315e+00" cType="1" res="1.7901406681630760e-04" rms="2.8514948487281799e-01" purity="5.0360023975372314e-01" nType="0">
        <Node pos="l" depth="1" NCoef="0" IVar="8" Cut="9.3326473236083984e-01" cType="1" res="1.6148947179317474e-03" rms="2.8857824206352234e-01" purity="5.3138941526412964e-01" nType="0">
          <Node pos="l" depth="2" NCoef="0" IVar="8" Cut="4.4403735548257828e-02" cType="1" res="-2.6540656108409166e-05" rms="2.9030451178550720e-01" purity="5.6745058298110962e-01" nType="0">
            <Node pos="l" depth="3" NCoef="0" IVar="-1" Cut="0.0000000000000000e+00" cType="1" res="4.2666001245379448e-03" rms="2.8874850273132324e-01" purity="5.3332209587097168e-01" nType="-99"/>
            <Node pos="r" depth="3" NCoef="0" IVar="-1" Cut="0.0000000000000000e+00" cType="1" res="-7.3373280465602875e-03" rms="2.9286134243011475e-01" purity="6.2636971473693848e-01" nType="-99"/>
          </Node>
          <Node pos="r" depth="2" NCoef="0" IVar="4" Cut="9.1125274658203125e+01" cType="1" res="1.0208533145487309e-02" rms="2.7920889854431152e-01" purity="3.4259304404258728e-01" nType="0">
            <Node pos="l" depth="3" NCoef="0" IVar="-1" Cut="0.0000000000000000e+00" cType="1" res="-4.1276369243860245e-02" rms="1.3104702532291412e-01" purity="2.3547869175672531e-02" nType="-99"/>
            <Node pos="r" depth="3" NCoef="0" IVar="-1" Cut="0.0000000000000000e+00" cType="1" res="1.6951862722635269e-02" rms="3.0148017406463623e-01" purity="4.1109097003936768e-01" nType="-99"/>
          </Node>
        </Node>
        <Node pos="r" depth="1" NCoef="0" IVar="4" Cut="1.1475576782226562e+02" cType="1" res="-1.5355430543422699e-02" rms="2.4446722865104675e-01" purity="2.0295585691928864e-01" nType="0">
          <Node pos="l" depth="2" NCoef="0" IVar="-1" Cut="0.0000000000000000e+00" cType="1" res="-1.2022189795970917e-02" rms="1.7944262921810150e-01" purity="5.6648809462785721e-02" nType="-99"/>
          <Node pos="r" depth="2" NCoef="0" IVar="-1" Cut="0.0000000000000000e+00" cType="1" res="-2.5242425501346588e-02" rms="2.8270211815834045e-01" purity="3.1075665354728699e-01" nType="-99"/>
        </Node>
      </Node>
    </BinaryTree>
    <BinaryTree type="DecisionTree" boostWeight="1.0000000000000000e+00" itree="407">
      <Node pos="s" depth="0" NCoef="0" IVar="4" Cut="1.6200474548339844e+02" cType="1" res="3.8143773563206196e-03" rms="2.8852343559265137e-01" purity="4.9778813123703003e-01" nType="0">
        <Node pos="l" depth="1" NCoef="0" IVar="4" Cut="1.0914481353759766e+02" cType="1" res="8.3866287022829056e-03" rms="2.9187160730361938e-01" purity="2.9256954789161682e-01" nType="0">
          <Node pos="l" depth="2" NCoef="0" IVar="7" Cut="4.1022542119026184e-01" cType="1" res="-4.8842885007616132e-05" rms="2.3609709739685059e-01" purity="1.0553317517042160e-01" nType="0">
            <Node pos="l" depth="3" NCoef="0" IVar="-1" Cut="0.0000000000000000e+00" cType="1" res="-1.2579808942973614e-02" rms="2.3965236544609070e-01" purity="1.1262451112270355e-01" nType="-99"/>
            <Node pos="r" depth="3" NCoef="0" IVar="-1" Cut="0.0000000000000000e+00" cType="1" res="2.9808020219206810e-02" rms="2.2933767735958099e-01" purity="9.3509428203105927e-02" nType="-99"/>
          </Node>
          <Node pos="r" depth="2" NCoef="0" IVar="5" Cut="7.1216545104980469e+01" cType="1" res="1.4843738637864590e-02" rms="3.2807597517967224e-01" purity="4.3574053049087524e-01" nType="0">
            <Node pos="l" depth="3" NCoef="0" IVar="-1" Cut="0.0000000000000000e+00" cType="1" res="5.4080854170024395e-03" rms="3.1954857707023621e-01" purity="2.1214929223060608e-01" nType="-99"/>
            <Node pos="r" depth="3" NCoef="0" IVar="-1" Cut="0.0000000000000000e+00" cType="1" res="1.9627504050731659e-02" rms="3.3385789394378662e-01" purity="5.9519702196121216e-01" nType="-99"/>
          </Node>
        </Node>
        <Node pos="r" depth="1" NCoef="0" IVar="8" Cut="6.6626656055450439e-01" cType="1" res="-1.6609707381576300e-03" rms="2.8436538577079773e-01" purity="7.4354082345962524e-01" nType="0">
          <Node pos="l" depth="2" NCoef="0" IVar="7" Cut="2.1168032288551331e-01" cType="1" res="2.7649092953652143e-03" rms="2.7849581837654114e-01" purity="7.7886772155761719e-01" nType="0">
            <Node pos="l" depth="3" NCoef="0" IVar="-1" Cut="0.0000000000000000e+00" cType="1" res="1.1638832278549671e-02" rms="2.7588680386543274e-01" purity="8.0585104227066040e-01" nType="-99"/>
            <Node pos="r" depth="3" NCoef="0" IVar="-1" Cut="0.0000000000000000e+00" cType="1" res="-1.0687288828194141e-02" rms="2.8249111771583557e-01" purity="7.3318070173263550e-01" nType="-99"/>
          </Node>
          <Node pos="r" depth="2" NCoef="0" IVar="7" Cut="-4.1212774813175201e-02" cType="1" res="-1.8814086914062500e-02" rms="3.0544674396514893e-01" purity="6.0662674903869629e-01" nType="0">
            <Node pos="l" depth="3" NCoef="0" IVar="-1" Cut="0.0000000000000000e+00" cType="1" res="-3.9452724158763885e-02" rms="3.0126541852951050e-01" purity="5.2555298805236816e-01" nType="-99"/>
            <Node pos="r" depth="3" NCoef="0" IVar="-1" Cut="0.0000000000000000e+00" cType="1" res="-6.4188991673290730e-03" rms="3.0794596672058105e-01" purity="6.6741806268692017e-01" nType="-99"/>
          </Node>
        </Node>
      </Node>
    </BinaryTree>
    <BinaryTree type="DecisionTree" boostWeight="1.0000000000000000e+00" itree="408">
      <Node pos="s" depth="0" NCoef="0" IVar="9" Cut="-1.4666994810104370e+00" cType="1" res="-7.8616337850689888e-04" rms="2.8603348135948181e-01" purity="5.0026643276214600e-01" nType="0">
        <Node pos="l" depth="1" NCoef="0" IVar="10" Cut="4.0013670921325684e-01" cType="1" res="1.1952226050198078e-02" rms="2.7211877703666687e-01" purity="2.2534489631652832e-01" nType="0">
          <Node pos="l" depth="2" NCoef="0" IVar="4" Cut="1.1616468048095703e+02" cType="1" res="1.8659773049876094e-03" rms="2.7385768294334412e-01" purity="2.1654139459133148e-01" nType="0">
            <Node pos="l" depth="3" NCoef="0" IVar="-1" Cut="0.0000000000000000e+00" cType="1" res="3.0329309403896332e-02" rms="2.3668855428695679e-01" purity="1.0558968782424927e-01" nType="-99"/>
            <Node pos="r" depth="3" NCoef="0" IVar="-1" Cut="0.0000000000000000e+00" cType="1" res="-9.2857368290424347e-03" rms="3.0057740211486816e-01" purity="3.0779561400413513e-01" nType="-99"/>
          </Node>
          <Node pos="r" depth="2" NCoef="0" IVar="-1" Cut="0.0000000000000000e+00" cType="1" res="4.4302280992269516e-02" rms="2.6774445176124573e-01" purity="2.4205394089221954e-01" nType="-99"/>
        </Node>
        <Node pos="r" depth="1" NCoef="0" IVar="9" Cut="-1.0603528022766113e+00" cType="1" res="-1.9752923399209976e-03" rms="2.8726920485496521e-01" purity="5.2593034505844116e-01" nType="0">
          <Node pos="l" depth="2" NCoef="0" IVar="8" Cut="-1.3221818208694458e-01" cType="1" res="-1.5333897434175014e-02" rms="2.9695686697959900e-01" purity="4.3400150537490845e-01" nType="0">
            <Node pos="l" depth="3" NCoef="0" IVar="-1" Cut="0.0000000000000000e+00" cType="1" res="-2.3999593686312437e-03" rms="2.8835985064506531e-01" purity="4.1795894503593445e-01" nType="-99"/>
            <Node pos="r" depth="3" NCoef="0" IVar="-1" Cut="0.0000000000000000e+00" cType="1" res="-3.2257005572319031e-02" rms="3.0537462234497070e-01" purity="4.5142012834548950e-01" nType="-99"/>
          </Node>
          <Node pos="r" depth="2" NCoef="0" IVar="3" Cut="3.2127676391601562e+02" cType="1" res="-7.5758522143587470e-04" rms="2.8633880615234375e-01" purity="5.3431010246276855e-01" nType="0">
            <Node pos="l" depth="3" NCoef="0" IVar="-1" Cut="0.0000000000000000e+00" cType="1" res="1.5111649408936501e-03" rms="2.8816488385200500e-01" purity="4.8565649986267090e-01" nType="-99"/>
            <Node pos="r" depth="3" NCoef="0" IVar="-1" Cut="0.0000000000000000e+00" cType="1" res="-1.2153520248830318e-02" rms="2.7788272500038147e-01" purity="7.5100338459014893e-01" nType="-99"/>
          </Node>
        </Node>
      </Node>
    </BinaryTree>
    <BinaryTree type="DecisionTree" boostWeight="1.0000000000000000e+00" itree="409">
      <Node pos="s" depth="0" NCoef="0" IVar="2" Cut="6.3791088867187500e+02" cType="1" res="3.4057027660310268e-03" rms="2.8636962175369263e-01" purity="5.0222611427307129e-01" nType="0">
        <Node pos="l" depth="1" NCoef="0" IVar="10" Cut="-2.2665791511535645e+00" cType="1" res="1.6698879189789295e-03" rms="2.8388699889183044e-01" purity="4.9429810047149658e-01" nType="0">
          <Node pos="l" depth="2" NCoef="0" IVar="-1" Cut="0.0000000000000000e+00" cType="1" res="4.3749749660491943e-02" rms="3.0895304679870605e-01" purity="2.3550833761692047e-01" nType="-99"/>
          <Node pos="r" depth="2" NCoef="0" IVar="1" Cut="1.2551163136959076e-01" cType="1" res="7.6043000444769859e-04" rms="2.8310164809226990e-01" purity="5.0152236223220825e-01" nType="0">
            <Node pos="l" depth="3" NCoef="0" IVar="-1" Cut="0.0000000000000000e+00" cType="1" res="-1.0198453674092889e-03" rms="2.9153034090995789e-01" purity="4.0117621421813965e-01" nType="-99"/>
            <Node pos="r" depth="3" NCoef="0" IVar="-1" Cut="0.0000000000000000e+00" cType="1" res="9.8897125571966171e-03" rms="2.4999777972698212e-01" purity="8.6621028184890747e-01" nType="-99"/>
          </Node>
        </Node>
        <Node pos="r" depth="1" NCoef="0" IVar="2" Cut="7.6303179931640625e+02" cType="1" res="2.6601945981383324e-02" rms="3.1677752733230591e-01" purity="6.0817116498947144e-01" nType="0">
          <Node pos="l" depth="2" NCoef="0" IVar="-1" Cut="0.0000000000000000e+00" cType="1" res="3.5442311316728592e-02" rms="2.9810115694999695e-01" purity="6.1211615800857544e-01" nType="-99"/>
          <Node pos="r" depth="2" NCoef="0" IVar="-1" Cut="0.0000000000000000e+00" cType="1" res="9.6586402505636215e-03" rms="3.4430548548698425e-01" purity="6.0179388523101807e-01" nType="-99"/>
        </Node>
      </Node>
    </BinaryTree>
    <BinaryTree type="DecisionTree" boostWeight="1.0000000000000000e+00" itree="410">
      <Node pos="s" depth="0" NCoef="0" IVar="0" Cut="1.7004161376953125e+03" cType="1" res="-1.1009478475898504e-03" rms="2.8508403897285461e-01" purity="4.9976885318756104e-01" nType="0">
        <Node pos="l" depth="1" NCoef="0" IVar="2" Cut="2.9406500244140625e+02" cType="1" res="-4.1371765546500683e-03" rms="2.9994714260101318e-01" purity="3.2448235154151917e-01" nType="0">
          <Node pos="l" depth="2" NCoef="0" IVar="2" Cut="2.6718902587890625e+02" cType="1" res="3.4079682081937790e-03" rms="2.9732972383499146e-01" purity="3.7102562189102173e-01" nType="0">
            <Node pos="l" depth="3" NCoef="0" IVar="-1" Cut="0.0000000000000000e+00" cType="1" res="-2.6624833699315786e-03" rms="2.9280620813369751e-01" purity="3.5804292559623718e-01" nType="-99"/>
            <Node pos="r" depth="3" NCoef="0" IVar="-1" Cut="0.0000000000000000e+00" cType="1" res="1.9305327907204628e-02" rms="3.0782723426818848e-01" purity="4.0331652760505676e-01" nType="-99"/>
          </Node>
          <Node pos="r" depth="2" NCoef="0" IVar="7" Cut="-8.3822083473205566e-01" cType="1" res="-1.0290205478668213e-02" rms="3.0192530155181885e-01" purity="2.8652653098106384e-01" nType="0">
            <Node pos="l" depth="3" NCoef="0" IVar="-1" Cut="0.0000000000000000e+00" cType="1" res="1.1091127991676331e-02" rms="2.5731775164604187e-01" purity="1.4327204227447510e-01" nType="-99"/>
            <Node pos="r" depth="3" NCoef="0" IVar="-1" Cut="0.0000000000000000e+00" cType="1" res="-1.4255927875638008e-02" rms="3.1221142411231995e-01" purity="3.2337045669555664e-01" nType="-99"/>
          </Node>
        </Node>
        <Node pos="r" depth="1" NCoef="0" IVar="9" Cut="-1.2001215219497681e+00" cType="1" res="4.9547571688890457e-03" rms="2.5273516774177551e-01" purity="8.4937477111816406e-01" nType="0">
          <Node pos="l" depth="2" NCoef="0" IVar="-1" Cut="0.0000000000000000e+00" cType="1" res="3.2690551131963730e-02" rms="3.0712288618087769e-01" purity="6.9711023569107056e-01" nType="-99"/>
          <Node pos="r" depth="2" NCoef="0" IVar="1" Cut="2.0142203196883202e-02" cType="1" res="2.4348073638975620e-03" rms="2.4735774099826813e-01" purity="8.6242002248764038e-01" nType="0">
            <Node pos="l" depth="3" NCoef="0" IVar="-1" Cut="0.0000000000000000e+00" cType="1" res="1.6655219718813896e-02" rms="3.4217557311058044e-01" purity="4.7653010487556458e-01" nType="-99"/>
            <Node pos="r" depth="3" NCoef="0" IVar="-1" Cut="0.0000000000000000e+00" cType="1" res="2.9237990383990109e-04" rms="2.3244214057922363e-01" purity="9.1150790452957153e-01" nType="-99"/>
          </Node>
        </Node>
      </Node>
    </BinaryTree>
    <BinaryTree type="DecisionTree" boostWeight="1.0000000000000000e+00" itree="411">
      <Node pos="s" depth="0" NCoef="0" IVar="11" Cut="-2.1715071201324463e+00" cType="1" res="-1.0728177148848772e-03" rms="2.8350210189819336e-01" purity="5.0456857681274414e-01" nType="0">
        <Node pos="l" depth="1" NCoef="0" IVar="1" Cut="4.1799008846282959e-02" cType="1" res="-5.3465147502720356e-03" rms="2.9206022620201111e-01" purity="2.3142695426940918e-01" nType="0">
          <Node pos="l" depth="2" NCoef="0" IVar="5" Cut="7.7903892517089844e+01" cType="1" res="-5.5288552539423108e-04" rms="2.3612715303897858e-01" purity="1.1353358626365662e-01" nType="0">
            <Node pos="l" depth="3" NCoef="0" IVar="-1" Cut="0.0000000000000000e+00" cType="1" res="6.8629095330834389e-03" rms="2.2383487224578857e-01" purity="8.3148457109928131e-02" nType="-99"/>
            <Node pos="r" depth="3" NCoef="0" IVar="-1" Cut="0.0000000000000000e+00" cType="1" res="-1.8688965588808060e-02" rms="2.8598663210868835e-01" purity="2.5558945536613464e-01" nType="-99"/>
          </Node>
          <Node pos="r" depth="2" NCoef="0" IVar="5" Cut="8.1826980590820312e+01" cType="1" res="-1.2093265540897846e-02" rms="3.5609206557273865e-01" purity="3.9735493063926697e-01" nType="0">
            <Node pos="l" depth="3" NCoef="0" IVar="-1" Cut="0.0000000000000000e+00" cType="1" res="-1.7742482945322990e-02" rms="3.4667456150054932e-01" purity="2.8016668558120728e-01" nType="-99"/>
            <Node pos="r" depth="3" NCoef="0" IVar="-1" Cut="0.0000000000000000e+00" cType="1" res="7.9890787601470947e-03" rms="3.7546297907829285e-01" purity="6.6181033849716187e-01" nType="-99"/>
          </Node>
        </Node>
        <Node pos="r" depth="1" NCoef="0" IVar="11" Cut="-7.5114458799362183e-01" cType="1" res="2.9117087833583355e-03" rms="2.7522370219230652e-01" purity="7.5922864675521851e-01" nType="0">
          <Node pos="l" depth="2" NCoef="0" IVar="6" Cut="7.6238220214843750e+01" cType="1" res="1.1915683746337891e-02" rms="2.7594339847564697e-01" purity="7.5280702114105225e-01" nType="0">
            <Node pos="l" depth="3" NCoef="0" IVar="-1" Cut="0.0000000000000000e+00" cType="1" res="2.0445581525564194e-02" rms="3.1856465339660645e-01" purity="6.1962741613388062e-01" nType="-99"/>
            <Node pos="r" depth="3" NCoef="0" IVar="-1" Cut="0.0000000000000000e+00" cType="1" res="1.1306114029139280e-03" rms="2.1985059976577759e-01" purity="8.9768743515014648e-01" nType="-99"/>
          </Node>
          <Node pos="r" depth="2" NCoef="0" IVar="11" Cut="2.6336991786956787e-01" cType="1" res="-2.2803064894105773e-06" rms="2.7492725849151611e-01" purity="7.6130688190460205e-01" nType="0">
            <Node pos="l" depth="3" NCoef="0" IVar="-1" Cut="0.0000000000000000e+00" cType="1" res="-1.1093959212303162e-02" rms="2.5891143083572388e-01" purity="7.9150974750518799e-01" nType="-99"/>
            <Node pos="r" depth="3" NCoef="0" IVar="-1" Cut="0.0000000000000000e+00" cType="1" res="6.9842776283621788e-03" rms="2.8616085648536682e-01" purity="7.3876303434371948e-01" nType="-99"/>
          </Node>
        </Node>
      </Node>
    </BinaryTree>
    <BinaryTree type="DecisionTree" boostWeight="1.0000000000000000e+00" itree="412">
      <Node pos="s" depth="0" NCoef="0" IVar="10" Cut="1.4664064645767212e+00" cType="1" res="4.8265207442454994e-04" rms="2.8870353102684021e-01" purity="5.0114279985427856e-01" nType="0">
        <Node pos="l" depth="1" NCoef="0" IVar="9" Cut="9.3303155899047852e-01" cType="1" res="1.9765661563724279e-03" rms="2.8789478540420532e-01" purity="5.2217727899551392e-01" nType="0">
          <Node pos="l" depth="2" NCoef="0" IVar="10" Cut="8.5689896345138550e-01" cType="1" res="-1.4461655518971384e-04" rms="2.8713828325271606e-01" purity="5.5238217115402222e-01" nType="0">
            <Node pos="l" depth="3" NCoef="0" IVar="-1" Cut="0.0000000000000000e+00" cType="1" res="-2.2424031049013138e-03" rms="2.8604152798652649e-01" purity="5.5180656909942627e-01" nType="-99"/>
            <Node pos="r" depth="3" NCoef="0" IVar="-1" Cut="0.0000000000000000e+00" cType="1" res="1.2195340357720852e-02" rms="2.9366716742515564e-01" purity="5.5597686767578125e-01" nType="-99"/>
          </Node>
          <Node pos="r" depth="2" NCoef="0" IVar="8" Cut="9.3323683738708496e-01" cType="1" res="1.1736292392015457e-02" rms="2.9115113615989685e-01" purity="3.8320258259773254e-01" nType="0">
            <Node pos="l" depth="3" NCoef="0" IVar="-1" Cut="0.0000000000000000e+00" cType="1" res="6.9553209468722343e-03" rms="2.9979220032691956e-01" purity="4.1639241576194763e-01" nType="-99"/>
            <Node pos="r" depth="3" NCoef="0" IVar="-1" Cut="0.0000000000000000e+00" cType="1" res="4.3556392192840576e-02" rms="2.5659507513046265e-01" purity="2.6383867859840393e-01" nType="-99"/>
          </Node>
        </Node>
        <Node pos="r" depth="1" NCoef="0" IVar="8" Cut="3.9985284209251404e-01" cType="1" res="-1.1421258561313152e-02" rms="2.9479843378067017e-01" purity="3.3353409171104431e-01" nType="0">
          <Node pos="l" depth="2" NCoef="0" IVar="9" Cut="-4.0011277794837952e-01" cType="1" res="-2.4188017472624779e-02" rms="2.9226285219192505e-01" purity="3.6017450690269470e-01" nType="0">
            <Node pos="l" depth="3" NCoef="0" IVar="-1" Cut="0.0000000000000000e+00" cType="1" res="-1.2621031783055514e-04" rms="2.9220339655876160e-01" purity="3.5071259737014771e-01" nType="-99"/>
            <Node pos="r" depth="3" NCoef="0" IVar="-1" Cut="0.0000000000000000e+00" cType="1" res="-4.2567096650600433e-02" rms="2.9139262437820435e-01" purity="3.6563912034034729e-01" nType="-99"/>
          </Node>
          <Node pos="r" depth="2" NCoef="0" IVar="-1" Cut="0.0000000000000000e+00" cType="1" res="1.0830345563590527e-02" rms="2.9765233397483826e-01" purity="2.9133361577987671e-01" nType="-99"/>
        </Node>
      </Node>
    </BinaryTree>
    <BinaryTree type="DecisionTree" boostWeight="1.0000000000000000e+00" itree="413">
      <Node pos="s" depth="0" NCoef="0" IVar="10" Cut="1.7330096960067749e+00" cType="1" res="2.6288274675607681e-03" rms="2.8688061237335205e-01" purity="5.0099939107894897e-01" nType="0">
        <Node pos="l" depth="1" NCoef="0" IVar="10" Cut="1.0853997468948364e+00" cType="1" res="1.5668744454160333e-03" rms="2.8607985377311707e-01" purity="5.1585084199905396e-01" nType="0">
          <Node pos="l" depth="2" NCoef="0" IVar="10" Cut="-3.9473867416381836e-01" cType="1" res="3.4247648436576128e-03" rms="2.8671890497207642e-01" purity="5.2456152439117432e-01" nType="0">
            <Node pos="l" depth="3" NCoef="0" IVar="-1" Cut="0.0000000000000000e+00" cType="1" res="-1.4288079692050815e-03" rms="2.8599572181701660e-01" purity="4.6522000432014465e-01" nType="-99"/>
            <Node pos="r" depth="3" NCoef="0" IVar="-1" Cut="0.0000000000000000e+00" cType="1" res="8.9105544611811638e-03" rms="2.8728711605072021e-01" purity="5.7626837491989136e-01" nType="-99"/>
          </Node>
          <Node pos="r" depth="2" NCoef="0" IVar="11" Cut="-1.3452284336090088e+00" cType="1" res="-1.1867457069456577e-02" rms="2.8105041384696960e-01" purity="4.5286417007446289e-01" nType="0">
            <Node pos="l" depth="3" NCoef="0" IVar="-1" Cut="0.0000000000000000e+00" cType="1" res="-3.2162982970476151e-02" rms="2.7680274844169617e-01" purity="2.2546975314617157e-01" nType="-99"/>
            <Node pos="r" depth="3" NCoef="0" IVar="-1" Cut="0.0000000000000000e+00" cType="1" res="7.5369905680418015e-03" rms="2.8513559699058533e-01" purity="7.3449969291687012e-01" nType="-99"/>
          </Node>
        </Node>
        <Node pos="r" depth="1" NCoef="0" IVar="10" Cut="2.0885381698608398e+00" cType="1" res="1.5310268849134445e-02" rms="2.9598173499107361e-01" purity="3.2364898920059204e-01" nType="0">
          <Node pos="l" depth="2" NCoef="0" IVar="-1" Cut="0.0000000000000000e+00" cType="1" res="3.2491441816091537e-02" rms="3.1428375840187073e-01" purity="4.0775796771049500e-01" nType="-99"/>
          <Node pos="r" depth="2" NCoef="0" IVar="-1" Cut="0.0000000000000000e+00" cType="1" res="2.7452381327748299e-03" rms="2.7723556756973267e-01" purity="2.4543036520481110e-01" nType="-99"/>
        </Node>
      </Node>
    </BinaryTree>
    <BinaryTree type="DecisionTree" boostWeight="1.0000000000000000e+00" itree="414">
      <Node pos="s" depth="0" NCoef="0" IVar="10" Cut="-1.7334500551223755e+00" cType="1" res="7.2768976679071784e-04" rms="2.8520074486732483e-01" purity="5.0114256143569946e-01" nType="0">
        <Node pos="l" depth="1" NCoef="0" IVar="7" Cut="-5.4932552576065063e-01" cType="1" res="1.3292116113007069e-02" rms="3.0104053020477295e-01" purity="3.0596223473548889e-01" nType="0">
          <Node pos="l" depth="2" NCoef="0" IVar="-1" Cut="0.0000000000000000e+00" cType="1" res="5.1448758691549301e-02" rms="2.7678382396697998e-01" purity="2.7002567052841187e-01" nType="-99"/>
          <Node pos="r" depth="2" NCoef="0" IVar="8" Cut="-1.3428170979022980e-01" cType="1" res="6.5598916262388229e-04" rms="3.1327679753303528e-01" purity="3.2636579871177673e-01" nType="0">
            <Node pos="l" depth="3" NCoef="0" IVar="-1" Cut="0.0000000000000000e+00" cType="1" res="-1.2455359101295471e-03" rms="3.0456006526947021e-01" purity="3.0174997448921204e-01" nType="-99"/>
            <Node pos="r" depth="3" NCoef="0" IVar="-1" Cut="0.0000000000000000e+00" cType="1" res="2.5121076032519341e-03" rms="3.2182240486145020e-01" purity="3.5119962692260742e-01" nType="-99"/>
          </Node>
        </Node>
        <Node pos="r" depth="1" NCoef="0" IVar="4" Cut="2.7910653686523438e+02" cType="1" res="-3.3810336026363075e-04" rms="2.8379085659980774e-01" purity="5.1769894361495972e-01" nType="0">
          <Node pos="l" depth="2" NCoef="0" IVar="9" Cut="1.1997438669204712e+00" cType="1" res="-1.1677721049636602e-03" rms="2.8742781281471252e-01" purity="4.8639172315597534e-01" nType="0">
            <Node pos="l" depth="3" NCoef="0" IVar="-1" Cut="0.0000000000000000e+00" cType="1" res="-2.7818873059004545e-03" rms="2.8861847519874573e-01" purity="5.1937097311019897e-01" nType="-99"/>
            <Node pos="r" depth="3" NCoef="0" IVar="-1" Cut="0.0000000000000000e+00" cType="1" res="8.6537785828113556e-03" rms="2.7939900755882263e-01" purity="2.7097988128662109e-01" nType="-99"/>
          </Node>
          <Node pos="r" depth="2" NCoef="0" IVar="4" Cut="3.1384231567382812e+02" cType="1" res="9.3736667186021805e-03" rms="2.3688915371894836e-01" purity="8.8416898250579834e-01" nType="0">
            <Node pos="l" depth="3" NCoef="0" IVar="-1" Cut="0.0000000000000000e+00" cType="1" res="3.0075903981924057e-02" rms="2.4016951024532318e-01" purity="8.7730956077575684e-01" nType="-99"/>
            <Node pos="r" depth="3" NCoef="0" IVar="-1" Cut="0.0000000000000000e+00" cType="1" res="3.8141029654070735e-04" rms="2.3331676423549652e-01" purity="8.9078652858734131e-01" nType="-99"/>
          </Node>
        </Node>
      </Node>
    </BinaryTree>
    <BinaryTree type="DecisionTree" boostWeight="1.0000000000000000e+00" itree="415">
      <Node pos="s" depth="0" NCoef="0" IVar="9" Cut="1.7333188056945801e+00" cType="1" res="1.0723076411522925e-04" rms="2.8469243645668030e-01" purity="4.9814596772193909e-01" nType="0">
        <Node pos="l" depth="1" NCoef="0" IVar="11" Cut="-1.0668500661849976e+00" cType="1" res="-1.0910342680290341e-03" rms="2.8603187203407288e-01" purity="5.1774555444717407e-01" nType="0">
          <Node pos="l" depth="2" NCoef="0" IVar="9" Cut="8.6972880363464355e-01" cType="1" res="-4.5134932734072208e-03" rms="2.9550060629844666e-01" purity="3.0879193544387817e-01" nType="0">
            <Node pos="l" depth="3" NCoef="0" IVar="-1" Cut="0.0000000000000000e+00" cType="1" res="-2.7644939254969358e-03" rms="2.9652053117752075e-01" purity="3.2258144021034241e-01" nType="-99"/>
            <Node pos="r" depth="3" NCoef="0" IVar="-1" Cut="0.0000000000000000e+00" cType="1" res="-1.6651472076773643e-02" rms="2.9017379879951477e-01" purity="2.4029295146465302e-01" nType="-99"/>
          </Node>
          <Node pos="r" depth="2" NCoef="0" IVar="0" Cut="1.3576173095703125e+03" cType="1" res="3.2300308812409639e-03" rms="2.7354818582534790e-01" purity="7.8156226873397827e-01" nType="0">
            <Node pos="l" depth="3" NCoef="0" IVar="-1" Cut="0.0000000000000000e+00" cType="1" res="1.3394726440310478e-02" rms="3.6160117387771606e-01" purity="4.0356284379959106e-01" nType="-99"/>
            <Node pos="r" depth="3" NCoef="0" IVar="-1" Cut="0.0000000000000000e+00" cType="1" res="-3.1782101723365486e-04" rms="2.4841947853565216e-01" purity="8.6979323625564575e-01" nType="-99"/>
          </Node>
        </Node>
        <Node pos="r" depth="1" NCoef="0" IVar="5" Cut="6.5433502197265625e+01" cType="1" res="1.9123092293739319e-02" rms="2.6179024577140808e-01" purity="1.8711021542549133e-01" nType="0">
          <Node pos="l" depth="2" NCoef="0" IVar="-1" Cut="0.0000000000000000e+00" cType="1" res="-6.6716470755636692e-03" rms="1.7709514498710632e-01" purity="4.1525937616825104e-02" nType="-99"/>
          <Node pos="r" depth="2" NCoef="0" IVar="-1" Cut="0.0000000000000000e+00" cType="1" res="4.0770500898361206e-02" rms="3.2333594560623169e-01" purity="3.3165147900581360e-01" nType="-99"/>
        </Node>
      </Node>
    </BinaryTree>
    <BinaryTree type="DecisionTree" boostWeight="1.0000000000000000e+00" itree="416">
      <Node pos="s" depth="0" NCoef="0" IVar="7" Cut="4.0466713905334473e-01" cType="1" res="6.1500648735091090e-04" rms="2.8822094202041626e-01" purity="5.0356352329254150e-01" nType="0">
        <Node pos="l" depth="1" NCoef="0" IVar="5" Cut="7.1511795043945312e+01" cType="1" res="-3.4435046836733818e-03" rms="2.8881070017814636e-01" purity="5.4019254446029663e-01" nType="0">
          <Node pos="l" depth="2" NCoef="0" IVar="8" Cut="4.0016502141952515e-01" cType="1" res="2.3762660566717386e-03" rms="2.9996439814567566e-01" purity="2.2887140512466431e-01" nType="0">
            <Node pos="l" depth="3" NCoef="0" IVar="-1" Cut="0.0000000000000000e+00" cType="1" res="-4.8887673765420914e-03" rms="3.0647820234298706e-01" purity="2.4214375019073486e-01" nType="-99"/>
            <Node pos="r" depth="3" NCoef="0" IVar="-1" Cut="0.0000000000000000e+00" cType="1" res="1.8475264310836792e-02" rms="2.8779429197311401e-01" purity="2.0566099882125854e-01" nType="-99"/>
          </Node>
          <Node pos="r" depth="2" NCoef="0" IVar="3" Cut="1.6453952026367188e+02" cType="1" res="-7.1482183411717415e-03" rms="2.8141772747039795e-01" purity="7.3837143182754517e-01" nType="0">
            <Node pos="l" depth="3" NCoef="0" IVar="-1" Cut="0.0000000000000000e+00" cType="1" res="-2.8725622221827507e-02" rms="3.1494089961051941e-01" purity="3.9476120471954346e-01" nType="-99"/>
            <Node pos="r" depth="3" NCoef="0" IVar="-1" Cut="0.0000000000000000e+00" cType="1" res="-5.2331034094095230e-03" rms="2.7664378285408020e-01" purity="7.8271120786666870e-01" nType="-99"/>
          </Node>
        </Node>
        <Node pos="r" depth="1" NCoef="0" IVar="9" Cut="-9.3390321731567383e-01" cType="1" res="9.2012723907828331e-03" rms="2.8678002953529358e-01" purity="4.2607048153877258e-01" nType="0">
          <Node pos="l" depth="2" NCoef="0" IVar="10" Cut="-1.3368029892444611e-01" cType="1" res="-3.7967085372656584e-03" rms="2.6290959119796753e-01" purity="2.4051363766193390e-01" nType="0">
            <Node pos="l" depth="3" NCoef="0" IVar="-1" Cut="0.0000000000000000e+00" cType="1" res="3.4042816609144211e-02" rms="2.6588386297225952e-01" purity="2.6683095097541809e-01" nType="-99"/>
            <Node pos="r" depth="3" NCoef="0" IVar="-1" Cut="0.0000000000000000e+00" cType="1" res="-4.0508642792701721e-02" rms="2.5794172286987305e-01" purity="2.1743305027484894e-01" nType="-99"/>
          </Node>
          <Node pos="r" depth="2" NCoef="0" IVar="9" Cut="-5.7838028669357300e-01" cType="1" res="1.1935771442949772e-02" rms="2.9147937893867493e-01" purity="4.6510770916938782e-01" nType="0">
            <Node pos="l" depth="3" NCoef="0" IVar="-1" Cut="0.0000000000000000e+00" cType="1" res="3.2252542674541473e-02" rms="3.2260149717330933e-01" purity="5.1817750930786133e-01" nType="-99"/>
            <Node pos="r" depth="3" NCoef="0" IVar="-1" Cut="0.0000000000000000e+00" cType="1" res="1.1717374436557293e-02" rms="2.8759840130805969e-01" purity="4.5897084474563599e-01" nType="-99"/>
          </Node>
        </Node>
      </Node>
    </BinaryTree>
    <BinaryTree type="DecisionTree" boostWeight="1.0000000000000000e+00" itree="417">
      <Node pos="s" depth="0" NCoef="0" IVar="8" Cut="9.3329304456710815e-01" cType="1" res="-4.1032298468053341e-03" rms="2.8563347458839417e-01" purity="4.9448347091674805e-01" nType="0">
        <Node pos="l" depth="1" NCoef="0" IVar="8" Cut="4.4441927224397659e-02" cType="1" res="-2.2466408554464579e-03" rms="2.9013720154762268e-01" purity="5.3752356767654419e-01" nType="0">
          <Node pos="l" depth="2" NCoef="0" IVar="0" Cut="1.7444855957031250e+03" cType="1" res="-4.9118339084088802e-03" rms="2.8402164578437805e-01" purity="4.9648612737655640e-01" nType="0">
            <Node pos="l" depth="3" NCoef="0" IVar="-1" Cut="0.0000000000000000e+00" cType="1" res="-9.2177428305149078e-03" rms="2.9595887660980225e-01" purity="3.3774432539939880e-01" nType="-99"/>
            <Node pos="r" depth="3" NCoef="0" IVar="-1" Cut="0.0000000000000000e+00" cType="1" res="4.7236154787242413e-03" rms="2.5438150763511658e-01" purity="8.6031866073608398e-01" nType="-99"/>
          </Node>
          <Node pos="r" depth="2" NCoef="0" IVar="10" Cut="-6.6676700115203857e-01" cType="1" res="2.3171619977802038e-03" rms="3.0026528239250183e-01" purity="6.0779500007629395e-01" nType="0">
            <Node pos="l" depth="3" NCoef="0" IVar="-1" Cut="0.0000000000000000e+00" cType="1" res="1.6068940982222557e-02" rms="3.0657169222831726e-01" purity="5.7875269651412964e-01" nType="-99"/>
            <Node pos="r" depth="3" NCoef="0" IVar="-1" Cut="0.0000000000000000e+00" cType="1" res="-2.7622308116406202e-03" rms="2.9773283004760742e-01" purity="6.1866199970245361e-01" nType="-99"/>
          </Node>
        </Node>
        <Node pos="r" depth="1" NCoef="0" IVar="3" Cut="2.8390084838867188e+02" cType="1" res="-1.3014771044254303e-02" rms="2.6276174187660217e-01" purity="2.8789299726486206e-01" nType="0">
          <Node pos="l" depth="2" NCoef="0" IVar="10" Cut="-6.6614192724227905e-01" cType="1" res="-8.0107692629098892e-03" rms="2.5300565361976624e-01" purity="2.6155504584312439e-01" nType="0">
            <Node pos="l" depth="3" NCoef="0" IVar="-1" Cut="0.0000000000000000e+00" cType="1" res="-3.0350165441632271e-02" rms="2.3129849135875702e-01" purity="2.0977975428104401e-01" nType="-99"/>
            <Node pos="r" depth="3" NCoef="0" IVar="-1" Cut="0.0000000000000000e+00" cType="1" res="-4.8039592802524567e-03" rms="2.6035803556442261e-01" purity="2.8051432967185974e-01" nType="-99"/>
          </Node>
          <Node pos="r" depth="2" NCoef="0" IVar="-1" Cut="0.0000000000000000e+00" cType="1" res="-4.0639754384756088e-02" rms="3.0538550019264221e-01" purity="4.1852211952209473e-01" nType="-99"/>
        </Node>
      </Node>
    </BinaryTree>
    <BinaryTree type="DecisionTree" boostWeight="1.0000000000000000e+00" itree="418">
      <Node pos="s" depth="0" NCoef="0" IVar="11" Cut="-2.3920129239559174e-01" cType="1" res="2.4749357253313065e-03" rms="2.8659850358963013e-01" purity="5.0219780206680298e-01" nType="0">
        <Node pos="l" depth="1" NCoef="0" IVar="5" Cut="1.4058067321777344e+02" cType="1" res="5.0427764654159546e-03" rms="2.9276719689369202e-01" purity="3.9291232824325562e-01" nType="0">
          <Node pos="l" depth="2" NCoef="0" IVar="4" Cut="2.3335511779785156e+02" cType="1" res="6.1062909662723541e-03" rms="2.9875585436820984e-01" purity="3.5154005885124207e-01" nType="0">
            <Node pos="l" depth="3" NCoef="0" IVar="-1" Cut="0.0000000000000000e+00" cType="1" res="8.6381779983639717e-03" rms="2.9702079296112061e-01" purity="3.1551867723464966e-01" nType="-99"/>
            <Node pos="r" depth="3" NCoef="0" IVar="-1" Cut="0.0000000000000000e+00" cType="1" res="-6.7030028440058231e-03" rms="3.1462737917900085e-01" purity="6.9747096300125122e-01" nType="-99"/>
          </Node>
          <Node pos="r" depth="2" NCoef="0" IVar="-1" Cut="0.0000000000000000e+00" cType="1" res="-1.9231863319873810e-02" rms="2.0193277299404144e-01" purity="9.1544675827026367e-01" nType="-99"/>
        </Node>
        <Node pos="r" depth="1" NCoef="0" IVar="1" Cut="4.1972700506448746e-02" cType="1" res="-3.3385164570063353e-03" rms="2.7202725410461426e-01" purity="7.4961429834365845e-01" nType="0">
          <Node pos="l" depth="2" NCoef="0" IVar="3" Cut="2.0784133911132812e+02" cType="1" res="-2.0749377086758614e-02" rms="3.0937245488166809e-01" purity="3.9228942990303040e-01" nType="0">
            <Node pos="l" depth="3" NCoef="0" IVar="-1" Cut="0.0000000000000000e+00" cType="1" res="-7.2120442055165768e-03" rms="2.8794854879379272e-01" purity="2.1038092672824860e-01" nType="-99"/>
            <Node pos="r" depth="3" NCoef="0" IVar="-1" Cut="0.0000000000000000e+00" cType="1" res="-2.8287203982472420e-02" rms="3.2448881864547729e-01" purity="5.3260010480880737e-01" nType="-99"/>
          </Node>
          <Node pos="r" depth="2" NCoef="0" IVar="11" Cut="1.3515881299972534e+00" cType="1" res="2.4206284433603287e-03" rms="2.5823122262954712e-01" purity="8.6780977249145508e-01" nType="0">
            <Node pos="l" depth="3" NCoef="0" IVar="-1" Cut="0.0000000000000000e+00" cType="1" res="-7.9273246228694916e-04" rms="2.5211909413337708e-01" purity="8.8021898269653320e-01" nType="-99"/>
            <Node pos="r" depth="3" NCoef="0" IVar="-1" Cut="0.0000000000000000e+00" cType="1" res="1.4383775182068348e-02" rms="2.7940657734870911e-01" purity="8.2192432880401611e-01" nType="-99"/>
          </Node>
        </Node>
      </Node>
    </BinaryTree>
    <BinaryTree type="DecisionTree" boostWeight="1.0000000000000000e+00" itree="419">
      <Node pos="s" depth="0" NCoef="0" IVar="11" Cut="1.4186284542083740e+00" cType="1" res="-2.5833433028310537e-03" rms="2.8411266207695007e-01" purity="4.9920910596847534e-01" nType="0">
        <Node pos="l" depth="1" NCoef="0" IVar="11" Cut="9.9739575386047363e-01" cType="1" res="-1.4268673257902265e-03" rms="2.8279152512550354e-01" purity="4.9126669764518738e-01" nType="0">
          <Node pos="l" depth="2" NCoef="0" IVar="5" Cut="7.1511207580566406e+01" cType="1" res="-2.3440246004611254e-03" rms="2.8259500861167908e-01" purity="4.7764509916305542e-01" nType="0">
            <Node pos="l" depth="3" NCoef="0" IVar="-1" Cut="0.0000000000000000e+00" cType="1" res="3.0139647424221039e-03" rms="2.7974778413772583e-01" purity="1.8364745378494263e-01" nType="-99"/>
            <Node pos="r" depth="3" NCoef="0" IVar="-1" Cut="0.0000000000000000e+00" cType="1" res="-7.1079572662711143e-03" rms="2.8472301363945007e-01" purity="7.0498287677764893e-01" nType="-99"/>
          </Node>
          <Node pos="r" depth="2" NCoef="0" IVar="-1" Cut="0.0000000000000000e+00" cType="1" res="1.9186630845069885e-02" rms="2.8590667247772217e-01" purity="7.4662929773330688e-01" nType="-99"/>
        </Node>
        <Node pos="r" depth="1" NCoef="0" IVar="8" Cut="1.3671983778476715e-01" cType="1" res="-2.0327096804976463e-02" rms="3.0311056971549988e-01" purity="6.2106961011886597e-01" nType="0">
          <Node pos="l" depth="2" NCoef="0" IVar="-1" Cut="0.0000000000000000e+00" cType="1" res="-1.4589519705623388e-03" rms="2.9175588488578796e-01" purity="6.5969175100326538e-01" nType="-99"/>
          <Node pos="r" depth="2" NCoef="0" IVar="-1" Cut="0.0000000000000000e+00" cType="1" res="-4.2135864496231079e-02" rms="3.1319323182106018e-01" purity="5.8124345541000366e-01" nType="-99"/>
        </Node>
      </Node>
    </BinaryTree>
    <BinaryTree type="DecisionTree" boostWeight="1.0000000000000000e+00" itree="420">
      <Node pos="s" depth="0" NCoef="0" IVar="7" Cut="6.7605900764465332e-01" cType="1" res="-2.8229504823684692e-03" rms="2.8674674034118652e-01" purity="4.9170055985450745e-01" nType="0">
        <Node pos="l" depth="1" NCoef="0" IVar="2" Cut="3.2477526855468750e+02" cType="1" res="-5.2069923840463161e-03" rms="2.9143932461738586e-01" purity="5.4094135761260986e-01" nType="0">
          <Node pos="l" depth="2" NCoef="0" IVar="7" Cut="1.8306958675384521e-01" cType="1" res="-1.1752700433135033e-02" rms="2.9064327478408813e-01" purity="4.5184198021888733e-01" nType="0">
            <Node pos="l" depth="3" NCoef="0" IVar="-1" Cut="0.0000000000000000e+00" cType="1" res="-7.7918171882629395e-03" rms="2.8423649072647095e-01" purity="4.3099391460418701e-01" nType="-99"/>
            <Node pos="r" depth="3" NCoef="0" IVar="-1" Cut="0.0000000000000000e+00" cType="1" res="-2.9504111036658287e-02" rms="3.0986911058425903e-01" purity="5.1931804418563843e-01" nType="-99"/>
          </Node>
          <Node pos="r" depth="2" NCoef="0" IVar="11" Cut="1.1424642801284790e+00" cType="1" res="-7.8823399962857366e-04" rms="2.9189249873161316e-01" purity="6.0108900070190430e-01" nType="0">
            <Node pos="l" depth="3" NCoef="0" IVar="-1" Cut="0.0000000000000000e+00" cType="1" res="7.4038235470652580e-04" rms="2.9136067628860474e-01" purity="5.8876663446426392e-01" nType="-99"/>
            <Node pos="r" depth="3" NCoef="0" IVar="-1" Cut="0.0000000000000000e+00" cType="1" res="-2.0052736625075340e-02" rms="2.9730769991874695e-01" purity="7.3883002996444702e-01" nType="-99"/>
          </Node>
        </Node>
        <Node pos="r" depth="1" NCoef="0" IVar="0" Cut="1.9890894775390625e+03" cType="1" res="5.3258747793734074e-03" rms="2.6993328332901001e-01" purity="3.2339197397232056e-01" nType="0">
          <Node pos="l" depth="2" NCoef="0" IVar="0" Cut="1.4231536865234375e+03" cType="1" res="2.7743950486183167e-03" rms="2.6935106515884399e-01" purity="2.5231322646141052e-01" nType="0">
            <Node pos="l" depth="3" NCoef="0" IVar="-1" Cut="0.0000000000000000e+00" cType="1" res="1.7218057066202164e-02" rms="2.3922261595726013e-01" purity="1.2069675326347351e-01" nType="-99"/>
            <Node pos="r" depth="3" NCoef="0" IVar="-1" Cut="0.0000000000000000e+00" cType="1" res="-1.0630301199853420e-02" rms="3.1989195942878723e-01" purity="5.1066559553146362e-01" nType="-99"/>
          </Node>
          <Node pos="r" depth="2" NCoef="0" IVar="-1" Cut="0.0000000000000000e+00" cType="1" res="2.8556227684020996e-02" rms="2.7329319715499878e-01" purity="8.1827187538146973e-01" nType="-99"/>
        </Node>
      </Node>
    </BinaryTree>
    <BinaryTree type="DecisionTree" boostWeight="1.0000000000000000e+00" itree="421">
      <Node pos="s" depth="0" NCoef="0" IVar="9" Cut="1.7333208322525024e+00" cType="1" res="4.5913918875157833e-03" rms="2.8785586357116699e-01" purity="5.0128519535064697e-01" nType="0">
        <Node pos="l" depth="1" NCoef="0" IVar="3" Cut="4.2650070190429688e+02" cType="1" res="5.8394316583871841e-03" rms="2.9103350639343262e-01" purity="5.2096188068389893e-01" nType="0">
          <Node pos="l" depth="2" NCoef="0" IVar="3" Cut="1.7800573730468750e+02" cType="1" res="5.1142075099050999e-03" rms="2.9080787301063538e-01" purity="5.0685197114944458e-01" nType="0">
            <Node pos="l" depth="3" NCoef="0" IVar="-1" Cut="0.0000000000000000e+00" cType="1" res="1.3082058168947697e-02" rms="2.7383604645729065e-01" purity="2.2895622253417969e-01" nType="-99"/>
            <Node pos="r" depth="3" NCoef="0" IVar="-1" Cut="0.0000000000000000e+00" cType="1" res="3.3543743193149567e-03" rms="2.9797834157943726e-01" purity="6.2968444824218750e-01" nType="-99"/>
          </Node>
          <Node pos="r" depth="2" NCoef="0" IVar="-1" Cut="0.0000000000000000e+00" cType="1" res="2.0933559164404869e-02" rms="2.9476812481880188e-01" purity="7.7550220489501953e-01" nType="-99"/>
        </Node>
        <Node pos="r" depth="1" NCoef="0" IVar="7" Cut="1.4053851366043091e-01" cType="1" res="-1.6898956149816513e-02" rms="2.2516104578971863e-01" purity="1.6246657073497772e-01" nType="0">
          <Node pos="l" depth="2" NCoef="0" IVar="-1" Cut="0.0000000000000000e+00" cType="1" res="-1.4834009110927582e-02" rms="2.1897906064987183e-01" purity="1.6599427163600922e-01" nType="-99"/>
          <Node pos="r" depth="2" NCoef="0" IVar="-1" Cut="0.0000000000000000e+00" cType="1" res="-3.8710001856088638e-02" rms="2.3116792738437653e-01" purity="1.5875998139381409e-01" nType="-99"/>
        </Node>
      </Node>
    </BinaryTree>
    <BinaryTree type="DecisionTree" boostWeight="1.0000000000000000e+00" itree="422">
      <Node pos="s" depth="0" NCoef="0" IVar="7" Cut="6.8554323911666870e-01" cType="1" res="-2.2979816421866417e-03" rms="2.8403249382972717e-01" purity="5.0169348716735840e-01" nType="0">
        <Node pos="l" depth="1" NCoef="0" IVar="9" Cut="1.3334935903549194e-01" cType="1" res="-2.9459787765517831e-04" rms="2.9162341356277466e-01" purity="5.5570793151855469e-01" nType="0">
          <Node pos="l" depth="2" NCoef="0" IVar="1" Cut="4.1806258261203766e-02" cType="1" res="-3.7064377684146166e-03" rms="2.8890454769134521e-01" purity="5.5804497003555298e-01" nType="0">
            <Node pos="l" depth="3" NCoef="0" IVar="-1" Cut="0.0000000000000000e+00" cType="1" res="-1.4186757616698742e-02" rms="2.7218100428581238e-01" purity="2.4921089410781860e-01" nType="-99"/>
            <Node pos="r" depth="3" NCoef="0" IVar="-1" Cut="0.0000000000000000e+00" cType="1" res="7.5737590668722987e-04" rms="2.9751098155975342e-01" purity="7.2595185041427612e-01" nType="-99"/>
          </Node>
          <Node pos="r" depth="2" NCoef="0" IVar="3" Cut="1.4889350891113281e+02" cType="1" res="4.2641633190214634e-03" rms="2.9515561461448669e-01" purity="5.5258518457412720e-01" nType="0">
            <Node pos="l" depth="3" NCoef="0" IVar="-1" Cut="0.0000000000000000e+00" cType="1" res="3.3229690045118332e-02" rms="2.6525861024856567e-01" purity="1.6651426255702972e-01" nType="-99"/>
            <Node pos="r" depth="3" NCoef="0" IVar="-1" Cut="0.0000000000000000e+00" cType="1" res="1.0767286876216531e-03" rms="3.0060184001922607e-01" purity="6.2887263298034668e-01" nType="-99"/>
          </Node>
        </Node>
        <Node pos="r" depth="1" NCoef="0" IVar="5" Cut="1.0473840332031250e+02" cType="1" res="-9.3155382201075554e-03" rms="2.5554758310317993e-01" purity="3.1248894333839417e-01" nType="0">
          <Node pos="l" depth="2" NCoef="0" IVar="3" Cut="2.5583752441406250e+02" cType="1" res="-1.4122164808213711e-02" rms="2.4851860105991364e-01" purity="1.8243251740932465e-01" nType="0">
            <Node pos="l" depth="3" NCoef="0" IVar="-1" Cut="0.0000000000000000e+00" cType="1" res="-1.5437510795891285e-02" rms="2.3815052211284637e-01" purity="1.5365460515022278e-01" nType="-99"/>
            <Node pos="r" depth="3" NCoef="0" IVar="-1" Cut="0.0000000000000000e+00" cType="1" res="-2.8918351978063583e-02" rms="2.8334057331085205e-01" purity="2.8968846797943115e-01" nType="-99"/>
          </Node>
          <Node pos="r" depth="2" NCoef="0" IVar="-1" Cut="0.0000000000000000e+00" cType="1" res="9.9301524460315704e-03" rms="2.7907839417457581e-01" purity="7.8875148296356201e-01" nType="-99"/>
        </Node>
      </Node>
    </BinaryTree>
    <BinaryTree type="DecisionTree" boostWeight="1.0000000000000000e+00" itree="423">
      <Node pos="s" depth="0" NCoef="0" IVar="7" Cut="4.1064694523811340e-01" cType="1" res="-1.7428867067792453e-05" rms="2.8598305583000183e-01" purity="4.9863910675048828e-01" nType="0">
        <Node pos="l" depth="1" NCoef="0" IVar="9" Cut="-1.4666512012481689e+00" cType="1" res="2.6420860085636377e-03" rms="2.9014137387275696e-01" purity="5.4421192407608032e-01" nType="0">
          <Node pos="l" depth="2" NCoef="0" IVar="5" Cut="6.4058921813964844e+01" cType="1" res="1.5259953215718269e-02" rms="2.8939020633697510e-01" purity="2.6122885942459106e-01" nType="0">
            <Node pos="l" depth="3" NCoef="0" IVar="-1" Cut="0.0000000000000000e+00" cType="1" res="-3.8937679491937160e-03" rms="2.3396377265453339e-01" purity="7.7152088284492493e-02" nType="-99"/>
            <Node pos="r" depth="3" NCoef="0" IVar="-1" Cut="0.0000000000000000e+00" cType="1" res="2.7563873678445816e-02" rms="3.2296720147132874e-01" purity="3.9406332373619080e-01" nType="-99"/>
          </Node>
          <Node pos="r" depth="2" NCoef="0" IVar="3" Cut="2.3951625061035156e+02" cType="1" res="1.4002829557284713e-03" rms="2.9018554091453552e-01" purity="5.7206207513809204e-01" nType="0">
            <Node pos="l" depth="3" NCoef="0" IVar="-1" Cut="0.0000000000000000e+00" cType="1" res="6.0993419028818607e-03" rms="2.9835835099220276e-01" purity="4.3365719914436340e-01" nType="-99"/>
            <Node pos="r" depth="3" NCoef="0" IVar="-1" Cut="0.0000000000000000e+00" cType="1" res="-4.5167240314185619e-03" rms="2.7970916032791138e-01" purity="7.4256306886672974e-01" nType="-99"/>
          </Node>
        </Node>
        <Node pos="r" depth="1" NCoef="0" IVar="9" Cut="9.3269163370132446e-01" cType="1" res="-5.6740893051028252e-03" rms="2.7684602141380310e-01" purity="4.0170791745185852e-01" nType="0">
          <Node pos="l" depth="2" NCoef="0" IVar="10" Cut="3.9963731169700623e-01" cType="1" res="-1.5251102158799767e-03" rms="2.7703812718391418e-01" purity="4.4097521901130676e-01" nType="0">
            <Node pos="l" depth="3" NCoef="0" IVar="-1" Cut="0.0000000000000000e+00" cType="1" res="-1.1039769276976585e-02" rms="2.7458730340003967e-01" purity="4.4453316926956177e-01" nType="-99"/>
            <Node pos="r" depth="3" NCoef="0" IVar="-1" Cut="0.0000000000000000e+00" cType="1" res="9.9808145314455032e-03" rms="2.8013905882835388e-01" purity="4.3599352240562439e-01" nType="-99"/>
          </Node>
          <Node pos="r" depth="2" NCoef="0" IVar="1" Cut="3.8067948073148727e-02" cType="1" res="-1.8426064401865005e-02" rms="2.7586445212364197e-01" purity="2.8101909160614014e-01" nType="0">
            <Node pos="l" depth="3" NCoef="0" IVar="-1" Cut="0.0000000000000000e+00" cType="1" res="-1.2758577242493629e-02" rms="2.2950865328311920e-01" purity="1.1000184714794159e-01" nType="-99"/>
            <Node pos="r" depth="3" NCoef="0" IVar="-1" Cut="0.0000000000000000e+00" cType="1" res="-2.9045060276985168e-02" rms="3.2649263739585876e-01" purity="5.0647670030593872e-01" nType="-99"/>
          </Node>
        </Node>
      </Node>
    </BinaryTree>
    <BinaryTree type="DecisionTree" boostWeight="1.0000000000000000e+00" itree="424">
      <Node pos="s" depth="0" NCoef="0" IVar="8" Cut="-1.9998978376388550e+00" cType="1" res="2.9564176220446825e-03" rms="2.8456830978393555e-01" purity="5.0424718856811523e-01" nType="0">
        <Node pos="l" depth="1" NCoef="0" IVar="-1" Cut="0.0000000000000000e+00" cType="1" res="-5.0479296594858170e-02" rms="1.4871506392955780e-01" purity="6.0682222247123718e-02" nType="-99"/>
        <Node pos="r" depth="1" NCoef="0" IVar="0" Cut="1.1203806152343750e+03" cType="1" res="3.5905747208744287e-03" rms="2.8763437271118164e-01" purity="5.1757156848907471e-01" nType="0">
          <Node pos="l" depth="2" NCoef="0" IVar="5" Cut="6.5876129150390625e+01" cType="1" res="-3.9714560844004154e-03" rms="2.0057266950607300e-01" purity="5.2228961139917374e-02" nType="0">
            <Node pos="l" depth="3" NCoef="0" IVar="-1" Cut="0.0000000000000000e+00" cType="1" res="1.9142547389492393e-03" rms="1.8452198803424835e-01" purity="4.2972438037395477e-02" nType="-99"/>
            <Node pos="r" depth="3" NCoef="0" IVar="-1" Cut="0.0000000000000000e+00" cType="1" res="-2.5351392105221748e-02" rms="2.4078647792339325e-01" purity="7.9177916049957275e-02" nType="-99"/>
          </Node>
          <Node pos="r" depth="2" NCoef="0" IVar="7" Cut="-1.1603065729141235e+00" cType="1" res="5.2262679673731327e-03" rms="3.0317038297653198e-01" purity="6.1822676658630371e-01" nType="0">
            <Node pos="l" depth="3" NCoef="0" IVar="-1" Cut="0.0000000000000000e+00" cType="1" res="2.2253001108765602e-02" rms="2.8723374009132385e-01" purity="2.6595604419708252e-01" nType="-99"/>
            <Node pos="r" depth="3" NCoef="0" IVar="-1" Cut="0.0000000000000000e+00" cType="1" res="4.1376925073564053e-03" rms="3.0467021465301514e-01" purity="6.5303814411163330e-01" nType="-99"/>
          </Node>
        </Node>
      </Node>
    </BinaryTree>
    <BinaryTree type="DecisionTree" boostWeight="1.0000000000000000e+00" itree="425">
      <Node pos="s" depth="0" NCoef="0" IVar="5" Cut="1.1217717742919922e+02" cType="1" res="4.5254334690980613e-04" rms="2.8800988197326660e-01" purity="4.9771869182586670e-01" nType="0">
        <Node pos="l" depth="1" NCoef="0" IVar="3" Cut="3.2024514770507812e+02" cType="1" res="3.2459371723234653e-03" rms="3.0292332172393799e-01" purity="3.7665680050849915e-01" nType="0">
          <Node pos="l" depth="2" NCoef="0" IVar="11" Cut="-2.3810116946697235e-01" cType="1" res="1.3508155243471265e-03" rms="2.9823565483093262e-01" purity="3.4247428178787231e-01" nType="0">
            <Node pos="l" depth="3" NCoef="0" IVar="-1" Cut="0.0000000000000000e+00" cType="1" res="4.0565207600593567e-03" rms="2.9010555148124695e-01" purity="2.7107700705528259e-01" nType="-99"/>
            <Node pos="r" depth="3" NCoef="0" IVar="-1" Cut="0.0000000000000000e+00" cType="1" res="-5.5677723139524460e-03" rms="3.2434484362602234e-01" purity="5.8614790439605713e-01" nType="-99"/>
          </Node>
          <Node pos="r" depth="2" NCoef="0" IVar="11" Cut="-1.6195765733718872e+00" cType="1" res="1.5769654884934425e-02" rms="3.3197072148323059e-01" purity="6.0254836082458496e-01" nType="0">
            <Node pos="l" depth="3" NCoef="0" IVar="-1" Cut="0.0000000000000000e+00" cType="1" res="2.4016955867409706e-02" rms="3.5508343577384949e-01" purity="4.8356047272682190e-01" nType="-99"/>
            <Node pos="r" depth="3" NCoef="0" IVar="-1" Cut="0.0000000000000000e+00" cType="1" res="-3.6493467632681131e-03" rms="2.9748740792274475e-01" purity="7.6032531261444092e-01" nType="-99"/>
          </Node>
        </Node>
        <Node pos="r" depth="1" NCoef="0" IVar="10" Cut="9.3335080146789551e-01" cType="1" res="-8.5359420627355576e-03" rms="2.3342272639274597e-01" purity="8.8726747035980225e-01" nType="0">
          <Node pos="l" depth="2" NCoef="0" IVar="1" Cut="6.1580259352922440e-02" cType="1" res="-2.4312806781381369e-03" rms="2.1812433004379272e-01" purity="9.0125864744186401e-01" nType="0">
            <Node pos="l" depth="3" NCoef="0" IVar="-1" Cut="0.0000000000000000e+00" cType="1" res="-1.6625644639134407e-02" rms="2.8696858882904053e-01" purity="7.4407607316970825e-01" nType="-99"/>
            <Node pos="r" depth="3" NCoef="0" IVar="-1" Cut="0.0000000000000000e+00" cType="1" res="4.5923888683319092e-03" rms="1.8968048691749573e-01" purity="9.5338410139083862e-01" nType="-99"/>
          </Node>
          <Node pos="r" depth="2" NCoef="0" IVar="-1" Cut="0.0000000000000000e+00" cType="1" res="-5.7230778038501740e-02" rms="2.9511806368827820e-01" purity="8.1906145811080933e-01" nType="-99"/>
        </Node>
      </Node>
    </BinaryTree>
    <BinaryTree type="DecisionTree" boostWeight="1.0000000000000000e+00" itree="426">
      <Node pos="s" depth="0" NCoef="0" IVar="1" Cut="4.1751381009817123e-02" cType="1" res="9.0228178305551410e-04" rms="2.8750151395797729e-01" purity="4.9993962049484253e-01" nType="0">
        <Node pos="l" depth="1" NCoef="0" IVar="7" Cut="4.0466713905334473e-01" cType="1" res="-4.4202343560755253e-03" rms="2.6114693284034729e-01" purity="2.0334978401660919e-01" nType="0">
          <Node pos="l" depth="2" NCoef="0" IVar="10" Cut="-6.6657930612564087e-01" cType="1" res="-9.3618640676140785e-03" rms="2.6825165748596191e-01" purity="2.2810393571853638e-01" nType="0">
            <Node pos="l" depth="3" NCoef="0" IVar="-1" Cut="0.0000000000000000e+00" cType="1" res="7.2856382466852665e-03" rms="2.6370418071746826e-01" purity="1.9824518263339996e-01" nType="-99"/>
            <Node pos="r" depth="3" NCoef="0" IVar="-1" Cut="0.0000000000000000e+00" cType="1" res="-2.0952152088284492e-02" rms="2.7022758126258850e-01" purity="2.4328373372554779e-01" nType="-99"/>
          </Node>
          <Node pos="r" depth="2" NCoef="0" IVar="9" Cut="3.9925521612167358e-01" cType="1" res="2.9297212604433298e-03" rms="2.5002619624137878e-01" purity="1.6653162240982056e-01" nType="0">
            <Node pos="l" depth="3" NCoef="0" IVar="-1" Cut="0.0000000000000000e+00" cType="1" res="-6.4248596318066120e-03" rms="2.4558527767658234e-01" purity="1.6631098091602325e-01" nType="-99"/>
            <Node pos="r" depth="3" NCoef="0" IVar="-1" Cut="0.0000000000000000e+00" cType="1" res="1.8433235585689545e-02" rms="2.5522735714912415e-01" purity="1.6680882871150970e-01" nType="-99"/>
          </Node>
        </Node>
        <Node pos="r" depth="1" NCoef="0" IVar="5" Cut="7.0725769042968750e+01" cType="1" res="4.6182177029550076e-03" rms="3.0449697375297546e-01" purity="7.0700502395629883e-01" nType="0">
          <Node pos="l" depth="2" NCoef="0" IVar="2" Cut="3.7641366577148438e+02" cType="1" res="1.4156014658510685e-02" rms="3.6889576911926270e-01" purity="3.5198071599006653e-01" nType="0">
            <Node pos="l" depth="3" NCoef="0" IVar="-1" Cut="0.0000000000000000e+00" cType="1" res="1.9825076684355736e-02" rms="3.6450824141502380e-01" purity="3.0752432346343994e-01" nType="-99"/>
            <Node pos="r" depth="3" NCoef="0" IVar="-1" Cut="0.0000000000000000e+00" cType="1" res="-6.0434336774051189e-03" rms="3.7785360217094421e-01" purity="4.5481961965560913e-01" nType="-99"/>
          </Node>
          <Node pos="r" depth="2" NCoef="0" IVar="8" Cut="3.1824058294296265e-01" cType="1" res="1.3117640046402812e-03" rms="2.7864390611648560e-01" purity="8.3008074760437012e-01" nType="0">
            <Node pos="l" depth="3" NCoef="0" IVar="-1" Cut="0.0000000000000000e+00" cType="1" res="7.7873570844531059e-03" rms="2.7266162633895874e-01" purity="8.4350997209548950e-01" nType="-99"/>
            <Node pos="r" depth="3" NCoef="0" IVar="-1" Cut="0.0000000000000000e+00" cType="1" res="-9.5164235681295395e-03" rms="2.8978839516639709e-01" purity="8.0376034975051880e-01" nType="-99"/>
          </Node>
        </Node>
      </Node>
    </BinaryTree>
    <BinaryTree type="DecisionTree" boostWeight="1.0000000000000000e+00" itree="427">
      <Node pos="s" depth="0" NCoef="0" IVar="11" Cut="1.1422823667526245e+00" cType="1" res="4.9969542305916548e-04" rms="2.8753814101219177e-01" purity="5.0002741813659668e-01" nType="0">
        <Node pos="l" depth="1" NCoef="0" IVar="8" Cut="-3.9998671412467957e-01" cType="1" res="-9.8603137303143740e-04" rms="2.8596433997154236e-01" purity="4.8304048180580139e-01" nType="0">
          <Node pos="l" depth="2" NCoef="0" IVar="10" Cut="1.3335940241813660e-01" cType="1" res="5.3220614790916443e-03" rms="2.8668847680091858e-01" purity="4.2949378490447998e-01" nType="0">
            <Node pos="l" depth="3" NCoef="0" IVar="-1" Cut="0.0000000000000000e+00" cType="1" res="-8.0967764370143414e-04" rms="2.8930649161338806e-01" purity="4.2665159702301025e-01" nType="-99"/>
            <Node pos="r" depth="3" NCoef="0" IVar="-1" Cut="0.0000000000000000e+00" cType="1" res="1.7424987629055977e-02" rms="2.8263294696807861e-01" purity="4.3360623717308044e-01" nType="-99"/>
          </Node>
          <Node pos="r" depth="2" NCoef="0" IVar="9" Cut="-6.6670680046081543e-01" cType="1" res="-4.3549020774662495e-03" rms="2.8551977872848511e-01" purity="5.1163738965988159e-01" nType="0">
            <Node pos="l" depth="3" NCoef="0" IVar="-1" Cut="0.0000000000000000e+00" cType="1" res="4.8205512575805187e-03" rms="2.9715323448181152e-01" purity="4.2233985662460327e-01" nType="-99"/>
            <Node pos="r" depth="3" NCoef="0" IVar="-1" Cut="0.0000000000000000e+00" cType="1" res="-8.5757477208971977e-03" rms="2.8156280517578125e-01" purity="5.4078310728073120e-01" nType="-99"/>
          </Node>
        </Node>
        <Node pos="r" depth="1" NCoef="0" IVar="9" Cut="6.6734224557876587e-01" cType="1" res="1.5465890057384968e-02" rms="3.0252924561500549e-01" purity="6.7114198207855225e-01" nType="0">
          <Node pos="l" depth="2" NCoef="0" IVar="-1" Cut="0.0000000000000000e+00" cType="1" res="4.0822159498929977e-03" rms="2.9651859402656555e-01" purity="6.9129544496536255e-01" nType="-99"/>
          <Node pos="r" depth="2" NCoef="0" IVar="-1" Cut="0.0000000000000000e+00" cType="1" res="3.9270654320716858e-02" rms="3.1359165906906128e-01" purity="6.2780714035034180e-01" nType="-99"/>
        </Node>
      </Node>
    </BinaryTree>
    <BinaryTree type="DecisionTree" boostWeight="1.0000000000000000e+00" itree="428">
      <Node pos="s" depth="0" NCoef="0" IVar="2" Cut="6.3790734863281250e+02" cType="1" res="4.8309069825336337e-04" rms="2.8905031085014343e-01" purity="4.9872180819511414e-01" nType="0">
        <Node pos="l" depth="1" NCoef="0" IVar="11" Cut="3.7807099521160126e-02" cType="1" res="1.6397758154198527e-03" rms="2.8703302145004272e-01" purity="4.9456027150154114e-01" nType="0">
          <Node pos="l" depth="2" NCoef="0" IVar="3" Cut="2.4620262145996094e+02" cType="1" res="-1.0344400070607662e-03" rms="2.8873914480209351e-01" purity="4.0661957859992981e-01" nType="0">
            <Node pos="l" depth="3" NCoef="0" IVar="-1" Cut="0.0000000000000000e+00" cType="1" res="-5.2905529737472534e-03" rms="2.7994209527969360e-01" purity="2.9644304513931274e-01" nType="-99"/>
            <Node pos="r" depth="3" NCoef="0" IVar="-1" Cut="0.0000000000000000e+00" cType="1" res="5.9210723266005516e-03" rms="3.0590736865997314e-01" purity="6.3282370567321777e-01" nType="-99"/>
          </Node>
          <Node pos="r" depth="2" NCoef="0" IVar="9" Cut="9.3164896965026855e-01" cType="1" res="9.4390930607914925e-03" rms="2.8185331821441650e-01" purity="7.5103843212127686e-01" nType="0">
            <Node pos="l" depth="3" NCoef="0" IVar="-1" Cut="0.0000000000000000e+00" cType="1" res="5.1262290216982365e-03" rms="2.7048811316490173e-01" purity="7.8059405088424683e-01" nType="-99"/>
            <Node pos="r" depth="3" NCoef="0" IVar="-1" Cut="0.0000000000000000e+00" cType="1" res="3.3284287899732590e-02" rms="3.2624024152755737e-01" purity="6.2053728103637695e-01" nType="-99"/>
          </Node>
        </Node>
        <Node pos="r" depth="1" NCoef="0" IVar="8" Cut="-1.3384374976158142e-01" cType="1" res="-1.6861384734511375e-02" rms="3.1726226210594177e-01" purity="5.6112402677536011e-01" nType="0">
          <Node pos="l" depth="2" NCoef="0" IVar="-1" Cut="0.0000000000000000e+00" cType="1" res="8.4559578681364655e-04" rms="3.2480561733245850e-01" purity="5.8233529329299927e-01" nType="-99"/>
          <Node pos="r" depth="2" NCoef="0" IVar="-1" Cut="0.0000000000000000e+00" cType="1" res="-3.2035801559686661e-02" rms="3.0999642610549927e-01" purity="5.4330122470855713e-01" nType="-99"/>
        </Node>
      </Node>
    </BinaryTree>
    <BinaryTree type="DecisionTree" boostWeight="1.0000000000000000e+00" itree="429">
      <Node pos="s" depth="0" NCoef="0" IVar="4" Cut="1.6068252563476562e+02" cType="1" res="-1.1409665603423491e-04" rms="2.8641605377197266e-01" purity="4.9617794156074524e-01" nType="0">
        <Node pos="l" depth="1" NCoef="0" IVar="8" Cut="-6.6669541597366333e-01" cType="1" res="-3.5886669065803289e-03" rms="2.8940573334693909e-01" purity="2.7052107453346252e-01" nType="0">
          <Node pos="l" depth="2" NCoef="0" IVar="9" Cut="-3.9975944161415100e-01" cType="1" res="7.6042138971388340e-03" rms="2.6845949888229370e-01" purity="2.0227369666099548e-01" nType="0">
            <Node pos="l" depth="3" NCoef="0" IVar="-1" Cut="0.0000000000000000e+00" cType="1" res="2.2168135270476341e-02" rms="2.8231057524681091e-01" purity="2.1329218149185181e-01" nType="-99"/>
            <Node pos="r" depth="3" NCoef="0" IVar="-1" Cut="0.0000000000000000e+00" cType="1" res="7.9031882341951132e-04" rms="2.5675067305564880e-01" purity="1.9355534017086029e-01" nType="-99"/>
          </Node>
          <Node pos="r" depth="2" NCoef="0" IVar="4" Cut="1.0852629852294922e+02" cType="1" res="-8.0903386697173119e-03" rms="2.9729565978050232e-01" purity="2.9796952009201050e-01" nType="0">
            <Node pos="l" depth="3" NCoef="0" IVar="-1" Cut="0.0000000000000000e+00" cType="1" res="-1.9252354977652431e-03" rms="2.5260525941848755e-01" purity="1.1875709146261215e-01" nType="-99"/>
            <Node pos="r" depth="3" NCoef="0" IVar="-1" Cut="0.0000000000000000e+00" cType="1" res="-1.1991883628070354e-02" rms="3.2701271772384644e-01" purity="4.3372434377670288e-01" nType="-99"/>
          </Node>
        </Node>
        <Node pos="r" depth="1" NCoef="0" IVar="8" Cut="1.1998152732849121e+00" cType="1" res="3.8120313547551632e-03" rms="2.8294846415519714e-01" purity="7.5116139650344849e-01" nType="0">
          <Node pos="l" depth="2" NCoef="0" IVar="8" Cut="-1.0857261419296265e+00" cType="1" res="2.3620314896106720e-03" rms="2.8082656860351562e-01" purity="7.7484047412872314e-01" nType="0">
            <Node pos="l" depth="3" NCoef="0" IVar="-1" Cut="0.0000000000000000e+00" cType="1" res="-1.1128673329949379e-02" rms="2.9818588495254517e-01" purity="4.9079385399818420e-01" nType="-99"/>
            <Node pos="r" depth="3" NCoef="0" IVar="-1" Cut="0.0000000000000000e+00" cType="1" res="4.8969341441988945e-03" rms="2.7869954705238342e-01" purity="8.0782985687255859e-01" nType="-99"/>
          </Node>
          <Node pos="r" depth="2" NCoef="0" IVar="-1" Cut="0.0000000000000000e+00" cType="1" res="2.0026788115501404e-02" rms="3.0574378371238708e-01" purity="4.7958734631538391e-01" nType="-99"/>
        </Node>
      </Node>
    </BinaryTree>
    <BinaryTree type="DecisionTree" boostWeight="1.0000000000000000e+00" itree="430">
      <Node pos="s" depth="0" NCoef="0" IVar="7" Cut="4.1061356663703918e-01" cType="1" res="-2.1968698129057884e-03" rms="2.8603368997573853e-01" purity="4.9825090169906616e-01" nType="0">
        <Node pos="l" depth="1" NCoef="0" IVar="7" Cut="-4.9948769807815552e-01" cType="1" res="1.0690707713365555e-03" rms="2.9141989350318909e-01" purity="5.4500514268875122e-01" nType="0">
          <Node pos="l" depth="2" NCoef="0" IVar="11" Cut="8.6609631776809692e-01" cType="1" res="-4.8148641362786293e-03" rms="2.8091078996658325e-01" purity="3.8229042291641235e-01" nType="0">
            <Node pos="l" depth="3" NCoef="0" IVar="-1" Cut="0.0000000000000000e+00" cType="1" res="-3.3510474022477865e-03" rms="2.7784499526023865e-01" purity="3.6701256036758423e-01" nType="-99"/>
            <Node pos="r" depth="3" NCoef="0" IVar="-1" Cut="0.0000000000000000e+00" cType="1" res="-2.6067418977618217e-02" rms="3.0766156315803528e-01" purity="5.2679687738418579e-01" nType="-99"/>
          </Node>
          <Node pos="r" depth="2" NCoef="0" IVar="7" Cut="-4.1280159354209900e-01" cType="1" res="5.2106729708611965e-03" rms="2.9852581024169922e-01" purity="6.5953737497329712e-01" nType="0">
            <Node pos="l" depth="3" NCoef="0" IVar="-1" Cut="0.0000000000000000e+00" cType="1" res="3.4483570605516434e-02" rms="3.0910301208496094e-01" purity="6.5657150745391846e-01" nType="-99"/>
            <Node pos="r" depth="3" NCoef="0" IVar="-1" Cut="0.0000000000000000e+00" cType="1" res="2.7304792311042547e-03" rms="2.9729998111724854e-01" purity="6.5983694791793823e-01" nType="-99"/>
          </Node>
        </Node>
        <Node pos="r" depth="1" NCoef="0" IVar="11" Cut="-1.3435121774673462e+00" cType="1" res="-9.3652997165918350e-03" rms="2.7370366454124451e-01" purity="3.9562967419624329e-01" nType="0">
          <Node pos="l" depth="2" NCoef="0" IVar="0" Cut="1.4400944824218750e+03" cType="1" res="-1.4829925261437893e-02" rms="2.6410546898841858e-01" purity="1.8232117593288422e-01" nType="0">
            <Node pos="l" depth="3" NCoef="0" IVar="-1" Cut="0.0000000000000000e+00" cType="1" res="-1.2955221347510815e-02" rms="2.3605397343635559e-01" purity="8.3047136664390564e-02" nType="-99"/>
            <Node pos="r" depth="3" NCoef="0" IVar="-1" Cut="0.0000000000000000e+00" cType="1" res="-2.9845057055354118e-02" rms="3.2068142294883728e-01" purity="4.1972199082374573e-01" nType="-99"/>
          </Node>
          <Node pos="r" depth="2" NCoef="0" IVar="7" Cut="1.0927430391311646e+00" cType="1" res="-1.9308131886646152e-03" rms="2.8607791662216187e-01" purity="6.8583059310913086e-01" nType="0">
            <Node pos="l" depth="3" NCoef="0" IVar="-1" Cut="0.0000000000000000e+00" cType="1" res="6.2479767948389053e-03" rms="2.8024959564208984e-01" purity="7.9269975423812866e-01" nType="-99"/>
            <Node pos="r" depth="3" NCoef="0" IVar="-1" Cut="0.0000000000000000e+00" cType="1" res="-2.1188337355852127e-02" rms="3.0010706186294556e-01" purity="4.0351077914237976e-01" nType="-99"/>
          </Node>
        </Node>
      </Node>
    </BinaryTree>
    <BinaryTree type="DecisionTree" boostWeight="1.0000000000000000e+00" itree="431">
      <Node pos="s" depth="0" NCoef="0" IVar="0" Cut="1.4400817871093750e+03" cType="1" res="-2.1076502162031829e-04" rms="2.8358247876167297e-01" purity="5.0778800249099731e-01" nType="0">
        <Node pos="l" depth="1" NCoef="0" IVar="1" Cut="6.2715768814086914e-02" cType="1" res="-4.6791206113994122e-03" rms="2.9127517342567444e-01" purity="2.0657345652580261e-01" nType="0">
          <Node pos="l" depth="2" NCoef="0" IVar="11" Cut="-5.1528114080429077e-01" cType="1" res="3.4231673926115036e-03" rms="2.4235714972019196e-01" purity="9.8144665360450745e-02" nType="0">
            <Node pos="l" depth="3" NCoef="0" IVar="-1" Cut="0.0000000000000000e+00" cType="1" res="-2.2780913859605789e-03" rms="2.2303014993667603e-01" purity="7.3285676538944244e-02" nType="-99"/>
            <Node pos="r" depth="3" NCoef="0" IVar="-1" Cut="0.0000000000000000e+00" cType="1" res="2.7631057426333427e-02" rms="3.2874092459678650e-01" purity="2.3663744330406189e-01" nType="-99"/>
          </Node>
          <Node pos="r" depth="2" NCoef="0" IVar="4" Cut="1.4280274963378906e+02" cType="1" res="-2.2337947040796280e-02" rms="3.7587249279022217e-01" purity="4.4289252161979675e-01" nType="0">
            <Node pos="l" depth="3" NCoef="0" IVar="-1" Cut="0.0000000000000000e+00" cType="1" res="-7.9414695501327515e-03" rms="3.6492845416069031e-01" purity="3.6089631915092468e-01" nType="-99"/>
            <Node pos="r" depth="3" NCoef="0" IVar="-1" Cut="0.0000000000000000e+00" cType="1" res="-2.7306208387017250e-02" rms="3.9322730898857117e-01" purity="5.8405834436416626e-01" nType="-99"/>
          </Node>
        </Node>
        <Node pos="r" depth="1" NCoef="0" IVar="3" Cut="2.4511325073242188e+02" cType="1" res="3.6804231349378824e-03" rms="2.7665051817893982e-01" purity="7.7009534835815430e-01" nType="0">
          <Node pos="l" depth="2" NCoef="0" IVar="4" Cut="1.3394995117187500e+02" cType="1" res="1.0480497032403946e-02" rms="2.7508929371833801e-01" purity="7.7206897735595703e-01" nType="0">
            <Node pos="l" depth="3" NCoef="0" IVar="-1" Cut="0.0000000000000000e+00" cType="1" res="-8.9523410424590111e-03" rms="3.0605533719062805e-01" purity="5.1237839460372925e-01" nType="-99"/>
            <Node pos="r" depth="3" NCoef="0" IVar="-1" Cut="0.0000000000000000e+00" cType="1" res="2.0061278715729713e-02" rms="2.6717141270637512e-01" purity="8.3244752883911133e-01" nType="-99"/>
          </Node>
          <Node pos="r" depth="2" NCoef="0" IVar="2" Cut="4.7742053222656250e+02" cType="1" res="-4.6833207306917757e-05" rms="2.7743181586265564e-01" purity="7.6901358366012573e-01" nType="0">
            <Node pos="l" depth="3" NCoef="0" IVar="-1" Cut="0.0000000000000000e+00" cType="1" res="-8.5949702188372612e-03" rms="2.6918205618858337e-01" purity="8.0774855613708496e-01" nType="-99"/>
            <Node pos="r" depth="3" NCoef="0" IVar="-1" Cut="0.0000000000000000e+00" cType="1" res="9.3416692689061165e-03" rms="2.8725403547286987e-01" purity="7.2035598754882812e-01" nType="-99"/>
          </Node>
        </Node>
      </Node>
    </BinaryTree>
    <BinaryTree type="DecisionTree" boostWeight="1.0000000000000000e+00" itree="432">
      <Node pos="s" depth="0" NCoef="0" IVar="7" Cut="1.4519874751567841e-01" cType="1" res="1.6259060066659003e-04" rms="2.8757438063621521e-01" purity="5.0269877910614014e-01" nType="0">
        <Node pos="l" depth="1" NCoef="0" IVar="7" Cut="-6.8908804655075073e-01" cType="1" res="-4.1145784780383110e-03" rms="2.8986427187919617e-01" purity="5.1526927947998047e-01" nType="0">
          <Node pos="l" depth="2" NCoef="0" IVar="6" Cut="7.7497779846191406e+01" cType="1" res="3.5882696975022554e-03" rms="2.7602925896644592e-01" purity="3.2436361908912659e-01" nType="0">
            <Node pos="l" depth="3" NCoef="0" IVar="-1" Cut="0.0000000000000000e+00" cType="1" res="1.1309495195746422e-02" rms="2.7686032652854919e-01" purity="2.2585560381412506e-01" nType="-99"/>
            <Node pos="r" depth="3" NCoef="0" IVar="-1" Cut="0.0000000000000000e+00" cType="1" res="-2.5629440322518349e-02" rms="2.7077803015708923e-01" purity="7.9566001892089844e-01" nType="-99"/>
          </Node>
          <Node pos="r" depth="2" NCoef="0" IVar="11" Cut="5.9037846326828003e-01" cType="1" res="-8.9093260467052460e-03" rms="2.9805153608322144e-01" purity="6.3410121202468872e-01" nType="0">
            <Node pos="l" depth="3" NCoef="0" IVar="-1" Cut="0.0000000000000000e+00" cType="1" res="-1.3040103018283844e-02" rms="3.0180242657661438e-01" purity="5.9187120199203491e-01" nType="-99"/>
            <Node pos="r" depth="3" NCoef="0" IVar="-1" Cut="0.0000000000000000e+00" cType="1" res="7.3277624323964119e-03" rms="2.7955201268196106e-01" purity="8.2978183031082153e-01" nType="-99"/>
          </Node>
        </Node>
        <Node pos="r" depth="1" NCoef="0" IVar="7" Cut="6.5082615613937378e-01" cType="1" res="5.7261805050075054e-03" rms="2.8447201848030090e-01" purity="4.8634743690490723e-01" nType="0">
          <Node pos="l" depth="2" NCoef="0" IVar="0" Cut="1.7609613037109375e+03" cType="1" res="1.4617378823459148e-02" rms="3.0443686246871948e-01" purity="6.5505951642990112e-01" nType="0">
            <Node pos="l" depth="3" NCoef="0" IVar="-1" Cut="0.0000000000000000e+00" cType="1" res="2.0904494449496269e-02" rms="3.4273999929428101e-01" purity="5.1193881034851074e-01" nType="-99"/>
            <Node pos="r" depth="3" NCoef="0" IVar="-1" Cut="0.0000000000000000e+00" cType="1" res="-2.1519628353416920e-03" rms="2.2253520786762238e-01" purity="9.0198081731796265e-01" nType="-99"/>
          </Node>
          <Node pos="r" depth="2" NCoef="0" IVar="8" Cut="-1.3267274200916290e-01" cType="1" res="-2.1283794194459915e-03" rms="2.6534157991409302e-01" purity="3.3730572462081909e-01" nType="0">
            <Node pos="l" depth="3" NCoef="0" IVar="-1" Cut="0.0000000000000000e+00" cType="1" res="-1.8020551651716232e-02" rms="2.4937273561954498e-01" purity="2.7208533883094788e-01" nType="-99"/>
            <Node pos="r" depth="3" NCoef="0" IVar="-1" Cut="0.0000000000000000e+00" cType="1" res="6.2187681905925274e-03" rms="2.7561911940574646e-01" purity="3.8240909576416016e-01" nType="-99"/>
          </Node>
        </Node>
      </Node>
    </BinaryTree>
    <BinaryTree type="DecisionTree" boostWeight="1.0000000000000000e+00" itree="433">
      <Node pos="s" depth="0" NCoef="0" IVar="7" Cut="-1.2754511833190918e-01" cType="1" res="-3.5022757947444916e-04" rms="2.8628835082054138e-01" purity="5.0459241867065430e-01" nType="0">
        <Node pos="l" depth="1" NCoef="0" IVar="9" Cut="-6.6623580455780029e-01" cType="1" res="-6.6651590168476105e-03" rms="2.8385952115058899e-01" purity="4.7964245080947876e-01" nType="0">
          <Node pos="l" depth="2" NCoef="0" IVar="7" Cut="-6.1055362224578857e-01" cType="1" res="-1.5843907371163368e-02" rms="2.8401333093643188e-01" purity="4.0206390619277954e-01" nType="0">
            <Node pos="l" depth="3" NCoef="0" IVar="-1" Cut="0.0000000000000000e+00" cType="1" res="-7.6805688440799713e-03" rms="2.7284285426139832e-01" purity="3.0907547473907471e-01" nType="-99"/>
            <Node pos="r" depth="3" NCoef="0" IVar="-1" Cut="0.0000000000000000e+00" cType="1" res="-3.1630866229534149e-02" rms="2.9920879006385803e-01" purity="5.3956848382949829e-01" nType="-99"/>
          </Node>
          <Node pos="r" depth="2" NCoef="0" IVar="9" Cut="-1.7105509340763092e-01" cType="1" res="-2.5784196332097054e-03" rms="2.8369548916816711e-01" purity="5.1418340206146240e-01" nType="0">
            <Node pos="l" depth="3" NCoef="0" IVar="-1" Cut="0.0000000000000000e+00" cType="1" res="1.0227341204881668e-02" rms="2.8982004523277283e-01" purity="5.8247053623199463e-01" nType="-99"/>
            <Node pos="r" depth="3" NCoef="0" IVar="-1" Cut="0.0000000000000000e+00" cType="1" res="-8.2334214821457863e-03" rms="2.8143617510795593e-01" purity="4.9058192968368530e-01" nType="-99"/>
          </Node>
        </Node>
        <Node pos="r" depth="1" NCoef="0" IVar="9" Cut="1.7330472469329834e+00" cType="1" res="4.5507950708270073e-03" rms="2.8806385397911072e-01" purity="5.2395612001419067e-01" nType="0">
          <Node pos="l" depth="2" NCoef="0" IVar="3" Cut="2.0602478027343750e+02" cType="1" res="6.3784602098166943e-03" rms="2.9100829362869263e-01" purity="5.4671388864517212e-01" nType="0">
            <Node pos="l" depth="3" NCoef="0" IVar="-1" Cut="0.0000000000000000e+00" cType="1" res="1.1386007536202669e-03" rms="2.8682380914688110e-01" purity="3.3215755224227905e-01" nType="-99"/>
            <Node pos="r" depth="3" NCoef="0" IVar="-1" Cut="0.0000000000000000e+00" cType="1" res="1.1639962904155254e-02" rms="2.9384875297546387e-01" purity="6.9724839925765991e-01" nType="-99"/>
          </Node>
          <Node pos="r" depth="2" NCoef="0" IVar="-1" Cut="0.0000000000000000e+00" cType="1" res="-3.7880532443523407e-02" rms="2.3305128514766693e-01" purity="1.5383127331733704e-01" nType="-99"/>
        </Node>
      </Node>
    </BinaryTree>
    <BinaryTree type="DecisionTree" boostWeight="1.0000000000000000e+00" itree="434">
      <Node pos="s" depth="0" NCoef="0" IVar="1" Cut="6.2751308083534241e-02" cType="1" res="-2.3814889136701822e-03" rms="2.8489583730697632e-01" purity="4.9638432264328003e-01" nType="0">
        <Node pos="l" depth="1" NCoef="0" IVar="11" Cut="5.9046846628189087e-01" cType="1" res="-7.0716878399252892e-03" rms="2.7883270382881165e-01" purity="2.6593902707099915e-01" nType="0">
          <Node pos="l" depth="2" NCoef="0" IVar="9" Cut="3.9994087815284729e-01" cType="1" res="-5.1833507604897022e-03" rms="2.7261966466903687e-01" purity="2.4380755424499512e-01" nType="0">
            <Node pos="l" depth="3" NCoef="0" IVar="-1" Cut="0.0000000000000000e+00" cType="1" res="-1.2126890011131763e-02" rms="2.7487537264823914e-01" purity="2.5458303093910217e-01" nType="-99"/>
            <Node pos="r" depth="3" NCoef="0" IVar="-1" Cut="0.0000000000000000e+00" cType="1" res="3.6404756829142570e-03" rms="2.6851776242256165e-01" purity="2.2527779638767242e-01" nType="-99"/>
          </Node>
          <Node pos="r" depth="2" NCoef="0" IVar="7" Cut="4.7887912392616272e-01" cType="1" res="-2.1162822842597961e-02" rms="3.2107549905776978e-01" purity="4.3108826875686646e-01" nType="0">
            <Node pos="l" depth="3" NCoef="0" IVar="-1" Cut="0.0000000000000000e+00" cType="1" res="-4.4980752281844616e-03" rms="3.2273995876312256e-01" purity="4.9740171432495117e-01" nType="-99"/>
            <Node pos="r" depth="3" NCoef="0" IVar="-1" Cut="0.0000000000000000e+00" cType="1" res="-3.9955634623765945e-02" rms="3.1724673509597778e-01" purity="3.3728489279747009e-01" nType="-99"/>
          </Node>
        </Node>
        <Node pos="r" depth="1" NCoef="0" IVar="6" Cut="6.5157615661621094e+01" cType="1" res="3.1452956609427929e-03" rms="2.9178205132484436e-01" purity="7.6793390512466431e-01" nType="0">
          <Node pos="l" depth="2" NCoef="0" IVar="10" Cut="6.6648709774017334e-01" cType="1" res="1.0292840190231800e-02" rms="3.6266732215881348e-01" purity="5.7375133037567139e-01" nType="0">
            <Node pos="l" depth="3" NCoef="0" IVar="-1" Cut="0.0000000000000000e+00" cType="1" res="2.0169096533209085e-03" rms="3.6235079169273376e-01" purity="5.7150071859359741e-01" nType="-99"/>
            <Node pos="r" depth="3" NCoef="0" IVar="-1" Cut="0.0000000000000000e+00" cType="1" res="1.9932422786951065e-02" rms="3.6281117796897888e-01" purity="5.7856386899948120e-01" nType="-99"/>
          </Node>
          <Node pos="r" depth="2" NCoef="0" IVar="3" Cut="2.4468544006347656e+02" cType="1" res="-2.9150028713047504e-03" rms="2.1382850408554077e-01" purity="9.3257850408554077e-01" nType="0">
            <Node pos="l" depth="3" NCoef="0" IVar="-1" Cut="0.0000000000000000e+00" cType="1" res="-1.9415397197008133e-02" rms="2.5027477741241455e-01" purity="8.9872789382934570e-01" nType="-99"/>
            <Node pos="r" depth="3" NCoef="0" IVar="-1" Cut="0.0000000000000000e+00" cType="1" res="1.2098776176571846e-02" rms="1.7827980220317841e-01" purity="9.6024090051651001e-01" nType="-99"/>
          </Node>
        </Node>
      </Node>
    </BinaryTree>
    <BinaryTree type="DecisionTree" boostWeight="1.0000000000000000e+00" itree="435">
      <Node pos="s" depth="0" NCoef="0" IVar="10" Cut="1.1998029947280884e+00" cType="1" res="-6.7926489282399416e-04" rms="2.8485351800918579e-01" purity="4.9693420529365540e-01" nType="0">
        <Node pos="l" depth="1" NCoef="0" IVar="9" Cut="-1.7333347797393799e+00" cType="1" res="1.0967232519760728e-03" rms="2.8430917859077454e-01" purity="5.2118831872940063e-01" nType="0">
          <Node pos="l" depth="2" NCoef="0" IVar="-1" Cut="0.0000000000000000e+00" cType="1" res="2.6323029771447182e-02" rms="2.6403546333312988e-01" purity="1.8219038844108582e-01" nType="-99"/>
          <Node pos="r" depth="2" NCoef="0" IVar="7" Cut="4.0433675050735474e-01" cType="1" res="1.7296508303843439e-05" rms="2.8552088141441345e-01" purity="5.4283505678176880e-01" nType="0">
            <Node pos="l" depth="3" NCoef="0" IVar="-1" Cut="0.0000000000000000e+00" cType="1" res="-3.2534683123230934e-03" rms="2.8583174943923950e-01" purity="5.8091568946838379e-01" nType="-99"/>
            <Node pos="r" depth="3" NCoef="0" IVar="-1" Cut="0.0000000000000000e+00" cType="1" res="7.9811979085206985e-03" rms="2.8470253944396973e-01" purity="4.5530459284782410e-01" nType="-99"/>
          </Node>
        </Node>
        <Node pos="r" depth="1" NCoef="0" IVar="0" Cut="1.8360899658203125e+03" cType="1" res="-9.6766008064150810e-03" rms="2.8742679953575134e-01" purity="3.7406003475189209e-01" nType="0">
          <Node pos="l" depth="2" NCoef="0" IVar="1" Cut="1.9108751788735390e-02" cType="1" res="-1.5118116512894630e-02" rms="2.9182738065719604e-01" purity="2.6699054241180420e-01" nType="0">
            <Node pos="l" depth="3" NCoef="0" IVar="-1" Cut="0.0000000000000000e+00" cType="1" res="1.6644611954689026e-02" rms="1.8563188612461090e-01" purity="5.0422094762325287e-02" nType="-99"/>
            <Node pos="r" depth="3" NCoef="0" IVar="-1" Cut="0.0000000000000000e+00" cType="1" res="-2.1879501640796661e-02" rms="3.2671695947647095e-01" purity="3.6027342081069946e-01" nType="-99"/>
          </Node>
          <Node pos="r" depth="2" NCoef="0" IVar="-1" Cut="0.0000000000000000e+00" cType="1" res="1.5614071860909462e-02" rms="2.6740640401840210e-01" purity="8.1447476148605347e-01" nType="-99"/>
        </Node>
      </Node>
    </BinaryTree>
    <BinaryTree type="DecisionTree" boostWeight="1.0000000000000000e+00" itree="436">
      <Node pos="s" depth="0" NCoef="0" IVar="11" Cut="8.6588859558105469e-01" cType="1" res="3.8596375379711390e-03" rms="2.8743165731430054e-01" purity="5.0446480512619019e-01" nType="0">
        <Node pos="l" depth="1" NCoef="0" IVar="9" Cut="-9.3333774805068970e-01" cType="1" res="5.3126299753785133e-03" rms="2.8656011819839478e-01" purity="4.7670412063598633e-01" nType="0">
          <Node pos="l" depth="2" NCoef="0" IVar="9" Cut="-1.2888951301574707e+00" cType="1" res="1.4626066200435162e-02" rms="2.9706767201423645e-01" purity="3.3567228913307190e-01" nType="0">
            <Node pos="l" depth="3" NCoef="0" IVar="-1" Cut="0.0000000000000000e+00" cType="1" res="6.5956423059105873e-03" rms="2.8821417689323425e-01" purity="2.4071289598941803e-01" nType="-99"/>
            <Node pos="r" depth="3" NCoef="0" IVar="-1" Cut="0.0000000000000000e+00" cType="1" res="3.1060088425874710e-02" rms="3.0959147214889526e-01" purity="4.8130822181701660e-01" nType="-99"/>
          </Node>
          <Node pos="r" depth="2" NCoef="0" IVar="1" Cut="6.2697693705558777e-02" cType="1" res="2.9948069714009762e-03" rms="2.8383716940879822e-01" purity="5.1180249452590942e-01" nType="0">
            <Node pos="l" depth="3" NCoef="0" IVar="-1" Cut="0.0000000000000000e+00" cType="1" res="8.4805339574813843e-03" rms="2.8088527917861938e-01" purity="2.9582512378692627e-01" nType="-99"/>
            <Node pos="r" depth="3" NCoef="0" IVar="-1" Cut="0.0000000000000000e+00" cType="1" res="-1.9309844356030226e-03" rms="2.8718259930610657e-01" purity="7.6443320512771606e-01" nType="-99"/>
          </Node>
        </Node>
        <Node pos="r" depth="1" NCoef="0" IVar="4" Cut="1.2861900329589844e+02" cType="1" res="-6.2470403499901295e-03" rms="2.9322320222854614e-01" purity="6.9756162166595459e-01" nType="0">
          <Node pos="l" depth="2" NCoef="0" IVar="-1" Cut="0.0000000000000000e+00" cType="1" res="1.1330324225127697e-02" rms="3.2373720407485962e-01" purity="3.8866588473320007e-01" nType="-99"/>
          <Node pos="r" depth="2" NCoef="0" IVar="5" Cut="9.8145858764648438e+01" cType="1" res="-1.1505304835736752e-02" rms="2.8386473655700684e-01" purity="7.8410261869430542e-01" nType="0">
            <Node pos="l" depth="3" NCoef="0" IVar="-1" Cut="0.0000000000000000e+00" cType="1" res="-2.4792628362774849e-02" rms="3.2766798138618469e-01" purity="6.2472778558731079e-01" nType="-99"/>
            <Node pos="r" depth="3" NCoef="0" IVar="-1" Cut="0.0000000000000000e+00" cType="1" res="-2.4780661333352327e-03" rms="2.5171801447868347e-01" purity="8.8499516248703003e-01" nType="-99"/>
          </Node>
        </Node>
      </Node>
    </BinaryTree>
    <BinaryTree type="DecisionTree" boostWeight="1.0000000000000000e+00" itree="437">
      <Node pos="s" depth="0" NCoef="0" IVar="9" Cut="-1.4666690826416016e+00" cType="1" res="-9.0698973508551717e-04" rms="2.8513973951339722e-01" purity="4.9710571765899658e-01" nType="0">
        <Node pos="l" depth="1" NCoef="0" IVar="8" Cut="3.9930608868598938e-01" cType="1" res="-1.3109859079122543e-02" rms="2.5314861536026001e-01" purity="1.9624418020248413e-01" nType="0">
          <Node pos="l" depth="2" NCoef="0" IVar="7" Cut="-1.0831900686025620e-01" cType="1" res="-2.1483648568391800e-02" rms="2.5191572308540344e-01" purity="2.1480095386505127e-01" nType="0">
            <Node pos="l" depth="3" NCoef="0" IVar="-1" Cut="0.0000000000000000e+00" cType="1" res="-4.3433174490928650e-02" rms="2.4409967660903931e-01" purity="2.1421802043914795e-01" nType="-99"/>
            <Node pos="r" depth="3" NCoef="0" IVar="-1" Cut="0.0000000000000000e+00" cType="1" res="-9.8382327705621719e-03" rms="2.5931188464164734e-01" purity="2.1542805433273315e-01" nType="-99"/>
          </Node>
          <Node pos="r" depth="2" NCoef="0" IVar="-1" Cut="0.0000000000000000e+00" cType="1" res="6.0945753939449787e-03" rms="2.5478529930114746e-01" purity="1.5867365896701813e-01" nType="-99"/>
        </Node>
        <Node pos="r" depth="1" NCoef="0" IVar="9" Cut="9.7143632173538208e-01" cType="1" res="2.8011546237394214e-04" rms="2.8803470730781555e-01" purity="5.2637380361557007e-01" nType="0">
          <Node pos="l" depth="2" NCoef="0" IVar="4" Cut="1.6196507263183594e+02" cType="1" res="2.4361421819776297e-03" rms="2.9005175828933716e-01" purity="5.7683187723159790e-01" nType="0">
            <Node pos="l" depth="3" NCoef="0" IVar="-1" Cut="0.0000000000000000e+00" cType="1" res="-3.2673655077815056e-03" rms="2.9961827397346497e-01" purity="3.3940494060516357e-01" nType="-99"/>
            <Node pos="r" depth="3" NCoef="0" IVar="-1" Cut="0.0000000000000000e+00" cType="1" res="9.6664940938353539e-03" rms="2.8052616119384766e-01" purity="8.0317676067352295e-01" nType="-99"/>
          </Node>
          <Node pos="r" depth="2" NCoef="0" IVar="4" Cut="1.2843066406250000e+02" cType="1" res="-8.4710577502846718e-03" rms="2.7952763438224792e-01" purity="3.2156759500503540e-01" nType="0">
            <Node pos="l" depth="3" NCoef="0" IVar="-1" Cut="0.0000000000000000e+00" cType="1" res="9.2944083735346794e-03" rms="2.4880994856357574e-01" purity="1.3129670917987823e-01" nType="-99"/>
            <Node pos="r" depth="3" NCoef="0" IVar="-1" Cut="0.0000000000000000e+00" cType="1" res="-2.0750695839524269e-02" rms="3.0344259738922119e-01" purity="4.8875644803047180e-01" nType="-99"/>
          </Node>
        </Node>
      </Node>
    </BinaryTree>
    <BinaryTree type="DecisionTree" boostWeight="1.0000000000000000e+00" itree="438">
      <Node pos="s" depth="0" NCoef="0" IVar="4" Cut="1.4152105712890625e+02" cType="1" res="9.4374408945441246e-04" rms="2.8479364514350891e-01" purity="5.0253397226333618e-01" nType="0">
        <Node pos="l" depth="1" NCoef="0" IVar="8" Cut="-3.9983847737312317e-01" cType="1" res="-3.8734078407287598e-03" rms="2.7569729089736938e-01" purity="2.1498934924602509e-01" nType="0">
          <Node pos="l" depth="2" NCoef="0" IVar="9" Cut="-1.3424907624721527e-01" cType="1" res="5.2818632684648037e-03" rms="2.6672315597534180e-01" purity="1.9520491361618042e-01" nType="0">
            <Node pos="l" depth="3" NCoef="0" IVar="-1" Cut="0.0000000000000000e+00" cType="1" res="-9.1700535267591476e-03" rms="2.5893774628639221e-01" purity="1.9101901352405548e-01" nType="-99"/>
            <Node pos="r" depth="3" NCoef="0" IVar="-1" Cut="0.0000000000000000e+00" cType="1" res="2.6539782062172890e-02" rms="2.7423387765884399e-01" purity="1.9969862699508667e-01" nType="-99"/>
          </Node>
          <Node pos="r" depth="2" NCoef="0" IVar="11" Cut="-1.0685888528823853e+00" cType="1" res="-9.3484800308942795e-03" rms="2.8078448772430420e-01" purity="2.2682091593742371e-01" nType="0">
            <Node pos="l" depth="3" NCoef="0" IVar="-1" Cut="0.0000000000000000e+00" cType="1" res="-5.6984317488968372e-03" rms="2.6003134250640869e-01" purity="1.3717266917228699e-01" nType="-99"/>
            <Node pos="r" depth="3" NCoef="0" IVar="-1" Cut="0.0000000000000000e+00" cType="1" res="-2.0505025982856750e-02" rms="3.3166033029556274e-01" purity="4.7813060879707336e-01" nType="-99"/>
          </Node>
        </Node>
        <Node pos="r" depth="1" NCoef="0" IVar="3" Cut="3.2096551513671875e+02" cType="1" res="4.4967262074351311e-03" rms="2.9126983880996704e-01" purity="7.1461790800094604e-01" nType="0">
          <Node pos="l" depth="2" NCoef="0" IVar="4" Cut="1.5006327819824219e+02" cType="1" res="7.1532889269292355e-03" rms="2.9798847436904907e-01" purity="6.8299406766891479e-01" nType="0">
            <Node pos="l" depth="3" NCoef="0" IVar="-1" Cut="0.0000000000000000e+00" cType="1" res="2.3799145594239235e-02" rms="3.5136562585830688e-01" purity="5.1325619220733643e-01" nType="-99"/>
            <Node pos="r" depth="3" NCoef="0" IVar="-1" Cut="0.0000000000000000e+00" cType="1" res="5.4725888185203075e-03" rms="2.9097720980644226e-01" purity="7.0297646522521973e-01" nType="-99"/>
          </Node>
          <Node pos="r" depth="2" NCoef="0" IVar="9" Cut="-4.0003886818885803e-01" cType="1" res="-2.8421059250831604e-03" rms="2.7171280980110168e-01" purity="8.0197978019714355e-01" nType="0">
            <Node pos="l" depth="3" NCoef="0" IVar="-1" Cut="0.0000000000000000e+00" cType="1" res="-2.3806696757674217e-02" rms="2.8958848118782043e-01" purity="7.4817550182342529e-01" nType="-99"/>
            <Node pos="r" depth="3" NCoef="0" IVar="-1" Cut="0.0000000000000000e+00" cType="1" res="5.7209674268960953e-03" rms="2.6327887177467346e-01" purity="8.2528567314147949e-01" nType="-99"/>
          </Node>
        </Node>
      </Node>
    </BinaryTree>
    <BinaryTree type="DecisionTree" boostWeight="1.0000000000000000e+00" itree="439">
      <Node pos="s" depth="0" NCoef="0" IVar="10" Cut="3.9987683296203613e-01" cType="1" res="1.0614402126520872e-03" rms="2.8136146068572998e-01" purity="5.0095325708389282e-01" nType="0">
        <Node pos="l" depth="1" NCoef="0" IVar="8" Cut="9.3326693773269653e-01" cType="1" res="-2.0114139188081026e-03" rms="2.8090071678161621e-01" purity="5.0890451669692993e-01" nType="0">
          <Node pos="l" depth="2" NCoef="0" IVar="8" Cut="-1.5554871559143066e+00" cType="1" res="-4.2445000144653022e-04" rms="2.8388929367065430e-01" purity="5.4856216907501221e-01" nType="0">
            <Node pos="l" depth="3" NCoef="0" IVar="-1" Cut="0.0000000000000000e+00" cType="1" res="-3.9361242204904556e-02" rms="1.9157050549983978e-01" purity="1.1354201287031174e-01" nType="-99"/>
            <Node pos="r" depth="3" NCoef="0" IVar="-1" Cut="0.0000000000000000e+00" cType="1" res="1.5145576326176524e-03" rms="2.9082003235816956e-01" purity="5.8839553594589233e-01" nType="-99"/>
          </Node>
          <Node pos="r" depth="2" NCoef="0" IVar="8" Cut="1.1999207735061646e+00" cType="1" res="-1.1266901157796383e-02" rms="2.6260355114936829e-01" purity="2.7761334180831909e-01" nType="0">
            <Node pos="l" depth="3" NCoef="0" IVar="-1" Cut="0.0000000000000000e+00" cType="1" res="-3.5212237387895584e-02" rms="2.9777598381042480e-01" purity="4.2969703674316406e-01" nType="-99"/>
            <Node pos="r" depth="3" NCoef="0" IVar="-1" Cut="0.0000000000000000e+00" cType="1" res="-2.6933327317237854e-03" rms="2.4402138590812683e-01" purity="2.0719780027866364e-01" nType="-99"/>
          </Node>
        </Node>
        <Node pos="r" depth="1" NCoef="0" IVar="9" Cut="1.7328367233276367e+00" cType="1" res="6.1427755281329155e-03" rms="2.8204828500747681e-01" purity="4.8780494928359985e-01" nType="0">
          <Node pos="l" depth="2" NCoef="0" IVar="10" Cut="5.1421862840652466e-01" cType="1" res="3.7243219558149576e-03" rms="2.8835889697074890e-01" purity="5.1024085283279419e-01" nType="0">
            <Node pos="l" depth="3" NCoef="0" IVar="-1" Cut="0.0000000000000000e+00" cType="1" res="-3.3574707806110382e-02" rms="2.6858201622962952e-01" purity="5.3292900323867798e-01" nType="-99"/>
            <Node pos="r" depth="3" NCoef="0" IVar="-1" Cut="0.0000000000000000e+00" cType="1" res="7.7450261451303959e-03" rms="2.9007461667060852e-01" purity="5.0800126791000366e-01" nType="-99"/>
          </Node>
          <Node pos="r" depth="2" NCoef="0" IVar="-1" Cut="0.0000000000000000e+00" cType="1" res="6.7027390003204346e-02" rms="1.7315076291561127e-01" purity="1.8593239784240723e-01" nType="-99"/>
        </Node>
      </Node>
    </BinaryTree>
    <BinaryTree type="DecisionTree" boostWeight="1.0000000000000000e+00" itree="440">
      <Node pos="s" depth="0" NCoef="0" IVar="10" Cut="-4.0000578761100769e-01" cType="1" res="-3.9999764412641525e-03" rms="2.8667587041854858e-01" purity="4.9892225861549377e-01" nType="0">
        <Node pos="l" depth="1" NCoef="0" IVar="1" Cut="4.1798166930675507e-02" cType="1" res="-1.0709336958825588e-02" rms="2.8707766532897949e-01" purity="4.6875786781311035e-01" nType="0">
          <Node pos="l" depth="2" NCoef="0" IVar="3" Cut="2.1077897644042969e+02" cType="1" res="-1.7556444508954883e-03" rms="2.5533717870712280e-01" purity="1.9422398507595062e-01" nType="0">
            <Node pos="l" depth="3" NCoef="0" IVar="-1" Cut="0.0000000000000000e+00" cType="1" res="-2.0292392000555992e-02" rms="2.0161466300487518e-01" purity="8.5144914686679840e-02" nType="-99"/>
            <Node pos="r" depth="3" NCoef="0" IVar="-1" Cut="0.0000000000000000e+00" cType="1" res="8.4620788693428040e-03" rms="3.1140038371086121e-01" purity="3.3620017766952515e-01" nType="-99"/>
          </Node>
          <Node pos="r" depth="2" NCoef="0" IVar="1" Cut="9.8530516028404236e-02" cType="1" res="-1.7119526863098145e-02" rms="3.0763757228851318e-01" purity="6.6530412435531616e-01" nType="0">
            <Node pos="l" depth="3" NCoef="0" IVar="-1" Cut="0.0000000000000000e+00" cType="1" res="-2.7601057663559914e-02" rms="3.2513171434402466e-01" purity="5.2295601367950439e-01" nType="-99"/>
            <Node pos="r" depth="3" NCoef="0" IVar="-1" Cut="0.0000000000000000e+00" cType="1" res="-4.0242471732199192e-03" rms="2.8827774524688721e-01" purity="8.0875360965728760e-01" nType="-99"/>
          </Node>
        </Node>
        <Node pos="r" depth="1" NCoef="0" IVar="10" Cut="2.1903378963470459e+00" cType="1" res="-6.9209527282509953e-05" rms="2.8636720776557922e-01" purity="5.1659446954727173e-01" nType="0">
          <Node pos="l" depth="2" NCoef="0" IVar="11" Cut="-2.3922105133533478e-01" cType="1" res="1.1367804836481810e-03" rms="2.8714358806610107e-01" purity="5.3217256069183350e-01" nType="0">
            <Node pos="l" depth="3" NCoef="0" IVar="-1" Cut="0.0000000000000000e+00" cType="1" res="-2.3890761658549309e-03" rms="2.9204010963439941e-01" purity="4.1151174902915955e-01" nType="-99"/>
            <Node pos="r" depth="3" NCoef="0" IVar="-1" Cut="0.0000000000000000e+00" cType="1" res="9.9879615008831024e-03" rms="2.7685281634330750e-01" purity="7.7641409635543823e-01" nType="-99"/>
          </Node>
          <Node pos="r" depth="2" NCoef="0" IVar="-1" Cut="0.0000000000000000e+00" cType="1" res="-3.0716767534613609e-02" rms="2.6955613493919373e-01" purity="2.1030230820178986e-01" nType="-99"/>
        </Node>
      </Node>
    </BinaryTree>
    <BinaryTree type="DecisionTree" boostWeight="1.0000000000000000e+00" itree="441">
      <Node pos="s" depth="0" NCoef="0" IVar="10" Cut="9.3316942453384399e-01" cType="1" res="1.8151244148612022e-03" rms="2.8417634963989258e-01" purity="4.9673408269882202e-01" nType="0">
        <Node pos="l" depth="1" NCoef="0" IVar="1" Cut="1.2550298869609833e-01" cType="1" res="3.5584827419370413e-03" rms="2.8437936305999756e-01" purity="5.2398931980133057e-01" nType="0">
          <Node pos="l" depth="2" NCoef="0" IVar="1" Cut="5.3784359246492386e-02" cType="1" res="5.7254168204963207e-03" rms="2.9427579045295715e-01" purity="4.2790609598159790e-01" nType="0">
            <Node pos="l" depth="3" NCoef="0" IVar="-1" Cut="0.0000000000000000e+00" cType="1" res="5.7004572590813041e-04" rms="2.7815857529640198e-01" purity="2.6001021265983582e-01" nType="-99"/>
            <Node pos="r" depth="3" NCoef="0" IVar="-1" Cut="0.0000000000000000e+00" cType="1" res="1.3604102656245232e-02" rms="3.1736531853675842e-01" purity="6.8689167499542236e-01" nType="-99"/>
          </Node>
          <Node pos="r" depth="2" NCoef="0" IVar="6" Cut="5.3458862304687500e+01" cType="1" res="-4.1877040639519691e-03" rms="2.4560892581939697e-01" purity="8.6745983362197876e-01" nType="0">
            <Node pos="l" depth="3" NCoef="0" IVar="-1" Cut="0.0000000000000000e+00" cType="1" res="-1.6300646588206291e-02" rms="3.7283769249916077e-01" purity="5.9429621696472168e-01" nType="-99"/>
            <Node pos="r" depth="3" NCoef="0" IVar="-1" Cut="0.0000000000000000e+00" cType="1" res="3.5612126812338829e-03" rms="1.9227981567382812e-01" purity="9.4804960489273071e-01" nType="-99"/>
          </Node>
        </Node>
        <Node pos="r" depth="1" NCoef="0" IVar="9" Cut="4.0013882517814636e-01" cType="1" res="-4.1278838180005550e-03" rms="2.8340259194374084e-01" purity="4.0382272005081177e-01" nType="0">
          <Node pos="l" depth="2" NCoef="0" IVar="9" Cut="-2.0927545428276062e-01" cType="1" res="1.0696818353608251e-03" rms="2.8598222136497498e-01" purity="4.5312789082527161e-01" nType="0">
            <Node pos="l" depth="3" NCoef="0" IVar="-1" Cut="0.0000000000000000e+00" cType="1" res="-1.1341805569827557e-02" rms="2.7583378553390503e-01" purity="3.9809253811836243e-01" nType="-99"/>
            <Node pos="r" depth="3" NCoef="0" IVar="-1" Cut="0.0000000000000000e+00" cType="1" res="2.2049842402338982e-02" rms="3.0233809351921082e-01" purity="5.5124670267105103e-01" nType="-99"/>
          </Node>
          <Node pos="r" depth="2" NCoef="0" IVar="1" Cut="5.7672299444675446e-02" cType="1" res="-1.1377377435564995e-02" rms="2.7960357069969177e-01" purity="3.3505257964134216e-01" nType="0">
            <Node pos="l" depth="3" NCoef="0" IVar="-1" Cut="0.0000000000000000e+00" cType="1" res="-4.1305394843220711e-03" rms="2.4775473773479462e-01" purity="1.7764344811439514e-01" nType="-99"/>
            <Node pos="r" depth="3" NCoef="0" IVar="-1" Cut="0.0000000000000000e+00" cType="1" res="-2.4203047156333923e-02" rms="3.2611545920372009e-01" purity="6.0221862792968750e-01" nType="-99"/>
          </Node>
        </Node>
      </Node>
    </BinaryTree>
    <BinaryTree type="DecisionTree" boostWeight="1.0000000000000000e+00" itree="442">
      <Node pos="s" depth="0" NCoef="0" IVar="7" Cut="-3.9389902353286743e-01" cType="1" res="1.1137264082208276e-03" rms="2.8672319650650024e-01" purity="5.0057137012481689e-01" nType="0">
        <Node pos="l" depth="1" NCoef="0" IVar="0" Cut="2.0833381347656250e+03" cType="1" res="7.5637297704815865e-03" rms="2.8687903285026550e-01" purity="4.1774463653564453e-01" nType="0">
          <Node pos="l" depth="2" NCoef="0" IVar="8" Cut="-1.3304167985916138e-01" cType="1" res="1.0261228308081627e-02" rms="2.9254716634750366e-01" purity="3.5862436890602112e-01" nType="0">
            <Node pos="l" depth="3" NCoef="0" IVar="-1" Cut="0.0000000000000000e+00" cType="1" res="3.0115705449134111e-03" rms="2.9494526982307434e-01" purity="3.6698508262634277e-01" nType="-99"/>
            <Node pos="r" depth="3" NCoef="0" IVar="-1" Cut="0.0000000000000000e+00" cType="1" res="2.1728966385126114e-02" rms="2.9001441597938538e-01" purity="3.5051810741424561e-01" nType="-99"/>
          </Node>
          <Node pos="r" depth="2" NCoef="0" IVar="-1" Cut="0.0000000000000000e+00" cType="1" res="-2.2437622770667076e-02" rms="2.3863381147384644e-01" purity="8.6562532186508179e-01" nType="-99"/>
        </Node>
        <Node pos="r" depth="1" NCoef="0" IVar="1" Cut="1.0250991582870483e-01" cType="1" res="-1.9878575112670660e-03" rms="2.8659656643867493e-01" purity="5.4039984941482544e-01" nType="0">
          <Node pos="l" depth="2" NCoef="0" IVar="10" Cut="6.6652315855026245e-01" cType="1" res="1.3617300428450108e-03" rms="2.9757148027420044e-01" purity="4.0308555960655212e-01" nType="0">
            <Node pos="l" depth="3" NCoef="0" IVar="-1" Cut="0.0000000000000000e+00" cType="1" res="-2.8153888415545225e-03" rms="2.9613724350929260e-01" purity="4.1911306977272034e-01" nType="-99"/>
            <Node pos="r" depth="3" NCoef="0" IVar="-1" Cut="0.0000000000000000e+00" cType="1" res="1.0709982365369797e-02" rms="3.0037221312522888e-01" purity="3.6973729729652405e-01" nType="-99"/>
          </Node>
          <Node pos="r" depth="2" NCoef="0" IVar="6" Cut="6.6419250488281250e+01" cType="1" res="-9.1733234003186226e-03" rms="2.6135933399200439e-01" purity="8.3496367931365967e-01" nType="0">
            <Node pos="l" depth="3" NCoef="0" IVar="-1" Cut="0.0000000000000000e+00" cType="1" res="-1.9194668158888817e-02" rms="3.4974312782287598e-01" purity="6.5174686908721924e-01" nType="-99"/>
            <Node pos="r" depth="3" NCoef="0" IVar="-1" Cut="0.0000000000000000e+00" cType="1" res="3.6551812663674355e-03" rms="1.7518937587738037e-01" purity="9.6168035268783569e-01" nType="-99"/>
          </Node>
        </Node>
      </Node>
    </BinaryTree>
    <BinaryTree type="DecisionTree" boostWeight="1.0000000000000000e+00" itree="443">
      <Node pos="s" depth="0" NCoef="0" IVar="11" Cut="1.4181584119796753e+00" cType="1" res="-7.8904943075031042e-04" rms="2.8618094325065613e-01" purity="4.9511566758155823e-01" nType="0">
        <Node pos="l" depth="1" NCoef="0" IVar="11" Cut="-8.9619028568267822e-01" cType="1" res="1.9486667588353157e-04" rms="2.8487196564674377e-01" purity="4.8762553930282593e-01" nType="0">
          <Node pos="l" depth="2" NCoef="0" IVar="0" Cut="1.1200681152343750e+03" cType="1" res="-2.9202462173998356e-03" rms="2.9307627677917480e-01" purity="3.1496086716651917e-01" nType="0">
            <Node pos="l" depth="3" NCoef="0" IVar="-1" Cut="0.0000000000000000e+00" cType="1" res="1.6395300626754761e-02" rms="2.0160607993602753e-01" purity="4.9771171063184738e-02" nType="-99"/>
            <Node pos="r" depth="3" NCoef="0" IVar="-1" Cut="0.0000000000000000e+00" cType="1" res="-6.0189981013536453e-03" rms="3.2169517874717712e-01" purity="4.1833049058914185e-01" nType="-99"/>
          </Node>
          <Node pos="r" depth="2" NCoef="0" IVar="10" Cut="1.3237206637859344e-01" cType="1" res="5.5592921562492847e-03" rms="2.7007606625556946e-01" purity="7.8496527671813965e-01" nType="0">
            <Node pos="l" depth="3" NCoef="0" IVar="-1" Cut="0.0000000000000000e+00" cType="1" res="1.5407179482281208e-02" rms="2.7038627862930298e-01" purity="7.9714727401733398e-01" nType="-99"/>
            <Node pos="r" depth="3" NCoef="0" IVar="-1" Cut="0.0000000000000000e+00" cType="1" res="-1.8688752315938473e-03" rms="2.6954835653305054e-01" purity="7.7090233564376831e-01" nType="-99"/>
          </Node>
        </Node>
        <Node pos="r" depth="1" NCoef="0" IVar="9" Cut="1.3448598980903625e-01" cType="1" res="-1.6604065895080566e-02" rms="3.0602097511291504e-01" purity="6.1550825834274292e-01" nType="0">
          <Node pos="l" depth="2" NCoef="0" IVar="-1" Cut="0.0000000000000000e+00" cType="1" res="-1.0339484550058842e-02" rms="2.9768317937850952e-01" purity="6.5515303611755371e-01" nType="-99"/>
          <Node pos="r" depth="2" NCoef="0" IVar="-1" Cut="0.0000000000000000e+00" cType="1" res="-2.5029325857758522e-02" rms="3.1436175107955933e-01" purity="5.7394379377365112e-01" nType="-99"/>
        </Node>
      </Node>
    </BinaryTree>
    <BinaryTree type="DecisionTree" boostWeight="1.0000000000000000e+00" itree="444">
      <Node pos="s" depth="0" NCoef="0" IVar="7" Cut="-1.2027725577354431e-01" cType="1" res="2.1425273735076189e-03" rms="2.8835237026214600e-01" purity="4.9893063306808472e-01" nType="0">
        <Node pos="l" depth="1" NCoef="0" IVar="4" Cut="1.3784523010253906e+02" cType="1" res="7.2656930424273014e-03" rms="2.8877785801887512e-01" purity="4.8255631327629089e-01" nType="0">
          <Node pos="l" depth="2" NCoef="0" IVar="7" Cut="-4.9954262375831604e-01" cType="1" res="1.5075719915330410e-02" rms="2.7862584590911865e-01" purity="2.0179785788059235e-01" nType="0">
            <Node pos="l" depth="3" NCoef="0" IVar="-1" Cut="0.0000000000000000e+00" cType="1" res="1.2873915024101734e-02" rms="2.4756290018558502e-01" purity="1.4386364817619324e-01" nType="-99"/>
            <Node pos="r" depth="3" NCoef="0" IVar="-1" Cut="0.0000000000000000e+00" cType="1" res="3.0282411724328995e-02" rms="3.3955961465835571e-01" purity="3.3681163191795349e-01" nType="-99"/>
          </Node>
          <Node pos="r" depth="2" NCoef="0" IVar="5" Cut="8.7627365112304688e+01" cType="1" res="1.7394070746377110e-03" rms="2.9562622308731079e-01" purity="6.8121778964996338e-01" nType="0">
            <Node pos="l" depth="3" NCoef="0" IVar="-1" Cut="0.0000000000000000e+00" cType="1" res="-7.3318500071763992e-03" rms="3.5082426667213440e-01" purity="4.1894859075546265e-01" nType="-99"/>
            <Node pos="r" depth="3" NCoef="0" IVar="-1" Cut="0.0000000000000000e+00" cType="1" res="1.1944974772632122e-02" rms="2.5574728846549988e-01" purity="8.4197694063186646e-01" nType="-99"/>
          </Node>
        </Node>
        <Node pos="r" depth="1" NCoef="0" IVar="4" Cut="9.6222518920898438e+01" cType="1" res="-2.0110602490603924e-03" rms="2.8794002532958984e-01" purity="5.1220607757568359e-01" nType="0">
          <Node pos="l" depth="2" NCoef="0" IVar="4" Cut="8.3345771789550781e+01" cType="1" res="1.0419816710054874e-02" rms="2.3381692171096802e-01" purity="9.2344708740711212e-02" nType="0">
            <Node pos="l" depth="3" NCoef="0" IVar="-1" Cut="0.0000000000000000e+00" cType="1" res="-7.6647447422146797e-03" rms="1.8634593486785889e-01" purity="4.8545531928539276e-02" nType="-99"/>
            <Node pos="r" depth="3" NCoef="0" IVar="-1" Cut="0.0000000000000000e+00" cType="1" res="4.2750395834445953e-02" rms="2.8089061379432678e-01" purity="1.4660142362117767e-01" nType="-99"/>
          </Node>
          <Node pos="r" depth="2" NCoef="0" IVar="5" Cut="7.0725730895996094e+01" cType="1" res="-4.3385340832173824e-03" rms="2.9692155122756958e-01" purity="5.9081804752349854e-01" nType="0">
            <Node pos="l" depth="3" NCoef="0" IVar="-1" Cut="0.0000000000000000e+00" cType="1" res="-1.4908354729413986e-02" rms="3.1851652264595032e-01" purity="2.4411876499652863e-01" nType="-99"/>
            <Node pos="r" depth="3" NCoef="0" IVar="-1" Cut="0.0000000000000000e+00" cType="1" res="4.3645763071253896e-04" rms="2.8720432519912720e-01" purity="7.3693835735321045e-01" nType="-99"/>
          </Node>
        </Node>
      </Node>
    </BinaryTree>
    <BinaryTree type="DecisionTree" boostWeight="1.0000000000000000e+00" itree="445">
      <Node pos="s" depth="0" NCoef="0" IVar="4" Cut="2.7040930175781250e+02" cType="1" res="-4.4898092746734619e-03" rms="2.8369003534317017e-01" purity="4.9601233005523682e-01" nType="0">
        <Node pos="l" depth="1" NCoef="0" IVar="4" Cut="2.3905699157714844e+02" cType="1" res="-3.2697978895157576e-03" rms="2.8616377711296082e-01" purity="4.6328610181808472e-01" nType="0">
          <Node pos="l" depth="2" NCoef="0" IVar="8" Cut="6.6663342714309692e-01" cType="1" res="-4.7218473628163338e-03" rms="2.8750148415565491e-01" purity="4.3642941117286682e-01" nType="0">
            <Node pos="l" depth="3" NCoef="0" IVar="-1" Cut="0.0000000000000000e+00" cType="1" res="-2.7653216384351254e-03" rms="2.9350474476814270e-01" purity="4.7899156808853149e-01" nType="-99"/>
            <Node pos="r" depth="3" NCoef="0" IVar="-1" Cut="0.0000000000000000e+00" cType="1" res="-1.4313202351331711e-02" rms="2.6973628997802734e-01" purity="3.1630173325538635e-01" nType="-99"/>
          </Node>
          <Node pos="r" depth="2" NCoef="0" IVar="4" Cut="2.5249530029296875e+02" cType="1" res="1.6642898321151733e-02" rms="2.6634684205055237e-01" purity="8.3158582448959351e-01" nType="0">
            <Node pos="l" depth="3" NCoef="0" IVar="-1" Cut="0.0000000000000000e+00" cType="1" res="3.0655112117528915e-02" rms="2.6015233993530273e-01" purity="8.4212678670883179e-01" nType="-99"/>
            <Node pos="r" depth="3" NCoef="0" IVar="-1" Cut="0.0000000000000000e+00" cType="1" res="1.3605431653559208e-02" rms="2.7240929007530212e-01" purity="8.2075721025466919e-01" nType="-99"/>
          </Node>
        </Node>
        <Node pos="r" depth="1" NCoef="0" IVar="0" Cut="2.3890036621093750e+03" cType="1" res="-1.7872912809252739e-02" rms="2.5459992885589600e-01" purity="8.5500752925872803e-01" nType="0">
          <Node pos="l" depth="2" NCoef="0" IVar="-1" Cut="0.0000000000000000e+00" cType="1" res="-3.8295079022645950e-02" rms="2.9740720987319946e-01" purity="7.8891730308532715e-01" nType="-99"/>
          <Node pos="r" depth="2" NCoef="0" IVar="-1" Cut="0.0000000000000000e+00" cType="1" res="-6.8721552379429340e-03" rms="1.8577280640602112e-01" purity="9.3862479925155640e-01" nType="-99"/>
        </Node>
      </Node>
    </BinaryTree>
    <BinaryTree type="DecisionTree" boostWeight="1.0000000000000000e+00" itree="446">
      <Node pos="s" depth="0" NCoef="0" IVar="2" Cut="7.1556677246093750e+02" cType="1" res="1.1292520212009549e-03" rms="2.8354132175445557e-01" purity="5.0298583507537842e-01" nType="0">
        <Node pos="l" depth="1" NCoef="0" IVar="10" Cut="-1.7333452701568604e+00" cType="1" res="2.5093695148825645e-04" rms="2.8126800060272217e-01" purity="4.9804669618606567e-01" nType="0">
          <Node pos="l" depth="2" NCoef="0" IVar="7" Cut="2.2653385996818542e-01" cType="1" res="-1.5504690818488598e-02" rms="2.6777011156082153e-01" purity="2.7880272269248962e-01" nType="0">
            <Node pos="l" depth="3" NCoef="0" IVar="-1" Cut="0.0000000000000000e+00" cType="1" res="-3.1227633357048035e-02" rms="2.6924264430999756e-01" purity="2.9385706782341003e-01" nType="-99"/>
            <Node pos="r" depth="3" NCoef="0" IVar="-1" Cut="0.0000000000000000e+00" cType="1" res="2.0687205251306295e-03" rms="2.6429766416549683e-01" purity="2.5233644247055054e-01" nType="-99"/>
          </Node>
          <Node pos="r" depth="2" NCoef="0" IVar="10" Cut="-6.5400815010070801e-01" cType="1" res="1.5196724561974406e-03" rms="2.8228858113288879e-01" purity="5.1570147275924683e-01" nType="0">
            <Node pos="l" depth="3" NCoef="0" IVar="-1" Cut="0.0000000000000000e+00" cType="1" res="1.2189544737339020e-02" rms="2.8926244378089905e-01" purity="5.1107442378997803e-01" nType="-99"/>
            <Node pos="r" depth="3" NCoef="0" IVar="-1" Cut="0.0000000000000000e+00" cType="1" res="-1.5376901719719172e-03" rms="2.7994871139526367e-01" purity="5.1719224452972412e-01" nType="-99"/>
          </Node>
        </Node>
        <Node pos="r" depth="1" NCoef="0" IVar="-1" Cut="0.0000000000000000e+00" cType="1" res="1.9193783402442932e-02" rms="3.3308637142181396e-01" purity="6.2230867147445679e-01" nType="-99"/>
      </Node>
    </BinaryTree>
    <BinaryTree type="DecisionTree" boostWeight="1.0000000000000000e+00" itree="447">
      <Node pos="s" depth="0" NCoef="0" IVar="10" Cut="-1.4666881561279297e+00" cType="1" res="-1.5133697306737304e-03" rms="2.8595682978630066e-01" purity="4.9609044194221497e-01" nType="0">
        <Node pos="l" depth="1" NCoef="0" IVar="4" Cut="1.2552791595458984e+02" cType="1" res="1.0270252823829651e-02" rms="2.9474550485610962e-01" purity="3.4477564692497253e-01" nType="0">
          <Node pos="l" depth="2" NCoef="0" IVar="-1" Cut="0.0000000000000000e+00" cType="1" res="-6.2418514862656593e-03" rms="2.3478764295578003e-01" purity="1.0786540806293488e-01" nType="-99"/>
          <Node pos="r" depth="2" NCoef="0" IVar="8" Cut="-1.3467958569526672e-01" cType="1" res="2.0181948319077492e-02" rms="3.3095002174377441e-01" purity="5.1555812358856201e-01" nType="0">
            <Node pos="l" depth="3" NCoef="0" IVar="-1" Cut="0.0000000000000000e+00" cType="1" res="4.4217454269528389e-03" rms="3.2173359394073486e-01" purity="4.8601201176643372e-01" nType="-99"/>
            <Node pos="r" depth="3" NCoef="0" IVar="-1" Cut="0.0000000000000000e+00" cType="1" res="3.2240692526102066e-02" rms="3.3862438797950745e-01" purity="5.4285788536071777e-01" nType="-99"/>
          </Node>
        </Node>
        <Node pos="r" depth="1" NCoef="0" IVar="8" Cut="-1.1999636888504028e+00" cType="1" res="-2.9809856787323952e-03" rms="2.8480908274650574e-01" purity="5.1493626832962036e-01" nType="0">
          <Node pos="l" depth="2" NCoef="0" IVar="9" Cut="-1.3247001171112061e-01" cType="1" res="-1.3231241144239902e-02" rms="2.4465364217758179e-01" purity="2.1463999152183533e-01" nType="0">
            <Node pos="l" depth="3" NCoef="0" IVar="-1" Cut="0.0000000000000000e+00" cType="1" res="-6.0760369524359703e-03" rms="2.5137481093406677e-01" purity="2.4527798593044281e-01" nType="-99"/>
            <Node pos="r" depth="3" NCoef="0" IVar="-1" Cut="0.0000000000000000e+00" cType="1" res="-3.3066749572753906e-02" rms="2.3741829395294189e-01" purity="1.8403971195220947e-01" nType="-99"/>
          </Node>
          <Node pos="r" depth="2" NCoef="0" IVar="11" Cut="3.6894310265779495e-02" cType="1" res="-1.7761655617505312e-03" rms="2.8913912177085876e-01" purity="5.5023324489593506e-01" nType="0">
            <Node pos="l" depth="3" NCoef="0" IVar="-1" Cut="0.0000000000000000e+00" cType="1" res="9.0461055515334010e-04" rms="2.9384356737136841e-01" purity="4.6783068776130676e-01" nType="-99"/>
            <Node pos="r" depth="3" NCoef="0" IVar="-1" Cut="0.0000000000000000e+00" cType="1" res="-1.1114328168332577e-02" rms="2.7616772055625916e-01" purity="7.6863783597946167e-01" nType="-99"/>
          </Node>
        </Node>
      </Node>
    </BinaryTree>
    <BinaryTree type="DecisionTree" boostWeight="1.0000000000000000e+00" itree="448">
      <Node pos="s" depth="0" NCoef="0" IVar="10" Cut="6.6654139757156372e-01" cType="1" res="7.5360335176810622e-04" rms="2.8568783402442932e-01" purity="4.9760779738426208e-01" nType="0">
        <Node pos="l" depth="1" NCoef="0" IVar="9" Cut="9.3314999341964722e-01" cType="1" res="3.1325530726462603e-03" rms="2.8331914544105530e-01" purity="5.2173691987991333e-01" nType="0">
          <Node pos="l" depth="2" NCoef="0" IVar="9" Cut="-1.3777505159378052e+00" cType="1" res="6.3425599364563823e-04" rms="2.8327688574790955e-01" purity="5.4998564720153809e-01" nType="0">
            <Node pos="l" depth="3" NCoef="0" IVar="-1" Cut="0.0000000000000000e+00" cType="1" res="-1.5683801844716072e-02" rms="2.6690283417701721e-01" purity="2.2249276936054230e-01" nType="-99"/>
            <Node pos="r" depth="3" NCoef="0" IVar="-1" Cut="0.0000000000000000e+00" cType="1" res="2.9126149602234364e-03" rms="2.8556931018829346e-01" purity="5.9832793474197388e-01" nType="-99"/>
          </Node>
          <Node pos="r" depth="2" NCoef="0" IVar="11" Cut="-2.1715953350067139e+00" cType="1" res="1.5433148480951786e-02" rms="2.8320595622062683e-01" purity="3.8265180587768555e-01" nType="0">
            <Node pos="l" depth="3" NCoef="0" IVar="-1" Cut="0.0000000000000000e+00" cType="1" res="4.5355777256190777e-03" rms="2.7351000905036926e-01" purity="1.5591077506542206e-01" nType="-99"/>
            <Node pos="r" depth="3" NCoef="0" IVar="-1" Cut="0.0000000000000000e+00" cType="1" res="3.2202642410993576e-02" rms="2.9372087121009827e-01" purity="6.5366190671920776e-01" nType="-99"/>
          </Node>
        </Node>
        <Node pos="r" depth="1" NCoef="0" IVar="11" Cut="-7.9136103391647339e-01" cType="1" res="-4.8576672561466694e-03" rms="2.9112160205841064e-01" purity="4.4069403409957886e-01" nType="0">
          <Node pos="l" depth="2" NCoef="0" IVar="11" Cut="-2.3690340518951416e+00" cType="1" res="1.4683287590742111e-03" rms="2.8946518898010254e-01" purity="2.8734961152076721e-01" nType="0">
            <Node pos="l" depth="3" NCoef="0" IVar="-1" Cut="0.0000000000000000e+00" cType="1" res="-3.0765994451940060e-03" rms="2.8556993603706360e-01" purity="2.0471985638141632e-01" nType="-99"/>
            <Node pos="r" depth="3" NCoef="0" IVar="-1" Cut="0.0000000000000000e+00" cType="1" res="2.2437348961830139e-02" rms="3.0720263719558716e-01" purity="6.9518607854843140e-01" nType="-99"/>
          </Node>
          <Node pos="r" depth="2" NCoef="0" IVar="0" Cut="1.9010338134765625e+03" cType="1" res="-1.5195037238299847e-02" rms="2.9351496696472168e-01" purity="6.9127559661865234e-01" nType="0">
            <Node pos="l" depth="3" NCoef="0" IVar="-1" Cut="0.0000000000000000e+00" cType="1" res="-2.4561904370784760e-02" rms="3.2537183165550232e-01" purity="5.6991797685623169e-01" nType="-99"/>
            <Node pos="r" depth="3" NCoef="0" IVar="-1" Cut="0.0000000000000000e+00" cType="1" res="1.2112345546483994e-02" rms="2.1695554256439209e-01" purity="9.2774522304534912e-01" nType="-99"/>
          </Node>
        </Node>
      </Node>
    </BinaryTree>
    <BinaryTree type="DecisionTree" boostWeight="1.0000000000000000e+00" itree="449">
      <Node pos="s" depth="0" NCoef="0" IVar="10" Cut="9.3311375379562378e-01" cType="1" res="-5.5937944125616923e-05" rms="2.8665912151336670e-01" purity="4.9949079751968384e-01" nType="0">
        <Node pos="l" depth="1" NCoef="0" IVar="0" Cut="1.7601273193359375e+03" cType="1" res="-2.4539073929190636e-03" rms="2.8359913825988770e-01" purity="5.1943105459213257e-01" nType="0">
          <Node pos="l" depth="2" NCoef="0" IVar="3" Cut="3.1974575805664062e+02" cType="1" res="-5.8989655226469040e-03" rms="3.0088210105895996e-01" purity="3.5571584105491638e-01" nType="0">
            <Node pos="l" depth="3" NCoef="0" IVar="-1" Cut="0.0000000000000000e+00" cType="1" res="-4.5043388381600380e-03" rms="2.9920879006385803e-01" purity="3.5891422629356384e-01" nType="-99"/>
            <Node pos="r" depth="3" NCoef="0" IVar="-1" Cut="0.0000000000000000e+00" cType="1" res="-3.2874595373868942e-02" rms="3.2862073183059692e-01" purity="2.9654499888420105e-01" nType="-99"/>
          </Node>
          <Node pos="r" depth="2" NCoef="0" IVar="7" Cut="-8.1984835863113403e-01" cType="1" res="5.0284978933632374e-03" rms="2.4167516827583313e-01" purity="8.7500798702239990e-01" nType="0">
            <Node pos="l" depth="3" NCoef="0" IVar="-1" Cut="0.0000000000000000e+00" cType="1" res="2.9150173068046570e-02" rms="3.0381709337234497e-01" purity="7.6038587093353271e-01" nType="-99"/>
            <Node pos="r" depth="3" NCoef="0" IVar="-1" Cut="0.0000000000000000e+00" cType="1" res="4.0751751512289047e-03" rms="2.3283886909484863e-01" purity="8.8894748687744141e-01" nType="-99"/>
          </Node>
        </Node>
        <Node pos="r" depth="1" NCoef="0" IVar="8" Cut="-9.3344229459762573e-01" cType="1" res="8.1515759229660034e-03" rms="2.9674723744392395e-01" purity="4.3124148249626160e-01" nType="0">
          <Node pos="l" depth="2" NCoef="0" IVar="-1" Cut="0.0000000000000000e+00" cType="1" res="5.1033910363912582e-02" rms="3.0549815297126770e-01" purity="2.6073938608169556e-01" nType="-99"/>
          <Node pos="r" depth="2" NCoef="0" IVar="0" Cut="1.5768100585937500e+03" cType="1" res="3.1923328060656786e-03" rms="2.9484072327613831e-01" purity="4.6261057257652283e-01" nType="0">
            <Node pos="l" depth="3" NCoef="0" IVar="-1" Cut="0.0000000000000000e+00" cType="1" res="-4.1956384666264057e-03" rms="2.9631543159484863e-01" purity="2.4408417940139771e-01" nType="-99"/>
            <Node pos="r" depth="3" NCoef="0" IVar="-1" Cut="0.0000000000000000e+00" cType="1" res="1.5526079572737217e-02" rms="2.9232245683670044e-01" purity="7.8743958473205566e-01" nType="-99"/>
          </Node>
        </Node>
      </Node>
    </BinaryTree>
    <BinaryTree type="DecisionTree" boostWeight="1.0000000000000000e+00" itree="450">
      <Node pos="s" depth="0" NCoef="0" IVar="3" Cut="2.3181842041015625e+02" cType="1" res="-7.4537529144436121e-04" rms="2.8789922595024109e-01" purity="4.9789878726005554e-01" nType="0">
        <Node pos="l" depth="1" NCoef="0" IVar="5" Cut="1.1096264648437500e+02" cType="1" res="2.6273310650140047e-03" rms="2.8684467077255249e-01" purity="3.5200542211532593e-01" nType="0">
          <Node pos="l" depth="2" NCoef="0" IVar="4" Cut="1.6250756835937500e+02" cType="1" res="5.9372694231569767e-03" rms="2.9064545035362244e-01" purity="2.7920183539390564e-01" nType="0">
            <Node pos="l" depth="3" NCoef="0" IVar="-1" Cut="0.0000000000000000e+00" cType="1" res="2.6621746364980936e-03" rms="2.8029501438140869e-01" purity="2.2255468368530273e-01" nType="-99"/>
            <Node pos="r" depth="3" NCoef="0" IVar="-1" Cut="0.0000000000000000e+00" cType="1" res="2.3273738101124763e-02" rms="3.4092253446578979e-01" purity="5.8851742744445801e-01" nType="-99"/>
          </Node>
          <Node pos="r" depth="2" NCoef="0" IVar="-1" Cut="0.0000000000000000e+00" cType="1" res="-3.0202928930521011e-02" rms="2.5959244370460510e-01" purity="8.2803821563720703e-01" nType="-99"/>
        </Node>
        <Node pos="r" depth="1" NCoef="0" IVar="9" Cut="-9.3341523408889771e-01" cType="1" res="-4.9694348126649857e-03" rms="2.8915905952453613e-01" purity="6.8061918020248413e-01" nType="0">
          <Node pos="l" depth="2" NCoef="0" IVar="5" Cut="7.8120773315429688e+01" cType="1" res="-2.2371016442775726e-02" rms="3.0976733565330505e-01" purity="4.7876587510108948e-01" nType="0">
            <Node pos="l" depth="3" NCoef="0" IVar="-1" Cut="0.0000000000000000e+00" cType="1" res="-7.3900208808481693e-03" rms="3.0581927299499512e-01" purity="2.5677946209907532e-01" nType="-99"/>
            <Node pos="r" depth="3" NCoef="0" IVar="-1" Cut="0.0000000000000000e+00" cType="1" res="-3.5800445824861526e-02" rms="3.1228247284889221e-01" purity="6.4827209711074829e-01" nType="-99"/>
          </Node>
          <Node pos="r" depth="2" NCoef="0" IVar="7" Cut="9.3671518564224243e-01" cType="1" res="-1.8987554358318448e-03" rms="2.8525793552398682e-01" purity="7.1623826026916504e-01" nType="0">
            <Node pos="l" depth="3" NCoef="0" IVar="-1" Cut="0.0000000000000000e+00" cType="1" res="9.8328688181936741e-04" rms="2.8440320491790771e-01" purity="7.5703465938568115e-01" nType="-99"/>
            <Node pos="r" depth="3" NCoef="0" IVar="-1" Cut="0.0000000000000000e+00" cType="1" res="-2.4963237345218658e-02" rms="2.9102352261543274e-01" purity="3.9562985301017761e-01" nType="-99"/>
          </Node>
        </Node>
      </Node>
    </BinaryTree>
    <BinaryTree type="DecisionTree" boostWeight="1.0000000000000000e+00" itree="451">
      <Node pos="s" depth="0" NCoef="0" IVar="1" Cut="1.4613668620586395e-01" cType="1" res="1.8531020032241940e-03" rms="2.8557386994361877e-01" purity="5.0439822673797607e-01" nType="0">
        <Node pos="l" depth="1" NCoef="0" IVar="1" Cut="6.9594904780387878e-02" cType="1" res="3.9651435799896717e-03" rms="2.9237994551658630e-01" purity="4.3750017881393433e-01" nType="0">
          <Node pos="l" depth="2" NCoef="0" IVar="7" Cut="-9.2584401369094849e-01" cType="1" res="-7.7860109740868211e-04" rms="2.8275594115257263e-01" purity="2.9825541377067566e-01" nType="0">
            <Node pos="l" depth="3" NCoef="0" IVar="-1" Cut="0.0000000000000000e+00" cType="1" res="-1.5990255400538445e-02" rms="2.3369880020618439e-01" purity="1.5119612216949463e-01" nType="-99"/>
            <Node pos="r" depth="3" NCoef="0" IVar="-1" Cut="0.0000000000000000e+00" cType="1" res="1.9243485294282436e-03" rms="2.9476788640022278e-01" purity="3.3868965506553650e-01" nType="-99"/>
          </Node>
          <Node pos="r" depth="2" NCoef="0" IVar="11" Cut="-1.6197696924209595e+00" cType="1" res="1.4007240533828735e-02" rms="3.1153634190559387e-01" purity="7.3226934671401978e-01" nType="0">
            <Node pos="l" depth="3" NCoef="0" IVar="-1" Cut="0.0000000000000000e+00" cType="1" res="2.4878092110157013e-02" rms="3.7890529632568359e-01" purity="5.0218683481216431e-01" nType="-99"/>
            <Node pos="r" depth="3" NCoef="0" IVar="-1" Cut="0.0000000000000000e+00" cType="1" res="3.4438706934452057e-03" rms="2.6162752509117126e-01" purity="8.7204980850219727e-01" nType="-99"/>
          </Node>
        </Node>
        <Node pos="r" depth="1" NCoef="0" IVar="3" Cut="2.5178579711914062e+02" cType="1" res="-9.5522403717041016e-03" rms="2.4526777863502502e-01" purity="8.6565756797790527e-01" nType="0">
          <Node pos="l" depth="2" NCoef="0" IVar="-1" Cut="0.0000000000000000e+00" cType="1" res="-1.6032673418521881e-02" rms="2.7670606970787048e-01" purity="8.0722659826278687e-01" nType="-99"/>
          <Node pos="r" depth="2" NCoef="0" IVar="-1" Cut="0.0000000000000000e+00" cType="1" res="-1.4670613221824169e-02" rms="2.0624993741512299e-01" purity="9.2831265926361084e-01" nType="-99"/>
        </Node>
      </Node>
    </BinaryTree>
    <BinaryTree type="DecisionTree" boostWeight="1.0000000000000000e+00" itree="452">
      <Node pos="s" depth="0" NCoef="0" IVar="1" Cut="4.1835803538560867e-02" cType="1" res="-2.6186853647232056e-03" rms="2.8312858939170837e-01" purity="4.9996972084045410e-01" nType="0">
        <Node pos="l" depth="1" NCoef="0" IVar="8" Cut="-1.1999408006668091e+00" cType="1" res="2.3448348511010408e-03" rms="2.6441979408264160e-01" purity="2.1155312657356262e-01" nType="0">
          <Node pos="l" depth="2" NCoef="0" IVar="4" Cut="1.4608581542968750e+02" cType="1" res="-8.3276769146323204e-03" rms="2.0023728907108307e-01" purity="8.2930706441402435e-02" nType="0">
            <Node pos="l" depth="3" NCoef="0" IVar="-1" Cut="0.0000000000000000e+00" cType="1" res="9.1319647617638111e-04" rms="1.8559981882572174e-01" purity="4.6512320637702942e-02" nType="-99"/>
            <Node pos="r" depth="3" NCoef="0" IVar="-1" Cut="0.0000000000000000e+00" cType="1" res="-3.7296071648597717e-02" rms="2.2946183383464813e-01" purity="1.6760180890560150e-01" nType="-99"/>
          </Node>
          <Node pos="r" depth="2" NCoef="0" IVar="3" Cut="3.3273370361328125e+02" cType="1" res="4.9971621483564377e-03" rms="2.7801805734634399e-01" purity="2.4351829290390015e-01" nType="0">
            <Node pos="l" depth="3" NCoef="0" IVar="-1" Cut="0.0000000000000000e+00" cType="1" res="4.0726158767938614e-03" rms="2.6679918169975281e-01" purity="1.9809848070144653e-01" nType="-99"/>
            <Node pos="r" depth="3" NCoef="0" IVar="-1" Cut="0.0000000000000000e+00" cType="1" res="1.5004995279014111e-02" rms="3.3671537041664124e-01" purity="5.1294511556625366e-01" nType="-99"/>
          </Node>
        </Node>
        <Node pos="r" depth="1" NCoef="0" IVar="0" Cut="1.3098735351562500e+03" cType="1" res="-6.0819652862846851e-03" rms="2.9543241858482361e-01" purity="7.0121145248413086e-01" nType="0">
          <Node pos="l" depth="2" NCoef="0" IVar="4" Cut="1.3208969116210938e+02" cType="1" res="-2.3460246622562408e-02" rms="3.4436821937561035e-01" purity="2.5279754400253296e-01" nType="0">
            <Node pos="l" depth="3" NCoef="0" IVar="-1" Cut="0.0000000000000000e+00" cType="1" res="-1.3215289451181889e-02" rms="3.1254473328590393e-01" purity="1.9494244456291199e-01" nType="-99"/>
            <Node pos="r" depth="3" NCoef="0" IVar="-1" Cut="0.0000000000000000e+00" cType="1" res="-2.4085268378257751e-02" rms="3.9494031667709351e-01" purity="3.5732945799827576e-01" nType="-99"/>
          </Node>
          <Node pos="r" depth="2" NCoef="0" IVar="1" Cut="6.0725551098585129e-02" cType="1" res="-5.8376979723107070e-05" rms="2.7620118856430054e-01" purity="8.5663884878158569e-01" nType="0">
            <Node pos="l" depth="3" NCoef="0" IVar="-1" Cut="0.0000000000000000e+00" cType="1" res="-1.0559285059571266e-02" rms="3.4381264448165894e-01" purity="7.0744973421096802e-01" nType="-99"/>
            <Node pos="r" depth="3" NCoef="0" IVar="-1" Cut="0.0000000000000000e+00" cType="1" res="3.6252636928111315e-03" rms="2.6012432575225830e-01" purity="8.8718938827514648e-01" nType="-99"/>
          </Node>
        </Node>
      </Node>
    </BinaryTree>
    <BinaryTree type="DecisionTree" boostWeight="1.0000000000000000e+00" itree="453">
      <Node pos="s" depth="0" NCoef="0" IVar="11" Cut="1.4181584119796753e+00" cType="1" res="1.3036727905273438e-03" rms="2.8549772500991821e-01" purity="4.9973970651626587e-01" nType="0">
        <Node pos="l" depth="1" NCoef="0" IVar="9" Cut="-9.3340748548507690e-01" cType="1" res="1.8795310461428016e-04" rms="2.8487870097160339e-01" purity="4.9073633551597595e-01" nType="0">
          <Node pos="l" depth="2" NCoef="0" IVar="7" Cut="4.1974419355392456e-01" cType="1" res="8.9478138834238052e-03" rms="2.8550526499748230e-01" purity="3.5124459862709045e-01" nType="0">
            <Node pos="l" depth="3" NCoef="0" IVar="-1" Cut="0.0000000000000000e+00" cType="1" res="1.6321636736392975e-02" rms="2.9842206835746765e-01" purity="4.0507581830024719e-01" nType="-99"/>
            <Node pos="r" depth="3" NCoef="0" IVar="-1" Cut="0.0000000000000000e+00" cType="1" res="-8.7759243324398994e-03" rms="2.5001880526542664e-01" purity="2.1769028902053833e-01" nType="-99"/>
          </Node>
          <Node pos="r" depth="2" NCoef="0" IVar="3" Cut="1.4802485656738281e+02" cType="1" res="-1.9389671506360173e-03" rms="2.8468570113182068e-01" purity="5.2460533380508423e-01" nType="0">
            <Node pos="l" depth="3" NCoef="0" IVar="-1" Cut="0.0000000000000000e+00" cType="1" res="-3.0243793502449989e-02" rms="2.1939088404178619e-01" purity="1.1647649854421616e-01" nType="-99"/>
            <Node pos="r" depth="3" NCoef="0" IVar="-1" Cut="0.0000000000000000e+00" cType="1" res="1.4106063172221184e-03" rms="2.9574689269065857e-01" purity="6.0497379302978516e-01" nType="-99"/>
          </Node>
        </Node>
        <Node pos="r" depth="1" NCoef="0" IVar="8" Cut="1.3768346607685089e-01" cType="1" res="1.8481623381376266e-02" rms="2.9433116316795349e-01" purity="6.3835799694061279e-01" nType="0">
          <Node pos="l" depth="2" NCoef="0" IVar="-1" Cut="0.0000000000000000e+00" cType="1" res="1.6031380742788315e-02" rms="2.8746888041496277e-01" purity="6.4255595207214355e-01" nType="-99"/>
          <Node pos="r" depth="2" NCoef="0" IVar="-1" Cut="0.0000000000000000e+00" cType="1" res="2.1534739062190056e-02" rms="3.0100741982460022e-01" purity="6.3415122032165527e-01" nType="-99"/>
        </Node>
      </Node>
    </BinaryTree>
    <BinaryTree type="DecisionTree" boostWeight="1.0000000000000000e+00" itree="454">
      <Node pos="s" depth="0" NCoef="0" IVar="0" Cut="1.3948308105468750e+03" cType="1" res="2.3478821385651827e-03" rms="2.8643667697906494e-01" purity="5.0188231468200684e-01" nType="0">
        <Node pos="l" depth="1" NCoef="0" IVar="0" Cut="9.9829199218750000e+02" cType="1" res="7.7200457453727722e-03" rms="2.8969326615333557e-01" purity="1.9199410080909729e-01" nType="0">
          <Node pos="l" depth="2" NCoef="0" IVar="8" Cut="-1.3429059088230133e-01" cType="1" res="-1.0294056497514248e-02" rms="1.3068607449531555e-01" purity="1.8485797569155693e-02" nType="0">
            <Node pos="l" depth="3" NCoef="0" IVar="-1" Cut="0.0000000000000000e+00" cType="1" res="-1.9908530637621880e-02" rms="1.3925987482070923e-01" purity="2.1478164941072464e-02" nType="-99"/>
            <Node pos="r" depth="3" NCoef="0" IVar="-1" Cut="0.0000000000000000e+00" cType="1" res="-5.4219067096710205e-02" rms="1.2197630852460861e-01" purity="1.5710443258285522e-02" nType="-99"/>
          </Node>
          <Node pos="r" depth="2" NCoef="0" IVar="8" Cut="-6.6649723052978516e-01" cType="1" res="1.1484817601740360e-02" rms="3.1274557113647461e-01" purity="2.2825564444065094e-01" nType="0">
            <Node pos="l" depth="3" NCoef="0" IVar="-1" Cut="0.0000000000000000e+00" cType="1" res="-3.4855564590543509e-03" rms="2.7706560492515564e-01" purity="1.5379071235656738e-01" nType="-99"/>
            <Node pos="r" depth="3" NCoef="0" IVar="-1" Cut="0.0000000000000000e+00" cType="1" res="1.6841575503349304e-02" rms="3.2620945572853088e-01" purity="2.5911474227905273e-01" nType="-99"/>
          </Node>
        </Node>
        <Node pos="r" depth="1" NCoef="0" IVar="11" Cut="1.1422461271286011e+00" cType="1" res="-1.7842652741819620e-03" rms="2.8383716940879822e-01" purity="7.4024134874343872e-01" nType="0">
          <Node pos="l" depth="2" NCoef="0" IVar="1" Cut="6.0423340648412704e-02" cType="1" res="-3.7117598112672567e-03" rms="2.8382474184036255e-01" purity="7.3037600517272949e-01" nType="0">
            <Node pos="l" depth="3" NCoef="0" IVar="-1" Cut="0.0000000000000000e+00" cType="1" res="-9.4419466331601143e-03" rms="3.2962343096733093e-01" purity="4.9174913763999939e-01" nType="-99"/>
            <Node pos="r" depth="3" NCoef="0" IVar="-1" Cut="0.0000000000000000e+00" cType="1" res="1.7982912249863148e-03" rms="2.4603375792503357e-01" purity="8.9997321367263794e-01" nType="-99"/>
          </Node>
          <Node pos="r" depth="2" NCoef="0" IVar="0" Cut="1.7839538574218750e+03" cType="1" res="1.3192990794777870e-02" rms="2.8348761796951294e-01" purity="8.1689816713333130e-01" nType="0">
            <Node pos="l" depth="3" NCoef="0" IVar="-1" Cut="0.0000000000000000e+00" cType="1" res="2.6836091652512550e-02" rms="3.3171322941780090e-01" purity="7.3173439502716064e-01" nType="-99"/>
            <Node pos="r" depth="3" NCoef="0" IVar="-1" Cut="0.0000000000000000e+00" cType="1" res="-2.2936896421015263e-03" rms="2.3115977644920349e-01" purity="8.9292049407958984e-01" nType="-99"/>
          </Node>
        </Node>
      </Node>
    </BinaryTree>
    <BinaryTree type="DecisionTree" boostWeight="1.0000000000000000e+00" itree="455">
      <Node pos="s" depth="0" NCoef="0" IVar="10" Cut="-2.0000209808349609e+00" cType="1" res="-3.4245941787958145e-04" rms="2.8393733501434326e-01" purity="5.0000101327896118e-01" nType="0">
        <Node pos="l" depth="1" NCoef="0" IVar="-1" Cut="0.0000000000000000e+00" cType="1" res="2.5008605793118477e-02" rms="3.0068457126617432e-01" purity="2.8337249159812927e-01" nType="-99"/>
        <Node pos="r" depth="1" NCoef="0" IVar="1" Cut="4.0281929075717926e-02" cType="1" res="-1.3773289974778891e-03" rms="2.8300574421882629e-01" purity="5.1120513677597046e-01" nType="0">
          <Node pos="l" depth="2" NCoef="0" IVar="4" Cut="1.3372694396972656e+02" cType="1" res="3.1298319809138775e-03" rms="2.6844218373298645e-01" purity="2.1598650515079498e-01" nType="0">
            <Node pos="l" depth="3" NCoef="0" IVar="-1" Cut="0.0000000000000000e+00" cType="1" res="-1.0115527547895908e-02" rms="2.1078397333621979e-01" purity="6.9266527891159058e-02" nType="-99"/>
            <Node pos="r" depth="3" NCoef="0" IVar="-1" Cut="0.0000000000000000e+00" cType="1" res="1.1628401465713978e-02" rms="3.2419043779373169e-01" purity="3.9225617051124573e-01" nType="-99"/>
          </Node>
          <Node pos="r" depth="2" NCoef="0" IVar="9" Cut="-1.4653998613357544e+00" cType="1" res="-4.3218634091317654e-03" rms="2.9209074378013611e-01" purity="7.0407181978225708e-01" nType="0">
            <Node pos="l" depth="3" NCoef="0" IVar="-1" Cut="0.0000000000000000e+00" cType="1" res="-2.9848843812942505e-02" rms="3.2342350482940674e-01" purity="3.8327619433403015e-01" nType="-99"/>
            <Node pos="r" depth="3" NCoef="0" IVar="-1" Cut="0.0000000000000000e+00" cType="1" res="-3.1086148228496313e-03" rms="2.9013380408287048e-01" purity="7.2220402956008911e-01" nType="-99"/>
          </Node>
        </Node>
      </Node>
    </BinaryTree>
    <BinaryTree type="DecisionTree" boostWeight="1.0000000000000000e+00" itree="456">
      <Node pos="s" depth="0" NCoef="0" IVar="9" Cut="1.4665900468826294e+00" cType="1" res="-3.8616984966211021e-04" rms="2.8650054335594177e-01" purity="4.9697014689445496e-01" nType="0">
        <Node pos="l" depth="1" NCoef="0" IVar="8" Cut="9.3329524993896484e-01" cType="1" res="1.0132283205166459e-03" rms="2.8908130526542664e-01" purity="5.2543216943740845e-01" nType="0">
          <Node pos="l" depth="2" NCoef="0" IVar="9" Cut="-1.9871786832809448e+00" cType="1" res="-4.4642991269938648e-04" rms="2.9137846827507019e-01" purity="5.6386005878448486e-01" nType="0">
            <Node pos="l" depth="3" NCoef="0" IVar="-1" Cut="0.0000000000000000e+00" cType="1" res="-3.0037177726626396e-02" rms="2.0165978372097015e-01" purity="1.2631009519100189e-01" nType="-99"/>
            <Node pos="r" depth="3" NCoef="0" IVar="-1" Cut="0.0000000000000000e+00" cType="1" res="1.6755644173827022e-04" rms="2.9409286379814148e-01" purity="5.7967913150787354e-01" nType="-99"/>
          </Node>
          <Node pos="r" depth="2" NCoef="0" IVar="10" Cut="1.1991145610809326e+00" cType="1" res="8.6517101153731346e-03" rms="2.7662375569343567e-01" purity="3.2433697581291199e-01" nType="0">
            <Node pos="l" depth="3" NCoef="0" IVar="-1" Cut="0.0000000000000000e+00" cType="1" res="1.6631403937935829e-02" rms="2.8328621387481689e-01" purity="3.4256470203399658e-01" nType="-99"/>
            <Node pos="r" depth="3" NCoef="0" IVar="-1" Cut="0.0000000000000000e+00" cType="1" res="-8.6231473833322525e-03" rms="2.4943664669990540e-01" purity="2.5584697723388672e-01" nType="-99"/>
          </Node>
        </Node>
        <Node pos="r" depth="1" NCoef="0" IVar="5" Cut="7.2231750488281250e+01" cType="1" res="-1.5220060944557190e-02" rms="2.5709095597267151e-01" purity="1.9526664912700653e-01" nType="0">
          <Node pos="l" depth="2" NCoef="0" IVar="5" Cut="5.8467678070068359e+01" cType="1" res="-4.8778122290968895e-03" rms="2.1657815575599670e-01" purity="7.5145840644836426e-02" nType="0">
            <Node pos="l" depth="3" NCoef="0" IVar="-1" Cut="0.0000000000000000e+00" cType="1" res="-5.4566669277846813e-03" rms="1.8891203403472900e-01" purity="5.5653620511293411e-02" nType="-99"/>
            <Node pos="r" depth="3" NCoef="0" IVar="-1" Cut="0.0000000000000000e+00" cType="1" res="-1.3174424879252911e-02" rms="2.4064517021179199e-01" purity="9.4289191067218781e-02" nType="-99"/>
          </Node>
          <Node pos="r" depth="2" NCoef="0" IVar="-1" Cut="0.0000000000000000e+00" cType="1" res="-2.9708303511142731e-02" rms="3.0658200383186340e-01" purity="3.7233281135559082e-01" nType="-99"/>
        </Node>
      </Node>
    </BinaryTree>
    <BinaryTree type="DecisionTree" boostWeight="1.0000000000000000e+00" itree="457">
      <Node pos="s" depth="0" NCoef="0" IVar="8" Cut="-1.4666064977645874e+00" cType="1" res="1.8550220411270857e-03" rms="2.8549584746360779e-01" purity="4.9489262700080872e-01" nType="0">
        <Node pos="l" depth="1" NCoef="0" IVar="11" Cut="-2.4476957321166992e+00" cType="1" res="1.3890886679291725e-02" rms="2.3919270932674408e-01" purity="1.5380838513374329e-01" nType="0">
          <Node pos="l" depth="2" NCoef="0" IVar="-1" Cut="0.0000000000000000e+00" cType="1" res="1.1155641637742519e-02" rms="1.8169680237770081e-01" purity="4.8290960490703583e-02" nType="-99"/>
          <Node pos="r" depth="2" NCoef="0" IVar="-1" Cut="0.0000000000000000e+00" cType="1" res="3.4065641462802887e-02" rms="3.2137483358383179e-01" purity="3.5733622312545776e-01" nType="-99"/>
        </Node>
        <Node pos="r" depth="1" NCoef="0" IVar="8" Cut="-8.5709947347640991e-01" cType="1" res="8.6956174345687032e-04" rms="2.8893637657165527e-01" purity="5.2281957864761353e-01" nType="0">
          <Node pos="l" depth="2" NCoef="0" IVar="5" Cut="9.1780364990234375e+01" cType="1" res="-9.0651474893093109e-03" rms="2.8373685479164124e-01" purity="4.1515636444091797e-01" nType="0">
            <Node pos="l" depth="3" NCoef="0" IVar="-1" Cut="0.0000000000000000e+00" cType="1" res="-1.9788229838013649e-02" rms="2.8126129508018494e-01" purity="2.1398477256298065e-01" nType="-99"/>
            <Node pos="r" depth="3" NCoef="0" IVar="-1" Cut="0.0000000000000000e+00" cType="1" res="7.8112236224114895e-03" rms="2.8756088018417358e-01" purity="7.8299599885940552e-01" nType="-99"/>
          </Node>
          <Node pos="r" depth="2" NCoef="0" IVar="8" Cut="1.8775251507759094e-01" cType="1" res="2.2596402559429407e-03" rms="2.8962928056716919e-01" purity="5.3788393735885620e-01" nType="0">
            <Node pos="l" depth="3" NCoef="0" IVar="-1" Cut="0.0000000000000000e+00" cType="1" res="7.8970538452267647e-03" rms="2.9869681596755981e-01" purity="6.1323362588882446e-01" nType="-99"/>
            <Node pos="r" depth="3" NCoef="0" IVar="-1" Cut="0.0000000000000000e+00" cType="1" res="-2.3308265954256058e-03" rms="2.8107729554176331e-01" purity="4.6946653723716736e-01" nType="-99"/>
          </Node>
        </Node>
      </Node>
    </BinaryTree>
    <BinaryTree type="DecisionTree" boostWeight="1.0000000000000000e+00" itree="458">
      <Node pos="s" depth="0" NCoef="0" IVar="3" Cut="2.3978802490234375e+02" cType="1" res="3.7593273445963860e-03" rms="2.8756073117256165e-01" purity="5.0834846496582031e-01" nType="0">
        <Node pos="l" depth="1" NCoef="0" IVar="1" Cut="1.0449436306953430e-01" cType="1" res="7.8395958989858627e-03" rms="2.8873857855796814e-01" purity="3.7938314676284790e-01" nType="0">
          <Node pos="l" depth="2" NCoef="0" IVar="8" Cut="3.9997813105583191e-01" cType="1" res="5.2270093001425266e-03" rms="2.8353005647659302e-01" purity="2.6072794198989868e-01" nType="0">
            <Node pos="l" depth="3" NCoef="0" IVar="-1" Cut="0.0000000000000000e+00" cType="1" res="1.1405770201236010e-03" rms="2.8807765245437622e-01" purity="2.6753020286560059e-01" nType="-99"/>
            <Node pos="r" depth="3" NCoef="0" IVar="-1" Cut="0.0000000000000000e+00" cType="1" res="1.6017394140362740e-02" rms="2.7584969997406006e-01" purity="2.4969074130058289e-01" nType="-99"/>
          </Node>
          <Node pos="r" depth="2" NCoef="0" IVar="-1" Cut="0.0000000000000000e+00" cType="1" res="1.7983760684728622e-02" rms="3.0518499016761780e-01" purity="7.7210271358489990e-01" nType="-99"/>
        </Node>
        <Node pos="r" depth="1" NCoef="0" IVar="4" Cut="2.6190405273437500e+02" cType="1" res="-2.0796856842935085e-03" rms="2.8576543927192688e-01" purity="6.9290250539779663e-01" nType="0">
          <Node pos="l" depth="2" NCoef="0" IVar="5" Cut="1.0768580627441406e+02" cType="1" res="-5.4642106406390667e-03" rms="2.9781249165534973e-01" purity="6.3618004322052002e-01" nType="0">
            <Node pos="l" depth="3" NCoef="0" IVar="-1" Cut="0.0000000000000000e+00" cType="1" res="-9.9459821358323097e-03" rms="3.3305746316909790e-01" purity="4.7849279642105103e-01" nType="-99"/>
            <Node pos="r" depth="3" NCoef="0" IVar="-1" Cut="0.0000000000000000e+00" cType="1" res="6.5065808594226837e-03" rms="2.2828970849514008e-01" purity="8.9464718103408813e-01" nType="-99"/>
          </Node>
          <Node pos="r" depth="2" NCoef="0" IVar="4" Cut="3.2563113403320312e+02" cType="1" res="8.1581985577940941e-03" rms="2.4547117948532104e-01" purity="8.6448287963867188e-01" nType="0">
            <Node pos="l" depth="3" NCoef="0" IVar="-1" Cut="0.0000000000000000e+00" cType="1" res="1.9045896828174591e-02" rms="2.5056251883506775e-01" purity="8.5267329216003418e-01" nType="-99"/>
            <Node pos="r" depth="3" NCoef="0" IVar="-1" Cut="0.0000000000000000e+00" cType="1" res="-2.9493600595742464e-03" rms="2.3437456786632538e-01" purity="8.8868802785873413e-01" nType="-99"/>
          </Node>
        </Node>
      </Node>
    </BinaryTree>
    <BinaryTree type="DecisionTree" boostWeight="1.0000000000000000e+00" itree="459">
      <Node pos="s" depth="0" NCoef="0" IVar="11" Cut="-5.1435339450836182e-01" cType="1" res="4.4315954437479377e-04" rms="2.8593027591705322e-01" purity="5.0338709354400635e-01" nType="0">
        <Node pos="l" depth="1" NCoef="0" IVar="2" Cut="4.5778317260742188e+02" cType="1" res="3.7279878742992878e-03" rms="2.9114052653312683e-01" purity="3.6915832757949829e-01" nType="0">
          <Node pos="l" depth="2" NCoef="0" IVar="5" Cut="6.2005702972412109e+01" cType="1" res="1.0389946401119232e-03" rms="2.8593024611473083e-01" purity="3.3533963561058044e-01" nType="0">
            <Node pos="l" depth="3" NCoef="0" IVar="-1" Cut="0.0000000000000000e+00" cType="1" res="-9.0385675430297852e-03" rms="2.5387874245643616e-01" purity="1.1468704044818878e-01" nType="-99"/>
            <Node pos="r" depth="3" NCoef="0" IVar="-1" Cut="0.0000000000000000e+00" cType="1" res="5.6970114819705486e-03" rms="3.0460837483406067e-01" purity="4.7663772106170654e-01" nType="-99"/>
          </Node>
          <Node pos="r" depth="2" NCoef="0" IVar="4" Cut="1.3571638488769531e+02" cType="1" res="1.2016968801617622e-02" rms="3.0649662017822266e-01" purity="4.7340649366378784e-01" nType="0">
            <Node pos="l" depth="3" NCoef="0" IVar="-1" Cut="0.0000000000000000e+00" cType="1" res="-1.3405668549239635e-02" rms="2.5945952534675598e-01" purity="1.3434050977230072e-01" nType="-99"/>
            <Node pos="r" depth="3" NCoef="0" IVar="-1" Cut="0.0000000000000000e+00" cType="1" res="2.1088015288114548e-02" rms="3.2725378870964050e-01" purity="6.4562505483627319e-01" nType="-99"/>
          </Node>
        </Node>
        <Node pos="r" depth="1" NCoef="0" IVar="8" Cut="6.6516578197479248e-01" cType="1" res="-5.7364646345376968e-03" rms="2.7575582265853882e-01" purity="7.5590664148330688e-01" nType="0">
          <Node pos="l" depth="2" NCoef="0" IVar="10" Cut="-1.1993094682693481e+00" cType="1" res="-1.3157528592273593e-03" rms="2.6855966448783875e-01" purity="7.8996682167053223e-01" nType="0">
            <Node pos="l" depth="3" NCoef="0" IVar="-1" Cut="0.0000000000000000e+00" cType="1" res="-2.7922550216317177e-02" rms="2.9024627804756165e-01" purity="6.9659823179244995e-01" nType="-99"/>
            <Node pos="r" depth="3" NCoef="0" IVar="-1" Cut="0.0000000000000000e+00" cType="1" res="2.9952989425510168e-03" rms="2.6503247022628784e-01" purity="8.0376237630844116e-01" nType="-99"/>
          </Node>
          <Node pos="r" depth="2" NCoef="0" IVar="5" Cut="8.7957756042480469e+01" cType="1" res="-2.0880252122879028e-02" rms="2.9860195517539978e-01" purity="6.3922822475433350e-01" nType="0">
            <Node pos="l" depth="3" NCoef="0" IVar="-1" Cut="0.0000000000000000e+00" cType="1" res="-4.3348774313926697e-02" rms="3.3178296685218811e-01" purity="3.5009315609931946e-01" nType="-99"/>
            <Node pos="r" depth="3" NCoef="0" IVar="-1" Cut="0.0000000000000000e+00" cType="1" res="-4.3584029190242290e-03" rms="2.7537512779235840e-01" purity="8.1221240758895874e-01" nType="-99"/>
          </Node>
        </Node>
      </Node>
    </BinaryTree>
    <BinaryTree type="DecisionTree" boostWeight="1.0000000000000000e+00" itree="460">
      <Node pos="s" depth="0" NCoef="0" IVar="10" Cut="6.6661733388900757e-01" cType="1" res="3.0035553500056267e-03" rms="2.8400796651840210e-01" purity="5.0450223684310913e-01" nType="0">
        <Node pos="l" depth="1" NCoef="0" IVar="1" Cut="1.0438662767410278e-01" cType="1" res="5.8510294184088707e-03" rms="2.8267854452133179e-01" purity="5.3020322322845459e-01" nType="0">
          <Node pos="l" depth="2" NCoef="0" IVar="1" Cut="3.4801289439201355e-02" cType="1" res="9.3415090814232826e-03" rms="2.9287341237068176e-01" purity="4.0305414795875549e-01" nType="0">
            <Node pos="l" depth="3" NCoef="0" IVar="-1" Cut="0.0000000000000000e+00" cType="1" res="4.3559973128139973e-03" rms="2.6430833339691162e-01" purity="2.0896305143833160e-01" nType="-99"/>
            <Node pos="r" depth="3" NCoef="0" IVar="-1" Cut="0.0000000000000000e+00" cType="1" res="1.4950192533433437e-02" rms="3.1808698177337646e-01" purity="5.9185284376144409e-01" nType="-99"/>
          </Node>
          <Node pos="r" depth="2" NCoef="0" IVar="1" Cut="1.3619717955589294e-01" cType="1" res="-2.7908270712941885e-03" rms="2.5548952817916870e-01" purity="8.4500336647033691e-01" nType="0">
            <Node pos="l" depth="3" NCoef="0" IVar="-1" Cut="0.0000000000000000e+00" cType="1" res="-1.8606802448630333e-02" rms="2.9280319809913635e-01" purity="7.6553100347518921e-01" nType="-99"/>
            <Node pos="r" depth="3" NCoef="0" IVar="-1" Cut="0.0000000000000000e+00" cType="1" res="7.4989190325140953e-03" rms="2.3324632644653320e-01" purity="8.8665664196014404e-01" nType="-99"/>
          </Node>
        </Node>
        <Node pos="r" depth="1" NCoef="0" IVar="1" Cut="1.1454338580369949e-01" cType="1" res="-3.7420375738292933e-03" rms="2.8702002763748169e-01" purity="4.4361752271652222e-01" nType="0">
          <Node pos="l" depth="2" NCoef="0" IVar="1" Cut="3.8182247430086136e-02" cType="1" res="-8.4802405908703804e-03" rms="2.8850603103637695e-01" purity="3.3027225732803345e-01" nType="0">
            <Node pos="l" depth="3" NCoef="0" IVar="-1" Cut="0.0000000000000000e+00" cType="1" res="-9.5244986005127430e-04" rms="2.5010812282562256e-01" purity="1.5985192358493805e-01" nType="-99"/>
            <Node pos="r" depth="3" NCoef="0" IVar="-1" Cut="0.0000000000000000e+00" cType="1" res="-1.6045073047280312e-02" rms="3.2583361864089966e-01" purity="5.2043628692626953e-01" nType="-99"/>
          </Node>
          <Node pos="r" depth="2" NCoef="0" IVar="-1" Cut="0.0000000000000000e+00" cType="1" res="1.5784131363034248e-02" rms="2.8139850497245789e-01" purity="8.2366967201232910e-01" nType="-99"/>
        </Node>
      </Node>
    </BinaryTree>
    <BinaryTree type="DecisionTree" boostWeight="1.0000000000000000e+00" itree="461">
      <Node pos="s" depth="0" NCoef="0" IVar="10" Cut="-1.9999899864196777e+00" cType="1" res="1.3525240356102586e-03" rms="2.8872948884963989e-01" purity="5.0289219617843628e-01" nType="0">
        <Node pos="l" depth="1" NCoef="0" IVar="-1" Cut="0.0000000000000000e+00" cType="1" res="-2.1143786609172821e-02" rms="2.8380566835403442e-01" purity="2.3494660854339600e-01" nType="-99"/>
        <Node pos="r" depth="1" NCoef="0" IVar="10" Cut="1.8855885267257690e+00" cType="1" res="2.2731795907020569e-03" rms="2.8894394636154175e-01" purity="5.1635128259658813e-01" nType="0">
          <Node pos="l" depth="2" NCoef="0" IVar="7" Cut="6.7609512805938721e-01" cType="1" res="1.5457944246008992e-03" rms="2.8931513428688049e-01" purity="5.3234159946441650e-01" nType="0">
            <Node pos="l" depth="3" NCoef="0" IVar="-1" Cut="0.0000000000000000e+00" cType="1" res="1.5426319441758096e-04" rms="2.9329869151115417e-01" purity="5.8102577924728394e-01" nType="-99"/>
            <Node pos="r" depth="3" NCoef="0" IVar="-1" Cut="0.0000000000000000e+00" cType="1" res="8.7149562314152718e-03" rms="2.7424517273902893e-01" purity="3.5489904880523682e-01" nType="-99"/>
          </Node>
          <Node pos="r" depth="2" NCoef="0" IVar="7" Cut="-2.3886578157544136e-02" cType="1" res="1.3159141875803471e-02" rms="2.8310722112655640e-01" purity="2.7704223990440369e-01" nType="0">
            <Node pos="l" depth="3" NCoef="0" IVar="-1" Cut="0.0000000000000000e+00" cType="1" res="-2.5872527621686459e-03" rms="2.5973132252693176e-01" purity="2.3957937955856323e-01" nType="-99"/>
            <Node pos="r" depth="3" NCoef="0" IVar="-1" Cut="0.0000000000000000e+00" cType="1" res="2.8242062777280807e-02" rms="2.9912045598030090e-01" purity="3.0544838309288025e-01" nType="-99"/>
          </Node>
        </Node>
      </Node>
    </BinaryTree>
    <BinaryTree type="DecisionTree" boostWeight="1.0000000000000000e+00" itree="462">
      <Node pos="s" depth="0" NCoef="0" IVar="1" Cut="6.2752597033977509e-02" cType="1" res="-6.2909710686653852e-04" rms="2.8456136584281921e-01" purity="4.9887034296989441e-01" nType="0">
        <Node pos="l" depth="1" NCoef="0" IVar="1" Cut="5.6775923818349838e-02" cType="1" res="2.7988506481051445e-03" rms="2.8430968523025513e-01" purity="2.7522829174995422e-01" nType="0">
          <Node pos="l" depth="2" NCoef="0" IVar="2" Cut="7.1556927490234375e+02" cType="1" res="6.7279656650498509e-04" rms="2.7862891554832458e-01" purity="2.5783166289329529e-01" nType="0">
            <Node pos="l" depth="3" NCoef="0" IVar="-1" Cut="0.0000000000000000e+00" cType="1" res="-8.2018028479069471e-04" rms="2.7418029308319092e-01" purity="2.4506348371505737e-01" nType="-99"/>
            <Node pos="r" depth="3" NCoef="0" IVar="-1" Cut="0.0000000000000000e+00" cType="1" res="1.9687162712216377e-02" rms="3.5113441944122314e-01" purity="4.9819636344909668e-01" nType="-99"/>
          </Node>
          <Node pos="r" depth="2" NCoef="0" IVar="-1" Cut="0.0000000000000000e+00" cType="1" res="3.2967105507850647e-02" rms="3.6122989654541016e-01" purity="5.5196225643157959e-01" nType="-99"/>
        </Node>
        <Node pos="r" depth="1" NCoef="0" IVar="8" Cut="7.8298711776733398e-01" cType="1" res="-4.7194766812026501e-03" rms="2.8480738401412964e-01" purity="7.6573002338409424e-01" nType="0">
          <Node pos="l" depth="2" NCoef="0" IVar="7" Cut="5.4849642515182495e-01" cType="1" res="-1.9826979842036963e-03" rms="2.8000327944755554e-01" purity="7.8122460842132568e-01" nType="0">
            <Node pos="l" depth="3" NCoef="0" IVar="-1" Cut="0.0000000000000000e+00" cType="1" res="7.7417801367118955e-04" rms="2.7721807360649109e-01" purity="7.9532968997955322e-01" nType="-99"/>
            <Node pos="r" depth="3" NCoef="0" IVar="-1" Cut="0.0000000000000000e+00" cType="1" res="-1.6027070581912994e-02" rms="2.9227757453918457e-01" purity="7.1578019857406616e-01" nType="-99"/>
          </Node>
          <Node pos="r" depth="2" NCoef="0" IVar="-1" Cut="0.0000000000000000e+00" cType="1" res="-2.2020991891622543e-02" rms="3.1245049834251404e-01" purity="6.6953712701797485e-01" nType="-99"/>
        </Node>
      </Node>
    </BinaryTree>
    <BinaryTree type="DecisionTree" boostWeight="1.0000000000000000e+00" itree="463">
      <Node pos="s" depth="0" NCoef="0" IVar="7" Cut="6.7609512805938721e-01" cType="1" res="1.0256047826260328e-03" rms="2.8576236963272095e-01" purity="5.0372773408889771e-01" nType="0">
        <Node pos="l" depth="1" NCoef="0" IVar="3" Cut="1.4806938171386719e+02" cType="1" res="2.9712289106100798e-03" rms="2.9318293929100037e-01" purity="5.5679470300674438e-01" nType="0">
          <Node pos="l" depth="2" NCoef="0" IVar="7" Cut="-1.1315215826034546e+00" cType="1" res="1.1616767384111881e-02" rms="2.6015791296958923e-01" purity="1.6366747021675110e-01" nType="0">
            <Node pos="l" depth="3" NCoef="0" IVar="-1" Cut="0.0000000000000000e+00" cType="1" res="-5.7830672711133957e-02" rms="9.3451350927352905e-02" purity="1.4413941651582718e-02" nType="-99"/>
            <Node pos="r" depth="3" NCoef="0" IVar="-1" Cut="0.0000000000000000e+00" cType="1" res="2.2750414907932281e-02" rms="2.8971058130264282e-01" purity="2.0521213114261627e-01" nType="-99"/>
          </Node>
          <Node pos="r" depth="2" NCoef="0" IVar="0" Cut="1.1643416748046875e+03" cType="1" res="1.2835294473916292e-03" rms="2.9917567968368530e-01" purity="6.3353729248046875e-01" nType="0">
            <Node pos="l" depth="3" NCoef="0" IVar="-1" Cut="0.0000000000000000e+00" cType="1" res="-1.6648933291435242e-02" rms="2.6281192898750305e-01" purity="9.9168643355369568e-02" nType="-99"/>
            <Node pos="r" depth="3" NCoef="0" IVar="-1" Cut="0.0000000000000000e+00" cType="1" res="3.2449397258460522e-03" rms="3.0313923954963684e-01" purity="6.9664150476455688e-01" nType="-99"/>
          </Node>
        </Node>
        <Node pos="r" depth="1" NCoef="0" IVar="11" Cut="-1.3434917926788330e+00" cType="1" res="-5.6621930561959743e-03" rms="2.5852504372596741e-01" purity="3.2131773233413696e-01" nType="0">
          <Node pos="l" depth="2" NCoef="0" IVar="5" Cut="7.4580436706542969e+01" cType="1" res="-1.2504165060818195e-02" rms="2.3314192891120911e-01" purity="1.2607981264591217e-01" nType="0">
            <Node pos="l" depth="3" NCoef="0" IVar="-1" Cut="0.0000000000000000e+00" cType="1" res="-1.3033676892518997e-02" rms="1.9978749752044678e-01" purity="6.5122857689857483e-02" nType="-99"/>
            <Node pos="r" depth="3" NCoef="0" IVar="-1" Cut="0.0000000000000000e+00" cType="1" res="-2.9665697365999222e-02" rms="3.0140927433967590e-01" purity="2.8191792964935303e-01" nType="-99"/>
          </Node>
          <Node pos="r" depth="2" NCoef="0" IVar="8" Cut="4.0152549743652344e-01" cType="1" res="4.8872204497456551e-03" rms="2.9307726025581360e-01" purity="6.2234866619110107e-01" nType="0">
            <Node pos="l" depth="3" NCoef="0" IVar="-1" Cut="0.0000000000000000e+00" cType="1" res="-8.1457626074552536e-03" rms="2.9194396734237671e-01" purity="6.2350589036941528e-01" nType="-99"/>
            <Node pos="r" depth="3" NCoef="0" IVar="-1" Cut="0.0000000000000000e+00" cType="1" res="2.3028191179037094e-02" rms="2.9380932450294495e-01" purity="6.2064653635025024e-01" nType="-99"/>
          </Node>
        </Node>
      </Node>
    </BinaryTree>
    <BinaryTree type="DecisionTree" boostWeight="1.0000000000000000e+00" itree="464">
      <Node pos="s" depth="0" NCoef="0" IVar="9" Cut="1.9999856948852539e+00" cType="1" res="-1.0311648948118091e-03" rms="2.8446394205093384e-01" purity="5.0054234266281128e-01" nType="0">
        <Node pos="l" depth="1" NCoef="0" IVar="9" Cut="6.2853699922561646e-01" cType="1" res="-1.7521238187327981e-03" rms="2.8677004575729370e-01" purity="5.1370137929916382e-01" nType="0">
          <Node pos="l" depth="2" NCoef="0" IVar="8" Cut="9.3328803777694702e-01" cType="1" res="6.0896045761182904e-04" rms="2.8810676932334900e-01" purity="5.3628975152969360e-01" nType="0">
            <Node pos="l" depth="3" NCoef="0" IVar="-1" Cut="0.0000000000000000e+00" cType="1" res="-1.9965078681707382e-03" rms="2.8991749882698059e-01" purity="5.7275760173797607e-01" nType="-99"/>
            <Node pos="r" depth="3" NCoef="0" IVar="-1" Cut="0.0000000000000000e+00" cType="1" res="1.7352366819977760e-02" rms="2.7771463990211487e-01" purity="3.3788907527923584e-01" nType="-99"/>
          </Node>
          <Node pos="r" depth="2" NCoef="0" IVar="6" Cut="7.6496147155761719e+01" cType="1" res="-8.6863366886973381e-03" rms="2.8269368410110474e-01" purity="4.4736188650131226e-01" nType="0">
            <Node pos="l" depth="3" NCoef="0" IVar="-1" Cut="0.0000000000000000e+00" cType="1" res="-1.4828557148575783e-02" rms="2.9521885514259338e-01" purity="3.1463035941123962e-01" nType="-99"/>
            <Node pos="r" depth="3" NCoef="0" IVar="-1" Cut="0.0000000000000000e+00" cType="1" res="1.4660041779279709e-02" rms="2.3462454974651337e-01" purity="8.9618474245071411e-01" nType="-99"/>
          </Node>
        </Node>
        <Node pos="r" depth="1" NCoef="0" IVar="-1" Cut="0.0000000000000000e+00" cType="1" res="3.5543482750654221e-02" rms="2.1198405325412750e-01" purity="1.4503581821918488e-01" nType="-99"/>
      </Node>
    </BinaryTree>
    <BinaryTree type="DecisionTree" boostWeight="1.0000000000000000e+00" itree="465">
      <Node pos="s" depth="0" NCoef="0" IVar="7" Cut="-3.9365124702453613e-01" cType="1" res="1.1607166379690170e-03" rms="2.8675982356071472e-01" purity="5.0266444683074951e-01" nType="0">
        <Node pos="l" depth="1" NCoef="0" IVar="9" Cut="-3.9976844191551208e-01" cType="1" res="-7.1215415373444557e-03" rms="2.8204673528671265e-01" purity="4.0866360068321228e-01" nType="0">
          <Node pos="l" depth="2" NCoef="0" IVar="8" Cut="-3.9888221025466919e-01" cType="1" res="-1.4487528242170811e-02" rms="2.8355416655540466e-01" purity="3.7311357259750366e-01" nType="0">
            <Node pos="l" depth="3" NCoef="0" IVar="-1" Cut="0.0000000000000000e+00" cType="1" res="-3.3683157525956631e-03" rms="2.8560662269592285e-01" purity="3.6303141713142395e-01" nType="-99"/>
            <Node pos="r" depth="3" NCoef="0" IVar="-1" Cut="0.0000000000000000e+00" cType="1" res="-2.7601180598139763e-02" rms="2.8168526291847229e-01" purity="3.8069587945938110e-01" nType="-99"/>
          </Node>
          <Node pos="r" depth="2" NCoef="0" IVar="7" Cut="-7.3579090833663940e-01" cType="1" res="-2.0414183381944895e-03" rms="2.8088986873626709e-01" purity="4.3318152427673340e-01" nType="0">
            <Node pos="l" depth="3" NCoef="0" IVar="-1" Cut="0.0000000000000000e+00" cType="1" res="6.3295331783592701e-03" rms="2.7049496769905090e-01" purity="3.2411143183708191e-01" nType="-99"/>
            <Node pos="r" depth="3" NCoef="0" IVar="-1" Cut="0.0000000000000000e+00" cType="1" res="-1.4280708506703377e-02" rms="2.9574304819107056e-01" purity="5.9940457344055176e-01" nType="-99"/>
          </Node>
        </Node>
        <Node pos="r" depth="1" NCoef="0" IVar="10" Cut="6.6652315855026245e-01" cType="1" res="5.0045917741954327e-03" rms="2.8884044289588928e-01" purity="5.4629105329513550e-01" nType="0">
          <Node pos="l" depth="2" NCoef="0" IVar="8" Cut="-9.3312925100326538e-01" cType="1" res="5.1033520139753819e-04" rms="2.8559687733650208e-01" purity="5.6595253944396973e-01" nType="0">
            <Node pos="l" depth="3" NCoef="0" IVar="-1" Cut="0.0000000000000000e+00" cType="1" res="1.5271982178092003e-02" rms="2.7908915281295776e-01" purity="3.2700175046920776e-01" nType="-99"/>
            <Node pos="r" depth="3" NCoef="0" IVar="-1" Cut="0.0000000000000000e+00" cType="1" res="-2.0993649959564209e-03" rms="2.8681695461273193e-01" purity="6.1336529254913330e-01" nType="-99"/>
          </Node>
          <Node pos="r" depth="2" NCoef="0" IVar="10" Cut="1.5807865858078003e+00" cType="1" res="1.4670848846435547e-02" rms="2.9546463489532471e-01" purity="5.0400316715240479e-01" nType="0">
            <Node pos="l" depth="3" NCoef="0" IVar="-1" Cut="0.0000000000000000e+00" cType="1" res="2.4762881919741631e-02" rms="2.9289057850837708e-01" purity="5.6383788585662842e-01" nType="-99"/>
            <Node pos="r" depth="3" NCoef="0" IVar="-1" Cut="0.0000000000000000e+00" cType="1" res="5.1794311730191112e-04" rms="3.0023440718650818e-01" purity="3.7990552186965942e-01" nType="-99"/>
          </Node>
        </Node>
      </Node>
    </BinaryTree>
    <BinaryTree type="DecisionTree" boostWeight="1.0000000000000000e+00" itree="466">
      <Node pos="s" depth="0" NCoef="0" IVar="9" Cut="-1.2000228166580200e+00" cType="1" res="2.3572145437356085e-04" rms="2.8582355380058289e-01" purity="5.0396490097045898e-01" nType="0">
        <Node pos="l" depth="1" NCoef="0" IVar="1" Cut="2.0482951775193214e-02" cType="1" res="1.2707007117569447e-02" rms="2.7280354499816895e-01" purity="2.9956910014152527e-01" nType="0">
          <Node pos="l" depth="2" NCoef="0" IVar="-1" Cut="0.0000000000000000e+00" cType="1" res="-1.4015278778970242e-02" rms="1.8105573952198029e-01" purity="5.4621413350105286e-02" nType="-99"/>
          <Node pos="r" depth="2" NCoef="0" IVar="9" Cut="-1.5810384750366211e+00" cType="1" res="2.1993830800056458e-02" rms="3.1010368466377258e-01" purity="4.2893585562705994e-01" nType="0">
            <Node pos="l" depth="3" NCoef="0" IVar="-1" Cut="0.0000000000000000e+00" cType="1" res="8.4702670574188232e-03" rms="2.9194346070289612e-01" purity="2.9795366525650024e-01" nType="-99"/>
            <Node pos="r" depth="3" NCoef="0" IVar="-1" Cut="0.0000000000000000e+00" cType="1" res="3.1999137252569199e-02" rms="3.2731658220291138e-01" purity="5.6539177894592285e-01" nType="-99"/>
          </Node>
        </Node>
        <Node pos="r" depth="1" NCoef="0" IVar="7" Cut="-6.5975737571716309e-01" cType="1" res="-1.7294846475124359e-03" rms="2.8777220845222473e-01" purity="5.3617322444915771e-01" nType="0">
          <Node pos="l" depth="2" NCoef="0" IVar="5" Cut="8.0907905578613281e+01" cType="1" res="4.7124237753450871e-03" rms="2.8042125701904297e-01" purity="3.8310065865516663e-01" nType="0">
            <Node pos="l" depth="3" NCoef="0" IVar="-1" Cut="0.0000000000000000e+00" cType="1" res="-3.6811707541346550e-03" rms="2.6138386130332947e-01" purity="1.5047867596149445e-01" nType="-99"/>
            <Node pos="r" depth="3" NCoef="0" IVar="-1" Cut="0.0000000000000000e+00" cType="1" res="1.4740221202373505e-02" rms="3.0260053277015686e-01" purity="6.7805731296539307e-01" nType="-99"/>
          </Node>
          <Node pos="r" depth="2" NCoef="0" IVar="7" Cut="-7.8844453673809767e-04" cType="1" res="-3.5039763897657394e-03" rms="2.8973919153213501e-01" purity="5.7833868265151978e-01" nType="0">
            <Node pos="l" depth="3" NCoef="0" IVar="-1" Cut="0.0000000000000000e+00" cType="1" res="-1.2392895296216011e-02" rms="2.9395076632499695e-01" purity="6.6499656438827515e-01" nType="-99"/>
            <Node pos="r" depth="3" NCoef="0" IVar="-1" Cut="0.0000000000000000e+00" cType="1" res="5.5067334324121475e-04" rms="2.8729856014251709e-01" purity="5.3024172782897949e-01" nType="-99"/>
          </Node>
        </Node>
      </Node>
    </BinaryTree>
    <BinaryTree type="DecisionTree" boostWeight="1.0000000000000000e+00" itree="467">
      <Node pos="s" depth="0" NCoef="0" IVar="9" Cut="-1.7333518266677856e+00" cType="1" res="2.8161404770798981e-04" rms="2.8481796383857727e-01" purity="4.9956205487251282e-01" nType="0">
        <Node pos="l" depth="1" NCoef="0" IVar="10" Cut="-4.0036460757255554e-01" cType="1" res="1.4242647215723991e-02" rms="2.5471821427345276e-01" purity="1.6672216355800629e-01" nType="0">
          <Node pos="l" depth="2" NCoef="0" IVar="-1" Cut="0.0000000000000000e+00" cType="1" res="4.5793503522872925e-02" rms="2.7683874964714050e-01" purity="1.7552249133586884e-01" nType="-99"/>
          <Node pos="r" depth="2" NCoef="0" IVar="-1" Cut="0.0000000000000000e+00" cType="1" res="-1.0936310281977057e-03" rms="2.3198097944259644e-01" purity="1.5878818929195404e-01" nType="-99"/>
        </Node>
        <Node pos="r" depth="1" NCoef="0" IVar="3" Cut="2.4073466491699219e+02" cType="1" res="-5.9481675270944834e-04" rms="2.8657940030097961e-01" purity="5.2045673131942749e-01" nType="0">
          <Node pos="l" depth="2" NCoef="0" IVar="4" Cut="1.5899368286132812e+02" cType="1" res="-3.3743390813469887e-03" rms="2.8724095225334167e-01" purity="3.8028079271316528e-01" nType="0">
            <Node pos="l" depth="3" NCoef="0" IVar="-1" Cut="0.0000000000000000e+00" cType="1" res="-2.8703684802167118e-04" rms="2.8056800365447998e-01" purity="2.6293811202049255e-01" nType="-99"/>
            <Node pos="r" depth="3" NCoef="0" IVar="-1" Cut="0.0000000000000000e+00" cType="1" res="-1.2423544190824032e-02" rms="3.0356639623641968e-01" purity="6.8179190158843994e-01" nType="-99"/>
          </Node>
          <Node pos="r" depth="2" NCoef="0" IVar="10" Cut="1.4665141105651855e+00" cType="1" res="3.2343636266887188e-03" rms="2.8562122583389282e-01" purity="7.1356868743896484e-01" nType="0">
            <Node pos="l" depth="3" NCoef="0" IVar="-1" Cut="0.0000000000000000e+00" cType="1" res="3.7554962909780443e-04" rms="2.8159809112548828e-01" purity="7.2887969017028809e-01" nType="-99"/>
            <Node pos="r" depth="3" NCoef="0" IVar="-1" Cut="0.0000000000000000e+00" cType="1" res="2.9278161004185677e-02" rms="3.1921395659446716e-01" purity="5.7176280021667480e-01" nType="-99"/>
          </Node>
        </Node>
      </Node>
    </BinaryTree>
    <BinaryTree type="DecisionTree" boostWeight="1.0000000000000000e+00" itree="468">
      <Node pos="s" depth="0" NCoef="0" IVar="10" Cut="-2.2666592597961426e+00" cType="1" res="-9.9434098228812218e-04" rms="2.8530997037887573e-01" purity="5.0305634737014771e-01" nType="0">
        <Node pos="l" depth="1" NCoef="0" IVar="-1" Cut="0.0000000000000000e+00" cType="1" res="2.4568961933255196e-02" rms="2.9908370971679688e-01" purity="2.2850218415260315e-01" nType="-99"/>
        <Node pos="r" depth="1" NCoef="0" IVar="7" Cut="-9.0005987882614136e-01" cType="1" res="-1.5735123306512833e-03" rms="2.8488788008689880e-01" purity="5.1085156202316284e-01" nType="0">
          <Node pos="l" depth="2" NCoef="0" IVar="2" Cut="3.9179974365234375e+02" cType="1" res="-9.3233240768313408e-03" rms="2.5265404582023621e-01" purity="2.4792255461215973e-01" nType="0">
            <Node pos="l" depth="3" NCoef="0" IVar="-1" Cut="0.0000000000000000e+00" cType="1" res="1.8903659656643867e-03" rms="2.5594899058341980e-01" purity="2.3834551870822906e-01" nType="-99"/>
            <Node pos="r" depth="3" NCoef="0" IVar="-1" Cut="0.0000000000000000e+00" cType="1" res="-4.4730108231306076e-02" rms="2.4377238750457764e-01" purity="2.6869270205497742e-01" nType="-99"/>
          </Node>
          <Node pos="r" depth="2" NCoef="0" IVar="10" Cut="1.8346716165542603e+00" cType="1" res="-1.8113270925823599e-04" rms="2.9027822613716125e-01" purity="5.5809104442596436e-01" nType="0">
            <Node pos="l" depth="3" NCoef="0" IVar="-1" Cut="0.0000000000000000e+00" cType="1" res="-1.5712550375610590e-03" rms="2.8850600123405457e-01" purity="5.7201313972473145e-01" nType="-99"/>
            <Node pos="r" depth="3" NCoef="0" IVar="-1" Cut="0.0000000000000000e+00" cType="1" res="1.7514560371637344e-02" rms="3.1435447931289673e-01" purity="3.5647302865982056e-01" nType="-99"/>
          </Node>
        </Node>
      </Node>
    </BinaryTree>
    <BinaryTree type="DecisionTree" boostWeight="1.0000000000000000e+00" itree="469">
      <Node pos="s" depth="0" NCoef="0" IVar="7" Cut="-1.2024944275617599e-01" cType="1" res="-2.3989100009202957e-03" rms="2.8550419211387634e-01" purity="4.9853119254112244e-01" nType="0">
        <Node pos="l" depth="1" NCoef="0" IVar="9" Cut="-1.4656718969345093e+00" cType="1" res="1.6779741272330284e-03" rms="2.8486832976341248e-01" purity="4.8267915844917297e-01" nType="0">
          <Node pos="l" depth="2" NCoef="0" IVar="-1" Cut="0.0000000000000000e+00" cType="1" res="2.3713404312729836e-02" rms="2.8475767374038696e-01" purity="2.2388988733291626e-01" nType="-99"/>
          <Node pos="r" depth="2" NCoef="0" IVar="10" Cut="-9.3337398767471313e-01" cType="1" res="-1.6277463873848319e-04" rms="2.8482139110565186e-01" purity="5.1153939962387085e-01" nType="0">
            <Node pos="l" depth="3" NCoef="0" IVar="-1" Cut="0.0000000000000000e+00" cType="1" res="-1.2598101980984211e-02" rms="2.8955033421516418e-01" purity="4.3981763720512390e-01" nType="-99"/>
            <Node pos="r" depth="3" NCoef="0" IVar="-1" Cut="0.0000000000000000e+00" cType="1" res="4.0652654133737087e-03" rms="2.8311780095100403e-01" purity="5.3576916456222534e-01" nType="-99"/>
          </Node>
        </Node>
        <Node pos="r" depth="1" NCoef="0" IVar="9" Cut="3.9979881048202515e-01" cType="1" res="-5.7868650183081627e-03" rms="2.8598728775978088e-01" purity="5.1170450448989868e-01" nType="0">
          <Node pos="l" depth="2" NCoef="0" IVar="1" Cut="1.1771232634782791e-01" cType="1" res="-1.0876195505261421e-02" rms="2.8470984101295471e-01" purity="5.3929471969604492e-01" nType="0">
            <Node pos="l" depth="3" NCoef="0" IVar="-1" Cut="0.0000000000000000e+00" cType="1" res="-1.6346933320164680e-02" rms="2.9721057415008545e-01" purity="4.2325559258460999e-01" nType="-99"/>
            <Node pos="r" depth="3" NCoef="0" IVar="-1" Cut="0.0000000000000000e+00" cType="1" res="-1.5181310009211302e-03" rms="2.4709071218967438e-01" purity="8.5628718137741089e-01" nType="-99"/>
          </Node>
          <Node pos="r" depth="2" NCoef="0" IVar="11" Cut="3.6376908421516418e-02" cType="1" res="2.0921891555190086e-03" rms="2.8777632117271423e-01" purity="4.6899074316024780e-01" nType="0">
            <Node pos="l" depth="3" NCoef="0" IVar="-1" Cut="0.0000000000000000e+00" cType="1" res="8.4091732278466225e-03" rms="2.8823977708816528e-01" purity="3.7618330121040344e-01" nType="-99"/>
            <Node pos="r" depth="3" NCoef="0" IVar="-1" Cut="0.0000000000000000e+00" cType="1" res="-1.1992356739938259e-02" rms="2.8623330593109131e-01" purity="7.0244514942169189e-01" nType="-99"/>
          </Node>
        </Node>
      </Node>
    </BinaryTree>
    <BinaryTree type="DecisionTree" boostWeight="1.0000000000000000e+00" itree="470">
      <Node pos="s" depth="0" NCoef="0" IVar="4" Cut="3.2156137084960938e+02" cType="1" res="-1.1689156526699662e-03" rms="2.8490608930587769e-01" purity="5.0174993276596069e-01" nType="0">
        <Node pos="l" depth="1" NCoef="0" IVar="2" Cut="7.1556768798828125e+02" cType="1" res="-1.8225617241114378e-03" rms="2.8605028986930847e-01" purity="4.8721534013748169e-01" nType="0">
          <Node pos="l" depth="2" NCoef="0" IVar="4" Cut="8.9782165527343750e+01" cType="1" res="-1.1262994958087802e-03" rms="2.8489947319030762e-01" purity="4.8631024360656738e-01" nType="0">
            <Node pos="l" depth="3" NCoef="0" IVar="-1" Cut="0.0000000000000000e+00" cType="1" res="2.3333620280027390e-02" rms="2.1682713925838470e-01" purity="6.9224320352077484e-02" nType="-99"/>
            <Node pos="r" depth="3" NCoef="0" IVar="-1" Cut="0.0000000000000000e+00" cType="1" res="-3.0686752870678902e-03" rms="2.9356333613395691e-01" purity="5.4774403572082520e-01" nType="-99"/>
          </Node>
          <Node pos="r" depth="2" NCoef="0" IVar="-1" Cut="0.0000000000000000e+00" cType="1" res="-2.0143110305070877e-02" rms="3.1898581981658936e-01" purity="5.1533114910125732e-01" nType="-99"/>
        </Node>
        <Node pos="r" depth="1" NCoef="0" IVar="-1" Cut="0.0000000000000000e+00" cType="1" res="2.4947101250290871e-02" rms="2.5170817971229553e-01" purity="8.9102143049240112e-01" nType="-99"/>
      </Node>
    </BinaryTree>
    <BinaryTree type="DecisionTree" boostWeight="1.0000000000000000e+00" itree="471">
      <Node pos="s" depth="0" NCoef="0" IVar="3" Cut="4.2838800048828125e+02" cType="1" res="5.6497147306799889e-04" rms="2.8541773557662964e-01" purity="5.0236427783966064e-01" nType="0">
        <Node pos="l" depth="1" NCoef="0" IVar="8" Cut="-6.6671335697174072e-01" cType="1" res="1.5443908050656319e-03" rms="2.8525048494338989e-01" purity="4.9032753705978394e-01" nType="0">
          <Node pos="l" depth="2" NCoef="0" IVar="11" Cut="3.7673722952604294e-02" cType="1" res="8.3681251853704453e-03" rms="2.7887153625488281e-01" purity="3.7916871905326843e-01" nType="0">
            <Node pos="l" depth="3" NCoef="0" IVar="-1" Cut="0.0000000000000000e+00" cType="1" res="4.8577552661299706e-03" rms="2.7376821637153625e-01" purity="3.0564597249031067e-01" nType="-99"/>
            <Node pos="r" depth="3" NCoef="0" IVar="-1" Cut="0.0000000000000000e+00" cType="1" res="2.9389750212430954e-02" rms="2.9789984226226807e-01" purity="6.7714196443557739e-01" nType="-99"/>
          </Node>
          <Node pos="r" depth="2" NCoef="0" IVar="10" Cut="-2.0000357627868652e+00" cType="1" res="-7.6797907240688801e-04" rms="2.8734326362609863e-01" purity="5.2799612283706665e-01" nType="0">
            <Node pos="l" depth="3" NCoef="0" IVar="-1" Cut="0.0000000000000000e+00" cType="1" res="2.7552524581551552e-02" rms="3.1784227490425110e-01" purity="3.2650503516197205e-01" nType="-99"/>
            <Node pos="r" depth="3" NCoef="0" IVar="-1" Cut="0.0000000000000000e+00" cType="1" res="-2.2854874841868877e-03" rms="2.8584858775138855e-01" purity="5.3700226545333862e-01" nType="-99"/>
          </Node>
        </Node>
        <Node pos="r" depth="1" NCoef="0" IVar="-1" Cut="0.0000000000000000e+00" cType="1" res="-2.2706685587763786e-02" rms="2.8800487518310547e-01" purity="7.3829740285873413e-01" nType="-99"/>
      </Node>
    </BinaryTree>
    <BinaryTree type="DecisionTree" boostWeight="1.0000000000000000e+00" itree="472">
      <Node pos="s" depth="0" NCoef="0" IVar="10" Cut="6.6628301143646240e-01" cType="1" res="-9.6393458079546690e-04" rms="2.8485095500946045e-01" purity="5.0106424093246460e-01" nType="0">
        <Node pos="l" depth="1" NCoef="0" IVar="10" Cut="-1.5901435911655426e-01" cType="1" res="2.4225972592830658e-03" rms="2.8360620141029358e-01" purity="5.2388989925384521e-01" nType="0">
          <Node pos="l" depth="2" NCoef="0" IVar="4" Cut="1.0650218200683594e+02" cType="1" res="4.9859583377838135e-03" rms="2.8803917765617371e-01" purity="4.9369722604751587e-01" nType="0">
            <Node pos="l" depth="3" NCoef="0" IVar="-1" Cut="0.0000000000000000e+00" cType="1" res="-1.0647531598806381e-02" rms="2.2268874943256378e-01" purity="1.0114143788814545e-01" nType="-99"/>
            <Node pos="r" depth="3" NCoef="0" IVar="-1" Cut="0.0000000000000000e+00" cType="1" res="8.6251553148031235e-03" rms="3.0373528599739075e-01" purity="6.0342878103256226e-01" nType="-99"/>
          </Node>
          <Node pos="r" depth="2" NCoef="0" IVar="8" Cut="6.6590321063995361e-01" cType="1" res="-2.0715876016765833e-03" rms="2.7560457587242126e-01" purity="5.7682496309280396e-01" nType="0">
            <Node pos="l" depth="3" NCoef="0" IVar="-1" Cut="0.0000000000000000e+00" cType="1" res="1.3985359109938145e-03" rms="2.7682486176490784e-01" purity="6.2268978357315063e-01" nType="-99"/>
            <Node pos="r" depth="3" NCoef="0" IVar="-1" Cut="0.0000000000000000e+00" cType="1" res="-1.5785980969667435e-02" rms="2.7136391401290894e-01" purity="4.2839151620864868e-01" nType="-99"/>
          </Node>
        </Node>
        <Node pos="r" depth="1" NCoef="0" IVar="10" Cut="9.7101265192031860e-01" cType="1" res="-8.8475970551371574e-03" rms="2.8757339715957642e-01" purity="4.4792741537094116e-01" nType="0">
          <Node pos="l" depth="2" NCoef="0" IVar="8" Cut="4.0069276094436646e-01" cType="1" res="-2.4005567654967308e-02" rms="2.9408097267150879e-01" purity="5.3831481933593750e-01" nType="0">
            <Node pos="l" depth="3" NCoef="0" IVar="-1" Cut="0.0000000000000000e+00" cType="1" res="-4.0154956281185150e-02" rms="2.9053705930709839e-01" purity="5.6512594223022461e-01" nType="-99"/>
            <Node pos="r" depth="3" NCoef="0" IVar="-1" Cut="0.0000000000000000e+00" cType="1" res="-1.3057895936071873e-02" rms="3.0009132623672485e-01" purity="4.8879209160804749e-01" nType="-99"/>
          </Node>
          <Node pos="r" depth="2" NCoef="0" IVar="1" Cut="3.8190424442291260e-02" cType="1" res="-3.5717461723834276e-03" rms="2.8508454561233521e-01" purity="4.1646739840507507e-01" nType="0">
            <Node pos="l" depth="3" NCoef="0" IVar="-1" Cut="0.0000000000000000e+00" cType="1" res="-2.2949863225221634e-02" rms="2.3055447638034821e-01" purity="1.3378114998340607e-01" nType="-99"/>
            <Node pos="r" depth="3" NCoef="0" IVar="-1" Cut="0.0000000000000000e+00" cType="1" res="3.9601135067641735e-03" rms="3.1889316439628601e-01" purity="6.2314492464065552e-01" nType="-99"/>
          </Node>
        </Node>
      </Node>
    </BinaryTree>
    <BinaryTree type="DecisionTree" boostWeight="1.0000000000000000e+00" itree="473">
      <Node pos="s" depth="0" NCoef="0" IVar="10" Cut="1.9997111558914185e+00" cType="1" res="-1.6952160513028502e-03" rms="2.8438359498977661e-01" purity="5.0093936920166016e-01" nType="0">
        <Node pos="l" depth="1" NCoef="0" IVar="10" Cut="-5.1438874006271362e-01" cType="1" res="-5.3079787176102400e-04" rms="2.8534328937530518e-01" purity="5.1324969530105591e-01" nType="0">
          <Node pos="l" depth="2" NCoef="0" IVar="9" Cut="1.1997489929199219e+00" cType="1" res="-6.3233817927539349e-03" rms="2.8496062755584717e-01" purity="4.6516364812850952e-01" nType="0">
            <Node pos="l" depth="3" NCoef="0" IVar="-1" Cut="0.0000000000000000e+00" cType="1" res="-1.0658291168510914e-02" rms="2.8584262728691101e-01" purity="4.8813292384147644e-01" nType="-99"/>
            <Node pos="r" depth="3" NCoef="0" IVar="-1" Cut="0.0000000000000000e+00" cType="1" res="1.6891317442059517e-02" rms="2.7736422419548035e-01" purity="2.8901550173759460e-01" nType="-99"/>
          </Node>
          <Node pos="r" depth="2" NCoef="0" IVar="10" Cut="1.5208278894424438e+00" cType="1" res="2.7218009345233440e-03" rms="2.8550639748573303e-01" purity="5.4025059938430786e-01" nType="0">
            <Node pos="l" depth="3" NCoef="0" IVar="-1" Cut="0.0000000000000000e+00" cType="1" res="5.5991560220718384e-03" rms="2.8538006544113159e-01" purity="5.5867296457290649e-01" nType="-99"/>
            <Node pos="r" depth="3" NCoef="0" IVar="-1" Cut="0.0000000000000000e+00" cType="1" res="-1.8837606534361839e-02" rms="2.8606534004211426e-01" purity="3.6102947592735291e-01" nType="-99"/>
          </Node>
        </Node>
        <Node pos="r" depth="1" NCoef="0" IVar="-1" Cut="0.0000000000000000e+00" cType="1" res="-3.3256724476814270e-02" rms="2.6269400119781494e-01" purity="2.4736346304416656e-01" nType="-99"/>
      </Node>
    </BinaryTree>
    <BinaryTree type="DecisionTree" boostWeight="1.0000000000000000e+00" itree="474">
      <Node pos="s" depth="0" NCoef="0" IVar="8" Cut="-6.6648107767105103e-01" cType="1" res="-1.0675822850316763e-03" rms="2.8601914644241333e-01" purity="4.9578258395195007e-01" nType="0">
        <Node pos="l" depth="1" NCoef="0" IVar="4" Cut="2.3548660278320312e+02" cType="1" res="-9.0151624754071236e-03" rms="2.8103736042976379e-01" purity="3.5202264785766602e-01" nType="0">
          <Node pos="l" depth="2" NCoef="0" IVar="1" Cut="2.0473957061767578e-02" cType="1" res="-6.1762547120451927e-03" rms="2.7720296382904053e-01" purity="3.0932605266571045e-01" nType="0">
            <Node pos="l" depth="3" NCoef="0" IVar="-1" Cut="0.0000000000000000e+00" cType="1" res="8.3676511421799660e-03" rms="1.9337582588195801e-01" purity="7.7217735350131989e-02" nType="-99"/>
            <Node pos="r" depth="3" NCoef="0" IVar="-1" Cut="0.0000000000000000e+00" cType="1" res="-1.1533725075423717e-02" rms="3.1411957740783691e-01" purity="4.3822172284126282e-01" nType="-99"/>
          </Node>
          <Node pos="r" depth="2" NCoef="0" IVar="-1" Cut="0.0000000000000000e+00" cType="1" res="-3.8529936224222183e-02" rms="3.1061935424804688e-01" purity="7.1406286954879761e-01" nType="-99"/>
        </Node>
        <Node pos="r" depth="1" NCoef="0" IVar="11" Cut="8.6588859558105469e-01" cType="1" res="1.4921508263796568e-03" rms="2.8755852580070496e-01" purity="5.4208439588546753e-01" nType="0">
          <Node pos="l" depth="2" NCoef="0" IVar="5" Cut="8.6232276916503906e+01" cType="1" res="-4.8350202268920839e-04" rms="2.8916168212890625e-01" purity="5.0807207822799683e-01" nType="0">
            <Node pos="l" depth="3" NCoef="0" IVar="-1" Cut="0.0000000000000000e+00" cType="1" res="3.8587148301303387e-03" rms="3.0768406391143799e-01" purity="2.8574287891387939e-01" nType="-99"/>
            <Node pos="r" depth="3" NCoef="0" IVar="-1" Cut="0.0000000000000000e+00" cType="1" res="-8.8989064097404480e-03" rms="2.6131597161293030e-01" purity="8.1523048877716064e-01" nType="-99"/>
          </Node>
          <Node pos="r" depth="2" NCoef="0" IVar="0" Cut="1.6957734375000000e+03" cType="1" res="1.3518054969608784e-02" rms="2.7729699015617371e-01" purity="7.4911868572235107e-01" nType="0">
            <Node pos="l" depth="3" NCoef="0" IVar="-1" Cut="0.0000000000000000e+00" cType="1" res="2.2034302353858948e-02" rms="3.2367131114006042e-01" purity="5.9838294982910156e-01" nType="-99"/>
            <Node pos="r" depth="3" NCoef="0" IVar="-1" Cut="0.0000000000000000e+00" cType="1" res="2.9228191124275327e-04" rms="2.1586667001247406e-01" purity="9.1110718250274658e-01" nType="-99"/>
          </Node>
        </Node>
      </Node>
    </BinaryTree>
    <BinaryTree type="DecisionTree" boostWeight="1.0000000000000000e+00" itree="475">
      <Node pos="s" depth="0" NCoef="0" IVar="2" Cut="7.0899523925781250e+02" cType="1" res="5.0115602789446712e-04" rms="2.8625744581222534e-01" purity="4.9776735901832581e-01" nType="0">
        <Node pos="l" depth="1" NCoef="0" IVar="11" Cut="5.9037846326828003e-01" cType="1" res="1.5423671575263143e-03" rms="2.8511139750480652e-01" purity="4.9534064531326294e-01" nType="0">
          <Node pos="l" depth="2" NCoef="0" IVar="1" Cut="6.2752597033977509e-02" cType="1" res="2.9975536745041609e-03" rms="2.8530904650688171e-01" purity="4.5396351814270020e-01" nType="0">
            <Node pos="l" depth="3" NCoef="0" IVar="-1" Cut="0.0000000000000000e+00" cType="1" res="7.6666171662509441e-03" rms="2.7896162867546082e-01" purity="2.4350517988204956e-01" nType="-99"/>
            <Node pos="r" depth="3" NCoef="0" IVar="-1" Cut="0.0000000000000000e+00" cType="1" res="-6.4398732502013445e-04" rms="2.9332956671714783e-01" purity="7.2799217700958252e-01" nType="-99"/>
          </Node>
          <Node pos="r" depth="2" NCoef="0" IVar="1" Cut="5.8848023414611816e-02" cType="1" res="-6.0641714371740818e-03" rms="2.8395456075668335e-01" purity="7.1162688732147217e-01" nType="0">
            <Node pos="l" depth="3" NCoef="0" IVar="-1" Cut="0.0000000000000000e+00" cType="1" res="-1.7717309296131134e-02" rms="3.2552608847618103e-01" purity="3.9820158481597900e-01" nType="-99"/>
            <Node pos="r" depth="3" NCoef="0" IVar="-1" Cut="0.0000000000000000e+00" cType="1" res="6.6902639809995890e-04" rms="2.5945320725440979e-01" purity="8.7477725744247437e-01" nType="-99"/>
          </Node>
        </Node>
        <Node pos="r" depth="1" NCoef="0" IVar="-1" Cut="0.0000000000000000e+00" cType="1" res="-2.4255324155092239e-02" rms="3.1343212723731995e-01" purity="5.6099236011505127e-01" nType="-99"/>
      </Node>
    </BinaryTree>
    <BinaryTree type="DecisionTree" boostWeight="1.0000000000000000e+00" itree="476">
      <Node pos="s" depth="0" NCoef="0" IVar="8" Cut="-9.3325895071029663e-01" cType="1" res="7.6235202141106129e-04" rms="2.8725463151931763e-01" purity="4.9882584810256958e-01" nType="0">
        <Node pos="l" depth="1" NCoef="0" IVar="4" Cut="1.2455319213867188e+02" cType="1" res="1.3772164471447468e-02" rms="2.7530837059020996e-01" purity="3.0559903383255005e-01" nType="0">
          <Node pos="l" depth="2" NCoef="0" IVar="5" Cut="5.6666999816894531e+01" cType="1" res="2.1179700270295143e-03" rms="2.1916550397872925e-01" purity="8.2200609147548676e-02" nType="0">
            <Node pos="l" depth="3" NCoef="0" IVar="-1" Cut="0.0000000000000000e+00" cType="1" res="1.2370379269123077e-01" rms="2.1060539782047272e-01" purity="5.4543118923902512e-02" nType="-99"/>
            <Node pos="r" depth="3" NCoef="0" IVar="-1" Cut="0.0000000000000000e+00" cType="1" res="-2.1316966041922569e-02" rms="2.2237570583820343e-01" purity="9.7015529870986938e-02" nType="-99"/>
          </Node>
          <Node pos="r" depth="2" NCoef="0" IVar="10" Cut="-3.9979866147041321e-01" cType="1" res="2.2621961310505867e-02" rms="3.1095680594444275e-01" purity="4.7524020075798035e-01" nType="0">
            <Node pos="l" depth="3" NCoef="0" IVar="-1" Cut="0.0000000000000000e+00" cType="1" res="3.5543516278266907e-02" rms="3.2069534063339233e-01" purity="4.6538123488426208e-01" nType="-99"/>
            <Node pos="r" depth="3" NCoef="0" IVar="-1" Cut="0.0000000000000000e+00" cType="1" res="1.3377177529036999e-02" rms="3.0289420485496521e-01" purity="4.8279234766960144e-01" nType="-99"/>
          </Node>
        </Node>
        <Node pos="r" depth="1" NCoef="0" IVar="10" Cut="1.7330552339553833e+00" cType="1" res="-1.9974617753177881e-03" rms="2.8965038061141968e-01" purity="5.3981572389602661e-01" nType="0">
          <Node pos="l" depth="2" NCoef="0" IVar="3" Cut="2.4100643920898438e+02" cType="1" res="-3.7253065966069698e-03" rms="2.8864371776580811e-01" purity="5.5636990070343018e-01" nType="0">
            <Node pos="l" depth="3" NCoef="0" IVar="-1" Cut="0.0000000000000000e+00" cType="1" res="-9.7099263221025467e-03" rms="2.9028555750846863e-01" purity="4.1090855002403259e-01" nType="-99"/>
            <Node pos="r" depth="3" NCoef="0" IVar="-1" Cut="0.0000000000000000e+00" cType="1" res="2.8898459859192371e-03" rms="2.8645253181457520e-01" purity="7.3901098966598511e-01" nType="-99"/>
          </Node>
          <Node pos="r" depth="2" NCoef="0" IVar="5" Cut="7.3682449340820312e+01" cType="1" res="1.8862759694457054e-02" rms="3.0075666308403015e-01" purity="3.3995822072029114e-01" nType="0">
            <Node pos="l" depth="3" NCoef="0" IVar="-1" Cut="0.0000000000000000e+00" cType="1" res="3.6906369030475616e-02" rms="2.9839724302291870e-01" purity="1.9558937847614288e-01" nType="-99"/>
            <Node pos="r" depth="3" NCoef="0" IVar="-1" Cut="0.0000000000000000e+00" cType="1" res="4.0752426721155643e-03" rms="3.0352750420570374e-01" purity="5.4854726791381836e-01" nType="-99"/>
          </Node>
        </Node>
      </Node>
    </BinaryTree>
    <BinaryTree type="DecisionTree" boostWeight="1.0000000000000000e+00" itree="477">
      <Node pos="s" depth="0" NCoef="0" IVar="8" Cut="9.3319469690322876e-01" cType="1" res="7.9800112871453166e-05" rms="2.8760620951652527e-01" purity="4.9833196401596069e-01" nType="0">
        <Node pos="l" depth="1" NCoef="0" IVar="8" Cut="2.2214360535144806e-01" cType="1" res="2.0324566867202520e-03" rms="2.9284280538558960e-01" purity="5.4376673698425293e-01" nType="0">
          <Node pos="l" depth="2" NCoef="0" IVar="4" Cut="1.8618750000000000e+02" cType="1" res="-6.1341922264546156e-04" rms="2.8974929451942444e-01" purity="5.1863050460815430e-01" nType="0">
            <Node pos="l" depth="3" NCoef="0" IVar="-1" Cut="0.0000000000000000e+00" cType="1" res="3.1844393815845251e-03" rms="3.0024424195289612e-01" purity="3.6755684018135071e-01" nType="-99"/>
            <Node pos="r" depth="3" NCoef="0" IVar="-1" Cut="0.0000000000000000e+00" cType="1" res="-9.7066424787044525e-03" rms="2.6852282881736755e-01" purity="8.0615049600601196e-01" nType="-99"/>
          </Node>
          <Node pos="r" depth="2" NCoef="0" IVar="10" Cut="1.1991933584213257e+00" cType="1" res="8.5336687043309212e-03" rms="3.0020958185195923e-01" purity="6.0552906990051270e-01" nType="0">
            <Node pos="l" depth="3" NCoef="0" IVar="-1" Cut="0.0000000000000000e+00" cType="1" res="4.8602675087749958e-03" rms="2.9648756980895996e-01" purity="6.2210106849670410e-01" nType="-99"/>
            <Node pos="r" depth="3" NCoef="0" IVar="-1" Cut="0.0000000000000000e+00" cType="1" res="2.8999449685215950e-02" rms="3.1656527519226074e-01" purity="5.2671384811401367e-01" nType="-99"/>
          </Node>
        </Node>
        <Node pos="r" depth="1" NCoef="0" IVar="3" Cut="1.6931809997558594e+02" cType="1" res="-9.3317376449704170e-03" rms="2.6069152355194092e-01" purity="2.7934268116950989e-01" nType="0">
          <Node pos="l" depth="2" NCoef="0" IVar="9" Cut="3.9936831593513489e-01" cType="1" res="4.6723550185561180e-03" rms="2.2878356277942657e-01" purity="1.2350627034902573e-01" nType="0">
            <Node pos="l" depth="3" NCoef="0" IVar="-1" Cut="0.0000000000000000e+00" cType="1" res="3.4895714372396469e-02" rms="2.4509380757808685e-01" purity="1.3420885801315308e-01" nType="-99"/>
            <Node pos="r" depth="3" NCoef="0" IVar="-1" Cut="0.0000000000000000e+00" cType="1" res="-2.1271795034408569e-02" rms="2.0492978394031525e-01" purity="1.0984374582767487e-01" nType="-99"/>
          </Node>
          <Node pos="r" depth="2" NCoef="0" IVar="5" Cut="6.8815483093261719e+01" cType="1" res="-1.7674043774604797e-02" rms="2.7762830257415771e-01" purity="3.7217521667480469e-01" nType="0">
            <Node pos="l" depth="3" NCoef="0" IVar="-1" Cut="0.0000000000000000e+00" cType="1" res="-4.6972583979368210e-02" rms="2.3560138046741486e-01" purity="9.0119630098342896e-02" nType="-99"/>
            <Node pos="r" depth="3" NCoef="0" IVar="-1" Cut="0.0000000000000000e+00" cType="1" res="-1.0122271254658699e-02" rms="2.9945105314254761e-01" purity="5.3902357816696167e-01" nType="-99"/>
          </Node>
        </Node>
      </Node>
    </BinaryTree>
    <BinaryTree type="DecisionTree" boostWeight="1.0000000000000000e+00" itree="478">
      <Node pos="s" depth="0" NCoef="0" IVar="8" Cut="-6.6664165258407593e-01" cType="1" res="-2.0679351873695850e-03" rms="2.8761777281761169e-01" purity="4.9025869369506836e-01" nType="0">
        <Node pos="l" depth="1" NCoef="0" IVar="3" Cut="1.8457939147949219e+02" cType="1" res="-1.0961127467453480e-02" rms="2.7749207615852356e-01" purity="3.5357514023780823e-01" nType="0">
          <Node pos="l" depth="2" NCoef="0" IVar="0" Cut="1.1565311279296875e+03" cType="1" res="-3.7423532921820879e-04" rms="2.4498184025287628e-01" purity="1.7475952208042145e-01" nType="0">
            <Node pos="l" depth="3" NCoef="0" IVar="-1" Cut="0.0000000000000000e+00" cType="1" res="-3.1389228999614716e-02" rms="1.6772317886352539e-01" purity="3.4405820071697235e-02" nType="-99"/>
            <Node pos="r" depth="3" NCoef="0" IVar="-1" Cut="0.0000000000000000e+00" cType="1" res="1.3622299768030643e-02" rms="3.1579673290252686e-01" purity="3.5092049837112427e-01" nType="-99"/>
          </Node>
          <Node pos="r" depth="2" NCoef="0" IVar="7" Cut="6.8766021728515625e-01" cType="1" res="-1.8301403149962425e-02" rms="2.9773664474487305e-01" purity="4.7755452990531921e-01" nType="0">
            <Node pos="l" depth="3" NCoef="0" IVar="-1" Cut="0.0000000000000000e+00" cType="1" res="-2.3974372074007988e-02" rms="3.0558431148529053e-01" purity="5.3280454874038696e-01" nType="-99"/>
            <Node pos="r" depth="3" NCoef="0" IVar="-1" Cut="0.0000000000000000e+00" cType="1" res="1.3163702096790075e-03" rms="2.6341530680656433e-01" purity="2.5820887088775635e-01" nType="-99"/>
          </Node>
        </Node>
        <Node pos="r" depth="1" NCoef="0" IVar="8" Cut="1.5872597694396973e-01" cType="1" res="8.5122539894655347e-04" rms="2.9080536961555481e-01" purity="5.3512459993362427e-01" nType="0">
          <Node pos="l" depth="2" NCoef="0" IVar="1" Cut="9.6190944314002991e-02" cType="1" res="6.1669088900089264e-03" rms="2.9660949110984802e-01" purity="6.2503027915954590e-01" nType="0">
            <Node pos="l" depth="3" NCoef="0" IVar="-1" Cut="0.0000000000000000e+00" cType="1" res="1.2696810066699982e-02" rms="3.1372889876365662e-01" purity="4.8739439249038696e-01" nType="-99"/>
            <Node pos="r" depth="3" NCoef="0" IVar="-1" Cut="0.0000000000000000e+00" cType="1" res="-4.1888882406055927e-03" rms="2.6858830451965332e-01" purity="8.3180427551269531e-01" nType="-99"/>
          </Node>
          <Node pos="r" depth="2" NCoef="0" IVar="10" Cut="1.1997617483139038e+00" cType="1" res="-3.1265828292816877e-03" rms="2.8632059693336487e-01" purity="4.6784681081771851e-01" nType="0">
            <Node pos="l" depth="3" NCoef="0" IVar="-1" Cut="0.0000000000000000e+00" cType="1" res="-7.2581609711050987e-03" rms="2.8631085157394409e-01" purity="4.9162492156028748e-01" nType="-99"/>
            <Node pos="r" depth="3" NCoef="0" IVar="-1" Cut="0.0000000000000000e+00" cType="1" res="1.1146346107125282e-02" rms="2.8603062033653259e-01" purity="3.6568015813827515e-01" nType="-99"/>
          </Node>
        </Node>
      </Node>
    </BinaryTree>
    <BinaryTree type="DecisionTree" boostWeight="1.0000000000000000e+00" itree="479">
      <Node pos="s" depth="0" NCoef="0" IVar="0" Cut="1.4400817871093750e+03" cType="1" res="1.2680733343586326e-03" rms="2.8750765323638916e-01" purity="5.0138354301452637e-01" nType="0">
        <Node pos="l" depth="1" NCoef="0" IVar="11" Cut="3.1419548392295837e-01" cType="1" res="5.7835360057651997e-03" rms="2.9195800423622131e-01" purity="2.1630679070949554e-01" nType="0">
          <Node pos="l" depth="2" NCoef="0" IVar="11" Cut="-2.6844210624694824e+00" cType="1" res="2.5293440558016300e-03" rms="2.8274914622306824e-01" purity="1.8006317317485809e-01" nType="0">
            <Node pos="l" depth="3" NCoef="0" IVar="-1" Cut="0.0000000000000000e+00" cType="1" res="8.9318985119462013e-03" rms="2.6637750864028931e-01" purity="1.1887302249670029e-01" nType="-99"/>
            <Node pos="r" depth="3" NCoef="0" IVar="-1" Cut="0.0000000000000000e+00" cType="1" res="-9.3957511708140373e-03" rms="3.4112688899040222e-01" purity="4.2970320582389832e-01" nType="-99"/>
          </Node>
          <Node pos="r" depth="2" NCoef="0" IVar="-1" Cut="0.0000000000000000e+00" cType="1" res="2.1620413288474083e-02" rms="3.4577906131744385e-01" purity="4.5498579740524292e-01" nType="-99"/>
        </Node>
        <Node pos="r" depth="1" NCoef="0" IVar="6" Cut="6.3131359100341797e+01" cType="1" res="-2.8563553933054209e-03" rms="2.8331875801086426e-01" purity="7.6177293062210083e-01" nType="0">
          <Node pos="l" depth="2" NCoef="0" IVar="2" Cut="4.9291497802734375e+02" cType="1" res="-7.8057623468339443e-03" rms="3.5191780328750610e-01" purity="5.4932206869125366e-01" nType="0">
            <Node pos="l" depth="3" NCoef="0" IVar="-1" Cut="0.0000000000000000e+00" cType="1" res="-1.3725547119975090e-02" rms="3.5265699028968811e-01" purity="6.4004248380661011e-01" nType="-99"/>
            <Node pos="r" depth="3" NCoef="0" IVar="-1" Cut="0.0000000000000000e+00" cType="1" res="2.0246482454240322e-03" rms="3.5077437758445740e-01" purity="4.4318598508834839e-01" nType="-99"/>
          </Node>
          <Node pos="r" depth="2" NCoef="0" IVar="11" Cut="3.9971533417701721e-01" cType="1" res="5.0337280845269561e-04" rms="2.2508035600185394e-01" purity="9.0598756074905396e-01" nType="0">
            <Node pos="l" depth="3" NCoef="0" IVar="-1" Cut="0.0000000000000000e+00" cType="1" res="1.0175327770411968e-02" rms="2.1913619339466095e-01" purity="9.1459822654724121e-01" nType="-99"/>
            <Node pos="r" depth="3" NCoef="0" IVar="-1" Cut="0.0000000000000000e+00" cType="1" res="-1.4749489724636078e-02" rms="2.3513448238372803e-01" purity="8.9054328203201294e-01" nType="-99"/>
          </Node>
        </Node>
      </Node>
    </BinaryTree>
    <BinaryTree type="DecisionTree" boostWeight="1.0000000000000000e+00" itree="480">
      <Node pos="s" depth="0" NCoef="0" IVar="10" Cut="-1.9998153448104858e+00" cType="1" res="1.2420031707733870e-03" rms="2.8880676627159119e-01" purity="5.0132113695144653e-01" nType="0">
        <Node pos="l" depth="1" NCoef="0" IVar="-1" Cut="0.0000000000000000e+00" cType="1" res="-2.7476072311401367e-02" rms="2.6866281032562256e-01" purity="2.3614995181560516e-01" nType="-99"/>
        <Node pos="r" depth="1" NCoef="0" IVar="10" Cut="-8.5703456401824951e-01" cType="1" res="2.3487575817853212e-03" rms="2.8969869017601013e-01" purity="5.1413297653198242e-01" nType="0">
          <Node pos="l" depth="2" NCoef="0" IVar="10" Cut="-1.1291445493698120e+00" cType="1" res="1.2818275019526482e-02" rms="3.0158218741416931e-01" purity="4.7499257326126099e-01" nType="0">
            <Node pos="l" depth="3" NCoef="0" IVar="-1" Cut="0.0000000000000000e+00" cType="1" res="4.0794499218463898e-03" rms="2.9684790968894958e-01" purity="4.3463397026062012e-01" nType="-99"/>
            <Node pos="r" depth="3" NCoef="0" IVar="-1" Cut="0.0000000000000000e+00" cType="1" res="3.4929458051919937e-02" rms="3.0946803092956543e-01" purity="5.5023586750030518e-01" nType="-99"/>
          </Node>
          <Node pos="r" depth="2" NCoef="0" IVar="8" Cut="6.6666269302368164e-01" cType="1" res="-3.6881331470794976e-04" rms="2.8647100925445557e-01" purity="5.2429264783859253e-01" nType="0">
            <Node pos="l" depth="3" NCoef="0" IVar="-1" Cut="0.0000000000000000e+00" cType="1" res="-3.5677887499332428e-03" rms="2.8787112236022949e-01" purity="5.6923252344131470e-01" nType="-99"/>
            <Node pos="r" depth="3" NCoef="0" IVar="-1" Cut="0.0000000000000000e+00" cType="1" res="9.0605523437261581e-03" rms="2.8220316767692566e-01" purity="3.9304819703102112e-01" nType="-99"/>
          </Node>
        </Node>
      </Node>
    </BinaryTree>
    <BinaryTree type="DecisionTree" boostWeight="1.0000000000000000e+00" itree="481">
      <Node pos="s" depth="0" NCoef="0" IVar="11" Cut="1.4186284542083740e+00" cType="1" res="-2.8780698776245117e-03" rms="2.8377252817153931e-01" purity="4.9718558788299561e-01" nType="0">
        <Node pos="l" depth="1" NCoef="0" IVar="11" Cut="1.5614445507526398e-01" cType="1" res="-2.0342895295470953e-03" rms="2.8189432621002197e-01" purity="4.9097523093223572e-01" nType="0">
          <Node pos="l" depth="2" NCoef="0" IVar="10" Cut="-6.6662865877151489e-01" cType="1" res="-3.9338949136435986e-03" rms="2.8421846032142639e-01" purity="4.2318034172058105e-01" nType="0">
            <Node pos="l" depth="3" NCoef="0" IVar="-1" Cut="0.0000000000000000e+00" cType="1" res="-1.1437602341175079e-02" rms="2.8259357810020447e-01" purity="3.7328141927719116e-01" nType="-99"/>
            <Node pos="r" depth="3" NCoef="0" IVar="-1" Cut="0.0000000000000000e+00" cType="1" res="-1.7735278233885765e-03" rms="2.8489243984222412e-01" purity="4.4503358006477356e-01" nType="-99"/>
          </Node>
          <Node pos="r" depth="2" NCoef="0" IVar="7" Cut="-3.9644688367843628e-01" cType="1" res="6.0228942893445492e-03" rms="2.7166804671287537e-01" purity="7.7852755784988403e-01" nType="0">
            <Node pos="l" depth="3" NCoef="0" IVar="-1" Cut="0.0000000000000000e+00" cType="1" res="3.1357001513242722e-02" rms="2.8691586852073669e-01" purity="7.3812854290008545e-01" nType="-99"/>
            <Node pos="r" depth="3" NCoef="0" IVar="-1" Cut="0.0000000000000000e+00" cType="1" res="-2.2976156324148178e-03" rms="2.6535120606422424e-01" purity="7.9359179735183716e-01" nType="-99"/>
          </Node>
        </Node>
        <Node pos="r" depth="1" NCoef="0" IVar="8" Cut="1.3303740322589874e-01" cType="1" res="-1.6657995060086250e-02" rms="3.1253206729888916e-01" purity="5.9860777854919434e-01" nType="0">
          <Node pos="l" depth="2" NCoef="0" IVar="-1" Cut="0.0000000000000000e+00" cType="1" res="-2.4404173716902733e-02" rms="3.1440803408622742e-01" purity="6.1421948671340942e-01" nType="-99"/>
          <Node pos="r" depth="2" NCoef="0" IVar="-1" Cut="0.0000000000000000e+00" cType="1" res="-9.9709555506706238e-03" rms="3.1050416827201843e-01" purity="5.8303475379943848e-01" nType="-99"/>
        </Node>
      </Node>
    </BinaryTree>
    <BinaryTree type="DecisionTree" boostWeight="1.0000000000000000e+00" itree="482">
      <Node pos="s" depth="0" NCoef="0" IVar="1" Cut="6.2751308083534241e-02" cType="1" res="4.0900486055761576e-04" rms="2.8674742579460144e-01" purity="4.9977076053619385e-01" nType="0">
        <Node pos="l" depth="1" NCoef="0" IVar="11" Cut="-1.3430143594741821e+00" cType="1" res="4.1357139125466347e-03" rms="2.8051307797431946e-01" purity="2.7684929966926575e-01" nType="0">
          <Node pos="l" depth="2" NCoef="0" IVar="9" Cut="1.4665845632553101e+00" cType="1" res="-1.9239811226725578e-03" rms="2.6101961731910706e-01" purity="1.5236224234104156e-01" nType="0">
            <Node pos="l" depth="3" NCoef="0" IVar="-1" Cut="0.0000000000000000e+00" cType="1" res="7.6722673838958144e-04" rms="2.7194160223007202e-01" purity="1.6941079497337341e-01" nType="-99"/>
            <Node pos="r" depth="3" NCoef="0" IVar="-1" Cut="0.0000000000000000e+00" cType="1" res="-4.7983132302761078e-02" rms="1.7132869362831116e-01" purity="3.9702605456113815e-02" nType="-99"/>
          </Node>
          <Node pos="r" depth="2" NCoef="0" IVar="1" Cut="4.7825317829847336e-02" cType="1" res="1.7147611826658249e-02" rms="3.1797316670417786e-01" purity="5.4415863752365112e-01" nType="0">
            <Node pos="l" depth="3" NCoef="0" IVar="-1" Cut="0.0000000000000000e+00" cType="1" res="8.2851201295852661e-03" rms="3.2746502757072449e-01" purity="4.7216391563415527e-01" nType="-99"/>
            <Node pos="r" depth="3" NCoef="0" IVar="-1" Cut="0.0000000000000000e+00" cType="1" res="3.8742233067750931e-02" rms="2.8509008884429932e-01" purity="7.6735115051269531e-01" nType="-99"/>
          </Node>
        </Node>
        <Node pos="r" depth="1" NCoef="0" IVar="8" Cut="1.1437808722257614e-01" cType="1" res="-3.9664343930780888e-03" rms="2.9383799433708191e-01" purity="7.6149743795394897e-01" nType="0">
          <Node pos="l" depth="2" NCoef="0" IVar="8" Cut="-9.7598695755004883e-01" cType="1" res="-8.5173752158880234e-03" rms="2.9358598589897156e-01" purity="7.6318550109863281e-01" nType="0">
            <Node pos="l" depth="3" NCoef="0" IVar="-1" Cut="0.0000000000000000e+00" cType="1" res="1.1623034253716469e-02" rms="3.2447326183319092e-01" purity="6.6383969783782959e-01" nType="-99"/>
            <Node pos="r" depth="3" NCoef="0" IVar="-1" Cut="0.0000000000000000e+00" cType="1" res="-1.5392203815281391e-02" rms="2.8705960512161255e-01" purity="7.8240746259689331e-01" nType="-99"/>
          </Node>
          <Node pos="r" depth="2" NCoef="0" IVar="3" Cut="3.1655648803710938e+02" cType="1" res="1.6984596149995923e-03" rms="2.9405301809310913e-01" purity="7.5939619541168213e-01" nType="0">
            <Node pos="l" depth="3" NCoef="0" IVar="-1" Cut="0.0000000000000000e+00" cType="1" res="6.0919523239135742e-03" rms="3.0293005704879761e-01" purity="7.2886520624160767e-01" nType="-99"/>
            <Node pos="r" depth="3" NCoef="0" IVar="-1" Cut="0.0000000000000000e+00" cType="1" res="-2.2879218682646751e-02" rms="2.5552311539649963e-01" purity="8.7958562374114990e-01" nType="-99"/>
          </Node>
        </Node>
      </Node>
    </BinaryTree>
    <BinaryTree type="DecisionTree" boostWeight="1.0000000000000000e+00" itree="483">
      <Node pos="s" depth="0" NCoef="0" IVar="10" Cut="9.3321061134338379e-01" cType="1" res="-9.5924356719478965e-04" rms="2.8254869580268860e-01" purity="4.9722495675086975e-01" nType="0">
        <Node pos="l" depth="1" NCoef="0" IVar="7" Cut="-3.3727690577507019e-01" cType="1" res="1.9225430442020297e-03" rms="2.8094938397407532e-01" purity="5.2302205562591553e-01" nType="0">
          <Node pos="l" depth="2" NCoef="0" IVar="7" Cut="-7.8527390956878662e-01" cType="1" res="-5.2491761744022369e-03" rms="2.7684232592582703e-01" purity="4.4370350241661072e-01" nType="0">
            <Node pos="l" depth="3" NCoef="0" IVar="-1" Cut="0.0000000000000000e+00" cType="1" res="1.3537569902837276e-03" rms="2.6466023921966553e-01" purity="3.0875238776206970e-01" nType="-99"/>
            <Node pos="r" depth="3" NCoef="0" IVar="-1" Cut="0.0000000000000000e+00" cType="1" res="-1.3915640302002430e-02" rms="2.9022362828254700e-01" purity="6.0095554590225220e-01" nType="-99"/>
          </Node>
          <Node pos="r" depth="2" NCoef="0" IVar="9" Cut="-4.0009608864784241e-01" cType="1" res="5.9913853183388710e-03" rms="2.8317227959632874e-01" purity="5.6802308559417725e-01" nType="0">
            <Node pos="l" depth="3" NCoef="0" IVar="-1" Cut="0.0000000000000000e+00" cType="1" res="1.5944449231028557e-02" rms="2.9116609692573547e-01" purity="5.2838337421417236e-01" nType="-99"/>
            <Node pos="r" depth="3" NCoef="0" IVar="-1" Cut="0.0000000000000000e+00" cType="1" res="2.4603540077805519e-03" rms="2.7885973453521729e-01" purity="5.8854907751083374e-01" nType="-99"/>
          </Node>
        </Node>
        <Node pos="r" depth="1" NCoef="0" IVar="9" Cut="9.3307429552078247e-01" cType="1" res="-1.1019558645784855e-02" rms="2.8783616423606873e-01" purity="4.0716734528541565e-01" nType="0">
          <Node pos="l" depth="2" NCoef="0" IVar="4" Cut="1.7253141784667969e+02" cType="1" res="-1.6126634553074837e-02" rms="2.9141744971275330e-01" purity="4.5042937994003296e-01" nType="0">
            <Node pos="l" depth="3" NCoef="0" IVar="-1" Cut="0.0000000000000000e+00" cType="1" res="-2.7536610141396523e-02" rms="2.9256126284599304e-01" purity="2.7050486207008362e-01" nType="-99"/>
            <Node pos="r" depth="3" NCoef="0" IVar="-1" Cut="0.0000000000000000e+00" cType="1" res="-4.7098570503294468e-03" rms="2.8917396068572998e-01" purity="7.3821526765823364e-01" nType="-99"/>
          </Node>
          <Node pos="r" depth="2" NCoef="0" IVar="10" Cut="1.5554090738296509e+00" cType="1" res="4.6705021522939205e-03" rms="2.7595305442810059e-01" purity="2.7425688505172729e-01" nType="0">
            <Node pos="l" depth="3" NCoef="0" IVar="-1" Cut="0.0000000000000000e+00" cType="1" res="-5.2530225366353989e-03" rms="2.8073987364768982e-01" purity="3.1648829579353333e-01" nType="-99"/>
            <Node pos="r" depth="3" NCoef="0" IVar="-1" Cut="0.0000000000000000e+00" cType="1" res="1.8687803298234940e-02" rms="2.7043092250823975e-01" purity="2.2918245196342468e-01" nType="-99"/>
          </Node>
        </Node>
      </Node>
    </BinaryTree>
    <BinaryTree type="DecisionTree" boostWeight="1.0000000000000000e+00" itree="484">
      <Node pos="s" depth="0" NCoef="0" IVar="9" Cut="3.9999049901962280e-01" cType="1" res="3.0915206298232079e-03" rms="2.8347939252853394e-01" purity="5.0299072265625000e-01" nType="0">
        <Node pos="l" depth="1" NCoef="0" IVar="5" Cut="8.2922668457031250e+01" cType="1" res="1.2864748714491725e-04" rms="2.8429722785949707e-01" purity="5.2243131399154663e-01" nType="0">
          <Node pos="l" depth="2" NCoef="0" IVar="10" Cut="1.3311524689197540e-01" cType="1" res="-4.6431613154709339e-03" rms="2.9995304346084595e-01" purity="2.5630390644073486e-01" nType="0">
            <Node pos="l" depth="3" NCoef="0" IVar="-1" Cut="0.0000000000000000e+00" cType="1" res="1.8531093373894691e-03" rms="3.0071496963500977e-01" purity="2.5619512796401978e-01" nType="-99"/>
            <Node pos="r" depth="3" NCoef="0" IVar="-1" Cut="0.0000000000000000e+00" cType="1" res="-1.4059496112167835e-02" rms="2.9870423674583435e-01" purity="2.5645110011100769e-01" nType="-99"/>
          </Node>
          <Node pos="r" depth="2" NCoef="0" IVar="5" Cut="9.7816436767578125e+01" cType="1" res="5.1887696608901024e-03" rms="2.6660007238388062e-01" purity="8.0463814735412598e-01" nType="0">
            <Node pos="l" depth="3" NCoef="0" IVar="-1" Cut="0.0000000000000000e+00" cType="1" res="1.4413166791200638e-02" rms="3.1873485445976257e-01" purity="6.4344561100006104e-01" nType="-99"/>
            <Node pos="r" depth="3" NCoef="0" IVar="-1" Cut="0.0000000000000000e+00" cType="1" res="1.9246863666921854e-03" rms="2.4453020095825195e-01" purity="8.6390626430511475e-01" nType="-99"/>
          </Node>
        </Node>
        <Node pos="r" depth="1" NCoef="0" IVar="10" Cut="-3.9987066388130188e-01" cType="1" res="8.5426038131117821e-03" rms="2.8188720345497131e-01" purity="4.6722394227981567e-01" nType="0">
          <Node pos="l" depth="2" NCoef="0" IVar="9" Cut="7.4286329746246338e-01" cType="1" res="-4.0783993899822235e-03" rms="2.7886831760406494e-01" purity="4.3779864907264709e-01" nType="0">
            <Node pos="l" depth="3" NCoef="0" IVar="-1" Cut="0.0000000000000000e+00" cType="1" res="1.5936648473143578e-02" rms="2.8287634253501892e-01" purity="5.9947544336318970e-01" nType="-99"/>
            <Node pos="r" depth="3" NCoef="0" IVar="-1" Cut="0.0000000000000000e+00" cType="1" res="-1.4668134972453117e-02" rms="2.7673912048339844e-01" purity="3.6674481630325317e-01" nType="-99"/>
          </Node>
          <Node pos="r" depth="2" NCoef="0" IVar="4" Cut="2.1554681396484375e+02" cType="1" res="1.4497551135718822e-02" rms="2.8310510516166687e-01" purity="4.8110768198966980e-01" nType="0">
            <Node pos="l" depth="3" NCoef="0" IVar="-1" Cut="0.0000000000000000e+00" cType="1" res="2.1404609084129333e-02" rms="2.8649681806564331e-01" purity="3.9697900414466858e-01" nType="-99"/>
            <Node pos="r" depth="3" NCoef="0" IVar="-1" Cut="0.0000000000000000e+00" cType="1" res="-1.4379025378730148e-04" rms="2.6853725314140320e-01" purity="8.1945949792861938e-01" nType="-99"/>
          </Node>
        </Node>
      </Node>
    </BinaryTree>
    <BinaryTree type="DecisionTree" boostWeight="1.0000000000000000e+00" itree="485">
      <Node pos="s" depth="0" NCoef="0" IVar="4" Cut="1.6169879150390625e+02" cType="1" res="6.2710791826248169e-04" rms="2.8257328271865845e-01" purity="5.0269663333892822e-01" nType="0">
        <Node pos="l" depth="1" NCoef="0" IVar="3" Cut="1.2376824188232422e+02" cType="1" res="-3.3950537908822298e-03" rms="2.8209739923477173e-01" purity="2.7879106998443604e-01" nType="0">
          <Node pos="l" depth="2" NCoef="0" IVar="5" Cut="6.2593265533447266e+01" cType="1" res="-1.5104626305401325e-02" rms="1.7204427719116211e-01" purity="5.1754593849182129e-02" nType="0">
            <Node pos="l" depth="3" NCoef="0" IVar="-1" Cut="0.0000000000000000e+00" cType="1" res="-2.2549502551555634e-02" rms="1.5214650332927704e-01" purity="2.7540119364857674e-02" nType="-99"/>
            <Node pos="r" depth="3" NCoef="0" IVar="-1" Cut="0.0000000000000000e+00" cType="1" res="-4.8468828201293945e-02" rms="2.0180048048496246e-01" purity="9.4865851104259491e-02" nType="-99"/>
          </Node>
          <Node pos="r" depth="2" NCoef="0" IVar="4" Cut="1.3550883483886719e+02" cType="1" res="-7.3601468466222286e-04" rms="3.0148011445999146e-01" purity="3.3034709095954895e-01" nType="0">
            <Node pos="l" depth="3" NCoef="0" IVar="-1" Cut="0.0000000000000000e+00" cType="1" res="4.9402192234992981e-03" rms="2.9325303435325623e-01" purity="2.4450647830963135e-01" nType="-99"/>
            <Node pos="r" depth="3" NCoef="0" IVar="-1" Cut="0.0000000000000000e+00" cType="1" res="-1.0070170275866985e-02" rms="3.1670996546745300e-01" purity="4.9808788299560547e-01" nType="-99"/>
          </Node>
        </Node>
        <Node pos="r" depth="1" NCoef="0" IVar="11" Cut="-2.1715953350067139e+00" cType="1" res="5.2520311437547207e-03" rms="2.8304883837699890e-01" purity="7.6015669107437134e-01" nType="0">
          <Node pos="l" depth="2" NCoef="0" IVar="0" Cut="1.5579338378906250e+03" cType="1" res="1.7074547708034515e-02" rms="3.5779118537902832e-01" purity="5.0824016332626343e-01" nType="0">
            <Node pos="l" depth="3" NCoef="0" IVar="-1" Cut="0.0000000000000000e+00" cType="1" res="2.3478453978896141e-02" rms="3.7106370925903320e-01" purity="3.3941632509231567e-01" nType="-99"/>
            <Node pos="r" depth="3" NCoef="0" IVar="-1" Cut="0.0000000000000000e+00" cType="1" res="3.6473555956035852e-03" rms="3.4525173902511597e-01" purity="6.5616911649703979e-01" nType="-99"/>
          </Node>
          <Node pos="r" depth="2" NCoef="0" IVar="11" Cut="-9.8797404766082764e-01" cType="1" res="-1.1821970110759139e-04" rms="2.4138602614402771e-01" purity="8.7458705902099609e-01" nType="0">
            <Node pos="l" depth="3" NCoef="0" IVar="-1" Cut="0.0000000000000000e+00" cType="1" res="-2.0776979625225067e-02" rms="2.7096602320671082e-01" purity="8.4050893783569336e-01" nType="-99"/>
            <Node pos="r" depth="3" NCoef="0" IVar="-1" Cut="0.0000000000000000e+00" cType="1" res="4.1669178754091263e-03" rms="2.3516125977039337e-01" purity="8.8116252422332764e-01" nType="-99"/>
          </Node>
        </Node>
      </Node>
    </BinaryTree>
    <BinaryTree type="DecisionTree" boostWeight="1.0000000000000000e+00" itree="486">
      <Node pos="s" depth="0" NCoef="0" IVar="10" Cut="-2.2665863037109375e+00" cType="1" res="1.2752047041431069e-03" rms="2.8568980097770691e-01" purity="4.9863544106483459e-01" nType="0">
        <Node pos="l" depth="1" NCoef="0" IVar="-1" Cut="0.0000000000000000e+00" cType="1" res="-3.0159140005707741e-02" rms="2.6423647999763489e-01" purity="1.8308079242706299e-01" nType="-99"/>
        <Node pos="r" depth="1" NCoef="0" IVar="8" Cut="9.3326473236083984e-01" cType="1" res="1.9522976363077760e-03" rms="2.8621119260787964e-01" purity="5.0708138942718506e-01" nType="0">
          <Node pos="l" depth="2" NCoef="0" IVar="1" Cut="4.1802652180194855e-02" cType="1" res="6.3333689467981458e-04" rms="2.9072156548500061e-01" purity="5.4790097475051880e-01" nType="0">
            <Node pos="l" depth="3" NCoef="0" IVar="-1" Cut="0.0000000000000000e+00" cType="1" res="7.8455042093992233e-03" rms="2.8304445743560791e-01" purity="2.4629583954811096e-01" nType="-99"/>
            <Node pos="r" depth="3" NCoef="0" IVar="-1" Cut="0.0000000000000000e+00" cType="1" res="-2.9341706540435553e-03" rms="2.9510143399238586e-01" purity="7.2554695606231689e-01" nType="-99"/>
          </Node>
          <Node pos="r" depth="2" NCoef="0" IVar="7" Cut="4.6712189912796021e-01" cType="1" res="8.2924906164407730e-03" rms="2.6336234807968140e-01" purity="3.1086349487304688e-01" nType="0">
            <Node pos="l" depth="3" NCoef="0" IVar="-1" Cut="0.0000000000000000e+00" cType="1" res="-1.1491668410599232e-03" rms="2.6058307290077209e-01" purity="3.2571232318878174e-01" nType="-99"/>
            <Node pos="r" depth="3" NCoef="0" IVar="-1" Cut="0.0000000000000000e+00" cType="1" res="3.2813277095556259e-02" rms="2.6751303672790527e-01" purity="2.8406596183776855e-01" nType="-99"/>
          </Node>
        </Node>
      </Node>
    </BinaryTree>
    <BinaryTree type="DecisionTree" boostWeight="1.0000000000000000e+00" itree="487">
      <Node pos="s" depth="0" NCoef="0" IVar="11" Cut="8.6665838956832886e-01" cType="1" res="-4.8772436566650867e-03" rms="2.8368023037910461e-01" purity="4.9392479658126831e-01" nType="0">
        <Node pos="l" depth="1" NCoef="0" IVar="1" Cut="1.2550190091133118e-01" cType="1" res="-2.7658785693347454e-03" rms="2.8237119317054749e-01" purity="4.6709632873535156e-01" nType="0">
          <Node pos="l" depth="2" NCoef="0" IVar="7" Cut="1.3859160244464874e-01" cType="1" res="-4.8299473710358143e-03" rms="2.8741249442100525e-01" purity="3.7506520748138428e-01" nType="0">
            <Node pos="l" depth="3" NCoef="0" IVar="-1" Cut="0.0000000000000000e+00" cType="1" res="-1.1180478613823652e-03" rms="2.9252821207046509e-01" purity="3.9768517017364502e-01" nType="-99"/>
            <Node pos="r" depth="3" NCoef="0" IVar="-1" Cut="0.0000000000000000e+00" cType="1" res="-1.2038275599479675e-02" rms="2.8073149919509888e-01" purity="3.4644940495491028e-01" nType="-99"/>
          </Node>
          <Node pos="r" depth="2" NCoef="0" IVar="5" Cut="8.5527816772460938e+01" cType="1" res="5.8292779140174389e-03" rms="2.6015472412109375e-01" purity="8.5033053159713745e-01" nType="0">
            <Node pos="l" depth="3" NCoef="0" IVar="-1" Cut="0.0000000000000000e+00" cType="1" res="1.3809097930788994e-02" rms="3.6706623435020447e-01" purity="6.2727022171020508e-01" nType="-99"/>
            <Node pos="r" depth="3" NCoef="0" IVar="-1" Cut="0.0000000000000000e+00" cType="1" res="1.0455590672791004e-03" rms="1.9926083087921143e-01" purity="9.4305998086929321e-01" nType="-99"/>
          </Node>
        </Node>
        <Node pos="r" depth="1" NCoef="0" IVar="1" Cut="6.0481410473585129e-02" cType="1" res="-1.9460238516330719e-02" rms="2.9214534163475037e-01" purity="6.7922616004943848e-01" nType="0">
          <Node pos="l" depth="2" NCoef="0" IVar="-1" Cut="0.0000000000000000e+00" cType="1" res="-4.3642360717058182e-02" rms="3.0762749910354614e-01" purity="3.6998316645622253e-01" nType="-99"/>
          <Node pos="r" depth="2" NCoef="0" IVar="-1" Cut="0.0000000000000000e+00" cType="1" res="-5.1246867515146732e-03" rms="2.8124955296516418e-01" purity="8.6571520566940308e-01" nType="-99"/>
        </Node>
      </Node>
    </BinaryTree>
    <BinaryTree type="DecisionTree" boostWeight="1.0000000000000000e+00" itree="488">
      <Node pos="s" depth="0" NCoef="0" IVar="9" Cut="-6.6666662693023682e-01" cType="1" res="2.5206396821886301e-03" rms="2.8798663616180420e-01" purity="5.0118279457092285e-01" nType="0">
        <Node pos="l" depth="1" NCoef="0" IVar="11" Cut="5.8715295791625977e-01" cType="1" res="-6.5065138041973114e-03" rms="2.8730091452598572e-01" purity="3.9585611224174500e-01" nType="0">
          <Node pos="l" depth="2" NCoef="0" IVar="2" Cut="5.5310681152343750e+02" cType="1" res="-3.7795279640704393e-03" rms="2.8395134210586548e-01" purity="3.6307966709136963e-01" nType="0">
            <Node pos="l" depth="3" NCoef="0" IVar="-1" Cut="0.0000000000000000e+00" cType="1" res="-1.4915768988430500e-03" rms="2.8164908289909363e-01" purity="3.5459405183792114e-01" nType="-99"/>
            <Node pos="r" depth="3" NCoef="0" IVar="-1" Cut="0.0000000000000000e+00" cType="1" res="-2.4301791563630104e-02" rms="3.0082002282142639e-01" purity="4.3043926358222961e-01" nType="-99"/>
          </Node>
          <Node pos="r" depth="2" NCoef="0" IVar="-1" Cut="0.0000000000000000e+00" cType="1" res="-2.6665527373552322e-02" rms="3.0851319432258606e-01" purity="6.1912751197814941e-01" nType="-99"/>
        </Node>
        <Node pos="r" depth="1" NCoef="0" IVar="5" Cut="7.0725753784179688e+01" cType="1" res="5.8298059739172459e-03" rms="2.8816676139831543e-01" purity="5.3979337215423584e-01" nType="0">
          <Node pos="l" depth="2" NCoef="0" IVar="2" Cut="4.5450506591796875e+02" cType="1" res="1.3156147673726082e-02" rms="2.9846507310867310e-01" purity="2.1413359045982361e-01" nType="0">
            <Node pos="l" depth="3" NCoef="0" IVar="-1" Cut="0.0000000000000000e+00" cType="1" res="9.7333863377571106e-03" rms="2.8732872009277344e-01" purity="1.9066028296947479e-01" nType="-99"/>
            <Node pos="r" depth="3" NCoef="0" IVar="-1" Cut="0.0000000000000000e+00" cType="1" res="3.2468874007463455e-02" rms="3.3347135782241821e-01" purity="2.9537454247474670e-01" nType="-99"/>
          </Node>
          <Node pos="r" depth="2" NCoef="0" IVar="7" Cut="-1.1920399665832520e+00" cType="1" res="1.3512037694454193e-03" rms="2.8159216046333313e-01" purity="7.3886960744857788e-01" nType="0">
            <Node pos="l" depth="3" NCoef="0" IVar="-1" Cut="0.0000000000000000e+00" cType="1" res="-2.6818577200174332e-02" rms="2.8813076019287109e-01" purity="3.2076436281204224e-01" nType="-99"/>
            <Node pos="r" depth="3" NCoef="0" IVar="-1" Cut="0.0000000000000000e+00" cType="1" res="3.6933145020157099e-03" rms="2.8108921647071838e-01" purity="7.6544398069381714e-01" nType="-99"/>
          </Node>
        </Node>
      </Node>
    </BinaryTree>
    <BinaryTree type="DecisionTree" boostWeight="1.0000000000000000e+00" itree="489">
      <Node pos="s" depth="0" NCoef="0" IVar="4" Cut="2.3339060974121094e+02" cType="1" res="3.0698609771206975e-04" rms="2.8759461641311646e-01" purity="4.9751791357994080e-01" nType="0">
        <Node pos="l" depth="1" NCoef="0" IVar="3" Cut="3.3760992431640625e+02" cType="1" res="2.1940777078270912e-03" rms="2.9299965500831604e-01" purity="4.3191945552825928e-01" nType="0">
          <Node pos="l" depth="2" NCoef="0" IVar="3" Cut="3.1062557983398438e+02" cType="1" res="4.6718848170712590e-04" rms="2.9000622034072876e-01" purity="4.1859170794487000e-01" nType="0">
            <Node pos="l" depth="3" NCoef="0" IVar="-1" Cut="0.0000000000000000e+00" cType="1" res="-5.8858667034655809e-04" rms="2.8887864947319031e-01" purity="4.1195806860923767e-01" nType="-99"/>
            <Node pos="r" depth="3" NCoef="0" IVar="-1" Cut="0.0000000000000000e+00" cType="1" res="2.5918504223227501e-02" rms="3.1638792157173157e-01" purity="5.8753943443298340e-01" nType="-99"/>
          </Node>
          <Node pos="r" depth="2" NCoef="0" IVar="4" Cut="1.5618217468261719e+02" cType="1" res="2.2668093442916870e-02" rms="3.2570719718933105e-01" purity="5.8993315696716309e-01" nType="0">
            <Node pos="l" depth="3" NCoef="0" IVar="-1" Cut="0.0000000000000000e+00" cType="1" res="4.7967568039894104e-02" rms="3.4540098905563354e-01" purity="4.4880160689353943e-01" nType="-99"/>
            <Node pos="r" depth="3" NCoef="0" IVar="-1" Cut="0.0000000000000000e+00" cType="1" res="2.2667604498565197e-03" rms="3.1020429730415344e-01" purity="6.8410700559616089e-01" nType="-99"/>
          </Node>
        </Node>
        <Node pos="r" depth="1" NCoef="0" IVar="0" Cut="2.2624948730468750e+03" cType="1" res="-9.5588276162743568e-03" rms="2.5727108120918274e-01" purity="8.4047013521194458e-01" nType="0">
          <Node pos="l" depth="2" NCoef="0" IVar="10" Cut="4.0030053257942200e-01" cType="1" res="-2.1252661943435669e-02" rms="2.9564890265464783e-01" purity="7.6884949207305908e-01" nType="0">
            <Node pos="l" depth="3" NCoef="0" IVar="-1" Cut="0.0000000000000000e+00" cType="1" res="-1.6028556972742081e-02" rms="2.8914040327072144e-01" purity="7.8534275293350220e-01" nType="-99"/>
            <Node pos="r" depth="3" NCoef="0" IVar="-1" Cut="0.0000000000000000e+00" cType="1" res="-4.1026301681995392e-02" rms="3.0614909529685974e-01" purity="7.4015462398529053e-01" nType="-99"/>
          </Node>
          <Node pos="r" depth="2" NCoef="0" IVar="7" Cut="1.0722728446125984e-02" cType="1" res="6.6591138020157814e-03" rms="1.9054223597049713e-01" purity="9.3979942798614502e-01" nType="0">
            <Node pos="l" depth="3" NCoef="0" IVar="-1" Cut="0.0000000000000000e+00" cType="1" res="2.2864462807774544e-02" rms="1.9346041977405548e-01" purity="9.4107013940811157e-01" nType="-99"/>
            <Node pos="r" depth="3" NCoef="0" IVar="-1" Cut="0.0000000000000000e+00" cType="1" res="7.0318877696990967e-03" rms="1.8734641373157501e-01" purity="9.3846249580383301e-01" nType="-99"/>
          </Node>
        </Node>
      </Node>
    </BinaryTree>
    <BinaryTree type="DecisionTree" boostWeight="1.0000000000000000e+00" itree="490">
      <Node pos="s" depth="0" NCoef="0" IVar="3" Cut="1.4690800476074219e+02" cType="1" res="2.1533118560910225e-03" rms="2.8872817754745483e-01" purity="4.9987789988517761e-01" nType="0">
        <Node pos="l" depth="1" NCoef="0" IVar="8" Cut="-1.3331125676631927e-01" cType="1" res="1.1253108270466328e-02" rms="2.4664141237735748e-01" purity="1.3307780027389526e-01" nType="0">
          <Node pos="l" depth="2" NCoef="0" IVar="7" Cut="-5.9993559122085571e-01" cType="1" res="2.0513154566287994e-02" rms="2.4854409694671631e-01" purity="1.3749912381172180e-01" nType="0">
            <Node pos="l" depth="3" NCoef="0" IVar="-1" Cut="0.0000000000000000e+00" cType="1" res="-3.7585478276014328e-03" rms="1.7871408164501190e-01" purity="5.9021607041358948e-02" nType="-99"/>
            <Node pos="r" depth="3" NCoef="0" IVar="-1" Cut="0.0000000000000000e+00" cType="1" res="4.9430157989263535e-02" rms="2.7743002772331238e-01" purity="1.7845086753368378e-01" nType="-99"/>
          </Node>
          <Node pos="r" depth="2" NCoef="0" IVar="7" Cut="1.7453747987747192e-01" cType="1" res="2.9979643877595663e-03" rms="2.4463739991188049e-01" purity="1.2913626432418823e-01" nType="0">
            <Node pos="l" depth="3" NCoef="0" IVar="-1" Cut="0.0000000000000000e+00" cType="1" res="2.0068503916263580e-02" rms="2.5983041524887085e-01" purity="1.4410910010337830e-01" nType="-99"/>
            <Node pos="r" depth="3" NCoef="0" IVar="-1" Cut="0.0000000000000000e+00" cType="1" res="-1.0744497179985046e-02" rms="2.2854408621788025e-01" purity="1.1457992345094681e-01" nType="-99"/>
          </Node>
        </Node>
        <Node pos="r" depth="1" NCoef="0" IVar="9" Cut="-1.2000336647033691e+00" cType="1" res="1.9673685892485082e-04" rms="2.9696297645568848e-01" purity="5.7874470949172974e-01" nType="0">
          <Node pos="l" depth="2" NCoef="0" IVar="10" Cut="1.3293217122554779e-01" cType="1" res="1.4972378499805927e-02" rms="3.0284622311592102e-01" purity="3.5091817378997803e-01" nType="0">
            <Node pos="l" depth="3" NCoef="0" IVar="-1" Cut="0.0000000000000000e+00" cType="1" res="2.7918618172407150e-02" rms="3.0902481079101562e-01" purity="3.7178456783294678e-01" nType="-99"/>
            <Node pos="r" depth="3" NCoef="0" IVar="-1" Cut="0.0000000000000000e+00" cType="1" res="-3.7972363643348217e-03" rms="2.9166281223297119e-01" purity="3.1724280118942261e-01" nType="-99"/>
          </Node>
          <Node pos="r" depth="2" NCoef="0" IVar="2" Cut="3.2476940917968750e+02" cType="1" res="-1.8270346336066723e-03" rms="2.9609066247940063e-01" purity="6.0994935035705566e-01" nType="0">
            <Node pos="l" depth="3" NCoef="0" IVar="-1" Cut="0.0000000000000000e+00" cType="1" res="-8.8261319324374199e-03" rms="3.0300006270408630e-01" purity="5.4566192626953125e-01" nType="-99"/>
            <Node pos="r" depth="3" NCoef="0" IVar="-1" Cut="0.0000000000000000e+00" cType="1" res="2.2700973786413670e-03" rms="2.9169225692749023e-01" purity="6.4951509237289429e-01" nType="-99"/>
          </Node>
        </Node>
      </Node>
    </BinaryTree>
    <BinaryTree type="DecisionTree" boostWeight="1.0000000000000000e+00" itree="491">
      <Node pos="s" depth="0" NCoef="0" IVar="7" Cut="9.4154334068298340e-01" cType="1" res="1.1121166171506047e-03" rms="2.8893104195594788e-01" purity="5.0239676237106323e-01" nType="0">
        <Node pos="l" depth="1" NCoef="0" IVar="11" Cut="1.1427444219589233e+00" cType="1" res="-6.5996689954772592e-04" rms="2.9449862241744995e-01" purity="5.4773610830307007e-01" nType="0">
          <Node pos="l" depth="2" NCoef="0" IVar="4" Cut="2.7076022338867188e+02" cType="1" res="-2.1096752025187016e-03" rms="2.9379460215568542e-01" purity="5.2907866239547729e-01" nType="0">
            <Node pos="l" depth="3" NCoef="0" IVar="-1" Cut="0.0000000000000000e+00" cType="1" res="-8.9102389756590128e-04" rms="2.9782530665397644e-01" purity="4.9508929252624512e-01" nType="-99"/>
            <Node pos="r" depth="3" NCoef="0" IVar="-1" Cut="0.0000000000000000e+00" cType="1" res="-2.4586038663983345e-02" rms="2.5026208162307739e-01" purity="8.6401367187500000e-01" nType="-99"/>
          </Node>
          <Node pos="r" depth="2" NCoef="0" IVar="11" Cut="1.6162463426589966e+00" cType="1" res="1.3134573586285114e-02" rms="3.0076602101325989e-01" purity="7.2526937723159790e-01" nType="0">
            <Node pos="l" depth="3" NCoef="0" IVar="-1" Cut="0.0000000000000000e+00" cType="1" res="3.6387652158737183e-02" rms="2.7925574779510498e-01" purity="7.9611825942993164e-01" nType="-99"/>
            <Node pos="r" depth="3" NCoef="0" IVar="-1" Cut="0.0000000000000000e+00" cType="1" res="-4.7758212313055992e-03" rms="3.2099705934524536e-01" purity="6.5037918090820312e-01" nType="-99"/>
          </Node>
        </Node>
        <Node pos="r" depth="1" NCoef="0" IVar="3" Cut="2.1611465454101562e+02" cType="1" res="1.1348496191203594e-02" rms="2.5415447354316711e-01" purity="2.4049517512321472e-01" nType="0">
          <Node pos="l" depth="2" NCoef="0" IVar="11" Cut="-2.1717560291290283e+00" cType="1" res="3.0568526126444340e-03" rms="2.1382515132427216e-01" purity="1.3260743021965027e-01" nType="0">
            <Node pos="l" depth="3" NCoef="0" IVar="-1" Cut="0.0000000000000000e+00" cType="1" res="-1.9838461652398109e-02" rms="1.6028907895088196e-01" purity="3.7371881306171417e-02" nType="-99"/>
            <Node pos="r" depth="3" NCoef="0" IVar="-1" Cut="0.0000000000000000e+00" cType="1" res="2.3874621838331223e-02" rms="2.9635295271873474e-01" purity="3.3524867892265320e-01" nType="-99"/>
          </Node>
          <Node pos="r" depth="2" NCoef="0" IVar="11" Cut="-1.6221147775650024e+00" cType="1" res="2.3763507604598999e-02" rms="3.0429634451866150e-01" purity="4.0203469991683960e-01" nType="0">
            <Node pos="l" depth="3" NCoef="0" IVar="-1" Cut="0.0000000000000000e+00" cType="1" res="5.4311670362949371e-02" rms="3.0424967408180237e-01" purity="2.0124129951000214e-01" nType="-99"/>
            <Node pos="r" depth="3" NCoef="0" IVar="-1" Cut="0.0000000000000000e+00" cType="1" res="4.9072974361479282e-03" rms="3.0328828096389771e-01" purity="6.4209681749343872e-01" nType="-99"/>
          </Node>
        </Node>
      </Node>
    </BinaryTree>
    <BinaryTree type="DecisionTree" boostWeight="1.0000000000000000e+00" itree="492">
      <Node pos="s" depth="0" NCoef="0" IVar="11" Cut="-1.6190851926803589e+00" cType="1" res="8.7699131108820438e-04" rms="2.8683516383171082e-01" purity="4.9963119626045227e-01" nType="0">
        <Node pos="l" depth="1" NCoef="0" IVar="1" Cut="4.1834436357021332e-02" cType="1" res="4.3123331852257252e-03" rms="2.9724806547164917e-01" purity="2.6334694027900696e-01" nType="0">
          <Node pos="l" depth="2" NCoef="0" IVar="8" Cut="3.9997813105583191e-01" cType="1" res="-1.5212318394333124e-03" rms="2.3649270832538605e-01" purity="1.1490155011415482e-01" nType="0">
            <Node pos="l" depth="3" NCoef="0" IVar="-1" Cut="0.0000000000000000e+00" cType="1" res="-1.1574910953640938e-02" rms="2.3998072743415833e-01" purity="1.2007625401020050e-01" nType="-99"/>
            <Node pos="r" depth="3" NCoef="0" IVar="-1" Cut="0.0000000000000000e+00" cType="1" res="1.2868531979620457e-02" rms="2.3072414100170135e-01" purity="1.0688610374927521e-01" nType="-99"/>
          </Node>
          <Node pos="r" depth="2" NCoef="0" IVar="4" Cut="1.0623201751708984e+02" cType="1" res="1.1956352740526199e-02" rms="3.6158668994903564e-01" purity="4.5786255598068237e-01" nType="0">
            <Node pos="l" depth="3" NCoef="0" IVar="-1" Cut="0.0000000000000000e+00" cType="1" res="-1.5578900463879108e-02" rms="2.7950531244277954e-01" purity="1.1887302249670029e-01" nType="-99"/>
            <Node pos="r" depth="3" NCoef="0" IVar="-1" Cut="0.0000000000000000e+00" cType="1" res="1.3444609940052032e-02" rms="3.8130459189414978e-01" purity="5.5367749929428101e-01" nType="-99"/>
          </Node>
        </Node>
        <Node pos="r" depth="1" NCoef="0" IVar="11" Cut="1.7478671073913574e+00" cType="1" res="-2.8222952969372272e-03" rms="2.7513405680656433e-01" purity="7.5406968593597412e-01" nType="0">
          <Node pos="l" depth="2" NCoef="0" IVar="10" Cut="6.6633027791976929e-01" cType="1" res="-4.3308646418154240e-03" rms="2.7350577712059021e-01" purity="7.6546275615692139e-01" nType="0">
            <Node pos="l" depth="3" NCoef="0" IVar="-1" Cut="0.0000000000000000e+00" cType="1" res="-2.1207991521805525e-03" rms="2.6905569434165955e-01" purity="7.8664904832839966e-01" nType="-99"/>
            <Node pos="r" depth="3" NCoef="0" IVar="-1" Cut="0.0000000000000000e+00" cType="1" res="-1.3975779525935650e-02" rms="2.8483942151069641e-01" purity="7.0929133892059326e-01" nType="-99"/>
          </Node>
          <Node pos="r" depth="2" NCoef="0" IVar="-1" Cut="0.0000000000000000e+00" cType="1" res="1.5260321088135242e-02" rms="2.9315084218978882e-01" purity="6.1907196044921875e-01" nType="-99"/>
        </Node>
      </Node>
    </BinaryTree>
    <BinaryTree type="DecisionTree" boostWeight="1.0000000000000000e+00" itree="493">
      <Node pos="s" depth="0" NCoef="0" IVar="9" Cut="-1.2000005245208740e+00" cType="1" res="5.4164655011845753e-05" rms="2.8635099530220032e-01" purity="5.0299245119094849e-01" nType="0">
        <Node pos="l" depth="1" NCoef="0" IVar="9" Cut="-1.5047717094421387e+00" cType="1" res="-1.4013399370014668e-02" rms="2.6966762542724609e-01" purity="2.6748111844062805e-01" nType="0">
          <Node pos="l" depth="2" NCoef="0" IVar="8" Cut="-1.3249997794628143e-01" cType="1" res="-3.4171836450695992e-03" rms="2.5748199224472046e-01" purity="2.0398217439651489e-01" nType="0">
            <Node pos="l" depth="3" NCoef="0" IVar="-1" Cut="0.0000000000000000e+00" cType="1" res="1.1271540075540543e-02" rms="2.5776371359825134e-01" purity="2.1492795646190643e-01" nType="-99"/>
            <Node pos="r" depth="3" NCoef="0" IVar="-1" Cut="0.0000000000000000e+00" cType="1" res="-1.8753765150904655e-02" rms="2.5675427913665771e-01" purity="1.9357790052890778e-01" nType="-99"/>
          </Node>
          <Node pos="r" depth="2" NCoef="0" IVar="8" Cut="-1.3525092601776123e-01" cType="1" res="-3.1324706971645355e-02" rms="2.8763169050216675e-01" purity="3.7122097611427307e-01" nType="0">
            <Node pos="l" depth="3" NCoef="0" IVar="-1" Cut="0.0000000000000000e+00" cType="1" res="-3.2128442078828812e-02" rms="2.6757237315177917e-01" purity="3.6989519000053406e-01" nType="-99"/>
            <Node pos="r" depth="3" NCoef="0" IVar="-1" Cut="0.0000000000000000e+00" cType="1" res="-3.6502901464700699e-02" rms="3.0650311708450317e-01" purity="3.7255901098251343e-01" nType="-99"/>
          </Node>
        </Node>
        <Node pos="r" depth="1" NCoef="0" IVar="9" Cut="7.0476311445236206e-01" cType="1" res="2.2341506555676460e-03" rms="2.8878879547119141e-01" purity="5.3948855400085449e-01" nType="0">
          <Node pos="l" depth="2" NCoef="0" IVar="0" Cut="1.4401011962890625e+03" cType="1" res="6.0236784629523754e-03" rms="2.8820767998695374e-01" purity="5.9712922573089600e-01" nType="0">
            <Node pos="l" depth="3" NCoef="0" IVar="-1" Cut="0.0000000000000000e+00" cType="1" res="1.3243032619357109e-02" rms="3.1591069698333740e-01" purity="2.8878813982009888e-01" nType="-99"/>
            <Node pos="r" depth="3" NCoef="0" IVar="-1" Cut="0.0000000000000000e+00" cType="1" res="7.0311874151229858e-04" rms="2.6639357209205627e-01" purity="8.1869029998779297e-01" nType="-99"/>
          </Node>
          <Node pos="r" depth="2" NCoef="0" IVar="1" Cut="4.1751381009817123e-02" cType="1" res="-7.1815513074398041e-03" rms="2.9001334309577942e-01" purity="3.9627066254615784e-01" nType="0">
            <Node pos="l" depth="3" NCoef="0" IVar="-1" Cut="0.0000000000000000e+00" cType="1" res="6.5528405830264091e-03" rms="2.6025226712226868e-01" purity="1.6427731513977051e-01" nType="-99"/>
            <Node pos="r" depth="3" NCoef="0" IVar="-1" Cut="0.0000000000000000e+00" cType="1" res="-1.8189916387200356e-02" rms="3.1549483537673950e-01" purity="6.1821991205215454e-01" nType="-99"/>
          </Node>
        </Node>
      </Node>
    </BinaryTree>
    <BinaryTree type="DecisionTree" boostWeight="1.0000000000000000e+00" itree="494">
      <Node pos="s" depth="0" NCoef="0" IVar="3" Cut="4.3204629516601562e+02" cType="1" res="3.3910861238837242e-03" rms="2.8613236546516418e-01" purity="5.0374901294708252e-01" nType="0">
        <Node pos="l" depth="1" NCoef="0" IVar="11" Cut="-1.8952682018280029e+00" cType="1" res="4.2396290227770805e-03" rms="2.8635320067405701e-01" purity="4.9159219861030579e-01" nType="0">
          <Node pos="l" depth="2" NCoef="0" IVar="8" Cut="1.1999169588088989e+00" cType="1" res="1.3755548570770770e-04" rms="2.9362770915031433e-01" purity="2.3222546279430389e-01" nType="0">
            <Node pos="l" depth="3" NCoef="0" IVar="-1" Cut="0.0000000000000000e+00" cType="1" res="2.7387551963329315e-03" rms="3.0813306570053101e-01" purity="2.6132541894912720e-01" nType="-99"/>
            <Node pos="r" depth="3" NCoef="0" IVar="-1" Cut="0.0000000000000000e+00" cType="1" res="-3.0959729105234146e-02" rms="1.8845883011817932e-01" purity="6.3965328037738800e-02" nType="-99"/>
          </Node>
          <Node pos="r" depth="2" NCoef="0" IVar="9" Cut="1.4661999940872192e+00" cType="1" res="8.4415953606367111e-03" rms="2.7864214777946472e-01" purity="7.5727504491806030e-01" nType="0">
            <Node pos="l" depth="3" NCoef="0" IVar="-1" Cut="0.0000000000000000e+00" cType="1" res="8.3854356780648232e-03" rms="2.7548089623451233e-01" purity="7.7695816755294800e-01" nType="-99"/>
            <Node pos="r" depth="3" NCoef="0" IVar="-1" Cut="0.0000000000000000e+00" cType="1" res="3.1921282410621643e-02" rms="3.1930199265480042e-01" purity="4.7617468237876892e-01" nType="-99"/>
          </Node>
        </Node>
        <Node pos="r" depth="1" NCoef="0" IVar="-1" Cut="0.0000000000000000e+00" cType="1" res="-1.6186801716685295e-02" rms="2.8117877244949341e-01" purity="7.4525445699691772e-01" nType="-99"/>
      </Node>
    </BinaryTree>
    <BinaryTree type="DecisionTree" boostWeight="1.0000000000000000e+00" itree="495">
      <Node pos="s" depth="0" NCoef="0" IVar="9" Cut="1.9998748302459717e+00" cType="1" res="-2.0312925335019827e-03" rms="2.8529417514801025e-01" purity="4.9902376532554626e-01" nType="0">
        <Node pos="l" depth="1" NCoef="0" IVar="9" Cut="-1.6572762727737427e+00" cType="1" res="-1.2390663614496589e-03" rms="2.8776904940605164e-01" purity="5.1294165849685669e-01" nType="0">
          <Node pos="l" depth="2" NCoef="0" IVar="3" Cut="2.0137217712402344e+02" cType="1" res="-1.6060085967183113e-02" rms="2.3414976894855499e-01" purity="1.3973152637481689e-01" nType="0">
            <Node pos="l" depth="3" NCoef="0" IVar="-1" Cut="0.0000000000000000e+00" cType="1" res="-6.3582924194633961e-03" rms="2.1189752221107483e-01" purity="9.3543834984302521e-02" nType="-99"/>
            <Node pos="r" depth="3" NCoef="0" IVar="-1" Cut="0.0000000000000000e+00" cType="1" res="-4.2172193527221680e-02" rms="2.6211148500442505e-01" purity="2.0709131658077240e-01" nType="-99"/>
          </Node>
          <Node pos="r" depth="2" NCoef="0" IVar="10" Cut="-1.4668052196502686e+00" cType="1" res="-1.8763601838145405e-04" rms="2.9116943478584290e-01" purity="5.3941786289215088e-01" nType="0">
            <Node pos="l" depth="3" NCoef="0" IVar="-1" Cut="0.0000000000000000e+00" cType="1" res="1.1214659549295902e-02" rms="2.9890397191047668e-01" purity="4.0000569820404053e-01" nType="-99"/>
            <Node pos="r" depth="3" NCoef="0" IVar="-1" Cut="0.0000000000000000e+00" cType="1" res="-1.6507072141394019e-03" rms="2.9019302129745483e-01" purity="5.5633664131164551e-01" nType="-99"/>
          </Node>
        </Node>
        <Node pos="r" depth="1" NCoef="0" IVar="-1" Cut="0.0000000000000000e+00" cType="1" res="-4.5070931315422058e-02" rms="2.0308558642864227e-01" purity="1.1000916361808777e-01" nType="-99"/>
      </Node>
    </BinaryTree>
    <BinaryTree type="DecisionTree" boostWeight="1.0000000000000000e+00" itree="496">
      <Node pos="s" depth="0" NCoef="0" IVar="7" Cut="1.3859160244464874e-01" cType="1" res="-1.1325548402965069e-03" rms="2.8678491711616516e-01" purity="4.9830329418182373e-01" nType="0">
        <Node pos="l" depth="1" NCoef="0" IVar="3" Cut="3.3656466674804688e+02" cType="1" res="3.0046897009015083e-03" rms="2.9026156663894653e-01" purity="5.2434134483337402e-01" nType="0">
          <Node pos="l" depth="2" NCoef="0" IVar="11" Cut="1.1428482532501221e+00" cType="1" res="2.6202926528640091e-04" rms="2.9245415329933167e-01" purity="4.7689738869667053e-01" nType="0">
            <Node pos="l" depth="3" NCoef="0" IVar="-1" Cut="0.0000000000000000e+00" cType="1" res="2.4463601876050234e-03" rms="2.9074540734291077e-01" purity="4.6252354979515076e-01" nType="-99"/>
            <Node pos="r" depth="3" NCoef="0" IVar="-1" Cut="0.0000000000000000e+00" cType="1" res="-2.2345794364809990e-02" rms="3.1052279472351074e-01" purity="6.4097994565963745e-01" nType="-99"/>
          </Node>
          <Node pos="r" depth="2" NCoef="0" IVar="1" Cut="4.0919899940490723e-02" cType="1" res="1.7402635887265205e-02" rms="2.7802476286888123e-01" purity="7.7340483665466309e-01" nType="0">
            <Node pos="l" depth="3" NCoef="0" IVar="-1" Cut="0.0000000000000000e+00" cType="1" res="2.9256807640194893e-02" rms="3.3819818496704102e-01" purity="5.1355713605880737e-01" nType="-99"/>
            <Node pos="r" depth="3" NCoef="0" IVar="-1" Cut="0.0000000000000000e+00" cType="1" res="1.4921901747584343e-02" rms="2.4526053667068481e-01" purity="8.9238846302032471e-01" nType="-99"/>
          </Node>
        </Node>
        <Node pos="r" depth="1" NCoef="0" IVar="5" Cut="7.0725730895996094e+01" cType="1" res="-6.4699901267886162e-03" rms="2.8214687108993530e-01" purity="4.6471169590950012e-01" nType="0">
          <Node pos="l" depth="2" NCoef="0" IVar="7" Cut="5.1866436004638672e-01" cType="1" res="-1.4071585610508919e-02" rms="2.6890531182289124e-01" purity="1.5311579406261444e-01" nType="0">
            <Node pos="l" depth="3" NCoef="0" IVar="-1" Cut="0.0000000000000000e+00" cType="1" res="-2.9794979840517044e-02" rms="3.2383182644844055e-01" purity="2.5844871997833252e-01" nType="-99"/>
            <Node pos="r" depth="3" NCoef="0" IVar="-1" Cut="0.0000000000000000e+00" cType="1" res="-1.0763556696474552e-02" rms="2.4448713660240173e-01" purity="1.1323320120573044e-01" nType="-99"/>
          </Node>
          <Node pos="r" depth="2" NCoef="0" IVar="8" Cut="6.6688340902328491e-01" cType="1" res="-1.2408191105350852e-03" rms="2.9079076647758484e-01" purity="6.7905992269515991e-01" nType="0">
            <Node pos="l" depth="3" NCoef="0" IVar="-1" Cut="0.0000000000000000e+00" cType="1" res="2.9275969136506319e-03" rms="2.8893026709556580e-01" purity="7.1562546491622925e-01" nType="-99"/>
            <Node pos="r" depth="3" NCoef="0" IVar="-1" Cut="0.0000000000000000e+00" cType="1" res="-1.3257036916911602e-02" rms="2.9607185721397400e-01" purity="5.6821042299270630e-01" nType="-99"/>
          </Node>
        </Node>
      </Node>
    </BinaryTree>
    <BinaryTree type="DecisionTree" boostWeight="1.0000000000000000e+00" itree="497">
      <Node pos="s" depth="0" NCoef="0" IVar="7" Cut="-6.6016262769699097e-01" cType="1" res="-1.0160171659663320e-03" rms="2.8362873196601868e-01" purity="4.9842309951782227e-01" nType="0">
        <Node pos="l" depth="1" NCoef="0" IVar="5" Cut="9.6361053466796875e+01" cType="1" res="7.1965437382459641e-03" rms="2.7806749939918518e-01" purity="3.3693736791610718e-01" nType="0">
          <Node pos="l" depth="2" NCoef="0" IVar="9" Cut="-9.3340706825256348e-01" cType="1" res="1.2826458550989628e-03" rms="2.7077418565750122e-01" purity="1.8529494106769562e-01" nType="0">
            <Node pos="l" depth="3" NCoef="0" IVar="-1" Cut="0.0000000000000000e+00" cType="1" res="2.7338642627000809e-02" rms="2.8310149908065796e-01" purity="1.6913938522338867e-01" nType="-99"/>
            <Node pos="r" depth="3" NCoef="0" IVar="-1" Cut="0.0000000000000000e+00" cType="1" res="-7.5997826643288136e-03" rms="2.6563045382499695e-01" purity="1.9143168628215790e-01" nType="-99"/>
          </Node>
          <Node pos="r" depth="2" NCoef="0" IVar="9" Cut="-1.3322718441486359e-01" cType="1" res="2.3565452545881271e-02" rms="2.9670906066894531e-01" purity="7.5666415691375732e-01" nType="0">
            <Node pos="l" depth="3" NCoef="0" IVar="-1" Cut="0.0000000000000000e+00" cType="1" res="3.6522090435028076e-02" rms="3.0374979972839355e-01" purity="7.7373427152633667e-01" nType="-99"/>
            <Node pos="r" depth="3" NCoef="0" IVar="-1" Cut="0.0000000000000000e+00" cType="1" res="1.3082627207040787e-02" rms="2.8926756978034973e-01" purity="7.4024665355682373e-01" nType="-99"/>
          </Node>
        </Node>
        <Node pos="r" depth="1" NCoef="0" IVar="11" Cut="1.1428482532501221e+00" cType="1" res="-3.4251033794134855e-03" rms="2.8519463539123535e-01" purity="5.4579365253448486e-01" nType="0">
          <Node pos="l" depth="2" NCoef="0" IVar="3" Cut="2.4268443298339844e+02" cType="1" res="-4.7621265985071659e-03" rms="2.8441718220710754e-01" purity="5.2750664949417114e-01" nType="0">
            <Node pos="l" depth="3" NCoef="0" IVar="-1" Cut="0.0000000000000000e+00" cType="1" res="-9.7908871248364449e-03" rms="2.8771191835403442e-01" purity="3.8193514943122864e-01" nType="-99"/>
            <Node pos="r" depth="3" NCoef="0" IVar="-1" Cut="0.0000000000000000e+00" cType="1" res="9.4967384939081967e-05" rms="2.7975896000862122e-01" purity="7.2733569145202637e-01" nType="-99"/>
          </Node>
          <Node pos="r" depth="2" NCoef="0" IVar="11" Cut="1.6954425573348999e+00" cType="1" res="9.4764921814203262e-03" rms="2.9227623343467712e-01" purity="7.2225350141525269e-01" nType="0">
            <Node pos="l" depth="3" NCoef="0" IVar="-1" Cut="0.0000000000000000e+00" cType="1" res="2.1151741966605186e-02" rms="2.8717604279518127e-01" purity="7.8454583883285522e-01" nType="-99"/>
            <Node pos="r" depth="3" NCoef="0" IVar="-1" Cut="0.0000000000000000e+00" cType="1" res="-9.6165540162473917e-04" rms="2.9810693860054016e-01" purity="6.4553940296173096e-01" nType="-99"/>
          </Node>
        </Node>
      </Node>
    </BinaryTree>
    <BinaryTree type="DecisionTree" boostWeight="1.0000000000000000e+00" itree="498">
      <Node pos="s" depth="0" NCoef="0" IVar="9" Cut="1.9999843835830688e+00" cType="1" res="-5.9068831615149975e-04" rms="2.8377023339271545e-01" purity="4.9984210729598999e-01" nType="0">
        <Node pos="l" depth="1" NCoef="0" IVar="9" Cut="-9.7153770923614502e-01" cType="1" res="2.0853809837717563e-04" rms="2.8653493523597717e-01" purity="5.1479089260101318e-01" nType="0">
          <Node pos="l" depth="2" NCoef="0" IVar="10" Cut="-9.3345427513122559e-01" cType="1" res="9.1173378750681877e-03" rms="2.8336879611015320e-01" purity="3.5105597972869873e-01" nType="0">
            <Node pos="l" depth="3" NCoef="0" IVar="-1" Cut="0.0000000000000000e+00" cType="1" res="-6.6841966472566128e-03" rms="2.6757568120956421e-01" purity="2.8104662895202637e-01" nType="-99"/>
            <Node pos="r" depth="3" NCoef="0" IVar="-1" Cut="0.0000000000000000e+00" cType="1" res="1.8098510801792145e-02" rms="2.8961363434791565e-01" purity="3.8091176748275757e-01" nType="-99"/>
          </Node>
          <Node pos="r" depth="2" NCoef="0" IVar="9" Cut="4.4335576891899109e-01" cType="1" res="-1.8933303654193878e-03" rms="2.8723657131195068e-01" purity="5.5342113971710205e-01" nType="0">
            <Node pos="l" depth="3" NCoef="0" IVar="-1" Cut="0.0000000000000000e+00" cType="1" res="-6.3715884461998940e-03" rms="2.8561374545097351e-01" purity="5.8975243568420410e-01" nType="-99"/>
            <Node pos="r" depth="3" NCoef="0" IVar="-1" Cut="0.0000000000000000e+00" cType="1" res="4.0254965424537659e-03" rms="2.8967675566673279e-01" purity="4.9659264087677002e-01" nType="-99"/>
          </Node>
        </Node>
        <Node pos="r" depth="1" NCoef="0" IVar="-1" Cut="0.0000000000000000e+00" cType="1" res="-4.7896072268486023e-02" rms="1.9069387018680573e-01" purity="8.5963509976863861e-02" nType="-99"/>
      </Node>
    </BinaryTree>
    <BinaryTree type="DecisionTree" boostWeight="1.0000000000000000e+00" itree="499">
      <Node pos="s" depth="0" NCoef="0" IVar="9" Cut="9.3318241834640503e-01" cType="1" res="-2.6345823425799608e-04" rms="2.8778398036956787e-01" purity="5.0075787305831909e-01" nType="0">
        <Node pos="l" depth="1" NCoef="0" IVar="10" Cut="-1.3347852230072021e-01" cType="1" res="-2.5153649039566517e-03" rms="2.8907114267349243e-01" purity="5.3650736808776855e-01" nType="0">
          <Node pos="l" depth="2" NCoef="0" IVar="9" Cut="-1.2001595497131348e+00" cType="1" res="-7.1829827502369881e-03" rms="2.8953573107719421e-01" purity="5.1707828044891357e-01" nType="0">
            <Node pos="l" depth="3" NCoef="0" IVar="-1" Cut="0.0000000000000000e+00" cType="1" res="-2.8041752055287361e-02" rms="2.6363894343376160e-01" purity="2.5580897927284241e-01" nType="-99"/>
            <Node pos="r" depth="3" NCoef="0" IVar="-1" Cut="0.0000000000000000e+00" cType="1" res="-4.1985246352851391e-03" rms="2.9500603675842285e-01" purity="5.7664585113525391e-01" nType="-99"/>
          </Node>
          <Node pos="r" depth="2" NCoef="0" IVar="7" Cut="-1.1375416517257690e+00" cType="1" res="1.5504667535424232e-03" rms="2.8860434889793396e-01" purity="5.5343151092529297e-01" nType="0">
            <Node pos="l" depth="3" NCoef="0" IVar="-1" Cut="0.0000000000000000e+00" cType="1" res="-2.4191725999116898e-02" rms="2.3740953207015991e-01" purity="2.1126490831375122e-01" nType="-99"/>
            <Node pos="r" depth="3" NCoef="0" IVar="-1" Cut="0.0000000000000000e+00" cType="1" res="4.0226397104561329e-03" rms="2.9328027367591858e-01" purity="5.8849251270294189e-01" nType="-99"/>
          </Node>
        </Node>
        <Node pos="r" depth="1" NCoef="0" IVar="5" Cut="6.8116714477539062e+01" cType="1" res="9.0451445430517197e-03" rms="2.8221046924591064e-01" purity="3.5298207402229309e-01" nType="0">
          <Node pos="l" depth="2" NCoef="0" IVar="7" Cut="4.0895146131515503e-01" cType="1" res="2.7331538149155676e-04" rms="2.5106433033943176e-01" purity="1.1467844992876053e-01" nType="0">
            <Node pos="l" depth="3" NCoef="0" IVar="-1" Cut="0.0000000000000000e+00" cType="1" res="-1.1823360808193684e-02" rms="2.5288820266723633e-01" purity="1.2432339042425156e-01" nType="-99"/>
            <Node pos="r" depth="3" NCoef="0" IVar="-1" Cut="0.0000000000000000e+00" cType="1" res="2.1133007481694221e-02" rms="2.4810527265071869e-01" purity="1.0134519636631012e-01" nType="-99"/>
          </Node>
          <Node pos="r" depth="2" NCoef="0" IVar="4" Cut="2.0126234436035156e+02" cType="1" res="1.6084400936961174e-02" rms="3.0472981929779053e-01" purity="5.4421699047088623e-01" nType="0">
            <Node pos="l" depth="3" NCoef="0" IVar="-1" Cut="0.0000000000000000e+00" cType="1" res="2.2056534886360168e-02" rms="3.0935820937156677e-01" purity="4.7406414151191711e-01" nType="-99"/>
            <Node pos="r" depth="3" NCoef="0" IVar="-1" Cut="0.0000000000000000e+00" cType="1" res="5.8378267567604780e-04" rms="2.9058140516281128e-01" purity="7.4404025077819824e-01" nType="-99"/>
          </Node>
        </Node>
      </Node>
    </BinaryTree>
    <BinaryTree type="DecisionTree" boostWeight="1.0000000000000000e+00" itree="500">
      <Node pos="s" depth="0" NCoef="0" IVar="7" Cut="-3.6788889765739441e-01" cType="1" res="1.1996447574347258e-03" rms="2.8468540310859680e-01" purity="5.0303339958190918e-01" nType="0">
        <Node pos="l" depth="1" NCoef="0" IVar="10" Cut="9.3322545289993286e-01" cType="1" res="8.2354601472616196e-03" rms="2.8389945626258850e-01" purity="4.3215867877006531e-01" nType="0">
          <Node pos="l" depth="2" NCoef="0" IVar="5" Cut="6.8813049316406250e+01" cType="1" res="3.9635710418224335e-03" rms="2.8206384181976318e-01" purity="4.4663384556770325e-01" nType="0">
            <Node pos="l" depth="3" NCoef="0" IVar="-1" Cut="0.0000000000000000e+00" cType="1" res="1.8520714715123177e-02" rms="2.6832705736160278e-01" purity="1.6655281186103821e-01" nType="-99"/>
            <Node pos="r" depth="3" NCoef="0" IVar="-1" Cut="0.0000000000000000e+00" cType="1" res="-2.7449063491076231e-03" rms="2.9100477695465088e-01" purity="6.4017850160598755e-01" nType="-99"/>
          </Node>
          <Node pos="r" depth="2" NCoef="0" IVar="8" Cut="-1.3020975887775421e-01" cType="1" res="2.4845762178301811e-02" rms="2.9032999277114868e-01" purity="3.7587508559226990e-01" nType="0">
            <Node pos="l" depth="3" NCoef="0" IVar="-1" Cut="0.0000000000000000e+00" cType="1" res="4.9980554729700089e-02" rms="3.0802184343338013e-01" purity="3.9691641926765442e-01" nType="-99"/>
            <Node pos="r" depth="3" NCoef="0" IVar="-1" Cut="0.0000000000000000e+00" cType="1" res="1.1177017353475094e-02" rms="2.7314689755439758e-01" purity="3.5783836245536804e-01" nType="-99"/>
          </Node>
        </Node>
        <Node pos="r" depth="1" NCoef="0" IVar="4" Cut="2.7895495605468750e+02" cType="1" res="-2.3571876809000969e-03" rms="2.8501579165458679e-01" purity="5.3886288404464722e-01" nType="0">
          <Node pos="l" depth="2" NCoef="0" IVar="2" Cut="4.9194824218750000e+02" cType="1" res="-3.9078323170542717e-03" rms="2.8930208086967468e-01" purity="5.0583726167678833e-01" nType="0">
            <Node pos="l" depth="3" NCoef="0" IVar="-1" Cut="0.0000000000000000e+00" cType="1" res="-1.0219137184321880e-03" rms="2.8693640232086182e-01" purity="4.9911037087440491e-01" nType="-99"/>
            <Node pos="r" depth="3" NCoef="0" IVar="-1" Cut="0.0000000000000000e+00" cType="1" res="-1.9578298553824425e-02" rms="3.0006811022758484e-01" purity="5.3844940662384033e-01" nType="-99"/>
          </Node>
          <Node pos="r" depth="2" NCoef="0" IVar="-1" Cut="0.0000000000000000e+00" cType="1" res="2.2834459319710732e-02" rms="2.3328378796577454e-01" purity="8.9448970556259155e-01" nType="-99"/>
        </Node>
      </Node>
    </BinaryTree>
    <BinaryTree type="DecisionTree" boostWeight="1.0000000000000000e+00" itree="501">
      <Node pos="s" depth="0" NCoef="0" IVar="9" Cut="-6.6670638322830200e-01" cType="1" res="2.5461178738623857e-03" rms="2.8552076220512390e-01" purity="5.0086659193038940e-01" nType="0">
        <Node pos="l" depth="1" NCoef="0" IVar="5" Cut="8.0807861328125000e+01" cType="1" res="-5.1265736110508442e-03" rms="2.8118014335632324e-01" purity="4.0005552768707275e-01" nType="0">
          <Node pos="l" depth="2" NCoef="0" IVar="9" Cut="-8.6993736028671265e-01" cType="1" res="-1.2622657231986523e-02" rms="2.6704120635986328e-01" purity="1.7424099147319794e-01" nType="0">
            <Node pos="l" depth="3" NCoef="0" IVar="-1" Cut="0.0000000000000000e+00" cType="1" res="-1.1252327822148800e-02" rms="2.6027336716651917e-01" purity="1.5497036278247833e-01" nType="-99"/>
            <Node pos="r" depth="3" NCoef="0" IVar="-1" Cut="0.0000000000000000e+00" cType="1" res="-3.4750737249851227e-02" rms="2.9707637429237366e-01" purity="2.6866334676742554e-01" nType="-99"/>
          </Node>
          <Node pos="r" depth="2" NCoef="0" IVar="5" Cut="9.4745323181152344e+01" cType="1" res="5.0988243892788887e-03" rms="2.9908955097198486e-01" purity="7.0808899402618408e-01" nType="0">
            <Node pos="l" depth="3" NCoef="0" IVar="-1" Cut="0.0000000000000000e+00" cType="1" res="1.8719255924224854e-02" rms="3.4017357230186462e-01" purity="5.1452445983886719e-01" nType="-99"/>
            <Node pos="r" depth="3" NCoef="0" IVar="-1" Cut="0.0000000000000000e+00" cType="1" res="-2.4926615878939629e-03" rms="2.8024956583976746e-01" purity="7.8725343942642212e-01" nType="-99"/>
          </Node>
        </Node>
        <Node pos="r" depth="1" NCoef="0" IVar="11" Cut="-2.4476201534271240e+00" cType="1" res="5.3022908978164196e-03" rms="2.8701391816139221e-01" purity="5.3707981109619141e-01" nType="0">
          <Node pos="l" depth="2" NCoef="0" IVar="4" Cut="2.1608415222167969e+02" cType="1" res="1.2914915569126606e-02" rms="3.0601549148559570e-01" purity="2.6843905448913574e-01" nType="0">
            <Node pos="l" depth="3" NCoef="0" IVar="-1" Cut="0.0000000000000000e+00" cType="1" res="1.2525567784905434e-02" rms="2.9758954048156738e-01" purity="2.0275945961475372e-01" nType="-99"/>
            <Node pos="r" depth="3" NCoef="0" IVar="-1" Cut="0.0000000000000000e+00" cType="1" res="2.0764265209436417e-02" rms="3.5241481661796570e-01" purity="6.6623097658157349e-01" nType="-99"/>
          </Node>
          <Node pos="r" depth="2" NCoef="0" IVar="4" Cut="1.2124864959716797e+02" cType="1" res="-1.2478990247473121e-03" rms="2.6942229270935059e-01" purity="7.6822847127914429e-01" nType="0">
            <Node pos="l" depth="3" NCoef="0" IVar="-1" Cut="0.0000000000000000e+00" cType="1" res="-1.9018126651644707e-02" rms="3.0448406934738159e-01" purity="3.1345838308334351e-01" nType="-99"/>
            <Node pos="r" depth="3" NCoef="0" IVar="-1" Cut="0.0000000000000000e+00" cType="1" res="2.7902012225240469e-03" rms="2.6324754953384399e-01" purity="8.4088182449340820e-01" nType="-99"/>
          </Node>
        </Node>
      </Node>
    </BinaryTree>
    <BinaryTree type="DecisionTree" boostWeight="1.0000000000000000e+00" itree="502">
      <Node pos="s" depth="0" NCoef="0" IVar="9" Cut="-1.3334080576896667e-01" cType="1" res="1.3401791511569172e-04" rms="2.8468099236488342e-01" purity="4.9949872493743896e-01" nType="0">
        <Node pos="l" depth="1" NCoef="0" IVar="9" Cut="-5.1429516077041626e-01" cType="1" res="4.6738218516111374e-03" rms="2.8841498494148254e-01" purity="4.9247097969055176e-01" nType="0">
          <Node pos="l" depth="2" NCoef="0" IVar="7" Cut="-6.3579267263412476e-01" cType="1" res="7.4870779644697905e-04" rms="2.8396028280258179e-01" purity="4.3911916017532349e-01" nType="0">
            <Node pos="l" depth="3" NCoef="0" IVar="-1" Cut="0.0000000000000000e+00" cType="1" res="-1.3843310065567493e-02" rms="2.6675635576248169e-01" purity="2.9577189683914185e-01" nType="-99"/>
            <Node pos="r" depth="3" NCoef="0" IVar="-1" Cut="0.0000000000000000e+00" cType="1" res="6.1423806473612785e-03" rms="2.9023170471191406e-01" purity="4.9474418163299561e-01" nType="-99"/>
          </Node>
          <Node pos="r" depth="2" NCoef="0" IVar="11" Cut="-1.8953913450241089e+00" cType="1" res="1.3828335329890251e-02" rms="2.9834586381912231e-01" purity="6.1690288782119751e-01" nType="0">
            <Node pos="l" depth="3" NCoef="0" IVar="-1" Cut="0.0000000000000000e+00" cType="1" res="2.9300762340426445e-02" rms="3.3764600753784180e-01" purity="3.5838273167610168e-01" nType="-99"/>
            <Node pos="r" depth="3" NCoef="0" IVar="-1" Cut="0.0000000000000000e+00" cType="1" res="1.0198524687439203e-03" rms="2.6278221607208252e-01" purity="8.1925207376480103e-01" nType="-99"/>
          </Node>
        </Node>
        <Node pos="r" depth="1" NCoef="0" IVar="3" Cut="1.9317631530761719e+02" cType="1" res="-3.6258518230170012e-03" rms="2.8149560093879700e-01" purity="5.0531917810440063e-01" nType="0">
          <Node pos="l" depth="2" NCoef="0" IVar="3" Cut="1.4660494995117188e+02" cType="1" res="3.0399172101169825e-03" rms="2.6718315482139587e-01" purity="2.5799319148063660e-01" nType="0">
            <Node pos="l" depth="3" NCoef="0" IVar="-1" Cut="0.0000000000000000e+00" cType="1" res="-1.5016629360616207e-02" rms="2.1959574520587921e-01" purity="1.0152520984411240e-01" nType="-99"/>
            <Node pos="r" depth="3" NCoef="0" IVar="-1" Cut="0.0000000000000000e+00" cType="1" res="1.2810169719159603e-02" rms="3.0073547363281250e-01" purity="3.8797411322593689e-01" nType="-99"/>
          </Node>
          <Node pos="r" depth="2" NCoef="0" IVar="4" Cut="1.6264717102050781e+02" cType="1" res="-7.4506490491330624e-03" rms="2.8931924700737000e-01" purity="6.4723396301269531e-01" nType="0">
            <Node pos="l" depth="3" NCoef="0" IVar="-1" Cut="0.0000000000000000e+00" cType="1" res="-1.8818046897649765e-02" rms="3.0712804198265076e-01" purity="3.7233918905258179e-01" nType="-99"/>
            <Node pos="r" depth="3" NCoef="0" IVar="-1" Cut="0.0000000000000000e+00" cType="1" res="-3.0928440392017365e-03" rms="2.8084594011306763e-01" purity="7.7014899253845215e-01" nType="-99"/>
          </Node>
        </Node>
      </Node>
    </BinaryTree>
    <BinaryTree type="DecisionTree" boostWeight="1.0000000000000000e+00" itree="503">
      <Node pos="s" depth="0" NCoef="0" IVar="8" Cut="-1.7333191633224487e+00" cType="1" res="-1.5267099952325225e-03" rms="2.8422883152961731e-01" purity="4.9970597028732300e-01" nType="0">
        <Node pos="l" depth="1" NCoef="0" IVar="-1" Cut="0.0000000000000000e+00" cType="1" res="3.9809294044971466e-02" rms="2.3318500816822052e-01" purity="1.3052408397197723e-01" nType="-99"/>
        <Node pos="r" depth="1" NCoef="0" IVar="6" Cut="1.9566801071166992e+01" cType="1" res="-2.6305222418159246e-03" rms="2.8665193915367126e-01" purity="5.1937890052795410e-01" nType="0">
          <Node pos="l" depth="2" NCoef="0" IVar="0" Cut="1.7004224853515625e+03" cType="1" res="-6.3481526449322701e-03" rms="2.9724237322807312e-01" purity="2.3494833707809448e-01" nType="0">
            <Node pos="l" depth="3" NCoef="0" IVar="-1" Cut="0.0000000000000000e+00" cType="1" res="-3.6870664916932583e-03" rms="2.8505346179008484e-01" purity="1.6772621870040894e-01" nType="-99"/>
            <Node pos="r" depth="3" NCoef="0" IVar="-1" Cut="0.0000000000000000e+00" cType="1" res="-1.9356062635779381e-02" rms="3.5493952035903931e-01" purity="5.9471613168716431e-01" nType="-99"/>
          </Node>
          <Node pos="r" depth="2" NCoef="0" IVar="9" Cut="-1.1999312639236450e+00" cType="1" res="5.6192261399701238e-04" rms="2.7719512581825256e-01" purity="7.6362830400466919e-01" nType="0">
            <Node pos="l" depth="3" NCoef="0" IVar="-1" Cut="0.0000000000000000e+00" cType="1" res="1.6540905460715294e-02" rms="3.1885859370231628e-01" purity="5.7400357723236084e-01" nType="-99"/>
            <Node pos="r" depth="3" NCoef="0" IVar="-1" Cut="0.0000000000000000e+00" cType="1" res="-1.8864593002945185e-03" rms="2.7209538221359253e-01" purity="7.8470855951309204e-01" nType="-99"/>
          </Node>
        </Node>
      </Node>
    </BinaryTree>
    <BinaryTree type="DecisionTree" boostWeight="1.0000000000000000e+00" itree="504">
      <Node pos="s" depth="0" NCoef="0" IVar="2" Cut="4.9193893432617188e+02" cType="1" res="-2.0684748888015747e-03" rms="2.8287529945373535e-01" purity="4.9753615260124207e-01" nType="0">
        <Node pos="l" depth="1" NCoef="0" IVar="4" Cut="2.1144494628906250e+02" cType="1" res="-4.1530355811119080e-03" rms="2.7959409356117249e-01" purity="4.7694611549377441e-01" nType="0">
          <Node pos="l" depth="2" NCoef="0" IVar="4" Cut="1.5800828552246094e+02" cType="1" res="-6.0520023107528687e-03" rms="2.8415983915328979e-01" purity="3.9729306101799011e-01" nType="0">
            <Node pos="l" depth="3" NCoef="0" IVar="-1" Cut="0.0000000000000000e+00" cType="1" res="-2.5123830419033766e-03" rms="2.7717357873916626e-01" purity="2.7140787243843079e-01" nType="-99"/>
            <Node pos="r" depth="3" NCoef="0" IVar="-1" Cut="0.0000000000000000e+00" cType="1" res="-1.6365444287657738e-02" rms="2.9878994822502136e-01" purity="6.7467707395553589e-01" nType="-99"/>
          </Node>
          <Node pos="r" depth="2" NCoef="0" IVar="10" Cut="-4.0046700835227966e-01" cType="1" res="4.0458901785314083e-03" rms="2.5879880785942078e-01" purity="8.2085376977920532e-01" nType="0">
            <Node pos="l" depth="3" NCoef="0" IVar="-1" Cut="0.0000000000000000e+00" cType="1" res="-1.6788333654403687e-02" rms="2.7473342418670654e-01" purity="7.8191018104553223e-01" nType="-99"/>
            <Node pos="r" depth="3" NCoef="0" IVar="-1" Cut="0.0000000000000000e+00" cType="1" res="1.9347831606864929e-02" rms="2.4942870438098907e-01" purity="8.4161263704299927e-01" nType="-99"/>
          </Node>
        </Node>
        <Node pos="r" depth="1" NCoef="0" IVar="2" Cut="7.5607324218750000e+02" cType="1" res="6.5712374635040760e-03" rms="2.9593077301979065e-01" purity="5.8287417888641357e-01" nType="0">
          <Node pos="l" depth="2" NCoef="0" IVar="2" Cut="5.2967016601562500e+02" cType="1" res="9.7537171095609665e-03" rms="2.8696060180664062e-01" purity="5.8730429410934448e-01" nType="0">
            <Node pos="l" depth="3" NCoef="0" IVar="-1" Cut="0.0000000000000000e+00" cType="1" res="2.9336031526327133e-02" rms="2.9650488495826721e-01" purity="5.7700067758560181e-01" nType="-99"/>
            <Node pos="r" depth="3" NCoef="0" IVar="-1" Cut="0.0000000000000000e+00" cType="1" res="4.5950170606374741e-03" rms="2.8312119841575623e-01" purity="5.9112173318862915e-01" nType="-99"/>
          </Node>
          <Node pos="r" depth="2" NCoef="0" IVar="-1" Cut="0.0000000000000000e+00" cType="1" res="-1.1857395060360432e-02" rms="3.4767365455627441e-01" purity="5.5424463748931885e-01" nType="-99"/>
        </Node>
      </Node>
    </BinaryTree>
    <BinaryTree type="DecisionTree" boostWeight="1.0000000000000000e+00" itree="505">
      <Node pos="s" depth="0" NCoef="0" IVar="11" Cut="8.6665838956832886e-01" cType="1" res="1.2172933202236891e-03" rms="2.8540337085723877e-01" purity="5.0073611736297607e-01" nType="0">
        <Node pos="l" depth="1" NCoef="0" IVar="9" Cut="-2.0000004768371582e+00" cType="1" res="-3.0885022715665400e-04" rms="2.8484416007995605e-01" purity="4.7222095727920532e-01" nType="0">
          <Node pos="l" depth="2" NCoef="0" IVar="-1" Cut="0.0000000000000000e+00" cType="1" res="3.9451040327548981e-02" rms="2.4292339384555817e-01" purity="1.2665799260139465e-01" nType="-99"/>
          <Node pos="r" depth="2" NCoef="0" IVar="9" Cut="-1.5428193807601929e+00" cType="1" res="-1.1251713149249554e-03" rms="2.8635829687118530e-01" purity="4.8600101470947266e-01" nType="0">
            <Node pos="l" depth="3" NCoef="0" IVar="-1" Cut="0.0000000000000000e+00" cType="1" res="-3.1082637608051300e-02" rms="2.4752631783485413e-01" purity="2.1786940097808838e-01" nType="-99"/>
            <Node pos="r" depth="3" NCoef="0" IVar="-1" Cut="0.0000000000000000e+00" cType="1" res="3.3069052733480930e-05" rms="2.8811523318290710e-01" purity="4.9941602349281311e-01" nType="-99"/>
          </Node>
        </Node>
        <Node pos="r" depth="1" NCoef="0" IVar="8" Cut="-1.3363963365554810e-01" cType="1" res="1.1889994144439697e-02" rms="2.8905874490737915e-01" purity="7.0015007257461548e-01" nType="0">
          <Node pos="l" depth="2" NCoef="0" IVar="-1" Cut="0.0000000000000000e+00" cType="1" res="-6.9365947274491191e-04" rms="2.9034096002578735e-01" purity="6.6808873414993286e-01" nType="-99"/>
          <Node pos="r" depth="2" NCoef="0" IVar="7" Cut="2.1219824254512787e-01" cType="1" res="1.9487166777253151e-02" rms="2.8801262378692627e-01" purity="7.1960729360580444e-01" nType="0">
            <Node pos="l" depth="3" NCoef="0" IVar="-1" Cut="0.0000000000000000e+00" cType="1" res="3.5846598446369171e-02" rms="2.8944176435470581e-01" purity="7.3516792058944702e-01" nType="-99"/>
            <Node pos="r" depth="3" NCoef="0" IVar="-1" Cut="0.0000000000000000e+00" cType="1" res="5.6786565110087395e-03" rms="2.8561830520629883e-01" purity="7.0069557428359985e-01" nType="-99"/>
          </Node>
        </Node>
      </Node>
    </BinaryTree>
    <BinaryTree type="DecisionTree" boostWeight="1.0000000000000000e+00" itree="506">
      <Node pos="s" depth="0" NCoef="0" IVar="7" Cut="-6.5973514318466187e-01" cType="1" res="1.0988507419824600e-03" rms="2.8324216604232788e-01" purity="4.9952214956283569e-01" nType="0">
        <Node pos="l" depth="1" NCoef="0" IVar="11" Cut="5.8994662761688232e-01" cType="1" res="-6.7991800606250763e-03" rms="2.7174013853073120e-01" purity="3.2406872510910034e-01" nType="0">
          <Node pos="l" depth="2" NCoef="0" IVar="7" Cut="-1.2640520334243774e+00" cType="1" res="-1.0255091823637486e-02" rms="2.6847597956657410e-01" purity="2.8944659233093262e-01" nType="0">
            <Node pos="l" depth="3" NCoef="0" IVar="-1" Cut="0.0000000000000000e+00" cType="1" res="1.1171392397955060e-03" rms="2.2074325382709503e-01" purity="1.3311611115932465e-01" nType="-99"/>
            <Node pos="r" depth="3" NCoef="0" IVar="-1" Cut="0.0000000000000000e+00" cType="1" res="-1.9664440304040909e-02" rms="2.9550942778587341e-01" purity="3.9236801862716675e-01" nType="-99"/>
          </Node>
          <Node pos="r" depth="2" NCoef="0" IVar="-1" Cut="0.0000000000000000e+00" cType="1" res="1.7252646386623383e-02" rms="2.9199713468551636e-01" purity="5.6085926294326782e-01" nType="-99"/>
        </Node>
        <Node pos="r" depth="1" NCoef="0" IVar="11" Cut="8.6588859558105469e-01" cType="1" res="3.3214401919394732e-03" rms="2.8635641932487488e-01" purity="5.4889661073684692e-01" nType="0">
          <Node pos="l" depth="2" NCoef="0" IVar="10" Cut="-1.3345786929130554e-01" cType="1" res="5.1135453395545483e-03" rms="2.8681829571723938e-01" purity="5.1790910959243774e-01" nType="0">
            <Node pos="l" depth="3" NCoef="0" IVar="-1" Cut="0.0000000000000000e+00" cType="1" res="6.5840045863296837e-05" rms="2.9118204116821289e-01" purity="5.0614959001541138e-01" nType="-99"/>
            <Node pos="r" depth="3" NCoef="0" IVar="-1" Cut="0.0000000000000000e+00" cType="1" res="1.0954207740724087e-02" rms="2.8328102827072144e-01" purity="5.2714395523071289e-01" nType="-99"/>
          </Node>
          <Node pos="r" depth="2" NCoef="0" IVar="4" Cut="1.4832867431640625e+02" cType="1" res="-7.8350082039833069e-03" rms="2.8320911526679993e-01" purity="7.4180454015731812e-01" nType="0">
            <Node pos="l" depth="3" NCoef="0" IVar="-1" Cut="0.0000000000000000e+00" cType="1" res="-2.5374460965394974e-02" rms="3.3587014675140381e-01" purity="4.7720444202423096e-01" nType="-99"/>
            <Node pos="r" depth="3" NCoef="0" IVar="-1" Cut="0.0000000000000000e+00" cType="1" res="3.1055407598614693e-03" rms="2.5587323307991028e-01" purity="8.5882019996643066e-01" nType="-99"/>
          </Node>
        </Node>
      </Node>
    </BinaryTree>
    <BinaryTree type="DecisionTree" boostWeight="1.0000000000000000e+00" itree="507">
      <Node pos="s" depth="0" NCoef="0" IVar="8" Cut="6.6663306951522827e-01" cType="1" res="2.9263590113259852e-04" rms="2.8628677129745483e-01" purity="4.9645784497261047e-01" nType="0">
        <Node pos="l" depth="1" NCoef="0" IVar="10" Cut="1.4664429426193237e+00" cType="1" res="-2.0668571814894676e-03" rms="2.8939869999885559e-01" purity="5.3646284341812134e-01" nType="0">
          <Node pos="l" depth="2" NCoef="0" IVar="2" Cut="4.5450347900390625e+02" cType="1" res="-3.7659455556422472e-03" rms="2.8836673498153687e-01" purity="5.5152058601379395e-01" nType="0">
            <Node pos="l" depth="3" NCoef="0" IVar="-1" Cut="0.0000000000000000e+00" cType="1" res="-8.6779065895825624e-04" rms="2.8838789463043213e-01" purity="5.2428275346755981e-01" nType="-99"/>
            <Node pos="r" depth="3" NCoef="0" IVar="-1" Cut="0.0000000000000000e+00" cType="1" res="-1.4548008330166340e-02" rms="2.8813657164573669e-01" purity="6.2761443853378296e-01" nType="-99"/>
          </Node>
          <Node pos="r" depth="2" NCoef="0" IVar="5" Cut="7.5558990478515625e+01" cType="1" res="1.2557125650346279e-02" rms="2.9773253202438354e-01" purity="4.0686118602752686e-01" nType="0">
            <Node pos="l" depth="3" NCoef="0" IVar="-1" Cut="0.0000000000000000e+00" cType="1" res="2.4500230327248573e-02" rms="2.9050555825233459e-01" purity="2.2025783360004425e-01" nType="-99"/>
            <Node pos="r" depth="3" NCoef="0" IVar="-1" Cut="0.0000000000000000e+00" cType="1" res="2.2411970421671867e-03" rms="3.0633413791656494e-01" purity="6.4334183931350708e-01" nType="-99"/>
          </Node>
        </Node>
        <Node pos="r" depth="1" NCoef="0" IVar="8" Cut="1.8856281042098999e+00" cType="1" res="7.3644402436912060e-03" rms="2.7662974596023560e-01" purity="3.7655609846115112e-01" nType="0">
          <Node pos="l" depth="2" NCoef="0" IVar="7" Cut="9.7920465469360352e-01" cType="1" res="1.0601681657135487e-02" rms="2.9350870847702026e-01" purity="4.3194961547851562e-01" nType="0">
            <Node pos="l" depth="3" NCoef="0" IVar="-1" Cut="0.0000000000000000e+00" cType="1" res="1.6125002875924110e-02" rms="3.0571725964546204e-01" purity="4.8146191239356995e-01" nType="-99"/>
            <Node pos="r" depth="3" NCoef="0" IVar="-1" Cut="0.0000000000000000e+00" cType="1" res="-1.2507241219282150e-02" rms="2.2720158100128174e-01" purity="2.0135810971260071e-01" nType="-99"/>
          </Node>
          <Node pos="r" depth="2" NCoef="0" IVar="-1" Cut="0.0000000000000000e+00" cType="1" res="-3.3806618303060532e-02" rms="1.4691457152366638e-01" purity="6.2591418623924255e-02" nType="-99"/>
        </Node>
      </Node>
    </BinaryTree>
    <BinaryTree type="DecisionTree" boostWeight="1.0000000000000000e+00" itree="508">
      <Node pos="s" depth="0" NCoef="0" IVar="8" Cut="9.3328803777694702e-01" cType="1" res="1.7926667351275682e-03" rms="2.8598013520240784e-01" purity="5.0296461582183838e-01" nType="0">
        <Node pos="l" depth="1" NCoef="0" IVar="8" Cut="-6.6665750741958618e-01" cType="1" res="3.6257295869290829e-03" rms="2.9070490598678589e-01" purity="5.4749965667724609e-01" nType="0">
          <Node pos="l" depth="2" NCoef="0" IVar="3" Cut="2.6074639892578125e+02" cType="1" res="-2.5095783639699221e-03" rms="2.7565255761146545e-01" purity="3.6104306578636169e-01" nType="0">
            <Node pos="l" depth="3" NCoef="0" IVar="-1" Cut="0.0000000000000000e+00" cType="1" res="3.7928700912743807e-03" rms="2.6764214038848877e-01" purity="2.9874044656753540e-01" nType="-99"/>
            <Node pos="r" depth="3" NCoef="0" IVar="-1" Cut="0.0000000000000000e+00" cType="1" res="-2.0078195258975029e-02" rms="2.9752531647682190e-01" purity="5.4536747932434082e-01" nType="-99"/>
          </Node>
          <Node pos="r" depth="2" NCoef="0" IVar="9" Cut="-6.6672873497009277e-01" cType="1" res="6.1975321732461452e-03" rms="2.9674983024597168e-01" purity="6.2565869092941284e-01" nType="0">
            <Node pos="l" depth="3" NCoef="0" IVar="-1" Cut="0.0000000000000000e+00" cType="1" res="1.6103371977806091e-02" rms="3.1210887432098389e-01" purity="5.4703110456466675e-01" nType="-99"/>
            <Node pos="r" depth="3" NCoef="0" IVar="-1" Cut="0.0000000000000000e+00" cType="1" res="3.9257453754544258e-03" rms="2.9165565967559814e-01" purity="6.5058642625808716e-01" nType="-99"/>
          </Node>
        </Node>
        <Node pos="r" depth="1" NCoef="0" IVar="6" Cut="6.0943733215332031e+01" cType="1" res="-7.0146317593753338e-03" rms="2.6191526651382446e-01" purity="2.8898778557777405e-01" nType="0">
          <Node pos="l" depth="2" NCoef="0" IVar="8" Cut="1.1999866962432861e+00" cType="1" res="-9.6517399651929736e-04" rms="2.5024628639221191e-01" purity="1.4058718085289001e-01" nType="0">
            <Node pos="l" depth="3" NCoef="0" IVar="-1" Cut="0.0000000000000000e+00" cType="1" res="-1.5844689682126045e-02" rms="3.0868124961853027e-01" purity="2.4595053493976593e-01" nType="-99"/>
            <Node pos="r" depth="3" NCoef="0" IVar="-1" Cut="0.0000000000000000e+00" cType="1" res="9.3695465475320816e-03" rms="2.2365885972976685e-01" purity="1.0032226890325546e-01" nType="-99"/>
          </Node>
          <Node pos="r" depth="2" NCoef="0" IVar="-1" Cut="0.0000000000000000e+00" cType="1" res="-2.3872010409832001e-02" rms="2.8835910558700562e-01" purity="6.5819990634918213e-01" nType="-99"/>
        </Node>
      </Node>
    </BinaryTree>
    <BinaryTree type="DecisionTree" boostWeight="1.0000000000000000e+00" itree="509">
      <Node pos="s" depth="0" NCoef="0" IVar="11" Cut="3.8012538105249405e-02" cType="1" res="-6.7865947494283319e-04" rms="2.8405433893203735e-01" purity="5.0305062532424927e-01" nType="0">
        <Node pos="l" depth="1" NCoef="0" IVar="1" Cut="3.8884878158569336e-02" cType="1" res="1.9403401529416442e-03" rms="2.8689256310462952e-01" purity="4.1959992051124573e-01" nType="0">
          <Node pos="l" depth="2" NCoef="0" IVar="2" Cut="6.3791265869140625e+02" cType="1" res="-3.0891140922904015e-03" rms="2.4840226769447327e-01" purity="1.6008129715919495e-01" nType="0">
            <Node pos="l" depth="3" NCoef="0" IVar="-1" Cut="0.0000000000000000e+00" cType="1" res="-7.7753444202244282e-03" rms="2.3925761878490448e-01" purity="1.4209763705730438e-01" nType="-99"/>
            <Node pos="r" depth="3" NCoef="0" IVar="-1" Cut="0.0000000000000000e+00" cType="1" res="1.1932292953133583e-02" rms="3.2885026931762695e-01" purity="3.4853821992874146e-01" nType="-99"/>
          </Node>
          <Node pos="r" depth="2" NCoef="0" IVar="10" Cut="-4.0005987882614136e-01" cType="1" res="5.9433742426335812e-03" rms="3.1411784887313843e-01" purity="6.2615555524826050e-01" nType="0">
            <Node pos="l" depth="3" NCoef="0" IVar="-1" Cut="0.0000000000000000e+00" cType="1" res="1.3815322890877724e-02" rms="3.2371291518211365e-01" purity="6.0284245014190674e-01" nType="-99"/>
            <Node pos="r" depth="3" NCoef="0" IVar="-1" Cut="0.0000000000000000e+00" cType="1" res="3.6882731365039945e-04" rms="3.0755752325057983e-01" purity="6.4139056205749512e-01" nType="-99"/>
          </Node>
        </Node>
        <Node pos="r" depth="1" NCoef="0" IVar="5" Cut="1.0749092102050781e+02" cType="1" res="-8.1115011125802994e-03" rms="2.7570480108261108e-01" purity="7.3988765478134155e-01" nType="0">
          <Node pos="l" depth="2" NCoef="0" IVar="7" Cut="7.0013320446014404e-01" cType="1" res="-1.9563628360629082e-02" rms="3.2272586226463318e-01" purity="5.7902812957763672e-01" nType="0">
            <Node pos="l" depth="3" NCoef="0" IVar="-1" Cut="0.0000000000000000e+00" cType="1" res="-2.5161728262901306e-02" rms="3.1914287805557251e-01" purity="6.2627673149108887e-01" nType="-99"/>
            <Node pos="r" depth="3" NCoef="0" IVar="-1" Cut="0.0000000000000000e+00" cType="1" res="3.3261713106185198e-03" rms="3.3382812142372131e-01" purity="4.1503298282623291e-01" nType="-99"/>
          </Node>
          <Node pos="r" depth="2" NCoef="0" IVar="-1" Cut="0.0000000000000000e+00" cType="1" res="9.1592203825712204e-03" rms="2.1179223060607910e-01" purity="9.1627824306488037e-01" nType="-99"/>
        </Node>
      </Node>
    </BinaryTree>
    <BinaryTree type="DecisionTree" boostWeight="1.0000000000000000e+00" itree="510">
      <Node pos="s" depth="0" NCoef="0" IVar="5" Cut="7.0725769042968750e+01" cType="1" res="-1.1568273184821010e-03" rms="2.8255993127822876e-01" purity="5.0223726034164429e-01" nType="0">
        <Node pos="l" depth="1" NCoef="0" IVar="10" Cut="-1.4667603969573975e+00" cType="1" res="-5.7645603083074093e-03" rms="2.8017762303352356e-01" purity="1.8142470717430115e-01" nType="0">
          <Node pos="l" depth="2" NCoef="0" IVar="9" Cut="-1.3442717492580414e-01" cType="1" res="1.0883320122957230e-02" rms="2.7465215325355530e-01" purity="1.6456815600395203e-01" nType="0">
            <Node pos="l" depth="3" NCoef="0" IVar="-1" Cut="0.0000000000000000e+00" cType="1" res="4.4451341964304447e-03" rms="2.5419148802757263e-01" purity="1.4622351527214050e-01" nType="-99"/>
            <Node pos="r" depth="3" NCoef="0" IVar="-1" Cut="0.0000000000000000e+00" cType="1" res="2.8239209204912186e-02" rms="2.9890406131744385e-01" purity="1.8847458064556122e-01" nType="-99"/>
          </Node>
          <Node pos="r" depth="2" NCoef="0" IVar="9" Cut="1.3328854739665985e-01" cType="1" res="-8.8166566565632820e-03" rms="2.8107190132141113e-01" purity="1.8451505899429321e-01" nType="0">
            <Node pos="l" depth="3" NCoef="0" IVar="-1" Cut="0.0000000000000000e+00" cType="1" res="-2.1497725974768400e-03" rms="2.9496562480926514e-01" purity="2.0110844075679779e-01" nType="-99"/>
            <Node pos="r" depth="3" NCoef="0" IVar="-1" Cut="0.0000000000000000e+00" cType="1" res="-2.1596580743789673e-02" rms="2.6395207643508911e-01" purity="1.6541893780231476e-01" nType="-99"/>
          </Node>
        </Node>
        <Node pos="r" depth="1" NCoef="0" IVar="2" Cut="6.7080267333984375e+02" cType="1" res="1.8740110099315643e-03" rms="2.8407531976699829e-01" purity="7.1325886249542236e-01" nType="0">
          <Node pos="l" depth="2" NCoef="0" IVar="2" Cut="3.7935934448242188e+02" cType="1" res="4.0682402323000133e-04" rms="2.8230661153793335e-01" purity="7.1023237705230713e-01" nType="0">
            <Node pos="l" depth="3" NCoef="0" IVar="-1" Cut="0.0000000000000000e+00" cType="1" res="4.6868859790265560e-03" rms="2.9073905944824219e-01" purity="6.7585784196853638e-01" nType="-99"/>
            <Node pos="r" depth="3" NCoef="0" IVar="-1" Cut="0.0000000000000000e+00" cType="1" res="-6.1056655831634998e-03" rms="2.7029386162757874e-01" purity="7.5713640451431274e-01" nType="-99"/>
          </Node>
          <Node pos="r" depth="2" NCoef="0" IVar="-1" Cut="0.0000000000000000e+00" cType="1" res="2.3792626336216927e-02" rms="3.0927121639251709e-01" purity="7.6008224487304688e-01" nType="-99"/>
        </Node>
      </Node>
    </BinaryTree>
    <BinaryTree type="DecisionTree" boostWeight="1.0000000000000000e+00" itree="511">
      <Node pos="s" depth="0" NCoef="0" IVar="7" Cut="4.1061356663703918e-01" cType="1" res="7.8639434650540352e-04" rms="2.8492242097854614e-01" purity="5.0303924083709717e-01" nType="0">
        <Node pos="l" depth="1" NCoef="0" IVar="10" Cut="-1.4667985439300537e+00" cType="1" res="4.3576918542385101e-03" rms="2.8662043809890747e-01" purity="5.5175292491912842e-01" nType="0">
          <Node pos="l" depth="2" NCoef="0" IVar="4" Cut="1.2257750701904297e+02" cType="1" res="-9.2924442142248154e-03" rms="2.9198199510574341e-01" purity="3.6922174692153931e-01" nType="0">
            <Node pos="l" depth="3" NCoef="0" IVar="-1" Cut="0.0000000000000000e+00" cType="1" res="1.3565200380980968e-02" rms="2.4689058959484100e-01" purity="1.3961760699748993e-01" nType="-99"/>
            <Node pos="r" depth="3" NCoef="0" IVar="-1" Cut="0.0000000000000000e+00" cType="1" res="-2.0383184775710106e-02" rms="3.1644436717033386e-01" purity="5.1289868354797363e-01" nType="-99"/>
          </Node>
          <Node pos="r" depth="2" NCoef="0" IVar="1" Cut="2.0462434738874435e-02" cType="1" res="6.1608063988387585e-03" rms="2.8585594892501831e-01" purity="5.7586443424224854e-01" nType="0">
            <Node pos="l" depth="3" NCoef="0" IVar="-1" Cut="0.0000000000000000e+00" cType="1" res="-7.4064778164029121e-03" rms="2.3790511488914490e-01" purity="1.6010758280754089e-01" nType="-99"/>
            <Node pos="r" depth="3" NCoef="0" IVar="-1" Cut="0.0000000000000000e+00" cType="1" res="9.5592318102717400e-03" rms="2.9548358917236328e-01" purity="6.6904079914093018e-01" nType="-99"/>
          </Node>
        </Node>
        <Node pos="r" depth="1" NCoef="0" IVar="9" Cut="1.4659314155578613e+00" cType="1" res="-7.0762168616056442e-03" rms="2.8098803758621216e-01" purity="3.9579054713249207e-01" nType="0">
          <Node pos="l" depth="2" NCoef="0" IVar="9" Cut="1.0596195459365845e+00" cType="1" res="-9.2221023514866829e-03" rms="2.8422683477401733e-01" purity="4.2051184177398682e-01" nType="0">
            <Node pos="l" depth="3" NCoef="0" IVar="-1" Cut="0.0000000000000000e+00" cType="1" res="-7.6867751777172089e-03" rms="2.8513437509536743e-01" purity="4.3155458569526672e-01" nType="-99"/>
            <Node pos="r" depth="3" NCoef="0" IVar="-1" Cut="0.0000000000000000e+00" cType="1" res="-4.0157508105039597e-02" rms="2.7509471774101257e-01" purity="3.2727494835853577e-01" nType="-99"/>
          </Node>
          <Node pos="r" depth="2" NCoef="0" IVar="-1" Cut="0.0000000000000000e+00" cType="1" res="1.5454001724720001e-02" rms="2.5243580341339111e-01" purity="1.9473344087600708e-01" nType="-99"/>
        </Node>
      </Node>
    </BinaryTree>
    <BinaryTree type="DecisionTree" boostWeight="1.0000000000000000e+00" itree="512">
      <Node pos="s" depth="0" NCoef="0" IVar="9" Cut="-1.2000261545181274e+00" cType="1" res="3.9181270403787494e-04" rms="2.8518944978713989e-01" purity="5.0177526473999023e-01" nType="0">
        <Node pos="l" depth="1" NCoef="0" IVar="9" Cut="-2.1143045425415039e+00" cType="1" res="1.0115699842572212e-02" rms="2.8464806079864502e-01" purity="2.9260757565498352e-01" nType="0">
          <Node pos="l" depth="2" NCoef="0" IVar="-1" Cut="0.0000000000000000e+00" cType="1" res="-4.0726777166128159e-02" rms="1.8644821643829346e-01" purity="9.0023845434188843e-02" nType="-99"/>
          <Node pos="r" depth="2" NCoef="0" IVar="3" Cut="1.9622386169433594e+02" cType="1" res="1.7747448757290840e-02" rms="3.0358102917671204e-01" purity="3.4266448020935059e-01" nType="0">
            <Node pos="l" depth="3" NCoef="0" IVar="-1" Cut="0.0000000000000000e+00" cType="1" res="1.6218403470702469e-04" rms="2.6049447059631348e-01" purity="1.7515374720096588e-01" nType="-99"/>
            <Node pos="r" depth="3" NCoef="0" IVar="-1" Cut="0.0000000000000000e+00" cType="1" res="3.1318847090005875e-02" rms="3.3488264679908752e-01" purity="4.8373156785964966e-01" nType="-99"/>
          </Node>
        </Node>
        <Node pos="r" depth="1" NCoef="0" IVar="0" Cut="1.1203806152343750e+03" cType="1" res="-1.0775295086205006e-03" rms="2.8524234890937805e-01" purity="5.3338181972503662e-01" nType="0">
          <Node pos="l" depth="2" NCoef="0" IVar="3" Cut="1.2233563232421875e+02" cType="1" res="8.3595411852002144e-03" rms="2.2110190987586975e-01" purity="6.6111631691455841e-02" nType="0">
            <Node pos="l" depth="3" NCoef="0" IVar="-1" Cut="0.0000000000000000e+00" cType="1" res="-8.7843220680952072e-03" rms="1.5593351423740387e-01" purity="2.8981650248169899e-02" nType="-99"/>
            <Node pos="r" depth="3" NCoef="0" IVar="-1" Cut="0.0000000000000000e+00" cType="1" res="2.5658950209617615e-02" rms="2.5041532516479492e-01" purity="8.7153024971485138e-02" nType="-99"/>
          </Node>
          <Node pos="r" depth="2" NCoef="0" IVar="1" Cut="6.1508212238550186e-02" cType="1" res="-3.0230609700083733e-03" rms="2.9670941829681396e-01" purity="6.2971347570419312e-01" nType="0">
            <Node pos="l" depth="3" NCoef="0" IVar="-1" Cut="0.0000000000000000e+00" cType="1" res="-9.1405333951115608e-03" rms="3.1339618563652039e-01" purity="3.7845090031623840e-01" nType="-99"/>
            <Node pos="r" depth="3" NCoef="0" IVar="-1" Cut="0.0000000000000000e+00" cType="1" res="2.8181232046335936e-03" rms="2.8165739774703979e-01" purity="8.4303575754165649e-01" nType="-99"/>
          </Node>
        </Node>
      </Node>
    </BinaryTree>
    <BinaryTree type="DecisionTree" boostWeight="1.0000000000000000e+00" itree="513">
      <Node pos="s" depth="0" NCoef="0" IVar="0" Cut="1.4296540527343750e+03" cType="1" res="-1.1478931410238147e-03" rms="2.8542134165763855e-01" purity="5.0232404470443726e-01" nType="0">
        <Node pos="l" depth="1" NCoef="0" IVar="5" Cut="9.5349876403808594e+01" cType="1" res="-5.5352859199047089e-03" rms="2.8999325633049011e-01" purity="2.0245631039142609e-01" nType="0">
          <Node pos="l" depth="2" NCoef="0" IVar="8" Cut="-3.9914700388908386e-01" cType="1" res="-1.9659027457237244e-03" rms="2.7961891889572144e-01" purity="1.6960968077182770e-01" nType="0">
            <Node pos="l" depth="3" NCoef="0" IVar="-1" Cut="0.0000000000000000e+00" cType="1" res="-1.3230861164629459e-02" rms="2.6352661848068237e-01" purity="1.2855759263038635e-01" nType="-99"/>
            <Node pos="r" depth="3" NCoef="0" IVar="-1" Cut="0.0000000000000000e+00" cType="1" res="3.1080492772161961e-03" rms="2.8893342614173889e-01" purity="1.9474960863590240e-01" nType="-99"/>
          </Node>
          <Node pos="r" depth="2" NCoef="0" IVar="-1" Cut="0.0000000000000000e+00" cType="1" res="-2.8127677738666534e-02" rms="3.6882436275482178e-01" purity="4.9748376011848450e-01" nType="-99"/>
        </Node>
        <Node pos="r" depth="1" NCoef="0" IVar="7" Cut="1.2489517927169800e+00" cType="1" res="2.6000302750617266e-03" rms="2.8140279650688171e-01" purity="7.5848555564880371e-01" nType="0">
          <Node pos="l" depth="2" NCoef="0" IVar="5" Cut="8.8200378417968750e+01" cType="1" res="3.8080380763858557e-03" rms="2.8094688057899475e-01" purity="7.8083837032318115e-01" nType="0">
            <Node pos="l" depth="3" NCoef="0" IVar="-1" Cut="0.0000000000000000e+00" cType="1" res="7.6808631420135498e-03" rms="3.4822082519531250e-01" purity="5.6837034225463867e-01" nType="-99"/>
            <Node pos="r" depth="3" NCoef="0" IVar="-1" Cut="0.0000000000000000e+00" cType="1" res="1.3012788258492947e-03" rms="2.3777060210704803e-01" purity="8.9312511682510376e-01" nType="-99"/>
          </Node>
          <Node pos="r" depth="2" NCoef="0" IVar="-1" Cut="0.0000000000000000e+00" cType="1" res="-2.0160634070634842e-02" rms="2.8859388828277588e-01" purity="3.5801145434379578e-01" nType="-99"/>
        </Node>
      </Node>
    </BinaryTree>
    <BinaryTree type="DecisionTree" boostWeight="1.0000000000000000e+00" itree="514">
      <Node pos="s" depth="0" NCoef="0" IVar="10" Cut="-1.7333335876464844e+00" cType="1" res="3.0813019257038832e-03" rms="2.8674420714378357e-01" purity="5.0572323799133301e-01" nType="0">
        <Node pos="l" depth="1" NCoef="0" IVar="4" Cut="1.6244366455078125e+02" cType="1" res="1.8455207347869873e-02" rms="2.9482036828994751e-01" purity="3.2156941294670105e-01" nType="0">
          <Node pos="l" depth="2" NCoef="0" IVar="8" Cut="-1.3428896665573120e-01" cType="1" res="8.1226686015725136e-03" rms="2.7642625570297241e-01" purity="1.8559364974498749e-01" nType="0">
            <Node pos="l" depth="3" NCoef="0" IVar="-1" Cut="0.0000000000000000e+00" cType="1" res="2.4831712245941162e-02" rms="2.6187443733215332e-01" purity="1.9421872496604919e-01" nType="-99"/>
            <Node pos="r" depth="3" NCoef="0" IVar="-1" Cut="0.0000000000000000e+00" cType="1" res="-1.1836944613605738e-03" rms="2.9037487506866455e-01" purity="1.7671115696430206e-01" nType="-99"/>
          </Node>
          <Node pos="r" depth="2" NCoef="0" IVar="-1" Cut="0.0000000000000000e+00" cType="1" res="3.5778678953647614e-02" rms="3.2718163728713989e-01" purity="5.9017103910446167e-01" nType="-99"/>
        </Node>
        <Node pos="r" depth="1" NCoef="0" IVar="5" Cut="8.8200088500976562e+01" cType="1" res="1.7751649720594287e-03" rms="2.8600949048995972e-01" purity="5.2136868238449097e-01" nType="0">
          <Node pos="l" depth="2" NCoef="0" IVar="9" Cut="-1.2000237703323364e+00" cType="1" res="4.9635372124612331e-03" rms="3.0240735411643982e-01" purity="2.9210647940635681e-01" nType="0">
            <Node pos="l" depth="3" NCoef="0" IVar="-1" Cut="0.0000000000000000e+00" cType="1" res="-1.5842774882912636e-02" rms="2.5413444638252258e-01" purity="1.4775423705577850e-01" nType="-99"/>
            <Node pos="r" depth="3" NCoef="0" IVar="-1" Cut="0.0000000000000000e+00" cType="1" res="8.1796068698167801e-03" rms="3.1032133102416992e-01" purity="3.1845617294311523e-01" nType="-99"/>
          </Node>
          <Node pos="r" depth="2" NCoef="0" IVar="11" Cut="-2.1715071201324463e+00" cType="1" res="-2.4369412567466497e-03" rms="2.6272308826446533e-01" purity="8.2424312829971313e-01" nType="0">
            <Node pos="l" depth="3" NCoef="0" IVar="-1" Cut="0.0000000000000000e+00" cType="1" res="-1.1179889552295208e-02" rms="3.4734845161437988e-01" purity="5.6428313255310059e-01" nType="-99"/>
            <Node pos="r" depth="3" NCoef="0" IVar="-1" Cut="0.0000000000000000e+00" cType="1" res="2.6639358839020133e-04" rms="2.3899389803409576e-01" purity="8.8400912284851074e-01" nType="-99"/>
          </Node>
        </Node>
      </Node>
    </BinaryTree>
    <BinaryTree type="DecisionTree" boostWeight="1.0000000000000000e+00" itree="515">
      <Node pos="s" depth="0" NCoef="0" IVar="1" Cut="4.0922656655311584e-02" cType="1" res="1.0115714976564050e-03" rms="2.8646752238273621e-01" purity="4.9408832192420959e-01" nType="0">
        <Node pos="l" depth="1" NCoef="0" IVar="7" Cut="-6.5975737571716309e-01" cType="1" res="5.9841210022568703e-03" rms="2.6450091600418091e-01" purity="2.0855768024921417e-01" nType="0">
          <Node pos="l" depth="2" NCoef="0" IVar="2" Cut="4.3830667114257812e+02" cType="1" res="-3.5178496036678553e-03" rms="2.2989320755004883e-01" purity="1.4379426836967468e-01" nType="0">
            <Node pos="l" depth="3" NCoef="0" IVar="-1" Cut="0.0000000000000000e+00" cType="1" res="2.0773371215909719e-03" rms="2.2245377302169800e-01" purity="1.1533875763416290e-01" nType="-99"/>
            <Node pos="r" depth="3" NCoef="0" IVar="-1" Cut="0.0000000000000000e+00" cType="1" res="-2.0153777673840523e-02" rms="2.4805626273155212e-01" purity="2.1893380582332611e-01" nType="-99"/>
          </Node>
          <Node pos="r" depth="2" NCoef="0" IVar="9" Cut="1.3321530818939209e-01" cType="1" res="1.0339957661926746e-02" rms="2.7882570028305054e-01" purity="2.3824612796306610e-01" nType="0">
            <Node pos="l" depth="3" NCoef="0" IVar="-1" Cut="0.0000000000000000e+00" cType="1" res="2.2999979555606842e-02" rms="2.8563344478607178e-01" purity="2.5615453720092773e-01" nType="-99"/>
            <Node pos="r" depth="3" NCoef="0" IVar="-1" Cut="0.0000000000000000e+00" cType="1" res="3.1060930341482162e-03" rms="2.7126908302307129e-01" purity="2.1945750713348389e-01" nType="-99"/>
          </Node>
        </Node>
        <Node pos="r" depth="1" NCoef="0" IVar="10" Cut="1.1993583440780640e+00" cType="1" res="-2.5125651154667139e-03" rms="3.0101701617240906e-01" purity="6.9644916057586670e-01" nType="0">
          <Node pos="l" depth="2" NCoef="0" IVar="2" Cut="4.8732617187500000e+02" cType="1" res="-4.0377119148615748e-05" rms="2.9763019084930420e-01" purity="7.1513921022415161e-01" nType="0">
            <Node pos="l" depth="3" NCoef="0" IVar="-1" Cut="0.0000000000000000e+00" cType="1" res="4.0971175767481327e-03" rms="3.0051821470260620e-01" purity="6.9253462553024292e-01" nType="-99"/>
            <Node pos="r" depth="3" NCoef="0" IVar="-1" Cut="0.0000000000000000e+00" cType="1" res="-2.1597128361463547e-02" rms="2.8379395604133606e-01" purity="8.1583476066589355e-01" nType="-99"/>
          </Node>
          <Node pos="r" depth="2" NCoef="0" IVar="0" Cut="1.6727329101562500e+03" cType="1" res="-1.7005527392029762e-02" rms="3.1976792216300964e-01" purity="5.8688044548034668e-01" nType="0">
            <Node pos="l" depth="3" NCoef="0" IVar="-1" Cut="0.0000000000000000e+00" cType="1" res="-2.0805459469556808e-02" rms="3.5092514753341675e-01" purity="3.9982438087463379e-01" nType="-99"/>
            <Node pos="r" depth="3" NCoef="0" IVar="-1" Cut="0.0000000000000000e+00" cType="1" res="-4.0903100743889809e-03" rms="2.6251623034477234e-01" purity="8.8234299421310425e-01" nType="-99"/>
          </Node>
        </Node>
      </Node>
    </BinaryTree>
    <BinaryTree type="DecisionTree" boostWeight="1.0000000000000000e+00" itree="516">
      <Node pos="s" depth="0" NCoef="0" IVar="1" Cut="8.3506412804126740e-02" cType="1" res="1.2573536951094866e-03" rms="2.8694248199462891e-01" purity="5.0721263885498047e-01" nType="0">
        <Node pos="l" depth="1" NCoef="0" IVar="10" Cut="9.3323022127151489e-01" cType="1" res="4.9984743818640709e-03" rms="2.9083004593849182e-01" purity="3.4268990159034729e-01" nType="0">
          <Node pos="l" depth="2" NCoef="0" IVar="7" Cut="4.0470051765441895e-01" cType="1" res="8.3398325368762016e-03" rms="2.9564303159713745e-01" purity="3.6762255430221558e-01" nType="0">
            <Node pos="l" depth="3" NCoef="0" IVar="-1" Cut="0.0000000000000000e+00" cType="1" res="3.6356095224618912e-03" rms="2.9793369770050049e-01" purity="3.9205595850944519e-01" nType="-99"/>
            <Node pos="r" depth="3" NCoef="0" IVar="-1" Cut="0.0000000000000000e+00" cType="1" res="2.2642230615019798e-02" rms="2.9094052314758301e-01" purity="3.2064279913902283e-01" nType="-99"/>
          </Node>
          <Node pos="r" depth="2" NCoef="0" IVar="5" Cut="8.8102523803710938e+01" cType="1" res="-6.0516493394970894e-03" rms="2.7402237057685852e-01" purity="2.6023566722869873e-01" nType="0">
            <Node pos="l" depth="3" NCoef="0" IVar="-1" Cut="0.0000000000000000e+00" cType="1" res="-1.5866205096244812e-02" rms="2.5060808658599854e-01" purity="1.4559948444366455e-01" nType="-99"/>
            <Node pos="r" depth="3" NCoef="0" IVar="-1" Cut="0.0000000000000000e+00" cType="1" res="7.9862028360366821e-03" rms="3.3341547846794128e-01" purity="5.9961879253387451e-01" nType="-99"/>
          </Node>
        </Node>
        <Node pos="r" depth="1" NCoef="0" IVar="6" Cut="5.3377632141113281e+01" cType="1" res="-5.4669086821377277e-03" rms="2.7969348430633545e-01" purity="8.0292463302612305e-01" nType="0">
          <Node pos="l" depth="2" NCoef="0" IVar="10" Cut="-6.6579198837280273e-01" cType="1" res="-1.9953319802880287e-02" rms="3.8192495703697205e-01" purity="5.0857895612716675e-01" nType="0">
            <Node pos="l" depth="3" NCoef="0" IVar="-1" Cut="0.0000000000000000e+00" cType="1" res="-3.3956213155761361e-04" rms="4.1451695561408997e-01" purity="4.9689316749572754e-01" nType="-99"/>
            <Node pos="r" depth="3" NCoef="0" IVar="-1" Cut="0.0000000000000000e+00" cType="1" res="-2.0276999101042747e-02" rms="3.6568263173103333e-01" purity="5.1393204927444458e-01" nType="-99"/>
          </Node>
          <Node pos="r" depth="2" NCoef="0" IVar="1" Cut="1.5110354125499725e-01" cType="1" res="1.7303545610047877e-04" rms="2.2755564749240875e-01" purity="9.1752123832702637e-01" nType="0">
            <Node pos="l" depth="3" NCoef="0" IVar="-1" Cut="0.0000000000000000e+00" cType="1" res="8.1189861521124840e-03" rms="2.5298139452934265e-01" purity="8.9692991971969604e-01" nType="-99"/>
            <Node pos="r" depth="3" NCoef="0" IVar="-1" Cut="0.0000000000000000e+00" cType="1" res="-1.8032466992735863e-02" rms="1.9016735255718231e-01" purity="9.4370698928833008e-01" nType="-99"/>
          </Node>
        </Node>
      </Node>
    </BinaryTree>
    <BinaryTree type="DecisionTree" boostWeight="1.0000000000000000e+00" itree="517">
      <Node pos="s" depth="0" NCoef="0" IVar="9" Cut="3.9999428391456604e-01" cType="1" res="7.5299950549378991e-04" rms="2.8541365265846252e-01" purity="5.0380331277847290e-01" nType="0">
        <Node pos="l" depth="1" NCoef="0" IVar="2" Cut="4.5778875732421875e+02" cType="1" res="-2.3013651371002197e-03" rms="2.8662252426147461e-01" purity="5.2148681879043579e-01" nType="0">
          <Node pos="l" depth="2" NCoef="0" IVar="0" Cut="1.1877030029296875e+03" cType="1" res="-6.2388670630753040e-03" rms="2.8259539604187012e-01" purity="4.8937091231346130e-01" nType="0">
            <Node pos="l" depth="3" NCoef="0" IVar="-1" Cut="0.0000000000000000e+00" cType="1" res="-2.3520758375525475e-02" rms="2.2119721770286560e-01" purity="7.9789601266384125e-02" nType="-99"/>
            <Node pos="r" depth="3" NCoef="0" IVar="-1" Cut="0.0000000000000000e+00" cType="1" res="-2.5314160156995058e-03" rms="3.0707746744155884e-01" purity="6.8113845586776733e-01" nType="-99"/>
          </Node>
          <Node pos="r" depth="2" NCoef="0" IVar="7" Cut="-5.7996928691864014e-01" cType="1" res="9.3271620571613312e-03" rms="2.9789474606513977e-01" purity="6.1633402109146118e-01" nType="0">
            <Node pos="l" depth="3" NCoef="0" IVar="-1" Cut="0.0000000000000000e+00" cType="1" res="2.9388885945081711e-02" rms="3.2293826341629028e-01" purity="4.7632911801338196e-01" nType="-99"/>
            <Node pos="r" depth="3" NCoef="0" IVar="-1" Cut="0.0000000000000000e+00" cType="1" res="4.6230130828917027e-03" rms="2.8972935676574707e-01" purity="6.5842807292938232e-01" nType="-99"/>
          </Node>
        </Node>
        <Node pos="r" depth="1" NCoef="0" IVar="7" Cut="4.6123680472373962e-01" cType="1" res="6.3587110489606857e-03" rms="2.8309583663940430e-01" purity="4.7134855389595032e-01" nType="0">
          <Node pos="l" depth="2" NCoef="0" IVar="11" Cut="-1.8952682018280029e+00" cType="1" res="-5.4716446902602911e-04" rms="2.8360354900360107e-01" purity="5.1252055168151855e-01" nType="0">
            <Node pos="l" depth="3" NCoef="0" IVar="-1" Cut="0.0000000000000000e+00" cType="1" res="-1.3687161728739738e-02" rms="2.9418852925300598e-01" purity="2.3174586892127991e-01" nType="-99"/>
            <Node pos="r" depth="3" NCoef="0" IVar="-1" Cut="0.0000000000000000e+00" cType="1" res="1.1907314881682396e-02" rms="2.7329283952713013e-01" purity="7.6585870981216431e-01" nType="-99"/>
          </Node>
          <Node pos="r" depth="2" NCoef="0" IVar="7" Cut="1.4634443521499634e+00" cType="1" res="1.9235922023653984e-02" rms="2.8169491887092590e-01" purity="3.9457607269287109e-01" nType="0">
            <Node pos="l" depth="3" NCoef="0" IVar="-1" Cut="0.0000000000000000e+00" cType="1" res="2.9445927590131760e-02" rms="3.0497154593467712e-01" purity="4.7949895262718201e-01" nType="-99"/>
            <Node pos="r" depth="3" NCoef="0" IVar="-1" Cut="0.0000000000000000e+00" cType="1" res="-3.3281944692134857e-02" rms="1.6429361701011658e-01" purity="7.6520383358001709e-02" nType="-99"/>
          </Node>
        </Node>
      </Node>
    </BinaryTree>
    <BinaryTree type="DecisionTree" boostWeight="1.0000000000000000e+00" itree="518">
      <Node pos="s" depth="0" NCoef="0" IVar="9" Cut="1.9999073743820190e+00" cType="1" res="-3.2199413981288671e-03" rms="2.8377851843833923e-01" purity="4.9757736921310425e-01" nType="0">
        <Node pos="l" depth="1" NCoef="0" IVar="9" Cut="1.7129601538181305e-01" cType="1" res="-3.7233938928693533e-03" rms="2.8593164682388306e-01" purity="5.1026868820190430e-01" nType="0">
          <Node pos="l" depth="2" NCoef="0" IVar="10" Cut="1.4661682844161987e+00" cType="1" res="-1.3203121488913894e-03" rms="2.8542777895927429e-01" purity="5.1288956403732300e-01" nType="0">
            <Node pos="l" depth="3" NCoef="0" IVar="-1" Cut="0.0000000000000000e+00" cType="1" res="-3.6801998503506184e-03" rms="2.8414407372474670e-01" purity="5.2870160341262817e-01" nType="-99"/>
            <Node pos="r" depth="3" NCoef="0" IVar="-1" Cut="0.0000000000000000e+00" cType="1" res="1.6209084540605545e-02" rms="2.9604175686836243e-01" purity="3.7405523657798767e-01" nType="-99"/>
          </Node>
          <Node pos="r" depth="2" NCoef="0" IVar="1" Cut="1.3671942055225372e-01" cType="1" res="-7.1111391298472881e-03" rms="2.8660622239112854e-01" purity="5.0657397508621216e-01" nType="0">
            <Node pos="l" depth="3" NCoef="0" IVar="-1" Cut="0.0000000000000000e+00" cType="1" res="-1.1285861954092979e-02" rms="2.9121884703636169e-01" purity="4.1955724358558655e-01" nType="-99"/>
            <Node pos="r" depth="3" NCoef="0" IVar="-1" Cut="0.0000000000000000e+00" cType="1" res="6.9252131506800652e-03" rms="2.6610106229782104e-01" purity="8.7089884281158447e-01" nType="-99"/>
          </Node>
        </Node>
        <Node pos="r" depth="1" NCoef="0" IVar="-1" Cut="0.0000000000000000e+00" cType="1" res="2.3074189200997353e-02" rms="2.1064953505992889e-01" purity="1.2581595778465271e-01" nType="-99"/>
      </Node>
    </BinaryTree>
    <BinaryTree type="DecisionTree" boostWeight="1.0000000000000000e+00" itree="519">
      <Node pos="s" depth="0" NCoef="0" IVar="7" Cut="-3.8617858290672302e-01" cType="1" res="-2.5498117320239544e-03" rms="2.8573974967002869e-01" purity="4.9619477987289429e-01" nType="0">
        <Node pos="l" depth="1" NCoef="0" IVar="7" Cut="-1.0686268806457520e+00" cType="1" res="4.6785520389676094e-03" rms="2.8327405452728271e-01" purity="4.1948291659355164e-01" nType="0">
          <Node pos="l" depth="2" NCoef="0" IVar="6" Cut="5.8065223693847656e+01" cType="1" res="-6.0912556946277618e-03" rms="2.3500356078147888e-01" purity="1.9195903837680817e-01" nType="0">
            <Node pos="l" depth="3" NCoef="0" IVar="-1" Cut="0.0000000000000000e+00" cType="1" res="-2.8781201690435410e-02" rms="1.9245673716068268e-01" purity="6.6036738455295563e-02" nType="-99"/>
            <Node pos="r" depth="3" NCoef="0" IVar="-1" Cut="0.0000000000000000e+00" cType="1" res="1.0182000696659088e-02" rms="3.1987905502319336e-01" purity="5.2075314521789551e-01" nType="-99"/>
          </Node>
          <Node pos="r" depth="2" NCoef="0" IVar="8" Cut="-9.3337231874465942e-01" cType="1" res="1.0748123750090599e-02" rms="3.0698725581169128e-01" purity="5.4770922660827637e-01" nType="0">
            <Node pos="l" depth="3" NCoef="0" IVar="-1" Cut="0.0000000000000000e+00" cType="1" res="2.9300617054104805e-02" rms="3.1084665656089783e-01" purity="4.1615355014801025e-01" nType="-99"/>
            <Node pos="r" depth="3" NCoef="0" IVar="-1" Cut="0.0000000000000000e+00" cType="1" res="6.6205118782818317e-03" rms="3.0586302280426025e-01" purity="5.7965844869613647e-01" nType="-99"/>
          </Node>
        </Node>
        <Node pos="r" depth="1" NCoef="0" IVar="8" Cut="-1.4664252996444702e+00" cType="1" res="-6.1298790387809277e-03" rms="2.8688570857048035e-01" purity="5.3418862819671631e-01" nType="0">
          <Node pos="l" depth="2" NCoef="0" IVar="-1" Cut="0.0000000000000000e+00" cType="1" res="1.7718816176056862e-02" rms="2.2590611875057220e-01" purity="1.8522699177265167e-01" nType="-99"/>
          <Node pos="r" depth="2" NCoef="0" IVar="2" Cut="3.1770507812500000e+02" cType="1" res="-7.4304817244410515e-03" rms="2.9109525680541992e-01" purity="5.6159991025924683e-01" nType="0">
            <Node pos="l" depth="3" NCoef="0" IVar="-1" Cut="0.0000000000000000e+00" cType="1" res="-1.6368545591831207e-02" rms="2.9940256476402283e-01" purity="4.5866701006889343e-01" nType="-99"/>
            <Node pos="r" depth="3" NCoef="0" IVar="-1" Cut="0.0000000000000000e+00" cType="1" res="-3.6517430562525988e-03" rms="2.8566515445709229e-01" purity="6.2629985809326172e-01" nType="-99"/>
          </Node>
        </Node>
      </Node>
    </BinaryTree>
    <BinaryTree type="DecisionTree" boostWeight="1.0000000000000000e+00" itree="520">
      <Node pos="s" depth="0" NCoef="0" IVar="9" Cut="-1.3338361680507660e-01" cType="1" res="1.9395810086280107e-03" rms="2.8684607148170471e-01" purity="5.0132000446319580e-01" nType="0">
        <Node pos="l" depth="1" NCoef="0" IVar="8" Cut="9.3337446451187134e-01" cType="1" res="-2.4180246982723475e-03" rms="2.8822499513626099e-01" purity="4.8701879382133484e-01" nType="0">
          <Node pos="l" depth="2" NCoef="0" IVar="6" Cut="1.2921870231628418e+01" cType="1" res="-3.6641777842305601e-04" rms="2.9372709989547729e-01" purity="5.2682024240493774e-01" nType="0">
            <Node pos="l" depth="3" NCoef="0" IVar="-1" Cut="0.0000000000000000e+00" cType="1" res="5.9300549328327179e-03" rms="3.0925706028938293e-01" purity="2.5499564409255981e-01" nType="-99"/>
            <Node pos="r" depth="3" NCoef="0" IVar="-1" Cut="0.0000000000000000e+00" cType="1" res="-7.0022023282945156e-03" rms="2.7951100468635559e-01" purity="7.6169419288635254e-01" nType="-99"/>
          </Node>
          <Node pos="r" depth="2" NCoef="0" IVar="8" Cut="1.2889064550399780e+00" cType="1" res="-1.3837590813636780e-02" rms="2.5514134764671326e-01" purity="2.6547777652740479e-01" nType="0">
            <Node pos="l" depth="3" NCoef="0" IVar="-1" Cut="0.0000000000000000e+00" cType="1" res="-2.9556026682257652e-02" rms="2.9226917028427124e-01" purity="4.1083157062530518e-01" nType="-99"/>
            <Node pos="r" depth="3" NCoef="0" IVar="-1" Cut="0.0000000000000000e+00" cType="1" res="-9.2716738581657410e-03" rms="2.2757947444915771e-01" purity="1.7157697677612305e-01" nType="-99"/>
          </Node>
        </Node>
        <Node pos="r" depth="1" NCoef="0" IVar="7" Cut="9.4150441884994507e-01" cType="1" res="5.5627701804041862e-03" rms="2.8564390540122986e-01" purity="5.1321095228195190e-01" nType="0">
          <Node pos="l" depth="2" NCoef="0" IVar="8" Cut="-9.3411022424697876e-01" cType="1" res="2.5428261142224073e-03" rms="2.8863954544067383e-01" purity="5.6277936697006226e-01" nType="0">
            <Node pos="l" depth="3" NCoef="0" IVar="-1" Cut="0.0000000000000000e+00" cType="1" res="2.0828146487474442e-02" rms="2.8300249576568604e-01" purity="3.5123234987258911e-01" nType="-99"/>
            <Node pos="r" depth="3" NCoef="0" IVar="-1" Cut="0.0000000000000000e+00" cType="1" res="1.5954280388541520e-04" rms="2.8948920965194702e-01" purity="5.9771364927291870e-01" nType="-99"/>
          </Node>
          <Node pos="r" depth="2" NCoef="0" IVar="1" Cut="3.1185910105705261e-02" cType="1" res="2.0784055814146996e-02" rms="2.6952502131462097e-01" purity="2.6337328553199768e-01" nType="0">
            <Node pos="l" depth="3" NCoef="0" IVar="-1" Cut="0.0000000000000000e+00" cType="1" res="1.5941267833113670e-02" rms="2.1833926439285278e-01" purity="1.0843400657176971e-01" nType="-99"/>
            <Node pos="r" depth="3" NCoef="0" IVar="-1" Cut="0.0000000000000000e+00" cType="1" res="3.9486929774284363e-02" rms="3.3465656638145447e-01" purity="5.1194894313812256e-01" nType="-99"/>
          </Node>
        </Node>
      </Node>
    </BinaryTree>
    <BinaryTree type="DecisionTree" boostWeight="1.0000000000000000e+00" itree="521">
      <Node pos="s" depth="0" NCoef="0" IVar="11" Cut="1.4173551797866821e+00" cType="1" res="-2.6706454809755087e-03" rms="2.8834035992622375e-01" purity="4.9375066161155701e-01" nType="0">
        <Node pos="l" depth="1" NCoef="0" IVar="2" Cut="4.9193942260742188e+02" cType="1" res="-3.6624732892960310e-03" rms="2.8660184144973755e-01" purity="4.8530563712120056e-01" nType="0">
          <Node pos="l" depth="2" NCoef="0" IVar="5" Cut="6.5850875854492188e+01" cType="1" res="-2.0158563274890184e-03" rms="2.8402036428451538e-01" purity="4.6651503443717957e-01" nType="0">
            <Node pos="l" depth="3" NCoef="0" IVar="-1" Cut="0.0000000000000000e+00" cType="1" res="6.8103205412626266e-03" rms="2.7222597599029541e-01" purity="1.5621216595172882e-01" nType="-99"/>
            <Node pos="r" depth="3" NCoef="0" IVar="-1" Cut="0.0000000000000000e+00" cType="1" res="-6.8140751682221889e-03" rms="2.9030743241310120e-01" purity="6.3925325870513916e-01" nType="-99"/>
          </Node>
          <Node pos="r" depth="2" NCoef="0" IVar="9" Cut="-9.3355542421340942e-01" cType="1" res="-1.0490141808986664e-02" rms="2.9696929454803467e-01" purity="5.6322038173675537e-01" nType="0">
            <Node pos="l" depth="3" NCoef="0" IVar="-1" Cut="0.0000000000000000e+00" cType="1" res="8.7316641584038734e-03" rms="2.9433482885360718e-01" purity="4.0744712948799133e-01" nType="-99"/>
            <Node pos="r" depth="3" NCoef="0" IVar="-1" Cut="0.0000000000000000e+00" cType="1" res="-1.6460543498396873e-02" rms="2.9737132787704468e-01" purity="5.9613639116287231e-01" nType="-99"/>
          </Node>
        </Node>
        <Node pos="r" depth="1" NCoef="0" IVar="4" Cut="1.5559631347656250e+02" cType="1" res="1.3201380148530006e-02" rms="3.1443265080451965e-01" purity="6.2889426946640015e-01" nType="0">
          <Node pos="l" depth="2" NCoef="0" IVar="-1" Cut="0.0000000000000000e+00" cType="1" res="1.6332903876900673e-02" rms="3.3237773180007935e-01" purity="4.2903792858123779e-01" nType="-99"/>
          <Node pos="r" depth="2" NCoef="0" IVar="-1" Cut="0.0000000000000000e+00" cType="1" res="1.0013148188591003e-02" rms="2.9975610971450806e-01" purity="7.8332710266113281e-01" nType="-99"/>
        </Node>
      </Node>
    </BinaryTree>
    <BinaryTree type="DecisionTree" boostWeight="1.0000000000000000e+00" itree="522">
      <Node pos="s" depth="0" NCoef="0" IVar="0" Cut="1.3460614013671875e+03" cType="1" res="-1.6654706560075283e-03" rms="2.8348138928413391e-01" purity="4.9315476417541504e-01" nType="0">
        <Node pos="l" depth="1" NCoef="0" IVar="0" Cut="1.2161322021484375e+03" cType="1" res="3.0059814453125000e-03" rms="2.7589458227157593e-01" purity="1.6051763296127319e-01" nType="0">
          <Node pos="l" depth="2" NCoef="0" IVar="5" Cut="7.6011306762695312e+01" cType="1" res="-1.4706875663250685e-03" rms="2.3972058296203613e-01" purity="9.4683200120925903e-02" nType="0">
            <Node pos="l" depth="3" NCoef="0" IVar="-1" Cut="0.0000000000000000e+00" cType="1" res="4.5291483402252197e-03" rms="2.2339394688606262e-01" purity="7.3208466172218323e-02" nType="-99"/>
            <Node pos="r" depth="3" NCoef="0" IVar="-1" Cut="0.0000000000000000e+00" cType="1" res="-1.9098205491900444e-02" rms="3.1163799762725830e-01" purity="2.0862962305545807e-01" nType="-99"/>
          </Node>
          <Node pos="r" depth="2" NCoef="0" IVar="2" Cut="4.0448062133789062e+02" cType="1" res="1.3424933888018131e-02" rms="3.4550362825393677e-01" purity="3.1373998522758484e-01" nType="0">
            <Node pos="l" depth="3" NCoef="0" IVar="-1" Cut="0.0000000000000000e+00" cType="1" res="1.6510119661688805e-02" rms="3.7368488311767578e-01" purity="3.8659703731536865e-01" nType="-99"/>
            <Node pos="r" depth="3" NCoef="0" IVar="-1" Cut="0.0000000000000000e+00" cType="1" res="-3.5400826483964920e-02" rms="2.1433575451374054e-01" purity="5.5210195481777191e-02" nType="-99"/>
          </Node>
        </Node>
        <Node pos="r" depth="1" NCoef="0" IVar="9" Cut="-9.3344372510910034e-01" cType="1" res="-4.8181707970798016e-03" rms="2.8844615817070007e-01" purity="7.1764707565307617e-01" nType="0">
          <Node pos="l" depth="2" NCoef="0" IVar="11" Cut="3.6564610898494720e-02" cType="1" res="-1.5815459191799164e-02" rms="3.1329795718193054e-01" purity="5.5709034204483032e-01" nType="0">
            <Node pos="l" depth="3" NCoef="0" IVar="-1" Cut="0.0000000000000000e+00" cType="1" res="-2.2409252822399139e-02" rms="3.1473016738891602e-01" purity="4.7730669379234314e-01" nType="-99"/>
            <Node pos="r" depth="3" NCoef="0" IVar="-1" Cut="0.0000000000000000e+00" cType="1" res="2.5047510862350464e-03" rms="3.0914667248725891e-01" purity="7.4490660429000854e-01" nType="-99"/>
          </Node>
          <Node pos="r" depth="2" NCoef="0" IVar="1" Cut="1.0230332612991333e-01" cType="1" res="-2.8357973787933588e-03" rms="2.8368955850601196e-01" purity="7.4658906459808350e-01" nType="0">
            <Node pos="l" depth="3" NCoef="0" IVar="-1" Cut="0.0000000000000000e+00" cType="1" res="-6.3058701343834400e-03" rms="3.2001018524169922e-01" purity="6.2390840053558350e-01" nType="-99"/>
            <Node pos="r" depth="3" NCoef="0" IVar="-1" Cut="0.0000000000000000e+00" cType="1" res="5.9453300200402737e-03" rms="2.1552716195583344e-01" purity="9.3668067455291748e-01" nType="-99"/>
          </Node>
        </Node>
      </Node>
    </BinaryTree>
    <BinaryTree type="DecisionTree" boostWeight="1.0000000000000000e+00" itree="523">
      <Node pos="s" depth="0" NCoef="0" IVar="9" Cut="3.9999049901962280e-01" cType="1" res="3.2659592106938362e-03" rms="2.8485092520713806e-01" purity="5.0274485349655151e-01" nType="0">
        <Node pos="l" depth="1" NCoef="0" IVar="3" Cut="3.1991824340820312e+02" cType="1" res="6.3399588689208031e-03" rms="2.8831773996353149e-01" purity="5.3160268068313599e-01" nType="0">
          <Node pos="l" depth="2" NCoef="0" IVar="7" Cut="-1.0557432472705841e-01" cType="1" res="9.4292080029845238e-03" rms="2.9307180643081665e-01" purity="4.8092019557952881e-01" nType="0">
            <Node pos="l" depth="3" NCoef="0" IVar="-1" Cut="0.0000000000000000e+00" cType="1" res="2.5348688941448927e-03" rms="2.9124677181243896e-01" purity="4.5640113949775696e-01" nType="-99"/>
            <Node pos="r" depth="3" NCoef="0" IVar="-1" Cut="0.0000000000000000e+00" cType="1" res="1.8717786297202110e-02" rms="2.9459822177886963e-01" purity="5.0370848178863525e-01" nType="-99"/>
          </Node>
          <Node pos="r" depth="2" NCoef="0" IVar="0" Cut="1.7983874511718750e+03" cType="1" res="-6.8924184888601303e-03" rms="2.6659345626831055e-01" purity="7.4869430065155029e-01" nType="0">
            <Node pos="l" depth="3" NCoef="0" IVar="-1" Cut="0.0000000000000000e+00" cType="1" res="-2.6843510568141937e-02" rms="3.3294489979743958e-01" purity="3.5612800717353821e-01" nType="-99"/>
            <Node pos="r" depth="3" NCoef="0" IVar="-1" Cut="0.0000000000000000e+00" cType="1" res="5.7828754506772384e-05" rms="2.4418920278549194e-01" purity="8.5947138071060181e-01" nType="-99"/>
          </Node>
        </Node>
        <Node pos="r" depth="1" NCoef="0" IVar="7" Cut="-6.5262258052825928e-01" cType="1" res="-2.3836318869143724e-03" rms="2.7827826142311096e-01" purity="4.4970798492431641e-01" nType="0">
          <Node pos="l" depth="2" NCoef="0" IVar="7" Cut="-1.2590074539184570e+00" cType="1" res="-1.4907124452292919e-02" rms="2.3798194527626038e-01" purity="2.5222790241241455e-01" nType="0">
            <Node pos="l" depth="3" NCoef="0" IVar="-1" Cut="0.0000000000000000e+00" cType="1" res="9.9804569035768509e-03" rms="1.8910212814807892e-01" purity="1.0642823576927185e-01" nType="-99"/>
            <Node pos="r" depth="3" NCoef="0" IVar="-1" Cut="0.0000000000000000e+00" cType="1" res="-3.6822117865085602e-02" rms="2.6738965511322021e-01" purity="3.5914763808250427e-01" nType="-99"/>
          </Node>
          <Node pos="r" depth="2" NCoef="0" IVar="7" Cut="-1.5989862382411957e-01" cType="1" res="6.9391395663842559e-04" rms="2.8723344206809998e-01" purity="4.9823713302612305e-01" nType="0">
            <Node pos="l" depth="3" NCoef="0" IVar="-1" Cut="0.0000000000000000e+00" cType="1" res="1.9054723903536797e-02" rms="3.0305728316307068e-01" purity="6.0698103904724121e-01" nType="-99"/>
            <Node pos="r" depth="3" NCoef="0" IVar="-1" Cut="0.0000000000000000e+00" cType="1" res="-4.3679908849298954e-03" rms="2.8270775079727173e-01" purity="4.6927425265312195e-01" nType="-99"/>
          </Node>
        </Node>
      </Node>
    </BinaryTree>
    <BinaryTree type="DecisionTree" boostWeight="1.0000000000000000e+00" itree="524">
      <Node pos="s" depth="0" NCoef="0" IVar="8" Cut="-9.3329662084579468e-01" cType="1" res="3.6443374119699001e-03" rms="2.8417861461639404e-01" purity="5.0463128089904785e-01" nType="0">
        <Node pos="l" depth="1" NCoef="0" IVar="10" Cut="6.6631823778152466e-01" cType="1" res="-5.1871589384973049e-03" rms="2.6680371165275574e-01" purity="2.8309500217437744e-01" nType="0">
          <Node pos="l" depth="2" NCoef="0" IVar="10" Cut="6.0786036774516106e-03" cType="1" res="3.2420217758044600e-04" rms="2.7522301673889160e-01" purity="3.0077055096626282e-01" nType="0">
            <Node pos="l" depth="3" NCoef="0" IVar="-1" Cut="0.0000000000000000e+00" cType="1" res="-7.2138779796659946e-03" rms="2.7396267652511597e-01" purity="2.7303883433341980e-01" nType="-99"/>
            <Node pos="r" depth="3" NCoef="0" IVar="-1" Cut="0.0000000000000000e+00" cType="1" res="2.3771977052092552e-02" rms="2.7850395441055298e-01" purity="3.9195296168327332e-01" nType="-99"/>
          </Node>
          <Node pos="r" depth="2" NCoef="0" IVar="-1" Cut="0.0000000000000000e+00" cType="1" res="-3.1055040657520294e-02" rms="2.4050761759281158e-01" purity="2.3271566629409790e-01" nType="-99"/>
        </Node>
        <Node pos="r" depth="1" NCoef="0" IVar="8" Cut="-3.9997741580009460e-01" cType="1" res="5.4413019679486752e-03" rms="2.8755223751068115e-01" purity="5.4970777034759521e-01" nType="0">
          <Node pos="l" depth="2" NCoef="0" IVar="6" Cut="6.7571945190429688e+01" cType="1" res="1.5583227388560772e-02" rms="2.9622066020965576e-01" purity="5.8790087699890137e-01" nType="0">
            <Node pos="l" depth="3" NCoef="0" IVar="-1" Cut="0.0000000000000000e+00" cType="1" res="2.1708576008677483e-02" rms="3.2727292180061340e-01" purity="4.1014313697814941e-01" nType="-99"/>
            <Node pos="r" depth="3" NCoef="0" IVar="-1" Cut="0.0000000000000000e+00" cType="1" res="3.4307632595300674e-03" rms="2.2928681969642639e-01" purity="9.0815812349319458e-01" nType="-99"/>
          </Node>
          <Node pos="r" depth="2" NCoef="0" IVar="8" Cut="8.1902176141738892e-01" cType="1" res="2.8293139766901731e-03" rms="2.8521868586540222e-01" purity="5.3987133502960205e-01" nType="0">
            <Node pos="l" depth="3" NCoef="0" IVar="-1" Cut="0.0000000000000000e+00" cType="1" res="6.9711450487375259e-03" rms="2.9353615641593933e-01" purity="6.3075423240661621e-01" nType="-99"/>
            <Node pos="r" depth="3" NCoef="0" IVar="-1" Cut="0.0000000000000000e+00" cType="1" res="-5.8278483338654041e-03" rms="2.6498690247535706e-01" purity="3.3116126060485840e-01" nType="-99"/>
          </Node>
        </Node>
      </Node>
    </BinaryTree>
    <BinaryTree type="DecisionTree" boostWeight="1.0000000000000000e+00" itree="525">
      <Node pos="s" depth="0" NCoef="0" IVar="11" Cut="-1.0668500661849976e+00" cType="1" res="-2.4021571152843535e-04" rms="2.8443905711174011e-01" purity="5.0068742036819458e-01" nType="0">
        <Node pos="l" depth="1" NCoef="0" IVar="2" Cut="5.8174877929687500e+02" cType="1" res="3.6453839857131243e-03" rms="2.8950542211532593e-01" purity="3.0578172206878662e-01" nType="0">
          <Node pos="l" depth="2" NCoef="0" IVar="10" Cut="1.7327510118484497e+00" cType="1" res="6.0547743923962116e-03" rms="2.8683623671531677e-01" purity="2.9646426439285278e-01" nType="0">
            <Node pos="l" depth="3" NCoef="0" IVar="-1" Cut="0.0000000000000000e+00" cType="1" res="9.3434629961848259e-03" rms="2.9059243202209473e-01" purity="3.0993691086769104e-01" nType="-99"/>
            <Node pos="r" depth="3" NCoef="0" IVar="-1" Cut="0.0000000000000000e+00" cType="1" res="-2.2308953106403351e-02" rms="2.4327544867992401e-01" purity="1.5585736930370331e-01" nType="-99"/>
          </Node>
          <Node pos="r" depth="2" NCoef="0" IVar="7" Cut="-1.3557683676481247e-02" cType="1" res="-1.9347401335835457e-02" rms="3.1290543079376221e-01" purity="3.9469787478446960e-01" nType="0">
            <Node pos="l" depth="3" NCoef="0" IVar="-1" Cut="0.0000000000000000e+00" cType="1" res="-2.4389883503317833e-02" rms="3.2041323184967041e-01" purity="3.9101684093475342e-01" nType="-99"/>
            <Node pos="r" depth="3" NCoef="0" IVar="-1" Cut="0.0000000000000000e+00" cType="1" res="-1.1026196181774139e-02" rms="3.0526468157768250e-01" purity="3.9826095104217529e-01" nType="-99"/>
          </Node>
        </Node>
        <Node pos="r" depth="1" NCoef="0" IVar="7" Cut="1.2422215938568115e+00" cType="1" res="-5.3835711441934109e-03" rms="2.7750691771507263e-01" purity="7.5868356227874756e-01" nType="0">
          <Node pos="l" depth="2" NCoef="0" IVar="4" Cut="1.3792906188964844e+02" cType="1" res="-3.9868787862360477e-03" rms="2.7776974439620972e-01" purity="7.8905636072158813e-01" nType="0">
            <Node pos="l" depth="3" NCoef="0" IVar="-1" Cut="0.0000000000000000e+00" cType="1" res="6.0739791952073574e-03" rms="3.5369962453842163e-01" purity="5.0599420070648193e-01" nType="-99"/>
            <Node pos="r" depth="3" NCoef="0" IVar="-1" Cut="0.0000000000000000e+00" cType="1" res="-1.1153338477015495e-02" rms="2.5342735648155212e-01" purity="8.6512809991836548e-01" nType="-99"/>
          </Node>
          <Node pos="r" depth="2" NCoef="0" IVar="-1" Cut="0.0000000000000000e+00" cType="1" res="-2.8369285166263580e-02" rms="2.7303394675254822e-01" purity="3.3199641108512878e-01" nType="-99"/>
        </Node>
      </Node>
    </BinaryTree>
    <BinaryTree type="DecisionTree" boostWeight="1.0000000000000000e+00" itree="526">
      <Node pos="s" depth="0" NCoef="0" IVar="2" Cut="6.9161645507812500e+02" cType="1" res="1.9696317613124847e-03" rms="2.8491383790969849e-01" purity="4.9794214963912964e-01" nType="0">
        <Node pos="l" depth="1" NCoef="0" IVar="8" Cut="9.3325972557067871e-01" cType="1" res="9.4169029034674168e-04" rms="2.8206881880760193e-01" purity="4.9421331286430359e-01" nType="0">
          <Node pos="l" depth="2" NCoef="0" IVar="2" Cut="5.5115222167968750e+02" cType="1" res="-1.4332477003335953e-03" rms="2.8679734468460083e-01" purity="5.3435158729553223e-01" nType="0">
            <Node pos="l" depth="3" NCoef="0" IVar="-1" Cut="0.0000000000000000e+00" cType="1" res="3.5896464396500960e-05" rms="2.8666108846664429e-01" purity="5.2729141712188721e-01" nType="-99"/>
            <Node pos="r" depth="3" NCoef="0" IVar="-1" Cut="0.0000000000000000e+00" cType="1" res="-1.8886364996433258e-02" rms="2.8774324059486389e-01" purity="6.0447388887405396e-01" nType="-99"/>
          </Node>
          <Node pos="r" depth="2" NCoef="0" IVar="8" Cut="1.1999179124832153e+00" cType="1" res="1.2525722384452820e-02" rms="2.5745061039924622e-01" purity="2.9843431711196899e-01" nType="0">
            <Node pos="l" depth="3" NCoef="0" IVar="-1" Cut="0.0000000000000000e+00" cType="1" res="4.3681304901838303e-02" rms="2.9253262281417847e-01" purity="4.8027601838111877e-01" nType="-99"/>
            <Node pos="r" depth="3" NCoef="0" IVar="-1" Cut="0.0000000000000000e+00" cType="1" res="-1.6721191059332341e-04" rms="2.3853136599063873e-01" purity="2.1477058529853821e-01" nType="-99"/>
          </Node>
        </Node>
        <Node pos="r" depth="1" NCoef="0" IVar="-1" Cut="0.0000000000000000e+00" cType="1" res="2.0888684317469597e-02" rms="3.4028339385986328e-01" purity="5.7917475700378418e-01" nType="-99"/>
      </Node>
    </BinaryTree>
    <BinaryTree type="DecisionTree" boostWeight="1.0000000000000000e+00" itree="527">
      <Node pos="s" depth="0" NCoef="0" IVar="8" Cut="-3.9984324574470520e-01" cType="1" res="-1.4615602558478713e-03" rms="2.8564697504043579e-01" purity="5.0467211008071899e-01" nType="0">
        <Node pos="l" depth="1" NCoef="0" IVar="9" Cut="1.3297353684902191e-01" cType="1" res="3.4837608691304922e-03" rms="2.8638809919357300e-01" purity="4.4774684309959412e-01" nType="0">
          <Node pos="l" depth="2" NCoef="0" IVar="7" Cut="-3.6831539869308472e-01" cType="1" res="-1.4864982804283500e-03" rms="2.8794595599174500e-01" purity="4.4851788878440857e-01" nType="0">
            <Node pos="l" depth="3" NCoef="0" IVar="-1" Cut="0.0000000000000000e+00" cType="1" res="-1.3067426159977913e-02" rms="2.8316459059715271e-01" purity="3.7878301739692688e-01" nType="-99"/>
            <Node pos="r" depth="3" NCoef="0" IVar="-1" Cut="0.0000000000000000e+00" cType="1" res="5.9711439535021782e-03" rms="2.9094865918159485e-01" purity="4.9558344483375549e-01" nType="-99"/>
          </Node>
          <Node pos="r" depth="2" NCoef="0" IVar="7" Cut="-5.8134663105010986e-01" cType="1" res="1.0942961089313030e-02" rms="2.8387081623077393e-01" purity="4.4658973813056946e-01" nType="0">
            <Node pos="l" depth="3" NCoef="0" IVar="-1" Cut="0.0000000000000000e+00" cType="1" res="5.0472814589738846e-02" rms="3.0069288611412048e-01" purity="3.5081321001052856e-01" nType="-99"/>
            <Node pos="r" depth="3" NCoef="0" IVar="-1" Cut="0.0000000000000000e+00" cType="1" res="2.8652686160057783e-03" rms="2.7771127223968506e-01" purity="4.7725009918212891e-01" nType="-99"/>
          </Node>
        </Node>
        <Node pos="r" depth="1" NCoef="0" IVar="10" Cut="1.7327486276626587e+00" cType="1" res="-4.0540779009461403e-03" rms="2.8522345423698425e-01" purity="5.3451436758041382e-01" nType="0">
          <Node pos="l" depth="2" NCoef="0" IVar="1" Cut="2.0918456837534904e-02" cType="1" res="-5.1629855297505856e-03" rms="2.8501170873641968e-01" purity="5.5175673961639404e-01" nType="0">
            <Node pos="l" depth="3" NCoef="0" IVar="-1" Cut="0.0000000000000000e+00" cType="1" res="5.3161545656621456e-03" rms="2.3504255712032318e-01" purity="1.5755267441272736e-01" nType="-99"/>
            <Node pos="r" depth="3" NCoef="0" IVar="-1" Cut="0.0000000000000000e+00" cType="1" res="-8.1324344500899315e-03" rms="2.9669392108917236e-01" purity="6.5518701076507568e-01" nType="-99"/>
          </Node>
          <Node pos="r" depth="2" NCoef="0" IVar="10" Cut="2.0882678031921387e+00" cType="1" res="8.4878243505954742e-03" rms="2.8730964660644531e-01" purity="3.3950093388557434e-01" nType="0">
            <Node pos="l" depth="3" NCoef="0" IVar="-1" Cut="0.0000000000000000e+00" cType="1" res="1.8040789291262627e-02" rms="2.9854053258895874e-01" purity="4.1644799709320068e-01" nType="-99"/>
            <Node pos="r" depth="3" NCoef="0" IVar="-1" Cut="0.0000000000000000e+00" cType="1" res="-5.9711464928113855e-06" rms="2.7507784962654114e-01" purity="2.6072007417678833e-01" nType="-99"/>
          </Node>
        </Node>
      </Node>
    </BinaryTree>
    <BinaryTree type="DecisionTree" boostWeight="1.0000000000000000e+00" itree="528">
      <Node pos="s" depth="0" NCoef="0" IVar="2" Cut="5.8667376708984375e+02" cType="1" res="-5.2477786084637046e-04" rms="2.8230693936347961e-01" purity="5.0178903341293335e-01" nType="0">
        <Node pos="l" depth="1" NCoef="0" IVar="7" Cut="-9.1659402847290039e-01" cType="1" res="-2.3337455932050943e-03" rms="2.7937689423561096e-01" purity="4.9069193005561829e-01" nType="0">
          <Node pos="l" depth="2" NCoef="0" IVar="1" Cut="1.5667470172047615e-02" cType="1" res="6.3708471134305000e-03" rms="2.5131130218505859e-01" purity="2.6000726222991943e-01" nType="0">
            <Node pos="l" depth="3" NCoef="0" IVar="-1" Cut="0.0000000000000000e+00" cType="1" res="-3.9261832833290100e-02" rms="1.3715398311614990e-01" purity="3.0904017388820648e-02" nType="-99"/>
            <Node pos="r" depth="3" NCoef="0" IVar="-1" Cut="0.0000000000000000e+00" cType="1" res="1.8230557441711426e-02" rms="2.9578247666358948e-01" purity="3.8692775368690491e-01" nType="-99"/>
          </Node>
          <Node pos="r" depth="2" NCoef="0" IVar="10" Cut="-4.0034922957420349e-01" cType="1" res="-3.9790030568838120e-03" rms="2.8434056043624878e-01" purity="5.3429371118545532e-01" nType="0">
            <Node pos="l" depth="3" NCoef="0" IVar="-1" Cut="0.0000000000000000e+00" cType="1" res="2.0264352206140757e-03" rms="2.8937065601348877e-01" purity="5.2763211727142334e-01" nType="-99"/>
            <Node pos="r" depth="3" NCoef="0" IVar="-1" Cut="0.0000000000000000e+00" cType="1" res="-8.8215963914990425e-03" rms="2.8138223290443420e-01" purity="5.3808897733688354e-01" nType="-99"/>
          </Node>
        </Node>
        <Node pos="r" depth="1" NCoef="0" IVar="10" Cut="6.6654431819915771e-01" cType="1" res="1.5893116593360901e-02" rms="3.0713951587677002e-01" purity="6.0250437259674072e-01" nType="0">
          <Node pos="l" depth="2" NCoef="0" IVar="1" Cut="5.2868299186229706e-02" cType="1" res="5.8917864225804806e-03" rms="3.0532488226890564e-01" purity="6.1260247230529785e-01" nType="0">
            <Node pos="l" depth="3" NCoef="0" IVar="-1" Cut="0.0000000000000000e+00" cType="1" res="1.2752693146467209e-02" rms="3.2824042439460754e-01" purity="4.3489682674407959e-01" nType="-99"/>
            <Node pos="r" depth="3" NCoef="0" IVar="-1" Cut="0.0000000000000000e+00" cType="1" res="-8.5335774347186089e-03" rms="2.6831686496734619e-01" purity="8.6948961019515991e-01" nType="-99"/>
          </Node>
          <Node pos="r" depth="2" NCoef="0" IVar="-1" Cut="0.0000000000000000e+00" cType="1" res="3.6629021167755127e-02" rms="3.1000253558158875e-01" purity="5.7982480525970459e-01" nType="-99"/>
        </Node>
      </Node>
    </BinaryTree>
    <BinaryTree type="DecisionTree" boostWeight="1.0000000000000000e+00" itree="529">
      <Node pos="s" depth="0" NCoef="0" IVar="6" Cut="6.1998222351074219e+01" cType="1" res="-1.9493266008794308e-03" rms="2.8518319129943848e-01" purity="4.9934864044189453e-01" nType="0">
        <Node pos="l" depth="1" NCoef="0" IVar="7" Cut="-6.3579267263412476e-01" cType="1" res="9.0206705499440432e-04" rms="3.0289265513420105e-01" purity="2.8945821523666382e-01" nType="0">
          <Node pos="l" depth="2" NCoef="0" IVar="9" Cut="-9.3282204866409302e-01" cType="1" res="1.0802250355482101e-02" rms="2.7155804634094238e-01" purity="1.8297533690929413e-01" nType="0">
            <Node pos="l" depth="3" NCoef="0" IVar="-1" Cut="0.0000000000000000e+00" cType="1" res="3.8113787770271301e-02" rms="2.7892199158668518e-01" purity="1.5612471103668213e-01" nType="-99"/>
            <Node pos="r" depth="3" NCoef="0" IVar="-1" Cut="0.0000000000000000e+00" cType="1" res="7.3592993430793285e-03" rms="2.6841473579406738e-01" purity="1.9352515041828156e-01" nType="-99"/>
          </Node>
          <Node pos="r" depth="2" NCoef="0" IVar="10" Cut="1.7330930233001709e+00" cType="1" res="-2.6604868471622467e-03" rms="3.1332623958587646e-01" purity="3.2777580618858337e-01" nType="0">
            <Node pos="l" depth="3" NCoef="0" IVar="-1" Cut="0.0000000000000000e+00" cType="1" res="-3.9319001371040940e-04" rms="3.1646496057510376e-01" purity="3.4479132294654846e-01" nType="-99"/>
            <Node pos="r" depth="3" NCoef="0" IVar="-1" Cut="0.0000000000000000e+00" cType="1" res="-2.8209244832396507e-02" rms="2.8105929493904114e-01" purity="1.6700696945190430e-01" nType="-99"/>
          </Node>
        </Node>
        <Node pos="r" depth="1" NCoef="0" IVar="0" Cut="1.3559626464843750e+03" cType="1" res="-6.4618778415024281e-03" rms="2.5458678603172302e-01" purity="8.3151656389236450e-01" nType="0">
          <Node pos="l" depth="2" NCoef="0" IVar="-1" Cut="0.0000000000000000e+00" cType="1" res="-2.2045791149139404e-02" rms="3.5726130008697510e-01" purity="4.4549295306205750e-01" nType="-99"/>
          <Node pos="r" depth="2" NCoef="0" IVar="7" Cut="-3.1683573126792908e-01" cType="1" res="-3.2748819794505835e-03" rms="2.3710319399833679e-01" purity="8.8381725549697876e-01" nType="0">
            <Node pos="l" depth="3" NCoef="0" IVar="-1" Cut="0.0000000000000000e+00" cType="1" res="-1.9981794059276581e-02" rms="2.5741904973983765e-01" purity="8.5115826129913330e-01" nType="-99"/>
            <Node pos="r" depth="3" NCoef="0" IVar="-1" Cut="0.0000000000000000e+00" cType="1" res="2.0511387847363949e-03" rms="2.2671751677989960e-01" purity="8.9927983283996582e-01" nType="-99"/>
          </Node>
        </Node>
      </Node>
    </BinaryTree>
    <BinaryTree type="DecisionTree" boostWeight="1.0000000000000000e+00" itree="530">
      <Node pos="s" depth="0" NCoef="0" IVar="10" Cut="1.1996419429779053e+00" cType="1" res="3.6168577935313806e-05" rms="2.8460353612899780e-01" purity="4.9922636151313782e-01" nType="0">
        <Node pos="l" depth="1" NCoef="0" IVar="11" Cut="-2.1715507507324219e+00" cType="1" res="-1.9102266523987055e-03" rms="2.8320485353469849e-01" purity="5.2291059494018555e-01" nType="0">
          <Node pos="l" depth="2" NCoef="0" IVar="8" Cut="3.9998456835746765e-01" cType="1" res="-7.0040449500083923e-03" rms="2.9368311166763306e-01" purity="2.4760830402374268e-01" nType="0">
            <Node pos="l" depth="3" NCoef="0" IVar="-1" Cut="0.0000000000000000e+00" cType="1" res="-2.7309943106956780e-04" rms="3.0452778935432434e-01" purity="2.7957683801651001e-01" nType="-99"/>
            <Node pos="r" depth="3" NCoef="0" IVar="-1" Cut="0.0000000000000000e+00" cType="1" res="-2.4978073313832283e-02" rms="2.7079427242279053e-01" purity="1.8523009121417999e-01" nType="-99"/>
          </Node>
          <Node pos="r" depth="2" NCoef="0" IVar="7" Cut="-1.7488149926066399e-02" cType="1" res="2.7203778736293316e-03" rms="2.7324876189231873e-01" purity="7.7317786216735840e-01" nType="0">
            <Node pos="l" depth="3" NCoef="0" IVar="-1" Cut="0.0000000000000000e+00" cType="1" res="1.2073986232280731e-02" rms="2.7461972832679749e-01" purity="7.7806633710861206e-01" nType="-99"/>
            <Node pos="r" depth="3" NCoef="0" IVar="-1" Cut="0.0000000000000000e+00" cType="1" res="-5.5727735161781311e-03" rms="2.7162972092628479e-01" purity="7.6803863048553467e-01" nType="-99"/>
          </Node>
        </Node>
        <Node pos="r" depth="1" NCoef="0" IVar="11" Cut="-2.3847843706607819e-01" cType="1" res="9.9110389128327370e-03" rms="2.9139599204063416e-01" purity="3.7906649708747864e-01" nType="0">
          <Node pos="l" depth="2" NCoef="0" IVar="10" Cut="1.5043880939483643e+00" cType="1" res="2.2217023652046919e-03" rms="2.8250977396965027e-01" purity="2.7682021260261536e-01" nType="0">
            <Node pos="l" depth="3" NCoef="0" IVar="-1" Cut="0.0000000000000000e+00" cType="1" res="2.7093896642327309e-02" rms="2.9358309507369995e-01" purity="3.9308190345764160e-01" nType="-99"/>
            <Node pos="r" depth="3" NCoef="0" IVar="-1" Cut="0.0000000000000000e+00" cType="1" res="-9.4151711091399193e-03" rms="2.7650946378707886e-01" purity="2.2063006460666656e-01" nType="-99"/>
          </Node>
          <Node pos="r" depth="2" NCoef="0" IVar="-1" Cut="0.0000000000000000e+00" cType="1" res="2.9906988143920898e-02" rms="3.1303888559341431e-01" purity="6.5302753448486328e-01" nType="-99"/>
        </Node>
      </Node>
    </BinaryTree>
    <BinaryTree type="DecisionTree" boostWeight="1.0000000000000000e+00" itree="531">
      <Node pos="s" depth="0" NCoef="0" IVar="9" Cut="1.9998748302459717e+00" cType="1" res="1.9404819468036294e-03" rms="2.8468969464302063e-01" purity="5.0143539905548096e-01" nType="0">
        <Node pos="l" depth="1" NCoef="0" IVar="4" Cut="1.6041624450683594e+02" cType="1" res="2.6120569091290236e-03" rms="2.8732380270957947e-01" purity="5.1524096727371216e-01" nType="0">
          <Node pos="l" depth="2" NCoef="0" IVar="10" Cut="-6.6688066720962524e-01" cType="1" res="-6.1208888655528426e-04" rms="2.9177859425544739e-01" purity="2.8394725918769836e-01" nType="0">
            <Node pos="l" depth="3" NCoef="0" IVar="-1" Cut="0.0000000000000000e+00" cType="1" res="-1.0316314175724983e-02" rms="2.8810700774192810e-01" purity="2.4839147925376892e-01" nType="-99"/>
            <Node pos="r" depth="3" NCoef="0" IVar="-1" Cut="0.0000000000000000e+00" cType="1" res="3.5798379685729742e-03" rms="2.9339689016342163e-01" purity="3.0047401785850525e-01" nType="-99"/>
          </Node>
          <Node pos="r" depth="2" NCoef="0" IVar="8" Cut="-1.3360603153705597e-01" cType="1" res="6.0575399547815323e-03" rms="2.8244486451148987e-01" purity="7.6241296529769897e-01" nType="0">
            <Node pos="l" depth="3" NCoef="0" IVar="-1" Cut="0.0000000000000000e+00" cType="1" res="1.4822022989392281e-02" rms="2.8547558188438416e-01" purity="7.5819879770278931e-01" nType="-99"/>
            <Node pos="r" depth="3" NCoef="0" IVar="-1" Cut="0.0000000000000000e+00" cType="1" res="1.1547792237251997e-03" rms="2.7996036410331726e-01" purity="7.6568669080734253e-01" nType="-99"/>
          </Node>
        </Node>
        <Node pos="r" depth="1" NCoef="0" IVar="-1" Cut="0.0000000000000000e+00" cType="1" res="-3.3412538468837738e-02" rms="1.9591456651687622e-01" purity="1.1388526856899261e-01" nType="-99"/>
      </Node>
    </BinaryTree>
    <BinaryTree type="DecisionTree" boostWeight="1.0000000000000000e+00" itree="532">
      <Node pos="s" depth="0" NCoef="0" IVar="10" Cut="-2.2666718959808350e+00" cType="1" res="2.4850040790624917e-04" rms="2.8617963194847107e-01" purity="5.0107848644256592e-01" nType="0">
        <Node pos="l" depth="1" NCoef="0" IVar="-1" Cut="0.0000000000000000e+00" cType="1" res="-3.2980542629957199e-02" rms="2.5614145398139954e-01" purity="2.1370908617973328e-01" nType="-99"/>
        <Node pos="r" depth="1" NCoef="0" IVar="8" Cut="6.6660678386688232e-01" cType="1" res="9.3431776622310281e-04" rms="2.8691539168357849e-01" purity="5.0883233547210693e-01" nType="0">
          <Node pos="l" depth="2" NCoef="0" IVar="7" Cut="-1.2782043218612671e-01" cType="1" res="-1.3266076566651464e-03" rms="2.8829085826873779e-01" purity="5.5101555585861206e-01" nType="0">
            <Node pos="l" depth="3" NCoef="0" IVar="-1" Cut="0.0000000000000000e+00" cType="1" res="-7.8610349446535110e-03" rms="2.8791368007659912e-01" purity="5.2676999568939209e-01" nType="-99"/>
            <Node pos="r" depth="3" NCoef="0" IVar="-1" Cut="0.0000000000000000e+00" cType="1" res="3.6212864797562361e-03" rms="2.8852146863937378e-01" purity="5.7060378789901733e-01" nType="-99"/>
          </Node>
          <Node pos="r" depth="2" NCoef="0" IVar="4" Cut="2.1902366638183594e+02" cType="1" res="7.8724278137087822e-03" rms="2.8253972530364990e-01" purity="3.7938457727432251e-01" nType="0">
            <Node pos="l" depth="3" NCoef="0" IVar="-1" Cut="0.0000000000000000e+00" cType="1" res="1.5109038911759853e-02" rms="2.8216469287872314e-01" purity="3.2060432434082031e-01" nType="-99"/>
            <Node pos="r" depth="3" NCoef="0" IVar="-1" Cut="0.0000000000000000e+00" cType="1" res="-1.6471823677420616e-02" rms="2.8365367650985718e-01" purity="7.1019822359085083e-01" nType="-99"/>
          </Node>
        </Node>
      </Node>
    </BinaryTree>
    <BinaryTree type="DecisionTree" boostWeight="1.0000000000000000e+00" itree="533">
      <Node pos="s" depth="0" NCoef="0" IVar="7" Cut="-6.3579267263412476e-01" cType="1" res="1.8206511158496141e-03" rms="2.8595834970474243e-01" purity="5.0064355134963989e-01" nType="0">
        <Node pos="l" depth="1" NCoef="0" IVar="11" Cut="-2.7239539623260498e+00" cType="1" res="-6.6272672265768051e-03" rms="2.7147400379180908e-01" purity="3.3128106594085693e-01" nType="0">
          <Node pos="l" depth="2" NCoef="0" IVar="1" Cut="5.0964500755071640e-02" cType="1" res="7.2881806408986449e-04" rms="2.4965263903141022e-01" purity="1.3945731520652771e-01" nType="0">
            <Node pos="l" depth="3" NCoef="0" IVar="-1" Cut="0.0000000000000000e+00" cType="1" res="1.3461966067552567e-02" rms="2.1686550974845886e-01" purity="8.4986388683319092e-02" nType="-99"/>
            <Node pos="r" depth="3" NCoef="0" IVar="-1" Cut="0.0000000000000000e+00" cType="1" res="-1.4894549734890461e-02" rms="3.4335020184516907e-01" purity="3.3907666802406311e-01" nType="-99"/>
          </Node>
          <Node pos="r" depth="2" NCoef="0" IVar="10" Cut="4.0063142776489258e-01" cType="1" res="-1.6421800479292870e-02" rms="2.9777744412422180e-01" purity="5.8669191598892212e-01" nType="0">
            <Node pos="l" depth="3" NCoef="0" IVar="-1" Cut="0.0000000000000000e+00" cType="1" res="-1.1134061031043530e-02" rms="2.9981526732444763e-01" purity="6.1899590492248535e-01" nType="-99"/>
            <Node pos="r" depth="3" NCoef="0" IVar="-1" Cut="0.0000000000000000e+00" cType="1" res="-3.1445458531379700e-02" rms="2.9297706484794617e-01" purity="5.1816636323928833e-01" nType="-99"/>
          </Node>
        </Node>
        <Node pos="r" depth="1" NCoef="0" IVar="10" Cut="-1.2001100778579712e+00" cType="1" res="4.3528564274311066e-03" rms="2.9011121392250061e-01" purity="5.5140876770019531e-01" nType="0">
          <Node pos="l" depth="2" NCoef="0" IVar="10" Cut="-1.8095551729202271e+00" cType="1" res="1.4903853647410870e-02" rms="3.0440613627433777e-01" purity="4.3891146779060364e-01" nType="0">
            <Node pos="l" depth="3" NCoef="0" IVar="-1" Cut="0.0000000000000000e+00" cType="1" res="-8.7201443966478109e-04" rms="3.0530181527137756e-01" purity="3.1407091021537781e-01" nType="-99"/>
            <Node pos="r" depth="3" NCoef="0" IVar="-1" Cut="0.0000000000000000e+00" cType="1" res="2.7261607348918915e-02" rms="3.0337020754814148e-01" purity="5.2126985788345337e-01" nType="-99"/>
          </Node>
          <Node pos="r" depth="2" NCoef="0" IVar="10" Cut="-5.7362385094165802e-02" cType="1" res="2.5699173565953970e-03" rms="2.8758722543716431e-01" purity="5.7041889429092407e-01" nType="0">
            <Node pos="l" depth="3" NCoef="0" IVar="-1" Cut="0.0000000000000000e+00" cType="1" res="-4.0176319889724255e-03" rms="2.8644308447837830e-01" purity="6.0249328613281250e-01" nType="-99"/>
            <Node pos="r" depth="3" NCoef="0" IVar="-1" Cut="0.0000000000000000e+00" cType="1" res="7.1422541514039040e-03" rms="2.8819292783737183e-01" purity="5.5181574821472168e-01" nType="-99"/>
          </Node>
        </Node>
      </Node>
    </BinaryTree>
    <BinaryTree type="DecisionTree" boostWeight="1.0000000000000000e+00" itree="534">
      <Node pos="s" depth="0" NCoef="0" IVar="2" Cut="3.2725183105468750e+02" cType="1" res="-1.5570522518828511e-03" rms="2.8540512919425964e-01" purity="5.0205421447753906e-01" nType="0">
        <Node pos="l" depth="1" NCoef="0" IVar="8" Cut="3.9986592531204224e-01" cType="1" res="3.6614362616091967e-03" rms="2.8825345635414124e-01" purity="4.3355777859687805e-01" nType="0">
          <Node pos="l" depth="2" NCoef="0" IVar="7" Cut="-1.1648033857345581e+00" cType="1" res="-1.3819378800690174e-03" rms="2.8819084167480469e-01" purity="4.5196199417114258e-01" nType="0">
            <Node pos="l" depth="3" NCoef="0" IVar="-1" Cut="0.0000000000000000e+00" cType="1" res="3.7572756409645081e-02" rms="2.5687688589096069e-01" purity="1.9671691954135895e-01" nType="-99"/>
            <Node pos="r" depth="3" NCoef="0" IVar="-1" Cut="0.0000000000000000e+00" cType="1" res="-5.4823905229568481e-03" rms="2.9220083355903625e-01" purity="4.8817464709281921e-01" nType="-99"/>
          </Node>
          <Node pos="r" depth="2" NCoef="0" IVar="9" Cut="-3.9776381850242615e-01" cType="1" res="1.3031226582825184e-02" rms="2.8813552856445312e-01" purity="3.9936557412147522e-01" nType="0">
            <Node pos="l" depth="3" NCoef="0" IVar="-1" Cut="0.0000000000000000e+00" cType="1" res="3.0963256955146790e-02" rms="2.8927195072174072e-01" purity="3.7528964877128601e-01" nType="-99"/>
            <Node pos="r" depth="3" NCoef="0" IVar="-1" Cut="0.0000000000000000e+00" cType="1" res="8.7061943486332893e-03" rms="2.8741148114204407e-01" purity="4.1081926226615906e-01" nType="-99"/>
          </Node>
        </Node>
        <Node pos="r" depth="1" NCoef="0" IVar="5" Cut="1.0434843444824219e+02" cType="1" res="-5.5624879896640778e-03" rms="2.8313425183296204e-01" purity="5.5462843179702759e-01" nType="0">
          <Node pos="l" depth="2" NCoef="0" IVar="8" Cut="1.3325053453445435e-01" cType="1" res="-9.6420189365744591e-03" rms="3.0716508626937866e-01" purity="3.7432372570037842e-01" nType="0">
            <Node pos="l" depth="3" NCoef="0" IVar="-1" Cut="0.0000000000000000e+00" cType="1" res="-3.9270925335586071e-03" rms="3.1499940156936646e-01" purity="3.9900553226470947e-01" nType="-99"/>
            <Node pos="r" depth="3" NCoef="0" IVar="-1" Cut="0.0000000000000000e+00" cType="1" res="-1.7618983983993530e-02" rms="2.9710885882377625e-01" purity="3.4400686621665955e-01" nType="-99"/>
          </Node>
          <Node pos="r" depth="2" NCoef="0" IVar="11" Cut="-2.7238357067108154e+00" cType="1" res="2.0006557460874319e-03" rms="2.3190145194530487e-01" purity="8.8889986276626587e-01" nType="0">
            <Node pos="l" depth="3" NCoef="0" IVar="-1" Cut="0.0000000000000000e+00" cType="1" res="2.7613539248704910e-02" rms="3.2846361398696899e-01" purity="7.1857762336730957e-01" nType="-99"/>
            <Node pos="r" depth="3" NCoef="0" IVar="-1" Cut="0.0000000000000000e+00" cType="1" res="-6.2302108854055405e-03" rms="2.1201919019222260e-01" purity="9.1613584756851196e-01" nType="-99"/>
          </Node>
        </Node>
      </Node>
    </BinaryTree>
    <BinaryTree type="DecisionTree" boostWeight="1.0000000000000000e+00" itree="535">
      <Node pos="s" depth="0" NCoef="0" IVar="10" Cut="-1.9999899864196777e+00" cType="1" res="2.7024111477658153e-04" rms="2.8718611598014832e-01" purity="5.0696426630020142e-01" nType="0">
        <Node pos="l" depth="1" NCoef="0" IVar="-1" Cut="0.0000000000000000e+00" cType="1" res="2.5054730474948883e-02" rms="2.9767817258834839e-01" purity="2.8906702995300293e-01" nType="-99"/>
        <Node pos="r" depth="1" NCoef="0" IVar="9" Cut="-1.2001018524169922e+00" cType="1" res="-7.9153000842779875e-04" rms="2.8660210967063904e-01" purity="5.1803541183471680e-01" nType="0">
          <Node pos="l" depth="2" NCoef="0" IVar="4" Cut="1.3354830932617188e+02" cType="1" res="8.4752719849348068e-03" rms="2.9118990898132324e-01" purity="3.1254616379737854e-01" nType="0">
            <Node pos="l" depth="3" NCoef="0" IVar="-1" Cut="0.0000000000000000e+00" cType="1" res="3.2718427479267120e-02" rms="2.6953676342964172e-01" purity="1.5843394398689270e-01" nType="-99"/>
            <Node pos="r" depth="3" NCoef="0" IVar="-1" Cut="0.0000000000000000e+00" cType="1" res="-3.9970637299120426e-03" rms="3.1159994006156921e-01" purity="4.7268638014793396e-01" nType="-99"/>
          </Node>
          <Node pos="r" depth="2" NCoef="0" IVar="9" Cut="-1.0096231698989868e+00" cType="1" res="-2.1300106309354305e-03" rms="2.8590855002403259e-01" purity="5.4771596193313599e-01" nType="0">
            <Node pos="l" depth="3" NCoef="0" IVar="-1" Cut="0.0000000000000000e+00" cType="1" res="-3.2806515693664551e-02" rms="3.1851935386657715e-01" purity="4.4367307424545288e-01" nType="-99"/>
            <Node pos="r" depth="3" NCoef="0" IVar="-1" Cut="0.0000000000000000e+00" cType="1" res="-9.3990610912442207e-04" rms="2.8419145941734314e-01" purity="5.5267053842544556e-01" nType="-99"/>
          </Node>
        </Node>
      </Node>
    </BinaryTree>
    <BinaryTree type="DecisionTree" boostWeight="1.0000000000000000e+00" itree="536">
      <Node pos="s" depth="0" NCoef="0" IVar="2" Cut="5.8174261474609375e+02" cType="1" res="-7.8558269888162613e-04" rms="2.8618898987770081e-01" purity="4.9902299046516418e-01" nType="0">
        <Node pos="l" depth="1" NCoef="0" IVar="1" Cut="4.1835803538560867e-02" cType="1" res="-1.9189782906323671e-03" rms="2.8428620100021362e-01" purity="4.8755723237991333e-01" nType="0">
          <Node pos="l" depth="2" NCoef="0" IVar="11" Cut="-7.9048091173171997e-01" cType="1" res="2.6316884905099869e-03" rms="2.5781282782554626e-01" purity="1.9078014791011810e-01" nType="0">
            <Node pos="l" depth="3" NCoef="0" IVar="-1" Cut="0.0000000000000000e+00" cType="1" res="-2.4295337498188019e-03" rms="2.3638492822647095e-01" purity="1.1929357051849365e-01" nType="-99"/>
            <Node pos="r" depth="3" NCoef="0" IVar="-1" Cut="0.0000000000000000e+00" cType="1" res="1.4952932484447956e-02" rms="3.1742426753044128e-01" purity="4.2378556728363037e-01" nType="-99"/>
          </Node>
          <Node pos="r" depth="2" NCoef="0" IVar="2" Cut="2.3635826110839844e+02" cType="1" res="-4.9114320427179337e-03" rms="3.0038845539093018e-01" purity="6.8271362781524658e-01" nType="0">
            <Node pos="l" depth="3" NCoef="0" IVar="-1" Cut="0.0000000000000000e+00" cType="1" res="6.3265697099268436e-03" rms="3.2908776402473450e-01" purity="5.2102893590927124e-01" nType="-99"/>
            <Node pos="r" depth="3" NCoef="0" IVar="-1" Cut="0.0000000000000000e+00" cType="1" res="-7.5045176781713963e-03" rms="2.9566383361816406e-01" purity="7.0770615339279175e-01" nType="-99"/>
          </Node>
        </Node>
        <Node pos="r" depth="1" NCoef="0" IVar="7" Cut="-2.6187494397163391e-01" cType="1" res="9.0087810531258583e-03" rms="3.0195602774620056e-01" purity="5.9810543060302734e-01" nType="0">
          <Node pos="l" depth="2" NCoef="0" IVar="-1" Cut="0.0000000000000000e+00" cType="1" res="2.3512165993452072e-02" rms="3.1570982933044434e-01" purity="5.5905854701995850e-01" nType="-99"/>
          <Node pos="r" depth="2" NCoef="0" IVar="10" Cut="1.3326385617256165e-01" cType="1" res="2.7489289641380310e-04" rms="2.9358083009719849e-01" purity="6.2005639076232910e-01" nType="0">
            <Node pos="l" depth="3" NCoef="0" IVar="-1" Cut="0.0000000000000000e+00" cType="1" res="-8.8701946660876274e-03" rms="2.7493384480476379e-01" purity="6.3856393098831177e-01" nType="-99"/>
            <Node pos="r" depth="3" NCoef="0" IVar="-1" Cut="0.0000000000000000e+00" cType="1" res="9.4163268804550171e-03" rms="3.1203475594520569e-01" purity="6.0027456283569336e-01" nType="-99"/>
          </Node>
        </Node>
      </Node>
    </BinaryTree>
    <BinaryTree type="DecisionTree" boostWeight="1.0000000000000000e+00" itree="537">
      <Node pos="s" depth="0" NCoef="0" IVar="6" Cut="5.4057559967041016e+01" cType="1" res="4.3152779107913375e-04" rms="2.8432312607765198e-01" purity="5.0332027673721313e-01" nType="0">
        <Node pos="l" depth="1" NCoef="0" IVar="9" Cut="-6.6670638322830200e-01" cType="1" res="-3.5892757587134838e-03" rms="2.9807823896408081e-01" purity="2.4192021787166595e-01" nType="0">
          <Node pos="l" depth="2" NCoef="0" IVar="9" Cut="-1.6825747489929199e+00" cType="1" res="-1.2322909198701382e-02" rms="2.7353000640869141e-01" purity="1.6539421677589417e-01" nType="0">
            <Node pos="l" depth="3" NCoef="0" IVar="-1" Cut="0.0000000000000000e+00" cType="1" res="3.8905420806258917e-03" rms="2.0578452944755554e-01" purity="6.0695469379425049e-02" nType="-99"/>
            <Node pos="r" depth="3" NCoef="0" IVar="-1" Cut="0.0000000000000000e+00" cType="1" res="-1.9142210483551025e-02" rms="2.9804128408432007e-01" purity="2.1095865964889526e-01" nType="-99"/>
          </Node>
          <Node pos="r" depth="2" NCoef="0" IVar="3" Cut="2.3951625061035156e+02" cType="1" res="2.3918606530060060e-05" rms="3.0758932232856750e-01" purity="2.7357983589172363e-01" nType="0">
            <Node pos="l" depth="3" NCoef="0" IVar="-1" Cut="0.0000000000000000e+00" cType="1" res="5.0931647419929504e-03" rms="2.8685137629508972e-01" purity="1.8445490300655365e-01" nType="-99"/>
            <Node pos="r" depth="3" NCoef="0" IVar="-1" Cut="0.0000000000000000e+00" cType="1" res="-6.9652381353080273e-03" rms="3.4587156772613525e-01" purity="4.5519018173217773e-01" nType="-99"/>
          </Node>
        </Node>
        <Node pos="r" depth="1" NCoef="0" IVar="11" Cut="-1.2002608776092529e+00" cType="1" res="4.8102005384862423e-03" rms="2.6847502589225769e-01" purity="7.8798604011535645e-01" nType="0">
          <Node pos="l" depth="2" NCoef="0" IVar="7" Cut="-1.1056726425886154e-01" cType="1" res="2.4101674556732178e-02" rms="2.7813199162483215e-01" purity="7.2497737407684326e-01" nType="0">
            <Node pos="l" depth="3" NCoef="0" IVar="-1" Cut="0.0000000000000000e+00" cType="1" res="1.1329038534313440e-03" rms="2.9217064380645752e-01" purity="6.9905960559844971e-01" nType="-99"/>
            <Node pos="r" depth="3" NCoef="0" IVar="-1" Cut="0.0000000000000000e+00" cType="1" res="4.8649903386831284e-02" rms="2.6222702860832214e-01" purity="7.4960446357727051e-01" nType="-99"/>
          </Node>
          <Node pos="r" depth="2" NCoef="0" IVar="9" Cut="-6.6689425706863403e-01" cType="1" res="1.4409149298444390e-03" rms="2.6660943031311035e-01" purity="7.9899054765701294e-01" nType="0">
            <Node pos="l" depth="3" NCoef="0" IVar="-1" Cut="0.0000000000000000e+00" cType="1" res="1.4154330827295780e-02" rms="2.9126051068305969e-01" purity="7.4050056934356689e-01" nType="-99"/>
            <Node pos="r" depth="3" NCoef="0" IVar="-1" Cut="0.0000000000000000e+00" cType="1" res="-2.8126060497015715e-03" rms="2.5854864716529846e-01" purity="8.1678205728530884e-01" nType="-99"/>
          </Node>
        </Node>
      </Node>
    </BinaryTree>
    <BinaryTree type="DecisionTree" boostWeight="1.0000000000000000e+00" itree="538">
      <Node pos="s" depth="0" NCoef="0" IVar="8" Cut="9.3334621191024780e-01" cType="1" res="-2.8049401007592678e-03" rms="2.8331154584884644e-01" purity="4.9768283963203430e-01" nType="0">
        <Node pos="l" depth="1" NCoef="0" IVar="6" Cut="5.3458862304687500e+01" cType="1" res="-5.0865784287452698e-03" rms="2.8608638048171997e-01" purity="5.3560888767242432e-01" nType="0">
          <Node pos="l" depth="2" NCoef="0" IVar="11" Cut="-7.9159927368164062e-01" cType="1" res="-1.0241208598017693e-02" rms="3.0672359466552734e-01" purity="2.5792887806892395e-01" nType="0">
            <Node pos="l" depth="3" NCoef="0" IVar="-1" Cut="0.0000000000000000e+00" cType="1" res="-7.8023509122431278e-03" rms="3.0279603600502014e-01" purity="2.4756851792335510e-01" nType="-99"/>
            <Node pos="r" depth="3" NCoef="0" IVar="-1" Cut="0.0000000000000000e+00" cType="1" res="-4.0907032787799835e-02" rms="3.5828906297683716e-01" purity="4.1514274477958679e-01" nType="-99"/>
          </Node>
          <Node pos="r" depth="2" NCoef="0" IVar="10" Cut="1.1984564065933228e+00" cType="1" res="-4.1440627683186904e-05" rms="2.6423454284667969e-01" purity="8.0739051103591919e-01" nType="0">
            <Node pos="l" depth="3" NCoef="0" IVar="-1" Cut="0.0000000000000000e+00" cType="1" res="3.1225688289850950e-03" rms="2.5729501247406006e-01" purity="8.2218873500823975e-01" nType="-99"/>
            <Node pos="r" depth="3" NCoef="0" IVar="-1" Cut="0.0000000000000000e+00" cType="1" res="-1.6531875357031822e-02" rms="3.0557253956794739e-01" purity="7.1005797386169434e-01" nType="-99"/>
          </Node>
        </Node>
        <Node pos="r" depth="1" NCoef="0" IVar="7" Cut="-3.1810387969017029e-01" cType="1" res="8.1273298710584641e-03" rms="2.6935207843780518e-01" purity="3.1596353650093079e-01" nType="0">
          <Node pos="l" depth="2" NCoef="0" IVar="7" Cut="-9.8555231094360352e-01" cType="1" res="-6.4081815071403980e-03" rms="2.3478040099143982e-01" purity="1.8553385138511658e-01" nType="0">
            <Node pos="l" depth="3" NCoef="0" IVar="-1" Cut="0.0000000000000000e+00" cType="1" res="2.6348998770117760e-02" rms="1.8015210330486298e-01" purity="8.8434211909770966e-02" nType="-99"/>
            <Node pos="r" depth="3" NCoef="0" IVar="-1" Cut="0.0000000000000000e+00" cType="1" res="-2.6324942708015442e-02" rms="2.7544295787811279e-01" purity="2.7629321813583374e-01" nType="-99"/>
          </Node>
          <Node pos="r" depth="2" NCoef="0" IVar="7" Cut="5.7195323705673218e-01" cType="1" res="1.5809617936611176e-02" rms="2.8564184904098511e-01" purity="3.8489812612533569e-01" nType="0">
            <Node pos="l" depth="3" NCoef="0" IVar="-1" Cut="0.0000000000000000e+00" cType="1" res="2.7994928881525993e-02" rms="3.0299851298332214e-01" purity="5.0859278440475464e-01" nType="-99"/>
            <Node pos="r" depth="3" NCoef="0" IVar="-1" Cut="0.0000000000000000e+00" cType="1" res="5.0809136591851711e-03" rms="2.6549145579338074e-01" purity="2.5394770503044128e-01" nType="-99"/>
          </Node>
        </Node>
      </Node>
    </BinaryTree>
    <BinaryTree type="DecisionTree" boostWeight="1.0000000000000000e+00" itree="539">
      <Node pos="s" depth="0" NCoef="0" IVar="7" Cut="-3.7165609002113342e-01" cType="1" res="-1.3888856628909707e-03" rms="2.8324833512306213e-01" purity="4.9624201655387878e-01" nType="0">
        <Node pos="l" depth="1" NCoef="0" IVar="11" Cut="8.6656141281127930e-01" cType="1" res="5.1658712327480316e-03" rms="2.8384247422218323e-01" purity="4.2852976918220520e-01" nType="0">
          <Node pos="l" depth="2" NCoef="0" IVar="2" Cut="5.3363140869140625e+02" cType="1" res="7.6119601726531982e-03" rms="2.8221032023429871e-01" purity="4.0965375304222107e-01" nType="0">
            <Node pos="l" depth="3" NCoef="0" IVar="-1" Cut="0.0000000000000000e+00" cType="1" res="6.9388113915920258e-03" rms="2.7720806002616882e-01" purity="3.9460045099258423e-01" nType="-99"/>
            <Node pos="r" depth="3" NCoef="0" IVar="-1" Cut="0.0000000000000000e+00" cType="1" res="2.3645110428333282e-02" rms="3.1281504034996033e-01" purity="5.0899422168731689e-01" nType="-99"/>
          </Node>
          <Node pos="r" depth="2" NCoef="0" IVar="-1" Cut="0.0000000000000000e+00" cType="1" res="-1.8001902848482132e-02" rms="2.9705029726028442e-01" purity="5.9598940610885620e-01" nType="-99"/>
        </Node>
        <Node pos="r" depth="1" NCoef="0" IVar="8" Cut="9.3289804458618164e-01" cType="1" res="-4.6910010278224945e-03" rms="2.8289106488227844e-01" purity="5.3035366535186768e-01" nType="0">
          <Node pos="l" depth="2" NCoef="0" IVar="5" Cut="6.8246124267578125e+01" cType="1" res="-2.5204617995768785e-03" rms="2.8555268049240112e-01" purity="5.7438051700592041e-01" nType="0">
            <Node pos="l" depth="3" NCoef="0" IVar="-1" Cut="0.0000000000000000e+00" cType="1" res="4.2925528250634670e-03" rms="2.9500344395637512e-01" purity="2.2424246370792389e-01" nType="-99"/>
            <Node pos="r" depth="3" NCoef="0" IVar="-1" Cut="0.0000000000000000e+00" cType="1" res="-7.0706373080611229e-03" rms="2.8081715106964111e-01" purity="7.4361747503280640e-01" nType="-99"/>
          </Node>
          <Node pos="r" depth="2" NCoef="0" IVar="0" Cut="1.5853879394531250e+03" cType="1" res="-1.4976429753005505e-02" rms="2.6968449354171753e-01" purity="3.2172581553459167e-01" nType="0">
            <Node pos="l" depth="3" NCoef="0" IVar="-1" Cut="0.0000000000000000e+00" cType="1" res="-3.1376186758279800e-02" rms="2.5738114118576050e-01" purity="1.6430498659610748e-01" nType="-99"/>
            <Node pos="r" depth="3" NCoef="0" IVar="-1" Cut="0.0000000000000000e+00" cType="1" res="7.9307323321700096e-03" rms="2.9659596085548401e-01" purity="7.0847636461257935e-01" nType="-99"/>
          </Node>
        </Node>
      </Node>
    </BinaryTree>
    <BinaryTree type="DecisionTree" boostWeight="1.0000000000000000e+00" itree="540">
      <Node pos="s" depth="0" NCoef="0" IVar="9" Cut="-9.3333774805068970e-01" cType="1" res="-5.3694896632805467e-04" rms="2.8391021490097046e-01" purity="5.0328141450881958e-01" nType="0">
        <Node pos="l" depth="1" NCoef="0" IVar="7" Cut="4.2127606272697449e-01" cType="1" res="-1.0812633670866489e-02" rms="2.8149676322937012e-01" purity="3.4132483601570129e-01" nType="0">
          <Node pos="l" depth="2" NCoef="0" IVar="0" Cut="1.6186369628906250e+03" cType="1" res="-1.6397655010223389e-02" rms="2.9248571395874023e-01" purity="3.8442876935005188e-01" nType="0">
            <Node pos="l" depth="3" NCoef="0" IVar="-1" Cut="0.0000000000000000e+00" cType="1" res="-2.3160286247730255e-02" rms="2.9239666461944580e-01" purity="2.2167678177356720e-01" nType="-99"/>
            <Node pos="r" depth="3" NCoef="0" IVar="-1" Cut="0.0000000000000000e+00" cType="1" res="-6.3027958385646343e-03" rms="2.9238823056221008e-01" purity="7.4645096063613892e-01" nType="-99"/>
          </Node>
          <Node pos="r" depth="2" NCoef="0" IVar="7" Cut="9.8763549327850342e-01" cType="1" res="2.9298563022166491e-03" rms="2.5190210342407227e-01" purity="2.3526340723037720e-01" nType="0">
            <Node pos="l" depth="3" NCoef="0" IVar="-1" Cut="0.0000000000000000e+00" cType="1" res="1.5043684281408787e-02" rms="2.9952916502952576e-01" purity="3.8421708345413208e-01" nType="-99"/>
            <Node pos="r" depth="3" NCoef="0" IVar="-1" Cut="0.0000000000000000e+00" cType="1" res="-2.1939622238278389e-02" rms="1.8551918864250183e-01" purity="7.2036229074001312e-02" nType="-99"/>
          </Node>
        </Node>
        <Node pos="r" depth="1" NCoef="0" IVar="8" Cut="6.6665971279144287e-01" cType="1" res="1.8287644488736987e-03" rms="2.8441035747528076e-01" purity="5.4056775569915771e-01" nType="0">
          <Node pos="l" depth="2" NCoef="0" IVar="11" Cut="5.8880364894866943e-01" cType="1" res="-7.3448510374873877e-04" rms="2.8611794114112854e-01" purity="5.8373540639877319e-01" nType="0">
            <Node pos="l" depth="3" NCoef="0" IVar="-1" Cut="0.0000000000000000e+00" cType="1" res="-3.5457278136163950e-03" rms="2.8854471445083618e-01" purity="5.4108816385269165e-01" nType="-99"/>
            <Node pos="r" depth="3" NCoef="0" IVar="-1" Cut="0.0000000000000000e+00" cType="1" res="1.2822245247662067e-02" rms="2.7409160137176514e-01" purity="7.8554791212081909e-01" nType="-99"/>
          </Node>
          <Node pos="r" depth="2" NCoef="0" IVar="7" Cut="9.7897619009017944e-01" cType="1" res="9.2904493212699890e-03" rms="2.7924624085426331e-01" purity="4.1490566730499268e-01" nType="0">
            <Node pos="l" depth="3" NCoef="0" IVar="-1" Cut="0.0000000000000000e+00" cType="1" res="1.5655433759093285e-02" rms="2.8910762071609497e-01" purity="4.6180263161659241e-01" nType="-99"/>
            <Node pos="r" depth="3" NCoef="0" IVar="-1" Cut="0.0000000000000000e+00" cType="1" res="-1.5682062134146690e-02" rms="2.2587791085243225e-01" purity="1.9321544468402863e-01" nType="-99"/>
          </Node>
        </Node>
      </Node>
    </BinaryTree>
    <BinaryTree type="DecisionTree" boostWeight="1.0000000000000000e+00" itree="541">
      <Node pos="s" depth="0" NCoef="0" IVar="7" Cut="-9.0005987882614136e-01" cType="1" res="3.8553092163056135e-03" rms="2.8613802790641785e-01" purity="5.0230312347412109e-01" nType="0">
        <Node pos="l" depth="1" NCoef="0" IVar="7" Cut="-1.6928757429122925e+00" cType="1" res="1.2638797983527184e-02" rms="2.6459923386573792e-01" purity="2.6381474733352661e-01" nType="0">
          <Node pos="l" depth="2" NCoef="0" IVar="-1" Cut="0.0000000000000000e+00" cType="1" res="-2.3549811914563179e-02" rms="1.7014269530773163e-01" purity="7.4474267661571503e-02" nType="-99"/>
          <Node pos="r" depth="2" NCoef="0" IVar="11" Cut="-7.9080212116241455e-01" cType="1" res="1.9630821421742439e-02" rms="2.8950184583663940e-01" purity="3.2832473516464233e-01" nType="0">
            <Node pos="l" depth="3" NCoef="0" IVar="-1" Cut="0.0000000000000000e+00" cType="1" res="1.6631290316581726e-02" rms="2.7486479282379150e-01" purity="2.0515361428260803e-01" nType="-99"/>
            <Node pos="r" depth="3" NCoef="0" IVar="-1" Cut="0.0000000000000000e+00" cType="1" res="3.6960452795028687e-02" rms="3.1897252798080444e-01" purity="6.0222250223159790e-01" nType="-99"/>
          </Node>
        </Node>
        <Node pos="r" depth="1" NCoef="0" IVar="9" Cut="-9.3333506584167480e-01" cType="1" res="2.2272686474025249e-03" rms="2.8992533683776855e-01" purity="5.4650753736495972e-01" nType="0">
          <Node pos="l" depth="2" NCoef="0" IVar="1" Cut="3.8315016776323318e-02" cType="1" res="1.1021126061677933e-02" rms="2.9791867733001709e-01" purity="3.9481282234191895e-01" nType="0">
            <Node pos="l" depth="3" NCoef="0" IVar="-1" Cut="0.0000000000000000e+00" cType="1" res="4.2060916894115508e-04" rms="2.4554112553596497e-01" purity="1.3843467831611633e-01" nType="-99"/>
            <Node pos="r" depth="3" NCoef="0" IVar="-1" Cut="0.0000000000000000e+00" cType="1" res="1.7967838793992996e-02" rms="3.3185145258903503e-01" purity="5.8867186307907104e-01" nType="-99"/>
          </Node>
          <Node pos="r" depth="2" NCoef="0" IVar="7" Cut="-7.2388905286788940e-01" cType="1" res="3.1678713276050985e-04" rms="2.8812399506568909e-01" purity="5.7946348190307617e-01" nType="0">
            <Node pos="l" depth="3" NCoef="0" IVar="-1" Cut="0.0000000000000000e+00" cType="1" res="-2.2156575694680214e-02" rms="2.9777330160140991e-01" purity="5.4392910003662109e-01" nType="-99"/>
            <Node pos="r" depth="3" NCoef="0" IVar="-1" Cut="0.0000000000000000e+00" cType="1" res="1.7751248087733984e-03" rms="2.8751942515373230e-01" purity="5.8148837089538574e-01" nType="-99"/>
          </Node>
        </Node>
      </Node>
    </BinaryTree>
    <BinaryTree type="DecisionTree" boostWeight="1.0000000000000000e+00" itree="542">
      <Node pos="s" depth="0" NCoef="0" IVar="9" Cut="1.7332459688186646e+00" cType="1" res="1.5437447000294924e-03" rms="2.8518813848495483e-01" purity="4.9935564398765564e-01" nType="0">
        <Node pos="l" depth="1" NCoef="0" IVar="11" Cut="-1.8953428268432617e+00" cType="1" res="1.9818199507426471e-04" rms="2.8776195645332336e-01" purity="5.1880782842636108e-01" nType="0">
          <Node pos="l" depth="2" NCoef="0" IVar="8" Cut="6.6659361124038696e-01" cType="1" res="-3.1107014510780573e-03" rms="2.9897698760032654e-01" purity="2.5434783101081848e-01" nType="0">
            <Node pos="l" depth="3" NCoef="0" IVar="-1" Cut="0.0000000000000000e+00" cType="1" res="9.2009408399462700e-04" rms="3.1385287642478943e-01" purity="2.9267910122871399e-01" nType="-99"/>
            <Node pos="r" depth="3" NCoef="0" IVar="-1" Cut="0.0000000000000000e+00" cType="1" res="-1.9878713414072990e-02" rms="2.5321552157402039e-01" purity="1.4880032837390900e-01" nType="-99"/>
          </Node>
          <Node pos="r" depth="2" NCoef="0" IVar="0" Cut="1.3362631835937500e+03" cType="1" res="3.3509430941194296e-03" rms="2.7661663293838501e-01" purity="7.7078992128372192e-01" nType="0">
            <Node pos="l" depth="3" NCoef="0" IVar="-1" Cut="0.0000000000000000e+00" cType="1" res="1.2841250747442245e-02" rms="3.6107125878334045e-01" purity="3.9258769154548645e-01" nType="-99"/>
            <Node pos="r" depth="3" NCoef="0" IVar="-1" Cut="0.0000000000000000e+00" cType="1" res="5.0532072782516479e-04" rms="2.5489518046379089e-01" purity="8.5150307416915894e-01" nType="-99"/>
          </Node>
        </Node>
        <Node pos="r" depth="1" NCoef="0" IVar="10" Cut="4.0109214186668396e-01" cType="1" res="2.3346081376075745e-02" rms="2.3860706388950348e-01" purity="1.8416798114776611e-01" nType="0">
          <Node pos="l" depth="2" NCoef="0" IVar="-1" Cut="0.0000000000000000e+00" cType="1" res="3.2233645470114425e-05" rms="2.4739475548267365e-01" purity="1.7330440878868103e-01" nType="-99"/>
          <Node pos="r" depth="2" NCoef="0" IVar="-1" Cut="0.0000000000000000e+00" cType="1" res="7.8215077519416809e-02" rms="2.2587800025939941e-01" purity="1.9604131579399109e-01" nType="-99"/>
        </Node>
      </Node>
    </BinaryTree>
    <BinaryTree type="DecisionTree" boostWeight="1.0000000000000000e+00" itree="543">
      <Node pos="s" depth="0" NCoef="0" IVar="9" Cut="-1.3324840366840363e-01" cType="1" res="5.8633030857890844e-04" rms="2.8515115380287170e-01" purity="5.0029265880584717e-01" nType="0">
        <Node pos="l" depth="1" NCoef="0" IVar="9" Cut="-2.6027536392211914e-01" cType="1" res="4.3318541720509529e-03" rms="2.9093828797340393e-01" purity="4.8544436693191528e-01" nType="0">
          <Node pos="l" depth="2" NCoef="0" IVar="9" Cut="-1.1067979335784912e+00" cType="1" res="2.1602155175060034e-03" rms="2.9145056009292603e-01" purity="4.6824872493743896e-01" nType="0">
            <Node pos="l" depth="3" NCoef="0" IVar="-1" Cut="0.0000000000000000e+00" cType="1" res="-7.8206779435276985e-03" rms="2.8485810756683350e-01" purity="2.8362861275672913e-01" nType="-99"/>
            <Node pos="r" depth="3" NCoef="0" IVar="-1" Cut="0.0000000000000000e+00" cType="1" res="8.0522224307060242e-03" rms="2.9510226845741272e-01" purity="5.7550138235092163e-01" nType="-99"/>
          </Node>
          <Node pos="r" depth="2" NCoef="0" IVar="-1" Cut="0.0000000000000000e+00" cType="1" res="2.7319507673382759e-02" rms="2.8563159704208374e-01" purity="6.3799488544464111e-01" nType="-99"/>
        </Node>
        <Node pos="r" depth="1" NCoef="0" IVar="3" Cut="2.3986132812500000e+02" cType="1" res="-2.5875817518681288e-03" rms="2.8011447191238403e-01" purity="5.1287490129470825e-01" nType="0">
          <Node pos="l" depth="2" NCoef="0" IVar="1" Cut="6.1418224126100540e-02" cType="1" res="1.8433276563882828e-03" rms="2.7917432785034180e-01" purity="3.7902992963790894e-01" nType="0">
            <Node pos="l" depth="3" NCoef="0" IVar="-1" Cut="0.0000000000000000e+00" cType="1" res="-5.5307028815150261e-03" rms="2.4744689464569092e-01" purity="1.6995440423488617e-01" nType="-99"/>
            <Node pos="r" depth="3" NCoef="0" IVar="-1" Cut="0.0000000000000000e+00" cType="1" res="9.5122046768665314e-03" rms="3.1802618503570557e-01" purity="6.7071992158889771e-01" nType="-99"/>
          </Node>
          <Node pos="r" depth="2" NCoef="0" IVar="5" Cut="6.8246093750000000e+01" cType="1" res="-8.8233770802617073e-03" rms="2.8131404519081116e-01" purity="7.0124024152755737e-01" nType="0">
            <Node pos="l" depth="3" NCoef="0" IVar="-1" Cut="0.0000000000000000e+00" cType="1" res="-2.2423768416047096e-02" rms="3.2361149787902832e-01" purity="3.0455124378204346e-01" nType="-99"/>
            <Node pos="r" depth="3" NCoef="0" IVar="-1" Cut="0.0000000000000000e+00" cType="1" res="-6.6433451138436794e-03" rms="2.6923593878746033e-01" purity="8.0304783582687378e-01" nType="-99"/>
          </Node>
        </Node>
      </Node>
    </BinaryTree>
    <BinaryTree type="DecisionTree" boostWeight="1.0000000000000000e+00" itree="544">
      <Node pos="s" depth="0" NCoef="0" IVar="1" Cut="4.1835278272628784e-02" cType="1" res="-1.6295515233650804e-03" rms="2.8226080536842346e-01" purity="4.9929904937744141e-01" nType="0">
        <Node pos="l" depth="1" NCoef="0" IVar="10" Cut="1.1998207569122314e+00" cType="1" res="-7.0771696045994759e-03" rms="2.6075834035873413e-01" purity="2.0439022779464722e-01" nType="0">
          <Node pos="l" depth="2" NCoef="0" IVar="1" Cut="9.9619626998901367e-03" cType="1" res="-1.0067582130432129e-02" rms="2.6278582215309143e-01" purity="2.1612222492694855e-01" nType="0">
            <Node pos="l" depth="3" NCoef="0" IVar="-1" Cut="0.0000000000000000e+00" cType="1" res="-1.8052946543321013e-03" rms="1.7914387583732605e-01" purity="7.2931900620460510e-02" nType="-99"/>
            <Node pos="r" depth="3" NCoef="0" IVar="-1" Cut="0.0000000000000000e+00" cType="1" res="-1.5140406787395477e-02" rms="2.8802075982093811e-01" purity="2.7014404535293579e-01" nType="-99"/>
          </Node>
          <Node pos="r" depth="2" NCoef="0" IVar="0" Cut="1.3183887939453125e+03" cType="1" res="5.7277260348200798e-03" rms="2.5149038434028625e-01" purity="1.5415404736995697e-01" nType="0">
            <Node pos="l" depth="3" NCoef="0" IVar="-1" Cut="0.0000000000000000e+00" cType="1" res="-2.0050536841154099e-02" rms="1.4837084710597992e-01" purity="2.9375424608588219e-02" nType="-99"/>
            <Node pos="r" depth="3" NCoef="0" IVar="-1" Cut="0.0000000000000000e+00" cType="1" res="1.9527584314346313e-02" rms="3.3727923035621643e-01" purity="3.0809283256530762e-01" nType="-99"/>
          </Node>
        </Node>
        <Node pos="r" depth="1" NCoef="0" IVar="9" Cut="1.4647525548934937e+00" cType="1" res="2.1726354025304317e-03" rms="2.9628616571426392e-01" purity="7.0513188838958740e-01" nType="0">
          <Node pos="l" depth="2" NCoef="0" IVar="0" Cut="1.3237772216796875e+03" cType="1" res="4.0630961302667856e-04" rms="2.9562583565711975e-01" purity="7.1887630224227905e-01" nType="0">
            <Node pos="l" depth="3" NCoef="0" IVar="-1" Cut="0.0000000000000000e+00" cType="1" res="-6.8191322498023510e-03" rms="3.6075359582901001e-01" purity="2.9081892967224121e-01" nType="-99"/>
            <Node pos="r" depth="3" NCoef="0" IVar="-1" Cut="0.0000000000000000e+00" cType="1" res="5.0010033883154392e-03" rms="2.6879161596298218e-01" purity="8.7010943889617920e-01" nType="-99"/>
          </Node>
          <Node pos="r" depth="2" NCoef="0" IVar="-1" Cut="0.0000000000000000e+00" cType="1" res="2.9134083539247513e-02" rms="3.0606275796890259e-01" purity="4.6168595552444458e-01" nType="-99"/>
        </Node>
      </Node>
    </BinaryTree>
    <BinaryTree type="DecisionTree" boostWeight="1.0000000000000000e+00" itree="545">
      <Node pos="s" depth="0" NCoef="0" IVar="10" Cut="9.3326830863952637e-01" cType="1" res="2.2229710593819618e-03" rms="2.8673487901687622e-01" purity="5.0312739610671997e-01" nType="0">
        <Node pos="l" depth="1" NCoef="0" IVar="8" Cut="-1.4661428928375244e+00" cType="1" res="-2.6661812444217503e-04" rms="2.8581061959266663e-01" purity="5.2489399909973145e-01" nType="0">
          <Node pos="l" depth="2" NCoef="0" IVar="9" Cut="-1.3253450393676758e-01" cType="1" res="-1.8544083461165428e-02" rms="2.1870121359825134e-01" purity="1.4000494778156281e-01" nType="0">
            <Node pos="l" depth="3" NCoef="0" IVar="-1" Cut="0.0000000000000000e+00" cType="1" res="-1.3751586899161339e-02" rms="2.3701056838035583e-01" purity="1.6669276356697083e-01" nType="-99"/>
            <Node pos="r" depth="3" NCoef="0" IVar="-1" Cut="0.0000000000000000e+00" cType="1" res="-5.9541497379541397e-02" rms="1.9419550895690918e-01" purity="1.0848644375801086e-01" nType="-99"/>
          </Node>
          <Node pos="r" depth="2" NCoef="0" IVar="1" Cut="8.3511866629123688e-02" cType="1" res="1.2294088955968618e-03" rms="2.9056736826896667e-01" purity="5.5639749765396118e-01" nType="0">
            <Node pos="l" depth="3" NCoef="0" IVar="-1" Cut="0.0000000000000000e+00" cType="1" res="5.3085726685822010e-03" rms="3.0196273326873779e-01" purity="3.8814961910247803e-01" nType="-99"/>
            <Node pos="r" depth="3" NCoef="0" IVar="-1" Cut="0.0000000000000000e+00" cType="1" res="-5.5932202376425266e-03" rms="2.7195137739181519e-01" purity="8.1607151031494141e-01" nType="-99"/>
          </Node>
        </Node>
        <Node pos="r" depth="1" NCoef="0" IVar="10" Cut="1.1999431848526001e+00" cType="1" res="1.0594139806926250e-02" rms="2.8966417908668518e-01" purity="4.2993789911270142e-01" nType="0">
          <Node pos="l" depth="2" NCoef="0" IVar="4" Cut="1.4589558410644531e+02" cType="1" res="2.3463787510991096e-02" rms="2.9731577634811401e-01" purity="5.3173655271530151e-01" nType="0">
            <Node pos="l" depth="3" NCoef="0" IVar="-1" Cut="0.0000000000000000e+00" cType="1" res="5.1031462848186493e-02" rms="3.1755769252777100e-01" purity="2.8957974910736084e-01" nType="-99"/>
            <Node pos="r" depth="3" NCoef="0" IVar="-1" Cut="0.0000000000000000e+00" cType="1" res="7.5956401415169239e-03" rms="2.7841606736183167e-01" purity="7.3104202747344971e-01" nType="-99"/>
          </Node>
          <Node pos="r" depth="2" NCoef="0" IVar="4" Cut="1.9272239685058594e+02" cType="1" res="5.4811583831906319e-03" rms="2.8640711307525635e-01" purity="3.8949432969093323e-01" nType="0">
            <Node pos="l" depth="3" NCoef="0" IVar="-1" Cut="0.0000000000000000e+00" cType="1" res="1.1958928778767586e-02" rms="2.8242203593254089e-01" purity="2.8947705030441284e-01" nType="-99"/>
            <Node pos="r" depth="3" NCoef="0" IVar="-1" Cut="0.0000000000000000e+00" cType="1" res="-8.5117686539888382e-03" rms="2.9847249388694763e-01" purity="7.1096438169479370e-01" nType="-99"/>
          </Node>
        </Node>
      </Node>
    </BinaryTree>
    <BinaryTree type="DecisionTree" boostWeight="1.0000000000000000e+00" itree="546">
      <Node pos="s" depth="0" NCoef="0" IVar="8" Cut="1.3321650028228760e-01" cType="1" res="2.9203733429312706e-03" rms="2.8341674804687500e-01" purity="5.0640195608139038e-01" nType="0">
        <Node pos="l" depth="1" NCoef="0" IVar="10" Cut="-1.3332812488079071e-01" cType="1" res="-1.9660912221297622e-04" rms="2.8307211399078369e-01" purity="5.1819896697998047e-01" nType="0">
          <Node pos="l" depth="2" NCoef="0" IVar="3" Cut="2.7342276000976562e+02" cType="1" res="4.7742915339767933e-03" rms="2.8774386644363403e-01" purity="5.1274341344833374e-01" nType="0">
            <Node pos="l" depth="3" NCoef="0" IVar="-1" Cut="0.0000000000000000e+00" cType="1" res="-1.2637046165764332e-03" rms="2.8763425350189209e-01" purity="4.1201728582382202e-01" nType="-99"/>
            <Node pos="r" depth="3" NCoef="0" IVar="-1" Cut="0.0000000000000000e+00" cType="1" res="2.1821046248078346e-02" rms="2.8753894567489624e-01" purity="7.5061738491058350e-01" nType="-99"/>
          </Node>
          <Node pos="r" depth="2" NCoef="0" IVar="7" Cut="-3.8582822680473328e-01" cType="1" res="-5.2128289826214314e-03" rms="2.7818822860717773e-01" purity="5.2370429039001465e-01" nType="0">
            <Node pos="l" depth="3" NCoef="0" IVar="-1" Cut="0.0000000000000000e+00" cType="1" res="-2.7368329465389252e-02" rms="2.7276709675788879e-01" purity="4.4681715965270996e-01" nType="-99"/>
            <Node pos="r" depth="3" NCoef="0" IVar="-1" Cut="0.0000000000000000e+00" cType="1" res="2.5760256685316563e-03" rms="2.8021147847175598e-01" purity="5.5725759267807007e-01" nType="-99"/>
          </Node>
        </Node>
        <Node pos="r" depth="1" NCoef="0" IVar="6" Cut="7.4851585388183594e+01" cType="1" res="6.7873559892177582e-03" rms="2.8379613161087036e-01" purity="4.9176633358001709e-01" nType="0">
          <Node pos="l" depth="2" NCoef="0" IVar="1" Cut="1.0223964601755142e-01" cType="1" res="1.1201320216059685e-02" rms="3.0237230658531189e-01" purity="3.4406885504722595e-01" nType="0">
            <Node pos="l" depth="3" NCoef="0" IVar="-1" Cut="0.0000000000000000e+00" cType="1" res="8.4464754909276962e-03" rms="2.9412671923637390e-01" purity="2.5618156790733337e-01" nType="-99"/>
            <Node pos="r" depth="3" NCoef="0" IVar="-1" Cut="0.0000000000000000e+00" cType="1" res="2.2828111425042152e-02" rms="3.3520868420600891e-01" purity="7.2431105375289917e-01" nType="-99"/>
          </Node>
          <Node pos="r" depth="2" NCoef="0" IVar="9" Cut="1.3337381184101105e-01" cType="1" res="-5.1326998509466648e-03" rms="2.2569914162158966e-01" purity="8.9062827825546265e-01" nType="0">
            <Node pos="l" depth="3" NCoef="0" IVar="-1" Cut="0.0000000000000000e+00" cType="1" res="3.4210921730846167e-03" rms="2.3016928136348724e-01" purity="8.9882946014404297e-01" nType="-99"/>
            <Node pos="r" depth="3" NCoef="0" IVar="-1" Cut="0.0000000000000000e+00" cType="1" res="-2.4520646780729294e-02" rms="2.2040899097919464e-01" purity="8.8159036636352539e-01" nType="-99"/>
          </Node>
        </Node>
      </Node>
    </BinaryTree>
    <BinaryTree type="DecisionTree" boostWeight="1.0000000000000000e+00" itree="547">
      <Node pos="s" depth="0" NCoef="0" IVar="11" Cut="-1.0666707754135132e+00" cType="1" res="6.5175746567547321e-04" rms="2.8628507256507874e-01" purity="5.0032013654708862e-01" nType="0">
        <Node pos="l" depth="1" NCoef="0" IVar="0" Cut="1.4401011962890625e+03" cType="1" res="4.0445555932819843e-03" rms="2.9322591423988342e-01" purity="3.0467656254768372e-01" nType="0">
          <Node pos="l" depth="2" NCoef="0" IVar="10" Cut="-4.0010800957679749e-01" cType="1" res="-3.7299300311133265e-04" rms="2.6755666732788086e-01" purity="1.3887669146060944e-01" nType="0">
            <Node pos="l" depth="3" NCoef="0" IVar="-1" Cut="0.0000000000000000e+00" cType="1" res="9.3829352408647537e-03" rms="2.7528294920921326e-01" purity="1.4377260208129883e-01" nType="-99"/>
            <Node pos="r" depth="3" NCoef="0" IVar="-1" Cut="0.0000000000000000e+00" cType="1" res="-7.2062606923282146e-03" rms="2.6211410760879517e-01" purity="1.3558077812194824e-01" nType="-99"/>
          </Node>
          <Node pos="r" depth="2" NCoef="0" IVar="9" Cut="6.6662013530731201e-01" cType="1" res="1.1770920827984810e-02" rms="3.3326333761215210e-01" purity="5.9466326236724854e-01" nType="0">
            <Node pos="l" depth="3" NCoef="0" IVar="-1" Cut="0.0000000000000000e+00" cType="1" res="4.4483155943453312e-03" rms="3.2687494158744812e-01" purity="6.1983013153076172e-01" nType="-99"/>
            <Node pos="r" depth="3" NCoef="0" IVar="-1" Cut="0.0000000000000000e+00" cType="1" res="2.8757205232977867e-02" rms="3.5111370682716370e-01" purity="5.1830619573593140e-01" nType="-99"/>
          </Node>
        </Node>
        <Node pos="r" depth="1" NCoef="0" IVar="9" Cut="1.3301698863506317e-01" cType="1" res="-3.9024443831294775e-03" rms="2.7662926912307739e-01" purity="7.6293528079986572e-01" nType="0">
          <Node pos="l" depth="2" NCoef="0" IVar="7" Cut="-5.4915940761566162e-01" cType="1" res="1.6083150403574109e-03" rms="2.7658602595329285e-01" purity="7.7673470973968506e-01" nType="0">
            <Node pos="l" depth="3" NCoef="0" IVar="-1" Cut="0.0000000000000000e+00" cType="1" res="-1.7868444323539734e-02" rms="3.0449947714805603e-01" purity="6.6054713726043701e-01" nType="-99"/>
            <Node pos="r" depth="3" NCoef="0" IVar="-1" Cut="0.0000000000000000e+00" cType="1" res="9.8461732268333435e-03" rms="2.6681414246559143e-01" purity="8.1380528211593628e-01" nType="-99"/>
          </Node>
          <Node pos="r" depth="2" NCoef="0" IVar="1" Cut="3.8549382239580154e-02" cType="1" res="-1.0703798383474350e-02" rms="2.7653130888938904e-01" purity="7.4590408802032471e-01" nType="0">
            <Node pos="l" depth="3" NCoef="0" IVar="-1" Cut="0.0000000000000000e+00" cType="1" res="-2.9827769845724106e-02" rms="2.9602316021919250e-01" purity="3.7395733594894409e-01" nType="-99"/>
            <Node pos="r" depth="3" NCoef="0" IVar="-1" Cut="0.0000000000000000e+00" cType="1" res="-7.4736685492098331e-03" rms="2.7068406343460083e-01" purity="8.4829586744308472e-01" nType="-99"/>
          </Node>
        </Node>
      </Node>
    </BinaryTree>
    <BinaryTree type="DecisionTree" boostWeight="1.0000000000000000e+00" itree="548">
      <Node pos="s" depth="0" NCoef="0" IVar="10" Cut="-9.3345290422439575e-01" cType="1" res="-6.7542045144364238e-04" rms="2.8524118661880493e-01" purity="5.0263416767120361e-01" nType="0">
        <Node pos="l" depth="1" NCoef="0" IVar="9" Cut="-6.6656291484832764e-01" cType="1" res="-7.8026647679507732e-03" rms="2.8176379203796387e-01" purity="4.1741245985031128e-01" nType="0">
          <Node pos="l" depth="2" NCoef="0" IVar="5" Cut="6.3239662170410156e+01" cType="1" res="1.7805547686293721e-03" rms="2.7783086895942688e-01" purity="3.3669719099998474e-01" nType="0">
            <Node pos="l" depth="3" NCoef="0" IVar="-1" Cut="0.0000000000000000e+00" cType="1" res="-2.9857248067855835e-02" rms="2.0950601994991302e-01" purity="8.4212929010391235e-02" nType="-99"/>
            <Node pos="r" depth="3" NCoef="0" IVar="-1" Cut="0.0000000000000000e+00" cType="1" res="1.4148799702525139e-02" rms="3.1117016077041626e-01" purity="4.8842555284500122e-01" nType="-99"/>
          </Node>
          <Node pos="r" depth="2" NCoef="0" IVar="11" Cut="-5.1478588581085205e-01" cType="1" res="-1.2689929455518723e-02" rms="2.8362387418746948e-01" purity="4.5857575535774231e-01" nType="0">
            <Node pos="l" depth="3" NCoef="0" IVar="-1" Cut="0.0000000000000000e+00" cType="1" res="-2.1460475400090218e-02" rms="2.9154011607170105e-01" purity="3.2531937956809998e-01" nType="-99"/>
            <Node pos="r" depth="3" NCoef="0" IVar="-1" Cut="0.0000000000000000e+00" cType="1" res="-2.6391998399049044e-03" rms="2.6717266440391541e-01" purity="7.1879613399505615e-01" nType="-99"/>
          </Node>
        </Node>
        <Node pos="r" depth="1" NCoef="0" IVar="1" Cut="1.4642474055290222e-01" cType="1" res="1.3607055880129337e-03" rms="2.8619423508644104e-01" purity="5.2698051929473877e-01" nType="0">
          <Node pos="l" depth="2" NCoef="0" IVar="7" Cut="-1.4285942316055298e+00" cType="1" res="3.3849971368908882e-03" rms="2.9288104176521301e-01" purity="4.5845749974250793e-01" nType="0">
            <Node pos="l" depth="3" NCoef="0" IVar="-1" Cut="0.0000000000000000e+00" cType="1" res="-2.4080358445644379e-02" rms="2.1367107331752777e-01" purity="1.0992383211851120e-01" nType="-99"/>
            <Node pos="r" depth="3" NCoef="0" IVar="-1" Cut="0.0000000000000000e+00" cType="1" res="4.9658403731882572e-03" rms="2.9761189222335815e-01" purity="4.8288542032241821e-01" nType="-99"/>
          </Node>
          <Node pos="r" depth="2" NCoef="0" IVar="-1" Cut="0.0000000000000000e+00" cType="1" res="-1.5194512903690338e-02" rms="2.4907195568084717e-01" purity="8.7635737657546997e-01" nType="-99"/>
        </Node>
      </Node>
    </BinaryTree>
    <BinaryTree type="DecisionTree" boostWeight="1.0000000000000000e+00" itree="549">
      <Node pos="s" depth="0" NCoef="0" IVar="7" Cut="4.1064694523811340e-01" cType="1" res="-5.7133543305099010e-04" rms="2.8138372302055359e-01" purity="4.9762633442878723e-01" nType="0">
        <Node pos="l" depth="1" NCoef="0" IVar="2" Cut="7.1557055664062500e+02" cType="1" res="2.4355938658118248e-03" rms="2.8468477725982666e-01" purity="5.4422992467880249e-01" nType="0">
          <Node pos="l" depth="2" NCoef="0" IVar="3" Cut="3.3511599731445312e+02" cType="1" res="3.5429741255939007e-03" rms="2.8354066610336304e-01" purity="5.4122620820999146e-01" nType="0">
            <Node pos="l" depth="3" NCoef="0" IVar="-1" Cut="0.0000000000000000e+00" cType="1" res="1.5585074434056878e-03" rms="2.8510111570358276e-01" purity="4.9859729409217834e-01" nType="-99"/>
            <Node pos="r" depth="3" NCoef="0" IVar="-1" Cut="0.0000000000000000e+00" cType="1" res="2.1905409172177315e-02" rms="2.7372911572456360e-01" purity="7.9393649101257324e-01" nType="-99"/>
          </Node>
          <Node pos="r" depth="2" NCoef="0" IVar="-1" Cut="0.0000000000000000e+00" cType="1" res="-2.5397319346666336e-02" rms="3.1168574094772339e-01" purity="6.2263876199722290e-01" nType="-99"/>
        </Node>
        <Node pos="r" depth="1" NCoef="0" IVar="11" Cut="1.1416208744049072e+00" cType="1" res="-7.2071757167577744e-03" rms="2.7384126186370850e-01" purity="3.9477923512458801e-01" nType="0">
          <Node pos="l" depth="2" NCoef="0" IVar="11" Cut="-1.4222463369369507e+00" cType="1" res="-5.3482004441320896e-03" rms="2.7055427432060242e-01" purity="3.7584856152534485e-01" nType="0">
            <Node pos="l" depth="3" NCoef="0" IVar="-1" Cut="0.0000000000000000e+00" cType="1" res="-1.5180733986198902e-02" rms="2.6696500182151794e-01" purity="1.7832569777965546e-01" nType="-99"/>
            <Node pos="r" depth="3" NCoef="0" IVar="-1" Cut="0.0000000000000000e+00" cType="1" res="4.9152737483382225e-03" rms="2.7620136737823486e-01" purity="7.0668178796768188e-01" nType="-99"/>
          </Node>
          <Node pos="r" depth="2" NCoef="0" IVar="-1" Cut="0.0000000000000000e+00" cType="1" res="-2.5147147476673126e-02" rms="3.0261430144309998e-01" purity="5.7386732101440430e-01" nType="-99"/>
        </Node>
      </Node>
    </BinaryTree>
    <BinaryTree type="DecisionTree" boostWeight="1.0000000000000000e+00" itree="550">
      <Node pos="s" depth="0" NCoef="0" IVar="8" Cut="6.6652810573577881e-01" cType="1" res="-1.1958591639995575e-03" rms="2.8656420111656189e-01" purity="4.9672454595565796e-01" nType="0">
        <Node pos="l" depth="1" NCoef="0" IVar="10" Cut="1.9998608827590942e+00" cType="1" res="1.3554544420912862e-03" rms="2.9112467169761658e-01" purity="5.4117888212203979e-01" nType="0">
          <Node pos="l" depth="2" NCoef="0" IVar="10" Cut="-1.6571309566497803e+00" cType="1" res="1.0018275497714058e-04" rms="2.8986132144927979e-01" purity="5.5168861150741577e-01" nType="0">
            <Node pos="l" depth="3" NCoef="0" IVar="-1" Cut="0.0000000000000000e+00" cType="1" res="-1.4830731786787510e-02" rms="2.8548383712768555e-01" purity="3.3448448777198792e-01" nType="-99"/>
            <Node pos="r" depth="3" NCoef="0" IVar="-1" Cut="0.0000000000000000e+00" cType="1" res="1.7612752271816134e-03" rms="2.9027870297431946e-01" purity="5.7431316375732422e-01" nType="-99"/>
          </Node>
          <Node pos="r" depth="2" NCoef="0" IVar="-1" Cut="0.0000000000000000e+00" cType="1" res="3.0189495533704758e-02" rms="3.1476655602455139e-01" purity="3.2616454362869263e-01" nType="-99"/>
        </Node>
        <Node pos="r" depth="1" NCoef="0" IVar="8" Cut="1.4791647195816040e+00" cType="1" res="-8.9982692152261734e-03" rms="2.7199509739875793e-01" purity="3.6077463626861572e-01" nType="0">
          <Node pos="l" depth="2" NCoef="0" IVar="0" Cut="1.7717033691406250e+03" cType="1" res="-1.5749966725707054e-02" rms="2.9345178604125977e-01" purity="4.5154860615730286e-01" nType="0">
            <Node pos="l" depth="3" NCoef="0" IVar="-1" Cut="0.0000000000000000e+00" cType="1" res="-2.3942301049828529e-02" rms="3.0561611056327820e-01" purity="3.0953383445739746e-01" nType="-99"/>
            <Node pos="r" depth="3" NCoef="0" IVar="-1" Cut="0.0000000000000000e+00" cType="1" res="3.9112013764679432e-03" rms="2.5684037804603577e-01" purity="8.3495295047760010e-01" nType="-99"/>
          </Node>
          <Node pos="r" depth="2" NCoef="0" IVar="10" Cut="-4.0028399229049683e-01" cType="1" res="5.8066276833415031e-03" rms="2.1692892909049988e-01" purity="1.6172853112220764e-01" nType="0">
            <Node pos="l" depth="3" NCoef="0" IVar="-1" Cut="0.0000000000000000e+00" cType="1" res="-2.0045425742864609e-02" rms="1.9247744977474213e-01" purity="1.3319100439548492e-01" nType="-99"/>
            <Node pos="r" depth="3" NCoef="0" IVar="-1" Cut="0.0000000000000000e+00" cType="1" res="2.5607319548726082e-02" rms="2.2829984128475189e-01" purity="1.7666710913181305e-01" nType="-99"/>
          </Node>
        </Node>
      </Node>
    </BinaryTree>
    <BinaryTree type="DecisionTree" boostWeight="1.0000000000000000e+00" itree="551">
      <Node pos="s" depth="0" NCoef="0" IVar="7" Cut="-3.8582822680473328e-01" cType="1" res="-1.5940129524096847e-03" rms="2.8399279713630676e-01" purity="4.9660181999206543e-01" nType="0">
        <Node pos="l" depth="1" NCoef="0" IVar="6" Cut="5.8700405120849609e+01" cType="1" res="4.6831378713250160e-03" rms="2.8352779150009155e-01" purity="4.1752514243125916e-01" nType="0">
          <Node pos="l" depth="2" NCoef="0" IVar="10" Cut="-1.3340279459953308e-01" cType="1" res="9.0865539386868477e-03" rms="2.8771424293518066e-01" purity="2.1839430928230286e-01" nType="0">
            <Node pos="l" depth="3" NCoef="0" IVar="-1" Cut="0.0000000000000000e+00" cType="1" res="-1.7575115198269486e-03" rms="2.8795507550239563e-01" purity="1.9897189736366272e-01" nType="-99"/>
            <Node pos="r" depth="3" NCoef="0" IVar="-1" Cut="0.0000000000000000e+00" cType="1" res="2.5650201365351677e-02" rms="2.8699976205825806e-01" purity="2.3990431427955627e-01" nType="-99"/>
          </Node>
          <Node pos="r" depth="2" NCoef="0" IVar="7" Cut="-7.0997053384780884e-01" cType="1" res="-2.8276459779590368e-03" rms="2.7607873082160950e-01" purity="7.5717705488204956e-01" nType="0">
            <Node pos="l" depth="3" NCoef="0" IVar="-1" Cut="0.0000000000000000e+00" cType="1" res="-1.7047364264726639e-02" rms="2.9633343219757080e-01" purity="6.5124446153640747e-01" nType="-99"/>
            <Node pos="r" depth="3" NCoef="0" IVar="-1" Cut="0.0000000000000000e+00" cType="1" res="1.9303433597087860e-02" rms="2.4849802255630493e-01" purity="8.8528174161911011e-01" nType="-99"/>
          </Node>
        </Node>
        <Node pos="r" depth="1" NCoef="0" IVar="10" Cut="1.3315534591674805e-01" cType="1" res="-4.7080386430025101e-03" rms="2.8417176008224487e-01" purity="5.3583091497421265e-01" nType="0">
          <Node pos="l" depth="2" NCoef="0" IVar="7" Cut="1.1303145885467529e+00" cType="1" res="1.0964341927319765e-03" rms="2.8638598322868347e-01" purity="5.4759097099304199e-01" nType="0">
            <Node pos="l" depth="3" NCoef="0" IVar="-1" Cut="0.0000000000000000e+00" cType="1" res="4.9395579844713211e-03" rms="2.9736819863319397e-01" purity="6.1759853363037109e-01" nType="-99"/>
            <Node pos="r" depth="3" NCoef="0" IVar="-1" Cut="0.0000000000000000e+00" cType="1" res="-3.2340921461582184e-02" rms="2.1473683416843414e-01" purity="1.5983095765113831e-01" nType="-99"/>
          </Node>
          <Node pos="r" depth="2" NCoef="0" IVar="4" Cut="1.4254766845703125e+02" cType="1" res="-1.0852020233869553e-02" rms="2.8167879581451416e-01" purity="5.2338296175003052e-01" nType="0">
            <Node pos="l" depth="3" NCoef="0" IVar="-1" Cut="0.0000000000000000e+00" cType="1" res="-2.6323527563363314e-03" rms="2.7585691213607788e-01" purity="2.3724968731403351e-01" nType="-99"/>
            <Node pos="r" depth="3" NCoef="0" IVar="-1" Cut="0.0000000000000000e+00" cType="1" res="-2.0908003672957420e-02" rms="2.8563317656517029e-01" purity="7.2949254512786865e-01" nType="-99"/>
          </Node>
        </Node>
      </Node>
    </BinaryTree>
    <BinaryTree type="DecisionTree" boostWeight="1.0000000000000000e+00" itree="552">
      <Node pos="s" depth="0" NCoef="0" IVar="10" Cut="-2.2666592597961426e+00" cType="1" res="2.0692674443125725e-03" rms="2.8458294272422791e-01" purity="5.0418901443481445e-01" nType="0">
        <Node pos="l" depth="1" NCoef="0" IVar="-1" Cut="0.0000000000000000e+00" cType="1" res="3.9590261876583099e-02" rms="3.1166598200798035e-01" purity="2.6765173673629761e-01" nType="-99"/>
        <Node pos="r" depth="1" NCoef="0" IVar="3" Cut="2.4234201049804688e+02" cType="1" res="1.2545867357403040e-03" rms="2.8376066684722900e-01" purity="5.1066976785659790e-01" nType="0">
          <Node pos="l" depth="2" NCoef="0" IVar="11" Cut="1.4190381765365601e+00" cType="1" res="-2.3479796946048737e-03" rms="2.8083553910255432e-01" purity="3.7318059802055359e-01" nType="0">
            <Node pos="l" depth="3" NCoef="0" IVar="-1" Cut="0.0000000000000000e+00" cType="1" res="-1.1801529908552766e-03" rms="2.7988684177398682e-01" purity="3.6481648683547974e-01" nType="-99"/>
            <Node pos="r" depth="3" NCoef="0" IVar="-1" Cut="0.0000000000000000e+00" cType="1" res="-2.5728743523359299e-02" rms="2.9495736956596375e-01" purity="5.0954407453536987e-01" nType="-99"/>
          </Node>
          <Node pos="r" depth="2" NCoef="0" IVar="0" Cut="1.5638659667968750e+03" cType="1" res="6.4271246083080769e-03" rms="2.8782975673675537e-01" purity="7.0807570219039917e-01" nType="0">
            <Node pos="l" depth="3" NCoef="0" IVar="-1" Cut="0.0000000000000000e+00" cType="1" res="1.7412718385457993e-02" rms="3.5977765917778015e-01" purity="3.2615119218826294e-01" nType="-99"/>
            <Node pos="r" depth="3" NCoef="0" IVar="-1" Cut="0.0000000000000000e+00" cType="1" res="3.3423872664570808e-03" rms="2.6452702283859253e-01" purity="8.1298065185546875e-01" nType="-99"/>
          </Node>
        </Node>
      </Node>
    </BinaryTree>
    <BinaryTree type="DecisionTree" boostWeight="1.0000000000000000e+00" itree="553">
      <Node pos="s" depth="0" NCoef="0" IVar="8" Cut="-1.3331125676631927e-01" cType="1" res="-2.8122896328568459e-03" rms="2.8248530626296997e-01" purity="4.9598982930183411e-01" nType="0">
        <Node pos="l" depth="1" NCoef="0" IVar="9" Cut="6.6696202754974365e-01" cType="1" res="-7.8692492097616196e-03" rms="2.8197237849235535e-01" purity="4.7548955678939819e-01" nType="0">
          <Node pos="l" depth="2" NCoef="0" IVar="10" Cut="-1.3376592099666595e-01" cType="1" res="-1.1795040220022202e-02" rms="2.8151759505271912e-01" purity="5.0565850734710693e-01" nType="0">
            <Node pos="l" depth="3" NCoef="0" IVar="-1" Cut="0.0000000000000000e+00" cType="1" res="-2.3018602281808853e-02" rms="2.8205540776252747e-01" purity="4.8117414116859436e-01" nType="-99"/>
            <Node pos="r" depth="3" NCoef="0" IVar="-1" Cut="0.0000000000000000e+00" cType="1" res="-4.4931196607649326e-03" rms="2.8071090579032898e-01" purity="5.3231203556060791e-01" nType="-99"/>
          </Node>
          <Node pos="r" depth="2" NCoef="0" IVar="4" Cut="1.2629961395263672e+02" cType="1" res="4.7746077179908752e-03" rms="2.8306230902671814e-01" purity="3.7832400202751160e-01" nType="0">
            <Node pos="l" depth="3" NCoef="0" IVar="-1" Cut="0.0000000000000000e+00" cType="1" res="-1.4099333435297012e-02" rms="2.3311568796634674e-01" purity="1.0402651876211166e-01" nType="-99"/>
            <Node pos="r" depth="3" NCoef="0" IVar="-1" Cut="0.0000000000000000e+00" cType="1" res="1.3091048225760460e-02" rms="3.1008678674697876e-01" purity="5.5050718784332275e-01" nType="-99"/>
          </Node>
        </Node>
        <Node pos="r" depth="1" NCoef="0" IVar="10" Cut="1.1997927427291870e+00" cType="1" res="1.2252377346158028e-03" rms="2.8282925486564636e-01" purity="5.1235747337341309e-01" nType="0">
          <Node pos="l" depth="2" NCoef="0" IVar="3" Cut="3.3299118041992188e+02" cType="1" res="4.0482766926288605e-03" rms="2.8268158435821533e-01" purity="5.4576724767684937e-01" nType="0">
            <Node pos="l" depth="3" NCoef="0" IVar="-1" Cut="0.0000000000000000e+00" cType="1" res="8.7717389687895775e-03" rms="2.8537178039550781e-01" purity="5.0185906887054443e-01" nType="-99"/>
            <Node pos="r" depth="3" NCoef="0" IVar="-1" Cut="0.0000000000000000e+00" cType="1" res="-1.5800235792994499e-02" rms="2.6846063137054443e-01" purity="7.6226371526718140e-01" nType="-99"/>
          </Node>
          <Node pos="r" depth="2" NCoef="0" IVar="0" Cut="1.5609832763671875e+03" cType="1" res="-1.1144798249006271e-02" rms="2.8314372897148132e-01" purity="3.6596220731735229e-01" nType="0">
            <Node pos="l" depth="3" NCoef="0" IVar="-1" Cut="0.0000000000000000e+00" cType="1" res="-2.3365275934338570e-02" rms="2.7943328022956848e-01" purity="1.7135378718376160e-01" nType="-99"/>
            <Node pos="r" depth="3" NCoef="0" IVar="-1" Cut="0.0000000000000000e+00" cType="1" res="3.3324901014566422e-03" rms="2.8947564959526062e-01" purity="7.3220992088317871e-01" nType="-99"/>
          </Node>
        </Node>
      </Node>
    </BinaryTree>
    <BinaryTree type="DecisionTree" boostWeight="1.0000000000000000e+00" itree="554">
      <Node pos="s" depth="0" NCoef="0" IVar="11" Cut="1.1424642801284790e+00" cType="1" res="7.0376868825405836e-04" rms="2.8623595833778381e-01" purity="4.9582949280738831e-01" nType="0">
        <Node pos="l" depth="1" NCoef="0" IVar="1" Cut="8.1788830459117889e-02" cType="1" res="-5.5980653269216418e-04" rms="2.8442299365997314e-01" purity="4.7833541035652161e-01" nType="0">
          <Node pos="l" depth="2" NCoef="0" IVar="1" Cut="2.7266295626759529e-02" cType="1" res="-3.7129889242351055e-03" rms="2.8546881675720215e-01" purity="3.0556336045265198e-01" nType="0">
            <Node pos="l" depth="3" NCoef="0" IVar="-1" Cut="0.0000000000000000e+00" cType="1" res="5.9944931417703629e-03" rms="2.4041034281253815e-01" purity="1.5278421342372894e-01" nType="-99"/>
            <Node pos="r" depth="3" NCoef="0" IVar="-1" Cut="0.0000000000000000e+00" cType="1" res="-1.0030964389443398e-02" rms="3.2233178615570068e-01" purity="4.5065090060234070e-01" nType="-99"/>
          </Node>
          <Node pos="r" depth="2" NCoef="0" IVar="2" Cut="4.8732617187500000e+02" cType="1" res="5.1575722172856331e-03" rms="2.8242701292037964e-01" purity="7.9160732030868530e-01" nType="0">
            <Node pos="l" depth="3" NCoef="0" IVar="-1" Cut="0.0000000000000000e+00" cType="1" res="9.3193398788571358e-03" rms="2.8673952817916870e-01" purity="7.7446621656417847e-01" nType="-99"/>
            <Node pos="r" depth="3" NCoef="0" IVar="-1" Cut="0.0000000000000000e+00" cType="1" res="-1.5928482636809349e-02" rms="2.5713250041007996e-01" purity="8.8503271341323853e-01" nType="-99"/>
          </Node>
        </Node>
        <Node pos="r" depth="1" NCoef="0" IVar="6" Cut="6.8663154602050781e+01" cType="1" res="1.3327667489647865e-02" rms="3.0346667766571045e-01" purity="6.7060619592666626e-01" nType="0">
          <Node pos="l" depth="2" NCoef="0" IVar="-1" Cut="0.0000000000000000e+00" cType="1" res="2.6825537905097008e-02" rms="3.5030654072761536e-01" purity="4.9741306900978088e-01" nType="-99"/>
          <Node pos="r" depth="2" NCoef="0" IVar="-1" Cut="0.0000000000000000e+00" cType="1" res="-1.7600060673430562e-03" rms="2.5825589895248413e-01" purity="8.1155055761337280e-01" nType="-99"/>
        </Node>
      </Node>
    </BinaryTree>
    <BinaryTree type="DecisionTree" boostWeight="1.0000000000000000e+00" itree="555">
      <Node pos="s" depth="0" NCoef="0" IVar="1" Cut="4.1835278272628784e-02" cType="1" res="-9.3224568990990520e-04" rms="2.8248524665832520e-01" purity="4.9719017744064331e-01" nType="0">
        <Node pos="l" depth="1" NCoef="0" IVar="0" Cut="1.7601273193359375e+03" cType="1" res="-5.6251450441777706e-03" rms="2.5604990124702454e-01" purity="2.0161505043506622e-01" nType="0">
          <Node pos="l" depth="2" NCoef="0" IVar="0" Cut="1.4858156738281250e+03" cType="1" res="-1.4912114711478353e-03" rms="2.3914375901222229e-01" purity="1.1812148243188858e-01" nType="0">
            <Node pos="l" depth="3" NCoef="0" IVar="-1" Cut="0.0000000000000000e+00" cType="1" res="-1.0553940199315548e-02" rms="2.0872844755649567e-01" purity="7.1965157985687256e-02" nType="-99"/>
            <Node pos="r" depth="3" NCoef="0" IVar="-1" Cut="0.0000000000000000e+00" cType="1" res="1.2910652905702591e-02" rms="3.4131371974945068e-01" purity="3.2015258073806763e-01" nType="-99"/>
          </Node>
          <Node pos="r" depth="2" NCoef="0" IVar="7" Cut="1.6887180507183075e-01" cType="1" res="-2.5545969605445862e-02" rms="3.2469204068183899e-01" purity="6.0395836830139160e-01" nType="0">
            <Node pos="l" depth="3" NCoef="0" IVar="-1" Cut="0.0000000000000000e+00" cType="1" res="-6.7252749577164650e-03" rms="3.2532337307929993e-01" purity="6.4831823110580444e-01" nType="-99"/>
            <Node pos="r" depth="3" NCoef="0" IVar="-1" Cut="0.0000000000000000e+00" cType="1" res="-4.5405451208353043e-02" rms="3.2215884327888489e-01" purity="5.4222148656845093e-01" nType="-99"/>
          </Node>
        </Node>
        <Node pos="r" depth="1" NCoef="0" IVar="9" Cut="-6.6770607233047485e-01" cType="1" res="2.3169387131929398e-03" rms="2.9938071966171265e-01" purity="7.0183509588241577e-01" nType="0">
          <Node pos="l" depth="2" NCoef="0" IVar="8" Cut="2.7318090200424194e-01" cType="1" res="1.4009324833750725e-02" rms="3.1619670987129211e-01" purity="6.4351606369018555e-01" nType="0">
            <Node pos="l" depth="3" NCoef="0" IVar="-1" Cut="0.0000000000000000e+00" cType="1" res="2.1476481109857559e-02" rms="3.1425622105598450e-01" purity="6.5949892997741699e-01" nType="-99"/>
            <Node pos="r" depth="3" NCoef="0" IVar="-1" Cut="0.0000000000000000e+00" cType="1" res="-2.3469664156436920e-03" rms="3.1952589750289917e-01" purity="6.1063295602798462e-01" nType="-99"/>
          </Node>
          <Node pos="r" depth="2" NCoef="0" IVar="7" Cut="8.4006518125534058e-01" cType="1" res="-1.4841867377981544e-03" rms="2.9360637068748474e-01" purity="7.2079432010650635e-01" nType="0">
            <Node pos="l" depth="3" NCoef="0" IVar="-1" Cut="0.0000000000000000e+00" cType="1" res="-5.3507550619542599e-03" rms="2.9106813669204712e-01" purity="7.3226761817932129e-01" nType="-99"/>
            <Node pos="r" depth="3" NCoef="0" IVar="-1" Cut="0.0000000000000000e+00" cType="1" res="2.3270657286047935e-02" rms="3.1289052963256836e-01" purity="6.2455159425735474e-01" nType="-99"/>
          </Node>
        </Node>
      </Node>
    </BinaryTree>
    <BinaryTree type="DecisionTree" boostWeight="1.0000000000000000e+00" itree="556">
      <Node pos="s" depth="0" NCoef="0" IVar="7" Cut="6.7609512805938721e-01" cType="1" res="-2.3824507661629468e-04" rms="2.8353980183601379e-01" purity="5.0130563974380493e-01" nType="0">
        <Node pos="l" depth="1" NCoef="0" IVar="11" Cut="1.1427444219589233e+00" cType="1" res="-1.9836015999317169e-03" rms="2.8822293877601624e-01" purity="5.5018484592437744e-01" nType="0">
          <Node pos="l" depth="2" NCoef="0" IVar="11" Cut="-1.2246152162551880e+00" cType="1" res="-6.0971046332269907e-04" rms="2.8827661275863647e-01" purity="5.3490573167800903e-01" nType="0">
            <Node pos="l" depth="3" NCoef="0" IVar="-1" Cut="0.0000000000000000e+00" cType="1" res="-4.9549005925655365e-03" rms="3.0799075961112976e-01" purity="3.2635396718978882e-01" nType="-99"/>
            <Node pos="r" depth="3" NCoef="0" IVar="-1" Cut="0.0000000000000000e+00" cType="1" res="6.9149197079241276e-03" rms="2.5882199406623840e-01" purity="8.1984013319015503e-01" nType="-99"/>
          </Node>
          <Node pos="r" depth="2" NCoef="0" IVar="-1" Cut="0.0000000000000000e+00" cType="1" res="-1.9428243860602379e-02" rms="2.8726464509963989e-01" purity="7.1034127473831177e-01" nType="-99"/>
        </Node>
        <Node pos="r" depth="1" NCoef="0" IVar="7" Cut="8.7841546535491943e-01" cType="1" res="5.9757297858595848e-03" rms="2.6610559225082397e-01" purity="3.2728132605552673e-01" nType="0">
          <Node pos="l" depth="2" NCoef="0" IVar="9" Cut="1.3022486865520477e-01" cType="1" res="2.3151792585849762e-02" rms="3.0960711836814880e-01" purity="5.5538797378540039e-01" nType="0">
            <Node pos="l" depth="3" NCoef="0" IVar="-1" Cut="0.0000000000000000e+00" cType="1" res="3.8714390248060226e-02" rms="3.1841459870338440e-01" purity="5.7850754261016846e-01" nType="-99"/>
            <Node pos="r" depth="3" NCoef="0" IVar="-1" Cut="0.0000000000000000e+00" cType="1" res="9.8447855561971664e-03" rms="2.9964047670364380e-01" purity="5.3168219327926636e-01" nType="-99"/>
          </Node>
          <Node pos="r" depth="2" NCoef="0" IVar="6" Cut="6.9964599609375000e+01" cType="1" res="-7.4736795795615762e-05" rms="2.4869556725025177e-01" purity="2.4692814052104950e-01" nType="0">
            <Node pos="l" depth="3" NCoef="0" IVar="-1" Cut="0.0000000000000000e+00" cType="1" res="-8.0848326906561852e-03" rms="2.3861743509769440e-01" purity="1.2318901717662811e-01" nType="-99"/>
            <Node pos="r" depth="3" NCoef="0" IVar="-1" Cut="0.0000000000000000e+00" cType="1" res="1.8114255741238594e-02" rms="2.8343689441680908e-01" purity="7.2266608476638794e-01" nType="-99"/>
          </Node>
        </Node>
      </Node>
    </BinaryTree>
    <BinaryTree type="DecisionTree" boostWeight="1.0000000000000000e+00" itree="557">
      <Node pos="s" depth="0" NCoef="0" IVar="7" Cut="-3.6832085251808167e-01" cType="1" res="2.9109544120728970e-03" rms="2.8515043854713440e-01" purity="5.0869208574295044e-01" nType="0">
        <Node pos="l" depth="1" NCoef="0" IVar="8" Cut="-1.4666193723678589e+00" cType="1" res="-3.1959055922925472e-03" rms="2.7903664112091064e-01" purity="4.2139372229576111e-01" nType="0">
          <Node pos="l" depth="2" NCoef="0" IVar="-1" Cut="0.0000000000000000e+00" cType="1" res="3.8077790290117264e-02" rms="2.3992004990577698e-01" purity="1.7204114794731140e-01" nType="-99"/>
          <Node pos="r" depth="2" NCoef="0" IVar="9" Cut="-1.1997059583663940e+00" cType="1" res="-5.5938907898962498e-03" rms="2.8247079253196716e-01" purity="4.4587004184722900e-01" nType="0">
            <Node pos="l" depth="3" NCoef="0" IVar="-1" Cut="0.0000000000000000e+00" cType="1" res="1.8387097865343094e-02" rms="2.9888039827346802e-01" purity="2.9501774907112122e-01" nType="-99"/>
            <Node pos="r" depth="3" NCoef="0" IVar="-1" Cut="0.0000000000000000e+00" cType="1" res="-1.1320136487483978e-02" rms="2.7916568517684937e-01" purity="4.7378894686698914e-01" nType="-99"/>
          </Node>
        </Node>
        <Node pos="r" depth="1" NCoef="0" IVar="4" Cut="2.1925555419921875e+02" cType="1" res="5.9048049151897430e-03" rms="2.8805297613143921e-01" purity="5.5148959159851074e-01" nType="0">
          <Node pos="l" depth="2" NCoef="0" IVar="3" Cut="2.7238601684570312e+02" cType="1" res="8.4111839532852173e-03" rms="2.9953506588935852e-01" purity="4.6777412295341492e-01" nType="0">
            <Node pos="l" depth="3" NCoef="0" IVar="-1" Cut="0.0000000000000000e+00" cType="1" res="6.5557509660720825e-03" rms="2.9441028833389282e-01" purity="4.3551835417747498e-01" nType="-99"/>
            <Node pos="r" depth="3" NCoef="0" IVar="-1" Cut="0.0000000000000000e+00" cType="1" res="2.0447224378585815e-02" rms="3.2141292095184326e-01" purity="6.1382466554641724e-01" nType="-99"/>
          </Node>
          <Node pos="r" depth="2" NCoef="0" IVar="1" Cut="4.0969394147396088e-02" cType="1" res="-3.1515883747488260e-03" rms="2.4185030162334442e-01" purity="8.5398191213607788e-01" nType="0">
            <Node pos="l" depth="3" NCoef="0" IVar="-1" Cut="0.0000000000000000e+00" cType="1" res="-2.0075306296348572e-02" rms="3.0820330977439880e-01" purity="5.8035260438919067e-01" nType="-99"/>
            <Node pos="r" depth="3" NCoef="0" IVar="-1" Cut="0.0000000000000000e+00" cType="1" res="2.0410597790032625e-03" rms="2.2387000918388367e-01" purity="9.1603899002075195e-01" nType="-99"/>
          </Node>
        </Node>
      </Node>
    </BinaryTree>
    <BinaryTree type="DecisionTree" boostWeight="1.0000000000000000e+00" itree="558">
      <Node pos="s" depth="0" NCoef="0" IVar="2" Cut="3.4597634887695312e+02" cType="1" res="-1.6839954769238830e-03" rms="2.7914330363273621e-01" purity="5.0170439481735229e-01" nType="0">
        <Node pos="l" depth="1" NCoef="0" IVar="8" Cut="-9.3335658311843872e-01" cType="1" res="-6.2274942174553871e-03" rms="2.7323251962661743e-01" purity="4.3317940831184387e-01" nType="0">
          <Node pos="l" depth="2" NCoef="0" IVar="8" Cut="-1.3778406381607056e+00" cType="1" res="-1.8404560163617134e-02" rms="2.5408816337585449e-01" purity="2.4844022095203400e-01" nType="0">
            <Node pos="l" depth="3" NCoef="0" IVar="-1" Cut="0.0000000000000000e+00" cType="1" res="-5.6613101623952389e-03" rms="2.3793190717697144e-01" purity="1.6278450191020966e-01" nType="-99"/>
            <Node pos="r" depth="3" NCoef="0" IVar="-1" Cut="0.0000000000000000e+00" cType="1" res="-4.3653618544340134e-02" rms="2.7017438411712646e-01" purity="3.4531277418136597e-01" nType="-99"/>
          </Node>
          <Node pos="r" depth="2" NCoef="0" IVar="8" Cut="-2.2208276391029358e-01" cType="1" res="-3.4764094743877649e-03" rms="2.7730071544647217e-01" purity="4.7491630911827087e-01" nType="0">
            <Node pos="l" depth="3" NCoef="0" IVar="-1" Cut="0.0000000000000000e+00" cType="1" res="8.6429864168167114e-03" rms="2.8816372156143188e-01" purity="5.3262329101562500e-01" nType="-99"/>
            <Node pos="r" depth="3" NCoef="0" IVar="-1" Cut="0.0000000000000000e+00" cType="1" res="-9.8183816298842430e-03" rms="2.7286627888679504e-01" purity="4.5262369513511658e-01" nType="-99"/>
          </Node>
        </Node>
        <Node pos="r" depth="1" NCoef="0" IVar="8" Cut="1.4666254520416260e+00" cType="1" res="2.5817372370511293e-03" rms="2.8451499342918396e-01" purity="5.6604015827178955e-01" nType="0">
          <Node pos="l" depth="2" NCoef="0" IVar="1" Cut="5.7716831564903259e-02" cType="1" res="3.9673722349107265e-03" rms="2.8926214575767517e-01" purity="5.9494990110397339e-01" nType="0">
            <Node pos="l" depth="3" NCoef="0" IVar="-1" Cut="0.0000000000000000e+00" cType="1" res="9.5599237829446793e-03" rms="3.0092313885688782e-01" purity="3.7672135233879089e-01" nType="-99"/>
            <Node pos="r" depth="3" NCoef="0" IVar="-1" Cut="0.0000000000000000e+00" cType="1" res="-1.7333299620077014e-03" rms="2.7609518170356750e-01" purity="8.2926124334335327e-01" nType="-99"/>
          </Node>
          <Node pos="r" depth="2" NCoef="0" IVar="-1" Cut="0.0000000000000000e+00" cType="1" res="-3.2544758170843124e-02" rms="2.0316767692565918e-01" purity="1.4949980378150940e-01" nType="-99"/>
        </Node>
      </Node>
    </BinaryTree>
    <BinaryTree type="DecisionTree" boostWeight="1.0000000000000000e+00" itree="559">
      <Node pos="s" depth="0" NCoef="0" IVar="10" Cut="1.4664394855499268e+00" cType="1" res="-8.2316371845081449e-04" rms="2.8407752513885498e-01" purity="4.9567872285842896e-01" nType="0">
        <Node pos="l" depth="1" NCoef="0" IVar="11" Cut="-1.0670557022094727e+00" cType="1" res="4.6083444613032043e-04" rms="2.8490918874740601e-01" purity="5.1739817857742310e-01" nType="0">
          <Node pos="l" depth="2" NCoef="0" IVar="8" Cut="6.6641163825988770e-01" cType="1" res="3.7306880112737417e-03" rms="2.9583698511123657e-01" purity="3.1887152791023254e-01" nType="0">
            <Node pos="l" depth="3" NCoef="0" IVar="-1" Cut="0.0000000000000000e+00" cType="1" res="4.9664505058899522e-04" rms="3.0547910928726196e-01" purity="3.5565462708473206e-01" nType="-99"/>
            <Node pos="r" depth="3" NCoef="0" IVar="-1" Cut="0.0000000000000000e+00" cType="1" res="1.8853574991226196e-02" rms="2.6457476615905762e-01" purity="2.0853738486766815e-01" nType="-99"/>
          </Node>
          <Node pos="r" depth="2" NCoef="0" IVar="9" Cut="9.3309569358825684e-01" cType="1" res="-3.6734528839588165e-03" rms="2.7040451765060425e-01" purity="7.6840811967849731e-01" nType="0">
            <Node pos="l" depth="3" NCoef="0" IVar="-1" Cut="0.0000000000000000e+00" cType="1" res="-9.0613710926845670e-04" rms="2.6672950387001038e-01" purity="7.9717457294464111e-01" nType="-99"/>
            <Node pos="r" depth="3" NCoef="0" IVar="-1" Cut="0.0000000000000000e+00" cType="1" res="-2.1996304392814636e-02" rms="2.8875795006752014e-01" purity="6.1432468891143799e-01" nType="-99"/>
          </Node>
        </Node>
        <Node pos="r" depth="1" NCoef="0" IVar="10" Cut="1.6569490432739258e+00" cType="1" res="-1.0721720755100250e-02" rms="2.7738296985626221e-01" purity="3.2824033498764038e-01" nType="0">
          <Node pos="l" depth="2" NCoef="0" IVar="-1" Cut="0.0000000000000000e+00" cType="1" res="-4.5055512338876724e-02" rms="2.6722803711891174e-01" purity="3.7469103932380676e-01" nType="-99"/>
          <Node pos="r" depth="2" NCoef="0" IVar="8" Cut="-1.3328513503074646e-01" cType="1" res="-2.2986356634646654e-03" rms="2.8023764491081238e-01" purity="3.1251463294029236e-01" nType="0">
            <Node pos="l" depth="3" NCoef="0" IVar="-1" Cut="0.0000000000000000e+00" cType="1" res="1.8029328435659409e-02" rms="2.9409009218215942e-01" purity="3.2260641455650330e-01" nType="-99"/>
            <Node pos="r" depth="3" NCoef="0" IVar="-1" Cut="0.0000000000000000e+00" cType="1" res="-1.7423151060938835e-02" rms="2.7003246545791626e-01" purity="3.0581331253051758e-01" nType="-99"/>
          </Node>
        </Node>
      </Node>
    </BinaryTree>
    <BinaryTree type="DecisionTree" boostWeight="1.0000000000000000e+00" itree="560">
      <Node pos="s" depth="0" NCoef="0" IVar="10" Cut="-1.2000209093093872e+00" cType="1" res="9.4761999207548797e-05" rms="2.8305655717849731e-01" purity="4.9306055903434753e-01" nType="0">
        <Node pos="l" depth="1" NCoef="0" IVar="0" Cut="1.1155887451171875e+03" cType="1" res="9.4948559999465942e-03" rms="2.8621181845664978e-01" purity="3.8413605093955994e-01" nType="0">
          <Node pos="l" depth="2" NCoef="0" IVar="-1" Cut="0.0000000000000000e+00" cType="1" res="-2.9369687661528587e-02" rms="1.7408260703086853e-01" purity="3.4521482884883881e-02" nType="-99"/>
          <Node pos="r" depth="2" NCoef="0" IVar="3" Cut="2.8969204711914062e+02" cType="1" res="1.6025284305214882e-02" rms="3.1348586082458496e-01" purity="4.9612095952033997e-01" nType="0">
            <Node pos="l" depth="3" NCoef="0" IVar="-1" Cut="0.0000000000000000e+00" cType="1" res="2.2483786568045616e-02" rms="3.1490445137023926e-01" purity="4.5836731791496277e-01" nType="-99"/>
            <Node pos="r" depth="3" NCoef="0" IVar="-1" Cut="0.0000000000000000e+00" cType="1" res="-3.4646121785044670e-03" rms="3.0848830938339233e-01" purity="6.0670250654220581e-01" nType="-99"/>
          </Node>
        </Node>
        <Node pos="r" depth="1" NCoef="0" IVar="7" Cut="1.2269319295883179e+00" cType="1" res="-1.7963029677048326e-03" rms="2.8237974643707275e-01" purity="5.1497346162796021e-01" nType="0">
          <Node pos="l" depth="2" NCoef="0" IVar="7" Cut="2.9070368409156799e-01" cType="1" res="-2.9781716875731945e-03" rms="2.8792122006416321e-01" purity="5.5190157890319824e-01" nType="0">
            <Node pos="l" depth="3" NCoef="0" IVar="-1" Cut="0.0000000000000000e+00" cType="1" res="9.9590659374371171e-05" rms="2.8315642476081848e-01" purity="5.5617874860763550e-01" nType="-99"/>
            <Node pos="r" depth="3" NCoef="0" IVar="-1" Cut="0.0000000000000000e+00" cType="1" res="-1.0823125950992107e-02" rms="2.9823374748229980e-01" purity="5.4229265451431274e-01" nType="-99"/>
          </Node>
          <Node pos="r" depth="2" NCoef="0" IVar="8" Cut="1.3332571089267731e-01" cType="1" res="9.0948604047298431e-03" rms="2.2468633949756622e-01" purity="1.7467321455478668e-01" nType="0">
            <Node pos="l" depth="3" NCoef="0" IVar="-1" Cut="0.0000000000000000e+00" cType="1" res="-8.5423151031136513e-03" rms="2.0749205350875854e-01" purity="1.4558489620685577e-01" nType="-99"/>
            <Node pos="r" depth="3" NCoef="0" IVar="-1" Cut="0.0000000000000000e+00" cType="1" res="3.7837419658899307e-02" rms="2.4029147624969482e-01" purity="2.0449921488761902e-01" nType="-99"/>
          </Node>
        </Node>
      </Node>
    </BinaryTree>
    <BinaryTree type="DecisionTree" boostWeight="1.0000000000000000e+00" itree="561">
      <Node pos="s" depth="0" NCoef="0" IVar="7" Cut="-1.1820422410964966e+00" cType="1" res="-9.0231257490813732e-04" rms="2.8377297520637512e-01" purity="4.9650380015373230e-01" nType="0">
        <Node pos="l" depth="1" NCoef="0" IVar="8" Cut="6.6500878334045410e-01" cType="1" res="1.2202036567032337e-02" rms="2.4125485122203827e-01" purity="1.8069563806056976e-01" nType="0">
          <Node pos="l" depth="2" NCoef="0" IVar="3" Cut="1.9741535949707031e+02" cType="1" res="1.9879844039678574e-02" rms="2.6623421907424927e-01" purity="2.2475516796112061e-01" nType="0">
            <Node pos="l" depth="3" NCoef="0" IVar="-1" Cut="0.0000000000000000e+00" cType="1" res="2.1516375243663788e-02" rms="1.9455283880233765e-01" purity="7.7228769659996033e-02" nType="-99"/>
            <Node pos="r" depth="3" NCoef="0" IVar="-1" Cut="0.0000000000000000e+00" cType="1" res="3.5125467926263809e-02" rms="3.2643890380859375e-01" purity="3.8561487197875977e-01" nType="-99"/>
          </Node>
          <Node pos="r" depth="2" NCoef="0" IVar="-1" Cut="0.0000000000000000e+00" cType="1" res="-2.3550076410174370e-02" rms="1.5821062028408051e-01" purity="6.7282944917678833e-02" nType="-99"/>
        </Node>
        <Node pos="r" depth="1" NCoef="0" IVar="9" Cut="-1.3350054621696472e-01" cType="1" res="-2.3679162841290236e-03" rms="2.8810134530067444e-01" purity="5.3182411193847656e-01" nType="0">
          <Node pos="l" depth="2" NCoef="0" IVar="7" Cut="3.3482894301414490e-01" cType="1" res="-7.3318923823535442e-03" rms="2.8820091485977173e-01" purity="5.2382528781890869e-01" nType="0">
            <Node pos="l" depth="3" NCoef="0" IVar="-1" Cut="0.0000000000000000e+00" cType="1" res="-1.3311296701431274e-02" rms="2.9223912954330444e-01" purity="5.8309710025787354e-01" nType="-99"/>
            <Node pos="r" depth="3" NCoef="0" IVar="-1" Cut="0.0000000000000000e+00" cType="1" res="1.6269924817606807e-03" rms="2.8040191531181335e-01" purity="4.1458633542060852e-01" nType="-99"/>
          </Node>
          <Node pos="r" depth="2" NCoef="0" IVar="10" Cut="-1.2000310420989990e+00" cType="1" res="1.6199775272980332e-03" rms="2.8795933723449707e-01" purity="5.3825014829635620e-01" nType="0">
            <Node pos="l" depth="3" NCoef="0" IVar="-1" Cut="0.0000000000000000e+00" cType="1" res="2.0318977534770966e-02" rms="3.1012478470802307e-01" purity="4.5870777964591980e-01" nType="-99"/>
            <Node pos="r" depth="3" NCoef="0" IVar="-1" Cut="0.0000000000000000e+00" cType="1" res="-1.3571688905358315e-03" rms="2.8402605652809143e-01" purity="5.5142766237258911e-01" nType="-99"/>
          </Node>
        </Node>
      </Node>
    </BinaryTree>
    <BinaryTree type="DecisionTree" boostWeight="1.0000000000000000e+00" itree="562">
      <Node pos="s" depth="0" NCoef="0" IVar="7" Cut="-1.2027725577354431e-01" cType="1" res="-6.4525520429015160e-04" rms="2.8581517934799194e-01" purity="4.9579569697380066e-01" nType="0">
        <Node pos="l" depth="1" NCoef="0" IVar="11" Cut="-1.8954603672027588e+00" cType="1" res="-5.3263711743056774e-03" rms="2.8621026873588562e-01" purity="4.6263045072555542e-01" nType="0">
          <Node pos="l" depth="2" NCoef="0" IVar="9" Cut="-1.1990851163864136e+00" cType="1" res="2.8596480842679739e-03" rms="2.8656455874443054e-01" purity="2.2907188534736633e-01" nType="0">
            <Node pos="l" depth="3" NCoef="0" IVar="-1" Cut="0.0000000000000000e+00" cType="1" res="-1.9016331061720848e-02" rms="2.5094869732856750e-01" purity="1.0891907662153244e-01" nType="-99"/>
            <Node pos="r" depth="3" NCoef="0" IVar="-1" Cut="0.0000000000000000e+00" cType="1" res="7.5977607630193233e-03" rms="2.9424732923507690e-01" purity="2.5753352046012878e-01" nType="-99"/>
          </Node>
          <Node pos="r" depth="2" NCoef="0" IVar="6" Cut="7.6238624572753906e+01" cType="1" res="-1.4247085899114609e-02" rms="2.8555664420127869e-01" purity="7.1715080738067627e-01" nType="0">
            <Node pos="l" depth="3" NCoef="0" IVar="-1" Cut="0.0000000000000000e+00" cType="1" res="-2.4910433217883110e-02" rms="3.3860245347023010e-01" purity="5.4021441936492920e-01" nType="-99"/>
            <Node pos="r" depth="3" NCoef="0" IVar="-1" Cut="0.0000000000000000e+00" cType="1" res="-2.0103927236050367e-03" rms="2.1838071942329407e-01" purity="8.9620804786682129e-01" nType="-99"/>
          </Node>
        </Node>
        <Node pos="r" depth="1" NCoef="0" IVar="9" Cut="-6.6680085659027100e-01" cType="1" res="3.0813449993729591e-03" rms="2.8544539213180542e-01" purity="5.2219825983047485e-01" nType="0">
          <Node pos="l" depth="2" NCoef="0" IVar="10" Cut="-1.3391260802745819e-01" cType="1" res="1.1506519280374050e-02" rms="2.9065218567848206e-01" purity="4.3054586648941040e-01" nType="0">
            <Node pos="l" depth="3" NCoef="0" IVar="-1" Cut="0.0000000000000000e+00" cType="1" res="-3.0560179147869349e-03" rms="2.8472092747688293e-01" purity="4.1139015555381775e-01" nType="-99"/>
            <Node pos="r" depth="3" NCoef="0" IVar="-1" Cut="0.0000000000000000e+00" cType="1" res="2.8856670483946800e-02" rms="2.9534187912940979e-01" purity="4.4785714149475098e-01" nType="-99"/>
          </Node>
          <Node pos="r" depth="2" NCoef="0" IVar="9" Cut="1.4791059494018555e+00" cType="1" res="5.2619550842791796e-04" rms="2.8379797935485840e-01" purity="5.4999423027038574e-01" nType="0">
            <Node pos="l" depth="3" NCoef="0" IVar="-1" Cut="0.0000000000000000e+00" cType="1" res="-1.9737170077860355e-03" rms="2.8629380464553833e-01" purity="5.8487677574157715e-01" nType="-99"/>
            <Node pos="r" depth="3" NCoef="0" IVar="-1" Cut="0.0000000000000000e+00" cType="1" res="2.2532073780894279e-02" rms="2.6335859298706055e-01" purity="2.8368231654167175e-01" nType="-99"/>
          </Node>
        </Node>
      </Node>
    </BinaryTree>
    <BinaryTree type="DecisionTree" boostWeight="1.0000000000000000e+00" itree="563">
      <Node pos="s" depth="0" NCoef="0" IVar="10" Cut="9.3314266204833984e-01" cType="1" res="1.9093598530162126e-04" rms="2.8295651078224182e-01" purity="4.9806353449821472e-01" nType="0">
        <Node pos="l" depth="1" NCoef="0" IVar="2" Cut="6.3790997314453125e+02" cType="1" res="-2.5769798085093498e-03" rms="2.8004336357116699e-01" purity="5.1820433139801025e-01" nType="0">
          <Node pos="l" depth="2" NCoef="0" IVar="0" Cut="1.4121453857421875e+03" cType="1" res="-4.0850047953426838e-03" rms="2.7706387639045715e-01" purity="5.1101475954055786e-01" nType="0">
            <Node pos="l" depth="3" NCoef="0" IVar="-1" Cut="0.0000000000000000e+00" cType="1" res="-1.0400247760117054e-02" rms="2.8285273909568787e-01" purity="1.9721908867359161e-01" nType="-99"/>
            <Node pos="r" depth="3" NCoef="0" IVar="-1" Cut="0.0000000000000000e+00" cType="1" res="3.0150945531204343e-04" rms="2.7175569534301758e-01" purity="7.8922235965728760e-01" nType="-99"/>
          </Node>
          <Node pos="r" depth="2" NCoef="0" IVar="11" Cut="-1.3436920642852783e+00" cType="1" res="1.8082708120346069e-02" rms="3.1734311580657959e-01" purity="6.1670070886611938e-01" nType="0">
            <Node pos="l" depth="3" NCoef="0" IVar="-1" Cut="0.0000000000000000e+00" cType="1" res="2.0626045763492584e-02" rms="3.4737065434455872e-01" purity="4.1096296906471252e-01" nType="-99"/>
            <Node pos="r" depth="3" NCoef="0" IVar="-1" Cut="0.0000000000000000e+00" cType="1" res="1.2410092167556286e-02" rms="2.8554630279541016e-01" purity="8.1313943862915039e-01" nType="-99"/>
          </Node>
        </Node>
        <Node pos="r" depth="1" NCoef="0" IVar="1" Cut="5.7645320892333984e-02" cType="1" res="9.2624314129352570e-03" rms="2.9211679100990295e-01" purity="4.3205460906028748e-01" nType="0">
          <Node pos="l" depth="2" NCoef="0" IVar="4" Cut="1.3528578186035156e+02" cType="1" res="1.7062699422240257e-02" rms="2.7466416358947754e-01" purity="2.2126635909080505e-01" nType="0">
            <Node pos="l" depth="3" NCoef="0" IVar="-1" Cut="0.0000000000000000e+00" cType="1" res="1.0125494562089443e-02" rms="2.2361260652542114e-01" purity="8.5530199110507965e-02" nType="-99"/>
            <Node pos="r" depth="3" NCoef="0" IVar="-1" Cut="0.0000000000000000e+00" cType="1" res="3.0541734769940376e-02" rms="3.2889157533645630e-01" purity="3.9832514524459839e-01" nType="-99"/>
          </Node>
          <Node pos="r" depth="2" NCoef="0" IVar="9" Cut="3.9797970652580261e-01" cType="1" res="-5.1503104623407125e-04" rms="3.1234517693519592e-01" purity="6.9627302885055542e-01" nType="0">
            <Node pos="l" depth="3" NCoef="0" IVar="-1" Cut="0.0000000000000000e+00" cType="1" res="9.7696548327803612e-03" rms="3.0034810304641724e-01" purity="7.3222011327743530e-01" nType="-99"/>
            <Node pos="r" depth="3" NCoef="0" IVar="-1" Cut="0.0000000000000000e+00" cType="1" res="-1.6981339082121849e-02" rms="3.3203372359275818e-01" purity="6.3202202320098877e-01" nType="-99"/>
          </Node>
        </Node>
      </Node>
    </BinaryTree>
    <BinaryTree type="DecisionTree" boostWeight="1.0000000000000000e+00" itree="564">
      <Node pos="s" depth="0" NCoef="0" IVar="5" Cut="6.8812843322753906e+01" cType="1" res="2.9299820307642221e-03" rms="2.8921759128570557e-01" purity="5.0222474336624146e-01" nType="0">
        <Node pos="l" depth="1" NCoef="0" IVar="10" Cut="-9.3336230516433716e-01" cType="1" res="8.5424231365323067e-03" rms="2.8779309988021851e-01" purity="1.8202744424343109e-01" nType="0">
          <Node pos="l" depth="2" NCoef="0" IVar="1" Cut="1.9653329625725746e-02" cType="1" res="2.6410881429910660e-02" rms="2.9273056983947754e-01" purity="1.8919332325458527e-01" nType="0">
            <Node pos="l" depth="3" NCoef="0" IVar="-1" Cut="0.0000000000000000e+00" cType="1" res="3.6329515278339386e-02" rms="1.7201191186904907e-01" purity="4.4015508145093918e-02" nType="-99"/>
            <Node pos="r" depth="3" NCoef="0" IVar="-1" Cut="0.0000000000000000e+00" cType="1" res="3.5764407366514206e-02" rms="3.4197238087654114e-01" purity="2.7077880501747131e-01" nType="-99"/>
          </Node>
          <Node pos="r" depth="2" NCoef="0" IVar="1" Cut="8.3668924868106842e-02" cType="1" res="1.8899223068729043e-03" rms="2.8564769029617310e-01" purity="1.7935957014560699e-01" nType="0">
            <Node pos="l" depth="3" NCoef="0" IVar="-1" Cut="0.0000000000000000e+00" cType="1" res="-2.5899952743202448e-03" rms="2.5958031415939331e-01" purity="1.2764874100685120e-01" nType="-99"/>
            <Node pos="r" depth="3" NCoef="0" IVar="-1" Cut="0.0000000000000000e+00" cType="1" res="1.3507518917322159e-02" rms="3.8756904006004333e-01" purity="4.3037241697311401e-01" nType="-99"/>
          </Node>
        </Node>
        <Node pos="r" depth="1" NCoef="0" IVar="7" Cut="-3.1833055615425110e-01" cType="1" res="-3.8314491393975914e-04" rms="2.9000419378280640e-01" purity="6.9124311208724976e-01" nType="0">
          <Node pos="l" depth="2" NCoef="0" IVar="0" Cut="1.6657012939453125e+03" cType="1" res="6.0946210287511349e-03" rms="3.0268967151641846e-01" purity="6.3391888141632080e-01" nType="0">
            <Node pos="l" depth="3" NCoef="0" IVar="-1" Cut="0.0000000000000000e+00" cType="1" res="1.5535267069935799e-02" rms="3.2824867963790894e-01" purity="4.5880267024040222e-01" nType="-99"/>
            <Node pos="r" depth="3" NCoef="0" IVar="-1" Cut="0.0000000000000000e+00" cType="1" res="-1.1227495968341827e-02" rms="2.6765000820159912e-01" purity="8.4732258319854736e-01" nType="-99"/>
          </Node>
          <Node pos="r" depth="2" NCoef="0" IVar="9" Cut="1.4663927555084229e+00" cType="1" res="-3.6165681667625904e-03" rms="2.8340443968772888e-01" purity="7.1985685825347900e-01" nType="0">
            <Node pos="l" depth="3" NCoef="0" IVar="-1" Cut="0.0000000000000000e+00" cType="1" res="-2.2898572497069836e-03" rms="2.8073912858963013e-01" purity="7.3932343721389771e-01" nType="-99"/>
            <Node pos="r" depth="3" NCoef="0" IVar="-1" Cut="0.0000000000000000e+00" cType="1" res="-2.5736441835761070e-02" rms="3.1808358430862427e-01" purity="4.4115567207336426e-01" nType="-99"/>
          </Node>
        </Node>
      </Node>
    </BinaryTree>
    <BinaryTree type="DecisionTree" boostWeight="1.0000000000000000e+00" itree="565">
      <Node pos="s" depth="0" NCoef="0" IVar="10" Cut="-1.7333335876464844e+00" cType="1" res="-2.0602233707904816e-03" rms="2.8405883908271790e-01" purity="4.9544590711593628e-01" nType="0">
        <Node pos="l" depth="1" NCoef="0" IVar="5" Cut="6.5453643798828125e+01" cType="1" res="-2.3950273171067238e-02" rms="2.7695187926292419e-01" purity="2.5811693072319031e-01" nType="0">
          <Node pos="l" depth="2" NCoef="0" IVar="-1" Cut="0.0000000000000000e+00" cType="1" res="-1.7293998971581459e-02" rms="2.4730408191680908e-01" purity="1.1525231599807739e-01" nType="-99"/>
          <Node pos="r" depth="2" NCoef="0" IVar="-1" Cut="0.0000000000000000e+00" cType="1" res="-3.7043720483779907e-02" rms="3.0145755410194397e-01" purity="3.9119300246238708e-01" nType="-99"/>
        </Node>
        <Node pos="r" depth="1" NCoef="0" IVar="9" Cut="-4.0006664395332336e-01" cType="1" res="-3.1586093246005476e-04" rms="2.8454509377479553e-01" purity="5.1435804367065430e-01" nType="0">
          <Node pos="l" depth="2" NCoef="0" IVar="11" Cut="8.6613017320632935e-01" cType="1" res="6.3073085620999336e-03" rms="2.8870794177055359e-01" purity="4.8165896534919739e-01" nType="0">
            <Node pos="l" depth="3" NCoef="0" IVar="-1" Cut="0.0000000000000000e+00" cType="1" res="4.0100100450217724e-03" rms="2.8824314475059509e-01" purity="4.5099821686744690e-01" nType="-99"/>
            <Node pos="r" depth="3" NCoef="0" IVar="-1" Cut="0.0000000000000000e+00" cType="1" res="3.2527778297662735e-02" rms="2.9128262400627136e-01" purity="7.2390192747116089e-01" nType="-99"/>
          </Node>
          <Node pos="r" depth="2" NCoef="0" IVar="4" Cut="2.1746972656250000e+02" cType="1" res="-3.8485482800751925e-03" rms="2.8223603963851929e-01" purity="5.3179913759231567e-01" nType="0">
            <Node pos="l" depth="3" NCoef="0" IVar="-1" Cut="0.0000000000000000e+00" cType="1" res="-7.7516338787972927e-03" rms="2.8914409875869751e-01" purity="4.3411043286323547e-01" nType="-99"/>
            <Node pos="r" depth="3" NCoef="0" IVar="-1" Cut="0.0000000000000000e+00" cType="1" res="7.9025588929653168e-03" rms="2.5780972838401794e-01" purity="8.5550773143768311e-01" nType="-99"/>
          </Node>
        </Node>
      </Node>
    </BinaryTree>
    <BinaryTree type="DecisionTree" boostWeight="1.0000000000000000e+00" itree="566">
      <Node pos="s" depth="0" NCoef="0" IVar="9" Cut="-4.0000647306442261e-01" cType="1" res="2.9879871290177107e-03" rms="2.8662183880805969e-01" purity="4.9826383590698242e-01" nType="0">
        <Node pos="l" depth="1" NCoef="0" IVar="7" Cut="6.8554323911666870e-01" cType="1" res="-2.5993795134127140e-03" rms="2.8680562973022461e-01" purity="4.5245304703712463e-01" nType="0">
          <Node pos="l" depth="2" NCoef="0" IVar="9" Cut="-1.0856370925903320e+00" cType="1" res="1.3564043911173940e-03" rms="2.9566469788551331e-01" purity="5.0634825229644775e-01" nType="0">
            <Node pos="l" depth="3" NCoef="0" IVar="-1" Cut="0.0000000000000000e+00" cType="1" res="-7.8704236075282097e-03" rms="2.9463145136833191e-01" purity="3.4894910454750061e-01" nType="-99"/>
            <Node pos="r" depth="3" NCoef="0" IVar="-1" Cut="0.0000000000000000e+00" cType="1" res="8.5919406265020370e-03" rms="2.9627853631973267e-01" purity="6.2399643659591675e-01" nType="-99"/>
          </Node>
          <Node pos="r" depth="2" NCoef="0" IVar="11" Cut="-2.7239499092102051e+00" cType="1" res="-1.8787067383527756e-02" rms="2.4660752713680267e-01" purity="2.3190529644489288e-01" nType="0">
            <Node pos="l" depth="3" NCoef="0" IVar="-1" Cut="0.0000000000000000e+00" cType="1" res="-1.2058138847351074e-02" rms="2.0989297330379486e-01" purity="7.8717611730098724e-02" nType="-99"/>
            <Node pos="r" depth="3" NCoef="0" IVar="-1" Cut="0.0000000000000000e+00" cType="1" res="-4.2869374155998230e-02" rms="2.9248186945915222e-01" purity="4.6407234668731689e-01" nType="-99"/>
          </Node>
        </Node>
        <Node pos="r" depth="1" NCoef="0" IVar="5" Cut="1.3290292358398438e+02" cType="1" res="6.0455668717622757e-03" rms="2.8647509217262268e-01" purity="5.2333289384841919e-01" nType="0">
          <Node pos="l" depth="2" NCoef="0" IVar="5" Cut="5.7894454956054688e+01" cType="1" res="7.4851950630545616e-03" rms="3.0066195130348206e-01" purity="4.4897851347923279e-01" nType="0">
            <Node pos="l" depth="3" NCoef="0" IVar="-1" Cut="0.0000000000000000e+00" cType="1" res="-8.8189989328384399e-03" rms="2.5715687870979309e-01" purity="1.2599201500415802e-01" nType="-99"/>
            <Node pos="r" depth="3" NCoef="0" IVar="-1" Cut="0.0000000000000000e+00" cType="1" res="1.1446629650890827e-02" rms="3.1121668219566345e-01" purity="5.3575283288955688e-01" nType="-99"/>
          </Node>
          <Node pos="r" depth="2" NCoef="0" IVar="-1" Cut="0.0000000000000000e+00" cType="1" res="-4.5997141860425472e-03" rms="1.9035679101943970e-01" purity="9.3179392814636230e-01" nType="-99"/>
        </Node>
      </Node>
    </BinaryTree>
    <BinaryTree type="DecisionTree" boostWeight="1.0000000000000000e+00" itree="567">
      <Node pos="s" depth="0" NCoef="0" IVar="11" Cut="5.9013569355010986e-01" cType="1" res="2.2163991816341877e-03" rms="2.8649947047233582e-01" purity="5.0065159797668457e-01" nType="0">
        <Node pos="l" depth="1" NCoef="0" IVar="10" Cut="1.9998537302017212e+00" cType="1" res="4.0738158859312534e-03" rms="2.8752139210700989e-01" purity="4.6111923456192017e-01" nType="0">
          <Node pos="l" depth="2" NCoef="0" IVar="9" Cut="9.3326324224472046e-01" cType="1" res="5.0223669968545437e-03" rms="2.8871619701385498e-01" purity="4.7586950659751892e-01" nType="0">
            <Node pos="l" depth="3" NCoef="0" IVar="-1" Cut="0.0000000000000000e+00" cType="1" res="3.9126379415392876e-03" rms="2.8915631771087646e-01" purity="5.0947529077529907e-01" nType="-99"/>
            <Node pos="r" depth="3" NCoef="0" IVar="-1" Cut="0.0000000000000000e+00" cType="1" res="1.5888271853327751e-02" rms="2.8663882613182068e-01" purity="3.2755184173583984e-01" nType="-99"/>
          </Node>
          <Node pos="r" depth="2" NCoef="0" IVar="-1" Cut="0.0000000000000000e+00" cType="1" res="-1.9377129152417183e-02" rms="2.6384836435317993e-01" purity="1.8842618167400360e-01" nType="-99"/>
        </Node>
        <Node pos="r" depth="1" NCoef="0" IVar="9" Cut="-3.9976128935813904e-01" cType="1" res="-7.2814300656318665e-03" rms="2.8102403879165649e-01" purity="7.0279878377914429e-01" nType="0">
          <Node pos="l" depth="2" NCoef="0" IVar="-1" Cut="0.0000000000000000e+00" cType="1" res="-2.6705052703619003e-02" rms="2.9417383670806885e-01" purity="6.5565812587738037e-01" nType="-99"/>
          <Node pos="r" depth="2" NCoef="0" IVar="11" Cut="1.3263791799545288e+00" cType="1" res="-6.5603584516793489e-04" rms="2.7522578835487366e-01" purity="7.2195333242416382e-01" nType="0">
            <Node pos="l" depth="3" NCoef="0" IVar="-1" Cut="0.0000000000000000e+00" cType="1" res="-1.4613471925258636e-02" rms="2.6531046628952026e-01" purity="7.6611918210983276e-01" nType="-99"/>
            <Node pos="r" depth="3" NCoef="0" IVar="-1" Cut="0.0000000000000000e+00" cType="1" res="1.3757527805864811e-02" rms="2.8742966055870056e-01" purity="6.6284894943237305e-01" nType="-99"/>
          </Node>
        </Node>
      </Node>
    </BinaryTree>
    <BinaryTree type="DecisionTree" boostWeight="1.0000000000000000e+00" itree="568">
      <Node pos="s" depth="0" NCoef="0" IVar="10" Cut="-6.6689360141754150e-01" cType="1" res="3.1055640429258347e-03" rms="2.8526028990745544e-01" purity="4.9873581528663635e-01" nType="0">
        <Node pos="l" depth="1" NCoef="0" IVar="7" Cut="-1.1932778358459473e+00" cType="1" res="7.6943896710872650e-03" rms="2.8194856643676758e-01" purity="4.5356413722038269e-01" nType="0">
          <Node pos="l" depth="2" NCoef="0" IVar="-1" Cut="0.0000000000000000e+00" cType="1" res="-1.9963145256042480e-02" rms="2.0600999891757965e-01" purity="1.1457947641611099e-01" nType="-99"/>
          <Node pos="r" depth="2" NCoef="0" IVar="6" Cut="5.1726482391357422e+01" cType="1" res="1.0439117439091206e-02" rms="2.9172089695930481e-01" purity="5.0536954402923584e-01" nType="0">
            <Node pos="l" depth="3" NCoef="0" IVar="-1" Cut="0.0000000000000000e+00" cType="1" res="3.0880377162247896e-03" rms="3.0614686012268066e-01" purity="2.3939317464828491e-01" nType="-99"/>
            <Node pos="r" depth="3" NCoef="0" IVar="-1" Cut="0.0000000000000000e+00" cType="1" res="2.1252566948533058e-02" rms="2.7600643038749695e-01" purity="7.7680349349975586e-01" nType="-99"/>
          </Node>
        </Node>
        <Node pos="r" depth="1" NCoef="0" IVar="6" Cut="1.9566801071166992e+01" cType="1" res="1.1904548155143857e-03" rms="2.8660938143730164e-01" purity="5.1758784055709839e-01" nType="0">
          <Node pos="l" depth="2" NCoef="0" IVar="1" Cut="3.8616232573986053e-02" cType="1" res="5.6792204268276691e-03" rms="3.0015981197357178e-01" purity="2.3707523941993713e-01" nType="0">
            <Node pos="l" depth="3" NCoef="0" IVar="-1" Cut="0.0000000000000000e+00" cType="1" res="1.8282646313309669e-02" rms="2.5482103228569031e-01" purity="1.2881189584732056e-01" nType="-99"/>
            <Node pos="r" depth="3" NCoef="0" IVar="-1" Cut="0.0000000000000000e+00" cType="1" res="-8.1387750105932355e-04" rms="3.5105431079864502e-01" purity="3.8001608848571777e-01" nType="-99"/>
          </Node>
          <Node pos="r" depth="2" NCoef="0" IVar="0" Cut="1.5610123291015625e+03" cType="1" res="-2.6206907350569963e-03" rms="2.7452248334884644e-01" purity="7.5575447082519531e-01" nType="0">
            <Node pos="l" depth="3" NCoef="0" IVar="-1" Cut="0.0000000000000000e+00" cType="1" res="-8.5693355649709702e-03" rms="3.4026250243186951e-01" purity="5.1021683216094971e-01" nType="-99"/>
            <Node pos="r" depth="3" NCoef="0" IVar="-1" Cut="0.0000000000000000e+00" cType="1" res="3.3218627795577049e-03" rms="2.2771747410297394e-01" purity="8.9824819564819336e-01" nType="-99"/>
          </Node>
        </Node>
      </Node>
    </BinaryTree>
    <BinaryTree type="DecisionTree" boostWeight="1.0000000000000000e+00" itree="569">
      <Node pos="s" depth="0" NCoef="0" IVar="8" Cut="-9.3341845273971558e-01" cType="1" res="-1.6368594951927662e-03" rms="2.8355813026428223e-01" purity="5.0036728382110596e-01" nType="0">
        <Node pos="l" depth="1" NCoef="0" IVar="9" Cut="-3.9971923828125000e-01" cType="1" res="5.7741804048418999e-03" rms="2.7567645907402039e-01" purity="2.8822490572929382e-01" nType="0">
          <Node pos="l" depth="2" NCoef="0" IVar="7" Cut="-5.6165653467178345e-01" cType="1" res="-5.1574092358350754e-03" rms="2.7391421794891357e-01" purity="2.5724601745605469e-01" nType="0">
            <Node pos="l" depth="3" NCoef="0" IVar="-1" Cut="0.0000000000000000e+00" cType="1" res="-4.2405720800161362e-02" rms="2.4159958958625793e-01" purity="1.8897506594657898e-01" nType="-99"/>
            <Node pos="r" depth="3" NCoef="0" IVar="-1" Cut="0.0000000000000000e+00" cType="1" res="1.0455679148435593e-02" rms="2.8893813490867615e-01" purity="2.9407146573066711e-01" nType="-99"/>
          </Node>
          <Node pos="r" depth="2" NCoef="0" IVar="4" Cut="1.7467965698242188e+02" cType="1" res="1.3928599655628204e-02" rms="2.7670264244079590e-01" purity="3.1133356690406799e-01" nType="0">
            <Node pos="l" depth="3" NCoef="0" IVar="-1" Cut="0.0000000000000000e+00" cType="1" res="3.4641426056623459e-02" rms="2.6624014973640442e-01" purity="2.0607236027717590e-01" nType="-99"/>
            <Node pos="r" depth="3" NCoef="0" IVar="-1" Cut="0.0000000000000000e+00" cType="1" res="-8.0097792670130730e-03" rms="3.0106085538864136e-01" purity="5.8434343338012695e-01" nType="-99"/>
          </Node>
        </Node>
        <Node pos="r" depth="1" NCoef="0" IVar="3" Cut="3.3456134033203125e+02" cType="1" res="-3.1599954236298800e-03" rms="2.8512713313102722e-01" purity="5.4396736621856689e-01" nType="0">
          <Node pos="l" depth="2" NCoef="0" IVar="3" Cut="2.1392462158203125e+02" cType="1" res="-5.0446977838873863e-03" rms="2.8698003292083740e-01" purity="4.9834421277046204e-01" nType="0">
            <Node pos="l" depth="3" NCoef="0" IVar="-1" Cut="0.0000000000000000e+00" cType="1" res="3.6218637251295149e-04" rms="2.8370949625968933e-01" purity="3.4690150618553162e-01" nType="-99"/>
            <Node pos="r" depth="3" NCoef="0" IVar="-1" Cut="0.0000000000000000e+00" cType="1" res="-1.3116288930177689e-02" rms="2.9063320159912109e-01" purity="6.7543029785156250e-01" nType="-99"/>
          </Node>
          <Node pos="r" depth="2" NCoef="0" IVar="9" Cut="-6.6679328680038452e-01" cType="1" res="6.3238455913960934e-03" rms="2.7541869878768921e-01" purity="7.7354335784912109e-01" nType="0">
            <Node pos="l" depth="3" NCoef="0" IVar="-1" Cut="0.0000000000000000e+00" cType="1" res="-1.1613082140684128e-02" rms="2.9324051737785339e-01" purity="6.6953438520431519e-01" nType="-99"/>
            <Node pos="r" depth="3" NCoef="0" IVar="-1" Cut="0.0000000000000000e+00" cType="1" res="1.3457415625452995e-02" rms="2.7058997750282288e-01" purity="7.9966878890991211e-01" nType="-99"/>
          </Node>
        </Node>
      </Node>
    </BinaryTree>
    <BinaryTree type="DecisionTree" boostWeight="1.0000000000000000e+00" itree="570">
      <Node pos="s" depth="0" NCoef="0" IVar="7" Cut="-1.4285942316055298e+00" cType="1" res="-3.6253312136977911e-03" rms="2.8502804040908813e-01" purity="4.9697691202163696e-01" nType="0">
        <Node pos="l" depth="1" NCoef="0" IVar="5" Cut="6.5454704284667969e+01" cType="1" res="1.0135566815733910e-02" rms="2.1002829074859619e-01" purity="1.1536277830600739e-01" nType="0">
          <Node pos="l" depth="2" NCoef="0" IVar="-1" Cut="0.0000000000000000e+00" cType="1" res="-2.5066481903195381e-02" rms="1.0576902329921722e-01" purity="1.6382001340389252e-02" nType="-99"/>
          <Node pos="r" depth="2" NCoef="0" IVar="-1" Cut="0.0000000000000000e+00" cType="1" res="3.3289916813373566e-02" rms="2.7430745959281921e-01" purity="2.1001453697681427e-01" nType="-99"/>
        </Node>
        <Node pos="r" depth="1" NCoef="0" IVar="8" Cut="-3.9986634254455566e-01" cType="1" res="-4.5750611461699009e-03" rms="2.8946420550346375e-01" purity="5.2331459522247314e-01" nType="0">
          <Node pos="l" depth="2" NCoef="0" IVar="9" Cut="-9.3312978744506836e-01" cType="1" res="-1.0120096616446972e-02" rms="2.8479641675949097e-01" purity="4.5504912734031677e-01" nType="0">
            <Node pos="l" depth="3" NCoef="0" IVar="-1" Cut="0.0000000000000000e+00" cType="1" res="1.6494225710630417e-03" rms="2.8846067190170288e-01" purity="3.4272375702857971e-01" nType="-99"/>
            <Node pos="r" depth="3" NCoef="0" IVar="-1" Cut="0.0000000000000000e+00" cType="1" res="-1.6190048307180405e-02" rms="2.8360357880592346e-01" purity="4.8857158422470093e-01" nType="-99"/>
          </Node>
          <Node pos="r" depth="2" NCoef="0" IVar="2" Cut="3.2477233886718750e+02" cType="1" res="-1.7572299111634493e-03" rms="2.9176723957061768e-01" purity="5.5800521373748779e-01" nType="0">
            <Node pos="l" depth="3" NCoef="0" IVar="-1" Cut="0.0000000000000000e+00" cType="1" res="4.9629141576588154e-03" rms="2.9583272337913513e-01" purity="4.8632198572158813e-01" nType="-99"/>
            <Node pos="r" depth="3" NCoef="0" IVar="-1" Cut="0.0000000000000000e+00" cType="1" res="-7.0759681984782219e-03" rms="2.8880488872528076e-01" purity="6.0829782485961914e-01" nType="-99"/>
          </Node>
        </Node>
      </Node>
    </BinaryTree>
    <BinaryTree type="DecisionTree" boostWeight="1.0000000000000000e+00" itree="571">
      <Node pos="s" depth="0" NCoef="0" IVar="11" Cut="5.9013569355010986e-01" cType="1" res="3.3243556390516460e-04" rms="2.8361511230468750e-01" purity="4.9889841675758362e-01" nType="0">
        <Node pos="l" depth="1" NCoef="0" IVar="9" Cut="1.7332170009613037e+00" cType="1" res="-1.2879144633188844e-03" rms="2.8517010807991028e-01" purity="4.5191749930381775e-01" nType="0">
          <Node pos="l" depth="2" NCoef="0" IVar="0" Cut="1.1148408203125000e+03" cType="1" res="-2.3251182865351439e-03" rms="2.8792276978492737e-01" purity="4.6933844685554504e-01" nType="0">
            <Node pos="l" depth="3" NCoef="0" IVar="-1" Cut="0.0000000000000000e+00" cType="1" res="1.5945337712764740e-02" rms="2.1288478374481201e-01" purity="5.8408696204423904e-02" nType="-99"/>
            <Node pos="r" depth="3" NCoef="0" IVar="-1" Cut="0.0000000000000000e+00" cType="1" res="-4.7746789641678333e-03" rms="3.0360859632492065e-01" purity="5.7107156515121460e-01" nType="-99"/>
          </Node>
          <Node pos="r" depth="2" NCoef="0" IVar="-1" Cut="0.0000000000000000e+00" cType="1" res="2.5870716199278831e-02" rms="2.3693351447582245e-01" purity="1.7694674432277679e-01" nType="-99"/>
        </Node>
        <Node pos="r" depth="1" NCoef="0" IVar="11" Cut="1.6421900987625122e+00" cType="1" res="8.2664098590612411e-03" rms="2.7573716640472412e-01" purity="7.2893857955932617e-01" nType="0">
          <Node pos="l" depth="2" NCoef="0" IVar="10" Cut="4.0036088228225708e-01" cType="1" res="1.4625779353082180e-02" rms="2.7059432864189148e-01" purity="7.7251297235488892e-01" nType="0">
            <Node pos="l" depth="3" NCoef="0" IVar="-1" Cut="0.0000000000000000e+00" cType="1" res="1.0550697334110737e-02" rms="2.5457608699798584e-01" purity="7.9175013303756714e-01" nType="-99"/>
            <Node pos="r" depth="3" NCoef="0" IVar="-1" Cut="0.0000000000000000e+00" cType="1" res="2.8166210278868675e-02" rms="2.9418325424194336e-01" purity="7.4157977104187012e-01" nType="-99"/>
          </Node>
          <Node pos="r" depth="2" NCoef="0" IVar="-1" Cut="0.0000000000000000e+00" cType="1" res="-1.0639855638146400e-02" rms="2.8956136107444763e-01" purity="6.0043764114379883e-01" nType="-99"/>
        </Node>
      </Node>
    </BinaryTree>
    <BinaryTree type="DecisionTree" boostWeight="1.0000000000000000e+00" itree="572">
      <Node pos="s" depth="0" NCoef="0" IVar="10" Cut="-2.2666718959808350e+00" cType="1" res="1.7908346490003169e-04" rms="2.8748008608818054e-01" purity="4.9619448184967041e-01" nType="0">
        <Node pos="l" depth="1" NCoef="0" IVar="-1" Cut="0.0000000000000000e+00" cType="1" res="-2.8056189417839050e-02" rms="2.7949160337448120e-01" purity="2.0358148217201233e-01" nType="-99"/>
        <Node pos="r" depth="1" NCoef="0" IVar="4" Cut="1.6200474548339844e+02" cType="1" res="8.2994269905611873e-04" rms="2.8766942024230957e-01" purity="5.0425142049789429e-01" nType="0">
          <Node pos="l" depth="2" NCoef="0" IVar="2" Cut="3.2890386962890625e+02" cType="1" res="4.0297564119100571e-03" rms="2.9324778914451599e-01" purity="2.8557863831520081e-01" nType="0">
            <Node pos="l" depth="3" NCoef="0" IVar="-1" Cut="0.0000000000000000e+00" cType="1" res="-5.1945843733847141e-04" rms="2.8640511631965637e-01" purity="2.7513349056243896e-01" nType="-99"/>
            <Node pos="r" depth="3" NCoef="0" IVar="-1" Cut="0.0000000000000000e+00" cType="1" res="1.0098480619490147e-02" rms="3.0082592368125916e-01" purity="2.9756253957748413e-01" nType="-99"/>
          </Node>
          <Node pos="r" depth="2" NCoef="0" IVar="9" Cut="1.2001116275787354e+00" cType="1" res="-2.8360299766063690e-03" rms="2.8109759092330933e-01" purity="7.5478112697601318e-01" nType="0">
            <Node pos="l" depth="3" NCoef="0" IVar="-1" Cut="0.0000000000000000e+00" cType="1" res="-5.9293908998370171e-04" rms="2.7919062972068787e-01" purity="7.7807456254959106e-01" nType="-99"/>
            <Node pos="r" depth="3" NCoef="0" IVar="-1" Cut="0.0000000000000000e+00" cType="1" res="-2.7723388746380806e-02" rms="2.9966303706169128e-01" purity="5.0433367490768433e-01" nType="-99"/>
          </Node>
        </Node>
      </Node>
    </BinaryTree>
    <BinaryTree type="DecisionTree" boostWeight="1.0000000000000000e+00" itree="573">
      <Node pos="s" depth="0" NCoef="0" IVar="10" Cut="-1.4666771888732910e+00" cType="1" res="4.9130117986351252e-04" rms="2.8355601429939270e-01" purity="4.9787989258766174e-01" nType="0">
        <Node pos="l" depth="1" NCoef="0" IVar="0" Cut="1.5667305908203125e+03" cType="1" res="-1.2817690148949623e-02" rms="2.8493934869766235e-01" purity="3.3110624551773071e-01" nType="0">
          <Node pos="l" depth="2" NCoef="0" IVar="8" Cut="-3.9962556958198547e-01" cType="1" res="-2.2681238129734993e-02" rms="2.7077189087867737e-01" purity="1.6543300449848175e-01" nType="0">
            <Node pos="l" depth="3" NCoef="0" IVar="-1" Cut="0.0000000000000000e+00" cType="1" res="-4.6753399074077606e-03" rms="2.5531023740768433e-01" purity="1.7314285039901733e-01" nType="-99"/>
            <Node pos="r" depth="3" NCoef="0" IVar="-1" Cut="0.0000000000000000e+00" cType="1" res="-4.4879332184791565e-02" rms="2.8159698843955994e-01" purity="1.5924942493438721e-01" nType="-99"/>
          </Node>
          <Node pos="r" depth="2" NCoef="0" IVar="-1" Cut="0.0000000000000000e+00" cType="1" res="9.5482012256979942e-03" rms="3.1288880109786987e-01" purity="6.9723856449127197e-01" nType="-99"/>
        </Node>
        <Node pos="r" depth="1" NCoef="0" IVar="2" Cut="5.8667419433593750e+02" cType="1" res="2.1613312419503927e-03" rms="2.8333780169487000e-01" purity="5.1880687475204468e-01" nType="0">
          <Node pos="l" depth="2" NCoef="0" IVar="7" Cut="1.7351977825164795e+00" cType="1" res="3.6544862668961287e-03" rms="2.8121024370193481e-01" purity="5.1054364442825317e-01" nType="0">
            <Node pos="l" depth="3" NCoef="0" IVar="-1" Cut="0.0000000000000000e+00" cType="1" res="5.4582925513386726e-03" rms="2.8589725494384766e-01" purity="5.2993434667587280e-01" nType="-99"/>
            <Node pos="r" depth="3" NCoef="0" IVar="-1" Cut="0.0000000000000000e+00" cType="1" res="-5.2064772695302963e-02" rms="1.3565175235271454e-01" purity="7.1109145879745483e-02" nType="-99"/>
          </Node>
          <Node pos="r" depth="2" NCoef="0" IVar="4" Cut="2.3396540832519531e+02" cType="1" res="-1.1188589967787266e-02" rms="3.0136531591415405e-01" purity="5.9268623590469360e-01" nType="0">
            <Node pos="l" depth="3" NCoef="0" IVar="-1" Cut="0.0000000000000000e+00" cType="1" res="-2.1654525771737099e-02" rms="3.1309372186660767e-01" purity="4.6097362041473389e-01" nType="-99"/>
            <Node pos="r" depth="3" NCoef="0" IVar="-1" Cut="0.0000000000000000e+00" cType="1" res="1.2082416564226151e-02" rms="2.7796658873558044e-01" purity="8.2788991928100586e-01" nType="-99"/>
          </Node>
        </Node>
      </Node>
    </BinaryTree>
    <BinaryTree type="DecisionTree" boostWeight="1.0000000000000000e+00" itree="574">
      <Node pos="s" depth="0" NCoef="0" IVar="11" Cut="1.6952279806137085e+00" cType="1" res="-5.6416244478896260e-04" rms="2.8509753942489624e-01" purity="4.9734875559806824e-01" nType="0">
        <Node pos="l" depth="1" NCoef="0" IVar="9" Cut="1.3336177170276642e-01" cType="1" res="-1.2969211675226688e-03" rms="2.8407526016235352e-01" purity="4.9331268668174744e-01" nType="0">
          <Node pos="l" depth="2" NCoef="0" IVar="8" Cut="3.9998742938041687e-01" cType="1" res="-4.4690500944852829e-03" rms="2.8160259127616882e-01" purity="4.9999514222145081e-01" nType="0">
            <Node pos="l" depth="3" NCoef="0" IVar="-1" Cut="0.0000000000000000e+00" cType="1" res="-1.1835759505629539e-03" rms="2.8281211853027344e-01" purity="5.2602684497833252e-01" nType="-99"/>
            <Node pos="r" depth="3" NCoef="0" IVar="-1" Cut="0.0000000000000000e+00" cType="1" res="-1.5783671289682388e-02" rms="2.7858096361160278e-01" purity="4.3906089663505554e-01" nType="-99"/>
          </Node>
          <Node pos="r" depth="2" NCoef="0" IVar="9" Cut="1.0222147703170776e+00" cType="1" res="2.6882723905146122e-03" rms="2.8710189461708069e-01" purity="4.8491746187210083e-01" nType="0">
            <Node pos="l" depth="3" NCoef="0" IVar="-1" Cut="0.0000000000000000e+00" cType="1" res="8.6769843474030495e-03" rms="2.9105648398399353e-01" purity="5.9201437234878540e-01" nType="-99"/>
            <Node pos="r" depth="3" NCoef="0" IVar="-1" Cut="0.0000000000000000e+00" cType="1" res="-6.0179932042956352e-03" rms="2.8047773241996765e-01" purity="3.1300505995750427e-01" nType="-99"/>
          </Node>
        </Node>
        <Node pos="r" depth="1" NCoef="0" IVar="-1" Cut="0.0000000000000000e+00" cType="1" res="1.7123475670814514e-02" rms="3.0950278043746948e-01" purity="6.0053944587707520e-01" nType="-99"/>
      </Node>
    </BinaryTree>
    <BinaryTree type="DecisionTree" boostWeight="1.0000000000000000e+00" itree="575">
      <Node pos="s" depth="0" NCoef="0" IVar="5" Cut="8.5521385192871094e+01" cType="1" res="-5.7750841369852424e-04" rms="2.8276431560516357e-01" purity="4.9355745315551758e-01" nType="0">
        <Node pos="l" depth="1" NCoef="0" IVar="7" Cut="4.2091229557991028e-01" cType="1" res="-4.2016832157969475e-03" rms="2.9341304302215576e-01" purity="2.5300231575965881e-01" nType="0">
          <Node pos="l" depth="2" NCoef="0" IVar="10" Cut="-9.3308758735656738e-01" cType="1" res="-7.9521490260958672e-03" rms="3.0001005530357361e-01" purity="2.8674042224884033e-01" nType="0">
            <Node pos="l" depth="3" NCoef="0" IVar="-1" Cut="0.0000000000000000e+00" cType="1" res="2.6539694517850876e-03" rms="2.9910466074943542e-01" purity="2.5568342208862305e-01" nType="-99"/>
            <Node pos="r" depth="3" NCoef="0" IVar="-1" Cut="0.0000000000000000e+00" cType="1" res="-1.1976168490946293e-02" rms="3.0025663971900940e-01" purity="2.9829204082489014e-01" nType="-99"/>
          </Node>
          <Node pos="r" depth="2" NCoef="0" IVar="8" Cut="-6.6699892282485962e-01" cType="1" res="2.9557361267507076e-03" rms="2.8025358915328979e-01" purity="1.8861627578735352e-01" nType="0">
            <Node pos="l" depth="3" NCoef="0" IVar="-1" Cut="0.0000000000000000e+00" cType="1" res="4.1591972112655640e-02" rms="2.5061577558517456e-01" purity="1.2884883582592010e-01" nType="-99"/>
            <Node pos="r" depth="3" NCoef="0" IVar="-1" Cut="0.0000000000000000e+00" cType="1" res="-4.9052303656935692e-03" rms="2.9045394062995911e-01" purity="2.1142725646495819e-01" nType="-99"/>
          </Node>
        </Node>
        <Node pos="r" depth="1" NCoef="0" IVar="9" Cut="-1.2010679244995117e+00" cType="1" res="4.0717995725572109e-03" rms="2.6841413974761963e-01" purity="8.0215591192245483e-01" nType="0">
          <Node pos="l" depth="2" NCoef="0" IVar="-1" Cut="0.0000000000000000e+00" cType="1" res="2.1385747939348221e-02" rms="3.2281002402305603e-01" purity="6.0917168855667114e-01" nType="-99"/>
          <Node pos="r" depth="2" NCoef="0" IVar="1" Cut="1.2526196241378784e-01" cType="1" res="2.2196220234036446e-03" rms="2.6234328746795654e-01" purity="8.2126265764236450e-01" nType="0">
            <Node pos="l" depth="3" NCoef="0" IVar="-1" Cut="0.0000000000000000e+00" cType="1" res="-8.6685433052480221e-04" rms="2.9570686817169189e-01" purity="7.4853903055191040e-01" nType="-99"/>
            <Node pos="r" depth="3" NCoef="0" IVar="-1" Cut="0.0000000000000000e+00" cType="1" res="1.9359303638339043e-02" rms="1.8627029657363892e-01" purity="9.5438218116760254e-01" nType="-99"/>
          </Node>
        </Node>
      </Node>
    </BinaryTree>
    <BinaryTree type="DecisionTree" boostWeight="1.0000000000000000e+00" itree="576">
      <Node pos="s" depth="0" NCoef="0" IVar="8" Cut="3.9997813105583191e-01" cType="1" res="-2.3537578526884317e-03" rms="2.7966165542602539e-01" purity="5.0189501047134399e-01" nType="0">
        <Node pos="l" depth="1" NCoef="0" IVar="1" Cut="8.0570392310619354e-02" cType="1" res="-4.7937831841409206e-03" rms="2.8031972050666809e-01" purity="5.3095161914825439e-01" nType="0">
          <Node pos="l" depth="2" NCoef="0" IVar="1" Cut="3.8370016962289810e-02" cType="1" res="-9.1792745515704155e-03" rms="2.8448924422264099e-01" purity="3.4188881516456604e-01" nType="0">
            <Node pos="l" depth="3" NCoef="0" IVar="-1" Cut="0.0000000000000000e+00" cType="1" res="-5.0405901856720448e-03" rms="2.6020365953445435e-01" purity="2.1897742152214050e-01" nType="-99"/>
            <Node pos="r" depth="3" NCoef="0" IVar="-1" Cut="0.0000000000000000e+00" cType="1" res="-1.6459865495562553e-02" rms="3.1727913022041321e-01" purity="5.2630245685577393e-01" nType="-99"/>
          </Node>
          <Node pos="r" depth="2" NCoef="0" IVar="1" Cut="1.1318147182464600e-01" cType="1" res="1.6795432893559337e-03" rms="2.7392098307609558e-01" purity="8.1002300977706909e-01" nType="0">
            <Node pos="l" depth="3" NCoef="0" IVar="-1" Cut="0.0000000000000000e+00" cType="1" res="1.0069961659610271e-02" rms="3.1139194965362549e-01" purity="7.1934181451797485e-01" nType="-99"/>
            <Node pos="r" depth="3" NCoef="0" IVar="-1" Cut="0.0000000000000000e+00" cType="1" res="-3.7944316864013672e-03" rms="2.5294852256774902e-01" purity="8.5549092292785645e-01" nType="-99"/>
          </Node>
        </Node>
        <Node pos="r" depth="1" NCoef="0" IVar="8" Cut="7.4285006523132324e-01" cType="1" res="2.3780206684023142e-03" rms="2.7832013368606567e-01" purity="4.4554752111434937e-01" nType="0">
          <Node pos="l" depth="2" NCoef="0" IVar="7" Cut="2.5001943111419678e-01" cType="1" res="1.1024887673556805e-02" rms="2.9778802394866943e-01" purity="6.2353402376174927e-01" nType="0">
            <Node pos="l" depth="3" NCoef="0" IVar="-1" Cut="0.0000000000000000e+00" cType="1" res="2.4170139804482460e-02" rms="3.0521681904792786e-01" purity="6.5909153223037720e-01" nType="-99"/>
            <Node pos="r" depth="3" NCoef="0" IVar="-1" Cut="0.0000000000000000e+00" cType="1" res="-6.8529997952282429e-03" rms="2.8564080595970154e-01" purity="5.7121866941452026e-01" nType="-99"/>
          </Node>
          <Node pos="r" depth="2" NCoef="0" IVar="1" Cut="7.2639457881450653e-02" cType="1" res="-2.1428156178444624e-03" rms="2.6746720075607300e-01" purity="3.5249090194702148e-01" nType="0">
            <Node pos="l" depth="3" NCoef="0" IVar="-1" Cut="0.0000000000000000e+00" cType="1" res="4.1059534996747971e-03" rms="2.5872975587844849e-01" purity="2.1820263564586639e-01" nType="-99"/>
            <Node pos="r" depth="3" NCoef="0" IVar="-1" Cut="0.0000000000000000e+00" cType="1" res="-1.7609015107154846e-02" rms="2.8970834612846375e-01" purity="7.2212249040603638e-01" nType="-99"/>
          </Node>
        </Node>
      </Node>
    </BinaryTree>
    <BinaryTree type="DecisionTree" boostWeight="1.0000000000000000e+00" itree="577">
      <Node pos="s" depth="0" NCoef="0" IVar="1" Cut="6.1382878571748734e-02" cType="1" res="4.1292255627922714e-04" rms="2.8130599856376648e-01" purity="4.9775272607803345e-01" nType="0">
        <Node pos="l" depth="1" NCoef="0" IVar="5" Cut="1.3144685363769531e+02" cType="1" res="-4.0486315265297890e-03" rms="2.7122935652732849e-01" purity="2.6107192039489746e-01" nType="0">
          <Node pos="l" depth="2" NCoef="0" IVar="1" Cut="5.2613373845815659e-02" cType="1" res="-5.3085740655660629e-03" rms="2.7031198143959045e-01" purity="2.2360959649085999e-01" nType="0">
            <Node pos="l" depth="3" NCoef="0" IVar="-1" Cut="0.0000000000000000e+00" cType="1" res="-9.1031212359666824e-03" rms="2.6271209120750427e-01" purity="2.0096470415592194e-01" nType="-99"/>
            <Node pos="r" depth="3" NCoef="0" IVar="-1" Cut="0.0000000000000000e+00" cType="1" res="7.7139162458479404e-03" rms="3.3955585956573486e-01" purity="4.6099472045898438e-01" nType="-99"/>
          </Node>
          <Node pos="r" depth="2" NCoef="0" IVar="-1" Cut="0.0000000000000000e+00" cType="1" res="1.6060162335634232e-02" rms="2.8371560573577881e-01" purity="8.1115227937698364e-01" nType="-99"/>
        </Node>
        <Node pos="r" depth="1" NCoef="0" IVar="10" Cut="1.4638767242431641e+00" cType="1" res="5.4374868050217628e-03" rms="2.9215696454048157e-01" purity="7.6430052518844604e-01" nType="0">
          <Node pos="l" depth="2" NCoef="0" IVar="7" Cut="7.5034683942794800e-01" cType="1" res="2.4950902443379164e-03" rms="2.8809079527854919e-01" purity="7.7543437480926514e-01" nType="0">
            <Node pos="l" depth="3" NCoef="0" IVar="-1" Cut="0.0000000000000000e+00" cType="1" res="5.6035653688013554e-03" rms="2.8571638464927673e-01" purity="7.8831702470779419e-01" nType="-99"/>
            <Node pos="r" depth="3" NCoef="0" IVar="-1" Cut="0.0000000000000000e+00" cType="1" res="-1.7367849126458168e-02" rms="3.0730992555618286e-01" purity="6.6339516639709473e-01" nType="-99"/>
          </Node>
          <Node pos="r" depth="2" NCoef="0" IVar="-1" Cut="0.0000000000000000e+00" cType="1" res="3.0501171946525574e-02" rms="3.2712328433990479e-01" purity="6.5800303220748901e-01" nType="-99"/>
        </Node>
      </Node>
    </BinaryTree>
    <BinaryTree type="DecisionTree" boostWeight="1.0000000000000000e+00" itree="578">
      <Node pos="s" depth="0" NCoef="0" IVar="5" Cut="6.8812950134277344e+01" cType="1" res="2.1390693727880716e-03" rms="2.8413134813308716e-01" purity="5.0268650054931641e-01" nType="0">
        <Node pos="l" depth="1" NCoef="0" IVar="5" Cut="5.7166858673095703e+01" cType="1" res="-2.2972056176513433e-03" rms="2.7503785490989685e-01" purity="1.7842455208301544e-01" nType="0">
          <Node pos="l" depth="2" NCoef="0" IVar="8" Cut="-4.0000489354133606e-01" cType="1" res="3.5838165786117315e-03" rms="2.5412341952323914e-01" purity="1.3499850034713745e-01" nType="0">
            <Node pos="l" depth="3" NCoef="0" IVar="-1" Cut="0.0000000000000000e+00" cType="1" res="-1.4839326962828636e-02" rms="2.2338721156120300e-01" purity="8.8070906698703766e-02" nType="-99"/>
            <Node pos="r" depth="3" NCoef="0" IVar="-1" Cut="0.0000000000000000e+00" cType="1" res="1.4333907514810562e-02" rms="2.7051115036010742e-01" purity="1.6289284825325012e-01" nType="-99"/>
          </Node>
          <Node pos="r" depth="2" NCoef="0" IVar="3" Cut="1.9864454650878906e+02" cType="1" res="-7.4777863919734955e-03" rms="2.9212582111358643e-01" purity="2.1667844057083130e-01" nType="0">
            <Node pos="l" depth="3" NCoef="0" IVar="-1" Cut="0.0000000000000000e+00" cType="1" res="4.2830826714634895e-03" rms="2.6652762293815613e-01" purity="1.3578306138515472e-01" nType="-99"/>
            <Node pos="r" depth="3" NCoef="0" IVar="-1" Cut="0.0000000000000000e+00" cType="1" res="-1.8377136439085007e-02" rms="3.2148101925849915e-01" purity="3.2039600610733032e-01" nType="-99"/>
          </Node>
        </Node>
        <Node pos="r" depth="1" NCoef="0" IVar="8" Cut="-9.3285465240478516e-01" cType="1" res="4.7783516347408295e-03" rms="2.8937357664108276e-01" purity="6.9560027122497559e-01" nType="0">
          <Node pos="l" depth="2" NCoef="0" IVar="6" Cut="1.3364715576171875e+01" cType="1" res="1.9215915352106094e-02" rms="3.1200727820396423e-01" purity="5.1240015029907227e-01" nType="0">
            <Node pos="l" depth="3" NCoef="0" IVar="-1" Cut="0.0000000000000000e+00" cType="1" res="4.1050862520933151e-02" rms="3.2466748356819153e-01" purity="2.5797706842422485e-01" nType="-99"/>
            <Node pos="r" depth="3" NCoef="0" IVar="-1" Cut="0.0000000000000000e+00" cType="1" res="6.8531455472111702e-03" rms="3.0419883131980896e-01" purity="6.5106040239334106e-01" nType="-99"/>
          </Node>
          <Node pos="r" depth="2" NCoef="0" IVar="1" Cut="8.1850096583366394e-02" cType="1" res="2.3194893728941679e-03" rms="2.8526714444160461e-01" purity="7.2680109739303589e-01" nType="0">
            <Node pos="l" depth="3" NCoef="0" IVar="-1" Cut="0.0000000000000000e+00" cType="1" res="7.3637585155665874e-03" rms="3.2329115271568298e-01" purity="5.5757176876068115e-01" nType="-99"/>
            <Node pos="r" depth="3" NCoef="0" IVar="-1" Cut="0.0000000000000000e+00" cType="1" res="-4.6646436676383018e-03" rms="2.4363534152507782e-01" purity="8.8742935657501221e-01" nType="-99"/>
          </Node>
        </Node>
      </Node>
    </BinaryTree>
    <BinaryTree type="DecisionTree" boostWeight="1.0000000000000000e+00" itree="579">
      <Node pos="s" depth="0" NCoef="0" IVar="11" Cut="-1.6191785335540771e+00" cType="1" res="2.1325619891285896e-03" rms="2.8444477915763855e-01" purity="4.9991542100906372e-01" nType="0">
        <Node pos="l" depth="1" NCoef="0" IVar="3" Cut="2.4291604614257812e+02" cType="1" res="-2.5126154068857431e-03" rms="2.9196932911872864e-01" purity="2.5138634443283081e-01" nType="0">
          <Node pos="l" depth="2" NCoef="0" IVar="5" Cut="5.8338680267333984e+01" cType="1" res="2.0797196775674820e-03" rms="2.7215436100959778e-01" purity="1.7248892784118652e-01" nType="0">
            <Node pos="l" depth="3" NCoef="0" IVar="-1" Cut="0.0000000000000000e+00" cType="1" res="-9.0060010552406311e-03" rms="2.2242537140846252e-01" purity="7.6261177659034729e-02" nType="-99"/>
            <Node pos="r" depth="3" NCoef="0" IVar="-1" Cut="0.0000000000000000e+00" cType="1" res="7.5282822363078594e-03" rms="3.0129402875900269e-01" purity="2.3807024955749512e-01" nType="-99"/>
          </Node>
          <Node pos="r" depth="2" NCoef="0" IVar="9" Cut="3.9993911981582642e-01" cType="1" res="-1.3129840604960918e-02" rms="3.3305820822715759e-01" purity="4.3379285931587219e-01" nType="0">
            <Node pos="l" depth="3" NCoef="0" IVar="-1" Cut="0.0000000000000000e+00" cType="1" res="-2.4983782786875963e-03" rms="3.4071078896522522e-01" purity="4.6605941653251648e-01" nType="-99"/>
            <Node pos="r" depth="3" NCoef="0" IVar="-1" Cut="0.0000000000000000e+00" cType="1" res="-2.8821077197790146e-02" rms="3.1741362810134888e-01" purity="3.7363299727439880e-01" nType="-99"/>
          </Node>
        </Node>
        <Node pos="r" depth="1" NCoef="0" IVar="8" Cut="-1.1994709968566895e+00" cType="1" res="6.9756563752889633e-03" rms="2.7629843354225159e-01" purity="7.5903356075286865e-01" nType="0">
          <Node pos="l" depth="2" NCoef="0" IVar="-1" Cut="0.0000000000000000e+00" cType="1" res="3.6823641508817673e-02" rms="3.2836258411407471e-01" purity="5.1093715429306030e-01" nType="-99"/>
          <Node pos="r" depth="2" NCoef="0" IVar="1" Cut="1.0269251465797424e-01" cType="1" res="4.0029222145676613e-03" rms="2.7056932449340820e-01" purity="7.8293198347091675e-01" nType="0">
            <Node pos="l" depth="3" NCoef="0" IVar="-1" Cut="0.0000000000000000e+00" cType="1" res="8.8186739012598991e-03" rms="3.0672430992126465e-01" purity="6.7337262630462646e-01" nType="-99"/>
            <Node pos="r" depth="3" NCoef="0" IVar="-1" Cut="0.0000000000000000e+00" cType="1" res="-4.1619194671511650e-03" rms="2.1552224457263947e-01" purity="9.2304223775863647e-01" nType="-99"/>
          </Node>
        </Node>
      </Node>
    </BinaryTree>
    <BinaryTree type="DecisionTree" boostWeight="1.0000000000000000e+00" itree="580">
      <Node pos="s" depth="0" NCoef="0" IVar="8" Cut="6.6664135456085205e-01" cType="1" res="3.0068078194744885e-04" rms="2.8507402539253235e-01" purity="5.0164943933486938e-01" nType="0">
        <Node pos="l" depth="1" NCoef="0" IVar="8" Cut="3.3649295568466187e-01" cType="1" res="-2.3001851513981819e-03" rms="2.8654223680496216e-01" purity="5.4318511486053467e-01" nType="0">
          <Node pos="l" depth="2" NCoef="0" IVar="8" Cut="-4.1025850176811218e-01" cType="1" res="-2.6334644644521177e-04" rms="2.8605455160140991e-01" purity="5.3047502040863037e-01" nType="0">
            <Node pos="l" depth="3" NCoef="0" IVar="-1" Cut="0.0000000000000000e+00" cType="1" res="-6.2488657422363758e-03" rms="2.8418022394180298e-01" purity="4.2858874797821045e-01" nType="-99"/>
            <Node pos="r" depth="3" NCoef="0" IVar="-1" Cut="0.0000000000000000e+00" cType="1" res="6.0042985714972019e-03" rms="2.8801554441452026e-01" purity="6.4291405677795410e-01" nType="-99"/>
          </Node>
          <Node pos="r" depth="2" NCoef="0" IVar="0" Cut="1.5871596679687500e+03" cType="1" res="-1.2674652971327305e-02" rms="2.8879067301750183e-01" purity="6.0792273283004761e-01" nType="0">
            <Node pos="l" depth="3" NCoef="0" IVar="-1" Cut="0.0000000000000000e+00" cType="1" res="-1.9460408017039299e-02" rms="3.2611051201820374e-01" purity="3.5960802435874939e-01" nType="-99"/>
            <Node pos="r" depth="3" NCoef="0" IVar="-1" Cut="0.0000000000000000e+00" cType="1" res="-4.1974140331149101e-03" rms="2.4401427805423737e-01" purity="8.6393851041793823e-01" nType="-99"/>
          </Node>
        </Node>
        <Node pos="r" depth="1" NCoef="0" IVar="1" Cut="4.0198452770709991e-02" cType="1" res="8.2575427368283272e-03" rms="2.8038474917411804e-01" purity="3.7457880377769470e-01" nType="0">
          <Node pos="l" depth="2" NCoef="0" IVar="0" Cut="1.5130610351562500e+03" cType="1" res="1.1488799937069416e-03" rms="2.3898795247077942e-01" purity="1.4600798487663269e-01" nType="0">
            <Node pos="l" depth="3" NCoef="0" IVar="-1" Cut="0.0000000000000000e+00" cType="1" res="-1.2411441653966904e-02" rms="1.9059638679027557e-01" purity="5.9687744826078415e-02" nType="-99"/>
            <Node pos="r" depth="3" NCoef="0" IVar="-1" Cut="0.0000000000000000e+00" cType="1" res="1.6793243587017059e-02" rms="3.3666658401489258e-01" purity="3.8112583756446838e-01" nType="-99"/>
          </Node>
          <Node pos="r" depth="2" NCoef="0" IVar="8" Cut="9.5969992876052856e-01" cType="1" res="1.6045419499278069e-02" rms="3.1945931911468506e-01" purity="6.2498891353607178e-01" nType="0">
            <Node pos="l" depth="3" NCoef="0" IVar="-1" Cut="0.0000000000000000e+00" cType="1" res="-2.5386791676282883e-03" rms="3.0632197856903076e-01" purity="6.9833546876907349e-01" nType="-99"/>
            <Node pos="r" depth="3" NCoef="0" IVar="-1" Cut="0.0000000000000000e+00" cType="1" res="2.9226172715425491e-02" rms="3.2910707592964172e-01" purity="5.6466698646545410e-01" nType="-99"/>
          </Node>
        </Node>
      </Node>
    </BinaryTree>
    <BinaryTree type="DecisionTree" boostWeight="1.0000000000000000e+00" itree="581">
      <Node pos="s" depth="0" NCoef="0" IVar="10" Cut="1.9994002580642700e+00" cType="1" res="2.8399587608873844e-03" rms="2.8591597080230713e-01" purity="5.0336432456970215e-01" nType="0">
        <Node pos="l" depth="1" NCoef="0" IVar="7" Cut="1.4439286291599274e-01" cType="1" res="1.7550892662256956e-03" rms="2.8549772500991821e-01" purity="5.1408362388610840e-01" nType="0">
          <Node pos="l" depth="2" NCoef="0" IVar="3" Cut="1.4719407653808594e+02" cType="1" res="-1.7633771058171988e-03" rms="2.8429901599884033e-01" purity="5.3235495090484619e-01" nType="0">
            <Node pos="l" depth="3" NCoef="0" IVar="-1" Cut="0.0000000000000000e+00" cType="1" res="1.7261557281017303e-02" rms="2.5288534164428711e-01" purity="1.4681705832481384e-01" nType="-99"/>
            <Node pos="r" depth="3" NCoef="0" IVar="-1" Cut="0.0000000000000000e+00" cType="1" res="-4.7480640932917595e-03" rms="2.9006999731063843e-01" purity="6.0890835523605347e-01" nType="-99"/>
          </Node>
          <Node pos="r" depth="2" NCoef="0" IVar="8" Cut="1.4661995172500610e+00" cType="1" res="6.3961516134440899e-03" rms="2.8700527548789978e-01" purity="4.8998260498046875e-01" nType="0">
            <Node pos="l" depth="3" NCoef="0" IVar="-1" Cut="0.0000000000000000e+00" cType="1" res="5.3078341297805309e-03" rms="2.8793233633041382e-01" purity="5.1642060279846191e-01" nType="-99"/>
            <Node pos="r" depth="3" NCoef="0" IVar="-1" Cut="0.0000000000000000e+00" cType="1" res="4.7475311905145645e-02" rms="2.7548342943191528e-01" purity="1.9466397166252136e-01" nType="-99"/>
          </Node>
        </Node>
        <Node pos="r" depth="1" NCoef="0" IVar="-1" Cut="0.0000000000000000e+00" cType="1" res="3.0517503619194031e-02" rms="2.9311040043830872e-01" purity="2.9567551612854004e-01" nType="-99"/>
      </Node>
    </BinaryTree>
    <BinaryTree type="DecisionTree" boostWeight="1.0000000000000000e+00" itree="582">
      <Node pos="s" depth="0" NCoef="0" IVar="10" Cut="-1.7333452701568604e+00" cType="1" res="3.5526396241039038e-03" rms="2.8506070375442505e-01" purity="5.0170123577117920e-01" nType="0">
        <Node pos="l" depth="1" NCoef="0" IVar="2" Cut="3.9935900878906250e+02" cType="1" res="2.0154120400547981e-02" rms="2.9691144824028015e-01" purity="3.1020209193229675e-01" nType="0">
          <Node pos="l" depth="2" NCoef="0" IVar="-1" Cut="0.0000000000000000e+00" cType="1" res="1.1509752832353115e-02" rms="2.7353215217590332e-01" purity="2.6420357823371887e-01" nType="-99"/>
          <Node pos="r" depth="2" NCoef="0" IVar="-1" Cut="0.0000000000000000e+00" cType="1" res="4.4358178973197937e-02" rms="3.3879286050796509e-01" purity="4.0478160977363586e-01" nType="-99"/>
        </Node>
        <Node pos="r" depth="1" NCoef="0" IVar="10" Cut="1.9363656044006348e+00" cType="1" res="2.1389455068856478e-03" rms="2.8398388624191284e-01" purity="5.1800829172134399e-01" nType="0">
          <Node pos="l" depth="2" NCoef="0" IVar="10" Cut="1.2373509407043457e+00" cType="1" res="2.9592572245746851e-03" rms="2.8504174947738647e-01" purity="5.3434741497039795e-01" nType="0">
            <Node pos="l" depth="3" NCoef="0" IVar="-1" Cut="0.0000000000000000e+00" cType="1" res="1.4106841990724206e-03" rms="2.8427627682685852e-01" purity="5.4377377033233643e-01" nType="-99"/>
            <Node pos="r" depth="3" NCoef="0" IVar="-1" Cut="0.0000000000000000e+00" cType="1" res="1.8723689019680023e-02" rms="2.9032424092292786e-01" purity="4.6430799365043640e-01" nType="-99"/>
          </Node>
          <Node pos="r" depth="2" NCoef="0" IVar="7" Cut="2.0233118534088135e-01" cType="1" res="-1.1142449453473091e-02" rms="2.6592043042182922e-01" purity="2.5346642732620239e-01" nType="0">
            <Node pos="l" depth="3" NCoef="0" IVar="-1" Cut="0.0000000000000000e+00" cType="1" res="1.1806434486061335e-03" rms="2.7744299173355103e-01" purity="2.5142684578895569e-01" nType="-99"/>
            <Node pos="r" depth="3" NCoef="0" IVar="-1" Cut="0.0000000000000000e+00" cType="1" res="-3.3239502459764481e-02" rms="2.5201052427291870e-01" purity="2.5570362806320190e-01" nType="-99"/>
          </Node>
        </Node>
      </Node>
    </BinaryTree>
    <BinaryTree type="DecisionTree" boostWeight="1.0000000000000000e+00" itree="583">
      <Node pos="s" depth="0" NCoef="0" IVar="7" Cut="-3.9365124702453613e-01" cType="1" res="3.7507893284782767e-04" rms="2.8484722971916199e-01" purity="4.9929684400558472e-01" nType="0">
        <Node pos="l" depth="1" NCoef="0" IVar="1" Cut="5.8595731854438782e-02" cType="1" res="8.0509567633271217e-03" rms="2.8638482093811035e-01" purity="4.2228439450263977e-01" nType="0">
          <Node pos="l" depth="2" NCoef="0" IVar="5" Cut="1.0604334259033203e+02" cType="1" res="1.3888262212276459e-02" rms="2.7599325776100159e-01" purity="2.3719224333763123e-01" nType="0">
            <Node pos="l" depth="3" NCoef="0" IVar="-1" Cut="0.0000000000000000e+00" cType="1" res="1.3682357035577297e-02" rms="2.6782283186912537e-01" purity="1.6316075623035431e-01" nType="-99"/>
            <Node pos="r" depth="3" NCoef="0" IVar="-1" Cut="0.0000000000000000e+00" cType="1" res="3.6947477608919144e-02" rms="3.1958740949630737e-01" purity="6.8381625413894653e-01" nType="-99"/>
          </Node>
          <Node pos="r" depth="2" NCoef="0" IVar="8" Cut="1.1590380966663361e-01" cType="1" res="-1.2538018636405468e-03" rms="3.0197811126708984e-01" purity="7.1732419729232788e-01" nType="0">
            <Node pos="l" depth="3" NCoef="0" IVar="-1" Cut="0.0000000000000000e+00" cType="1" res="6.0540903359651566e-03" rms="2.9857939481735229e-01" purity="7.3566561937332153e-01" nType="-99"/>
            <Node pos="r" depth="3" NCoef="0" IVar="-1" Cut="0.0000000000000000e+00" cType="1" res="-1.3958401046693325e-02" rms="3.0722516775131226e-01" purity="6.8670690059661865e-01" nType="-99"/>
          </Node>
        </Node>
        <Node pos="r" depth="1" NCoef="0" IVar="9" Cut="-1.3344037532806396e-01" cType="1" res="-3.3767241984605789e-03" rms="2.8401717543601990e-01" purity="5.3693884611129761e-01" nType="0">
          <Node pos="l" depth="2" NCoef="0" IVar="8" Cut="-1.3341692090034485e-01" cType="1" res="-9.7854426130652428e-03" rms="2.8706783056259155e-01" purity="5.2865189313888550e-01" nType="0">
            <Node pos="l" depth="3" NCoef="0" IVar="-1" Cut="0.0000000000000000e+00" cType="1" res="1.0777089046314359e-03" rms="2.8515979647636414e-01" purity="5.1850914955139160e-01" nType="-99"/>
            <Node pos="r" depth="3" NCoef="0" IVar="-1" Cut="0.0000000000000000e+00" cType="1" res="-2.2909475490450859e-02" rms="2.8841915726661682e-01" purity="5.3765332698822021e-01" nType="-99"/>
          </Node>
          <Node pos="r" depth="2" NCoef="0" IVar="9" Cut="1.6823607683181763e+00" cType="1" res="1.3859835453331470e-03" rms="2.8163421154022217e-01" purity="5.4309743642807007e-01" nType="0">
            <Node pos="l" depth="3" NCoef="0" IVar="-1" Cut="0.0000000000000000e+00" cType="1" res="3.7026903592050076e-03" rms="2.8759965300559998e-01" purity="5.8418440818786621e-01" nType="-99"/>
            <Node pos="r" depth="3" NCoef="0" IVar="-1" Cut="0.0000000000000000e+00" cType="1" res="-1.8957562744617462e-02" rms="2.2411733865737915e-01" purity="1.9413514435291290e-01" nType="-99"/>
          </Node>
        </Node>
      </Node>
    </BinaryTree>
    <BinaryTree type="DecisionTree" boostWeight="1.0000000000000000e+00" itree="584">
      <Node pos="s" depth="0" NCoef="0" IVar="7" Cut="4.2127606272697449e-01" cType="1" res="-3.1696185469627380e-03" rms="2.8368803858757019e-01" purity="5.0110554695129395e-01" nType="0">
        <Node pos="l" depth="1" NCoef="0" IVar="8" Cut="6.6739761829376221e-01" cType="1" res="-8.4488885477185249e-04" rms="2.8533557057380676e-01" purity="5.4765027761459351e-01" nType="0">
          <Node pos="l" depth="2" NCoef="0" IVar="10" Cut="-4.0015214681625366e-01" cType="1" res="-3.4481438342481852e-03" rms="2.8622013330459595e-01" purity="5.8696842193603516e-01" nType="0">
            <Node pos="l" depth="3" NCoef="0" IVar="-1" Cut="0.0000000000000000e+00" cType="1" res="5.4380460642278194e-03" rms="2.9475802183151245e-01" purity="5.4924422502517700e-01" nType="-99"/>
            <Node pos="r" depth="3" NCoef="0" IVar="-1" Cut="0.0000000000000000e+00" cType="1" res="-1.1038356460630894e-02" rms="2.7997049689292908e-01" purity="6.1327987909317017e-01" nType="-99"/>
          </Node>
          <Node pos="r" depth="2" NCoef="0" IVar="10" Cut="6.6600978374481201e-01" cType="1" res="8.0068893730640411e-03" rms="2.8212743997573853e-01" purity="4.1395801305770874e-01" nType="0">
            <Node pos="l" depth="3" NCoef="0" IVar="-1" Cut="0.0000000000000000e+00" cType="1" res="3.2726203789934516e-04" rms="2.7443251013755798e-01" purity="4.2660334706306458e-01" nType="-99"/>
            <Node pos="r" depth="3" NCoef="0" IVar="-1" Cut="0.0000000000000000e+00" cType="1" res="3.0016403645277023e-02" rms="2.9680097103118896e-01" purity="3.8774648308753967e-01" nType="-99"/>
          </Node>
        </Node>
        <Node pos="r" depth="1" NCoef="0" IVar="11" Cut="-2.4477839469909668e+00" cType="1" res="-8.3020888268947601e-03" rms="2.7994802594184875e-01" purity="3.9834538102149963e-01" nType="0">
          <Node pos="l" depth="2" NCoef="0" IVar="8" Cut="-6.6621571779251099e-01" cType="1" res="-5.1609601359814405e-04" rms="2.7087110280990601e-01" purity="1.6944912075996399e-01" nType="0">
            <Node pos="l" depth="3" NCoef="0" IVar="-1" Cut="0.0000000000000000e+00" cType="1" res="2.9829204082489014e-02" rms="2.4500718712806702e-01" purity="1.0975258797407150e-01" nType="-99"/>
            <Node pos="r" depth="3" NCoef="0" IVar="-1" Cut="0.0000000000000000e+00" cType="1" res="-7.6609244570136070e-03" rms="2.7984580397605896e-01" purity="1.9210644066333771e-01" nType="-99"/>
          </Node>
          <Node pos="r" depth="2" NCoef="0" IVar="5" Cut="8.3106430053710938e+01" cType="1" res="-1.7049759626388550e-02" rms="2.8955745697021484e-01" purity="6.5551346540451050e-01" nType="0">
            <Node pos="l" depth="3" NCoef="0" IVar="-1" Cut="0.0000000000000000e+00" cType="1" res="-3.3069387078285217e-02" rms="3.1551650166511536e-01" purity="3.3186239004135132e-01" nType="-99"/>
            <Node pos="r" depth="3" NCoef="0" IVar="-1" Cut="0.0000000000000000e+00" cType="1" res="-1.0852430015802383e-02" rms="2.7627101540565491e-01" purity="8.0537074804306030e-01" nType="-99"/>
          </Node>
        </Node>
      </Node>
    </BinaryTree>
    <BinaryTree type="DecisionTree" boostWeight="1.0000000000000000e+00" itree="585">
      <Node pos="s" depth="0" NCoef="0" IVar="8" Cut="-3.9998671412467957e-01" cType="1" res="-2.0168493501842022e-03" rms="2.8384715318679810e-01" purity="4.9884903430938721e-01" nType="0">
        <Node pos="l" depth="1" NCoef="0" IVar="6" Cut="8.0188293457031250e+01" cType="1" res="5.9387320652604103e-03" rms="2.8845751285552979e-01" purity="4.4235673546791077e-01" nType="0">
          <Node pos="l" depth="2" NCoef="0" IVar="4" Cut="1.7692834472656250e+02" cType="1" res="8.3710057660937309e-03" rms="3.0032318830490112e-01" purity="3.2504087686538696e-01" nType="0">
            <Node pos="l" depth="3" NCoef="0" IVar="-1" Cut="0.0000000000000000e+00" cType="1" res="4.9121496267616749e-03" rms="2.8373721241950989e-01" purity="2.2582422196865082e-01" nType="-99"/>
            <Node pos="r" depth="3" NCoef="0" IVar="-1" Cut="0.0000000000000000e+00" cType="1" res="1.8063694238662720e-02" rms="3.4383267164230347e-01" purity="6.1435973644256592e-01" nType="-99"/>
          </Node>
          <Node pos="r" depth="2" NCoef="0" IVar="-1" Cut="0.0000000000000000e+00" cType="1" res="-6.0675567947328091e-03" rms="2.3792891204357147e-01" purity="8.8718646764755249e-01" nType="-99"/>
        </Node>
        <Node pos="r" depth="1" NCoef="0" IVar="6" Cut="5.3377632141113281e+01" cType="1" res="-6.1201564967632294e-03" rms="2.8135177493095398e-01" purity="5.2798646688461304e-01" nType="0">
          <Node pos="l" depth="2" NCoef="0" IVar="1" Cut="7.8407779335975647e-02" cType="1" res="-1.2930403463542461e-02" rms="2.9735752940177917e-01" purity="2.5468581914901733e-01" nType="0">
            <Node pos="l" depth="3" NCoef="0" IVar="-1" Cut="0.0000000000000000e+00" cType="1" res="-1.0462663136422634e-02" rms="2.7292194962501526e-01" purity="1.7777943611145020e-01" nType="-99"/>
            <Node pos="r" depth="3" NCoef="0" IVar="-1" Cut="0.0000000000000000e+00" cType="1" res="-2.0567148923873901e-02" rms="3.6439117789268494e-01" purity="5.0132673978805542e-01" nType="-99"/>
          </Node>
          <Node pos="r" depth="2" NCoef="0" IVar="3" Cut="1.8153979492187500e+02" cType="1" res="7.4582546949386597e-04" rms="2.6405763626098633e-01" purity="8.0352371931076050e-01" nType="0">
            <Node pos="l" depth="3" NCoef="0" IVar="-1" Cut="0.0000000000000000e+00" cType="1" res="2.0374650135636330e-02" rms="3.1072396039962769e-01" purity="5.8250075578689575e-01" nType="-99"/>
            <Node pos="r" depth="3" NCoef="0" IVar="-1" Cut="0.0000000000000000e+00" cType="1" res="-6.2326723709702492e-03" rms="2.5280913710594177e-01" purity="8.5038423538208008e-01" nType="-99"/>
          </Node>
        </Node>
      </Node>
    </BinaryTree>
    <BinaryTree type="DecisionTree" boostWeight="1.0000000000000000e+00" itree="586">
      <Node pos="s" depth="0" NCoef="0" IVar="8" Cut="-3.9998671412467957e-01" cType="1" res="2.2922828793525696e-03" rms="2.8440952301025391e-01" purity="5.0688225030899048e-01" nType="0">
        <Node pos="l" depth="1" NCoef="0" IVar="9" Cut="-1.4667489528656006e+00" cType="1" res="-4.2061577551066875e-03" rms="2.8127357363700867e-01" purity="4.3792986869812012e-01" nType="0">
          <Node pos="l" depth="2" NCoef="0" IVar="-1" Cut="0.0000000000000000e+00" cType="1" res="2.0372584462165833e-02" rms="2.6220923662185669e-01" purity="2.3766794800758362e-01" nType="-99"/>
          <Node pos="r" depth="2" NCoef="0" IVar="9" Cut="-4.4505357742309570e-02" cType="1" res="-6.6617485135793686e-03" rms="2.8358674049377441e-01" purity="4.6418994665145874e-01" nType="0">
            <Node pos="l" depth="3" NCoef="0" IVar="-1" Cut="0.0000000000000000e+00" cType="1" res="-1.4802754856646061e-02" rms="2.9012429714202881e-01" purity="4.9787792563438416e-01" nType="-99"/>
            <Node pos="r" depth="3" NCoef="0" IVar="-1" Cut="0.0000000000000000e+00" cType="1" res="-1.2465646723285317e-03" rms="2.7729752659797668e-01" purity="4.3310821056365967e-01" nType="-99"/>
          </Node>
        </Node>
        <Node pos="r" depth="1" NCoef="0" IVar="10" Cut="-1.4663920402526855e+00" cType="1" res="5.5484240874648094e-03" rms="2.8591236472129822e-01" purity="5.4143190383911133e-01" nType="0">
          <Node pos="l" depth="2" NCoef="0" IVar="4" Cut="1.6291323852539062e+02" cType="1" res="-1.4098936691880226e-02" rms="2.7778109908103943e-01" purity="3.6295738816261292e-01" nType="0">
            <Node pos="l" depth="3" NCoef="0" IVar="-1" Cut="0.0000000000000000e+00" cType="1" res="-3.0070561915636063e-02" rms="2.6249662041664124e-01" purity="2.1026420593261719e-01" nType="-99"/>
            <Node pos="r" depth="3" NCoef="0" IVar="-1" Cut="0.0000000000000000e+00" cType="1" res="1.3682069256901741e-03" rms="2.9940709471702576e-01" purity="6.0094630718231201e-01" nType="-99"/>
          </Node>
          <Node pos="r" depth="2" NCoef="0" IVar="4" Cut="9.4495697021484375e+01" cType="1" res="7.8380601480603218e-03" rms="2.8675740957260132e-01" purity="5.6223070621490479e-01" nType="0">
            <Node pos="l" depth="3" NCoef="0" IVar="-1" Cut="0.0000000000000000e+00" cType="1" res="-8.7244873866438866e-03" rms="2.1805208921432495e-01" purity="8.0144532024860382e-02" nType="-99"/>
            <Node pos="r" depth="3" NCoef="0" IVar="-1" Cut="0.0000000000000000e+00" cType="1" res="1.0877792723476887e-02" rms="2.9546132683753967e-01" purity="6.3301867246627808e-01" nType="-99"/>
          </Node>
        </Node>
      </Node>
    </BinaryTree>
    <BinaryTree type="DecisionTree" boostWeight="1.0000000000000000e+00" itree="587">
      <Node pos="s" depth="0" NCoef="0" IVar="1" Cut="4.1803035885095596e-02" cType="1" res="-1.5386384911835194e-03" rms="2.8277704119682312e-01" purity="4.9735406041145325e-01" nType="0">
        <Node pos="l" depth="1" NCoef="0" IVar="0" Cut="1.4296734619140625e+03" cType="1" res="-6.6048228181898594e-03" rms="2.5898325443267822e-01" purity="2.0258381962776184e-01" nType="0">
          <Node pos="l" depth="2" NCoef="0" IVar="8" Cut="6.6652441024780273e-01" cType="1" res="-2.8125254902988672e-04" rms="2.1320603787899017e-01" purity="6.5966680645942688e-02" nType="0">
            <Node pos="l" depth="3" NCoef="0" IVar="-1" Cut="0.0000000000000000e+00" cType="1" res="-1.3894398696720600e-02" rms="2.1306227147579193e-01" purity="6.5581269562244415e-02" nType="-99"/>
            <Node pos="r" depth="3" NCoef="0" IVar="-1" Cut="0.0000000000000000e+00" cType="1" res="3.1506221741437912e-02" rms="2.1292136609554291e-01" purity="6.6703073680400848e-02" nType="-99"/>
          </Node>
          <Node pos="r" depth="2" NCoef="0" IVar="10" Cut="-9.3292313814163208e-01" cType="1" res="-1.7124161124229431e-02" rms="3.2070678472518921e-01" purity="4.2984816431999207e-01" nType="0">
            <Node pos="l" depth="3" NCoef="0" IVar="-1" Cut="0.0000000000000000e+00" cType="1" res="7.5637828558683395e-03" rms="3.2962301373481750e-01" purity="3.5130375623703003e-01" nType="-99"/>
            <Node pos="r" depth="3" NCoef="0" IVar="-1" Cut="0.0000000000000000e+00" cType="1" res="-2.1247887983918190e-02" rms="3.1792485713958740e-01" purity="4.5096972584724426e-01" nType="-99"/>
          </Node>
        </Node>
        <Node pos="r" depth="1" NCoef="0" IVar="8" Cut="1.1575622558593750e+00" cType="1" res="1.9114201422780752e-03" rms="2.9784539341926575e-01" purity="6.9809180498123169e-01" nType="0">
          <Node pos="l" depth="2" NCoef="0" IVar="9" Cut="9.3190449476242065e-01" cType="1" res="1.9491152488626540e-04" rms="2.9800525307655334e-01" purity="7.0875996351242065e-01" nType="0">
            <Node pos="l" depth="3" NCoef="0" IVar="-1" Cut="0.0000000000000000e+00" cType="1" res="3.2800820190459490e-03" rms="2.9439517855644226e-01" purity="7.3432576656341553e-01" nType="-99"/>
            <Node pos="r" depth="3" NCoef="0" IVar="-1" Cut="0.0000000000000000e+00" cType="1" res="-1.3803792186081409e-02" rms="3.1658002734184265e-01" purity="5.6926155090332031e-01" nType="-99"/>
          </Node>
          <Node pos="r" depth="2" NCoef="0" IVar="-1" Cut="0.0000000000000000e+00" cType="1" res="2.3063717409968376e-02" rms="2.9480713605880737e-01" purity="5.5780762434005737e-01" nType="-99"/>
        </Node>
      </Node>
    </BinaryTree>
    <BinaryTree type="DecisionTree" boostWeight="1.0000000000000000e+00" itree="588">
      <Node pos="s" depth="0" NCoef="0" IVar="8" Cut="6.6661250591278076e-01" cType="1" res="2.8788395866286010e-05" rms="2.8291201591491699e-01" purity="5.0204771757125854e-01" nType="0">
        <Node pos="l" depth="1" NCoef="0" IVar="5" Cut="8.6492210388183594e+01" cType="1" res="3.1583202071487904e-03" rms="2.8690773248672485e-01" purity="5.4654198884963989e-01" nType="0">
          <Node pos="l" depth="2" NCoef="0" IVar="3" Cut="1.4779833984375000e+02" cType="1" res="6.3300393521785736e-03" rms="3.0931794643402100e-01" purity="3.0206981301307678e-01" nType="0">
            <Node pos="l" depth="3" NCoef="0" IVar="-1" Cut="0.0000000000000000e+00" cType="1" res="-4.1443882510066032e-03" rms="2.3234780132770538e-01" purity="9.5523558557033539e-02" nType="-99"/>
            <Node pos="r" depth="3" NCoef="0" IVar="-1" Cut="0.0000000000000000e+00" cType="1" res="8.4748361259698868e-03" rms="3.3301955461502075e-01" purity="3.7767577171325684e-01" nType="-99"/>
          </Node>
          <Node pos="r" depth="2" NCoef="0" IVar="10" Cut="-9.3158388137817383e-01" cType="1" res="-5.7126983301714063e-04" rms="2.5802832841873169e-01" purity="8.3401423692703247e-01" nType="0">
            <Node pos="l" depth="3" NCoef="0" IVar="-1" Cut="0.0000000000000000e+00" cType="1" res="-2.3269601166248322e-02" rms="2.7955713868141174e-01" purity="7.5687605142593384e-01" nType="-99"/>
            <Node pos="r" depth="3" NCoef="0" IVar="-1" Cut="0.0000000000000000e+00" cType="1" res="5.2810357883572578e-03" rms="2.5251933932304382e-01" purity="8.5217088460922241e-01" nType="-99"/>
          </Node>
        </Node>
        <Node pos="r" depth="1" NCoef="0" IVar="7" Cut="2.0210464298725128e-01" cType="1" res="-9.7977640107274055e-03" rms="2.6974573731422424e-01" purity="3.6233794689178467e-01" nType="0">
          <Node pos="l" depth="2" NCoef="0" IVar="1" Cut="5.6674387305974960e-02" cType="1" res="-1.8708340823650360e-02" rms="2.6941722631454468e-01" purity="3.4760504961013794e-01" nType="0">
            <Node pos="l" depth="3" NCoef="0" IVar="-1" Cut="0.0000000000000000e+00" cType="1" res="-1.5336395241320133e-02" rms="2.4042676389217377e-01" purity="1.6662445664405823e-01" nType="-99"/>
            <Node pos="r" depth="3" NCoef="0" IVar="-1" Cut="0.0000000000000000e+00" cType="1" res="-3.4847211092710495e-02" rms="3.0970790982246399e-01" purity="6.3725656270980835e-01" nType="-99"/>
          </Node>
          <Node pos="r" depth="2" NCoef="0" IVar="10" Cut="-1.3437217473983765e-01" cType="1" res="6.7984621273353696e-04" rms="2.6975527405738831e-01" purity="3.7966182827949524e-01" nType="0">
            <Node pos="l" depth="3" NCoef="0" IVar="-1" Cut="0.0000000000000000e+00" cType="1" res="2.5733808055520058e-02" rms="2.8738015890121460e-01" purity="4.1281080245971680e-01" nType="-99"/>
            <Node pos="r" depth="3" NCoef="0" IVar="-1" Cut="0.0000000000000000e+00" cType="1" res="-1.3245730660855770e-02" rms="2.5864738225936890e-01" purity="3.6097592115402222e-01" nType="-99"/>
          </Node>
        </Node>
      </Node>
    </BinaryTree>
    <BinaryTree type="DecisionTree" boostWeight="1.0000000000000000e+00" itree="589">
      <Node pos="s" depth="0" NCoef="0" IVar="7" Cut="-8.9650410413742065e-01" cType="1" res="2.5321377906948328e-03" rms="2.8366535902023315e-01" purity="5.0445848703384399e-01" nType="0">
        <Node pos="l" depth="1" NCoef="0" IVar="8" Cut="-1.2000087499618530e+00" cType="1" res="-8.1955492496490479e-03" rms="2.5155264139175415e-01" purity="2.5004220008850098e-01" nType="0">
          <Node pos="l" depth="2" NCoef="0" IVar="-1" Cut="0.0000000000000000e+00" cType="1" res="2.6047045364975929e-02" rms="2.1976244449615479e-01" purity="1.4473234117031097e-01" nType="-99"/>
          <Node pos="r" depth="2" NCoef="0" IVar="7" Cut="-1.4940583705902100e+00" cType="1" res="-1.2562877498567104e-02" rms="2.5758570432662964e-01" purity="2.7239710092544556e-01" nType="0">
            <Node pos="l" depth="3" NCoef="0" IVar="-1" Cut="0.0000000000000000e+00" cType="1" res="-1.4257306465879083e-03" rms="2.0435495674610138e-01" purity="1.3057950139045715e-01" nType="-99"/>
            <Node pos="r" depth="3" NCoef="0" IVar="-1" Cut="0.0000000000000000e+00" cType="1" res="-2.1667074412107468e-02" rms="2.8113004565238953e-01" purity="3.4618985652923584e-01" nType="-99"/>
          </Node>
        </Node>
        <Node pos="r" depth="1" NCoef="0" IVar="9" Cut="-1.2000033855438232e+00" cType="1" res="4.4938004575669765e-03" rms="2.8910902142524719e-01" purity="5.5098098516464233e-01" nType="0">
          <Node pos="l" depth="2" NCoef="0" IVar="5" Cut="9.2032348632812500e+01" cType="1" res="-6.6617345437407494e-03" rms="2.7980229258537292e-01" purity="3.2116588950157166e-01" nType="0">
            <Node pos="l" depth="3" NCoef="0" IVar="-1" Cut="0.0000000000000000e+00" cType="1" res="-1.8417047336697578e-02" rms="2.7015280723571777e-01" purity="1.7531116306781769e-01" nType="-99"/>
            <Node pos="r" depth="3" NCoef="0" IVar="-1" Cut="0.0000000000000000e+00" cType="1" res="1.5373889356851578e-02" rms="3.0383226275444031e-01" purity="7.2359526157379150e-01" nType="-99"/>
          </Node>
          <Node pos="r" depth="2" NCoef="0" IVar="8" Cut="1.4663001298904419e+00" cType="1" res="6.0007409192621708e-03" rms="2.9031047224998474e-01" purity="5.8202546834945679e-01" nType="0">
            <Node pos="l" depth="3" NCoef="0" IVar="-1" Cut="0.0000000000000000e+00" cType="1" res="8.2019176334142685e-03" rms="2.9342126846313477e-01" purity="6.1019849777221680e-01" nType="-99"/>
            <Node pos="r" depth="3" NCoef="0" IVar="-1" Cut="0.0000000000000000e+00" cType="1" res="-1.5955640003085136e-02" rms="2.4352060258388519e-01" purity="1.9901591539382935e-01" nType="-99"/>
          </Node>
        </Node>
      </Node>
    </BinaryTree>
    <BinaryTree type="DecisionTree" boostWeight="1.0000000000000000e+00" itree="590">
      <Node pos="s" depth="0" NCoef="0" IVar="0" Cut="1.4400817871093750e+03" cType="1" res="1.3277850812301040e-03" rms="2.8657755255699158e-01" purity="5.0139915943145752e-01" nType="0">
        <Node pos="l" depth="1" NCoef="0" IVar="1" Cut="4.1798166930675507e-02" cType="1" res="7.1784658357501030e-03" rms="2.9213759303092957e-01" purity="2.2227038443088531e-01" nType="0">
          <Node pos="l" depth="2" NCoef="0" IVar="1" Cut="2.3884616792201996e-02" cType="1" res="3.7004539626650512e-04" rms="2.0818445086479187e-01" purity="6.7103870213031769e-02" nType="0">
            <Node pos="l" depth="3" NCoef="0" IVar="-1" Cut="0.0000000000000000e+00" cType="1" res="-1.3845693320035934e-02" rms="1.6053943336009979e-01" purity="3.4651324152946472e-02" nType="-99"/>
            <Node pos="r" depth="3" NCoef="0" IVar="-1" Cut="0.0000000000000000e+00" cType="1" res="1.2126296758651733e-02" rms="2.8105464577674866e-01" purity="1.3319440186023712e-01" nType="-99"/>
          </Node>
          <Node pos="r" depth="2" NCoef="0" IVar="11" Cut="-7.9136103391647339e-01" cType="1" res="1.5271292999386787e-02" rms="3.6762940883636475e-01" purity="4.0670901536941528e-01" nType="0">
            <Node pos="l" depth="3" NCoef="0" IVar="-1" Cut="0.0000000000000000e+00" cType="1" res="1.9874945282936096e-02" rms="3.6084219813346863e-01" purity="3.2111775875091553e-01" nType="-99"/>
            <Node pos="r" depth="3" NCoef="0" IVar="-1" Cut="0.0000000000000000e+00" cType="1" res="-5.6052496656775475e-03" rms="3.8234779238700867e-01" purity="6.1183732748031616e-01" nType="-99"/>
          </Node>
        </Node>
        <Node pos="r" depth="1" NCoef="0" IVar="8" Cut="1.1996871232986450e+00" cType="1" res="-4.1081681847572327e-03" rms="2.8120410442352295e-01" purity="7.6074171066284180e-01" nType="0">
          <Node pos="l" depth="2" NCoef="0" IVar="9" Cut="-1.4668287038803101e+00" cType="1" res="-5.5796699598431587e-03" rms="2.7977412939071655e-01" purity="7.8173542022705078e-01" nType="0">
            <Node pos="l" depth="3" NCoef="0" IVar="-1" Cut="0.0000000000000000e+00" cType="1" res="1.1515567079186440e-02" rms="3.3131566643714905e-01" purity="4.9130144715309143e-01" nType="-99"/>
            <Node pos="r" depth="3" NCoef="0" IVar="-1" Cut="0.0000000000000000e+00" cType="1" res="-8.7412344291806221e-03" rms="2.7654066681861877e-01" purity="7.9814982414245605e-01" nType="-99"/>
          </Node>
          <Node pos="r" depth="2" NCoef="0" IVar="-1" Cut="0.0000000000000000e+00" cType="1" res="1.4053913764655590e-02" rms="2.9708021879196167e-01" purity="5.1183229684829712e-01" nType="-99"/>
        </Node>
      </Node>
    </BinaryTree>
    <BinaryTree type="DecisionTree" boostWeight="1.0000000000000000e+00" itree="591">
      <Node pos="s" depth="0" NCoef="0" IVar="2" Cut="6.9907727050781250e+02" cType="1" res="4.4827800593338907e-04" rms="2.8349369764328003e-01" purity="5.0198501348495483e-01" nType="0">
        <Node pos="l" depth="1" NCoef="0" IVar="3" Cut="2.3471551513671875e+02" cType="1" res="-5.9437821619212627e-04" rms="2.8084474802017212e-01" purity="4.9725624918937683e-01" nType="0">
          <Node pos="l" depth="2" NCoef="0" IVar="3" Cut="2.2607783508300781e+02" cType="1" res="-4.4515021145343781e-03" rms="2.7926442027091980e-01" purity="3.5143780708312988e-01" nType="0">
            <Node pos="l" depth="3" NCoef="0" IVar="-1" Cut="0.0000000000000000e+00" cType="1" res="-7.9878736287355423e-03" rms="2.7616384625434875e-01" purity="3.3300217986106873e-01" nType="-99"/>
            <Node pos="r" depth="3" NCoef="0" IVar="-1" Cut="0.0000000000000000e+00" cType="1" res="2.2452797740697861e-02" rms="3.1800886988639832e-01" purity="6.0699248313903809e-01" nType="-99"/>
          </Node>
          <Node pos="r" depth="2" NCoef="0" IVar="7" Cut="7.2246605157852173e-01" cType="1" res="4.7831679694354534e-03" rms="2.8294551372528076e-01" purity="7.0055413246154785e-01" nType="0">
            <Node pos="l" depth="3" NCoef="0" IVar="-1" Cut="0.0000000000000000e+00" cType="1" res="9.5835728570818901e-03" rms="2.7929064631462097e-01" purity="7.4311238527297974e-01" nType="-99"/>
            <Node pos="r" depth="3" NCoef="0" IVar="-1" Cut="0.0000000000000000e+00" cType="1" res="-1.1485918425023556e-02" rms="3.0087390542030334e-01" purity="4.7808176279067993e-01" nType="-99"/>
          </Node>
        </Node>
        <Node pos="r" depth="1" NCoef="0" IVar="-1" Cut="0.0000000000000000e+00" cType="1" res="2.0570540800690651e-02" rms="3.3646667003631592e-01" purity="6.0766440629959106e-01" nType="-99"/>
      </Node>
    </BinaryTree>
    <BinaryTree type="DecisionTree" boostWeight="1.0000000000000000e+00" itree="592">
      <Node pos="s" depth="0" NCoef="0" IVar="9" Cut="-6.6683799028396606e-01" cType="1" res="-1.4985788147896528e-03" rms="2.8360199928283691e-01" purity="4.9979344010353088e-01" nType="0">
        <Node pos="l" depth="1" NCoef="0" IVar="0" Cut="1.8496782226562500e+03" cType="1" res="6.1174281872808933e-03" rms="2.8875783085823059e-01" purity="4.0888884663581848e-01" nType="0">
          <Node pos="l" depth="2" NCoef="0" IVar="4" Cut="1.9102166748046875e+02" cType="1" res="9.5472941175103188e-03" rms="2.9436406493186951e-01" purity="3.1954720616340637e-01" nType="0">
            <Node pos="l" depth="3" NCoef="0" IVar="-1" Cut="0.0000000000000000e+00" cType="1" res="6.2891738489270210e-03" rms="2.8706946969032288e-01" purity="2.7828180789947510e-01" nType="-99"/>
            <Node pos="r" depth="3" NCoef="0" IVar="-1" Cut="0.0000000000000000e+00" cType="1" res="3.1606595963239670e-02" rms="3.3260259032249451e-01" purity="5.6030827760696411e-01" nType="-99"/>
          </Node>
          <Node pos="r" depth="2" NCoef="0" IVar="-1" Cut="0.0000000000000000e+00" cType="1" res="-1.3562872074544430e-02" rms="2.6135361194610596e-01" purity="8.1285667419433594e-01" nType="-99"/>
        </Node>
        <Node pos="r" depth="1" NCoef="0" IVar="3" Cut="1.3114212036132812e+02" cType="1" res="-4.3141390196979046e-03" rms="2.8161990642547607e-01" purity="5.3339993953704834e-01" nType="0">
          <Node pos="l" depth="2" NCoef="0" IVar="3" Cut="1.1627293395996094e+02" cType="1" res="7.9107815399765968e-03" rms="2.1949361264705658e-01" purity="9.5784671604633331e-02" nType="0">
            <Node pos="l" depth="3" NCoef="0" IVar="-1" Cut="0.0000000000000000e+00" cType="1" res="-1.2278452515602112e-02" rms="1.6864503920078278e-01" purity="4.7303538769483566e-02" nType="-99"/>
            <Node pos="r" depth="3" NCoef="0" IVar="-1" Cut="0.0000000000000000e+00" cType="1" res="4.2951751500368118e-02" rms="2.8462687134742737e-01" purity="1.7807893455028534e-01" nType="-99"/>
          </Node>
          <Node pos="r" depth="2" NCoef="0" IVar="10" Cut="9.3320566415786743e-01" cType="1" res="-5.8191502466797829e-03" rms="2.8830856084823608e-01" purity="5.8727473020553589e-01" nType="0">
            <Node pos="l" depth="3" NCoef="0" IVar="-1" Cut="0.0000000000000000e+00" cType="1" res="-3.3824732527136803e-03" rms="2.8546091914176941e-01" purity="6.2108683586120605e-01" nType="-99"/>
            <Node pos="r" depth="3" NCoef="0" IVar="-1" Cut="0.0000000000000000e+00" cType="1" res="-1.7116153612732887e-02" rms="2.9746490716934204e-01" purity="4.7367396950721741e-01" nType="-99"/>
          </Node>
        </Node>
      </Node>
    </BinaryTree>
    <BinaryTree type="DecisionTree" boostWeight="1.0000000000000000e+00" itree="593">
      <Node pos="s" depth="0" NCoef="0" IVar="7" Cut="1.5936683118343353e-01" cType="1" res="-1.4285034267231822e-03" rms="2.8513666987419128e-01" purity="5.0252366065979004e-01" nType="0">
        <Node pos="l" depth="1" NCoef="0" IVar="1" Cut="1.4641977846622467e-01" cType="1" res="-5.9074764139950275e-03" rms="2.8438642621040344e-01" purity="5.1919114589691162e-01" nType="0">
          <Node pos="l" depth="2" NCoef="0" IVar="5" Cut="7.1512405395507812e+01" cType="1" res="-8.1863328814506531e-03" rms="2.9208001494407654e-01" purity="4.4358569383621216e-01" nType="0">
            <Node pos="l" depth="3" NCoef="0" IVar="-1" Cut="0.0000000000000000e+00" cType="1" res="-1.6430047980975360e-04" rms="2.7933293581008911e-01" purity="1.7635853588581085e-01" nType="-99"/>
            <Node pos="r" depth="3" NCoef="0" IVar="-1" Cut="0.0000000000000000e+00" cType="1" res="-1.5746150165796280e-02" rms="3.0182752013206482e-01" purity="6.5945029258728027e-01" nType="-99"/>
          </Node>
          <Node pos="r" depth="2" NCoef="0" IVar="-1" Cut="0.0000000000000000e+00" cType="1" res="8.5804732516407967e-03" rms="2.4328501522541046e-01" purity="8.8639134168624878e-01" nType="-99"/>
        </Node>
        <Node pos="r" depth="1" NCoef="0" IVar="9" Cut="3.9944919943809509e-01" cType="1" res="4.5620915479958057e-03" rms="2.8602740168571472e-01" purity="4.8023107647895813e-01" nType="0">
          <Node pos="l" depth="2" NCoef="0" IVar="5" Cut="8.2923034667968750e+01" cType="1" res="1.0726470500230789e-02" rms="2.8767254948616028e-01" purity="5.1254719495773315e-01" nType="0">
            <Node pos="l" depth="3" NCoef="0" IVar="-1" Cut="0.0000000000000000e+00" cType="1" res="2.3158678784966469e-02" rms="3.0004537105560303e-01" purity="2.6270928978919983e-01" nType="-99"/>
            <Node pos="r" depth="3" NCoef="0" IVar="-1" Cut="0.0000000000000000e+00" cType="1" res="6.0372363077476621e-04" rms="2.7307814359664917e-01" purity="7.8678685426712036e-01" nType="-99"/>
          </Node>
          <Node pos="r" depth="2" NCoef="0" IVar="8" Cut="1.1995851993560791e+00" cType="1" res="-4.7797868028283119e-03" rms="2.8326046466827393e-01" purity="4.3125724792480469e-01" nType="0">
            <Node pos="l" depth="3" NCoef="0" IVar="-1" Cut="0.0000000000000000e+00" cType="1" res="-8.6917931912466884e-04" rms="2.9281008243560791e-01" purity="4.7454956173896790e-01" nType="-99"/>
            <Node pos="r" depth="3" NCoef="0" IVar="-1" Cut="0.0000000000000000e+00" cType="1" res="-4.5600153505802155e-02" rms="2.2056591510772705e-01" purity="1.8745298683643341e-01" nType="-99"/>
          </Node>
        </Node>
      </Node>
    </BinaryTree>
    <BinaryTree type="DecisionTree" boostWeight="1.0000000000000000e+00" itree="594">
      <Node pos="s" depth="0" NCoef="0" IVar="10" Cut="1.3326108455657959e-01" cType="1" res="-2.2527400869876146e-03" rms="2.8229799866676331e-01" purity="4.9705675244331360e-01" nType="0">
        <Node pos="l" depth="1" NCoef="0" IVar="7" Cut="1.2107652425765991e+00" cType="1" res="-5.8672642335295677e-03" rms="2.8337672352790833e-01" purity="4.9848183989524841e-01" nType="0">
          <Node pos="l" depth="2" NCoef="0" IVar="0" Cut="1.4296734619140625e+03" cType="1" res="-7.6103573665022850e-03" rms="2.8844520449638367e-01" purity="5.2817547321319580e-01" nType="0">
            <Node pos="l" depth="3" NCoef="0" IVar="-1" Cut="0.0000000000000000e+00" cType="1" res="-1.5802096575498581e-02" rms="2.9488268494606018e-01" purity="2.1826338768005371e-01" nType="-99"/>
            <Node pos="r" depth="3" NCoef="0" IVar="-1" Cut="0.0000000000000000e+00" cType="1" res="-2.1642497740685940e-03" rms="2.8301465511322021e-01" purity="7.7789515256881714e-01" nType="-99"/>
          </Node>
          <Node pos="r" depth="2" NCoef="0" IVar="-1" Cut="0.0000000000000000e+00" cType="1" res="2.8052775189280510e-02" rms="2.1842718124389648e-01" purity="1.6875173151493073e-01" nType="-99"/>
        </Node>
        <Node pos="r" depth="1" NCoef="0" IVar="7" Cut="-6.5116810798645020e-01" cType="1" res="1.9644002895802259e-03" rms="2.8097543120384216e-01" purity="4.9539405107498169e-01" nType="0">
          <Node pos="l" depth="2" NCoef="0" IVar="8" Cut="-1.2908825278282166e-01" cType="1" res="1.5747614204883575e-02" rms="2.7754545211791992e-01" purity="3.3168071508407593e-01" nType="0">
            <Node pos="l" depth="3" NCoef="0" IVar="-1" Cut="0.0000000000000000e+00" cType="1" res="9.2117290478199720e-04" rms="2.6731234788894653e-01" purity="3.2274225354194641e-01" nType="-99"/>
            <Node pos="r" depth="3" NCoef="0" IVar="-1" Cut="0.0000000000000000e+00" cType="1" res="3.6419600248336792e-02" rms="2.8514626622200012e-01" purity="3.3908450603485107e-01" nType="-99"/>
          </Node>
          <Node pos="r" depth="2" NCoef="0" IVar="9" Cut="-1.1995688676834106e+00" cType="1" res="-1.5359758399426937e-03" rms="2.8173249959945679e-01" purity="5.3697055578231812e-01" nType="0">
            <Node pos="l" depth="3" NCoef="0" IVar="-1" Cut="0.0000000000000000e+00" cType="1" res="-2.2760864347219467e-02" rms="2.6508626341819763e-01" purity="2.8601735830307007e-01" nType="-99"/>
            <Node pos="r" depth="3" NCoef="0" IVar="-1" Cut="0.0000000000000000e+00" cType="1" res="3.2009618007577956e-04" rms="2.8351801633834839e-01" purity="5.6567347049713135e-01" nType="-99"/>
          </Node>
        </Node>
      </Node>
    </BinaryTree>
    <BinaryTree type="DecisionTree" boostWeight="1.0000000000000000e+00" itree="595">
      <Node pos="s" depth="0" NCoef="0" IVar="10" Cut="-1.2000685930252075e+00" cType="1" res="-6.9283746415749192e-04" rms="2.8408810496330261e-01" purity="4.9655440449714661e-01" nType="0">
        <Node pos="l" depth="1" NCoef="0" IVar="10" Cut="-1.7334009408950806e+00" cType="1" res="-1.0108822025358677e-02" rms="2.8134647011756897e-01" purity="3.6060771346092224e-01" nType="0">
          <Node pos="l" depth="2" NCoef="0" IVar="7" Cut="1.8035514652729034e-01" cType="1" res="-4.6985421795397997e-04" rms="2.8337126970291138e-01" purity="2.8807383775711060e-01" nType="0">
            <Node pos="l" depth="3" NCoef="0" IVar="-1" Cut="0.0000000000000000e+00" cType="1" res="-9.7325434908270836e-03" rms="2.8179651498794556e-01" purity="3.0964171886444092e-01" nType="-99"/>
            <Node pos="r" depth="3" NCoef="0" IVar="-1" Cut="0.0000000000000000e+00" cType="1" res="1.5295321121811867e-02" rms="2.8552377223968506e-01" purity="2.5215846300125122e-01" nType="-99"/>
          </Node>
          <Node pos="r" depth="2" NCoef="0" IVar="7" Cut="-3.1847831606864929e-01" cType="1" res="-1.8539799377322197e-02" rms="2.7929079532623291e-01" purity="4.2405140399932861e-01" nType="0">
            <Node pos="l" depth="3" NCoef="0" IVar="-1" Cut="0.0000000000000000e+00" cType="1" res="-4.4268630445003510e-02" rms="2.6504060626029968e-01" purity="3.3395206928253174e-01" nType="-99"/>
            <Node pos="r" depth="3" NCoef="0" IVar="-1" Cut="0.0000000000000000e+00" cType="1" res="-9.0706460177898407e-03" rms="2.8901296854019165e-01" purity="4.9126058816909790e-01" nType="-99"/>
          </Node>
        </Node>
        <Node pos="r" depth="1" NCoef="0" IVar="2" Cut="6.3790783691406250e+02" cType="1" res="1.1623804457485676e-03" rms="2.8458842635154724e-01" purity="5.2333986759185791e-01" nType="0">
          <Node pos="l" depth="2" NCoef="0" IVar="10" Cut="-1.0095958709716797e+00" cType="1" res="2.1364064887166023e-03" rms="2.8245425224304199e-01" purity="5.1889538764953613e-01" nType="0">
            <Node pos="l" depth="3" NCoef="0" IVar="-1" Cut="0.0000000000000000e+00" cType="1" res="2.6835393160581589e-02" rms="3.0179506540298462e-01" purity="5.2491909265518188e-01" nType="-99"/>
            <Node pos="r" depth="3" NCoef="0" IVar="-1" Cut="0.0000000000000000e+00" cType="1" res="1.1965523008257151e-03" rms="2.8123340010643005e-01" purity="5.1854163408279419e-01" nType="-99"/>
          </Node>
          <Node pos="r" depth="2" NCoef="0" IVar="8" Cut="1.3411724567413330e-01" cType="1" res="-1.2436211109161377e-02" rms="3.1255075335502625e-01" purity="5.8538943529129028e-01" nType="0">
            <Node pos="l" depth="3" NCoef="0" IVar="-1" Cut="0.0000000000000000e+00" cType="1" res="-2.7702508494257927e-02" rms="3.3033129572868347e-01" purity="5.8678656816482544e-01" nType="-99"/>
            <Node pos="r" depth="3" NCoef="0" IVar="-1" Cut="0.0000000000000000e+00" cType="1" res="6.7756809294223785e-03" rms="2.8881421685218811e-01" purity="5.8372700214385986e-01" nType="-99"/>
          </Node>
        </Node>
      </Node>
    </BinaryTree>
    <BinaryTree type="DecisionTree" boostWeight="1.0000000000000000e+00" itree="596">
      <Node pos="s" depth="0" NCoef="0" IVar="9" Cut="4.0000018477439880e-01" cType="1" res="-1.3835977297276258e-03" rms="2.8492060303688049e-01" purity="4.9579823017120361e-01" nType="0">
        <Node pos="l" depth="1" NCoef="0" IVar="1" Cut="8.3596386015415192e-02" cType="1" res="-4.9477200955152512e-03" rms="2.8528726100921631e-01" purity="5.1756531000137329e-01" nType="0">
          <Node pos="l" depth="2" NCoef="0" IVar="7" Cut="9.6160274744033813e-01" cType="1" res="-8.4328679367899895e-03" rms="2.9291653633117676e-01" purity="3.4146958589553833e-01" nType="0">
            <Node pos="l" depth="3" NCoef="0" IVar="-1" Cut="0.0000000000000000e+00" cType="1" res="-1.3047453947365284e-02" rms="3.0120083689689636e-01" purity="3.7726506590843201e-01" nType="-99"/>
            <Node pos="r" depth="3" NCoef="0" IVar="-1" Cut="0.0000000000000000e+00" cType="1" res="1.2405143119394779e-02" rms="2.5279009342193604e-01" purity="1.8451747298240662e-01" nType="-99"/>
          </Node>
          <Node pos="r" depth="2" NCoef="0" IVar="10" Cut="6.6408145427703857e-01" cType="1" res="1.0163636179640889e-03" rms="2.7163124084472656e-01" purity="8.1891542673110962e-01" nType="0">
            <Node pos="l" depth="3" NCoef="0" IVar="-1" Cut="0.0000000000000000e+00" cType="1" res="6.6864085383713245e-03" rms="2.6540580391883850e-01" purity="8.3402341604232788e-01" nType="-99"/>
            <Node pos="r" depth="3" NCoef="0" IVar="-1" Cut="0.0000000000000000e+00" cType="1" res="-1.2612985447049141e-02" rms="2.8850945830345154e-01" purity="7.7537286281585693e-01" nType="-99"/>
          </Node>
        </Node>
        <Node pos="r" depth="1" NCoef="0" IVar="10" Cut="3.9977741241455078e-01" cType="1" res="5.1204408518970013e-03" rms="2.8413507342338562e-01" purity="4.5607611536979675e-01" nType="0">
          <Node pos="l" depth="2" NCoef="0" IVar="9" Cut="1.7714252471923828e+00" cType="1" res="-1.2360615655779839e-03" rms="2.8078109025955200e-01" purity="4.8202231526374817e-01" nType="0">
            <Node pos="l" depth="3" NCoef="0" IVar="-1" Cut="0.0000000000000000e+00" cType="1" res="3.5228880587965250e-03" rms="2.9012238979339600e-01" purity="5.3843069076538086e-01" nType="-99"/>
            <Node pos="r" depth="3" NCoef="0" IVar="-1" Cut="0.0000000000000000e+00" cType="1" res="-5.4493654519319534e-02" rms="2.0725214481353760e-01" purity="1.1179436743259430e-01" nType="-99"/>
          </Node>
          <Node pos="r" depth="2" NCoef="0" IVar="8" Cut="3.9830288290977478e-01" cType="1" res="1.3535881415009499e-02" rms="2.8829994797706604e-01" purity="4.2172566056251526e-01" nType="0">
            <Node pos="l" depth="3" NCoef="0" IVar="-1" Cut="0.0000000000000000e+00" cType="1" res="3.4260856918990612e-03" rms="2.9328593611717224e-01" purity="4.4997486472129822e-01" nType="-99"/>
            <Node pos="r" depth="3" NCoef="0" IVar="-1" Cut="0.0000000000000000e+00" cType="1" res="3.1855098903179169e-02" rms="2.8154459595680237e-01" purity="3.8720148801803589e-01" nType="-99"/>
          </Node>
        </Node>
      </Node>
    </BinaryTree>
    <BinaryTree type="DecisionTree" boostWeight="1.0000000000000000e+00" itree="597">
      <Node pos="s" depth="0" NCoef="0" IVar="1" Cut="1.0458503663539886e-01" cType="1" res="1.3483982766047120e-03" rms="2.8597134351730347e-01" purity="5.0007569789886475e-01" nType="0">
        <Node pos="l" depth="1" NCoef="0" IVar="2" Cut="3.4597445678710938e+02" cType="1" res="4.1362736374139786e-03" rms="2.9317277669906616e-01" purity="3.7478175759315491e-01" nType="0">
          <Node pos="l" depth="2" NCoef="0" IVar="10" Cut="-4.0010800957679749e-01" cType="1" res="9.6820006147027016e-03" rms="2.8507643938064575e-01" purity="2.8463786840438843e-01" nType="0">
            <Node pos="l" depth="3" NCoef="0" IVar="-1" Cut="0.0000000000000000e+00" cType="1" res="1.8565350910648704e-03" rms="2.7733835577964783e-01" purity="2.3913748562335968e-01" nType="-99"/>
            <Node pos="r" depth="3" NCoef="0" IVar="-1" Cut="0.0000000000000000e+00" cType="1" res="1.8076391890645027e-02" rms="2.8955441713333130e-01" purity="3.1223630905151367e-01" nType="-99"/>
          </Node>
          <Node pos="r" depth="2" NCoef="0" IVar="8" Cut="6.6679459810256958e-01" cType="1" res="-7.2825787356123328e-04" rms="3.0001041293144226e-01" purity="4.5385304093360901e-01" nType="0">
            <Node pos="l" depth="3" NCoef="0" IVar="-1" Cut="0.0000000000000000e+00" cType="1" res="3.4624268300831318e-03" rms="3.0786922574043274e-01" purity="4.9591183662414551e-01" nType="-99"/>
            <Node pos="r" depth="3" NCoef="0" IVar="-1" Cut="0.0000000000000000e+00" cType="1" res="-1.4602364040911198e-02" rms="2.7625364065170288e-01" purity="3.3485916256904602e-01" nType="-99"/>
          </Node>
        </Node>
        <Node pos="r" depth="1" NCoef="0" IVar="1" Cut="1.2052194774150848e-01" cType="1" res="-5.9635136276483536e-03" rms="2.6602089405059814e-01" purity="8.2869082689285278e-01" nType="0">
          <Node pos="l" depth="2" NCoef="0" IVar="-1" Cut="0.0000000000000000e+00" cType="1" res="-2.5026055052876472e-02" rms="2.9740780591964722e-01" purity="7.1481174230575562e-01" nType="-99"/>
          <Node pos="r" depth="2" NCoef="0" IVar="7" Cut="2.5062263011932373e-01" cType="1" res="-1.9168365979567170e-03" rms="2.5777545571327209e-01" purity="8.5595697164535522e-01" nType="0">
            <Node pos="l" depth="3" NCoef="0" IVar="-1" Cut="0.0000000000000000e+00" cType="1" res="2.3188102059066296e-03" rms="2.5150290131568909e-01" purity="8.6513221263885498e-01" nType="-99"/>
            <Node pos="r" depth="3" NCoef="0" IVar="-1" Cut="0.0000000000000000e+00" cType="1" res="-1.3505559414625168e-02" rms="2.7111995220184326e-01" purity="8.3544021844863892e-01" nType="-99"/>
          </Node>
        </Node>
      </Node>
    </BinaryTree>
    <BinaryTree type="DecisionTree" boostWeight="1.0000000000000000e+00" itree="598">
      <Node pos="s" depth="0" NCoef="0" IVar="10" Cut="2.2665107250213623e+00" cType="1" res="2.3332426790148020e-03" rms="2.8222519159317017e-01" purity="5.0016450881958008e-01" nType="0">
        <Node pos="l" depth="1" NCoef="0" IVar="9" Cut="-1.3333868980407715e-01" cType="1" res="1.7191069200634956e-03" rms="2.8197103738784790e-01" purity="5.0680536031723022e-01" nType="0">
          <Node pos="l" depth="2" NCoef="0" IVar="10" Cut="-6.2868726253509521e-01" cType="1" res="-1.8184726359322667e-03" rms="2.8152221441268921e-01" purity="4.8289576172828674e-01" nType="0">
            <Node pos="l" depth="3" NCoef="0" IVar="-1" Cut="0.0000000000000000e+00" cType="1" res="6.6789109259843826e-03" rms="2.8466671705245972e-01" purity="4.2969205975532532e-01" nType="-99"/>
            <Node pos="r" depth="3" NCoef="0" IVar="-1" Cut="0.0000000000000000e+00" cType="1" res="-7.1839559823274612e-03" rms="2.7968448400497437e-01" purity="5.1231324672698975e-01" nType="-99"/>
          </Node>
          <Node pos="r" depth="2" NCoef="0" IVar="10" Cut="-1.1111861467361450e+00" cType="1" res="4.6603172086179256e-03" rms="2.8230991959571838e-01" purity="5.2668422460556030e-01" nType="0">
            <Node pos="l" depth="3" NCoef="0" IVar="-1" Cut="0.0000000000000000e+00" cType="1" res="-8.7149543687701225e-03" rms="2.8725105524063110e-01" purity="4.0784657001495361e-01" nType="-99"/>
            <Node pos="r" depth="3" NCoef="0" IVar="-1" Cut="0.0000000000000000e+00" cType="1" res="8.4591750055551529e-03" rms="2.8126201033592224e-01" purity="5.5029159784317017e-01" nType="-99"/>
          </Node>
        </Node>
        <Node pos="r" depth="1" NCoef="0" IVar="-1" Cut="0.0000000000000000e+00" cType="1" res="3.1909212470054626e-02" rms="2.9040262103080750e-01" purity="2.5977358222007751e-01" nType="-99"/>
      </Node>
    </BinaryTree>
    <BinaryTree type="DecisionTree" boostWeight="1.0000000000000000e+00" itree="599">
      <Node pos="s" depth="0" NCoef="0" IVar="10" Cut="-1.2001620531082153e+00" cType="1" res="-8.8256702292710543e-04" rms="2.8571307659149170e-01" purity="4.9713417887687683e-01" nType="0">
        <Node pos="l" depth="1" NCoef="0" IVar="11" Cut="3.7061907351016998e-02" cType="1" res="9.3721458688378334e-03" rms="2.8969413042068481e-01" purity="3.8173374533653259e-01" nType="0">
          <Node pos="l" depth="2" NCoef="0" IVar="9" Cut="-6.6759288311004639e-01" cType="1" res="3.8076348137110472e-03" rms="2.8360953927040100e-01" purity="3.1028664112091064e-01" nType="0">
            <Node pos="l" depth="3" NCoef="0" IVar="-1" Cut="0.0000000000000000e+00" cType="1" res="-1.3338604941964149e-02" rms="2.6486152410507202e-01" purity="2.3693203926086426e-01" nType="-99"/>
            <Node pos="r" depth="3" NCoef="0" IVar="-1" Cut="0.0000000000000000e+00" cType="1" res="1.4392171055078506e-02" rms="2.9354041814804077e-01" purity="3.5248830914497375e-01" nType="-99"/>
          </Node>
          <Node pos="r" depth="2" NCoef="0" IVar="-1" Cut="0.0000000000000000e+00" cType="1" res="3.3171873539686203e-02" rms="3.1159549951553345e-01" purity="6.6385167837142944e-01" nType="-99"/>
        </Node>
        <Node pos="r" depth="1" NCoef="0" IVar="8" Cut="9.3328303098678589e-01" cType="1" res="-2.9224345926195383e-03" rms="2.8487053513526917e-01" purity="5.2008962631225586e-01" nType="0">
          <Node pos="l" depth="2" NCoef="0" IVar="8" Cut="-1.5554511547088623e+00" cType="1" res="-1.1336575262248516e-03" rms="2.8927925229072571e-01" purity="5.6573426723480225e-01" nType="0">
            <Node pos="l" depth="3" NCoef="0" IVar="-1" Cut="0.0000000000000000e+00" cType="1" res="-3.8592331111431122e-02" rms="2.2221711277961731e-01" purity="1.3169954717159271e-01" nType="-99"/>
            <Node pos="r" depth="3" NCoef="0" IVar="-1" Cut="0.0000000000000000e+00" cType="1" res="5.2753923228010535e-04" rms="2.9387301206588745e-01" purity="6.0007005929946899e-01" nType="-99"/>
          </Node>
          <Node pos="r" depth="2" NCoef="0" IVar="4" Cut="1.6789797973632812e+02" cType="1" res="-1.1543520726263523e-02" rms="2.6241558790206909e-01" purity="3.0010345578193665e-01" nType="0">
            <Node pos="l" depth="3" NCoef="0" IVar="-1" Cut="0.0000000000000000e+00" cType="1" res="-2.9236633330583572e-02" rms="2.3491697013378143e-01" purity="1.6454766690731049e-01" nType="-99"/>
            <Node pos="r" depth="3" NCoef="0" IVar="-1" Cut="0.0000000000000000e+00" cType="1" res="4.4806124642491341e-03" rms="3.1352955102920532e-01" purity="5.9559375047683716e-01" nType="-99"/>
          </Node>
        </Node>
      </Node>
    </BinaryTree>
    <BinaryTree type="DecisionTree" boostWeight="1.0000000000000000e+00" itree="600">
      <Node pos="s" depth="0" NCoef="0" IVar="10" Cut="3.9983627200126648e-01" cType="1" res="3.4022880718111992e-03" rms="2.8811445832252502e-01" purity="5.0015282630920410e-01" nType="0">
        <Node pos="l" depth="1" NCoef="0" IVar="8" Cut="3.9996317028999329e-01" cType="1" res="6.9709867238998413e-03" rms="2.8820532560348511e-01" purity="5.2338713407516479e-01" nType="0">
          <Node pos="l" depth="2" NCoef="0" IVar="9" Cut="3.9979362487792969e-01" cType="1" res="3.4138066694140434e-03" rms="2.8798359632492065e-01" purity="5.4874235391616821e-01" nType="0">
            <Node pos="l" depth="3" NCoef="0" IVar="-1" Cut="0.0000000000000000e+00" cType="1" res="8.9536830782890320e-03" rms="2.9079294204711914e-01" purity="5.6311380863189697e-01" nType="-99"/>
            <Node pos="r" depth="3" NCoef="0" IVar="-1" Cut="0.0000000000000000e+00" cType="1" res="-7.7567044645547867e-03" rms="2.8092363476753235e-01" purity="5.1440268754959106e-01" nType="-99"/>
          </Node>
          <Node pos="r" depth="2" NCoef="0" IVar="6" Cut="7.2859703063964844e+01" cType="1" res="1.4762326143682003e-02" rms="2.8853720426559448e-01" purity="4.6785134077072144e-01" nType="0">
            <Node pos="l" depth="3" NCoef="0" IVar="-1" Cut="0.0000000000000000e+00" cType="1" res="2.5695754215121269e-02" rms="3.0474442243576050e-01" purity="3.2624056935310364e-01" nType="-99"/>
            <Node pos="r" depth="3" NCoef="0" IVar="-1" Cut="0.0000000000000000e+00" cType="1" res="-1.5716589987277985e-02" rms="2.3625782132148743e-01" purity="8.6016356945037842e-01" nType="-99"/>
          </Node>
        </Node>
        <Node pos="r" depth="1" NCoef="0" IVar="5" Cut="1.2667740631103516e+02" cType="1" res="-2.6259780861437321e-03" rms="2.8786042332649231e-01" purity="4.6090525388717651e-01" nType="0">
          <Node pos="l" depth="2" NCoef="0" IVar="8" Cut="-9.3242758512496948e-01" cType="1" res="-8.5701067291665822e-05" rms="2.9641801118850708e-01" purity="3.8630449771881104e-01" nType="0">
            <Node pos="l" depth="3" NCoef="0" IVar="-1" Cut="0.0000000000000000e+00" cType="1" res="1.9132044166326523e-02" rms="2.7648752927780151e-01" purity="2.1405306458473206e-01" nType="-99"/>
            <Node pos="r" depth="3" NCoef="0" IVar="-1" Cut="0.0000000000000000e+00" cType="1" res="-2.9661678709089756e-03" rms="3.0003622174263000e-01" purity="4.1952446103096008e-01" nType="-99"/>
          </Node>
          <Node pos="r" depth="2" NCoef="0" IVar="-1" Cut="0.0000000000000000e+00" cType="1" res="-3.6505527794361115e-02" rms="2.3114487528800964e-01" purity="8.9624744653701782e-01" nType="-99"/>
        </Node>
      </Node>
    </BinaryTree>
    <BinaryTree type="DecisionTree" boostWeight="1.0000000000000000e+00" itree="601">
      <Node pos="s" depth="0" NCoef="0" IVar="3" Cut="1.4718913269042969e+02" cType="1" res="2.1116674179211259e-04" rms="2.8341609239578247e-01" purity="4.9877437949180603e-01" nType="0">
        <Node pos="l" depth="1" NCoef="0" IVar="5" Cut="5.7987720489501953e+01" cType="1" res="-8.4518473595380783e-03" rms="2.2161813080310822e-01" purity="1.1235485970973969e-01" nType="0">
          <Node pos="l" depth="2" NCoef="0" IVar="4" Cut="8.6989715576171875e+01" cType="1" res="7.6229427941143513e-03" rms="1.8652275204658508e-01" purity="4.6836469322443008e-02" nType="0">
            <Node pos="l" depth="3" NCoef="0" IVar="-1" Cut="0.0000000000000000e+00" cType="1" res="-1.2710502371191978e-02" rms="1.3153314590454102e-01" purity="2.1176455542445183e-02" nType="-99"/>
            <Node pos="r" depth="3" NCoef="0" IVar="-1" Cut="0.0000000000000000e+00" cType="1" res="4.8156920820474625e-02" rms="2.4096551537513733e-01" purity="8.1477954983711243e-02" nType="-99"/>
          </Node>
          <Node pos="r" depth="2" NCoef="0" IVar="1" Cut="3.8524698466062546e-02" cType="1" res="-1.9516006112098694e-02" rms="2.4222579598426819e-01" purity="1.5745067596435547e-01" nType="0">
            <Node pos="l" depth="3" NCoef="0" IVar="-1" Cut="0.0000000000000000e+00" cType="1" res="-1.4806968159973621e-02" rms="1.8113967776298523e-01" purity="5.9550575911998749e-02" nType="-99"/>
            <Node pos="r" depth="3" NCoef="0" IVar="-1" Cut="0.0000000000000000e+00" cType="1" res="-3.3228643238544464e-02" rms="3.0181339383125305e-01" purity="2.8219556808471680e-01" nType="-99"/>
          </Node>
        </Node>
        <Node pos="r" depth="1" NCoef="0" IVar="11" Cut="-2.4476714134216309e+00" cType="1" res="2.0378886256366968e-03" rms="2.9476535320281982e-01" purity="5.8025652170181274e-01" nType="0">
          <Node pos="l" depth="2" NCoef="0" IVar="8" Cut="3.9988237619400024e-01" cType="1" res="-2.3723004851490259e-03" rms="3.2048377394676208e-01" purity="2.9034939408302307e-01" nType="0">
            <Node pos="l" depth="3" NCoef="0" IVar="-1" Cut="0.0000000000000000e+00" cType="1" res="1.4968441100791097e-03" rms="3.3051320910453796e-01" purity="3.2722911238670349e-01" nType="-99"/>
            <Node pos="r" depth="3" NCoef="0" IVar="-1" Cut="0.0000000000000000e+00" cType="1" res="-1.0237035341560841e-02" rms="3.0139929056167603e-01" purity="2.2377102077007294e-01" nType="-99"/>
          </Node>
          <Node pos="r" depth="2" NCoef="0" IVar="5" Cut="1.0487156677246094e+02" cType="1" res="5.2967579104006290e-03" rms="2.7417001128196716e-01" purity="7.9448074102401733e-01" nType="0">
            <Node pos="l" depth="3" NCoef="0" IVar="-1" Cut="0.0000000000000000e+00" cType="1" res="1.0848131962120533e-02" rms="3.2549542188644409e-01" purity="6.6842108964920044e-01" nType="-99"/>
            <Node pos="r" depth="3" NCoef="0" IVar="-1" Cut="0.0000000000000000e+00" cType="1" res="-1.8021975411102176e-03" rms="2.1543301641941071e-01" purity="9.1194319725036621e-01" nType="-99"/>
          </Node>
        </Node>
      </Node>
    </BinaryTree>
    <BinaryTree type="DecisionTree" boostWeight="1.0000000000000000e+00" itree="602">
      <Node pos="s" depth="0" NCoef="0" IVar="8" Cut="1.7332214117050171e+00" cType="1" res="9.5189356943592429e-04" rms="2.8101986646652222e-01" purity="5.0090199708938599e-01" nType="0">
        <Node pos="l" depth="1" NCoef="0" IVar="10" Cut="1.9997351169586182e+00" cType="1" res="1.8602827331051230e-03" rms="2.8572231531143188e-01" purity="5.2211815118789673e-01" nType="0">
          <Node pos="l" depth="2" NCoef="0" IVar="3" Cut="3.3306063842773438e+02" cType="1" res="2.7167079970240593e-03" rms="2.8611788153648376e-01" purity="5.3393208980560303e-01" nType="0">
            <Node pos="l" depth="3" NCoef="0" IVar="-1" Cut="0.0000000000000000e+00" cType="1" res="4.3532946147024632e-03" rms="2.8770756721496582e-01" purity="4.9501490592956543e-01" nType="-99"/>
            <Node pos="r" depth="3" NCoef="0" IVar="-1" Cut="0.0000000000000000e+00" cType="1" res="-3.4637895878404379e-03" rms="2.7712246775627136e-01" purity="7.4853914976119995e-01" nType="-99"/>
          </Node>
          <Node pos="r" depth="2" NCoef="0" IVar="-1" Cut="0.0000000000000000e+00" cType="1" res="-1.8585726618766785e-02" rms="2.7697002887725830e-01" purity="2.8156703710556030e-01" nType="-99"/>
        </Node>
        <Node pos="r" depth="1" NCoef="0" IVar="-1" Cut="0.0000000000000000e+00" cType="1" res="-4.4293586164712906e-02" rms="1.6179214417934418e-01" purity="8.3283662796020508e-02" nType="-99"/>
      </Node>
    </BinaryTree>
    <BinaryTree type="DecisionTree" boostWeight="1.0000000000000000e+00" itree="603">
      <Node pos="s" depth="0" NCoef="0" IVar="1" Cut="7.8826174139976501e-02" cType="1" res="-9.6380471950396895e-04" rms="2.8566649556159973e-01" purity="5.0160735845565796e-01" nType="0">
        <Node pos="l" depth="1" NCoef="0" IVar="11" Cut="1.1428482532501221e+00" cType="1" res="2.3402168881148100e-03" rms="2.8882181644439697e-01" purity="3.2439151406288147e-01" nType="0">
          <Node pos="l" depth="2" NCoef="0" IVar="9" Cut="-9.3336528539657593e-01" cType="1" res="8.5581670282408595e-04" rms="2.8463172912597656e-01" purity="3.1294503808021545e-01" nType="0">
            <Node pos="l" depth="3" NCoef="0" IVar="-1" Cut="0.0000000000000000e+00" cType="1" res="1.4163347892463207e-02" rms="2.7645850181579590e-01" purity="2.2416709363460541e-01" nType="-99"/>
            <Node pos="r" depth="3" NCoef="0" IVar="-1" Cut="0.0000000000000000e+00" cType="1" res="-2.3620643187314272e-03" rms="2.8701063990592957e-01" purity="3.3994898200035095e-01" nType="-99"/>
          </Node>
          <Node pos="r" depth="2" NCoef="0" IVar="-1" Cut="0.0000000000000000e+00" cType="1" res="1.9397974014282227e-02" rms="3.3949068188667297e-01" purity="4.7808375954627991e-01" nType="-99"/>
        </Node>
        <Node pos="r" depth="1" NCoef="0" IVar="5" Cut="1.0172405242919922e+02" cType="1" res="-6.3405656255781651e-03" rms="2.8037264943122864e-01" purity="7.8999739885330200e-01" nType="0">
          <Node pos="l" depth="2" NCoef="0" IVar="9" Cut="-6.6522747278213501e-01" cType="1" res="-1.4492065645754337e-02" rms="3.4563186764717102e-01" purity="6.2879770994186401e-01" nType="0">
            <Node pos="l" depth="3" NCoef="0" IVar="-1" Cut="0.0000000000000000e+00" cType="1" res="-3.0088191851973534e-02" rms="3.6209961771965027e-01" purity="5.4187792539596558e-01" nType="-99"/>
            <Node pos="r" depth="3" NCoef="0" IVar="-1" Cut="0.0000000000000000e+00" cType="1" res="-5.7462132535874844e-03" rms="3.3997574448585510e-01" purity="6.5587311983108521e-01" nType="-99"/>
          </Node>
          <Node pos="r" depth="2" NCoef="0" IVar="6" Cut="8.6799652099609375e+01" cType="1" res="1.5143684577196836e-03" rms="1.9777970016002655e-01" purity="9.4533240795135498e-01" nType="0">
            <Node pos="l" depth="3" NCoef="0" IVar="-1" Cut="0.0000000000000000e+00" cType="1" res="9.0481145307421684e-03" rms="2.5924533605575562e-01" purity="8.9706438779830933e-01" nType="-99"/>
            <Node pos="r" depth="3" NCoef="0" IVar="-1" Cut="0.0000000000000000e+00" cType="1" res="-6.8258647806942463e-03" rms="1.5060067176818848e-01" purity="9.7353154420852661e-01" nType="-99"/>
          </Node>
        </Node>
      </Node>
    </BinaryTree>
    <BinaryTree type="DecisionTree" boostWeight="1.0000000000000000e+00" itree="604">
      <Node pos="s" depth="0" NCoef="0" IVar="0" Cut="1.8767409667968750e+03" cType="1" res="1.7872488824650645e-03" rms="2.8571343421936035e-01" purity="5.0135642290115356e-01" nType="0">
        <Node pos="l" depth="1" NCoef="0" IVar="4" Cut="2.3103880310058594e+02" cType="1" res="-5.9047242393717170e-04" rms="2.9965555667877197e-01" purity="3.7858685851097107e-01" nType="0">
          <Node pos="l" depth="2" NCoef="0" IVar="2" Cut="3.7481903076171875e+02" cType="1" res="4.2098353151232004e-04" rms="2.9770091176033020e-01" purity="3.6331263184547424e-01" nType="0">
            <Node pos="l" depth="3" NCoef="0" IVar="-1" Cut="0.0000000000000000e+00" cType="1" res="3.2909058500081301e-03" rms="2.9341483116149902e-01" purity="3.8271299004554749e-01" nType="-99"/>
            <Node pos="r" depth="3" NCoef="0" IVar="-1" Cut="0.0000000000000000e+00" cType="1" res="-5.5094258859753609e-03" rms="3.0744382739067078e-01" purity="3.1780904531478882e-01" nType="-99"/>
          </Node>
          <Node pos="r" depth="2" NCoef="0" IVar="-1" Cut="0.0000000000000000e+00" cType="1" res="-1.6044314950704575e-02" rms="3.2940715551376343e-01" purity="6.2717759609222412e-01" nType="-99"/>
        </Node>
        <Node pos="r" depth="1" NCoef="0" IVar="2" Cut="5.9563360595703125e+02" cType="1" res="9.1948546469211578e-03" rms="2.3692578077316284e-01" purity="8.8383537530899048e-01" nType="0">
          <Node pos="l" depth="2" NCoef="0" IVar="4" Cut="2.0001364135742188e+02" cType="1" res="4.7312714159488678e-03" rms="1.9614888727664948e-01" purity="9.4038212299346924e-01" nType="0">
            <Node pos="l" depth="3" NCoef="0" IVar="-1" Cut="0.0000000000000000e+00" cType="1" res="-1.7896410077810287e-02" rms="2.0417763292789459e-01" purity="9.2723476886749268e-01" nType="-99"/>
            <Node pos="r" depth="3" NCoef="0" IVar="-1" Cut="0.0000000000000000e+00" cType="1" res="2.0831059664487839e-02" rms="1.9332551956176758e-01" purity="9.4461715221405029e-01" nType="-99"/>
          </Node>
          <Node pos="r" depth="2" NCoef="0" IVar="0" Cut="2.5305278320312500e+03" cType="1" res="1.9814928993582726e-02" rms="3.1303390860557556e-01" purity="7.4929517507553101e-01" nType="0">
            <Node pos="l" depth="3" NCoef="0" IVar="-1" Cut="0.0000000000000000e+00" cType="1" res="2.4727685377001762e-02" rms="3.4264910221099854e-01" purity="6.7109477519989014e-01" nType="-99"/>
            <Node pos="r" depth="3" NCoef="0" IVar="-1" Cut="0.0000000000000000e+00" cType="1" res="4.6271737664937973e-03" rms="2.5890082120895386e-01" purity="8.7221896648406982e-01" nType="-99"/>
          </Node>
        </Node>
      </Node>
    </BinaryTree>
    <BinaryTree type="DecisionTree" boostWeight="1.0000000000000000e+00" itree="605">
      <Node pos="s" depth="0" NCoef="0" IVar="11" Cut="-2.3810116946697235e-01" cType="1" res="-1.1176221305504441e-03" rms="2.8314208984375000e-01" purity="4.9829000234603882e-01" nType="0">
        <Node pos="l" depth="1" NCoef="0" IVar="7" Cut="-1.0530604422092438e-01" cType="1" res="-4.2805108241736889e-03" rms="2.8739804029464722e-01" purity="3.8105955719947815e-01" nType="0">
          <Node pos="l" depth="2" NCoef="0" IVar="8" Cut="-3.9915823936462402e-01" cType="1" res="1.9317027181386948e-03" rms="2.8559547662734985e-01" purity="3.7306618690490723e-01" nType="0">
            <Node pos="l" depth="3" NCoef="0" IVar="-1" Cut="0.0000000000000000e+00" cType="1" res="1.3330342248082161e-02" rms="2.9473903775215149e-01" purity="3.3972558379173279e-01" nType="-99"/>
            <Node pos="r" depth="3" NCoef="0" IVar="-1" Cut="0.0000000000000000e+00" cType="1" res="-4.8082019202411175e-03" rms="2.7933207154273987e-01" purity="3.9474654197692871e-01" nType="-99"/>
          </Node>
          <Node pos="r" depth="2" NCoef="0" IVar="4" Cut="1.4215544128417969e+02" cType="1" res="-9.7239175811409950e-03" rms="2.8885847330093384e-01" purity="3.8806366920471191e-01" nType="0">
            <Node pos="l" depth="3" NCoef="0" IVar="-1" Cut="0.0000000000000000e+00" cType="1" res="-5.0951070152223110e-03" rms="2.5891032814979553e-01" purity="1.6332168877124786e-01" nType="-99"/>
            <Node pos="r" depth="3" NCoef="0" IVar="-1" Cut="0.0000000000000000e+00" cType="1" res="-1.6411732882261276e-02" rms="3.1558749079704285e-01" purity="6.1043077707290649e-01" nType="-99"/>
          </Node>
        </Node>
        <Node pos="r" depth="1" NCoef="0" IVar="0" Cut="1.3139445800781250e+03" cType="1" res="5.9988824650645256e-03" rms="2.7319014072418213e-01" purity="7.6205861568450928e-01" nType="0">
          <Node pos="l" depth="2" NCoef="0" IVar="-1" Cut="0.0000000000000000e+00" cType="1" res="1.6980512067675591e-02" rms="3.4584516286849976e-01" purity="3.4712815284729004e-01" nType="-99"/>
          <Node pos="r" depth="2" NCoef="0" IVar="10" Cut="1.1994775533676147e+00" cType="1" res="2.7752688620239496e-03" rms="2.5605142116546631e-01" purity="8.4516495466232300e-01" nType="0">
            <Node pos="l" depth="3" NCoef="0" IVar="-1" Cut="0.0000000000000000e+00" cType="1" res="7.3018264956772327e-03" rms="2.4908256530761719e-01" purity="8.5936838388442993e-01" nType="-99"/>
            <Node pos="r" depth="3" NCoef="0" IVar="-1" Cut="0.0000000000000000e+00" cType="1" res="-1.2174067087471485e-02" rms="2.9669153690338135e-01" purity="7.5366508960723877e-01" nType="-99"/>
          </Node>
        </Node>
      </Node>
    </BinaryTree>
    <BinaryTree type="DecisionTree" boostWeight="1.0000000000000000e+00" itree="606">
      <Node pos="s" depth="0" NCoef="0" IVar="8" Cut="-6.6663235425949097e-01" cType="1" res="-1.3770447112619877e-03" rms="2.8760761022567749e-01" purity="4.9641644954681396e-01" nType="0">
        <Node pos="l" depth="1" NCoef="0" IVar="10" Cut="-9.3345004320144653e-01" cType="1" res="-7.2927996516227722e-03" rms="2.8036046028137207e-01" purity="3.5753342509269714e-01" nType="0">
          <Node pos="l" depth="2" NCoef="0" IVar="9" Cut="-6.6654551029205322e-01" cType="1" res="9.6823526546359062e-03" rms="2.7638813853263855e-01" purity="3.1824380159378052e-01" nType="0">
            <Node pos="l" depth="3" NCoef="0" IVar="-1" Cut="0.0000000000000000e+00" cType="1" res="3.3841993659734726e-02" rms="2.7515068650245667e-01" purity="2.5035783648490906e-01" nType="-99"/>
            <Node pos="r" depth="3" NCoef="0" IVar="-1" Cut="0.0000000000000000e+00" cType="1" res="-2.1445902530103922e-04" rms="2.7674996852874756e-01" purity="3.6255398392677307e-01" nType="-99"/>
          </Node>
          <Node pos="r" depth="2" NCoef="0" IVar="10" Cut="8.4405803680419922e-01" cType="1" res="-1.4234446920454502e-02" rms="2.8167420625686646e-01" purity="3.7360015511512756e-01" nType="0">
            <Node pos="l" depth="3" NCoef="0" IVar="-1" Cut="0.0000000000000000e+00" cType="1" res="-2.4293582886457443e-02" rms="2.8228467702865601e-01" purity="4.0818461775779724e-01" nType="-99"/>
            <Node pos="r" depth="3" NCoef="0" IVar="-1" Cut="0.0000000000000000e+00" cType="1" res="-1.2936574639752507e-03" rms="2.7990671992301941e-01" purity="2.9939174652099609e-01" nType="-99"/>
          </Node>
        </Node>
        <Node pos="r" depth="1" NCoef="0" IVar="1" Cut="6.2630966305732727e-02" cType="1" res="5.2882981253787875e-04" rms="2.8987812995910645e-01" purity="5.4116034507751465e-01" nType="0">
          <Node pos="l" depth="2" NCoef="0" IVar="11" Cut="3.1301635503768921e-01" cType="1" res="4.1353334672749043e-03" rms="2.9380878806114197e-01" purity="3.0906498432159424e-01" nType="0">
            <Node pos="l" depth="3" NCoef="0" IVar="-1" Cut="0.0000000000000000e+00" cType="1" res="9.1717829927802086e-03" rms="2.8855991363525391e-01" purity="2.7703329920768738e-01" nType="-99"/>
            <Node pos="r" depth="3" NCoef="0" IVar="-1" Cut="0.0000000000000000e+00" cType="1" res="-1.3548185117542744e-02" rms="3.1983458995819092e-01" purity="4.8066136240959167e-01" nType="-99"/>
          </Node>
          <Node pos="r" depth="2" NCoef="0" IVar="5" Cut="6.7763465881347656e+01" cType="1" res="-3.1642233952879906e-03" rms="2.8574991226196289e-01" purity="7.7882546186447144e-01" nType="0">
            <Node pos="l" depth="3" NCoef="0" IVar="-1" Cut="0.0000000000000000e+00" cType="1" res="-1.5121926553547382e-02" rms="3.6480373144149780e-01" purity="3.8285061717033386e-01" nType="-99"/>
            <Node pos="r" depth="3" NCoef="0" IVar="-1" Cut="0.0000000000000000e+00" cType="1" res="1.2145773507654667e-03" rms="2.6506865024566650e-01" purity="8.6584430932998657e-01" nType="-99"/>
          </Node>
        </Node>
      </Node>
    </BinaryTree>
    <BinaryTree type="DecisionTree" boostWeight="1.0000000000000000e+00" itree="607">
      <Node pos="s" depth="0" NCoef="0" IVar="10" Cut="-9.3337398767471313e-01" cType="1" res="-5.5291928583756089e-04" rms="2.8244850039482117e-01" purity="4.9851259589195251e-01" nType="0">
        <Node pos="l" depth="1" NCoef="0" IVar="3" Cut="2.0010275268554688e+02" cType="1" res="-7.1950065903365612e-03" rms="2.8519114851951599e-01" purity="4.0844061970710754e-01" nType="0">
          <Node pos="l" depth="2" NCoef="0" IVar="11" Cut="-2.1717104911804199e+00" cType="1" res="5.6895879097282887e-03" rms="2.8267109394073486e-01" purity="2.2242161631584167e-01" nType="0">
            <Node pos="l" depth="3" NCoef="0" IVar="-1" Cut="0.0000000000000000e+00" cType="1" res="3.1452387571334839e-02" rms="2.6406210660934448e-01" purity="1.1569046229124069e-01" nType="-99"/>
            <Node pos="r" depth="3" NCoef="0" IVar="-1" Cut="0.0000000000000000e+00" cType="1" res="-2.0834609866142273e-02" rms="3.1879726052284241e-01" purity="4.6157959103584290e-01" nType="-99"/>
          </Node>
          <Node pos="r" depth="2" NCoef="0" IVar="1" Cut="5.8819532394409180e-02" cType="1" res="-1.7957719042897224e-02" rms="2.8683590888977051e-01" purity="5.6382530927658081e-01" nType="0">
            <Node pos="l" depth="3" NCoef="0" IVar="-1" Cut="0.0000000000000000e+00" cType="1" res="-3.6176640540361404e-02" rms="2.8748068213462830e-01" purity="2.7199187874794006e-01" nType="-99"/>
            <Node pos="r" depth="3" NCoef="0" IVar="-1" Cut="0.0000000000000000e+00" cType="1" res="-6.3726184889674187e-03" rms="2.8569981455802917e-01" purity="8.0607968568801880e-01" nType="-99"/>
          </Node>
        </Node>
        <Node pos="r" depth="1" NCoef="0" IVar="10" Cut="1.9109742641448975e+00" cType="1" res="1.3868546811863780e-03" rms="2.8161296248435974e-01" purity="5.2481752634048462e-01" nType="0">
          <Node pos="l" depth="2" NCoef="0" IVar="10" Cut="1.3691426515579224e+00" cType="1" res="2.2366305347532034e-03" rms="2.8247725963592529e-01" purity="5.4706412553787231e-01" nType="0">
            <Node pos="l" depth="3" NCoef="0" IVar="-1" Cut="0.0000000000000000e+00" cType="1" res="5.6323566241189837e-04" rms="2.7971556782722473e-01" purity="5.5782651901245117e-01" nType="-99"/>
            <Node pos="r" depth="3" NCoef="0" IVar="-1" Cut="0.0000000000000000e+00" cType="1" res="1.9814314320683479e-02" rms="3.0446487665176392e-01" purity="4.5585164427757263e-01" nType="-99"/>
          </Node>
          <Node pos="r" depth="2" NCoef="0" IVar="7" Cut="2.0233118534088135e-01" cType="1" res="-9.4929505139589310e-03" rms="2.7006661891937256e-01" purity="2.3998992145061493e-01" nType="0">
            <Node pos="l" depth="3" NCoef="0" IVar="-1" Cut="0.0000000000000000e+00" cType="1" res="-3.6825180053710938e-02" rms="2.4606123566627502e-01" purity="2.1100702881813049e-01" nType="-99"/>
            <Node pos="r" depth="3" NCoef="0" IVar="-1" Cut="0.0000000000000000e+00" cType="1" res="1.1177931912243366e-02" rms="2.9378107190132141e-01" purity="2.7276760339736938e-01" nType="-99"/>
          </Node>
        </Node>
      </Node>
    </BinaryTree>
    <BinaryTree type="DecisionTree" boostWeight="1.0000000000000000e+00" itree="608">
      <Node pos="s" depth="0" NCoef="0" IVar="9" Cut="9.3318241834640503e-01" cType="1" res="1.8533385591581464e-03" rms="2.8241378068923950e-01" purity="4.9966409802436829e-01" nType="0">
        <Node pos="l" depth="1" NCoef="0" IVar="9" Cut="-1.7334318161010742e+00" cType="1" res="-6.5355934202671051e-04" rms="2.8376966714859009e-01" purity="5.3386509418487549e-01" nType="0">
          <Node pos="l" depth="2" NCoef="0" IVar="10" Cut="-4.0001091361045837e-01" cType="1" res="1.5056346543133259e-02" rms="2.5436601042747498e-01" purity="1.7453213036060333e-01" nType="0">
            <Node pos="l" depth="3" NCoef="0" IVar="-1" Cut="0.0000000000000000e+00" cType="1" res="6.1797607690095901e-02" rms="2.8747621178627014e-01" purity="1.8314646184444427e-01" nType="-99"/>
            <Node pos="r" depth="3" NCoef="0" IVar="-1" Cut="0.0000000000000000e+00" cType="1" res="-1.3794050551950932e-02" rms="2.1708439290523529e-01" purity="1.6662763059139252e-01" nType="-99"/>
          </Node>
          <Node pos="r" depth="2" NCoef="0" IVar="9" Cut="2.9812353849411011e-01" cType="1" res="-1.8614268628880382e-03" rms="2.8586947917938232e-01" purity="5.6149274110794067e-01" nType="0">
            <Node pos="l" depth="3" NCoef="0" IVar="-1" Cut="0.0000000000000000e+00" cType="1" res="4.1753757977858186e-04" rms="2.8702184557914734e-01" purity="5.5468940734863281e-01" nType="-99"/>
            <Node pos="r" depth="3" NCoef="0" IVar="-1" Cut="0.0000000000000000e+00" cType="1" res="-9.9334809929132462e-03" rms="2.8239497542381287e-01" purity="5.8126437664031982e-01" nType="-99"/>
          </Node>
        </Node>
        <Node pos="r" depth="1" NCoef="0" IVar="5" Cut="6.5426216125488281e+01" cType="1" res="1.2411686591804028e-02" rms="2.7638074755668640e-01" purity="3.5561877489089966e-01" nType="0">
          <Node pos="l" depth="2" NCoef="0" IVar="9" Cut="1.4663286209106445e+00" cType="1" res="2.8751161880791187e-03" rms="2.4581150710582733e-01" purity="1.0598589479923248e-01" nType="0">
            <Node pos="l" depth="3" NCoef="0" IVar="-1" Cut="0.0000000000000000e+00" cType="1" res="2.6334119960665703e-02" rms="2.9055935144424438e-01" purity="1.6687601804733276e-01" nType="-99"/>
            <Node pos="r" depth="3" NCoef="0" IVar="-1" Cut="0.0000000000000000e+00" cType="1" res="-2.8952356427907944e-02" rms="1.9620892405509949e-01" purity="5.1636628806591034e-02" nType="-99"/>
          </Node>
          <Node pos="r" depth="2" NCoef="0" IVar="8" Cut="6.6570097208023071e-01" cType="1" res="1.8586352467536926e-02" rms="2.9432111978530884e-01" purity="5.1724916696548462e-01" nType="0">
            <Node pos="l" depth="3" NCoef="0" IVar="-1" Cut="0.0000000000000000e+00" cType="1" res="9.0388087555766106e-03" rms="3.0201956629753113e-01" purity="5.4018956422805786e-01" nType="-99"/>
            <Node pos="r" depth="3" NCoef="0" IVar="-1" Cut="0.0000000000000000e+00" cType="1" res="4.3194342404603958e-02" rms="2.7509164810180664e-01" purity="4.6613460779190063e-01" nType="-99"/>
          </Node>
        </Node>
      </Node>
    </BinaryTree>
    <BinaryTree type="DecisionTree" boostWeight="1.0000000000000000e+00" itree="609">
      <Node pos="s" depth="0" NCoef="0" IVar="8" Cut="-9.3326419591903687e-01" cType="1" res="1.7240085871890187e-03" rms="2.8393578529357910e-01" purity="4.9769493937492371e-01" nType="0">
        <Node pos="l" depth="1" NCoef="0" IVar="3" Cut="2.3532321166992188e+02" cType="1" res="-8.5418000817298889e-03" rms="2.6250609755516052e-01" purity="2.8347757458686829e-01" nType="0">
          <Node pos="l" depth="2" NCoef="0" IVar="8" Cut="-1.8221043348312378e+00" cType="1" res="-1.5145821496844292e-02" rms="2.4785773456096649e-01" purity="1.9949550926685333e-01" nType="0">
            <Node pos="l" depth="3" NCoef="0" IVar="-1" Cut="0.0000000000000000e+00" cType="1" res="1.2598602101206779e-02" rms="1.8058113753795624e-01" purity="8.0821946263313293e-02" nType="-99"/>
            <Node pos="r" depth="3" NCoef="0" IVar="-1" Cut="0.0000000000000000e+00" cType="1" res="-2.9101891443133354e-02" rms="2.7017274498939514e-01" purity="2.4800506234169006e-01" nType="-99"/>
          </Node>
          <Node pos="r" depth="2" NCoef="0" IVar="9" Cut="-1.3247001171112061e-01" cType="1" res="5.3822593763470650e-03" rms="2.9049295186996460e-01" purity="4.6054720878601074e-01" nType="0">
            <Node pos="l" depth="3" NCoef="0" IVar="-1" Cut="0.0000000000000000e+00" cType="1" res="-1.0129923932254314e-02" rms="2.8232857584953308e-01" purity="4.5737746357917786e-01" nType="-99"/>
            <Node pos="r" depth="3" NCoef="0" IVar="-1" Cut="0.0000000000000000e+00" cType="1" res="2.1647529676556587e-02" rms="2.9793930053710938e-01" purity="4.6380823850631714e-01" nType="-99"/>
          </Node>
        </Node>
        <Node pos="r" depth="1" NCoef="0" IVar="11" Cut="1.6938370466232300e+00" cType="1" res="3.8498861249536276e-03" rms="2.8812870383262634e-01" purity="5.4205578565597534e-01" nType="0">
          <Node pos="l" depth="2" NCoef="0" IVar="5" Cut="8.2578773498535156e+01" cType="1" res="2.9880832880735397e-03" rms="2.8734526038169861e-01" purity="5.3801232576370239e-01" nType="0">
            <Node pos="l" depth="3" NCoef="0" IVar="-1" Cut="0.0000000000000000e+00" cType="1" res="7.3821111582219601e-03" rms="3.0913135409355164e-01" purity="2.8211608529090881e-01" nType="-99"/>
            <Node pos="r" depth="3" NCoef="0" IVar="-1" Cut="0.0000000000000000e+00" cType="1" res="-1.9668259192258120e-03" rms="2.6170802116394043e-01" purity="8.1447505950927734e-01" nType="-99"/>
          </Node>
          <Node pos="r" depth="2" NCoef="0" IVar="-1" Cut="0.0000000000000000e+00" cType="1" res="2.3135939612984657e-02" rms="3.0493786931037903e-01" purity="6.3514846563339233e-01" nType="-99"/>
        </Node>
      </Node>
    </BinaryTree>
    <BinaryTree type="DecisionTree" boostWeight="1.0000000000000000e+00" itree="610">
      <Node pos="s" depth="0" NCoef="0" IVar="10" Cut="2.2665107250213623e+00" cType="1" res="7.9992506653070450e-04" rms="2.8327304124832153e-01" purity="5.0145167112350464e-01" nType="0">
        <Node pos="l" depth="1" NCoef="0" IVar="9" Cut="1.9999917745590210e+00" cType="1" res="2.4089879298117012e-04" rms="2.8340628743171692e-01" purity="5.0826519727706909e-01" nType="0">
          <Node pos="l" depth="2" NCoef="0" IVar="9" Cut="1.0854994058609009e+00" cType="1" res="-3.6389139131642878e-04" rms="2.8543803095817566e-01" purity="5.2166408300399780e-01" nType="0">
            <Node pos="l" depth="3" NCoef="0" IVar="-1" Cut="0.0000000000000000e+00" cType="1" res="1.3381431344896555e-03" rms="2.8538486361503601e-01" purity="5.4533034563064575e-01" nType="-99"/>
            <Node pos="r" depth="3" NCoef="0" IVar="-1" Cut="0.0000000000000000e+00" cType="1" res="-1.2754068709909916e-02" rms="2.8559115529060364e-01" purity="3.5114061832427979e-01" nType="-99"/>
          </Node>
          <Node pos="r" depth="2" NCoef="0" IVar="-1" Cut="0.0000000000000000e+00" cType="1" res="3.1853906810283661e-02" rms="2.1889539062976837e-01" purity="1.3598635792732239e-01" nType="-99"/>
        </Node>
        <Node pos="r" depth="1" NCoef="0" IVar="-1" Cut="0.0000000000000000e+00" cType="1" res="2.7521211653947830e-02" rms="2.7779996395111084e-01" purity="2.6062905788421631e-01" nType="-99"/>
      </Node>
    </BinaryTree>
    <BinaryTree type="DecisionTree" boostWeight="1.0000000000000000e+00" itree="611">
      <Node pos="s" depth="0" NCoef="0" IVar="8" Cut="-9.3329662084579468e-01" cType="1" res="-1.4921815600246191e-03" rms="2.8364521265029907e-01" purity="5.0087428092956543e-01" nType="0">
        <Node pos="l" depth="1" NCoef="0" IVar="9" Cut="1.3394135236740112e-01" cType="1" res="6.1381799168884754e-03" rms="2.7530750632286072e-01" purity="3.1092578172683716e-01" nType="0">
          <Node pos="l" depth="2" NCoef="0" IVar="0" Cut="1.3108813476562500e+03" cType="1" res="1.5443535521626472e-02" rms="2.8471791744232178e-01" purity="3.3209440112113953e-01" nType="0">
            <Node pos="l" depth="3" NCoef="0" IVar="-1" Cut="0.0000000000000000e+00" cType="1" res="4.1598747484385967e-03" rms="2.2886081039905548e-01" purity="9.0137325227260590e-02" nType="-99"/>
            <Node pos="r" depth="3" NCoef="0" IVar="-1" Cut="0.0000000000000000e+00" cType="1" res="2.7069909498095512e-02" rms="3.2911255955696106e-01" purity="5.6469136476516724e-01" nType="-99"/>
          </Node>
          <Node pos="r" depth="2" NCoef="0" IVar="6" Cut="5.1100688934326172e+01" cType="1" res="-9.7976429387927055e-03" rms="2.5761747360229492e-01" purity="2.7467364072799683e-01" nType="0">
            <Node pos="l" depth="3" NCoef="0" IVar="-1" Cut="0.0000000000000000e+00" cType="1" res="2.8857141733169556e-03" rms="2.2213082015514374e-01" purity="9.7471296787261963e-02" nType="-99"/>
            <Node pos="r" depth="3" NCoef="0" IVar="-1" Cut="0.0000000000000000e+00" cType="1" res="-2.7224671095609665e-02" rms="2.9776152968406677e-01" purity="5.1090550422668457e-01" nType="-99"/>
          </Node>
        </Node>
        <Node pos="r" depth="1" NCoef="0" IVar="8" Cut="1.0221763849258423e+00" cType="1" res="-3.0902225989848375e-03" rms="2.8533470630645752e-01" purity="5.4065555334091187e-01" nType="0">
          <Node pos="l" depth="2" NCoef="0" IVar="6" Cut="6.3131359100341797e+01" cType="1" res="-5.1821521483361721e-03" rms="2.9058173298835754e-01" purity="5.9833598136901855e-01" nType="0">
            <Node pos="l" depth="3" NCoef="0" IVar="-1" Cut="0.0000000000000000e+00" cType="1" res="-8.2703195512294769e-03" rms="3.2772025465965271e-01" purity="3.7578657269477844e-01" nType="-99"/>
            <Node pos="r" depth="3" NCoef="0" IVar="-1" Cut="0.0000000000000000e+00" cType="1" res="-1.2059421715093777e-04" rms="2.3324666917324066e-01" purity="8.8896697759628296e-01" nType="-99"/>
          </Node>
          <Node pos="r" depth="2" NCoef="0" IVar="11" Cut="-7.9267299175262451e-01" cType="1" res="6.2415213324129581e-03" rms="2.6044052839279175e-01" purity="2.8335288166999817e-01" nType="0">
            <Node pos="l" depth="3" NCoef="0" IVar="-1" Cut="0.0000000000000000e+00" cType="1" res="2.5325728580355644e-02" rms="2.4077312648296356e-01" purity="1.5902234613895416e-01" nType="-99"/>
            <Node pos="r" depth="3" NCoef="0" IVar="-1" Cut="0.0000000000000000e+00" cType="1" res="-1.1732649058103561e-02" rms="2.9733756184577942e-01" purity="5.4882413148880005e-01" nType="-99"/>
          </Node>
        </Node>
      </Node>
    </BinaryTree>
    <BinaryTree type="DecisionTree" boostWeight="1.0000000000000000e+00" itree="612">
      <Node pos="s" depth="0" NCoef="0" IVar="6" Cut="5.4057559967041016e+01" cType="1" res="1.4728097012266517e-03" rms="2.8538894653320312e-01" purity="5.0143110752105713e-01" nType="0">
        <Node pos="l" depth="1" NCoef="0" IVar="2" Cut="3.2724890136718750e+02" cType="1" res="6.2956814654171467e-03" rms="2.9989546537399292e-01" purity="2.4754573404788971e-01" nType="0">
          <Node pos="l" depth="2" NCoef="0" IVar="0" Cut="1.2854967041015625e+03" cType="1" res="-7.4665137799456716e-04" rms="2.7830454707145691e-01" purity="1.7750753462314606e-01" nType="0">
            <Node pos="l" depth="3" NCoef="0" IVar="-1" Cut="0.0000000000000000e+00" cType="1" res="6.2399450689554214e-03" rms="2.5757685303688049e-01" purity="1.0897703468799591e-01" nType="-99"/>
            <Node pos="r" depth="3" NCoef="0" IVar="-1" Cut="0.0000000000000000e+00" cType="1" res="-1.8762184306979179e-02" rms="3.6710873246192932e-01" purity="5.3598624467849731e-01" nType="-99"/>
          </Node>
          <Node pos="r" depth="2" NCoef="0" IVar="7" Cut="7.2109359502792358e-01" cType="1" res="1.2374862097203732e-02" rms="3.1722867488861084e-01" purity="3.0800509452819824e-01" nType="0">
            <Node pos="l" depth="3" NCoef="0" IVar="-1" Cut="0.0000000000000000e+00" cType="1" res="1.6375405713915825e-02" rms="3.3287557959556580e-01" purity="3.5833257436752319e-01" nType="-99"/>
            <Node pos="r" depth="3" NCoef="0" IVar="-1" Cut="0.0000000000000000e+00" cType="1" res="-1.1884565465152264e-02" rms="2.5005027651786804e-01" purity="1.2195154279470444e-01" nType="-99"/>
          </Node>
        </Node>
        <Node pos="r" depth="1" NCoef="0" IVar="9" Cut="-1.4667807817459106e+00" cType="1" res="-3.9046087767928839e-03" rms="2.6818895339965820e-01" purity="7.8450882434844971e-01" nType="0">
          <Node pos="l" depth="2" NCoef="0" IVar="-1" Cut="0.0000000000000000e+00" cType="1" res="-2.9672166332602501e-02" rms="3.1962171196937561e-01" purity="4.8829737305641174e-01" nType="-99"/>
          <Node pos="r" depth="2" NCoef="0" IVar="7" Cut="1.2133612632751465e+00" cType="1" res="-2.2295105736702681e-03" rms="2.6472908258438110e-01" purity="8.0208325386047363e-01" nType="0">
            <Node pos="l" depth="3" NCoef="0" IVar="-1" Cut="0.0000000000000000e+00" cType="1" res="-4.9923881888389587e-03" rms="2.6276415586471558e-01" purity="8.2401680946350098e-01" nType="-99"/>
            <Node pos="r" depth="3" NCoef="0" IVar="-1" Cut="0.0000000000000000e+00" cType="1" res="1.9032314419746399e-02" rms="2.9470884799957275e-01" purity="4.3612369894981384e-01" nType="-99"/>
          </Node>
        </Node>
      </Node>
    </BinaryTree>
    <BinaryTree type="DecisionTree" boostWeight="1.0000000000000000e+00" itree="613">
      <Node pos="s" depth="0" NCoef="0" IVar="10" Cut="-6.6688472032546997e-01" cType="1" res="-2.3414539173245430e-03" rms="2.7770048379898071e-01" purity="4.9884688854217529e-01" nType="0">
        <Node pos="l" depth="1" NCoef="0" IVar="6" Cut="6.5727600097656250e+01" cType="1" res="-1.0250044055283070e-02" rms="2.7811977267265320e-01" purity="4.4513773918151855e-01" nType="0">
          <Node pos="l" depth="2" NCoef="0" IVar="8" Cut="-1.1996012926101685e+00" cType="1" res="-1.7064006999135017e-02" rms="2.8998848795890808e-01" purity="2.6395276188850403e-01" nType="0">
            <Node pos="l" depth="3" NCoef="0" IVar="-1" Cut="0.0000000000000000e+00" cType="1" res="6.8836766295135021e-03" rms="2.3561024665832520e-01" purity="9.9982693791389465e-02" nType="-99"/>
            <Node pos="r" depth="3" NCoef="0" IVar="-1" Cut="0.0000000000000000e+00" cType="1" res="-2.2425090894103050e-02" rms="3.0016860365867615e-01" purity="2.9906401038169861e-01" nType="-99"/>
          </Node>
          <Node pos="r" depth="2" NCoef="0" IVar="9" Cut="-1.2585473060607910e-01" cType="1" res="4.8322016373276711e-03" rms="2.4919036030769348e-01" purity="8.4617847204208374e-01" nType="0">
            <Node pos="l" depth="3" NCoef="0" IVar="-1" Cut="0.0000000000000000e+00" cType="1" res="1.6114896163344383e-02" rms="2.5967326760292053e-01" purity="8.4127575159072876e-01" nType="-99"/>
            <Node pos="r" depth="3" NCoef="0" IVar="-1" Cut="0.0000000000000000e+00" cType="1" res="-2.9580255504697561e-03" rms="2.3887164890766144e-01" purity="8.5072463750839233e-01" nType="-99"/>
          </Node>
        </Node>
        <Node pos="r" depth="1" NCoef="0" IVar="9" Cut="6.6641336679458618e-01" cType="1" res="9.9024560768157244e-04" rms="2.7745616436004639e-01" purity="5.2147322893142700e-01" nType="0">
          <Node pos="l" depth="2" NCoef="0" IVar="7" Cut="-1.1591800451278687e+00" cType="1" res="-3.4768101759254932e-03" rms="2.7616998553276062e-01" purity="5.5753850936889648e-01" nType="0">
            <Node pos="l" depth="3" NCoef="0" IVar="-1" Cut="0.0000000000000000e+00" cType="1" res="-3.7598144263029099e-02" rms="2.2779151797294617e-01" purity="2.1275629103183746e-01" nType="-99"/>
            <Node pos="r" depth="3" NCoef="0" IVar="-1" Cut="0.0000000000000000e+00" cType="1" res="-1.6273737419396639e-03" rms="2.8038111329078674e-01" purity="5.9140491485595703e-01" nType="-99"/>
          </Node>
          <Node pos="r" depth="2" NCoef="0" IVar="10" Cut="4.8849228024482727e-01" cType="1" res="1.2743345461785793e-02" rms="2.8047242760658264e-01" purity="4.2658334970474243e-01" nType="0">
            <Node pos="l" depth="3" NCoef="0" IVar="-1" Cut="0.0000000000000000e+00" cType="1" res="3.0212232843041420e-02" rms="2.6876214146614075e-01" purity="4.9385732412338257e-01" nType="-99"/>
            <Node pos="r" depth="3" NCoef="0" IVar="-1" Cut="0.0000000000000000e+00" cType="1" res="3.1331854406744242e-03" rms="2.8903633356094360e-01" purity="3.7314504384994507e-01" nType="-99"/>
          </Node>
        </Node>
      </Node>
    </BinaryTree>
    <BinaryTree type="DecisionTree" boostWeight="1.0000000000000000e+00" itree="614">
      <Node pos="s" depth="0" NCoef="0" IVar="10" Cut="-2.0000023841857910e+00" cType="1" res="-8.3919090684503317e-04" rms="2.8240942955017090e-01" purity="4.9916025996208191e-01" nType="0">
        <Node pos="l" depth="1" NCoef="0" IVar="-1" Cut="0.0000000000000000e+00" cType="1" res="2.0027935504913330e-02" rms="2.9285794496536255e-01" purity="2.5772932171821594e-01" nType="-99"/>
        <Node pos="r" depth="1" NCoef="0" IVar="1" Cut="1.0230898857116699e-01" cType="1" res="-1.7336127348244190e-03" rms="2.8182691335678101e-01" purity="5.1171189546585083e-01" nType="0">
          <Node pos="l" depth="2" NCoef="0" IVar="10" Cut="-1.5428173542022705e+00" cType="1" res="-3.7781000137329102e-03" rms="2.8948786854743958e-01" purity="3.7555831670761108e-01" nType="0">
            <Node pos="l" depth="3" NCoef="0" IVar="-1" Cut="0.0000000000000000e+00" cType="1" res="1.4285012148320675e-02" rms="2.9559996724128723e-01" purity="2.7003258466720581e-01" nType="-99"/>
            <Node pos="r" depth="3" NCoef="0" IVar="-1" Cut="0.0000000000000000e+00" cType="1" res="-5.4012234322726727e-03" rms="2.8905776143074036e-01" purity="3.8244250416755676e-01" nType="-99"/>
          </Node>
          <Node pos="r" depth="2" NCoef="0" IVar="3" Cut="2.0109361267089844e+02" cType="1" res="3.2569351606070995e-03" rms="2.6212131977081299e-01" purity="8.4405958652496338e-01" nType="0">
            <Node pos="l" depth="3" NCoef="0" IVar="-1" Cut="0.0000000000000000e+00" cType="1" res="1.2899659574031830e-02" rms="3.2765942811965942e-01" purity="6.9572138786315918e-01" nType="-99"/>
            <Node pos="r" depth="3" NCoef="0" IVar="-1" Cut="0.0000000000000000e+00" cType="1" res="-1.4371665893122554e-03" rms="2.3224845528602600e-01" purity="9.0050387382507324e-01" nType="-99"/>
          </Node>
        </Node>
      </Node>
    </BinaryTree>
    <BinaryTree type="DecisionTree" boostWeight="1.0000000000000000e+00" itree="615">
      <Node pos="s" depth="0" NCoef="0" IVar="11" Cut="1.4190381765365601e+00" cType="1" res="-6.1445956816896796e-04" rms="2.8241273760795593e-01" purity="5.0044429302215576e-01" nType="0">
        <Node pos="l" depth="1" NCoef="0" IVar="7" Cut="9.4960731267929077e-01" cType="1" res="5.7220039889216423e-04" rms="2.8207713365554810e-01" purity="4.9188596010208130e-01" nType="0">
          <Node pos="l" depth="2" NCoef="0" IVar="9" Cut="-1.7331942319869995e+00" cType="1" res="2.1589850075542927e-03" rms="2.8863438963890076e-01" purity="5.3957432508468628e-01" nType="0">
            <Node pos="l" depth="3" NCoef="0" IVar="-1" Cut="0.0000000000000000e+00" cType="1" res="-2.3556534200906754e-02" rms="2.5067189335823059e-01" purity="1.5557898581027985e-01" nType="-99"/>
            <Node pos="r" depth="3" NCoef="0" IVar="-1" Cut="0.0000000000000000e+00" cType="1" res="3.8048946298658848e-03" rms="2.9069277644157410e-01" purity="5.6237745285034180e-01" nType="-99"/>
          </Node>
          <Node pos="r" depth="2" NCoef="0" IVar="6" Cut="1.2444988250732422e+01" cType="1" res="-8.7551465258002281e-03" rms="2.3972472548484802e-01" purity="2.1156717836856842e-01" nType="0">
            <Node pos="l" depth="3" NCoef="0" IVar="-1" Cut="0.0000000000000000e+00" cType="1" res="1.1611459776759148e-02" rms="2.0287771522998810e-01" purity="8.0418750643730164e-02" nType="-99"/>
            <Node pos="r" depth="3" NCoef="0" IVar="-1" Cut="0.0000000000000000e+00" cType="1" res="-3.4833751618862152e-02" rms="2.9427081346511841e-01" purity="4.5370629429817200e-01" nType="-99"/>
          </Node>
        </Node>
        <Node pos="r" depth="1" NCoef="0" IVar="3" Cut="2.4132550048828125e+02" cType="1" res="-1.8997970968484879e-02" rms="2.8693559765815735e-01" purity="6.3302844762802124e-01" nType="0">
          <Node pos="l" depth="2" NCoef="0" IVar="-1" Cut="0.0000000000000000e+00" cType="1" res="-3.0038923025131226e-02" rms="2.9623302817344666e-01" purity="5.1672887802124023e-01" nType="-99"/>
          <Node pos="r" depth="2" NCoef="0" IVar="-1" Cut="0.0000000000000000e+00" cType="1" res="-5.8141723275184631e-03" rms="2.7392202615737915e-01" purity="7.8155243396759033e-01" nType="-99"/>
        </Node>
      </Node>
    </BinaryTree>
    <BinaryTree type="DecisionTree" boostWeight="1.0000000000000000e+00" itree="616">
      <Node pos="s" depth="0" NCoef="0" IVar="9" Cut="1.9999849796295166e+00" cType="1" res="4.2363544926047325e-03" rms="2.8633102774620056e-01" purity="5.0765061378479004e-01" nType="0">
        <Node pos="l" depth="1" NCoef="0" IVar="9" Cut="-1.6571511030197144e+00" cType="1" res="3.5508188884705305e-03" rms="2.8927358984947205e-01" purity="5.2058386802673340e-01" nType="0">
          <Node pos="l" depth="2" NCoef="0" IVar="4" Cut="1.2854412841796875e+02" cType="1" res="1.7236446961760521e-02" rms="2.6814389228820801e-01" purity="1.9717021286487579e-01" nType="0">
            <Node pos="l" depth="3" NCoef="0" IVar="-1" Cut="0.0000000000000000e+00" cType="1" res="5.7384490966796875e-02" rms="2.4759767949581146e-01" purity="1.0817764699459076e-01" nType="-99"/>
            <Node pos="r" depth="3" NCoef="0" IVar="-1" Cut="0.0000000000000000e+00" cType="1" res="6.2139383517205715e-03" rms="2.9100638628005981e-01" purity="3.0650559067726135e-01" nType="-99"/>
          </Node>
          <Node pos="r" depth="2" NCoef="0" IVar="8" Cut="1.3323943316936493e-01" cType="1" res="2.5471430271863937e-03" rms="2.9073742032051086e-01" purity="5.4430240392684937e-01" nType="0">
            <Node pos="l" depth="3" NCoef="0" IVar="-1" Cut="0.0000000000000000e+00" cType="1" res="-6.1097397701814771e-04" rms="2.9126322269439697e-01" purity="5.5531466007232666e-01" nType="-99"/>
            <Node pos="r" depth="3" NCoef="0" IVar="-1" Cut="0.0000000000000000e+00" cType="1" res="7.4088545516133308e-03" rms="2.9002651572227478e-01" purity="5.3041642904281616e-01" nType="-99"/>
          </Node>
        </Node>
        <Node pos="r" depth="1" NCoef="0" IVar="-1" Cut="0.0000000000000000e+00" cType="1" res="4.5000206679105759e-02" rms="1.8167923390865326e-01" purity="1.3671588897705078e-01" nType="-99"/>
      </Node>
    </BinaryTree>
    <BinaryTree type="DecisionTree" boostWeight="1.0000000000000000e+00" itree="617">
      <Node pos="s" depth="0" NCoef="0" IVar="8" Cut="-6.6664850711822510e-01" cType="1" res="4.5141507871448994e-04" rms="2.8282761573791504e-01" purity="5.0114214420318604e-01" nType="0">
        <Node pos="l" depth="1" NCoef="0" IVar="10" Cut="9.3291425704956055e-01" cType="1" res="-7.1566649712622166e-03" rms="2.7223438024520874e-01" purity="3.6392271518707275e-01" nType="0">
          <Node pos="l" depth="2" NCoef="0" IVar="3" Cut="2.9593103027343750e+02" cType="1" res="-1.1125907767564058e-03" rms="2.7784097194671631e-01" purity="3.8470596075057983e-01" nType="0">
            <Node pos="l" depth="3" NCoef="0" IVar="-1" Cut="0.0000000000000000e+00" cType="1" res="2.8511539567261934e-03" rms="2.7546760439872742e-01" purity="3.4174373745918274e-01" nType="-99"/>
            <Node pos="r" depth="3" NCoef="0" IVar="-1" Cut="0.0000000000000000e+00" cType="1" res="-2.0170688629150391e-02" rms="2.8878328204154968e-01" purity="5.9830361604690552e-01" nType="-99"/>
          </Node>
          <Node pos="r" depth="2" NCoef="0" IVar="-1" Cut="0.0000000000000000e+00" cType="1" res="-4.2844191193580627e-02" rms="2.4584056437015533e-01" purity="2.7709925174713135e-01" nType="-99"/>
        </Node>
        <Node pos="r" depth="1" NCoef="0" IVar="10" Cut="-6.6670858860015869e-01" cType="1" res="2.8936665039509535e-03" rms="2.8610208630561829e-01" purity="5.4519069194793701e-01" nType="0">
          <Node pos="l" depth="2" NCoef="0" IVar="11" Cut="-5.1478588581085205e-01" cType="1" res="-3.3260539639741182e-03" rms="2.8954958915710449e-01" purity="5.0039374828338623e-01" nType="0">
            <Node pos="l" depth="3" NCoef="0" IVar="-1" Cut="0.0000000000000000e+00" cType="1" res="-9.6578216180205345e-03" rms="2.9850021004676819e-01" purity="3.6606252193450928e-01" nType="-99"/>
            <Node pos="r" depth="3" NCoef="0" IVar="-1" Cut="0.0000000000000000e+00" cType="1" res="9.1203702613711357e-03" rms="2.7088531851768494e-01" purity="7.6315712928771973e-01" nType="-99"/>
          </Node>
          <Node pos="r" depth="2" NCoef="0" IVar="9" Cut="3.9992123842239380e-01" cType="1" res="5.2809496410191059e-03" rms="2.8473168611526489e-01" purity="5.6238478422164917e-01" nType="0">
            <Node pos="l" depth="3" NCoef="0" IVar="-1" Cut="0.0000000000000000e+00" cType="1" res="1.1308136396110058e-02" rms="2.8265485167503357e-01" purity="6.0225474834442139e-01" nType="-99"/>
            <Node pos="r" depth="3" NCoef="0" IVar="-1" Cut="0.0000000000000000e+00" cType="1" res="-1.8230245914310217e-03" rms="2.8794577717781067e-01" purity="4.9757176637649536e-01" nType="-99"/>
          </Node>
        </Node>
      </Node>
    </BinaryTree>
    <BinaryTree type="DecisionTree" boostWeight="1.0000000000000000e+00" itree="618">
      <Node pos="s" depth="0" NCoef="0" IVar="9" Cut="-2.0000185966491699e+00" cType="1" res="-3.3666603267192841e-03" rms="2.8186506032943726e-01" purity="4.9701914191246033e-01" nType="0">
        <Node pos="l" depth="1" NCoef="0" IVar="-1" Cut="0.0000000000000000e+00" cType="1" res="2.7371177449822426e-02" rms="2.4571539461612701e-01" purity="1.2850110232830048e-01" nType="-99"/>
        <Node pos="r" depth="1" NCoef="0" IVar="6" Cut="6.3131359100341797e+01" cType="1" res="-4.0406244806945324e-03" rms="2.8306227922439575e-01" purity="5.1033920049667358e-01" nType="0">
          <Node pos="l" depth="2" NCoef="0" IVar="3" Cut="1.4690800476074219e+02" cType="1" res="-6.6334372386336327e-03" rms="3.0433171987533569e-01" purity="2.9838287830352783e-01" nType="0">
            <Node pos="l" depth="3" NCoef="0" IVar="-1" Cut="0.0000000000000000e+00" cType="1" res="4.8181395977735519e-03" rms="2.3308473825454712e-01" purity="8.4786489605903625e-02" nType="-99"/>
            <Node pos="r" depth="3" NCoef="0" IVar="-1" Cut="0.0000000000000000e+00" cType="1" res="-8.7490528821945190e-03" rms="3.2394111156463623e-01" purity="3.6731031537055969e-01" nType="-99"/>
          </Node>
          <Node pos="r" depth="2" NCoef="0" IVar="7" Cut="9.9558925628662109e-01" cType="1" res="1.1811839067377150e-04" rms="2.4506558477878571e-01" purity="8.5030663013458252e-01" nType="0">
            <Node pos="l" depth="3" NCoef="0" IVar="-1" Cut="0.0000000000000000e+00" cType="1" res="-2.9373010620474815e-03" rms="2.4040065705776215e-01" purity="8.7019890546798706e-01" nType="-99"/>
            <Node pos="r" depth="3" NCoef="0" IVar="-1" Cut="0.0000000000000000e+00" cType="1" res="1.9181739538908005e-02" rms="2.8828227519989014e-01" purity="6.4412200450897217e-01" nType="-99"/>
          </Node>
        </Node>
      </Node>
    </BinaryTree>
    <BinaryTree type="DecisionTree" boostWeight="1.0000000000000000e+00" itree="619">
      <Node pos="s" depth="0" NCoef="0" IVar="4" Cut="2.1746972656250000e+02" cType="1" res="-6.6540075931698084e-04" rms="2.8343608975410461e-01" purity="5.0060862302780151e-01" nType="0">
        <Node pos="l" depth="1" NCoef="0" IVar="7" Cut="1.3856101036071777e-01" cType="1" res="-3.1839639414101839e-03" rms="2.8815487027168274e-01" purity="4.1131818294525146e-01" nType="0">
          <Node pos="l" depth="2" NCoef="0" IVar="4" Cut="1.2243024444580078e+02" cType="1" res="9.9390815012156963e-04" rms="2.9368036985397339e-01" purity="4.3382924795150757e-01" nType="0">
            <Node pos="l" depth="3" NCoef="0" IVar="-1" Cut="0.0000000000000000e+00" cType="1" res="1.5506018884480000e-02" rms="2.7289041876792908e-01" purity="1.7860338091850281e-01" nType="-99"/>
            <Node pos="r" depth="3" NCoef="0" IVar="-1" Cut="0.0000000000000000e+00" cType="1" res="-5.4828212596476078e-03" rms="3.0578294396400452e-01" purity="5.9336960315704346e-01" nType="-99"/>
          </Node>
          <Node pos="r" depth="2" NCoef="0" IVar="4" Cut="1.5403459167480469e+02" cType="1" res="-8.5348533466458321e-03" rms="2.8082850575447083e-01" purity="3.8248673081398010e-01" nType="0">
            <Node pos="l" depth="3" NCoef="0" IVar="-1" Cut="0.0000000000000000e+00" cType="1" res="-1.8254756927490234e-02" rms="2.6817321777343750e-01" purity="2.2659614682197571e-01" nType="-99"/>
            <Node pos="r" depth="3" NCoef="0" IVar="-1" Cut="0.0000000000000000e+00" cType="1" res="1.6530861612409353e-03" rms="3.0127170681953430e-01" purity="6.5311098098754883e-01" nType="-99"/>
          </Node>
        </Node>
        <Node pos="r" depth="1" NCoef="0" IVar="6" Cut="1.3514389991760254e+01" cType="1" res="8.5963169112801552e-03" rms="2.6515704393386841e-01" purity="8.2896339893341064e-01" nType="0">
          <Node pos="l" depth="2" NCoef="0" IVar="7" Cut="-4.3120760470628738e-02" cType="1" res="3.6537449806928635e-02" rms="3.6187282204627991e-01" purity="6.2962013483047485e-01" nType="0">
            <Node pos="l" depth="3" NCoef="0" IVar="-1" Cut="0.0000000000000000e+00" cType="1" res="1.0631151497364044e-02" rms="3.6382246017456055e-01" purity="5.9614568948745728e-01" nType="-99"/>
            <Node pos="r" depth="3" NCoef="0" IVar="-1" Cut="0.0000000000000000e+00" cType="1" res="4.1836582124233246e-02" rms="3.5910815000534058e-01" purity="6.5835458040237427e-01" nType="-99"/>
          </Node>
          <Node pos="r" depth="2" NCoef="0" IVar="7" Cut="-4.9389892816543579e-01" cType="1" res="-1.7480255337432027e-03" rms="2.1785491704940796e-01" purity="9.0276402235031128e-01" nType="0">
            <Node pos="l" depth="3" NCoef="0" IVar="-1" Cut="0.0000000000000000e+00" cType="1" res="1.6553942114114761e-02" rms="2.4231743812561035e-01" purity="8.5315775871276855e-01" nType="-99"/>
            <Node pos="r" depth="3" NCoef="0" IVar="-1" Cut="0.0000000000000000e+00" cType="1" res="-1.2655258178710938e-02" rms="2.1016973257064819e-01" purity="9.1697889566421509e-01" nType="-99"/>
          </Node>
        </Node>
      </Node>
    </BinaryTree>
    <BinaryTree type="DecisionTree" boostWeight="1.0000000000000000e+00" itree="620">
      <Node pos="s" depth="0" NCoef="0" IVar="7" Cut="6.7041534185409546e-01" cType="1" res="2.6693753898143768e-03" rms="2.8589186072349548e-01" purity="5.0544810295104980e-01" nType="0">
        <Node pos="l" depth="1" NCoef="0" IVar="7" Cut="-1.1414610147476196e+00" cType="1" res="-1.5710862498963252e-05" rms="2.9062315821647644e-01" purity="5.5340325832366943e-01" nType="0">
          <Node pos="l" depth="2" NCoef="0" IVar="5" Cut="6.5454704284667969e+01" cType="1" res="1.3177150860428810e-02" rms="2.5440034270286560e-01" purity="1.9407093524932861e-01" nType="0">
            <Node pos="l" depth="3" NCoef="0" IVar="-1" Cut="0.0000000000000000e+00" cType="1" res="2.4987899232655764e-03" rms="1.6200035810470581e-01" purity="3.9238888770341873e-02" nType="-99"/>
            <Node pos="r" depth="3" NCoef="0" IVar="-1" Cut="0.0000000000000000e+00" cType="1" res="2.6200275868177414e-02" rms="3.1149607896804810e-01" purity="3.2507655024528503e-01" nType="-99"/>
          </Node>
          <Node pos="r" depth="2" NCoef="0" IVar="10" Cut="-2.0000209808349609e+00" cType="1" res="-2.1119441371411085e-03" rms="2.9591661691665649e-01" purity="6.1049813032150269e-01" nType="0">
            <Node pos="l" depth="3" NCoef="0" IVar="-1" Cut="0.0000000000000000e+00" cType="1" res="-1.9961411133408546e-02" rms="3.0530777573585510e-01" purity="3.3500868082046509e-01" nType="-99"/>
            <Node pos="r" depth="3" NCoef="0" IVar="-1" Cut="0.0000000000000000e+00" cType="1" res="-1.4621712034568191e-03" rms="2.9549050331115723e-01" purity="6.2200289964675903e-01" nType="-99"/>
          </Node>
        </Node>
        <Node pos="r" depth="1" NCoef="0" IVar="10" Cut="-4.0050497651100159e-01" cType="1" res="1.2098671868443489e-02" rms="2.6840475201606750e-01" purity="3.3704262971878052e-01" nType="0">
          <Node pos="l" depth="2" NCoef="0" IVar="5" Cut="7.9548210144042969e+01" cType="1" res="-3.1912880949676037e-03" rms="2.5898718833923340e-01" purity="2.9464337229728699e-01" nType="0">
            <Node pos="l" depth="3" NCoef="0" IVar="-1" Cut="0.0000000000000000e+00" cType="1" res="-2.4963585659861565e-02" rms="2.1665835380554199e-01" purity="9.6591711044311523e-02" nType="-99"/>
            <Node pos="r" depth="3" NCoef="0" IVar="-1" Cut="0.0000000000000000e+00" cType="1" res="1.2756386771798134e-02" rms="3.1205770373344421e-01" purity="5.9671777486801147e-01" nType="-99"/>
          </Node>
          <Node pos="r" depth="2" NCoef="0" IVar="9" Cut="9.3313813209533691e-01" cType="1" res="1.9608611240983009e-02" rms="2.7259749174118042e-01" purity="3.5786783695220947e-01" nType="0">
            <Node pos="l" depth="3" NCoef="0" IVar="-1" Cut="0.0000000000000000e+00" cType="1" res="1.1767275631427765e-02" rms="2.7390530705451965e-01" purity="3.8722270727157593e-01" nType="-99"/>
            <Node pos="r" depth="3" NCoef="0" IVar="-1" Cut="0.0000000000000000e+00" cType="1" res="6.3430443406105042e-02" rms="2.6678207516670227e-01" purity="2.7517369389533997e-01" nType="-99"/>
          </Node>
        </Node>
      </Node>
    </BinaryTree>
    <BinaryTree type="DecisionTree" boostWeight="1.0000000000000000e+00" itree="621">
      <Node pos="s" depth="0" NCoef="0" IVar="1" Cut="1.0460596531629562e-01" cType="1" res="-1.7281170585192740e-04" rms="2.7898204326629639e-01" purity="5.0021374225616455e-01" nType="0">
        <Node pos="l" depth="1" NCoef="0" IVar="11" Cut="-1.8953428268432617e+00" cType="1" res="-2.6995793450623751e-03" rms="2.8652322292327881e-01" purity="3.6990052461624146e-01" nType="0">
          <Node pos="l" depth="2" NCoef="0" IVar="1" Cut="1.9947355613112450e-02" cType="1" res="-6.6364943049848080e-03" rms="2.7341669797897339e-01" purity="1.7697887122631073e-01" nType="0">
            <Node pos="l" depth="3" NCoef="0" IVar="-1" Cut="0.0000000000000000e+00" cType="1" res="1.1637745046755299e-04" rms="1.9991663098335266e-01" purity="7.0454910397529602e-02" nType="-99"/>
            <Node pos="r" depth="3" NCoef="0" IVar="-1" Cut="0.0000000000000000e+00" cType="1" res="-1.0926153510808945e-02" rms="3.1505399942398071e-01" purity="2.5216755270957947e-01" nType="-99"/>
          </Node>
          <Node pos="r" depth="2" NCoef="0" IVar="7" Cut="-6.0874813795089722e-01" cType="1" res="2.8148267883807421e-03" rms="3.0384692549705505e-01" purity="6.4012438058853149e-01" nType="0">
            <Node pos="l" depth="3" NCoef="0" IVar="-1" Cut="0.0000000000000000e+00" cType="1" res="-1.2507076375186443e-02" rms="3.0604478716850281e-01" purity="4.9957028031349182e-01" nType="-99"/>
            <Node pos="r" depth="3" NCoef="0" IVar="-1" Cut="0.0000000000000000e+00" cType="1" res="8.5207261145114899e-03" rms="3.0289578437805176e-01" purity="6.8855512142181396e-01" nType="-99"/>
          </Node>
        </Node>
        <Node pos="r" depth="1" NCoef="0" IVar="11" Cut="-1.8958157300949097e+00" cType="1" res="6.4151845872402191e-03" rms="2.5817045569419861e-01" purity="8.3997708559036255e-01" nType="0">
          <Node pos="l" depth="2" NCoef="0" IVar="2" Cut="3.6401525878906250e+02" cType="1" res="1.5214018523693085e-02" rms="3.6238765716552734e-01" purity="5.8847922086715698e-01" nType="0">
            <Node pos="l" depth="3" NCoef="0" IVar="-1" Cut="0.0000000000000000e+00" cType="1" res="1.0267274454236031e-02" rms="3.7559759616851807e-01" purity="5.0001394748687744e-01" nType="-99"/>
            <Node pos="r" depth="3" NCoef="0" IVar="-1" Cut="0.0000000000000000e+00" cType="1" res="1.1973229236900806e-02" rms="3.3899345993995667e-01" purity="7.3737341165542603e-01" nType="-99"/>
          </Node>
          <Node pos="r" depth="2" NCoef="0" IVar="11" Cut="1.1549537628889084e-01" cType="1" res="3.2887761481106281e-03" rms="2.0889014005661011e-01" purity="9.2933946847915649e-01" nType="0">
            <Node pos="l" depth="3" NCoef="0" IVar="-1" Cut="0.0000000000000000e+00" cType="1" res="4.2031964403577149e-04" rms="2.0285320281982422e-01" purity="9.3139863014221191e-01" nType="-99"/>
            <Node pos="r" depth="3" NCoef="0" IVar="-1" Cut="0.0000000000000000e+00" cType="1" res="1.2468195520341396e-02" rms="2.1491450071334839e-01" purity="9.2720782756805420e-01" nType="-99"/>
          </Node>
        </Node>
      </Node>
    </BinaryTree>
    <BinaryTree type="DecisionTree" boostWeight="1.0000000000000000e+00" itree="622">
      <Node pos="s" depth="0" NCoef="0" IVar="2" Cut="3.2889260864257812e+02" cType="1" res="-1.8242580117657781e-03" rms="2.8361725807189941e-01" purity="4.9701067805290222e-01" nType="0">
        <Node pos="l" depth="1" NCoef="0" IVar="8" Cut="4.0000805258750916e-01" cType="1" res="-7.5515611097216606e-03" rms="2.7984797954559326e-01" purity="4.2029199004173279e-01" nType="0">
          <Node pos="l" depth="2" NCoef="0" IVar="5" Cut="6.9340057373046875e+01" cType="1" res="-1.5215588500723243e-03" rms="2.8315076231956482e-01" purity="4.5182853937149048e-01" nType="0">
            <Node pos="l" depth="3" NCoef="0" IVar="-1" Cut="0.0000000000000000e+00" cType="1" res="-1.6627945005893707e-02" rms="2.6037973165512085e-01" purity="1.3779698312282562e-01" nType="-99"/>
            <Node pos="r" depth="3" NCoef="0" IVar="-1" Cut="0.0000000000000000e+00" cType="1" res="6.2119965441524982e-03" rms="2.9769214987754822e-01" purity="6.6937750577926636e-01" nType="-99"/>
          </Node>
          <Node pos="r" depth="2" NCoef="0" IVar="3" Cut="2.0984985351562500e+02" cType="1" res="-1.8532982096076012e-02" rms="2.7338936924934387e-01" purity="3.6285990476608276e-01" nType="0">
            <Node pos="l" depth="3" NCoef="0" IVar="-1" Cut="0.0000000000000000e+00" cType="1" res="-3.6979503929615021e-02" rms="2.6157021522521973e-01" purity="2.5226104259490967e-01" nType="-99"/>
            <Node pos="r" depth="3" NCoef="0" IVar="-1" Cut="0.0000000000000000e+00" cType="1" res="1.1015692725777626e-03" rms="2.9561421275138855e-01" purity="5.9391576051712036e-01" nType="-99"/>
          </Node>
        </Node>
        <Node pos="r" depth="1" NCoef="0" IVar="9" Cut="1.4658644199371338e+00" cType="1" res="2.6200527790933847e-03" rms="2.8642910718917847e-01" purity="5.5654335021972656e-01" nType="0">
          <Node pos="l" depth="2" NCoef="0" IVar="1" Cut="4.1755866259336472e-02" cType="1" res="9.8489306401461363e-04" rms="2.8567630052566528e-01" purity="5.8010077476501465e-01" nType="0">
            <Node pos="l" depth="3" NCoef="0" IVar="-1" Cut="0.0000000000000000e+00" cType="1" res="8.2199983298778534e-03" rms="2.8515923023223877e-01" purity="2.9183745384216309e-01" nType="-99"/>
            <Node pos="r" depth="3" NCoef="0" IVar="-1" Cut="0.0000000000000000e+00" cType="1" res="-3.9452053606510162e-03" rms="2.8596645593643188e-01" purity="7.8497833013534546e-01" nType="-99"/>
          </Node>
          <Node pos="r" depth="2" NCoef="0" IVar="-1" Cut="0.0000000000000000e+00" cType="1" res="2.4912916123867035e-02" rms="2.9431065917015076e-01" purity="2.8508782386779785e-01" nType="-99"/>
        </Node>
      </Node>
    </BinaryTree>
    <BinaryTree type="DecisionTree" boostWeight="1.0000000000000000e+00" itree="623">
      <Node pos="s" depth="0" NCoef="0" IVar="9" Cut="-1.3334080576896667e-01" cType="1" res="-5.7026912691071630e-04" rms="2.8397503495216370e-01" purity="4.9913582205772400e-01" nType="0">
        <Node pos="l" depth="1" NCoef="0" IVar="4" Cut="2.1976390075683594e+02" cType="1" res="5.5021005682647228e-03" rms="2.9076284170150757e-01" purity="4.9206498265266418e-01" nType="0">
          <Node pos="l" depth="2" NCoef="0" IVar="4" Cut="1.7171144104003906e+02" cType="1" res="9.3231527134776115e-03" rms="2.9544365406036377e-01" purity="4.2242661118507385e-01" nType="0">
            <Node pos="l" depth="3" NCoef="0" IVar="-1" Cut="0.0000000000000000e+00" cType="1" res="1.4356954954564571e-02" rms="2.9569998383522034e-01" purity="3.2168012857437134e-01" nType="-99"/>
            <Node pos="r" depth="3" NCoef="0" IVar="-1" Cut="0.0000000000000000e+00" cType="1" res="5.7130906498059630e-04" rms="2.9451817274093628e-01" purity="7.1600073575973511e-01" nType="-99"/>
          </Node>
          <Node pos="r" depth="2" NCoef="0" IVar="0" Cut="2.1308967285156250e+03" cType="1" res="-1.1184775270521641e-02" rms="2.6873371005058289e-01" purity="7.9618197679519653e-01" nType="0">
            <Node pos="l" depth="3" NCoef="0" IVar="-1" Cut="0.0000000000000000e+00" cType="1" res="-2.4026516824960709e-02" rms="3.1728675961494446e-01" purity="6.8306416273117065e-01" nType="-99"/>
            <Node pos="r" depth="3" NCoef="0" IVar="-1" Cut="0.0000000000000000e+00" cType="1" res="3.6608143709599972e-03" rms="1.9886721670627594e-01" purity="9.2480516433715820e-01" nType="-99"/>
          </Node>
        </Node>
        <Node pos="r" depth="1" NCoef="0" IVar="3" Cut="1.9215258789062500e+02" cType="1" res="-5.6279571726918221e-03" rms="2.7809384465217590e-01" purity="5.0502508878707886e-01" nType="0">
          <Node pos="l" depth="2" NCoef="0" IVar="10" Cut="-4.0000578761100769e-01" cType="1" res="-1.1678996495902538e-02" rms="2.5746360421180725e-01" purity="2.4179017543792725e-01" nType="0">
            <Node pos="l" depth="3" NCoef="0" IVar="-1" Cut="0.0000000000000000e+00" cType="1" res="8.6263585835695267e-03" rms="2.7354654669761658e-01" purity="2.5405442714691162e-01" nType="-99"/>
            <Node pos="r" depth="3" NCoef="0" IVar="-1" Cut="0.0000000000000000e+00" cType="1" res="-2.7915703132748604e-02" rms="2.4847652018070221e-01" purity="2.3561809957027435e-01" nType="-99"/>
          </Node>
          <Node pos="r" depth="2" NCoef="0" IVar="8" Cut="6.6657108068466187e-01" cType="1" res="-2.1968521177768707e-03" rms="2.8908228874206543e-01" purity="6.5428656339645386e-01" nType="0">
            <Node pos="l" depth="3" NCoef="0" IVar="-1" Cut="0.0000000000000000e+00" cType="1" res="8.5804198170080781e-04" rms="2.8743153810501099e-01" purity="6.9120073318481445e-01" nType="-99"/>
            <Node pos="r" depth="3" NCoef="0" IVar="-1" Cut="0.0000000000000000e+00" cType="1" res="-1.3046419247984886e-02" rms="2.9429230093955994e-01" purity="5.3169113397598267e-01" nType="-99"/>
          </Node>
        </Node>
      </Node>
    </BinaryTree>
    <BinaryTree type="DecisionTree" boostWeight="1.0000000000000000e+00" itree="624">
      <Node pos="s" depth="0" NCoef="0" IVar="10" Cut="2.2663526535034180e+00" cType="1" res="-1.4181424630805850e-03" rms="2.8168708086013794e-01" purity="4.9537011981010437e-01" nType="0">
        <Node pos="l" depth="1" NCoef="0" IVar="3" Cut="1.4690800476074219e+02" cType="1" res="-8.7823125068098307e-04" rms="2.8226324915885925e-01" purity="5.0350540876388550e-01" nType="0">
          <Node pos="l" depth="2" NCoef="0" IVar="3" Cut="1.3797206115722656e+02" cType="1" res="-8.3240354433655739e-03" rms="2.2585023939609528e-01" purity="1.1117362231016159e-01" nType="0">
            <Node pos="l" depth="3" NCoef="0" IVar="-1" Cut="0.0000000000000000e+00" cType="1" res="-5.4291472770273685e-03" rms="2.1462066471576691e-01" purity="9.3561984598636627e-02" nType="-99"/>
            <Node pos="r" depth="3" NCoef="0" IVar="-1" Cut="0.0000000000000000e+00" cType="1" res="-3.9368521422147751e-02" rms="2.7040493488311768e-01" purity="1.9284206628799438e-01" nType="-99"/>
          </Node>
          <Node pos="r" depth="2" NCoef="0" IVar="7" Cut="1.2156924009323120e+00" cType="1" res="6.7632750142365694e-04" rms="2.9264852404594421e-01" purity="5.8541768789291382e-01" nType="0">
            <Node pos="l" depth="3" NCoef="0" IVar="-1" Cut="0.0000000000000000e+00" cType="1" res="-5.6307151680812240e-04" rms="2.9716652631759644e-01" purity="6.1926829814910889e-01" nType="-99"/>
            <Node pos="r" depth="3" NCoef="0" IVar="-1" Cut="0.0000000000000000e+00" cType="1" res="2.1702416241168976e-02" rms="2.3663990199565887e-01" purity="2.1121402084827423e-01" nType="-99"/>
          </Node>
        </Node>
        <Node pos="r" depth="1" NCoef="0" IVar="-1" Cut="0.0000000000000000e+00" cType="1" res="-2.8491837903857231e-02" rms="2.5903680920600891e-01" purity="1.9870123267173767e-01" nType="-99"/>
      </Node>
    </BinaryTree>
    <BinaryTree type="DecisionTree" boostWeight="1.0000000000000000e+00" itree="625">
      <Node pos="s" depth="0" NCoef="0" IVar="7" Cut="-6.5142685174942017e-01" cType="1" res="1.6097221523523331e-03" rms="2.8417676687240601e-01" purity="5.0585401058197021e-01" nType="0">
        <Node pos="l" depth="1" NCoef="0" IVar="9" Cut="6.6675919294357300e-01" cType="1" res="9.8396316170692444e-03" rms="2.7439895272254944e-01" purity="3.5710039734840393e-01" nType="0">
          <Node pos="l" depth="2" NCoef="0" IVar="9" Cut="-1.3140964508056641e+00" cType="1" res="1.5295264311134815e-02" rms="2.8698945045471191e-01" purity="3.9757242798805237e-01" nType="0">
            <Node pos="l" depth="3" NCoef="0" IVar="-1" Cut="0.0000000000000000e+00" cType="1" res="-1.0994262993335724e-02" rms="2.4743761122226715e-01" purity="1.8685989081859589e-01" nType="-99"/>
            <Node pos="r" depth="3" NCoef="0" IVar="-1" Cut="0.0000000000000000e+00" cType="1" res="2.3903975263237953e-02" rms="2.9564294219017029e-01" purity="4.4940194487571716e-01" nType="-99"/>
          </Node>
          <Node pos="r" depth="2" NCoef="0" IVar="9" Cut="1.2764136791229248e+00" cType="1" res="-7.5761666521430016e-03" rms="2.2876416146755219e-01" purity="2.2790327668190002e-01" nType="0">
            <Node pos="l" depth="3" NCoef="0" IVar="-1" Cut="0.0000000000000000e+00" cType="1" res="-2.7890503406524658e-02" rms="2.4391819536685944e-01" purity="3.2754614949226379e-01" nType="-99"/>
            <Node pos="r" depth="3" NCoef="0" IVar="-1" Cut="0.0000000000000000e+00" cType="1" res="1.0811491869390011e-02" rms="2.1104878187179565e-01" purity="1.2412187457084656e-01" nType="-99"/>
          </Node>
        </Node>
        <Node pos="r" depth="1" NCoef="0" IVar="8" Cut="1.3321331143379211e-01" cType="1" res="-8.4229058120399714e-04" rms="2.8697991371154785e-01" purity="5.5017358064651489e-01" nType="0">
          <Node pos="l" depth="2" NCoef="0" IVar="4" Cut="1.7668016052246094e+02" cType="1" res="-5.2845035679638386e-03" rms="2.8258574008941650e-01" purity="5.5693554878234863e-01" nType="0">
            <Node pos="l" depth="3" NCoef="0" IVar="-1" Cut="0.0000000000000000e+00" cType="1" res="-1.2493554502725601e-02" rms="2.9900017380714417e-01" purity="3.6362379789352417e-01" nType="-99"/>
            <Node pos="r" depth="3" NCoef="0" IVar="-1" Cut="0.0000000000000000e+00" cType="1" res="4.0649697184562683e-03" rms="2.5880035758018494e-01" purity="8.1526190042495728e-01" nType="-99"/>
          </Node>
          <Node pos="r" depth="2" NCoef="0" IVar="11" Cut="-1.0667192935943604e+00" cType="1" res="4.5975372195243835e-03" rms="2.9217898845672607e-01" purity="5.4189306497573853e-01" nType="0">
            <Node pos="l" depth="3" NCoef="0" IVar="-1" Cut="0.0000000000000000e+00" cType="1" res="1.3035586103796959e-02" rms="3.0659654736518860e-01" purity="3.3732980489730835e-01" nType="-99"/>
            <Node pos="r" depth="3" NCoef="0" IVar="-1" Cut="0.0000000000000000e+00" cType="1" res="-5.9085842221975327e-03" rms="2.7394914627075195e-01" purity="7.8281909227371216e-01" nType="-99"/>
          </Node>
        </Node>
      </Node>
    </BinaryTree>
    <BinaryTree type="DecisionTree" boostWeight="1.0000000000000000e+00" itree="626">
      <Node pos="s" depth="0" NCoef="0" IVar="7" Cut="-6.6001611948013306e-01" cType="1" res="6.3865678384900093e-04" rms="2.8246590495109558e-01" purity="5.0075447559356689e-01" nType="0">
        <Node pos="l" depth="1" NCoef="0" IVar="10" Cut="-6.6629189252853394e-01" cType="1" res="-8.4227286279201508e-03" rms="2.7024030685424805e-01" purity="3.1905272603034973e-01" nType="0">
          <Node pos="l" depth="2" NCoef="0" IVar="9" Cut="-6.6744422912597656e-01" cType="1" res="3.9151357486844063e-03" rms="2.7826130390167236e-01" purity="2.8907316923141479e-01" nType="0">
            <Node pos="l" depth="3" NCoef="0" IVar="-1" Cut="0.0000000000000000e+00" cType="1" res="-2.5774763897061348e-02" rms="2.4934601783752441e-01" purity="2.1706505119800568e-01" nType="-99"/>
            <Node pos="r" depth="3" NCoef="0" IVar="-1" Cut="0.0000000000000000e+00" cType="1" res="2.3842873051762581e-02" rms="2.9384645819664001e-01" purity="3.3365419507026672e-01" nType="-99"/>
          </Node>
          <Node pos="r" depth="2" NCoef="0" IVar="6" Cut="6.1998222351074219e+01" cType="1" res="-1.5335651114583015e-02" rms="2.6538971066474915e-01" purity="3.3585029840469360e-01" nType="0">
            <Node pos="l" depth="3" NCoef="0" IVar="-1" Cut="0.0000000000000000e+00" cType="1" res="-3.2537657767534256e-02" rms="2.5881192088127136e-01" purity="1.5388299524784088e-01" nType="-99"/>
            <Node pos="r" depth="3" NCoef="0" IVar="-1" Cut="0.0000000000000000e+00" cType="1" res="7.2309479583054781e-04" rms="2.7807891368865967e-01" purity="7.1962350606918335e-01" nType="-99"/>
          </Node>
        </Node>
        <Node pos="r" depth="1" NCoef="0" IVar="9" Cut="9.3332314491271973e-01" cType="1" res="3.1508225947618484e-03" rms="2.8571185469627380e-01" purity="5.5112922191619873e-01" nType="0">
          <Node pos="l" depth="2" NCoef="0" IVar="8" Cut="1.1997877359390259e+00" cType="1" res="5.3893136791884899e-03" rms="2.8458741307258606e-01" purity="5.8989912271499634e-01" nType="0">
            <Node pos="l" depth="3" NCoef="0" IVar="-1" Cut="0.0000000000000000e+00" cType="1" res="8.1673255190253258e-03" rms="2.8798604011535645e-01" purity="6.2210148572921753e-01" nType="-99"/>
            <Node pos="r" depth="3" NCoef="0" IVar="-1" Cut="0.0000000000000000e+00" cType="1" res="-1.3577223755419254e-02" rms="2.5007525086402893e-01" purity="2.8877988457679749e-01" nType="-99"/>
          </Node>
          <Node pos="r" depth="2" NCoef="0" IVar="9" Cut="1.9111422300338745e+00" cType="1" res="-6.2347827479243279e-03" rms="2.9019105434417725e-01" purity="3.8857373595237732e-01" nType="0">
            <Node pos="l" depth="3" NCoef="0" IVar="-1" Cut="0.0000000000000000e+00" cType="1" res="-1.2657968327403069e-02" rms="2.9415908455848694e-01" purity="4.3692398071289062e-01" nType="-99"/>
            <Node pos="r" depth="3" NCoef="0" IVar="-1" Cut="0.0000000000000000e+00" cType="1" res="2.1664019674062729e-02" rms="2.7385470271110535e-01" purity="2.0735272765159607e-01" nType="-99"/>
          </Node>
        </Node>
      </Node>
    </BinaryTree>
    <BinaryTree type="DecisionTree" boostWeight="1.0000000000000000e+00" itree="627">
      <Node pos="s" depth="0" NCoef="0" IVar="9" Cut="6.6665613651275635e-01" cType="1" res="1.2269004946574569e-03" rms="2.8079149127006531e-01" purity="5.0209200382232666e-01" nType="0">
        <Node pos="l" depth="1" NCoef="0" IVar="2" Cut="3.2889556884765625e+02" cType="1" res="3.9705098606646061e-03" rms="2.8258728981018066e-01" purity="5.3766959905624390e-01" nType="0">
          <Node pos="l" depth="2" NCoef="0" IVar="1" Cut="2.0191714167594910e-02" cType="1" res="8.9742261916399002e-03" rms="2.8530389070510864e-01" purity="4.6558806300163269e-01" nType="0">
            <Node pos="l" depth="3" NCoef="0" IVar="-1" Cut="0.0000000000000000e+00" cType="1" res="-2.0122641697525978e-02" rms="1.7558808624744415e-01" purity="6.2850460410118103e-02" nType="-99"/>
            <Node pos="r" depth="3" NCoef="0" IVar="-1" Cut="0.0000000000000000e+00" cType="1" res="1.3318646699190140e-02" rms="3.0539894104003906e-01" purity="5.6073522567749023e-01" nType="-99"/>
          </Node>
          <Node pos="r" depth="2" NCoef="0" IVar="10" Cut="-1.2001777887344360e+00" cType="1" res="1.2652770965360105e-04" rms="2.8042182326316833e-01" purity="5.9304440021514893e-01" nType="0">
            <Node pos="l" depth="3" NCoef="0" IVar="-1" Cut="0.0000000000000000e+00" cType="1" res="-1.7971377819776535e-02" rms="2.8662750124931335e-01" purity="4.4905543327331543e-01" nType="-99"/>
            <Node pos="r" depth="3" NCoef="0" IVar="-1" Cut="0.0000000000000000e+00" cType="1" res="3.7127903196960688e-03" rms="2.7918270230293274e-01" purity="6.1921453475952148e-01" nType="-99"/>
          </Node>
        </Node>
        <Node pos="r" depth="1" NCoef="0" IVar="4" Cut="9.6445884704589844e+01" cType="1" res="-6.5114293247461319e-03" rms="2.7551627159118652e-01" purity="4.0174558758735657e-01" nType="0">
          <Node pos="l" depth="2" NCoef="0" IVar="8" Cut="1.3175123929977417e-01" cType="1" res="1.2094645760953426e-02" rms="2.1632084250450134e-01" purity="6.6797085106372833e-02" nType="0">
            <Node pos="l" depth="3" NCoef="0" IVar="-1" Cut="0.0000000000000000e+00" cType="1" res="7.1181058883666992e-02" rms="2.3831164836883545e-01" purity="8.3570942282676697e-02" nType="-99"/>
            <Node pos="r" depth="3" NCoef="0" IVar="-1" Cut="0.0000000000000000e+00" cType="1" res="-4.5030177570879459e-03" rms="1.9247154891490936e-01" purity="5.1099479198455811e-02" nType="-99"/>
          </Node>
          <Node pos="r" depth="2" NCoef="0" IVar="8" Cut="-3.9779400825500488e-01" cType="1" res="-1.1092151515185833e-02" rms="2.8804659843444824e-01" purity="4.8420828580856323e-01" nType="0">
            <Node pos="l" depth="3" NCoef="0" IVar="-1" Cut="0.0000000000000000e+00" cType="1" res="-2.8970636427402496e-02" rms="2.7410265803337097e-01" purity="3.6687213182449341e-01" nType="-99"/>
            <Node pos="r" depth="3" NCoef="0" IVar="-1" Cut="0.0000000000000000e+00" cType="1" res="-6.1441138386726379e-03" rms="2.9322630167007446e-01" purity="5.3078913688659668e-01" nType="-99"/>
          </Node>
        </Node>
      </Node>
    </BinaryTree>
    <BinaryTree type="DecisionTree" boostWeight="1.0000000000000000e+00" itree="628">
      <Node pos="s" depth="0" NCoef="0" IVar="9" Cut="6.6665768623352051e-01" cType="1" res="-2.2288102190941572e-03" rms="2.8410536050796509e-01" purity="4.9554231762886047e-01" nType="0">
        <Node pos="l" depth="1" NCoef="0" IVar="7" Cut="9.5169442892074585e-01" cType="1" res="-5.3239976987242699e-03" rms="2.8475731611251831e-01" purity="5.2981871366500854e-01" nType="0">
          <Node pos="l" depth="2" NCoef="0" IVar="8" Cut="-6.6617828607559204e-01" cType="1" res="-3.6657894961535931e-03" rms="2.8978672623634338e-01" purity="5.7369178533554077e-01" nType="0">
            <Node pos="l" depth="3" NCoef="0" IVar="-1" Cut="0.0000000000000000e+00" cType="1" res="5.2662026137113571e-03" rms="2.9620057344436646e-01" purity="4.5314550399780273e-01" nType="-99"/>
            <Node pos="r" depth="3" NCoef="0" IVar="-1" Cut="0.0000000000000000e+00" cType="1" res="-7.7027929946780205e-03" rms="2.8750920295715332e-01" purity="6.1484271287918091e-01" nType="-99"/>
          </Node>
          <Node pos="r" depth="2" NCoef="0" IVar="4" Cut="1.1887143707275391e+02" cType="1" res="-1.6626389697194099e-02" rms="2.4747633934020996e-01" purity="2.3077896237373352e-01" nType="0">
            <Node pos="l" depth="3" NCoef="0" IVar="-1" Cut="0.0000000000000000e+00" cType="1" res="-1.1800114996731281e-02" rms="1.5214569866657257e-01" purity="3.2211411744356155e-02" nType="-99"/>
            <Node pos="r" depth="3" NCoef="0" IVar="-1" Cut="0.0000000000000000e+00" cType="1" res="-2.8114236891269684e-02" rms="2.9038962721824646e-01" purity="3.5203519463539124e-01" nType="-99"/>
          </Node>
        </Node>
        <Node pos="r" depth="1" NCoef="0" IVar="0" Cut="1.6041075439453125e+03" cType="1" res="6.4514223486185074e-03" rms="2.8208783268928528e-01" purity="3.9941659569740295e-01" nType="0">
          <Node pos="l" depth="2" NCoef="0" IVar="1" Cut="3.8544692099094391e-02" cType="1" res="1.1964454315602779e-02" rms="2.8023412823677063e-01" purity="2.2456702589988708e-01" nType="0">
            <Node pos="l" depth="3" NCoef="0" IVar="-1" Cut="0.0000000000000000e+00" cType="1" res="-1.8603750504553318e-04" rms="2.0674265921115875e-01" purity="6.9675676524639130e-02" nType="-99"/>
            <Node pos="r" depth="3" NCoef="0" IVar="-1" Cut="0.0000000000000000e+00" cType="1" res="2.1287864074110985e-02" rms="3.4997731447219849e-01" purity="4.1653642058372498e-01" nType="-99"/>
          </Node>
          <Node pos="r" depth="2" NCoef="0" IVar="9" Cut="1.2762225866317749e+00" cType="1" res="-4.6942159533500671e-03" rms="2.8547376394271851e-01" purity="7.5290817022323608e-01" nType="0">
            <Node pos="l" depth="3" NCoef="0" IVar="-1" Cut="0.0000000000000000e+00" cType="1" res="5.2121649496257305e-03" rms="2.6920470595359802e-01" purity="8.2777225971221924e-01" nType="-99"/>
            <Node pos="r" depth="3" NCoef="0" IVar="-1" Cut="0.0000000000000000e+00" cType="1" res="-2.1658636629581451e-02" rms="3.1734859943389893e-01" purity="5.8931607007980347e-01" nType="-99"/>
          </Node>
        </Node>
      </Node>
    </BinaryTree>
    <BinaryTree type="DecisionTree" boostWeight="1.0000000000000000e+00" itree="629">
      <Node pos="s" depth="0" NCoef="0" IVar="8" Cut="-1.4665958881378174e+00" cType="1" res="3.3550783991813660e-03" rms="2.8295543789863586e-01" purity="5.0178092718124390e-01" nType="0">
        <Node pos="l" depth="1" NCoef="0" IVar="5" Cut="7.3376358032226562e+01" cType="1" res="1.3924451544880867e-02" rms="2.3758023977279663e-01" purity="1.6809186339378357e-01" nType="0">
          <Node pos="l" depth="2" NCoef="0" IVar="-1" Cut="0.0000000000000000e+00" cType="1" res="9.4875060021877289e-03" rms="1.6880451142787933e-01" purity="5.0226386636495590e-02" nType="-99"/>
          <Node pos="r" depth="2" NCoef="0" IVar="-1" Cut="0.0000000000000000e+00" cType="1" res="3.3321440219879150e-02" rms="3.2045581936836243e-01" purity="3.6537653207778931e-01" nType="-99"/>
        </Node>
        <Node pos="r" depth="1" NCoef="0" IVar="11" Cut="-1.0667192935943604e+00" cType="1" res="2.4487676564604044e-03" rms="2.8649383783340454e-01" purity="5.3039437532424927e-01" nType="0">
          <Node pos="l" depth="2" NCoef="0" IVar="11" Cut="-2.3555953502655029e+00" cType="1" res="-6.0139817651361227e-04" rms="2.9994088411331177e-01" purity="3.2557290792465210e-01" nType="0">
            <Node pos="l" depth="3" NCoef="0" IVar="-1" Cut="0.0000000000000000e+00" cType="1" res="2.0600305870175362e-03" rms="3.0350184440612793e-01" purity="2.5088319182395935e-01" nType="-99"/>
            <Node pos="r" depth="3" NCoef="0" IVar="-1" Cut="0.0000000000000000e+00" cType="1" res="-1.7165744677186012e-02" rms="2.7969670295715332e-01" purity="7.2595292329788208e-01" nType="-99"/>
          </Node>
          <Node pos="r" depth="2" NCoef="0" IVar="5" Cut="7.1727935791015625e+01" cType="1" res="6.2079182825982571e-03" rms="2.6895037293434143e-01" purity="7.8282481431961060e-01" nType="0">
            <Node pos="l" depth="3" NCoef="0" IVar="-1" Cut="0.0000000000000000e+00" cType="1" res="1.8210360780358315e-02" rms="3.4924051165580750e-01" purity="4.4857570528984070e-01" nType="-99"/>
            <Node pos="r" depth="3" NCoef="0" IVar="-1" Cut="0.0000000000000000e+00" cType="1" res="4.6814582310616970e-03" rms="2.5159391760826111e-01" purity="8.4326440095901489e-01" nType="-99"/>
          </Node>
        </Node>
      </Node>
    </BinaryTree>
    <BinaryTree type="DecisionTree" boostWeight="1.0000000000000000e+00" itree="630">
      <Node pos="s" depth="0" NCoef="0" IVar="10" Cut="2.2665107250213623e+00" cType="1" res="-1.0956860933220014e-04" rms="2.8550630807876587e-01" purity="4.9969911575317383e-01" nType="0">
        <Node pos="l" depth="1" NCoef="0" IVar="5" Cut="6.8812828063964844e+01" cType="1" res="-6.9017283385619521e-04" rms="2.8557902574539185e-01" purity="5.0737667083740234e-01" nType="0">
          <Node pos="l" depth="2" NCoef="0" IVar="5" Cut="6.0749206542968750e+01" cType="1" res="-6.0881217941641808e-03" rms="2.7789482474327087e-01" purity="1.7330034077167511e-01" nType="0">
            <Node pos="l" depth="3" NCoef="0" IVar="-1" Cut="0.0000000000000000e+00" cType="1" res="-9.6358131850138307e-04" rms="2.6716077327728271e-01" purity="1.4167441427707672e-01" nType="-99"/>
            <Node pos="r" depth="3" NCoef="0" IVar="-1" Cut="0.0000000000000000e+00" cType="1" res="-1.7313605174422264e-02" rms="2.9624989628791809e-01" purity="2.3108470439910889e-01" nType="-99"/>
          </Node>
          <Node pos="r" depth="2" NCoef="0" IVar="8" Cut="-1.3304726779460907e-01" cType="1" res="2.3684967309236526e-03" rms="2.8979811072349548e-01" purity="6.9667619466781616e-01" nType="0">
            <Node pos="l" depth="3" NCoef="0" IVar="-1" Cut="0.0000000000000000e+00" cType="1" res="1.1166653595864773e-02" rms="2.9532837867736816e-01" purity="6.9052898883819580e-01" nType="-99"/>
            <Node pos="r" depth="3" NCoef="0" IVar="-1" Cut="0.0000000000000000e+00" cType="1" res="-4.3908096849918365e-03" rms="2.8520414233207703e-01" purity="7.0153433084487915e-01" nType="-99"/>
          </Node>
        </Node>
        <Node pos="r" depth="1" NCoef="0" IVar="-1" Cut="0.0000000000000000e+00" cType="1" res="2.8776077553629875e-02" rms="2.8203403949737549e-01" purity="2.2016234695911407e-01" nType="-99"/>
      </Node>
    </BinaryTree>
    <BinaryTree type="DecisionTree" boostWeight="1.0000000000000000e+00" itree="631">
      <Node pos="s" depth="0" NCoef="0" IVar="10" Cut="1.1997886896133423e+00" cType="1" res="-2.0566799212247133e-03" rms="2.8288206458091736e-01" purity="5.0101917982101440e-01" nType="0">
        <Node pos="l" depth="1" NCoef="0" IVar="10" Cut="-2.2285797595977783e+00" cType="1" res="-4.3168684351257980e-04" rms="2.8270563483238220e-01" purity="5.2607685327529907e-01" nType="0">
          <Node pos="l" depth="2" NCoef="0" IVar="-1" Cut="0.0000000000000000e+00" cType="1" res="-3.7560548633337021e-02" rms="2.5621768832206726e-01" purity="2.0315283536911011e-01" nType="-99"/>
          <Node pos="r" depth="2" NCoef="0" IVar="9" Cut="-6.6667211055755615e-01" cType="1" res="5.3486193064600229e-04" rms="2.8358316421508789e-01" purity="5.3791582584381104e-01" nType="0">
            <Node pos="l" depth="3" NCoef="0" IVar="-1" Cut="0.0000000000000000e+00" cType="1" res="8.2299811765551567e-03" rms="2.9564422369003296e-01" purity="4.4122430682182312e-01" nType="-99"/>
            <Node pos="r" depth="3" NCoef="0" IVar="-1" Cut="0.0000000000000000e+00" cType="1" res="-2.2497696336358786e-03" rms="2.7901509404182434e-01" purity="5.7319724559783936e-01" nType="-99"/>
          </Node>
        </Node>
        <Node pos="r" depth="1" NCoef="0" IVar="8" Cut="9.3371385335922241e-01" cType="1" res="-1.0294279083609581e-02" rms="2.8363165259361267e-01" purity="3.7399414181709290e-01" nType="0">
          <Node pos="l" depth="2" NCoef="0" IVar="5" Cut="6.4059249877929688e+01" cType="1" res="-1.6587499529123306e-02" rms="2.9230359196662903e-01" purity="4.1977110505104065e-01" nType="0">
            <Node pos="l" depth="3" NCoef="0" IVar="-1" Cut="0.0000000000000000e+00" cType="1" res="-4.2927996255457401e-03" rms="2.7107644081115723e-01" purity="1.5878374874591827e-01" nType="-99"/>
            <Node pos="r" depth="3" NCoef="0" IVar="-1" Cut="0.0000000000000000e+00" cType="1" res="-2.4999363347887993e-02" rms="3.0272653698921204e-01" purity="5.5825257301330566e-01" nType="-99"/>
          </Node>
          <Node pos="r" depth="2" NCoef="0" IVar="-1" Cut="0.0000000000000000e+00" cType="1" res="1.3614173047244549e-02" rms="2.5432905554771423e-01" purity="2.3401623964309692e-01" nType="-99"/>
        </Node>
      </Node>
    </BinaryTree>
    <BinaryTree type="DecisionTree" boostWeight="1.0000000000000000e+00" itree="632">
      <Node pos="s" depth="0" NCoef="0" IVar="5" Cut="8.8200111389160156e+01" cType="1" res="4.3364713201299310e-04" rms="2.8562575578689575e-01" purity="4.9791729450225830e-01" nType="0">
        <Node pos="l" depth="1" NCoef="0" IVar="11" Cut="-1.0667192935943604e+00" cType="1" res="4.3766060844063759e-03" rms="3.0089017748832703e-01" purity="2.7552464604377747e-01" nType="0">
          <Node pos="l" depth="2" NCoef="0" IVar="5" Cut="5.7275848388671875e+01" cType="1" res="7.7451136894524097e-03" rms="2.8793901205062866e-01" purity="2.0036850869655609e-01" nType="0">
            <Node pos="l" depth="3" NCoef="0" IVar="-1" Cut="0.0000000000000000e+00" cType="1" res="-2.5297561660408974e-03" rms="2.5086897611618042e-01" purity="1.1052449792623520e-01" nType="-99"/>
            <Node pos="r" depth="3" NCoef="0" IVar="-1" Cut="0.0000000000000000e+00" cType="1" res="1.3940514996647835e-02" rms="3.0734837055206299e-01" purity="2.5269961357116699e-01" nType="-99"/>
          </Node>
          <Node pos="r" depth="2" NCoef="0" IVar="7" Cut="-6.6037017107009888e-01" cType="1" res="-6.1856042593717575e-03" rms="3.3808246254920959e-01" purity="5.1118242740631104e-01" nType="0">
            <Node pos="l" depth="3" NCoef="0" IVar="-1" Cut="0.0000000000000000e+00" cType="1" res="1.2786454521119595e-02" rms="3.3815675973892212e-01" purity="3.6012205481529236e-01" nType="-99"/>
            <Node pos="r" depth="3" NCoef="0" IVar="-1" Cut="0.0000000000000000e+00" cType="1" res="-9.7216535359621048e-03" rms="3.3785316348075867e-01" purity="5.5137181282043457e-01" nType="-99"/>
          </Node>
        </Node>
        <Node pos="r" depth="1" NCoef="0" IVar="5" Cut="1.0548213958740234e+02" cType="1" res="-5.2068093791604042e-03" rms="2.6214668154716492e-01" purity="8.1605297327041626e-01" nType="0">
          <Node pos="l" depth="2" NCoef="0" IVar="11" Cut="-2.3996117711067200e-01" cType="1" res="-1.7352381721138954e-02" rms="3.1775841116905212e-01" purity="6.7008012533187866e-01" nType="0">
            <Node pos="l" depth="3" NCoef="0" IVar="-1" Cut="0.0000000000000000e+00" cType="1" res="-2.8086392208933830e-02" rms="3.2542714476585388e-01" purity="5.9121274948120117e-01" nType="-99"/>
            <Node pos="r" depth="3" NCoef="0" IVar="-1" Cut="0.0000000000000000e+00" cType="1" res="-3.3803726546466351e-04" rms="3.0621564388275146e-01" purity="7.7718257904052734e-01" nType="-99"/>
          </Node>
          <Node pos="r" depth="2" NCoef="0" IVar="9" Cut="-6.6874021291732788e-01" cType="1" res="5.0226744860992767e-06" rms="2.3407626152038574e-01" purity="8.7869191169738770e-01" nType="0">
            <Node pos="l" depth="3" NCoef="0" IVar="-1" Cut="0.0000000000000000e+00" cType="1" res="-1.6315668821334839e-02" rms="2.6951026916503906e-01" purity="8.1838297843933105e-01" nType="-99"/>
            <Node pos="r" depth="3" NCoef="0" IVar="-1" Cut="0.0000000000000000e+00" cType="1" res="5.6576696224510670e-03" rms="2.2371339797973633e-01" purity="8.9456957578659058e-01" nType="-99"/>
          </Node>
        </Node>
      </Node>
    </BinaryTree>
    <BinaryTree type="DecisionTree" boostWeight="1.0000000000000000e+00" itree="633">
      <Node pos="s" depth="0" NCoef="0" IVar="10" Cut="6.6666340827941895e-01" cType="1" res="-5.2158103790134192e-04" rms="2.8632274270057678e-01" purity="4.9616301059722900e-01" nType="0">
        <Node pos="l" depth="1" NCoef="0" IVar="10" Cut="-1.3141484260559082e+00" cType="1" res="-3.0420047696679831e-03" rms="2.8702166676521301e-01" purity="5.1283389329910278e-01" nType="0">
          <Node pos="l" depth="2" NCoef="0" IVar="6" Cut="5.8536968231201172e+01" cType="1" res="6.6586676985025406e-03" rms="2.8982949256896973e-01" purity="3.5849088430404663e-01" nType="0">
            <Node pos="l" depth="3" NCoef="0" IVar="-1" Cut="0.0000000000000000e+00" cType="1" res="1.0594883933663368e-03" rms="2.9045477509498596e-01" purity="1.9653718173503876e-01" nType="-99"/>
            <Node pos="r" depth="3" NCoef="0" IVar="-1" Cut="0.0000000000000000e+00" cType="1" res="2.1502718329429626e-02" rms="2.8800031542778015e-01" purity="7.2094821929931641e-01" nType="-99"/>
          </Node>
          <Node pos="r" depth="2" NCoef="0" IVar="0" Cut="1.5843023681640625e+03" cType="1" res="-5.4712248966097832e-03" rms="2.8626278042793274e-01" purity="5.5148416757583618e-01" nType="0">
            <Node pos="l" depth="3" NCoef="0" IVar="-1" Cut="0.0000000000000000e+00" cType="1" res="-1.0021103546023369e-02" rms="3.0812001228332520e-01" purity="3.1134536862373352e-01" nType="-99"/>
            <Node pos="r" depth="3" NCoef="0" IVar="-1" Cut="0.0000000000000000e+00" cType="1" res="-6.5057602478191257e-04" rms="2.5747194886207581e-01" purity="8.3998376131057739e-01" nType="-99"/>
          </Node>
        </Node>
        <Node pos="r" depth="1" NCoef="0" IVar="5" Cut="6.5706596374511719e+01" cType="1" res="5.3996625356376171e-03" rms="2.8458613157272339e-01" purity="4.5699793100357056e-01" nType="0">
          <Node pos="l" depth="2" NCoef="0" IVar="1" Cut="3.5178467631340027e-02" cType="1" res="1.7548194155097008e-02" rms="2.7615633606910706e-01" purity="1.7419913411140442e-01" nType="0">
            <Node pos="l" depth="3" NCoef="0" IVar="-1" Cut="0.0000000000000000e+00" cType="1" res="1.7617661505937576e-02" rms="2.0554548501968384e-01" purity="7.7139183878898621e-02" nType="-99"/>
            <Node pos="r" depth="3" NCoef="0" IVar="-1" Cut="0.0000000000000000e+00" cType="1" res="2.6973662897944450e-02" rms="3.5209825634956360e-01" purity="3.1132882833480835e-01" nType="-99"/>
          </Node>
          <Node pos="r" depth="2" NCoef="0" IVar="0" Cut="1.2720941162109375e+03" cType="1" res="-1.1838891077786684e-03" rms="2.8883832693099976e-01" purity="6.1025267839431763e-01" nType="0">
            <Node pos="l" depth="3" NCoef="0" IVar="-1" Cut="0.0000000000000000e+00" cType="1" res="-2.2425418719649315e-02" rms="2.7661344408988953e-01" purity="1.5283465385437012e-01" nType="-99"/>
            <Node pos="r" depth="3" NCoef="0" IVar="-1" Cut="0.0000000000000000e+00" cType="1" res="4.4176345691084862e-03" rms="2.9171663522720337e-01" purity="7.2936320304870605e-01" nType="-99"/>
          </Node>
        </Node>
      </Node>
    </BinaryTree>
    <BinaryTree type="DecisionTree" boostWeight="1.0000000000000000e+00" itree="634">
      <Node pos="s" depth="0" NCoef="0" IVar="4" Cut="1.4188916015625000e+02" cType="1" res="-1.1097808601334691e-03" rms="2.8346416354179382e-01" purity="4.9585744738578796e-01" nType="0">
        <Node pos="l" depth="1" NCoef="0" IVar="3" Cut="2.6339382934570312e+02" cType="1" res="-6.2221209518611431e-03" rms="2.6693633198738098e-01" purity="2.1077808737754822e-01" nType="0">
          <Node pos="l" depth="2" NCoef="0" IVar="4" Cut="1.2884570312500000e+02" cType="1" res="-3.4551906865090132e-03" rms="2.6340618729591370e-01" purity="1.9905108213424683e-01" nType="0">
            <Node pos="l" depth="3" NCoef="0" IVar="-1" Cut="0.0000000000000000e+00" cType="1" res="3.7609826540574431e-04" rms="2.5101202726364136e-01" purity="1.6180697083473206e-01" nType="-99"/>
            <Node pos="r" depth="3" NCoef="0" IVar="-1" Cut="0.0000000000000000e+00" cType="1" res="-2.0609134808182716e-02" rms="3.1936472654342651e-01" purity="3.9212131500244141e-01" nType="-99"/>
          </Node>
          <Node pos="r" depth="2" NCoef="0" IVar="-1" Cut="0.0000000000000000e+00" cType="1" res="-2.8245659545063972e-02" rms="2.9307740926742554e-01" purity="3.0602875351905823e-01" nType="-99"/>
        </Node>
        <Node pos="r" depth="1" NCoef="0" IVar="9" Cut="-1.4667407274246216e+00" cType="1" res="2.6767752133309841e-03" rms="2.9505264759063721e-01" purity="7.0700711011886597e-01" nType="0">
          <Node pos="l" depth="2" NCoef="0" IVar="-1" Cut="0.0000000000000000e+00" cType="1" res="3.0015978962182999e-02" rms="3.0292701721191406e-01" purity="4.3158155679702759e-01" nType="-99"/>
          <Node pos="r" depth="2" NCoef="0" IVar="5" Cut="7.1512947082519531e+01" cType="1" res="9.6251285867765546e-04" rms="2.9446113109588623e-01" purity="7.2453016042709351e-01" nType="0">
            <Node pos="l" depth="3" NCoef="0" IVar="-1" Cut="0.0000000000000000e+00" cType="1" res="1.0404152795672417e-02" rms="3.5861492156982422e-01" purity="4.0213969349861145e-01" nType="-99"/>
            <Node pos="r" depth="3" NCoef="0" IVar="-1" Cut="0.0000000000000000e+00" cType="1" res="-3.1700821127742529e-03" rms="2.7450057864189148e-01" purity="8.1151533126831055e-01" nType="-99"/>
          </Node>
        </Node>
      </Node>
    </BinaryTree>
    <BinaryTree type="DecisionTree" boostWeight="1.0000000000000000e+00" itree="635">
      <Node pos="s" depth="0" NCoef="0" IVar="10" Cut="-6.6676700115203857e-01" cType="1" res="4.2433990165591240e-03" rms="2.8834784030914307e-01" purity="5.0007611513137817e-01" nType="0">
        <Node pos="l" depth="1" NCoef="0" IVar="2" Cut="3.1429196166992188e+02" cType="1" res="1.2620229274034500e-02" rms="2.9244783520698547e-01" purity="4.5804822444915771e-01" nType="0">
          <Node pos="l" depth="2" NCoef="0" IVar="1" Cut="5.9226810932159424e-02" cType="1" res="2.3331899195909500e-02" rms="2.9119384288787842e-01" purity="3.8252732157707214e-01" nType="0">
            <Node pos="l" depth="3" NCoef="0" IVar="-1" Cut="0.0000000000000000e+00" cType="1" res="1.6798662021756172e-02" rms="2.4294753372669220e-01" purity="1.3887213170528412e-01" nType="-99"/>
            <Node pos="r" depth="3" NCoef="0" IVar="-1" Cut="0.0000000000000000e+00" cType="1" res="3.6426994949579239e-02" rms="3.3831965923309326e-01" purity="6.6758823394775391e-01" nType="-99"/>
          </Node>
          <Node pos="r" depth="2" NCoef="0" IVar="8" Cut="6.6486692428588867e-01" cType="1" res="5.1261605694890022e-03" rms="2.9308930039405823e-01" purity="5.1088398694992065e-01" nType="0">
            <Node pos="l" depth="3" NCoef="0" IVar="-1" Cut="0.0000000000000000e+00" cType="1" res="5.1218864973634481e-04" rms="2.9296183586120605e-01" purity="5.4361432790756226e-01" nType="-99"/>
            <Node pos="r" depth="3" NCoef="0" IVar="-1" Cut="0.0000000000000000e+00" cType="1" res="2.6741612702608109e-02" rms="2.9289183020591736e-01" purity="3.8685914874076843e-01" nType="-99"/>
          </Node>
        </Node>
        <Node pos="r" depth="1" NCoef="0" IVar="7" Cut="1.2136229276657104e+00" cType="1" res="6.2332925153896213e-04" rms="2.8648206591606140e-01" purity="5.1823860406875610e-01" nType="0">
          <Node pos="l" depth="2" NCoef="0" IVar="8" Cut="1.3322307169437408e-01" cType="1" res="2.6448620483279228e-03" rms="2.9440879821777344e-01" purity="5.6078624725341797e-01" nType="0">
            <Node pos="l" depth="3" NCoef="0" IVar="-1" Cut="0.0000000000000000e+00" cType="1" res="-1.2277628993615508e-03" rms="2.9785031080245972e-01" purity="5.7725250720977783e-01" nType="-99"/>
            <Node pos="r" depth="3" NCoef="0" IVar="-1" Cut="0.0000000000000000e+00" cType="1" res="7.8759239986538887e-03" rms="2.9048043489456177e-01" purity="5.4248517751693726e-01" nType="-99"/>
          </Node>
          <Node pos="r" depth="2" NCoef="0" IVar="0" Cut="1.2454410400390625e+03" cType="1" res="-1.6445683315396309e-02" rms="2.0704357326030731e-01" purity="1.5898331999778748e-01" nType="0">
            <Node pos="l" depth="3" NCoef="0" IVar="-1" Cut="0.0000000000000000e+00" cType="1" res="-1.7108505591750145e-02" rms="1.2732179462909698e-01" purity="2.3177068680524826e-02" nType="-99"/>
            <Node pos="r" depth="3" NCoef="0" IVar="-1" Cut="0.0000000000000000e+00" cType="1" res="-3.2860465347766876e-02" rms="2.6039066910743713e-01" purity="2.8755399584770203e-01" nType="-99"/>
          </Node>
        </Node>
      </Node>
    </BinaryTree>
    <BinaryTree type="DecisionTree" boostWeight="1.0000000000000000e+00" itree="636">
      <Node pos="s" depth="0" NCoef="0" IVar="7" Cut="1.2029855251312256e+00" cType="1" res="-1.0370933450758457e-03" rms="2.8190320730209351e-01" purity="5.0175523757934570e-01" nType="0">
        <Node pos="l" depth="1" NCoef="0" IVar="8" Cut="-1.7319803237915039e+00" cType="1" res="-2.9849866405129433e-03" rms="2.8880324959754944e-01" purity="5.3806167840957642e-01" nType="0">
          <Node pos="l" depth="2" NCoef="0" IVar="-1" Cut="0.0000000000000000e+00" cType="1" res="-3.9775740355253220e-02" rms="2.0039272308349609e-01" purity="9.3706071376800537e-02" nType="-99"/>
          <Node pos="r" depth="2" NCoef="0" IVar="0" Cut="1.3952734375000000e+03" cType="1" res="-2.2368032950907946e-03" rms="2.9206532239913940e-01" purity="5.5766540765762329e-01" nType="0">
            <Node pos="l" depth="3" NCoef="0" IVar="-1" Cut="0.0000000000000000e+00" cType="1" res="-6.9924984127283096e-03" rms="3.0677038431167603e-01" purity="2.1887262165546417e-01" nType="-99"/>
            <Node pos="r" depth="3" NCoef="0" IVar="-1" Cut="0.0000000000000000e+00" cType="1" res="8.7747198995202780e-04" rms="2.8195503354072571e-01" purity="7.8010559082031250e-01" nType="-99"/>
          </Node>
        </Node>
        <Node pos="r" depth="1" NCoef="0" IVar="11" Cut="-1.6195765733718872e+00" cType="1" res="1.6906885430216789e-02" rms="2.0696999132633209e-01" purity="1.6730085015296936e-01" nType="0">
          <Node pos="l" depth="2" NCoef="0" IVar="9" Cut="-1.3382315635681152e-01" cType="1" res="9.3369127716869116e-04" rms="1.7645087838172913e-01" purity="4.8312641680240631e-02" nType="0">
            <Node pos="l" depth="3" NCoef="0" IVar="-1" Cut="0.0000000000000000e+00" cType="1" res="4.6017315238714218e-02" rms="1.8195109069347382e-01" purity="5.5200047791004181e-02" nType="-99"/>
            <Node pos="r" depth="3" NCoef="0" IVar="-1" Cut="0.0000000000000000e+00" cType="1" res="-2.4917462840676308e-02" rms="1.7181254923343658e-01" purity="4.3291464447975159e-02" nType="-99"/>
          </Node>
          <Node pos="r" depth="2" NCoef="0" IVar="-1" Cut="0.0000000000000000e+00" cType="1" res="5.1321607083082199e-02" rms="2.5590395927429199e-01" purity="4.1417029500007629e-01" nType="-99"/>
        </Node>
      </Node>
    </BinaryTree>
    <BinaryTree type="DecisionTree" boostWeight="1.0000000000000000e+00" itree="637">
      <Node pos="s" depth="0" NCoef="0" IVar="11" Cut="1.1427444219589233e+00" cType="1" res="-8.2988379290327430e-05" rms="2.8268614411354065e-01" purity="4.9748897552490234e-01" nType="0">
        <Node pos="l" depth="1" NCoef="0" IVar="1" Cut="1.0250684618949890e-01" cType="1" res="1.4470242895185947e-03" rms="2.8158271312713623e-01" purity="4.8324295878410339e-01" nType="0">
          <Node pos="l" depth="2" NCoef="0" IVar="9" Cut="1.1997413635253906e+00" cType="1" res="-1.2376003433018923e-03" rms="2.8755903244018555e-01" purity="3.5145413875579834e-01" nType="0">
            <Node pos="l" depth="3" NCoef="0" IVar="-1" Cut="0.0000000000000000e+00" cType="1" res="-3.5550212487578392e-03" rms="2.8985321521759033e-01" purity="3.7822929024696350e-01" nType="-99"/>
            <Node pos="r" depth="3" NCoef="0" IVar="-1" Cut="0.0000000000000000e+00" cType="1" res="1.3633644208312035e-02" rms="2.7389824390411377e-01" purity="1.9906465709209442e-01" nType="-99"/>
          </Node>
          <Node pos="r" depth="2" NCoef="0" IVar="2" Cut="4.6723974609375000e+02" cType="1" res="8.5141379386186600e-03" rms="2.6507729291915894e-01" purity="8.3016914129257202e-01" nType="0">
            <Node pos="l" depth="3" NCoef="0" IVar="-1" Cut="0.0000000000000000e+00" cType="1" res="1.4757754281163216e-02" rms="2.7034944295883179e-01" purity="8.1504458189010620e-01" nType="-99"/>
            <Node pos="r" depth="3" NCoef="0" IVar="-1" Cut="0.0000000000000000e+00" cType="1" res="-1.3107607141137123e-02" rms="2.3708021640777588e-01" purity="9.0391117334365845e-01" nType="-99"/>
          </Node>
        </Node>
        <Node pos="r" depth="1" NCoef="0" IVar="0" Cut="1.4825987548828125e+03" cType="1" res="-1.5618904493749142e-02" rms="2.9320409893989563e-01" purity="6.4214450120925903e-01" nType="0">
          <Node pos="l" depth="2" NCoef="0" IVar="-1" Cut="0.0000000000000000e+00" cType="1" res="-3.6945771425962448e-02" rms="3.2036361098289490e-01" purity="3.3546346426010132e-01" nType="-99"/>
          <Node pos="r" depth="2" NCoef="0" IVar="-1" Cut="0.0000000000000000e+00" cType="1" res="6.6057819640263915e-04" rms="2.7449044585227966e-01" purity="8.2485777139663696e-01" nType="-99"/>
        </Node>
      </Node>
    </BinaryTree>
    <BinaryTree type="DecisionTree" boostWeight="1.0000000000000000e+00" itree="638">
      <Node pos="s" depth="0" NCoef="0" IVar="10" Cut="-2.2666463851928711e+00" cType="1" res="1.8481913721188903e-03" rms="2.8432139754295349e-01" purity="4.9817034602165222e-01" nType="0">
        <Node pos="l" depth="1" NCoef="0" IVar="-1" Cut="0.0000000000000000e+00" cType="1" res="4.4604253023862839e-02" rms="3.0375599861145020e-01" purity="2.5733396410942078e-01" nType="-99"/>
        <Node pos="r" depth="1" NCoef="0" IVar="9" Cut="1.7333208322525024e+00" cType="1" res="9.1246934607625008e-04" rms="2.8368541598320007e-01" purity="5.0512522459030151e-01" nType="0">
          <Node pos="l" depth="2" NCoef="0" IVar="8" Cut="-6.6696012020111084e-01" cType="1" res="1.8309749430045485e-03" rms="2.8656253218650818e-01" purity="5.2511411905288696e-01" nType="0">
            <Node pos="l" depth="3" NCoef="0" IVar="-1" Cut="0.0000000000000000e+00" cType="1" res="9.0260151773691177e-03" rms="2.8425815701484680e-01" purity="3.9657685160636902e-01" nType="-99"/>
            <Node pos="r" depth="3" NCoef="0" IVar="-1" Cut="0.0000000000000000e+00" cType="1" res="6.8863824708387256e-05" rms="2.8728464245796204e-01" purity="5.6686007976531982e-01" nType="-99"/>
          </Node>
          <Node pos="r" depth="2" NCoef="0" IVar="4" Cut="1.1475576782226562e+02" cType="1" res="-1.5107776969671249e-02" rms="2.2713424265384674e-01" purity="1.5648654103279114e-01" nType="0">
            <Node pos="l" depth="3" NCoef="0" IVar="-1" Cut="0.0000000000000000e+00" cType="1" res="-1.6342347487807274e-02" rms="1.7457075417041779e-01" purity="4.8457566648721695e-02" nType="-99"/>
            <Node pos="r" depth="3" NCoef="0" IVar="-1" Cut="0.0000000000000000e+00" cType="1" res="-2.6919851079583168e-02" rms="2.6832076907157898e-01" purity="2.6183637976646423e-01" nType="-99"/>
          </Node>
        </Node>
      </Node>
    </BinaryTree>
    <BinaryTree type="DecisionTree" boostWeight="1.0000000000000000e+00" itree="639">
      <Node pos="s" depth="0" NCoef="0" IVar="8" Cut="1.3336019217967987e-01" cType="1" res="-1.9845574570354074e-04" rms="2.8259778022766113e-01" purity="4.9941238760948181e-01" nType="0">
        <Node pos="l" depth="1" NCoef="0" IVar="11" Cut="8.6665838956832886e-01" cType="1" res="2.9825237579643726e-03" rms="2.8609082102775574e-01" purity="5.1714974641799927e-01" nType="0">
          <Node pos="l" depth="2" NCoef="0" IVar="10" Cut="-9.3333911895751953e-01" cType="1" res="4.6526794321835041e-03" rms="2.8613257408142090e-01" purity="4.9503439664840698e-01" nType="0">
            <Node pos="l" depth="3" NCoef="0" IVar="-1" Cut="0.0000000000000000e+00" cType="1" res="-3.3049713820219040e-03" rms="2.8937795758247375e-01" purity="4.0929561853408813e-01" nType="-99"/>
            <Node pos="r" depth="3" NCoef="0" IVar="-1" Cut="0.0000000000000000e+00" cType="1" res="8.7454319000244141e-03" rms="2.8496029973030090e-01" purity="5.2457320690155029e-01" nType="-99"/>
          </Node>
          <Node pos="r" depth="2" NCoef="0" IVar="-1" Cut="0.0000000000000000e+00" cType="1" res="-1.3013320975005627e-02" rms="2.8539320826530457e-01" purity="6.9614142179489136e-01" nType="-99"/>
        </Node>
        <Node pos="r" depth="1" NCoef="0" IVar="2" Cut="5.5309777832031250e+02" cType="1" res="-4.2043514549732208e-03" rms="2.7808475494384766e-01" purity="4.7707524895668030e-01" nType="0">
          <Node pos="l" depth="2" NCoef="0" IVar="9" Cut="3.9965286850929260e-01" cType="1" res="-1.9624542910605669e-03" rms="2.7692762017250061e-01" purity="4.6902948617935181e-01" nType="0">
            <Node pos="l" depth="3" NCoef="0" IVar="-1" Cut="0.0000000000000000e+00" cType="1" res="4.3861670419573784e-03" rms="2.7840930223464966e-01" purity="5.0203734636306763e-01" nType="-99"/>
            <Node pos="r" depth="3" NCoef="0" IVar="-1" Cut="0.0000000000000000e+00" cType="1" res="-1.2755949050188065e-02" rms="2.7441510558128357e-01" purity="4.1813734173774719e-01" nType="-99"/>
          </Node>
          <Node pos="r" depth="2" NCoef="0" IVar="9" Cut="1.3292762637138367e-01" cType="1" res="-2.0945128053426743e-02" rms="2.8602266311645508e-01" purity="5.3715479373931885e-01" nType="0">
            <Node pos="l" depth="3" NCoef="0" IVar="-1" Cut="0.0000000000000000e+00" cType="1" res="-4.1374087333679199e-02" rms="2.7933531999588013e-01" purity="5.3911304473876953e-01" nType="-99"/>
            <Node pos="r" depth="3" NCoef="0" IVar="-1" Cut="0.0000000000000000e+00" cType="1" res="-7.7767432667315006e-03" rms="2.9179543256759644e-01" purity="5.3523635864257812e-01" nType="-99"/>
          </Node>
        </Node>
      </Node>
    </BinaryTree>
    <BinaryTree type="DecisionTree" boostWeight="1.0000000000000000e+00" itree="640">
      <Node pos="s" depth="0" NCoef="0" IVar="4" Cut="1.6041624450683594e+02" cType="1" res="1.9531617872416973e-03" rms="2.8406873345375061e-01" purity="5.0265729427337646e-01" nType="0">
        <Node pos="l" depth="1" NCoef="0" IVar="7" Cut="6.7080944776535034e-01" cType="1" res="6.7719155922532082e-03" rms="2.8613218665122986e-01" purity="2.8746289014816284e-01" nType="0">
          <Node pos="l" depth="2" NCoef="0" IVar="0" Cut="1.3383928222656250e+03" cType="1" res="1.1337568052113056e-02" rms="3.0350723862648010e-01" purity="3.3510020375251770e-01" nType="0">
            <Node pos="l" depth="3" NCoef="0" IVar="-1" Cut="0.0000000000000000e+00" cType="1" res="2.0374594256281853e-02" rms="2.9400932788848877e-01" purity="1.7879480123519897e-01" nType="-99"/>
            <Node pos="r" depth="3" NCoef="0" IVar="-1" Cut="0.0000000000000000e+00" cType="1" res="2.9807994142174721e-03" rms="3.1806972622871399e-01" purity="5.8738583326339722e-01" nType="-99"/>
          </Node>
          <Node pos="r" depth="2" NCoef="0" IVar="5" Cut="7.9723571777343750e+01" cType="1" res="-6.0867075808346272e-03" rms="2.2976876795291901e-01" purity="1.5329796075820923e-01" nType="0">
            <Node pos="l" depth="3" NCoef="0" IVar="-1" Cut="0.0000000000000000e+00" cType="1" res="-1.3528384733945131e-03" rms="1.9609607756137848e-01" purity="7.6310209929943085e-02" nType="-99"/>
            <Node pos="r" depth="3" NCoef="0" IVar="-1" Cut="0.0000000000000000e+00" cType="1" res="-2.2825142368674278e-02" rms="3.1423944234848022e-01" purity="4.0220165252685547e-01" nType="-99"/>
          </Node>
        </Node>
        <Node pos="r" depth="1" NCoef="0" IVar="10" Cut="-1.4667330980300903e+00" cType="1" res="-3.4935020375996828e-03" rms="2.8161898255348206e-01" purity="7.4589270353317261e-01" nType="0">
          <Node pos="l" depth="2" NCoef="0" IVar="-1" Cut="0.0000000000000000e+00" cType="1" res="-2.8308385983109474e-02" rms="3.0379000306129456e-01" purity="5.6861197948455811e-01" nType="-99"/>
          <Node pos="r" depth="2" NCoef="0" IVar="7" Cut="-1.1339043378829956e+00" cType="1" res="-1.1725802905857563e-03" rms="2.7931952476501465e-01" purity="7.6265913248062134e-01" nType="0">
            <Node pos="l" depth="3" NCoef="0" IVar="-1" Cut="0.0000000000000000e+00" cType="1" res="-2.3279458284378052e-02" rms="3.0070531368255615e-01" purity="3.6846971511840820e-01" nType="-99"/>
            <Node pos="r" depth="3" NCoef="0" IVar="-1" Cut="0.0000000000000000e+00" cType="1" res="4.5161767047829926e-04" rms="2.7763643860816956e-01" purity="7.9135257005691528e-01" nType="-99"/>
          </Node>
        </Node>
      </Node>
    </BinaryTree>
    <BinaryTree type="DecisionTree" boostWeight="1.0000000000000000e+00" itree="641">
      <Node pos="s" depth="0" NCoef="0" IVar="9" Cut="1.4665566682815552e+00" cType="1" res="9.7923481371253729e-04" rms="2.8400966525077820e-01" purity="5.0694638490676880e-01" nType="0">
        <Node pos="l" depth="1" NCoef="0" IVar="9" Cut="-1.3778358697891235e+00" cType="1" res="-3.7778847035951912e-04" rms="2.8563314676284790e-01" purity="5.3327101469039917e-01" nType="0">
          <Node pos="l" depth="2" NCoef="0" IVar="7" Cut="1.5700887143611908e-01" cType="1" res="-1.3389731757342815e-02" rms="2.5139051675796509e-01" purity="2.3046284914016724e-01" nType="0">
            <Node pos="l" depth="3" NCoef="0" IVar="-1" Cut="0.0000000000000000e+00" cType="1" res="-3.1513065099716187e-02" rms="2.6234164834022522e-01" purity="2.4182541668415070e-01" nType="-99"/>
            <Node pos="r" depth="3" NCoef="0" IVar="-1" Cut="0.0000000000000000e+00" cType="1" res="5.8357347734272480e-03" rms="2.3357352614402771e-01" purity="2.1402987837791443e-01" nType="-99"/>
          </Node>
          <Node pos="r" depth="2" NCoef="0" IVar="7" Cut="9.5540159940719604e-01" cType="1" res="1.1772416764870286e-03" rms="2.8941541910171509e-01" purity="5.6945902109146118e-01" nType="0">
            <Node pos="l" depth="3" NCoef="0" IVar="-1" Cut="0.0000000000000000e+00" cType="1" res="3.3077623229473829e-03" rms="2.9456710815429688e-01" purity="6.1752259731292725e-01" nType="-99"/>
            <Node pos="r" depth="3" NCoef="0" IVar="-1" Cut="0.0000000000000000e+00" cType="1" res="-1.4786153100430965e-02" rms="2.5223603844642639e-01" purity="2.5015187263488770e-01" nType="-99"/>
          </Node>
        </Node>
        <Node pos="r" depth="1" NCoef="0" IVar="0" Cut="1.3007309570312500e+03" cType="1" res="1.5360948629677296e-02" rms="2.6577088236808777e-01" purity="2.2795821726322174e-01" nType="0">
          <Node pos="l" depth="2" NCoef="0" IVar="-1" Cut="0.0000000000000000e+00" cType="1" res="1.9580961670726538e-03" rms="2.0472688972949982e-01" purity="5.9005085378885269e-02" nType="-99"/>
          <Node pos="r" depth="2" NCoef="0" IVar="-1" Cut="0.0000000000000000e+00" cType="1" res="2.9116053134202957e-02" rms="3.1970986723899841e-01" purity="4.1666647791862488e-01" nType="-99"/>
        </Node>
      </Node>
    </BinaryTree>
    <BinaryTree type="DecisionTree" boostWeight="1.0000000000000000e+00" itree="642">
      <Node pos="s" depth="0" NCoef="0" IVar="10" Cut="-2.2666718959808350e+00" cType="1" res="-6.9476308999583125e-04" rms="2.8224483132362366e-01" purity="4.9828886985778809e-01" nType="0">
        <Node pos="l" depth="1" NCoef="0" IVar="-1" Cut="0.0000000000000000e+00" cType="1" res="2.2723937407135963e-02" rms="2.8335902094841003e-01" purity="2.3191733658313751e-01" nType="-99"/>
        <Node pos="r" depth="1" NCoef="0" IVar="10" Cut="-8.1906360387802124e-01" cType="1" res="-1.1910350294783711e-03" rms="2.8219762444496155e-01" purity="5.0570040941238403e-01" nType="0">
          <Node pos="l" depth="2" NCoef="0" IVar="11" Cut="-1.8956612348556519e+00" cType="1" res="-7.5292317196726799e-03" rms="2.8642827272415161e-01" purity="4.4968789815902710e-01" nType="0">
            <Node pos="l" depth="3" NCoef="0" IVar="-1" Cut="0.0000000000000000e+00" cType="1" res="7.1927823591977358e-04" rms="2.9145270586013794e-01" purity="2.2047613561153412e-01" nType="-99"/>
            <Node pos="r" depth="3" NCoef="0" IVar="-1" Cut="0.0000000000000000e+00" cType="1" res="-2.0669121295213699e-02" rms="2.8017771244049072e-01" purity="7.1611976623535156e-01" nType="-99"/>
          </Node>
          <Node pos="r" depth="2" NCoef="0" IVar="9" Cut="1.3318902254104614e-01" cType="1" res="7.8159238910302520e-04" rms="2.8083875775337219e-01" purity="5.2313303947448730e-01" nType="0">
            <Node pos="l" depth="3" NCoef="0" IVar="-1" Cut="0.0000000000000000e+00" cType="1" res="-2.7745980769395828e-03" rms="2.8279024362564087e-01" purity="5.3565979003906250e-01" nType="-99"/>
            <Node pos="r" depth="3" NCoef="0" IVar="-1" Cut="0.0000000000000000e+00" cType="1" res="5.2382447756826878e-03" rms="2.7851328253746033e-01" purity="5.0858658552169800e-01" nType="-99"/>
          </Node>
        </Node>
      </Node>
    </BinaryTree>
    <BinaryTree type="DecisionTree" boostWeight="1.0000000000000000e+00" itree="643">
      <Node pos="s" depth="0" NCoef="0" IVar="1" Cut="1.2550190091133118e-01" cType="1" res="2.0399948116391897e-03" rms="2.8645792603492737e-01" purity="5.0550383329391479e-01" nType="0">
        <Node pos="l" depth="1" NCoef="0" IVar="9" Cut="1.4663975238800049e+00" cType="1" res="4.3009812943637371e-03" rms="2.9505762457847595e-01" purity="4.1111159324645996e-01" nType="0">
          <Node pos="l" depth="2" NCoef="0" IVar="9" Cut="1.2632006406784058e+00" cType="1" res="5.7892887853085995e-03" rms="2.9914626479148865e-01" purity="4.3814134597778320e-01" nType="0">
            <Node pos="l" depth="3" NCoef="0" IVar="-1" Cut="0.0000000000000000e+00" cType="1" res="5.1681692712008953e-03" rms="2.9842746257781982e-01" purity="4.4061774015426636e-01" nType="-99"/>
            <Node pos="r" depth="3" NCoef="0" IVar="-1" Cut="0.0000000000000000e+00" cType="1" res="3.9073646068572998e-02" rms="3.1606954336166382e-01" purity="3.7260514497756958e-01" nType="-99"/>
          </Node>
          <Node pos="r" depth="2" NCoef="0" IVar="5" Cut="6.5430198669433594e+01" cType="1" res="-8.8181328028440475e-03" rms="2.5583574175834656e-01" purity="1.7285020649433136e-01" nType="0">
            <Node pos="l" depth="3" NCoef="0" IVar="-1" Cut="0.0000000000000000e+00" cType="1" res="2.0333895459771156e-02" rms="2.1649995446205139e-01" purity="6.1717696487903595e-02" nType="-99"/>
            <Node pos="r" depth="3" NCoef="0" IVar="-1" Cut="0.0000000000000000e+00" cType="1" res="-2.6442963629961014e-02" rms="2.8763255476951599e-01" purity="2.7923777699470520e-01" nType="-99"/>
          </Node>
        </Node>
        <Node pos="r" depth="1" NCoef="0" IVar="11" Cut="-2.7240407466888428e+00" cType="1" res="-6.3921124674379826e-03" rms="2.5163021683692932e-01" purity="8.5752958059310913e-01" nType="0">
          <Node pos="l" depth="2" NCoef="0" IVar="-1" Cut="0.0000000000000000e+00" cType="1" res="-1.8970629200339317e-02" rms="3.7906941771507263e-01" purity="5.5900126695632935e-01" nType="-99"/>
          <Node pos="r" depth="2" NCoef="0" IVar="-1" Cut="0.0000000000000000e+00" cType="1" res="-1.5985033242031932e-03" rms="2.0533517003059387e-01" purity="9.3552583456039429e-01" nType="-99"/>
        </Node>
      </Node>
    </BinaryTree>
    <BinaryTree type="DecisionTree" boostWeight="1.0000000000000000e+00" itree="644">
      <Node pos="s" depth="0" NCoef="0" IVar="7" Cut="-6.5973514318466187e-01" cType="1" res="-1.5721906675025821e-03" rms="2.8462874889373779e-01" purity="5.0161850452423096e-01" nType="0">
        <Node pos="l" depth="1" NCoef="0" IVar="9" Cut="-1.3316543400287628e-01" cType="1" res="6.7042773589491844e-03" rms="2.7501088380813599e-01" purity="3.4379214048385620e-01" nType="0">
          <Node pos="l" depth="2" NCoef="0" IVar="8" Cut="1.3385379314422607e-01" cType="1" res="1.5389576554298401e-02" rms="2.7980285882949829e-01" purity="3.6174026131629944e-01" nType="0">
            <Node pos="l" depth="3" NCoef="0" IVar="-1" Cut="0.0000000000000000e+00" cType="1" res="9.1410903260111809e-03" rms="2.8280022740364075e-01" purity="3.7614202499389648e-01" nType="-99"/>
            <Node pos="r" depth="3" NCoef="0" IVar="-1" Cut="0.0000000000000000e+00" cType="1" res="3.7261277437210083e-02" rms="2.7450698614120483e-01" purity="3.3874464035034180e-01" nType="-99"/>
          </Node>
          <Node pos="r" depth="2" NCoef="0" IVar="2" Cut="3.0019692993164062e+02" cType="1" res="-3.1094180885702372e-03" rms="2.6915675401687622e-01" purity="3.2351216673851013e-01" nType="0">
            <Node pos="l" depth="3" NCoef="0" IVar="-1" Cut="0.0000000000000000e+00" cType="1" res="-2.7399456128478050e-02" rms="2.5388666987419128e-01" purity="2.4821941554546356e-01" nType="-99"/>
            <Node pos="r" depth="3" NCoef="0" IVar="-1" Cut="0.0000000000000000e+00" cType="1" res="7.8777708113193512e-03" rms="2.7688968181610107e-01" purity="3.6545732617378235e-01" nType="-99"/>
          </Node>
        </Node>
        <Node pos="r" depth="1" NCoef="0" IVar="10" Cut="-1.4667189121246338e+00" cType="1" res="-3.9160167798399925e-03" rms="2.8725063800811768e-01" purity="5.4631364345550537e-01" nType="0">
          <Node pos="l" depth="2" NCoef="0" IVar="11" Cut="-1.6195173263549805e+00" cType="1" res="8.9188879355788231e-03" rms="3.0707699060440063e-01" purity="4.0302839875221252e-01" nType="0">
            <Node pos="l" depth="3" NCoef="0" IVar="-1" Cut="0.0000000000000000e+00" cType="1" res="2.1063862368464470e-02" rms="3.1443697214126587e-01" purity="2.3967713117599487e-01" nType="-99"/>
            <Node pos="r" depth="3" NCoef="0" IVar="-1" Cut="0.0000000000000000e+00" cType="1" res="-7.7716629020869732e-03" rms="2.9429608583450317e-01" purity="6.6231620311737061e-01" nType="-99"/>
          </Node>
          <Node pos="r" depth="2" NCoef="0" IVar="4" Cut="1.3507359313964844e+02" cType="1" res="-5.3629744797945023e-03" rms="2.8489270806312561e-01" purity="5.6246703863143921e-01" nType="0">
            <Node pos="l" depth="3" NCoef="0" IVar="-1" Cut="0.0000000000000000e+00" cType="1" res="-1.3324106112122536e-02" rms="2.7920421957969666e-01" purity="2.2404760122299194e-01" nType="-99"/>
            <Node pos="r" depth="3" NCoef="0" IVar="-1" Cut="0.0000000000000000e+00" cType="1" res="-2.4242983199656010e-03" rms="2.8792688250541687e-01" purity="7.4901449680328369e-01" nType="-99"/>
          </Node>
        </Node>
      </Node>
    </BinaryTree>
    <BinaryTree type="DecisionTree" boostWeight="1.0000000000000000e+00" itree="645">
      <Node pos="s" depth="0" NCoef="0" IVar="9" Cut="1.9999843835830688e+00" cType="1" res="7.3951564263552427e-04" rms="2.8568899631500244e-01" purity="4.9908459186553955e-01" nType="0">
        <Node pos="l" depth="1" NCoef="0" IVar="1" Cut="8.3595633506774902e-02" cType="1" res="1.4394127065315843e-03" rms="2.8827625513076782e-01" purity="5.1377189159393311e-01" nType="0">
          <Node pos="l" depth="2" NCoef="0" IVar="11" Cut="1.4183957576751709e+00" cType="1" res="4.3983766809105873e-03" rms="2.9202565550804138e-01" purity="3.4556418657302856e-01" nType="0">
            <Node pos="l" depth="3" NCoef="0" IVar="-1" Cut="0.0000000000000000e+00" cType="1" res="3.5572750493884087e-03" rms="2.8936547040939331e-01" purity="3.3829078078269958e-01" nType="-99"/>
            <Node pos="r" depth="3" NCoef="0" IVar="-1" Cut="0.0000000000000000e+00" cType="1" res="2.5549665093421936e-02" rms="3.3564022183418274e-01" purity="4.7730624675750732e-01" nType="-99"/>
          </Node>
          <Node pos="r" depth="2" NCoef="0" IVar="2" Cut="4.8733514404296875e+02" cType="1" res="-3.6109816282987595e-03" rms="2.8168973326683044e-01" purity="8.0087083578109741e-01" nType="0">
            <Node pos="l" depth="3" NCoef="0" IVar="-1" Cut="0.0000000000000000e+00" cType="1" res="-7.6712029986083508e-03" rms="2.8880602121353149e-01" purity="7.8101342916488647e-01" nType="-99"/>
            <Node pos="r" depth="3" NCoef="0" IVar="-1" Cut="0.0000000000000000e+00" cType="1" res="1.6350118443369865e-02" rms="2.4085761606693268e-01" purity="9.0405046939849854e-01" nType="-99"/>
          </Node>
        </Node>
        <Node pos="r" depth="1" NCoef="0" IVar="-1" Cut="0.0000000000000000e+00" cType="1" res="-3.3875901252031326e-02" rms="2.0441918075084686e-01" purity="1.0869292169809341e-01" nType="-99"/>
      </Node>
    </BinaryTree>
    <BinaryTree type="DecisionTree" boostWeight="1.0000000000000000e+00" itree="646">
      <Node pos="s" depth="0" NCoef="0" IVar="3" Cut="3.3273370361328125e+02" cType="1" res="-2.0287979859858751e-03" rms="2.8243008255958557e-01" purity="4.9954646825790405e-01" nType="0">
        <Node pos="l" depth="1" NCoef="0" IVar="8" Cut="-9.3329662084579468e-01" cType="1" res="-3.3286449033766985e-03" rms="2.8431212902069092e-01" purity="4.5250496268272400e-01" nType="0">
          <Node pos="l" depth="2" NCoef="0" IVar="4" Cut="1.7093284606933594e+02" cType="1" res="6.1347512528300285e-03" rms="2.7421262860298157e-01" purity="2.8355008363723755e-01" nType="0">
            <Node pos="l" depth="3" NCoef="0" IVar="-1" Cut="0.0000000000000000e+00" cType="1" res="1.9578432664275169e-02" rms="2.6672556996345520e-01" purity="1.9686055183410645e-01" nType="-99"/>
            <Node pos="r" depth="3" NCoef="0" IVar="-1" Cut="0.0000000000000000e+00" cType="1" res="-1.5646509826183319e-02" rms="2.9494130611419678e-01" purity="5.4955279827117920e-01" nType="-99"/>
          </Node>
          <Node pos="r" depth="2" NCoef="0" IVar="10" Cut="6.6665148735046387e-01" cType="1" res="-5.4382062517106533e-03" rms="2.8647238016128540e-01" purity="4.9016809463500977e-01" nType="0">
            <Node pos="l" depth="3" NCoef="0" IVar="-1" Cut="0.0000000000000000e+00" cType="1" res="-1.0970430448651314e-02" rms="2.8416758775711060e-01" purity="5.0985991954803467e-01" nType="-99"/>
            <Node pos="r" depth="3" NCoef="0" IVar="-1" Cut="0.0000000000000000e+00" cType="1" res="3.5608818288892508e-03" rms="2.9129824042320251e-01" purity="4.4683957099914551e-01" nType="-99"/>
          </Node>
        </Node>
        <Node pos="r" depth="1" NCoef="0" IVar="5" Cut="1.1453543090820312e+02" cType="1" res="4.8440382815897465e-03" rms="2.7215951681137085e-01" purity="7.4827474355697632e-01" nType="0">
          <Node pos="l" depth="2" NCoef="0" IVar="10" Cut="6.6683942079544067e-01" cType="1" res="1.0863287374377251e-02" rms="3.1403464078903198e-01" purity="6.1267197132110596e-01" nType="0">
            <Node pos="l" depth="3" NCoef="0" IVar="-1" Cut="0.0000000000000000e+00" cType="1" res="1.6079483553767204e-02" rms="3.1273782253265381e-01" purity="6.3804721832275391e-01" nType="-99"/>
            <Node pos="r" depth="3" NCoef="0" IVar="-1" Cut="0.0000000000000000e+00" cType="1" res="-6.0938983224332333e-03" rms="3.1664499640464783e-01" purity="5.4787760972976685e-01" nType="-99"/>
          </Node>
          <Node pos="r" depth="2" NCoef="0" IVar="-1" Cut="0.0000000000000000e+00" cType="1" res="-7.0059909485280514e-03" rms="2.0431864261627197e-01" purity="9.2623609304428101e-01" nType="-99"/>
        </Node>
      </Node>
    </BinaryTree>
    <BinaryTree type="DecisionTree" boostWeight="1.0000000000000000e+00" itree="647">
      <Node pos="s" depth="0" NCoef="0" IVar="5" Cut="7.1511108398437500e+01" cType="1" res="-7.4439612217247486e-04" rms="2.8444755077362061e-01" purity="4.9507722258567810e-01" nType="0">
        <Node pos="l" depth="1" NCoef="0" IVar="5" Cut="6.5364952087402344e+01" cType="1" res="-4.7662248834967613e-03" rms="2.7958729863166809e-01" purity="1.8157835304737091e-01" nType="0">
          <Node pos="l" depth="2" NCoef="0" IVar="5" Cut="6.1706493377685547e+01" cType="1" res="-8.0631766468286514e-03" rms="2.6293256878852844e-01" purity="1.5077796578407288e-01" nType="0">
            <Node pos="l" depth="3" NCoef="0" IVar="-1" Cut="0.0000000000000000e+00" cType="1" res="-5.9828613884747028e-03" rms="2.5948384404182434e-01" purity="1.4038830995559692e-01" nType="-99"/>
            <Node pos="r" depth="3" NCoef="0" IVar="-1" Cut="0.0000000000000000e+00" cType="1" res="-2.7278928086161613e-02" rms="2.7637094259262085e-01" purity="1.9442558288574219e-01" nType="-99"/>
          </Node>
          <Node pos="r" depth="2" NCoef="0" IVar="6" Cut="3.3921809196472168e+00" cType="1" res="8.0618467181921005e-03" rms="3.3633077144622803e-01" purity="3.0141919851303101e-01" nType="0">
            <Node pos="l" depth="3" NCoef="0" IVar="-1" Cut="0.0000000000000000e+00" cType="1" res="1.8207874149084091e-02" rms="3.3579277992248535e-01" purity="2.1658301353454590e-01" nType="-99"/>
            <Node pos="r" depth="3" NCoef="0" IVar="-1" Cut="0.0000000000000000e+00" cType="1" res="-5.7795718312263489e-03" rms="3.3666807413101196e-01" purity="4.3785452842712402e-01" nType="-99"/>
          </Node>
        </Node>
        <Node pos="r" depth="1" NCoef="0" IVar="1" Cut="4.0292896330356598e-02" cType="1" res="2.0460097584873438e-03" rms="2.8773844242095947e-01" purity="7.1258747577667236e-01" nType="0">
          <Node pos="l" depth="2" NCoef="0" IVar="1" Cut="3.0700623989105225e-02" cType="1" res="1.1023429222404957e-02" rms="3.1844970583915710e-01" purity="3.9120382070541382e-01" nType="0">
            <Node pos="l" depth="3" NCoef="0" IVar="-1" Cut="0.0000000000000000e+00" cType="1" res="5.2210357971489429e-03" rms="3.0560541152954102e-01" purity="3.2973718643188477e-01" nType="-99"/>
            <Node pos="r" depth="3" NCoef="0" IVar="-1" Cut="0.0000000000000000e+00" cType="1" res="2.4098180234432220e-02" rms="3.5388982295989990e-01" purity="5.7710921764373779e-01" nType="-99"/>
          </Node>
          <Node pos="r" depth="2" NCoef="0" IVar="2" Cut="3.0019952392578125e+02" cType="1" res="-1.2287652352824807e-03" rms="2.7561250329017639e-01" purity="8.2982152700424194e-01" nType="0">
            <Node pos="l" depth="3" NCoef="0" IVar="-1" Cut="0.0000000000000000e+00" cType="1" res="-7.9367337748408318e-03" rms="2.9539147019386292e-01" purity="7.6372224092483521e-01" nType="-99"/>
            <Node pos="r" depth="3" NCoef="0" IVar="-1" Cut="0.0000000000000000e+00" cType="1" res="2.0395882893353701e-03" rms="2.6597562432289124e-01" purity="8.6023259162902832e-01" nType="-99"/>
          </Node>
        </Node>
      </Node>
    </BinaryTree>
    <BinaryTree type="DecisionTree" boostWeight="1.0000000000000000e+00" itree="648">
      <Node pos="s" depth="0" NCoef="0" IVar="7" Cut="-3.9394235610961914e-01" cType="1" res="-8.2939723506569862e-04" rms="2.8379285335540771e-01" purity="4.9594751000404358e-01" nType="0">
        <Node pos="l" depth="1" NCoef="0" IVar="10" Cut="-6.6671693325042725e-01" cType="1" res="-5.3133512847125530e-03" rms="2.7805769443511963e-01" purity="4.0734964609146118e-01" nType="0">
          <Node pos="l" depth="2" NCoef="0" IVar="10" Cut="-1.7841949462890625e+00" cType="1" res="-1.6455722972750664e-02" rms="2.7484986186027527e-01" purity="3.4974759817123413e-01" nType="0">
            <Node pos="l" depth="3" NCoef="0" IVar="-1" Cut="0.0000000000000000e+00" cType="1" res="3.6164124030619860e-03" rms="2.6218965649604797e-01" purity="2.3394286632537842e-01" nType="-99"/>
            <Node pos="r" depth="3" NCoef="0" IVar="-1" Cut="0.0000000000000000e+00" cType="1" res="-2.7558926492929459e-02" rms="2.7878418564796448e-01" purity="3.8973441720008850e-01" nType="-99"/>
          </Node>
          <Node pos="r" depth="2" NCoef="0" IVar="10" Cut="1.5868756175041199e-01" cType="1" res="7.4407097417861223e-04" rms="2.7959993481636047e-01" purity="4.3866437673568726e-01" nType="0">
            <Node pos="l" depth="3" NCoef="0" IVar="-1" Cut="0.0000000000000000e+00" cType="1" res="1.5720002353191376e-02" rms="2.9074555635452271e-01" purity="5.1998090744018555e-01" nType="-99"/>
            <Node pos="r" depth="3" NCoef="0" IVar="-1" Cut="0.0000000000000000e+00" cType="1" res="-9.4349002465605736e-03" rms="2.7162787318229675e-01" purity="3.8465240597724915e-01" nType="-99"/>
          </Node>
        </Node>
        <Node pos="r" depth="1" NCoef="0" IVar="10" Cut="9.3314051628112793e-01" cType="1" res="1.3249531621113420e-03" rms="2.8648257255554199e-01" purity="5.3851497173309326e-01" nType="0">
          <Node pos="l" depth="2" NCoef="0" IVar="4" Cut="1.3354689025878906e+02" cType="1" res="3.9062069263309240e-03" rms="2.8758132457733154e-01" purity="5.6859850883483887e-01" nType="0">
            <Node pos="l" depth="3" NCoef="0" IVar="-1" Cut="0.0000000000000000e+00" cType="1" res="1.6821829602122307e-02" rms="2.9014697670936584e-01" purity="2.3613910377025604e-01" nType="-99"/>
            <Node pos="r" depth="3" NCoef="0" IVar="-1" Cut="0.0000000000000000e+00" cType="1" res="-1.5482405433431268e-03" rms="2.8609558939933777e-01" purity="7.4218523502349854e-01" nType="-99"/>
          </Node>
          <Node pos="r" depth="2" NCoef="0" IVar="1" Cut="5.7280205190181732e-02" cType="1" res="-6.7889010533690453e-03" rms="2.8284764289855957e-01" purity="4.4395139813423157e-01" nType="0">
            <Node pos="l" depth="3" NCoef="0" IVar="-1" Cut="0.0000000000000000e+00" cType="1" res="-1.9434582442045212e-02" rms="2.5311839580535889e-01" purity="2.0572696626186371e-01" nType="-99"/>
            <Node pos="r" depth="3" NCoef="0" IVar="-1" Cut="0.0000000000000000e+00" cType="1" res="2.1844136063009501e-03" rms="3.1223720312118530e-01" purity="7.0771700143814087e-01" nType="-99"/>
          </Node>
        </Node>
      </Node>
    </BinaryTree>
    <BinaryTree type="DecisionTree" boostWeight="1.0000000000000000e+00" itree="649">
      <Node pos="s" depth="0" NCoef="0" IVar="9" Cut="-9.3336772918701172e-01" cType="1" res="4.3573003495112062e-04" rms="2.8264716267585754e-01" purity="4.9765291810035706e-01" nType="0">
        <Node pos="l" depth="1" NCoef="0" IVar="11" Cut="-5.1452147960662842e-01" cType="1" res="-1.1750678531825542e-02" rms="2.8072047233581543e-01" purity="3.3227908611297607e-01" nType="0">
          <Node pos="l" depth="2" NCoef="0" IVar="4" Cut="1.7210861206054688e+02" cType="1" res="-5.5471584200859070e-03" rms="2.6754069328308105e-01" purity="2.3860824108123779e-01" nType="0">
            <Node pos="l" depth="3" NCoef="0" IVar="-1" Cut="0.0000000000000000e+00" cType="1" res="-1.8216246739029884e-02" rms="2.4792069196701050e-01" purity="1.5261596441268921e-01" nType="-99"/>
            <Node pos="r" depth="3" NCoef="0" IVar="-1" Cut="0.0000000000000000e+00" cType="1" res="1.5127569437026978e-02" rms="3.2192111015319824e-01" purity="5.1667422056198120e-01" nType="-99"/>
          </Node>
          <Node pos="r" depth="2" NCoef="0" IVar="-1" Cut="0.0000000000000000e+00" cType="1" res="-3.1136184930801392e-02" rms="3.1514224410057068e-01" purity="6.0379779338836670e-01" nType="-99"/>
        </Node>
        <Node pos="r" depth="1" NCoef="0" IVar="10" Cut="-9.3341875076293945e-01" cType="1" res="3.3580597955733538e-03" rms="2.8302925825119019e-01" purity="5.3730994462966919e-01" nType="0">
          <Node pos="l" depth="2" NCoef="0" IVar="8" Cut="-1.3269865512847900e-01" cType="1" res="1.2132458388805389e-02" rms="2.9081928730010986e-01" purity="4.8652797937393188e-01" nType="0">
            <Node pos="l" depth="3" NCoef="0" IVar="-1" Cut="0.0000000000000000e+00" cType="1" res="3.9497129619121552e-03" rms="2.8838032484054565e-01" purity="4.5166954398155212e-01" nType="-99"/>
            <Node pos="r" depth="3" NCoef="0" IVar="-1" Cut="0.0000000000000000e+00" cType="1" res="2.4154139682650566e-02" rms="2.9289844632148743e-01" purity="5.2001565694808960e-01" nType="-99"/>
          </Node>
          <Node pos="r" depth="2" NCoef="0" IVar="4" Cut="1.3372694396972656e+02" cType="1" res="9.6710724756121635e-04" rms="2.8082156181335449e-01" purity="5.5114763975143433e-01" nType="0">
            <Node pos="l" depth="3" NCoef="0" IVar="-1" Cut="0.0000000000000000e+00" cType="1" res="-8.1794215366244316e-03" rms="2.6269745826721191e-01" purity="1.9506739079952240e-01" nType="-99"/>
            <Node pos="r" depth="3" NCoef="0" IVar="-1" Cut="0.0000000000000000e+00" cType="1" res="5.3776153363287449e-03" rms="2.8945827484130859e-01" purity="7.3059499263763428e-01" nType="-99"/>
          </Node>
        </Node>
      </Node>
    </BinaryTree>
    <BinaryTree type="DecisionTree" boostWeight="1.0000000000000000e+00" itree="650">
      <Node pos="s" depth="0" NCoef="0" IVar="3" Cut="2.8357644653320312e+02" cType="1" res="8.8365626288577914e-04" rms="2.8593680262565613e-01" purity="5.0190472602844238e-01" nType="0">
        <Node pos="l" depth="1" NCoef="0" IVar="1" Cut="1.0045215487480164e-01" cType="1" res="3.4398497082293034e-03" rms="2.8735610842704773e-01" purity="4.2594569921493530e-01" nType="0">
          <Node pos="l" depth="2" NCoef="0" IVar="3" Cut="2.2876622009277344e+02" cType="1" res="2.8019768069498241e-04" rms="2.8713676333427429e-01" purity="2.8478801250457764e-01" nType="0">
            <Node pos="l" depth="3" NCoef="0" IVar="-1" Cut="0.0000000000000000e+00" cType="1" res="-4.0426873601973057e-03" rms="2.7223008871078491e-01" purity="2.2360371053218842e-01" nType="-99"/>
            <Node pos="r" depth="3" NCoef="0" IVar="-1" Cut="0.0000000000000000e+00" cType="1" res="1.1446062475442886e-02" rms="3.3293431997299194e-01" purity="4.9443212151527405e-01" nType="-99"/>
          </Node>
          <Node pos="r" depth="2" NCoef="0" IVar="10" Cut="1.3656444847583771e-01" cType="1" res="1.1843588203191757e-02" rms="2.8776988387107849e-01" purity="8.0138337612152100e-01" nType="0">
            <Node pos="l" depth="3" NCoef="0" IVar="-1" Cut="0.0000000000000000e+00" cType="1" res="9.5931225223466754e-04" rms="2.8451406955718994e-01" purity="8.0403888225555420e-01" nType="-99"/>
            <Node pos="r" depth="3" NCoef="0" IVar="-1" Cut="0.0000000000000000e+00" cType="1" res="2.7716431766748428e-02" rms="2.9109159111976624e-01" purity="7.9817855358123779e-01" nType="-99"/>
          </Node>
        </Node>
        <Node pos="r" depth="1" NCoef="0" IVar="8" Cut="3.9940437674522400e-01" cType="1" res="-6.3220378942787647e-03" rms="2.8177258372306824e-01" purity="7.1602678298950195e-01" nType="0">
          <Node pos="l" depth="2" NCoef="0" IVar="1" Cut="2.0930528640747070e-02" cType="1" res="-8.5015170043334365e-04" rms="2.7656230330467224e-01" purity="7.5106090307235718e-01" nType="0">
            <Node pos="l" depth="3" NCoef="0" IVar="-1" Cut="0.0000000000000000e+00" cType="1" res="-2.0240243524312973e-02" rms="2.9574024677276611e-01" purity="3.1370222568511963e-01" nType="-99"/>
            <Node pos="r" depth="3" NCoef="0" IVar="-1" Cut="0.0000000000000000e+00" cType="1" res="3.6364537663757801e-03" rms="2.7265873551368713e-01" purity="8.3306962251663208e-01" nType="-99"/>
          </Node>
          <Node pos="r" depth="2" NCoef="0" IVar="5" Cut="8.7625602722167969e+01" cType="1" res="-1.9268881529569626e-02" rms="2.9332652688026428e-01" purity="6.3313394784927368e-01" nType="0">
            <Node pos="l" depth="3" NCoef="0" IVar="-1" Cut="0.0000000000000000e+00" cType="1" res="-2.8868112713098526e-02" rms="3.4274941682815552e-01" purity="3.3154937624931335e-01" nType="-99"/>
            <Node pos="r" depth="3" NCoef="0" IVar="-1" Cut="0.0000000000000000e+00" cType="1" res="-1.4594073407351971e-02" rms="2.5227767229080200e-01" purity="8.4566098451614380e-01" nType="-99"/>
          </Node>
        </Node>
      </Node>
    </BinaryTree>
    <BinaryTree type="DecisionTree" boostWeight="1.0000000000000000e+00" itree="651">
      <Node pos="s" depth="0" NCoef="0" IVar="11" Cut="-1.0672435760498047e+00" cType="1" res="-9.2789239715784788e-04" rms="2.8295570611953735e-01" purity="5.0110477209091187e-01" nType="0">
        <Node pos="l" depth="1" NCoef="0" IVar="5" Cut="9.2904792785644531e+01" cType="1" res="-3.8264184258878231e-03" rms="2.9034057259559631e-01" purity="3.0116352438926697e-01" nType="0">
          <Node pos="l" depth="2" NCoef="0" IVar="5" Cut="7.4517013549804688e+01" cType="1" res="-6.6422298550605774e-03" rms="2.8533643484115601e-01" purity="2.0204858481884003e-01" nType="0">
            <Node pos="l" depth="3" NCoef="0" IVar="-1" Cut="0.0000000000000000e+00" cType="1" res="-3.1565933022648096e-03" rms="2.7637046575546265e-01" purity="1.5911339223384857e-01" nType="-99"/>
            <Node pos="r" depth="3" NCoef="0" IVar="-1" Cut="0.0000000000000000e+00" cType="1" res="-2.0436329767107964e-02" rms="3.1717625260353088e-01" purity="3.6847603321075439e-01" nType="-99"/>
          </Node>
          <Node pos="r" depth="2" NCoef="0" IVar="2" Cut="4.4953674316406250e+02" cType="1" res="7.8708818182349205e-03" rms="3.0999186635017395e-01" purity="7.1290165185928345e-01" nType="0">
            <Node pos="l" depth="3" NCoef="0" IVar="-1" Cut="0.0000000000000000e+00" cType="1" res="1.9182010146323591e-04" rms="3.0757546424865723e-01" purity="6.8762862682342529e-01" nType="-99"/>
            <Node pos="r" depth="3" NCoef="0" IVar="-1" Cut="0.0000000000000000e+00" cType="1" res="2.2919883951544762e-02" rms="3.1424155831336975e-01" purity="7.6391327381134033e-01" nType="-99"/>
          </Node>
        </Node>
        <Node pos="r" depth="1" NCoef="0" IVar="11" Cut="-6.9904673099517822e-01" cType="1" res="2.8711683116853237e-03" rms="2.7292749285697937e-01" purity="7.6316517591476440e-01" nType="0">
          <Node pos="l" depth="2" NCoef="0" IVar="-1" Cut="0.0000000000000000e+00" cType="1" res="2.0947070792317390e-02" rms="2.7314430475234985e-01" purity="7.9436379671096802e-01" nType="-99"/>
          <Node pos="r" depth="2" NCoef="0" IVar="8" Cut="-1.3274104893207550e-01" cType="1" res="1.0456832824274898e-03" rms="2.7284669876098633e-01" purity="7.5899451971054077e-01" nType="0">
            <Node pos="l" depth="3" NCoef="0" IVar="-1" Cut="0.0000000000000000e+00" cType="1" res="8.7173022329807281e-03" rms="2.7814853191375732e-01" purity="7.5627022981643677e-01" nType="-99"/>
            <Node pos="r" depth="3" NCoef="0" IVar="-1" Cut="0.0000000000000000e+00" cType="1" res="-4.1637574322521687e-03" rms="2.6882776618003845e-01" purity="7.6098573207855225e-01" nType="-99"/>
          </Node>
        </Node>
      </Node>
    </BinaryTree>
    <BinaryTree type="DecisionTree" boostWeight="1.0000000000000000e+00" itree="652">
      <Node pos="s" depth="0" NCoef="0" IVar="7" Cut="-3.7155053019523621e-01" cType="1" res="8.4097951184958220e-04" rms="2.8385275602340698e-01" purity="4.9862629175186157e-01" nType="0">
        <Node pos="l" depth="1" NCoef="0" IVar="7" Cut="-1.0511029958724976e+00" cType="1" res="6.6769802942872047e-03" rms="2.8159850835800171e-01" purity="4.2318221926689148e-01" nType="0">
          <Node pos="l" depth="2" NCoef="0" IVar="3" Cut="2.5460031127929688e+02" cType="1" res="-8.5250276606529951e-04" rms="2.4250908195972443e-01" purity="1.9722805917263031e-01" nType="0">
            <Node pos="l" depth="3" NCoef="0" IVar="-1" Cut="0.0000000000000000e+00" cType="1" res="-1.4359618537127972e-02" rms="2.0790275931358337e-01" purity="1.3818392157554626e-01" nType="-99"/>
            <Node pos="r" depth="3" NCoef="0" IVar="-1" Cut="0.0000000000000000e+00" cType="1" res="1.9264385104179382e-02" rms="3.2632276415824890e-01" purity="3.7973830103874207e-01" nType="-99"/>
          </Node>
          <Node pos="r" depth="2" NCoef="0" IVar="10" Cut="-9.3295770883560181e-01" cType="1" res="1.1000909842550755e-02" rms="3.0168113112449646e-01" purity="5.5294013023376465e-01" nType="0">
            <Node pos="l" depth="3" NCoef="0" IVar="-1" Cut="0.0000000000000000e+00" cType="1" res="2.7927156537771225e-02" rms="3.2673284411430359e-01" purity="5.1415389776229858e-01" nType="-99"/>
            <Node pos="r" depth="3" NCoef="0" IVar="-1" Cut="0.0000000000000000e+00" cType="1" res="5.7711303234100342e-03" rms="2.9188051819801331e-01" purity="5.6695133447647095e-01" nType="-99"/>
          </Node>
        </Node>
        <Node pos="r" depth="1" NCoef="0" IVar="8" Cut="1.7332557439804077e+00" cType="1" res="-2.0324352663010359e-03" rms="2.8491216897964478e-01" purity="5.3577190637588501e-01" nType="0">
          <Node pos="l" depth="2" NCoef="0" IVar="0" Cut="1.3752003173828125e+03" cType="1" res="-3.2011128496378660e-03" rms="2.8782254457473755e-01" purity="5.5498582124710083e-01" nType="0">
            <Node pos="l" depth="3" NCoef="0" IVar="-1" Cut="0.0000000000000000e+00" cType="1" res="-9.2060333117842674e-03" rms="3.0158829689025879e-01" purity="2.0572128891944885e-01" nType="-99"/>
            <Node pos="r" depth="3" NCoef="0" IVar="-1" Cut="0.0000000000000000e+00" cType="1" res="2.1639202896039933e-04" rms="2.7896013855934143e-01" purity="7.6992410421371460e-01" nType="-99"/>
          </Node>
          <Node pos="r" depth="2" NCoef="0" IVar="-1" Cut="0.0000000000000000e+00" cType="1" res="4.7446988523006439e-02" rms="2.1665620803833008e-01" purity="1.4788156747817993e-01" nType="-99"/>
        </Node>
      </Node>
    </BinaryTree>
    <BinaryTree type="DecisionTree" boostWeight="1.0000000000000000e+00" itree="653">
      <Node pos="s" depth="0" NCoef="0" IVar="9" Cut="-6.6664022207260132e-01" cType="1" res="2.1853465586900711e-03" rms="2.8286346793174744e-01" purity="5.0369203090667725e-01" nType="0">
        <Node pos="l" depth="1" NCoef="0" IVar="10" Cut="-1.4667876958847046e+00" cType="1" res="1.1429466307163239e-02" rms="2.9207074642181396e-01" purity="4.2679920792579651e-01" nType="0">
          <Node pos="l" depth="2" NCoef="0" IVar="-1" Cut="0.0000000000000000e+00" cType="1" res="-1.1037038639187813e-02" rms="2.8137832880020142e-01" purity="2.6969042420387268e-01" nType="-99"/>
          <Node pos="r" depth="2" NCoef="0" IVar="1" Cut="7.6620385050773621e-02" cType="1" res="1.5165026299655437e-02" rms="2.9383015632629395e-01" purity="4.5552542805671692e-01" nType="0">
            <Node pos="l" depth="3" NCoef="0" IVar="-1" Cut="0.0000000000000000e+00" cType="1" res="2.7621800079941750e-02" rms="2.9563251137733459e-01" purity="2.9720166325569153e-01" nType="-99"/>
            <Node pos="r" depth="3" NCoef="0" IVar="-1" Cut="0.0000000000000000e+00" cType="1" res="-9.7918475512415171e-04" rms="2.8961846232414246e-01" purity="7.6370435953140259e-01" nType="-99"/>
          </Node>
        </Node>
        <Node pos="r" depth="1" NCoef="0" IVar="7" Cut="1.4503915607929230e-01" cType="1" res="-1.3037965400144458e-03" rms="2.7922978997230530e-01" purity="5.3271484375000000e-01" nType="0">
          <Node pos="l" depth="2" NCoef="0" IVar="8" Cut="3.9956229925155640e-01" cType="1" res="-6.6724424250423908e-03" rms="2.7703550457954407e-01" purity="5.5086553096771240e-01" nType="0">
            <Node pos="l" depth="3" NCoef="0" IVar="-1" Cut="0.0000000000000000e+00" cType="1" res="-2.8244848363101482e-03" rms="2.7942752838134766e-01" purity="6.0522937774658203e-01" nType="-99"/>
            <Node pos="r" depth="3" NCoef="0" IVar="-1" Cut="0.0000000000000000e+00" cType="1" res="-1.9826050847768784e-02" rms="2.7179920673370361e-01" purity="4.3847212195396423e-01" nType="-99"/>
          </Node>
          <Node pos="r" depth="2" NCoef="0" IVar="0" Cut="1.3525076904296875e+03" cType="1" res="4.9631120637059212e-03" rms="2.8164017200469971e-01" purity="5.1152735948562622e-01" nType="0">
            <Node pos="l" depth="3" NCoef="0" IVar="-1" Cut="0.0000000000000000e+00" cType="1" res="2.2328823804855347e-02" rms="2.7976316213607788e-01" purity="1.7129823565483093e-01" nType="-99"/>
            <Node pos="r" depth="3" NCoef="0" IVar="-1" Cut="0.0000000000000000e+00" cType="1" res="-3.7895499262958765e-03" rms="2.8258916735649109e-01" purity="7.3763775825500488e-01" nType="-99"/>
          </Node>
        </Node>
      </Node>
    </BinaryTree>
    <BinaryTree type="DecisionTree" boostWeight="1.0000000000000000e+00" itree="654">
      <Node pos="s" depth="0" NCoef="0" IVar="8" Cut="1.3322952389717102e-01" cType="1" res="1.5636301832273602e-03" rms="2.8476679325103760e-01" purity="5.0079655647277832e-01" nType="0">
        <Node pos="l" depth="1" NCoef="0" IVar="9" Cut="-1.7327542304992676e+00" cType="1" res="-1.6297490801662207e-03" rms="2.8547620773315430e-01" purity="5.1506531238555908e-01" nType="0">
          <Node pos="l" depth="2" NCoef="0" IVar="-1" Cut="0.0000000000000000e+00" cType="1" res="-2.6337811723351479e-02" rms="2.4701982736587524e-01" purity="1.5286837518215179e-01" nType="-99"/>
          <Node pos="r" depth="2" NCoef="0" IVar="9" Cut="-1.0852499008178711e+00" cType="1" res="-5.9868022799491882e-04" rms="2.8773811459541321e-01" purity="5.3830975294113159e-01" nType="0">
            <Node pos="l" depth="3" NCoef="0" IVar="-1" Cut="0.0000000000000000e+00" cType="1" res="1.2676647864282131e-02" rms="3.1657972931861877e-01" purity="4.2863807082176208e-01" nType="-99"/>
            <Node pos="r" depth="3" NCoef="0" IVar="-1" Cut="0.0000000000000000e+00" cType="1" res="-2.7153231203556061e-03" rms="2.8367581963539124e-01" purity="5.5276584625244141e-01" nType="-99"/>
          </Node>
        </Node>
        <Node pos="r" depth="1" NCoef="0" IVar="3" Cut="2.0657308959960938e+02" cType="1" res="5.6121326051652431e-03" rms="2.8381323814392090e-01" purity="4.8270696401596069e-01" nType="0">
          <Node pos="l" depth="2" NCoef="0" IVar="7" Cut="-3.5050845146179199e-01" cType="1" res="-1.9478979520499706e-03" rms="2.7399629354476929e-01" purity="2.7627423405647278e-01" nType="0">
            <Node pos="l" depth="3" NCoef="0" IVar="-1" Cut="0.0000000000000000e+00" cType="1" res="2.9059277847409248e-02" rms="2.5980538129806519e-01" purity="2.2677038609981537e-01" nType="-99"/>
            <Node pos="r" depth="3" NCoef="0" IVar="-1" Cut="0.0000000000000000e+00" cType="1" res="-1.4876377768814564e-02" rms="2.8029897809028625e-01" purity="3.0124491453170776e-01" nType="-99"/>
          </Node>
          <Node pos="r" depth="2" NCoef="0" IVar="7" Cut="1.9955161213874817e-01" cType="1" res="1.1670115403831005e-02" rms="2.9129961133003235e-01" purity="6.4812499284744263e-01" nType="0">
            <Node pos="l" depth="3" NCoef="0" IVar="-1" Cut="0.0000000000000000e+00" cType="1" res="1.0037317406386137e-03" rms="2.8455835580825806e-01" purity="6.3710266351699829e-01" nType="-99"/>
            <Node pos="r" depth="3" NCoef="0" IVar="-1" Cut="0.0000000000000000e+00" cType="1" res="2.7587408199906349e-02" rms="2.9940155148506165e-01" purity="6.6273981332778931e-01" nType="-99"/>
          </Node>
        </Node>
      </Node>
    </BinaryTree>
    <BinaryTree type="DecisionTree" boostWeight="1.0000000000000000e+00" itree="655">
      <Node pos="s" depth="0" NCoef="0" IVar="11" Cut="8.6656141281127930e-01" cType="1" res="-5.2908188663423061e-03" rms="2.8285217285156250e-01" purity="4.9431866407394409e-01" nType="0">
        <Node pos="l" depth="1" NCoef="0" IVar="7" Cut="-8.9527553319931030e-01" cType="1" res="-7.4450206011533737e-03" rms="2.8107106685638428e-01" purity="4.6409094333648682e-01" nType="0">
          <Node pos="l" depth="2" NCoef="0" IVar="4" Cut="1.6293605041503906e+02" cType="1" res="-1.8667101860046387e-02" rms="2.3632909357547760e-01" purity="2.1883462369441986e-01" nType="0">
            <Node pos="l" depth="3" NCoef="0" IVar="-1" Cut="0.0000000000000000e+00" cType="1" res="-2.4450263008475304e-02" rms="1.9434873759746552e-01" purity="1.0057861357927322e-01" nType="-99"/>
            <Node pos="r" depth="3" NCoef="0" IVar="-1" Cut="0.0000000000000000e+00" cType="1" res="-3.4550607204437256e-02" rms="3.0422216653823853e-01" purity="4.6101623773574829e-01" nType="-99"/>
          </Node>
          <Node pos="r" depth="2" NCoef="0" IVar="8" Cut="1.4666144847869873e+00" cType="1" res="-5.2856225520372391e-03" rms="2.8883656859397888e-01" purity="5.1128417253494263e-01" nType="0">
            <Node pos="l" depth="3" NCoef="0" IVar="-1" Cut="0.0000000000000000e+00" cType="1" res="-7.1551571600139141e-03" rms="2.9235890507698059e-01" purity="5.3900873661041260e-01" nType="-99"/>
            <Node pos="r" depth="3" NCoef="0" IVar="-1" Cut="0.0000000000000000e+00" cType="1" res="1.2058710679411888e-02" rms="2.4110396206378937e-01" purity="1.7092472314834595e-01" nType="-99"/>
          </Node>
        </Node>
        <Node pos="r" depth="1" NCoef="0" IVar="6" Cut="6.0963550567626953e+01" cType="1" res="9.6374051645398140e-03" rms="2.9446676373481750e-01" purity="7.0379090309143066e-01" nType="0">
          <Node pos="l" depth="2" NCoef="0" IVar="-1" Cut="0.0000000000000000e+00" cType="1" res="2.1380813792347908e-02" rms="3.4282931685447693e-01" purity="4.6556049585342407e-01" nType="-99"/>
          <Node pos="r" depth="2" NCoef="0" IVar="9" Cut="1.3246698677539825e-01" cType="1" res="3.6630642134696245e-03" rms="2.7126771211624146e-01" purity="8.0430597066879272e-01" nType="0">
            <Node pos="l" depth="3" NCoef="0" IVar="-1" Cut="0.0000000000000000e+00" cType="1" res="-7.0261503569781780e-03" rms="2.7988776564598083e-01" purity="8.0731093883514404e-01" nType="-99"/>
            <Node pos="r" depth="3" NCoef="0" IVar="-1" Cut="0.0000000000000000e+00" cType="1" res="1.6364891082048416e-02" rms="2.6241910457611084e-01" purity="8.0141413211822510e-01" nType="-99"/>
          </Node>
        </Node>
      </Node>
    </BinaryTree>
    <BinaryTree type="DecisionTree" boostWeight="1.0000000000000000e+00" itree="656">
      <Node pos="s" depth="0" NCoef="0" IVar="10" Cut="9.3310898542404175e-01" cType="1" res="8.6434977129101753e-04" rms="2.8257825970649719e-01" purity="5.0070297718048096e-01" nType="0">
        <Node pos="l" depth="1" NCoef="0" IVar="9" Cut="6.6672337055206299e-01" cType="1" res="-1.9248843891546130e-03" rms="2.8001722693443298e-01" purity="5.2310502529144287e-01" nType="0">
          <Node pos="l" depth="2" NCoef="0" IVar="6" Cut="6.5157615661621094e+01" cType="1" res="-4.4098524376749992e-03" rms="2.7917891740798950e-01" purity="5.4939371347427368e-01" nType="0">
            <Node pos="l" depth="3" NCoef="0" IVar="-1" Cut="0.0000000000000000e+00" cType="1" res="-9.0529890730977058e-03" rms="3.0462923645973206e-01" purity="3.3304649591445923e-01" nType="-99"/>
            <Node pos="r" depth="3" NCoef="0" IVar="-1" Cut="0.0000000000000000e+00" cType="1" res="4.1499822400510311e-03" rms="2.3377765715122223e-01" purity="8.8739871978759766e-01" nType="-99"/>
          </Node>
          <Node pos="r" depth="2" NCoef="0" IVar="7" Cut="1.3417851924896240e-01" cType="1" res="5.6874100118875504e-03" rms="2.8243368864059448e-01" purity="4.4257372617721558e-01" nType="0">
            <Node pos="l" depth="3" NCoef="0" IVar="-1" Cut="0.0000000000000000e+00" cType="1" res="1.8492458388209343e-02" rms="2.9027518630027771e-01" purity="4.5053431391716003e-01" nType="-99"/>
            <Node pos="r" depth="3" NCoef="0" IVar="-1" Cut="0.0000000000000000e+00" cType="1" res="-4.7686151228845119e-03" rms="2.7384656667709351e-01" purity="4.3442291021347046e-01" nType="-99"/>
          </Node>
        </Node>
        <Node pos="r" depth="1" NCoef="0" IVar="8" Cut="9.3316501379013062e-01" cType="1" res="1.0301619768142700e-02" rms="2.9087811708450317e-01" purity="4.2490676045417786e-01" nType="0">
          <Node pos="l" depth="2" NCoef="0" IVar="8" Cut="5.7759231328964233e-01" cType="1" res="1.4516753144562244e-02" rms="3.0220323801040649e-01" purity="4.8100489377975464e-01" nType="0">
            <Node pos="l" depth="3" NCoef="0" IVar="-1" Cut="0.0000000000000000e+00" cType="1" res="1.1732749640941620e-02" rms="2.9872453212738037e-01" purity="4.6858438849449158e-01" nType="-99"/>
            <Node pos="r" depth="3" NCoef="0" IVar="-1" Cut="0.0000000000000000e+00" cType="1" res="3.7793815135955811e-02" rms="3.1976684927940369e-01" purity="5.4987388849258423e-01" nType="-99"/>
          </Node>
          <Node pos="r" depth="2" NCoef="0" IVar="9" Cut="4.0198892354965210e-01" cType="1" res="-4.2678066529333591e-03" rms="2.4722535908222198e-01" purity="2.3100596666336060e-01" nType="0">
            <Node pos="l" depth="3" NCoef="0" IVar="-1" Cut="0.0000000000000000e+00" cType="1" res="1.2350756675004959e-02" rms="2.6536455750465393e-01" purity="2.7517327666282654e-01" nType="-99"/>
            <Node pos="r" depth="3" NCoef="0" IVar="-1" Cut="0.0000000000000000e+00" cType="1" res="-2.6311198249459267e-02" rms="2.2581928968429565e-01" purity="1.8457201123237610e-01" nType="-99"/>
          </Node>
        </Node>
      </Node>
    </BinaryTree>
    <BinaryTree type="DecisionTree" boostWeight="1.0000000000000000e+00" itree="657">
      <Node pos="s" depth="0" NCoef="0" IVar="6" Cut="6.7571945190429688e+01" cType="1" res="3.3704601228237152e-03" rms="2.8657227754592896e-01" purity="5.0334441661834717e-01" nType="0">
        <Node pos="l" depth="1" NCoef="0" IVar="11" Cut="3.1427860260009766e-01" cType="1" res="7.0135882124304771e-03" rms="3.0782100558280945e-01" purity="3.1993418931961060e-01" nType="0">
          <Node pos="l" depth="2" NCoef="0" IVar="9" Cut="9.3326187133789062e-01" cType="1" res="5.0945850089192390e-03" rms="3.0258816480636597e-01" purity="2.8866240382194519e-01" nType="0">
            <Node pos="l" depth="3" NCoef="0" IVar="-1" Cut="0.0000000000000000e+00" cType="1" res="8.1666670739650726e-03" rms="3.1257432699203491e-01" purity="3.2194593548774719e-01" nType="-99"/>
            <Node pos="r" depth="3" NCoef="0" IVar="-1" Cut="0.0000000000000000e+00" cType="1" res="-6.5646860748529434e-03" rms="2.6303258538246155e-01" purity="1.6812725365161896e-01" nType="-99"/>
          </Node>
          <Node pos="r" depth="2" NCoef="0" IVar="11" Cut="1.4979897737503052e+00" cType="1" res="2.0363889634609222e-02" rms="3.4171843528747559e-01" purity="5.3748875856399536e-01" nType="0">
            <Node pos="l" depth="3" NCoef="0" IVar="-1" Cut="0.0000000000000000e+00" cType="1" res="2.4601848796010017e-02" rms="3.5079067945480347e-01" purity="5.7468605041503906e-01" nType="-99"/>
            <Node pos="r" depth="3" NCoef="0" IVar="-1" Cut="0.0000000000000000e+00" cType="1" res="1.3295734534040093e-03" rms="3.1929174065589905e-01" purity="4.5275670289993286e-01" nType="-99"/>
          </Node>
        </Node>
        <Node pos="r" depth="1" NCoef="0" IVar="2" Cut="2.9921508789062500e+02" cType="1" res="-3.9630956016480923e-03" rms="2.3794743418693542e-01" purity="8.7254601716995239e-01" nType="0">
          <Node pos="l" depth="2" NCoef="0" IVar="-1" Cut="0.0000000000000000e+00" cType="1" res="7.7715446241199970e-03" rms="2.5114887952804565e-01" purity="8.4717464447021484e-01" nType="-99"/>
          <Node pos="r" depth="2" NCoef="0" IVar="0" Cut="1.7901723632812500e+03" cType="1" res="-7.8177852556109428e-03" rms="2.3216360807418823e-01" purity="8.8303059339523315e-01" nType="0">
            <Node pos="l" depth="3" NCoef="0" IVar="-1" Cut="0.0000000000000000e+00" cType="1" res="-2.2900404408574104e-02" rms="3.1388270854949951e-01" purity="7.2815191745758057e-01" nType="-99"/>
            <Node pos="r" depth="3" NCoef="0" IVar="-1" Cut="0.0000000000000000e+00" cType="1" res="-6.0072224587202072e-03" rms="1.8885633349418640e-01" purity="9.4592720270156860e-01" nType="-99"/>
          </Node>
        </Node>
      </Node>
    </BinaryTree>
    <BinaryTree type="DecisionTree" boostWeight="1.0000000000000000e+00" itree="658">
      <Node pos="s" depth="0" NCoef="0" IVar="9" Cut="1.3321530818939209e-01" cType="1" res="9.8485406488180161e-04" rms="2.8225487470626831e-01" purity="5.0367796421051025e-01" nType="0">
        <Node pos="l" depth="1" NCoef="0" IVar="1" Cut="8.2012288272380829e-02" cType="1" res="-2.6592942886054516e-03" rms="2.8133824467658997e-01" purity="5.0919282436370850e-01" nType="0">
          <Node pos="l" depth="2" NCoef="0" IVar="9" Cut="-1.4618495106697083e-01" cType="1" res="-6.8855206482112408e-03" rms="2.8388476371765137e-01" purity="3.3021751046180725e-01" nType="0">
            <Node pos="l" depth="3" NCoef="0" IVar="-1" Cut="0.0000000000000000e+00" cType="1" res="-4.3379492126405239e-03" rms="2.8281965851783752e-01" purity="3.1326168775558472e-01" nType="-99"/>
            <Node pos="r" depth="3" NCoef="0" IVar="-1" Cut="0.0000000000000000e+00" cType="1" res="-2.5689238682389259e-02" rms="2.8867450356483459e-01" purity="4.1625592112541199e-01" nType="-99"/>
          </Node>
          <Node pos="r" depth="2" NCoef="0" IVar="7" Cut="-8.2234673202037811e-02" cType="1" res="4.5757535845041275e-03" rms="2.7677461504936218e-01" purity="8.1558799743652344e-01" nType="0">
            <Node pos="l" depth="3" NCoef="0" IVar="-1" Cut="0.0000000000000000e+00" cType="1" res="-3.9166156202554703e-03" rms="2.7754646539688110e-01" purity="8.0518662929534912e-01" nType="-99"/>
            <Node pos="r" depth="3" NCoef="0" IVar="-1" Cut="0.0000000000000000e+00" cType="1" res="1.5059411525726318e-02" rms="2.7587035298347473e-01" purity="8.2515257596969604e-01" nType="-99"/>
          </Node>
        </Node>
        <Node pos="r" depth="1" NCoef="0" IVar="0" Cut="1.7446094970703125e+03" cType="1" res="5.3874952718615532e-03" rms="2.8329581022262573e-01" purity="4.9701520800590515e-01" nType="0">
          <Node pos="l" depth="2" NCoef="0" IVar="5" Cut="7.3569236755371094e+01" cType="1" res="9.0456428006291389e-03" rms="2.9868796467781067e-01" purity="3.4047794342041016e-01" nType="0">
            <Node pos="l" depth="3" NCoef="0" IVar="-1" Cut="0.0000000000000000e+00" cType="1" res="2.3797184694558382e-03" rms="2.7912032604217529e-01" purity="1.5332402288913727e-01" nType="-99"/>
            <Node pos="r" depth="3" NCoef="0" IVar="-1" Cut="0.0000000000000000e+00" cType="1" res="1.6697894781827927e-02" rms="3.2206001877784729e-01" purity="5.8320790529251099e-01" nType="-99"/>
          </Node>
          <Node pos="r" depth="2" NCoef="0" IVar="0" Cut="2.0144575195312500e+03" cType="1" res="-2.9770534019917250e-03" rms="2.4428071081638336e-01" purity="8.5494595766067505e-01" nType="0">
            <Node pos="l" depth="3" NCoef="0" IVar="-1" Cut="0.0000000000000000e+00" cType="1" res="-1.9571065902709961e-02" rms="2.7665102481842041e-01" purity="7.8048229217529297e-01" nType="-99"/>
            <Node pos="r" depth="3" NCoef="0" IVar="-1" Cut="0.0000000000000000e+00" cType="1" res="9.8195970058441162e-03" rms="2.1925868093967438e-01" purity="9.0546172857284546e-01" nType="-99"/>
          </Node>
        </Node>
      </Node>
    </BinaryTree>
    <BinaryTree type="DecisionTree" boostWeight="1.0000000000000000e+00" itree="659">
      <Node pos="s" depth="0" NCoef="0" IVar="10" Cut="-2.0000150203704834e+00" cType="1" res="-8.2949432544410229e-04" rms="2.8296953439712524e-01" purity="4.9745401740074158e-01" nType="0">
        <Node pos="l" depth="1" NCoef="0" IVar="-1" Cut="0.0000000000000000e+00" cType="1" res="-2.1169755607843399e-02" rms="2.5438103079795837e-01" purity="2.3098605871200562e-01" nType="-99"/>
        <Node pos="r" depth="1" NCoef="0" IVar="10" Cut="5.6989531964063644e-02" cType="1" res="-6.3389110437128693e-05" rms="2.8428378701210022e-01" purity="5.1060223579406738e-01" nType="0">
          <Node pos="l" depth="2" NCoef="0" IVar="1" Cut="8.2005046308040619e-02" cType="1" res="3.5122176632285118e-03" rms="2.8948137164115906e-01" purity="5.2930289506912231e-01" nType="0">
            <Node pos="l" depth="3" NCoef="0" IVar="-1" Cut="0.0000000000000000e+00" cType="1" res="8.9963665232062340e-03" rms="2.9667654633522034e-01" purity="3.6170962452888489e-01" nType="-99"/>
            <Node pos="r" depth="3" NCoef="0" IVar="-1" Cut="0.0000000000000000e+00" cType="1" res="-5.0336262211203575e-03" rms="2.7669513225555420e-01" purity="8.1352293491363525e-01" nType="-99"/>
          </Node>
          <Node pos="r" depth="2" NCoef="0" IVar="7" Cut="-6.3135421276092529e-01" cType="1" res="-3.4405107144266367e-03" rms="2.7924391627311707e-01" purity="4.9293974041938782e-01" nType="0">
            <Node pos="l" depth="3" NCoef="0" IVar="-1" Cut="0.0000000000000000e+00" cType="1" res="-2.2518329322338104e-02" rms="2.5903394818305969e-01" purity="3.0141186714172363e-01" nType="-99"/>
            <Node pos="r" depth="3" NCoef="0" IVar="-1" Cut="0.0000000000000000e+00" cType="1" res="-3.6840158281847835e-04" rms="2.8383165597915649e-01" purity="5.3930544853210449e-01" nType="-99"/>
          </Node>
        </Node>
      </Node>
    </BinaryTree>
    <BinaryTree type="DecisionTree" boostWeight="1.0000000000000000e+00" itree="660">
      <Node pos="s" depth="0" NCoef="0" IVar="7" Cut="-1.2824992835521698e-01" cType="1" res="2.0639407448470592e-03" rms="2.8476715087890625e-01" purity="5.0106221437454224e-01" nType="0">
        <Node pos="l" depth="1" NCoef="0" IVar="10" Cut="-1.3334989547729492e-01" cType="1" res="-2.1112379617989063e-03" rms="2.8424146771430969e-01" purity="4.7305187582969666e-01" nType="0">
          <Node pos="l" depth="2" NCoef="0" IVar="5" Cut="6.4301834106445312e+01" cType="1" res="-7.5378171168267727e-03" rms="2.8607428073883057e-01" purity="4.5910537242889404e-01" nType="0">
            <Node pos="l" depth="3" NCoef="0" IVar="-1" Cut="0.0000000000000000e+00" cType="1" res="5.0826640799641609e-03" rms="2.6623556017875671e-01" purity="1.4659376442432404e-01" nType="-99"/>
            <Node pos="r" depth="3" NCoef="0" IVar="-1" Cut="0.0000000000000000e+00" cType="1" res="-1.4651184901595116e-02" rms="2.9499152302742004e-01" purity="6.0942089557647705e-01" nType="-99"/>
          </Node>
          <Node pos="r" depth="2" NCoef="0" IVar="7" Cut="-7.5074988603591919e-01" cType="1" res="3.2595018856227398e-03" rms="2.8231310844421387e-01" purity="4.8685491085052490e-01" nType="0">
            <Node pos="l" depth="3" NCoef="0" IVar="-1" Cut="0.0000000000000000e+00" cType="1" res="1.4225528575479984e-02" rms="2.6117852330207825e-01" purity="3.1866642832756042e-01" nType="-99"/>
            <Node pos="r" depth="3" NCoef="0" IVar="-1" Cut="0.0000000000000000e+00" cType="1" res="-2.2523973602801561e-03" rms="2.9661905765533447e-01" purity="6.0908681154251099e-01" nType="-99"/>
          </Node>
        </Node>
        <Node pos="r" depth="1" NCoef="0" IVar="4" Cut="1.7680050659179688e+02" cType="1" res="5.3521487861871719e-03" rms="2.8513747453689575e-01" purity="5.2312213182449341e-01" nType="0">
          <Node pos="l" depth="2" NCoef="0" IVar="9" Cut="-1.4667489528656006e+00" cType="1" res="9.1162873432040215e-03" rms="2.9211437702178955e-01" purity="3.5071593523025513e-01" nType="0">
            <Node pos="l" depth="3" NCoef="0" IVar="-1" Cut="0.0000000000000000e+00" cType="1" res="-1.7762729898095131e-02" rms="2.1796712279319763e-01" purity="1.4394894242286682e-01" nType="-99"/>
            <Node pos="r" depth="3" NCoef="0" IVar="-1" Cut="0.0000000000000000e+00" cType="1" res="1.2465070001780987e-02" rms="2.9904904961585999e-01" purity="3.7338775396347046e-01" nType="-99"/>
          </Node>
          <Node pos="r" depth="2" NCoef="0" IVar="10" Cut="-1.1990209817886353e+00" cType="1" res="-5.5281858658418059e-04" rms="2.7373030781745911e-01" purity="7.9358327388763428e-01" nType="0">
            <Node pos="l" depth="3" NCoef="0" IVar="-1" Cut="0.0000000000000000e+00" cType="1" res="2.4512566626071930e-02" rms="2.9679915308952332e-01" purity="7.1278017759323120e-01" nType="-99"/>
            <Node pos="r" depth="3" NCoef="0" IVar="-1" Cut="0.0000000000000000e+00" cType="1" res="-5.0433282740414143e-03" rms="2.7027991414070129e-01" purity="8.0458050966262817e-01" nType="-99"/>
          </Node>
        </Node>
      </Node>
    </BinaryTree>
    <BinaryTree type="DecisionTree" boostWeight="1.0000000000000000e+00" itree="661">
      <Node pos="s" depth="0" NCoef="0" IVar="11" Cut="1.1422461271286011e+00" cType="1" res="-2.7748066931962967e-03" rms="2.8118884563446045e-01" purity="5.0081813335418701e-01" nType="0">
        <Node pos="l" depth="1" NCoef="0" IVar="9" Cut="-4.0009608864784241e-01" cType="1" res="-1.3338692951947451e-03" rms="2.7900776267051697e-01" purity="4.8491185903549194e-01" nType="0">
          <Node pos="l" depth="2" NCoef="0" IVar="11" Cut="-4.3575933575630188e-01" cType="1" res="-7.4724517762660980e-03" rms="2.8273773193359375e-01" purity="4.3155887722969055e-01" nType="0">
            <Node pos="l" depth="3" NCoef="0" IVar="-1" Cut="0.0000000000000000e+00" cType="1" res="-1.4224046841263771e-02" rms="2.8625482320785522e-01" purity="3.1998714804649353e-01" nType="-99"/>
            <Node pos="r" depth="3" NCoef="0" IVar="-1" Cut="0.0000000000000000e+00" cType="1" res="7.7814254909753799e-03" rms="2.7112653851509094e-01" purity="7.7657228708267212e-01" nType="-99"/>
          </Node>
          <Node pos="r" depth="2" NCoef="0" IVar="9" Cut="2.0379049777984619e+00" cType="1" res="2.0810894202440977e-03" rms="2.7685207128524780e-01" purity="5.1459270715713501e-01" nType="0">
            <Node pos="l" depth="3" NCoef="0" IVar="-1" Cut="0.0000000000000000e+00" cType="1" res="3.8158502429723740e-03" rms="2.8098154067993164e-01" purity="5.3719741106033325e-01" nType="-99"/>
            <Node pos="r" depth="3" NCoef="0" IVar="-1" Cut="0.0000000000000000e+00" cType="1" res="-4.1131999343633652e-02" rms="1.8015334010124207e-01" purity="8.5239678621292114e-02" nType="-99"/>
          </Node>
        </Node>
        <Node pos="r" depth="1" NCoef="0" IVar="4" Cut="1.5489254760742188e+02" cType="1" res="-1.7367785796523094e-02" rms="3.0200552940368652e-01" purity="6.6190749406814575e-01" nType="0">
          <Node pos="l" depth="2" NCoef="0" IVar="-1" Cut="0.0000000000000000e+00" cType="1" res="-3.3523865044116974e-02" rms="3.3007657527923584e-01" purity="4.3555849790573120e-01" nType="-99"/>
          <Node pos="r" depth="2" NCoef="0" IVar="-1" Cut="0.0000000000000000e+00" cType="1" res="-6.1282301321625710e-03" rms="2.8207442164421082e-01" purity="8.0537849664688110e-01" nType="-99"/>
        </Node>
      </Node>
    </BinaryTree>
    <BinaryTree type="DecisionTree" boostWeight="1.0000000000000000e+00" itree="662">
      <Node pos="s" depth="0" NCoef="0" IVar="1" Cut="1.6700647771358490e-01" cType="1" res="-1.1425847187638283e-03" rms="2.7974009513854980e-01" purity="5.0021159648895264e-01" nType="0">
        <Node pos="l" depth="1" NCoef="0" IVar="4" Cut="1.3507357788085938e+02" cType="1" res="-2.3796630557626486e-03" rms="2.8644561767578125e-01" purity="4.4649019837379456e-01" nType="0">
          <Node pos="l" depth="2" NCoef="0" IVar="5" Cut="7.3238861083984375e+01" cType="1" res="2.1151902619749308e-03" rms="2.6096451282501221e-01" purity="1.7220713198184967e-01" nType="0">
            <Node pos="l" depth="3" NCoef="0" IVar="-1" Cut="0.0000000000000000e+00" cType="1" res="-3.3400438260287046e-03" rms="2.4001435935497284e-01" purity="9.5975153148174286e-02" nType="-99"/>
            <Node pos="r" depth="3" NCoef="0" IVar="-1" Cut="0.0000000000000000e+00" cType="1" res="1.2150142341852188e-02" rms="3.1291690468788147e-01" purity="3.9007014036178589e-01" nType="-99"/>
          </Node>
          <Node pos="r" depth="2" NCoef="0" IVar="0" Cut="1.8571198730468750e+03" cType="1" res="-5.5911317467689514e-03" rms="3.0330234766006470e-01" purity="6.4245909452438354e-01" nType="0">
            <Node pos="l" depth="3" NCoef="0" IVar="-1" Cut="0.0000000000000000e+00" cType="1" res="-1.0438008233904839e-02" rms="3.3323678374290466e-01" purity="5.0294733047485352e-01" nType="-99"/>
            <Node pos="r" depth="3" NCoef="0" IVar="-1" Cut="0.0000000000000000e+00" cType="1" res="7.9935435205698013e-03" rms="2.4359227716922760e-01" purity="8.8024318218231201e-01" nType="-99"/>
          </Node>
        </Node>
        <Node pos="r" depth="1" NCoef="0" IVar="-1" Cut="0.0000000000000000e+00" cType="1" res="1.4572521671652794e-02" rms="2.2350350022315979e-01" purity="8.9931052923202515e-01" nType="-99"/>
      </Node>
    </BinaryTree>
    <BinaryTree type="DecisionTree" boostWeight="1.0000000000000000e+00" itree="663">
      <Node pos="s" depth="0" NCoef="0" IVar="8" Cut="-1.1997052431106567e+00" cType="1" res="3.5555623471736908e-03" rms="2.8381270170211792e-01" purity="5.1041984558105469e-01" nType="0">
        <Node pos="l" depth="1" NCoef="0" IVar="9" Cut="-1.3309495151042938e-01" cType="1" res="-1.0194879025220871e-02" rms="2.3754486441612244e-01" purity="2.1231932938098907e-01" nType="0">
          <Node pos="l" depth="2" NCoef="0" IVar="10" Cut="-4.0018919110298157e-01" cType="1" res="-1.8830955028533936e-02" rms="2.3546014726161957e-01" purity="2.1038936078548431e-01" nType="0">
            <Node pos="l" depth="3" NCoef="0" IVar="-1" Cut="0.0000000000000000e+00" cType="1" res="-3.4760426729917526e-02" rms="2.3822064697742462e-01" purity="1.8947120010852814e-01" nType="-99"/>
            <Node pos="r" depth="3" NCoef="0" IVar="-1" Cut="0.0000000000000000e+00" cType="1" res="-2.3343563079833984e-02" rms="2.3261918127536774e-01" purity="2.3113682866096497e-01" nType="-99"/>
          </Node>
          <Node pos="r" depth="2" NCoef="0" IVar="10" Cut="-1.3486926257610321e-01" cType="1" res="-5.5092648835852742e-04" rms="2.3948368430137634e-01" purity="2.1447449922561646e-01" nType="0">
            <Node pos="l" depth="3" NCoef="0" IVar="-1" Cut="0.0000000000000000e+00" cType="1" res="-1.7665492370724678e-02" rms="2.3124831914901733e-01" purity="2.0319266617298126e-01" nType="-99"/>
            <Node pos="r" depth="3" NCoef="0" IVar="-1" Cut="0.0000000000000000e+00" cType="1" res="1.6046842560172081e-02" rms="2.4685418605804443e-01" purity="2.2554996609687805e-01" nType="-99"/>
          </Node>
        </Node>
        <Node pos="r" depth="1" NCoef="0" IVar="7" Cut="-1.0760957747697830e-01" cType="1" res="5.3198244422674179e-03" rms="2.8916653990745544e-01" purity="5.4866784811019897e-01" nType="0">
          <Node pos="l" depth="2" NCoef="0" IVar="6" Cut="7.9703102111816406e+01" cType="1" res="1.0824682191014290e-02" rms="2.9147422313690186e-01" purity="5.3020161390304565e-01" nType="0">
            <Node pos="l" depth="3" NCoef="0" IVar="-1" Cut="0.0000000000000000e+00" cType="1" res="1.4129182323813438e-02" rms="3.1274583935737610e-01" purity="4.0050750970840454e-01" nType="-99"/>
            <Node pos="r" depth="3" NCoef="0" IVar="-1" Cut="0.0000000000000000e+00" cType="1" res="4.4039520435035229e-03" rms="2.1575522422790527e-01" purity="9.1675937175750732e-01" nType="-99"/>
          </Node>
          <Node pos="r" depth="2" NCoef="0" IVar="9" Cut="-1.3354250788688660e-01" cType="1" res="8.4723316831514239e-04" rms="2.8720027208328247e-01" purity="5.6367141008377075e-01" nType="0">
            <Node pos="l" depth="3" NCoef="0" IVar="-1" Cut="0.0000000000000000e+00" cType="1" res="-7.2367200627923012e-03" rms="2.9400873184204102e-01" purity="5.5107587575912476e-01" nType="-99"/>
            <Node pos="r" depth="3" NCoef="0" IVar="-1" Cut="0.0000000000000000e+00" cType="1" res="6.5141064114868641e-03" rms="2.8226879239082336e-01" purity="5.7243287563323975e-01" nType="-99"/>
          </Node>
        </Node>
      </Node>
    </BinaryTree>
    <BinaryTree type="DecisionTree" boostWeight="1.0000000000000000e+00" itree="664">
      <Node pos="s" depth="0" NCoef="0" IVar="11" Cut="3.1427860260009766e-01" cType="1" res="8.9096499141305685e-04" rms="2.8256821632385254e-01" purity="5.0366342067718506e-01" nType="0">
        <Node pos="l" depth="1" NCoef="0" IVar="9" Cut="1.4665845632553101e+00" cType="1" res="-1.0830853134393692e-03" rms="2.8344327211380005e-01" purity="4.3849554657936096e-01" nType="0">
          <Node pos="l" depth="2" NCoef="0" IVar="10" Cut="-2.0000236034393311e+00" cType="1" res="-2.5958006735891104e-03" rms="2.8605079650878906e-01" purity="4.6509051322937012e-01" nType="0">
            <Node pos="l" depth="3" NCoef="0" IVar="-1" Cut="0.0000000000000000e+00" cType="1" res="-2.6362767443060875e-02" rms="2.6662468910217285e-01" purity="2.0939664542675018e-01" nType="-99"/>
            <Node pos="r" depth="3" NCoef="0" IVar="-1" Cut="0.0000000000000000e+00" cType="1" res="-1.8811238696798682e-03" rms="2.8708645701408386e-01" purity="4.7964826226234436e-01" nType="-99"/>
          </Node>
          <Node pos="r" depth="2" NCoef="0" IVar="0" Cut="1.2653830566406250e+03" cType="1" res="1.3627569191157818e-02" rms="2.5624316930770874e-01" purity="1.7986860871315002e-01" nType="0">
            <Node pos="l" depth="3" NCoef="0" IVar="-1" Cut="0.0000000000000000e+00" cType="1" res="4.4768680818378925e-03" rms="1.8815074861049652e-01" purity="4.6877838671207428e-02" nType="-99"/>
            <Node pos="r" depth="3" NCoef="0" IVar="-1" Cut="0.0000000000000000e+00" cType="1" res="2.8046231716871262e-02" rms="3.1614205241203308e-01" purity="3.3212450146675110e-01" nType="-99"/>
          </Node>
        </Node>
        <Node pos="r" depth="1" NCoef="0" IVar="0" Cut="1.6275214843750000e+03" cType="1" res="8.0487914383411407e-03" rms="2.7925533056259155e-01" purity="7.3995971679687500e-01" nType="0">
          <Node pos="l" depth="2" NCoef="0" IVar="8" Cut="-1.3186247646808624e-01" cType="1" res="1.8218319863080978e-02" rms="3.2576423883438110e-01" purity="5.5399936437606812e-01" nType="0">
            <Node pos="l" depth="3" NCoef="0" IVar="-1" Cut="0.0000000000000000e+00" cType="1" res="4.9599716439843178e-03" rms="3.2242095470428467e-01" purity="5.2296310663223267e-01" nType="-99"/>
            <Node pos="r" depth="3" NCoef="0" IVar="-1" Cut="0.0000000000000000e+00" cType="1" res="2.2867668420076370e-02" rms="3.2768696546554565e-01" purity="5.7457786798477173e-01" nType="-99"/>
          </Node>
          <Node pos="r" depth="2" NCoef="0" IVar="4" Cut="1.8037228393554688e+02" cType="1" res="-7.9432391794398427e-04" rms="2.3096916079521179e-01" purity="9.0166527032852173e-01" nType="0">
            <Node pos="l" depth="3" NCoef="0" IVar="-1" Cut="0.0000000000000000e+00" cType="1" res="1.7718279734253883e-02" rms="2.5408455729484558e-01" purity="8.6537712812423706e-01" nType="-99"/>
            <Node pos="r" depth="3" NCoef="0" IVar="-1" Cut="0.0000000000000000e+00" cType="1" res="-1.1859147809445858e-02" rms="2.2133518755435944e-01" purity="9.1549694538116455e-01" nType="-99"/>
          </Node>
        </Node>
      </Node>
    </BinaryTree>
    <BinaryTree type="DecisionTree" boostWeight="1.0000000000000000e+00" itree="665">
      <Node pos="s" depth="0" NCoef="0" IVar="0" Cut="1.4400817871093750e+03" cType="1" res="-2.4699976202100515e-03" rms="2.8380021452903748e-01" purity="4.9729433655738831e-01" nType="0">
        <Node pos="l" depth="1" NCoef="0" IVar="10" Cut="1.3310913741588593e-01" cType="1" res="1.5671097207814455e-03" rms="2.8915593028068542e-01" purity="2.1407702565193176e-01" nType="0">
          <Node pos="l" depth="2" NCoef="0" IVar="4" Cut="1.1503890991210938e+02" cType="1" res="7.6472810469567776e-03" rms="2.9148659110069275e-01" purity="2.2594220936298370e-01" nType="0">
            <Node pos="l" depth="3" NCoef="0" IVar="-1" Cut="0.0000000000000000e+00" cType="1" res="-1.0775021277368069e-02" rms="2.2996638715267181e-01" purity="9.3430653214454651e-02" nType="-99"/>
            <Node pos="r" depth="3" NCoef="0" IVar="-1" Cut="0.0000000000000000e+00" cType="1" res="1.8547737970948219e-02" rms="3.4210273623466492e-01" purity="3.5999983549118042e-01" nType="-99"/>
          </Node>
          <Node pos="r" depth="2" NCoef="0" IVar="4" Cut="1.0081346893310547e+02" cType="1" res="-5.6857247836887836e-03" rms="2.8618204593658447e-01" purity="1.9992344081401825e-01" nType="0">
            <Node pos="l" depth="3" NCoef="0" IVar="-1" Cut="0.0000000000000000e+00" cType="1" res="1.7787221819162369e-02" rms="2.2073471546173096e-01" purity="7.7592812478542328e-02" nType="-99"/>
            <Node pos="r" depth="3" NCoef="0" IVar="-1" Cut="0.0000000000000000e+00" cType="1" res="-1.2450773268938065e-02" rms="3.1644752621650696e-01" purity="2.6777440309524536e-01" nType="-99"/>
          </Node>
        </Node>
        <Node pos="r" depth="1" NCoef="0" IVar="1" Cut="4.0283296257257462e-02" cType="1" res="-6.1824494041502476e-03" rms="2.7873280644416809e-01" purity="7.5773596763610840e-01" nType="0">
          <Node pos="l" depth="2" NCoef="0" IVar="7" Cut="-8.7318593263626099e-01" cType="1" res="-1.7201758921146393e-02" rms="3.3053660392761230e-01" purity="4.2361584305763245e-01" nType="0">
            <Node pos="l" depth="3" NCoef="0" IVar="-1" Cut="0.0000000000000000e+00" cType="1" res="6.1243101954460144e-03" rms="3.2041808962821960e-01" purity="2.9154586791992188e-01" nType="-99"/>
            <Node pos="r" depth="3" NCoef="0" IVar="-1" Cut="0.0000000000000000e+00" cType="1" res="-2.0330535247921944e-02" rms="3.3280897140502930e-01" purity="4.5740589499473572e-01" nType="-99"/>
          </Node>
          <Node pos="r" depth="2" NCoef="0" IVar="5" Cut="8.7627365112304688e+01" cType="1" res="-2.0681002642959356e-03" rms="2.5660288333892822e-01" purity="8.8248842954635620e-01" nType="0">
            <Node pos="l" depth="3" NCoef="0" IVar="-1" Cut="0.0000000000000000e+00" cType="1" res="-8.9032035320997238e-03" rms="3.5919484496116638e-01" purity="7.2220838069915771e-01" nType="-99"/>
            <Node pos="r" depth="3" NCoef="0" IVar="-1" Cut="0.0000000000000000e+00" cType="1" res="1.6617347719147801e-03" rms="2.1445049345493317e-01" purity="9.3277740478515625e-01" nType="-99"/>
          </Node>
        </Node>
      </Node>
    </BinaryTree>
    <BinaryTree type="DecisionTree" boostWeight="1.0000000000000000e+00" itree="666">
      <Node pos="s" depth="0" NCoef="0" IVar="1" Cut="4.0922656655311584e-02" cType="1" res="2.1342874970287085e-03" rms="2.8671720623970032e-01" purity="5.0464206933975220e-01" nType="0">
        <Node pos="l" depth="1" NCoef="0" IVar="11" Cut="-5.1465237140655518e-01" cType="1" res="6.4345425926148891e-03" rms="2.6589354872703552e-01" purity="2.1508023142814636e-01" nType="0">
          <Node pos="l" depth="2" NCoef="0" IVar="4" Cut="2.1804830932617188e+02" cType="1" res="2.7306587435305119e-03" rms="2.4806025624275208e-01" purity="1.5127530694007874e-01" nType="0">
            <Node pos="l" depth="3" NCoef="0" IVar="-1" Cut="0.0000000000000000e+00" cType="1" res="1.4650345547124743e-03" rms="2.3541288077831268e-01" purity="1.1521149426698685e-01" nType="-99"/>
            <Node pos="r" depth="3" NCoef="0" IVar="-1" Cut="0.0000000000000000e+00" cType="1" res="1.8126703798770905e-02" rms="3.4685596823692322e-01" purity="5.0014066696166992e-01" nType="-99"/>
          </Node>
          <Node pos="r" depth="2" NCoef="0" IVar="3" Cut="1.9825309753417969e+02" cType="1" res="2.0301153883337975e-02" rms="3.2368120551109314e-01" purity="4.5395323634147644e-01" nType="0">
            <Node pos="l" depth="3" NCoef="0" IVar="-1" Cut="0.0000000000000000e+00" cType="1" res="-2.0353177562355995e-02" rms="2.7155312895774841e-01" purity="1.9470266997814178e-01" nType="-99"/>
            <Node pos="r" depth="3" NCoef="0" IVar="-1" Cut="0.0000000000000000e+00" cType="1" res="3.7370633333921432e-02" rms="3.4821295738220215e-01" purity="6.0223495960235596e-01" nType="-99"/>
          </Node>
        </Node>
        <Node pos="r" depth="1" NCoef="0" IVar="7" Cut="8.3422106504440308e-01" cType="1" res="-8.0694514326751232e-04" rms="3.0009350180625916e-01" purity="7.0269280672073364e-01" nType="0">
          <Node pos="l" depth="2" NCoef="0" IVar="7" Cut="7.8915297985076904e-02" cType="1" res="-2.7722725644707680e-03" rms="2.9765245318412781e-01" purity="7.1774101257324219e-01" nType="0">
            <Node pos="l" depth="3" NCoef="0" IVar="-1" Cut="0.0000000000000000e+00" cType="1" res="4.2804377153515816e-03" rms="3.0009892582893372e-01" purity="7.1681118011474609e-01" nType="-99"/>
            <Node pos="r" depth="3" NCoef="0" IVar="-1" Cut="0.0000000000000000e+00" cType="1" res="-1.5169203281402588e-02" rms="2.9343238472938538e-01" purity="7.1921193599700928e-01" nType="-99"/>
          </Node>
          <Node pos="r" depth="2" NCoef="0" IVar="-1" Cut="0.0000000000000000e+00" cType="1" res="1.6095548868179321e-02" rms="3.2069846987724304e-01" purity="5.6718474626541138e-01" nType="-99"/>
        </Node>
      </Node>
    </BinaryTree>
    <BinaryTree type="DecisionTree" boostWeight="1.0000000000000000e+00" itree="667">
      <Node pos="s" depth="0" NCoef="0" IVar="10" Cut="-2.2666718959808350e+00" cType="1" res="7.4130401480942965e-04" rms="2.8551384806632996e-01" purity="5.0183349847793579e-01" nType="0">
        <Node pos="l" depth="1" NCoef="0" IVar="-1" Cut="0.0000000000000000e+00" cType="1" res="-3.9832428097724915e-02" rms="2.6967141032218933e-01" purity="2.0565970242023468e-01" nType="-99"/>
        <Node pos="r" depth="1" NCoef="0" IVar="9" Cut="1.1999874114990234e+00" cType="1" res="1.6177649376913905e-03" rms="2.8588643670082092e-01" purity="5.0996983051300049e-01" nType="0">
          <Node pos="l" depth="2" NCoef="0" IVar="7" Cut="-3.6829581856727600e-01" cType="1" res="3.1132730655372143e-03" rms="2.8843492269515991e-01" purity="5.4628568887710571e-01" nType="0">
            <Node pos="l" depth="3" NCoef="0" IVar="-1" Cut="0.0000000000000000e+00" cType="1" res="-3.9553162641823292e-03" rms="2.8941130638122559e-01" purity="4.6317645907402039e-01" nType="-99"/>
            <Node pos="r" depth="3" NCoef="0" IVar="-1" Cut="0.0000000000000000e+00" cType="1" res="7.5516756623983383e-03" rms="2.8790053725242615e-01" purity="5.8718293905258179e-01" nType="-99"/>
          </Node>
          <Node pos="r" depth="2" NCoef="0" IVar="7" Cut="1.4486530423164368e-01" cType="1" res="-8.2826493307948112e-03" rms="2.6819524168968201e-01" purity="2.6955482363700867e-01" nType="0">
            <Node pos="l" depth="3" NCoef="0" IVar="-1" Cut="0.0000000000000000e+00" cType="1" res="2.2443574853241444e-03" rms="2.7310442924499512e-01" purity="2.6931858062744141e-01" nType="-99"/>
            <Node pos="r" depth="3" NCoef="0" IVar="-1" Cut="0.0000000000000000e+00" cType="1" res="-2.3875625804066658e-02" rms="2.6324507594108582e-01" purity="2.6977294683456421e-01" nType="-99"/>
          </Node>
        </Node>
      </Node>
    </BinaryTree>
    <BinaryTree type="DecisionTree" boostWeight="1.0000000000000000e+00" itree="668">
      <Node pos="s" depth="0" NCoef="0" IVar="11" Cut="1.1427444219589233e+00" cType="1" res="-4.4379853643476963e-03" rms="2.8428018093109131e-01" purity="4.9979940056800842e-01" nType="0">
        <Node pos="l" depth="1" NCoef="0" IVar="8" Cut="-1.3335196673870087e-01" cType="1" res="-2.9576225206255913e-03" rms="2.8278768062591553e-01" purity="4.8592925071716309e-01" nType="0">
          <Node pos="l" depth="2" NCoef="0" IVar="6" Cut="5.4057559967041016e+01" cType="1" res="1.5065721236169338e-03" rms="2.8451165556907654e-01" purity="4.7341558337211609e-01" nType="0">
            <Node pos="l" depth="3" NCoef="0" IVar="-1" Cut="0.0000000000000000e+00" cType="1" res="8.7580624967813492e-03" rms="2.9756855964660645e-01" purity="2.3646777868270874e-01" nType="-99"/>
            <Node pos="r" depth="3" NCoef="0" IVar="-1" Cut="0.0000000000000000e+00" cType="1" res="-8.2614533603191376e-03" rms="2.6644021272659302e-01" purity="7.8053086996078491e-01" nType="-99"/>
          </Node>
          <Node pos="r" depth="2" NCoef="0" IVar="2" Cut="3.2477233886718750e+02" cType="1" res="-6.6024628467857838e-03" rms="2.8131979703903198e-01" purity="4.9614620208740234e-01" nType="0">
            <Node pos="l" depth="3" NCoef="0" IVar="-1" Cut="0.0000000000000000e+00" cType="1" res="-1.6481857746839523e-02" rms="2.7509278059005737e-01" purity="4.0748912096023560e-01" nType="-99"/>
            <Node pos="r" depth="3" NCoef="0" IVar="-1" Cut="0.0000000000000000e+00" cType="1" res="-2.5081541389226913e-03" rms="2.8551143407821655e-01" purity="5.5821216106414795e-01" nType="-99"/>
          </Node>
        </Node>
        <Node pos="r" depth="1" NCoef="0" IVar="10" Cut="1.3413159549236298e-01" cType="1" res="-2.0240398123860359e-02" rms="2.9929354786872864e-01" purity="6.4785921573638916e-01" nType="0">
          <Node pos="l" depth="2" NCoef="0" IVar="-1" Cut="0.0000000000000000e+00" cType="1" res="-4.9717919901013374e-03" rms="3.0037122964859009e-01" purity="6.7980390787124634e-01" nType="-99"/>
          <Node pos="r" depth="2" NCoef="0" IVar="-1" Cut="0.0000000000000000e+00" cType="1" res="-3.9145678281784058e-02" rms="2.9737672209739685e-01" purity="6.1598795652389526e-01" nType="-99"/>
        </Node>
      </Node>
    </BinaryTree>
    <BinaryTree type="DecisionTree" boostWeight="1.0000000000000000e+00" itree="669">
      <Node pos="s" depth="0" NCoef="0" IVar="1" Cut="6.1503961682319641e-02" cType="1" res="2.4324876721948385e-03" rms="2.8271284699440002e-01" purity="4.9978035688400269e-01" nType="0">
        <Node pos="l" depth="1" NCoef="0" IVar="9" Cut="-1.3337899744510651e-01" cType="1" res="-2.2006072103977203e-03" rms="2.7590245008468628e-01" purity="2.6462304592132568e-01" nType="0">
          <Node pos="l" depth="2" NCoef="0" IVar="7" Cut="1.8727989494800568e-01" cType="1" res="6.7754071205854416e-03" rms="2.8431886434555054e-01" purity="2.7203157544136047e-01" nType="0">
            <Node pos="l" depth="3" NCoef="0" IVar="-1" Cut="0.0000000000000000e+00" cType="1" res="1.6715155914425850e-02" rms="2.9648166894912720e-01" purity="2.9578453302383423e-01" nType="-99"/>
            <Node pos="r" depth="3" NCoef="0" IVar="-1" Cut="0.0000000000000000e+00" cType="1" res="-6.9997976534068584e-03" rms="2.6377317309379578e-01" purity="2.3494301736354828e-01" nType="-99"/>
          </Node>
          <Node pos="r" depth="2" NCoef="0" IVar="9" Cut="1.4031122922897339e+00" cType="1" res="-9.7507257014513016e-03" rms="2.6838657259941101e-01" purity="2.5839141011238098e-01" nType="0">
            <Node pos="l" depth="3" NCoef="0" IVar="-1" Cut="0.0000000000000000e+00" cType="1" res="-1.7033811658620834e-02" rms="2.7852022647857666e-01" purity="3.0198198556900024e-01" nType="-99"/>
            <Node pos="r" depth="3" NCoef="0" IVar="-1" Cut="0.0000000000000000e+00" cType="1" res="8.0548375844955444e-03" rms="2.3314987123012543e-01" purity="1.2152685225009918e-01" nType="-99"/>
          </Node>
        </Node>
        <Node pos="r" depth="1" NCoef="0" IVar="11" Cut="-2.4480814933776855e+00" cType="1" res="7.7630057930946350e-03" rms="2.9025942087173462e-01" purity="7.7033603191375732e-01" nType="0">
          <Node pos="l" depth="2" NCoef="0" IVar="5" Cut="6.7241096496582031e+01" cType="1" res="2.0657181739807129e-02" rms="3.6943802237510681e-01" purity="4.7915008664131165e-01" nType="0">
            <Node pos="l" depth="3" NCoef="0" IVar="-1" Cut="0.0000000000000000e+00" cType="1" res="6.1553530395030975e-03" rms="3.6314055323600769e-01" purity="3.1306508183479309e-01" nType="-99"/>
            <Node pos="r" depth="3" NCoef="0" IVar="-1" Cut="0.0000000000000000e+00" cType="1" res="2.1712167188525200e-02" rms="3.7442156672477722e-01" purity="6.2141025066375732e-01" nType="-99"/>
          </Node>
          <Node pos="r" depth="2" NCoef="0" IVar="10" Cut="9.2995578050613403e-01" cType="1" res="2.3659770376980305e-03" rms="2.4957686662673950e-01" purity="8.9221578836441040e-01" nType="0">
            <Node pos="l" depth="3" NCoef="0" IVar="-1" Cut="0.0000000000000000e+00" cType="1" res="-1.3747834600508213e-03" rms="2.4198739230632782e-01" purity="8.9826160669326782e-01" nType="-99"/>
            <Node pos="r" depth="3" NCoef="0" IVar="-1" Cut="0.0000000000000000e+00" cType="1" res="1.8915619701147079e-02" rms="2.7816030383110046e-01" purity="8.6742639541625977e-01" nType="-99"/>
          </Node>
        </Node>
      </Node>
    </BinaryTree>
    <BinaryTree type="DecisionTree" boostWeight="1.0000000000000000e+00" itree="670">
      <Node pos="s" depth="0" NCoef="0" IVar="7" Cut="-6.5142685174942017e-01" cType="1" res="-1.6046264208853245e-03" rms="2.8355583548545837e-01" purity="4.9612143635749817e-01" nType="0">
        <Node pos="l" depth="1" NCoef="0" IVar="3" Cut="3.1569616699218750e+02" cType="1" res="8.3394395187497139e-03" rms="2.7814382314682007e-01" purity="3.5147744417190552e-01" nType="0">
          <Node pos="l" depth="2" NCoef="0" IVar="10" Cut="-1.1999779939651489e+00" cType="1" res="1.3706040568649769e-02" rms="2.7440294623374939e-01" purity="3.2310381531715393e-01" nType="0">
            <Node pos="l" depth="3" NCoef="0" IVar="-1" Cut="0.0000000000000000e+00" cType="1" res="4.6959768980741501e-02" rms="2.7604243159294128e-01" purity="2.6094946265220642e-01" nType="-99"/>
            <Node pos="r" depth="3" NCoef="0" IVar="-1" Cut="0.0000000000000000e+00" cType="1" res="1.0767085477709770e-02" rms="2.7366119623184204e-01" purity="3.4174844622612000e-01" nType="-99"/>
          </Node>
          <Node pos="r" depth="2" NCoef="0" IVar="-1" Cut="0.0000000000000000e+00" cType="1" res="-2.8440343216061592e-02" rms="2.9936724901199341e-01" purity="5.3975421190261841e-01" nType="-99"/>
        </Node>
        <Node pos="r" depth="1" NCoef="0" IVar="11" Cut="1.6942932605743408e+00" cType="1" res="-4.5789196155965328e-03" rms="2.8508722782135010e-01" purity="5.3938484191894531e-01" nType="0">
          <Node pos="l" depth="2" NCoef="0" IVar="10" Cut="-1.1999251842498779e+00" cType="1" res="-5.6629930622875690e-03" rms="2.8393483161926270e-01" purity="5.3364962339401245e-01" nType="0">
            <Node pos="l" depth="3" NCoef="0" IVar="-1" Cut="0.0000000000000000e+00" cType="1" res="-1.8499663099646568e-02" rms="2.8196302056312561e-01" purity="3.9816591143608093e-01" nType="-99"/>
            <Node pos="r" depth="3" NCoef="0" IVar="-1" Cut="0.0000000000000000e+00" cType="1" res="-4.7235274687409401e-03" rms="2.8423538804054260e-01" purity="5.5697727203369141e-01" nType="-99"/>
          </Node>
          <Node pos="r" depth="2" NCoef="0" IVar="-1" Cut="0.0000000000000000e+00" cType="1" res="1.8103133887052536e-02" rms="3.0705723166465759e-01" purity="6.5775686502456665e-01" nType="-99"/>
        </Node>
      </Node>
    </BinaryTree>
    <BinaryTree type="DecisionTree" boostWeight="1.0000000000000000e+00" itree="671">
      <Node pos="s" depth="0" NCoef="0" IVar="6" Cut="6.3131359100341797e+01" cType="1" res="1.0419702157378197e-03" rms="2.8485581278800964e-01" purity="5.0159901380538940e-01" nType="0">
        <Node pos="l" depth="1" NCoef="0" IVar="1" Cut="9.5767408609390259e-02" cType="1" res="-1.8901735311374068e-03" rms="3.0488350987434387e-01" purity="2.9226288199424744e-01" nType="0">
          <Node pos="l" depth="2" NCoef="0" IVar="10" Cut="-4.0000578761100769e-01" cType="1" res="1.0054883314296603e-03" rms="2.9080772399902344e-01" purity="2.1908675134181976e-01" nType="0">
            <Node pos="l" depth="3" NCoef="0" IVar="-1" Cut="0.0000000000000000e+00" cType="1" res="-5.9910984709858894e-03" rms="2.8191933035850525e-01" purity="1.9098897278308868e-01" nType="-99"/>
            <Node pos="r" depth="3" NCoef="0" IVar="-1" Cut="0.0000000000000000e+00" cType="1" res="5.2861580625176430e-03" rms="2.9622629284858704e-01" purity="2.3682403564453125e-01" nType="-99"/>
          </Node>
          <Node pos="r" depth="2" NCoef="0" IVar="8" Cut="-1.9456470012664795e-01" cType="1" res="-1.4456552453339100e-02" rms="3.5937094688415527e-01" purity="6.0982728004455566e-01" nType="0">
            <Node pos="l" depth="3" NCoef="0" IVar="-1" Cut="0.0000000000000000e+00" cType="1" res="-2.3075351491570473e-02" rms="3.5956716537475586e-01" purity="5.7641392946243286e-01" nType="-99"/>
            <Node pos="r" depth="3" NCoef="0" IVar="-1" Cut="0.0000000000000000e+00" cType="1" res="-3.0105430632829666e-03" rms="3.5885968804359436e-01" purity="6.3129311800003052e-01" nType="-99"/>
          </Node>
        </Node>
        <Node pos="r" depth="1" NCoef="0" IVar="1" Cut="4.0419396013021469e-02" cType="1" res="5.9415739960968494e-03" rms="2.4772582948207855e-01" purity="8.5139918327331543e-01" nType="0">
          <Node pos="l" depth="2" NCoef="0" IVar="7" Cut="4.8151847720146179e-01" cType="1" res="2.0736521109938622e-02" rms="3.3176368474960327e-01" purity="5.5566525459289551e-01" nType="0">
            <Node pos="l" depth="3" NCoef="0" IVar="-1" Cut="0.0000000000000000e+00" cType="1" res="8.5247429087758064e-03" rms="3.2188338041305542e-01" purity="5.9861314296722412e-01" nType="-99"/>
            <Node pos="r" depth="3" NCoef="0" IVar="-1" Cut="0.0000000000000000e+00" cType="1" res="3.4230545163154602e-02" rms="3.4686824679374695e-01" purity="4.8375058174133301e-01" nType="-99"/>
          </Node>
          <Node pos="r" depth="2" NCoef="0" IVar="7" Cut="-3.1769412755966187e-01" cType="1" res="2.6751519180834293e-03" rms="2.2484958171844482e-01" purity="9.1669112443923950e-01" nType="0">
            <Node pos="l" depth="3" NCoef="0" IVar="-1" Cut="0.0000000000000000e+00" cType="1" res="1.4393178746104240e-02" rms="2.3744179308414459e-01" purity="9.0366703271865845e-01" nType="-99"/>
            <Node pos="r" depth="3" NCoef="0" IVar="-1" Cut="0.0000000000000000e+00" cType="1" res="-5.0348619697615504e-04" rms="2.1881483495235443e-01" purity="9.2262011766433716e-01" nType="-99"/>
          </Node>
        </Node>
      </Node>
    </BinaryTree>
    <BinaryTree type="DecisionTree" boostWeight="1.0000000000000000e+00" itree="672">
      <Node pos="s" depth="0" NCoef="0" IVar="10" Cut="2.2663919925689697e+00" cType="1" res="-3.1730588525533676e-03" rms="2.7974969148635864e-01" purity="4.9719956517219543e-01" nType="0">
        <Node pos="l" depth="1" NCoef="0" IVar="5" Cut="8.8200111389160156e+01" cType="1" res="-2.4687927216291428e-03" rms="2.7986508607864380e-01" purity="5.0577443838119507e-01" nType="0">
          <Node pos="l" depth="2" NCoef="0" IVar="10" Cut="-2.0759932994842529e+00" cType="1" res="-5.4466775618493557e-03" rms="2.9210072755813599e-01" purity="2.7184185385704041e-01" nType="0">
            <Node pos="l" depth="3" NCoef="0" IVar="-1" Cut="0.0000000000000000e+00" cType="1" res="1.8961459398269653e-02" rms="2.7670606970787048e-01" purity="1.6258251667022705e-01" nType="-99"/>
            <Node pos="r" depth="3" NCoef="0" IVar="-1" Cut="0.0000000000000000e+00" cType="1" res="-7.1633267216384411e-03" rms="2.9300948977470398e-01" purity="2.7877208590507507e-01" nType="-99"/>
          </Node>
          <Node pos="r" depth="2" NCoef="0" IVar="11" Cut="-1.6192512512207031e+00" cType="1" res="1.5596902230754495e-03" rms="2.6235249638557434e-01" purity="8.2223844528198242e-01" nType="0">
            <Node pos="l" depth="3" NCoef="0" IVar="-1" Cut="0.0000000000000000e+00" cType="1" res="1.2592198327183723e-02" rms="3.4437274932861328e-01" purity="6.1383289098739624e-01" nType="-99"/>
            <Node pos="r" depth="3" NCoef="0" IVar="-1" Cut="0.0000000000000000e+00" cType="1" res="-3.8993060588836670e-03" rms="2.3345708847045898e-01" purity="8.8196647167205811e-01" nType="-99"/>
          </Node>
        </Node>
        <Node pos="r" depth="1" NCoef="0" IVar="-1" Cut="0.0000000000000000e+00" cType="1" res="-3.9885610342025757e-02" rms="2.7414634823799133e-01" purity="1.7845356464385986e-01" nType="-99"/>
      </Node>
    </BinaryTree>
    <BinaryTree type="DecisionTree" boostWeight="1.0000000000000000e+00" itree="673">
      <Node pos="s" depth="0" NCoef="0" IVar="2" Cut="3.4597341918945312e+02" cType="1" res="1.4186721818987280e-04" rms="2.8412568569183350e-01" purity="5.0041335821151733e-01" nType="0">
        <Node pos="l" depth="1" NCoef="0" IVar="1" Cut="2.0513333380222321e-02" cType="1" res="-5.2479463629424572e-03" rms="2.7768576145172119e-01" purity="4.2618370056152344e-01" nType="0">
          <Node pos="l" depth="2" NCoef="0" IVar="3" Cut="1.9297329711914062e+02" cType="1" res="3.8877232000231743e-03" rms="1.8350252509117126e-01" purity="7.0400111377239227e-02" nType="0">
            <Node pos="l" depth="3" NCoef="0" IVar="-1" Cut="0.0000000000000000e+00" cType="1" res="-2.7735555544495583e-02" rms="1.2477037310600281e-01" purity="2.2719318047165871e-02" nType="-99"/>
            <Node pos="r" depth="3" NCoef="0" IVar="-1" Cut="0.0000000000000000e+00" cType="1" res="3.3408600836992264e-02" rms="2.5444799661636353e-01" purity="1.5340626239776611e-01" nType="-99"/>
          </Node>
          <Node pos="r" depth="2" NCoef="0" IVar="0" Cut="1.1272757568359375e+03" cType="1" res="-7.7120261266827583e-03" rms="2.9798734188079834e-01" purity="5.2214592695236206e-01" nType="0">
            <Node pos="l" depth="3" NCoef="0" IVar="-1" Cut="0.0000000000000000e+00" cType="1" res="3.6134005058556795e-03" rms="2.6074784994125366e-01" purity="9.1742455959320068e-02" nType="-99"/>
            <Node pos="r" depth="3" NCoef="0" IVar="-1" Cut="0.0000000000000000e+00" cType="1" res="-1.1506328359246254e-02" rms="3.1120279431343079e-01" purity="6.8983429670333862e-01" nType="-99"/>
          </Node>
        </Node>
        <Node pos="r" depth="1" NCoef="0" IVar="11" Cut="-1.8958373069763184e+00" cType="1" res="5.1866788417100906e-03" rms="2.8993308544158936e-01" purity="5.6989157199859619e-01" nType="0">
          <Node pos="l" depth="2" NCoef="0" IVar="5" Cut="6.5913475036621094e+01" cType="1" res="1.2149206362664700e-02" rms="3.1601658463478088e-01" purity="3.1545791029930115e-01" nType="0">
            <Node pos="l" depth="3" NCoef="0" IVar="-1" Cut="0.0000000000000000e+00" cType="1" res="3.1905604992061853e-03" rms="2.8191566467285156e-01" purity="1.6961835324764252e-01" nType="-99"/>
            <Node pos="r" depth="3" NCoef="0" IVar="-1" Cut="0.0000000000000000e+00" cType="1" res="1.9221544265747070e-02" rms="3.4947586059570312e-01" purity="4.7625783085823059e-01" nType="-99"/>
          </Node>
          <Node pos="r" depth="2" NCoef="0" IVar="10" Cut="1.1996655464172363e+00" cType="1" res="-9.5144560327753425e-04" rms="2.6466381549835205e-01" purity="7.9419881105422974e-01" nType="0">
            <Node pos="l" depth="3" NCoef="0" IVar="-1" Cut="0.0000000000000000e+00" cType="1" res="2.0501301623880863e-03" rms="2.6107707619667053e-01" purity="8.1114304065704346e-01" nType="-99"/>
            <Node pos="r" depth="3" NCoef="0" IVar="-1" Cut="0.0000000000000000e+00" cType="1" res="-1.9055461511015892e-02" rms="2.8596174716949463e-01" purity="6.8643802404403687e-01" nType="-99"/>
          </Node>
        </Node>
      </Node>
    </BinaryTree>
    <BinaryTree type="DecisionTree" boostWeight="1.0000000000000000e+00" itree="674">
      <Node pos="s" depth="0" NCoef="0" IVar="0" Cut="1.7601209716796875e+03" cType="1" res="1.1592973023653030e-03" rms="2.8221723437309265e-01" purity="5.0592046976089478e-01" nType="0">
        <Node pos="l" depth="1" NCoef="0" IVar="10" Cut="-1.3345786929130554e-01" cType="1" res="4.1024773381650448e-03" rms="2.9799050092697144e-01" purity="3.5218501091003418e-01" nType="0">
          <Node pos="l" depth="2" NCoef="0" IVar="6" Cut="5.4282917022705078e+01" cType="1" res="-1.7723758937790990e-03" rms="2.9835477471351624e-01" purity="3.3880585432052612e-01" nType="0">
            <Node pos="l" depth="3" NCoef="0" IVar="-1" Cut="0.0000000000000000e+00" cType="1" res="3.7348300684243441e-03" rms="2.9060825705528259e-01" purity="1.8562179803848267e-01" nType="-99"/>
            <Node pos="r" depth="3" NCoef="0" IVar="-1" Cut="0.0000000000000000e+00" cType="1" res="-1.0381431318819523e-02" rms="3.1258812546730042e-01" purity="6.3529998064041138e-01" nType="-99"/>
          </Node>
          <Node pos="r" depth="2" NCoef="0" IVar="11" Cut="-1.6196006536483765e+00" cType="1" res="9.0262731537222862e-03" rms="2.9759550094604492e-01" purity="3.6339825391769409e-01" nType="0">
            <Node pos="l" depth="3" NCoef="0" IVar="-1" Cut="0.0000000000000000e+00" cType="1" res="2.8695126529783010e-03" rms="2.8722211718559265e-01" purity="1.9206303358078003e-01" nType="-99"/>
            <Node pos="r" depth="3" NCoef="0" IVar="-1" Cut="0.0000000000000000e+00" cType="1" res="1.8693450838327408e-02" rms="3.1336918473243713e-01" purity="6.4088231325149536e-01" nType="-99"/>
          </Node>
        </Node>
        <Node pos="r" depth="1" NCoef="0" IVar="5" Cut="7.1511535644531250e+01" cType="1" res="-5.6099183857440948e-03" rms="2.4193398654460907e-01" purity="8.5950696468353271e-01" nType="0">
          <Node pos="l" depth="2" NCoef="0" IVar="-1" Cut="0.0000000000000000e+00" cType="1" res="-2.1217742934823036e-02" rms="3.6069160699844360e-01" purity="5.0154930353164673e-01" nType="-99"/>
          <Node pos="r" depth="2" NCoef="0" IVar="4" Cut="2.4884146118164062e+02" cType="1" res="-2.7861087583005428e-03" rms="2.2181873023509979e-01" purity="9.0581780672073364e-01" nType="0">
            <Node pos="l" depth="3" NCoef="0" IVar="-1" Cut="0.0000000000000000e+00" cType="1" res="3.2966763246804476e-03" rms="2.2369483113288879e-01" purity="8.9899337291717529e-01" nType="-99"/>
            <Node pos="r" depth="3" NCoef="0" IVar="-1" Cut="0.0000000000000000e+00" cType="1" res="-2.2809538990259171e-02" rms="2.1846438944339752e-01" purity="9.1713774204254150e-01" nType="-99"/>
          </Node>
        </Node>
      </Node>
    </BinaryTree>
    <BinaryTree type="DecisionTree" boostWeight="1.0000000000000000e+00" itree="675">
      <Node pos="s" depth="0" NCoef="0" IVar="9" Cut="1.1998876333236694e+00" cType="1" res="3.5099283559247851e-04" rms="2.8352922201156616e-01" purity="4.9961248040199280e-01" nType="0">
        <Node pos="l" depth="1" NCoef="0" IVar="10" Cut="9.3310898542404175e-01" cType="1" res="-1.0280476417392492e-03" rms="2.8398770093917847e-01" purity="5.3067064285278320e-01" nType="0">
          <Node pos="l" depth="2" NCoef="0" IVar="10" Cut="3.9979523420333862e-01" cType="1" res="1.0082934750244021e-03" rms="2.8360980749130249e-01" purity="5.5123513936996460e-01" nType="0">
            <Node pos="l" depth="3" NCoef="0" IVar="-1" Cut="0.0000000000000000e+00" cType="1" res="-3.0689183622598648e-03" rms="2.8298276662826538e-01" purity="5.3751820325851440e-01" nType="-99"/>
            <Node pos="r" depth="3" NCoef="0" IVar="-1" Cut="0.0000000000000000e+00" cType="1" res="1.8883144482970238e-02" rms="2.8572121262550354e-01" purity="6.0787528753280640e-01" nType="-99"/>
          </Node>
          <Node pos="r" depth="2" NCoef="0" IVar="1" Cut="7.6342336833477020e-02" cType="1" res="-8.4162037819623947e-03" rms="2.8523245453834534e-01" purity="4.5605966448783875e-01" nType="0">
            <Node pos="l" depth="3" NCoef="0" IVar="-1" Cut="0.0000000000000000e+00" cType="1" res="3.5407589166425169e-05" rms="2.7477476000785828e-01" purity="2.7474135160446167e-01" nType="-99"/>
            <Node pos="r" depth="3" NCoef="0" IVar="-1" Cut="0.0000000000000000e+00" cType="1" res="-2.4010302498936653e-02" rms="3.0049628019332886e-01" purity="7.4182611703872681e-01" nType="-99"/>
          </Node>
        </Node>
        <Node pos="r" depth="1" NCoef="0" IVar="8" Cut="9.3266981840133667e-01" cType="1" res="9.6039818599820137e-03" rms="2.8025802969932556e-01" purity="2.9122045636177063e-01" nType="0">
          <Node pos="l" depth="2" NCoef="0" IVar="1" Cut="5.3982451558113098e-02" cType="1" res="1.6116961836814880e-02" rms="2.9321295022964478e-01" purity="3.3264195919036865e-01" nType="0">
            <Node pos="l" depth="3" NCoef="0" IVar="-1" Cut="0.0000000000000000e+00" cType="1" res="3.8044910877943039e-02" rms="2.7304634451866150e-01" purity="1.7184516787528992e-01" nType="-99"/>
            <Node pos="r" depth="3" NCoef="0" IVar="-1" Cut="0.0000000000000000e+00" cType="1" res="3.1898871529847383e-03" rms="3.2049989700317383e-01" purity="5.7206290960311890e-01" nType="-99"/>
          </Node>
          <Node pos="r" depth="2" NCoef="0" IVar="-1" Cut="0.0000000000000000e+00" cType="1" res="-1.7735518515110016e-02" rms="2.3480135202407837e-01" purity="1.6365484893321991e-01" nType="-99"/>
        </Node>
      </Node>
    </BinaryTree>
    <BinaryTree type="DecisionTree" boostWeight="1.0000000000000000e+00" itree="676">
      <Node pos="s" depth="0" NCoef="0" IVar="9" Cut="1.4666540622711182e+00" cType="1" res="-1.7459629452787340e-04" rms="2.8329086303710938e-01" purity="4.9838718771934509e-01" nType="0">
        <Node pos="l" depth="1" NCoef="0" IVar="10" Cut="1.9994022846221924e+00" cType="1" res="1.4026754070073366e-03" rms="2.8502458333969116e-01" purity="5.2662587165832520e-01" nType="0">
          <Node pos="l" depth="2" NCoef="0" IVar="11" Cut="1.4183957576751709e+00" cType="1" res="6.7920383298769593e-04" rms="2.8458225727081299e-01" purity="5.3716474771499634e-01" nType="0">
            <Node pos="l" depth="3" NCoef="0" IVar="-1" Cut="0.0000000000000000e+00" cType="1" res="-2.4239925551228225e-04" rms="2.8385204076766968e-01" purity="5.2715188264846802e-01" nType="-99"/>
            <Node pos="r" depth="3" NCoef="0" IVar="-1" Cut="0.0000000000000000e+00" cType="1" res="1.4869887381792068e-02" rms="2.9504111409187317e-01" purity="6.8794888257980347e-01" nType="-99"/>
          </Node>
          <Node pos="r" depth="2" NCoef="0" IVar="-1" Cut="0.0000000000000000e+00" cType="1" res="1.9844457507133484e-02" rms="2.9376184940338135e-01" purity="3.0496373772621155e-01" nType="-99"/>
        </Node>
        <Node pos="r" depth="1" NCoef="0" IVar="1" Cut="3.7732031196355820e-02" cType="1" res="-1.7036007717251778e-02" rms="2.6345720887184143e-01" purity="1.9650943577289581e-01" nType="0">
          <Node pos="l" depth="2" NCoef="0" IVar="7" Cut="2.0859210193157196e-01" cType="1" res="-3.0435621738433838e-03" rms="2.1481257677078247e-01" purity="8.3914510905742645e-02" nType="0">
            <Node pos="l" depth="3" NCoef="0" IVar="-1" Cut="0.0000000000000000e+00" cType="1" res="1.2904810719192028e-02" rms="2.1987056732177734e-01" purity="8.3325840532779694e-02" nType="-99"/>
            <Node pos="r" depth="3" NCoef="0" IVar="-1" Cut="0.0000000000000000e+00" cType="1" res="-2.3593246936798096e-02" rms="2.0902635157108307e-01" purity="8.4531880915164948e-02" nType="-99"/>
          </Node>
          <Node pos="r" depth="2" NCoef="0" IVar="-1" Cut="0.0000000000000000e+00" cType="1" res="-3.2485399395227432e-02" rms="3.2259503006935120e-01" purity="3.6787718534469604e-01" nType="-99"/>
        </Node>
      </Node>
    </BinaryTree>
    <BinaryTree type="DecisionTree" boostWeight="1.0000000000000000e+00" itree="677">
      <Node pos="s" depth="0" NCoef="0" IVar="10" Cut="-9.3342274427413940e-01" cType="1" res="-1.2719212099909782e-03" rms="2.8176718950271606e-01" purity="4.9787569046020508e-01" nType="0">
        <Node pos="l" depth="1" NCoef="0" IVar="4" Cut="2.0408802795410156e+02" cType="1" res="-9.9557228386402130e-03" rms="2.7929514646530151e-01" purity="4.0861621499061584e-01" nType="0">
          <Node pos="l" depth="2" NCoef="0" IVar="1" Cut="1.8839452415704727e-02" cType="1" res="-1.4639603905379772e-02" rms="2.8183382749557495e-01" purity="3.0169606208801270e-01" nType="0">
            <Node pos="l" depth="3" NCoef="0" IVar="-1" Cut="0.0000000000000000e+00" cType="1" res="9.4955153763294220e-03" rms="1.7476300895214081e-01" purity="4.9522168934345245e-02" nType="-99"/>
            <Node pos="r" depth="3" NCoef="0" IVar="-1" Cut="0.0000000000000000e+00" cType="1" res="-2.0314229652285576e-02" rms="3.1339588761329651e-01" purity="3.9944100379943848e-01" nType="-99"/>
          </Node>
          <Node pos="r" depth="2" NCoef="0" IVar="8" Cut="-1.3538242876529694e-01" cType="1" res="6.0115647502243519e-03" rms="2.6985144615173340e-01" purity="7.7310562133789062e-01" nType="0">
            <Node pos="l" depth="3" NCoef="0" IVar="-1" Cut="0.0000000000000000e+00" cType="1" res="3.9320765063166618e-03" rms="2.6659399271011353e-01" purity="7.6743733882904053e-01" nType="-99"/>
            <Node pos="r" depth="3" NCoef="0" IVar="-1" Cut="0.0000000000000000e+00" cType="1" res="1.1420007795095444e-02" rms="2.7286899089813232e-01" purity="7.7846747636795044e-01" nType="-99"/>
          </Node>
        </Node>
        <Node pos="r" depth="1" NCoef="0" IVar="10" Cut="8.4426367282867432e-01" cType="1" res="1.2852725340053439e-03" rms="2.8244015574455261e-01" purity="5.2416062355041504e-01" nType="0">
          <Node pos="l" depth="2" NCoef="0" IVar="8" Cut="-3.9983847737312317e-01" cType="1" res="-1.0452448623254895e-03" rms="2.8178927302360535e-01" purity="5.6762617826461792e-01" nType="0">
            <Node pos="l" depth="3" NCoef="0" IVar="-1" Cut="0.0000000000000000e+00" cType="1" res="6.2756175175309181e-03" rms="2.8806182742118835e-01" purity="5.1153844594955444e-01" nType="-99"/>
            <Node pos="r" depth="3" NCoef="0" IVar="-1" Cut="0.0000000000000000e+00" cType="1" res="-5.1282029598951340e-03" rms="2.7855017781257629e-01" purity="5.9563565254211426e-01" nType="-99"/>
          </Node>
          <Node pos="r" depth="2" NCoef="0" IVar="2" Cut="5.3434814453125000e+02" cType="1" res="6.1390167102217674e-03" rms="2.8372949361801147e-01" purity="4.3363544344902039e-01" nType="0">
            <Node pos="l" depth="3" NCoef="0" IVar="-1" Cut="0.0000000000000000e+00" cType="1" res="1.1728672310709953e-02" rms="2.8131446242332458e-01" purity="4.2347049713134766e-01" nType="-99"/>
            <Node pos="r" depth="3" NCoef="0" IVar="-1" Cut="0.0000000000000000e+00" cType="1" res="-1.8433377146720886e-02" rms="2.9753923416137695e-01" purity="4.9806004762649536e-01" nType="-99"/>
          </Node>
        </Node>
      </Node>
    </BinaryTree>
    <BinaryTree type="DecisionTree" boostWeight="1.0000000000000000e+00" itree="678">
      <Node pos="s" depth="0" NCoef="0" IVar="5" Cut="7.1511077880859375e+01" cType="1" res="9.8678213544189930e-04" rms="2.8553572297096252e-01" purity="5.0119936466217041e-01" nType="0">
        <Node pos="l" depth="1" NCoef="0" IVar="4" Cut="1.7642788696289062e+02" cType="1" res="5.9815826825797558e-03" rms="2.8711938858032227e-01" purity="1.9509457051753998e-01" nType="0">
          <Node pos="l" depth="2" NCoef="0" IVar="5" Cut="6.1267673492431641e+01" cType="1" res="2.2564982064068317e-03" rms="2.6636838912963867e-01" purity="1.3987098634243011e-01" nType="0">
            <Node pos="l" depth="3" NCoef="0" IVar="-1" Cut="0.0000000000000000e+00" cType="1" res="-5.2853031083941460e-03" rms="2.4353189766407013e-01" purity="9.8381780087947845e-02" nType="-99"/>
            <Node pos="r" depth="3" NCoef="0" IVar="-1" Cut="0.0000000000000000e+00" cType="1" res="1.3104681856930256e-02" rms="3.0090084671974182e-01" purity="2.1014904975891113e-01" nType="-99"/>
          </Node>
          <Node pos="r" depth="2" NCoef="0" IVar="5" Cut="6.3316215515136719e+01" cType="1" res="2.4557009339332581e-02" rms="3.7322416901588440e-01" purity="4.7047132253646851e-01" nType="0">
            <Node pos="l" depth="3" NCoef="0" IVar="-1" Cut="0.0000000000000000e+00" cType="1" res="2.7967967092990875e-02" rms="3.7085223197937012e-01" purity="4.5315828919410706e-01" nType="-99"/>
            <Node pos="r" depth="3" NCoef="0" IVar="-1" Cut="0.0000000000000000e+00" cType="1" res="1.4064941788092256e-03" rms="3.7611967325210571e-01" purity="4.9972200393676758e-01" nType="-99"/>
          </Node>
        </Node>
        <Node pos="r" depth="1" NCoef="0" IVar="9" Cut="-6.6671991348266602e-01" cType="1" res="-2.4362981785088778e-03" rms="2.8439465165138245e-01" purity="7.1098184585571289e-01" nType="0">
          <Node pos="l" depth="2" NCoef="0" IVar="7" Cut="-6.1330980062484741e-01" cType="1" res="-1.2912301346659660e-02" rms="3.0195975303649902e-01" purity="6.1222445964813232e-01" nType="0">
            <Node pos="l" depth="3" NCoef="0" IVar="-1" Cut="0.0000000000000000e+00" cType="1" res="-3.2112073153257370e-02" rms="3.0834880471229553e-01" purity="4.6034693717956543e-01" nType="-99"/>
            <Node pos="r" depth="3" NCoef="0" IVar="-1" Cut="0.0000000000000000e+00" cType="1" res="-6.6528129391372204e-03" rms="2.9941913485527039e-01" purity="6.6433411836624146e-01" nType="-99"/>
          </Node>
          <Node pos="r" depth="2" NCoef="0" IVar="11" Cut="-2.7238101959228516e+00" cType="1" res="7.6937855919823050e-04" rms="2.7871999144554138e-01" purity="7.4120175838470459e-01" nType="0">
            <Node pos="l" depth="3" NCoef="0" IVar="-1" Cut="0.0000000000000000e+00" cType="1" res="-6.3211219385266304e-03" rms="3.4568640589714050e-01" purity="4.4345822930335999e-01" nType="-99"/>
            <Node pos="r" depth="3" NCoef="0" IVar="-1" Cut="0.0000000000000000e+00" cType="1" res="5.1270890980958939e-03" rms="2.5289171934127808e-01" purity="8.3875179290771484e-01" nType="-99"/>
          </Node>
        </Node>
      </Node>
    </BinaryTree>
    <BinaryTree type="DecisionTree" boostWeight="1.0000000000000000e+00" itree="679">
      <Node pos="s" depth="0" NCoef="0" IVar="10" Cut="1.4665621519088745e+00" cType="1" res="-2.0812856382690370e-04" rms="2.8241124749183655e-01" purity="5.0154030323028564e-01" nType="0">
        <Node pos="l" depth="1" NCoef="0" IVar="10" Cut="-3.6192378401756287e-01" cType="1" res="-1.8343431875109673e-03" rms="2.8150820732116699e-01" purity="5.2101707458496094e-01" nType="0">
          <Node pos="l" depth="2" NCoef="0" IVar="8" Cut="6.6666805744171143e-01" cType="1" res="2.5901715271174908e-03" rms="2.8182390332221985e-01" purity="4.8113095760345459e-01" nType="0">
            <Node pos="l" depth="3" NCoef="0" IVar="-1" Cut="0.0000000000000000e+00" cType="1" res="-7.0997740840539336e-04" rms="2.8084239363670349e-01" purity="5.0964272022247314e-01" nType="-99"/>
            <Node pos="r" depth="3" NCoef="0" IVar="-1" Cut="0.0000000000000000e+00" cType="1" res="1.7640491947531700e-02" rms="2.8506651520729065e-01" purity="3.7738290429115295e-01" nType="-99"/>
          </Node>
          <Node pos="r" depth="2" NCoef="0" IVar="10" Cut="-1.0070116072893143e-01" cType="1" res="-5.2846539765596390e-03" rms="2.8121346235275269e-01" purity="5.5212086439132690e-01" nType="0">
            <Node pos="l" depth="3" NCoef="0" IVar="-1" Cut="0.0000000000000000e+00" cType="1" res="-2.8417257592082024e-02" rms="2.7836340665817261e-01" purity="5.4435843229293823e-01" nType="-99"/>
            <Node pos="r" depth="3" NCoef="0" IVar="-1" Cut="0.0000000000000000e+00" cType="1" res="-2.4005975574254990e-03" rms="2.8163632750511169e-01" purity="5.5361336469650269e-01" nType="-99"/>
          </Node>
        </Node>
        <Node pos="r" depth="1" NCoef="0" IVar="4" Cut="1.3230331420898438e+02" cType="1" res="1.2325577437877655e-02" rms="2.8896981477737427e-01" purity="3.5142713785171509e-01" nType="0">
          <Node pos="l" depth="2" NCoef="0" IVar="10" Cut="1.9111062288284302e+00" cType="1" res="-2.3185687605291605e-03" rms="2.3598781228065491e-01" purity="1.2480683624744415e-01" nType="0">
            <Node pos="l" depth="3" NCoef="0" IVar="-1" Cut="0.0000000000000000e+00" cType="1" res="1.5222063288092613e-02" rms="2.7147257328033447e-01" purity="1.7630259692668915e-01" nType="-99"/>
            <Node pos="r" depth="3" NCoef="0" IVar="-1" Cut="0.0000000000000000e+00" cType="1" res="-2.9221413657069206e-02" rms="1.9918067753314972e-01" purity="7.9787649214267731e-02" nType="-99"/>
          </Node>
          <Node pos="r" depth="2" NCoef="0" IVar="0" Cut="1.6315241699218750e+03" cType="1" res="2.5172645226120949e-02" rms="3.2794895768165588e-01" purity="5.5023735761642456e-01" nType="0">
            <Node pos="l" depth="3" NCoef="0" IVar="-1" Cut="0.0000000000000000e+00" cType="1" res="4.0397111326456070e-02" rms="3.4880053997039795e-01" purity="3.8923001289367676e-01" nType="-99"/>
            <Node pos="r" depth="3" NCoef="0" IVar="-1" Cut="0.0000000000000000e+00" cType="1" res="-2.1279926877468824e-03" rms="2.9735162854194641e-01" purity="7.5357192754745483e-01" nType="-99"/>
          </Node>
        </Node>
      </Node>
    </BinaryTree>
    <BinaryTree type="DecisionTree" boostWeight="1.0000000000000000e+00" itree="680">
      <Node pos="s" depth="0" NCoef="0" IVar="3" Cut="2.4134886169433594e+02" cType="1" res="1.5384732978418469e-04" rms="2.8293290734291077e-01" purity="5.0065064430236816e-01" nType="0">
        <Node pos="l" depth="1" NCoef="0" IVar="1" Cut="3.8494113832712173e-02" cType="1" res="3.2809830736368895e-03" rms="2.8154653310775757e-01" purity="3.7098366022109985e-01" nType="0">
          <Node pos="l" depth="2" NCoef="0" IVar="4" Cut="1.2304051971435547e+02" cType="1" res="8.3502605557441711e-03" rms="2.3622393608093262e-01" purity="1.2305918335914612e-01" nType="0">
            <Node pos="l" depth="3" NCoef="0" IVar="-1" Cut="0.0000000000000000e+00" cType="1" res="3.8330216193571687e-04" rms="1.8159653246402740e-01" purity="4.5608080923557281e-02" nType="-99"/>
            <Node pos="r" depth="3" NCoef="0" IVar="-1" Cut="0.0000000000000000e+00" cType="1" res="2.3913756012916565e-02" rms="3.0412241816520691e-01" purity="2.4853135645389557e-01" nType="-99"/>
          </Node>
          <Node pos="r" depth="2" NCoef="0" IVar="1" Cut="7.3314644396305084e-02" cType="1" res="-8.5748720448464155e-04" rms="3.1366884708404541e-01" purity="5.7338494062423706e-01" nType="0">
            <Node pos="l" depth="3" NCoef="0" IVar="-1" Cut="0.0000000000000000e+00" cType="1" res="-1.0534781031310558e-02" rms="3.1304645538330078e-01" purity="3.5898858308792114e-01" nType="-99"/>
            <Node pos="r" depth="3" NCoef="0" IVar="-1" Cut="0.0000000000000000e+00" cType="1" res="5.3020371124148369e-03" rms="3.1386452913284302e-01" purity="6.9794148206710815e-01" nType="-99"/>
          </Node>
        </Node>
        <Node pos="r" depth="1" NCoef="0" IVar="8" Cut="-4.0022823214530945e-01" cType="1" res="-4.4365474022924900e-03" rms="2.8489363193511963e-01" purity="6.9099181890487671e-01" nType="0">
          <Node pos="l" depth="2" NCoef="0" IVar="11" Cut="-2.1715071201324463e+00" cType="1" res="-1.4878660440444946e-02" rms="2.8384882211685181e-01" purity="6.1392283439636230e-01" nType="0">
            <Node pos="l" depth="3" NCoef="0" IVar="-1" Cut="0.0000000000000000e+00" cType="1" res="-3.0293790623545647e-02" rms="3.1305629014968872e-01" purity="3.1373646855354309e-01" nType="-99"/>
            <Node pos="r" depth="3" NCoef="0" IVar="-1" Cut="0.0000000000000000e+00" cType="1" res="-4.9590528942644596e-03" rms="2.6230221986770630e-01" purity="8.1108921766281128e-01" nType="-99"/>
          </Node>
          <Node pos="r" depth="2" NCoef="0" IVar="7" Cut="-3.4999200701713562e-01" cType="1" res="-1.8421524146106094e-05" rms="2.8521946072578430e-01" purity="7.2360026836395264e-01" nType="0">
            <Node pos="l" depth="3" NCoef="0" IVar="-1" Cut="0.0000000000000000e+00" cType="1" res="-1.1409797705709934e-02" rms="2.9422095417976379e-01" purity="6.2927204370498657e-01" nType="-99"/>
            <Node pos="r" depth="3" NCoef="0" IVar="-1" Cut="0.0000000000000000e+00" cType="1" res="4.9967910163104534e-03" rms="2.8134319186210632e-01" purity="7.6229685544967651e-01" nType="-99"/>
          </Node>
        </Node>
      </Node>
    </BinaryTree>
    <BinaryTree type="DecisionTree" boostWeight="1.0000000000000000e+00" itree="681">
      <Node pos="s" depth="0" NCoef="0" IVar="10" Cut="-2.2666592597961426e+00" cType="1" res="2.6286972570233047e-04" rms="2.8288966417312622e-01" purity="4.9930039048194885e-01" nType="0">
        <Node pos="l" depth="1" NCoef="0" IVar="-1" Cut="0.0000000000000000e+00" cType="1" res="2.6039922609925270e-02" rms="2.8489825129508972e-01" purity="2.7174320816993713e-01" nType="-99"/>
        <Node pos="r" depth="1" NCoef="0" IVar="7" Cut="1.4519874751567841e-01" cType="1" res="-3.5646421019919217e-04" rms="2.8280636668205261e-01" purity="5.0604236125946045e-01" nType="0">
          <Node pos="l" depth="2" NCoef="0" IVar="9" Cut="4.0032482147216797e-01" cType="1" res="2.7452937792986631e-03" rms="2.8505563735961914e-01" purity="5.3420585393905640e-01" nType="0">
            <Node pos="l" depth="3" NCoef="0" IVar="-1" Cut="0.0000000000000000e+00" cType="1" res="-7.3722458910197020e-04" rms="2.8611427545547485e-01" purity="5.5268317461013794e-01" nType="-99"/>
            <Node pos="r" depth="3" NCoef="0" IVar="-1" Cut="0.0000000000000000e+00" cType="1" res="1.2139977887272835e-02" rms="2.8264918923377991e-01" purity="4.9479249119758606e-01" nType="-99"/>
          </Node>
          <Node pos="r" depth="2" NCoef="0" IVar="10" Cut="1.3521907329559326e+00" cType="1" res="-4.3665170669555664e-03" rms="2.7982068061828613e-01" purity="4.6963176131248474e-01" nType="0">
            <Node pos="l" depth="3" NCoef="0" IVar="-1" Cut="0.0000000000000000e+00" cType="1" res="-7.9858768731355667e-03" rms="2.7762246131896973e-01" purity="4.8947510123252869e-01" nType="-99"/>
            <Node pos="r" depth="3" NCoef="0" IVar="-1" Cut="0.0000000000000000e+00" cType="1" res="8.5369413718581200e-03" rms="2.9128652811050415e-01" purity="3.6104518175125122e-01" nType="-99"/>
          </Node>
        </Node>
      </Node>
    </BinaryTree>
    <BinaryTree type="DecisionTree" boostWeight="1.0000000000000000e+00" itree="682">
      <Node pos="s" depth="0" NCoef="0" IVar="1" Cut="8.3599641919136047e-02" cType="1" res="1.7370552523061633e-03" rms="2.7812832593917847e-01" purity="5.0192308425903320e-01" nType="0">
        <Node pos="l" depth="1" NCoef="0" IVar="9" Cut="-1.4667106866836548e+00" cType="1" res="-2.9108040034770966e-03" rms="2.8228798508644104e-01" purity="3.2579395174980164e-01" nType="0">
          <Node pos="l" depth="2" NCoef="0" IVar="5" Cut="6.4060363769531250e+01" cType="1" res="8.0932313576340675e-03" rms="2.5183859467506409e-01" purity="1.6074095666408539e-01" nType="0">
            <Node pos="l" depth="3" NCoef="0" IVar="-1" Cut="0.0000000000000000e+00" cType="1" res="-1.0216546244919300e-02" rms="1.7976839840412140e-01" purity="4.0519326925277710e-02" nType="-99"/>
            <Node pos="r" depth="3" NCoef="0" IVar="-1" Cut="0.0000000000000000e+00" cType="1" res="1.9921263679862022e-02" rms="3.0273300409317017e-01" purity="2.7070569992065430e-01" nType="-99"/>
          </Node>
          <Node pos="r" depth="2" NCoef="0" IVar="9" Cut="-6.5394228696823120e-01" cType="1" res="-4.3588820844888687e-03" rms="2.8602221608161926e-01" purity="3.4751412272453308e-01" nType="0">
            <Node pos="l" depth="3" NCoef="0" IVar="-1" Cut="0.0000000000000000e+00" cType="1" res="-1.7225222662091255e-02" rms="2.9111450910568237e-01" purity="3.1808269023895264e-01" nType="-99"/>
            <Node pos="r" depth="3" NCoef="0" IVar="-1" Cut="0.0000000000000000e+00" cType="1" res="-1.8430477939546108e-03" rms="2.8466910123825073e-01" purity="3.5486149787902832e-01" nType="-99"/>
          </Node>
        </Node>
        <Node pos="r" depth="1" NCoef="0" IVar="5" Cut="6.7240653991699219e+01" cType="1" res="1.0068688541650772e-02" rms="2.7031186223030090e-01" purity="8.1764769554138184e-01" nType="0">
          <Node pos="l" depth="2" NCoef="0" IVar="-1" Cut="0.0000000000000000e+00" cType="1" res="1.7106398940086365e-02" rms="3.7724524736404419e-01" purity="4.5565423369407654e-01" nType="-99"/>
          <Node pos="r" depth="2" NCoef="0" IVar="8" Cut="1.3716505467891693e-01" cType="1" res="7.2204633615911007e-03" rms="2.4418932199478149e-01" purity="8.8764643669128418e-01" nType="0">
            <Node pos="l" depth="3" NCoef="0" IVar="-1" Cut="0.0000000000000000e+00" cType="1" res="1.8134079873561859e-02" rms="2.3934833705425262e-01" purity="8.9527857303619385e-01" nType="-99"/>
            <Node pos="r" depth="3" NCoef="0" IVar="-1" Cut="0.0000000000000000e+00" cType="1" res="6.6756352316588163e-04" rms="2.5088399648666382e-01" purity="8.7658762931823730e-01" nType="-99"/>
          </Node>
        </Node>
      </Node>
    </BinaryTree>
    <BinaryTree type="DecisionTree" boostWeight="1.0000000000000000e+00" itree="683">
      <Node pos="s" depth="0" NCoef="0" IVar="9" Cut="1.3328196108341217e-01" cType="1" res="7.1114604361355305e-04" rms="2.8374963998794556e-01" purity="4.9446725845336914e-01" nType="0">
        <Node pos="l" depth="1" NCoef="0" IVar="10" Cut="-4.0026250481605530e-01" cType="1" res="5.1966435275971889e-03" rms="2.8586345911026001e-01" purity="5.0731372833251953e-01" nType="0">
          <Node pos="l" depth="2" NCoef="0" IVar="2" Cut="4.3541787719726562e+02" cType="1" res="1.0246227495372295e-02" rms="2.9062506556510925e-01" purity="4.7730734944343567e-01" nType="0">
            <Node pos="l" depth="3" NCoef="0" IVar="-1" Cut="0.0000000000000000e+00" cType="1" res="2.0085114985704422e-02" rms="2.9146146774291992e-01" purity="4.5218810439109802e-01" nType="-99"/>
            <Node pos="r" depth="3" NCoef="0" IVar="-1" Cut="0.0000000000000000e+00" cType="1" res="-7.7447122894227505e-03" rms="2.8781861066818237e-01" purity="5.4056274890899658e-01" nType="-99"/>
          </Node>
          <Node pos="r" depth="2" NCoef="0" IVar="0" Cut="1.6186369628906250e+03" cType="1" res="1.7007739515975118e-03" rms="2.8246709704399109e-01" purity="5.2808743715286255e-01" nType="0">
            <Node pos="l" depth="3" NCoef="0" IVar="-1" Cut="0.0000000000000000e+00" cType="1" res="-4.1457917541265488e-03" rms="3.0166640877723694e-01" purity="3.1669625639915466e-01" nType="-99"/>
            <Node pos="r" depth="3" NCoef="0" IVar="-1" Cut="0.0000000000000000e+00" cType="1" res="1.4603062532842159e-02" rms="2.5093677639961243e-01" purity="8.4295570850372314e-01" nType="-99"/>
          </Node>
        </Node>
        <Node pos="r" depth="1" NCoef="0" IVar="1" Cut="8.3668172359466553e-02" cType="1" res="-4.6327849850058556e-03" rms="2.8111714124679565e-01" purity="4.7916218638420105e-01" nType="0">
          <Node pos="l" depth="2" NCoef="0" IVar="1" Cut="4.7810312360525131e-02" cType="1" res="1.2810040789190680e-04" rms="2.7922472357749939e-01" purity="3.1708821654319763e-01" nType="0">
            <Node pos="l" depth="3" NCoef="0" IVar="-1" Cut="0.0000000000000000e+00" cType="1" res="-8.3783650770783424e-03" rms="2.5965097546577454e-01" purity="2.1237598359584808e-01" nType="-99"/>
            <Node pos="r" depth="3" NCoef="0" IVar="-1" Cut="0.0000000000000000e+00" cType="1" res="1.3433635234832764e-02" rms="3.2166290283203125e-01" purity="5.7338148355484009e-01" nType="-99"/>
          </Node>
          <Node pos="r" depth="2" NCoef="0" IVar="0" Cut="1.6292370605468750e+03" cType="1" res="-1.3702291995286942e-02" rms="2.8446698188781738e-01" purity="7.8791373968124390e-01" nType="0">
            <Node pos="l" depth="3" NCoef="0" IVar="-1" Cut="0.0000000000000000e+00" cType="1" res="-1.8964214250445366e-02" rms="3.6228775978088379e-01" purity="6.0402768850326538e-01" nType="-99"/>
            <Node pos="r" depth="3" NCoef="0" IVar="-1" Cut="0.0000000000000000e+00" cType="1" res="-1.2854171916842461e-02" rms="1.9432176649570465e-01" purity="9.4498509168624878e-01" nType="-99"/>
          </Node>
        </Node>
      </Node>
    </BinaryTree>
    <BinaryTree type="DecisionTree" boostWeight="1.0000000000000000e+00" itree="684">
      <Node pos="s" depth="0" NCoef="0" IVar="9" Cut="3.9994087815284729e-01" cType="1" res="-5.8735680067911744e-04" rms="2.8301689028739929e-01" purity="4.9958348274230957e-01" nType="0">
        <Node pos="l" depth="1" NCoef="0" IVar="9" Cut="-2.0959506928920746e-01" cType="1" res="2.9427646659314632e-03" rms="2.8524443507194519e-01" purity="5.2663034200668335e-01" nType="0">
          <Node pos="l" depth="2" NCoef="0" IVar="11" Cut="3.1397137045860291e-01" cType="1" res="-1.3229646719992161e-04" rms="2.8548380732536316e-01" purity="4.7462058067321777e-01" nType="0">
            <Node pos="l" depth="3" NCoef="0" IVar="-1" Cut="0.0000000000000000e+00" cType="1" res="-3.0407346785068512e-03" rms="2.8765779733657837e-01" purity="4.1041472554206848e-01" nType="-99"/>
            <Node pos="r" depth="3" NCoef="0" IVar="-1" Cut="0.0000000000000000e+00" cType="1" res="1.1587207205593586e-02" rms="2.7626606822013855e-01" purity="7.3526161909103394e-01" nType="-99"/>
          </Node>
          <Node pos="r" depth="2" NCoef="0" IVar="11" Cut="3.1223052740097046e-01" cType="1" res="8.8245272636413574e-03" rms="2.8469353914260864e-01" purity="6.2611091136932373e-01" nType="0">
            <Node pos="l" depth="3" NCoef="0" IVar="-1" Cut="0.0000000000000000e+00" cType="1" res="1.6477435827255249e-02" rms="2.9069015383720398e-01" purity="5.7314252853393555e-01" nType="-99"/>
            <Node pos="r" depth="3" NCoef="0" IVar="-1" Cut="0.0000000000000000e+00" cType="1" res="-1.1990069411695004e-02" rms="2.6344028115272522e-01" purity="7.9915988445281982e-01" nType="-99"/>
          </Node>
        </Node>
        <Node pos="r" depth="1" NCoef="0" IVar="10" Cut="9.3322545289993286e-01" cType="1" res="-7.1593527682125568e-03" rms="2.7870336174964905e-01" purity="4.4923055171966553e-01" nType="0">
          <Node pos="l" depth="2" NCoef="0" IVar="3" Cut="2.3986132812500000e+02" cType="1" res="-3.5791937261819839e-03" rms="2.7996844053268433e-01" purity="4.8653933405876160e-01" nType="0">
            <Node pos="l" depth="3" NCoef="0" IVar="-1" Cut="0.0000000000000000e+00" cType="1" res="-1.2782140634953976e-02" rms="2.7610248327255249e-01" purity="3.5074070096015930e-01" nType="-99"/>
            <Node pos="r" depth="3" NCoef="0" IVar="-1" Cut="0.0000000000000000e+00" cType="1" res="7.2128176689147949e-03" rms="2.8525993227958679e-01" purity="6.8554979562759399e-01" nType="-99"/>
          </Node>
          <Node pos="r" depth="2" NCoef="0" IVar="8" Cut="1.3482911884784698e-01" cType="1" res="-1.6633965075016022e-02" rms="2.7510273456573486e-01" purity="3.5049581527709961e-01" nType="0">
            <Node pos="l" depth="3" NCoef="0" IVar="-1" Cut="0.0000000000000000e+00" cType="1" res="-3.5538360476493835e-02" rms="2.6830568909645081e-01" purity="3.5485059022903442e-01" nType="-99"/>
            <Node pos="r" depth="3" NCoef="0" IVar="-1" Cut="0.0000000000000000e+00" cType="1" res="-8.9893816038966179e-03" rms="2.7968016266822815e-01" purity="3.4726125001907349e-01" nType="-99"/>
          </Node>
        </Node>
      </Node>
    </BinaryTree>
    <BinaryTree type="DecisionTree" boostWeight="1.0000000000000000e+00" itree="685">
      <Node pos="s" depth="0" NCoef="0" IVar="3" Cut="4.4361413574218750e+02" cType="1" res="5.7950953487306833e-04" rms="2.8223615884780884e-01" purity="4.9822583794593811e-01" nType="0">
        <Node pos="l" depth="1" NCoef="0" IVar="7" Cut="-1.4477576017379761e+00" cType="1" res="1.4574483502656221e-03" rms="2.8207287192344666e-01" purity="4.8828637599945068e-01" nType="0">
          <Node pos="l" depth="2" NCoef="0" IVar="9" Cut="-1.3365790247917175e-01" cType="1" res="-1.0953915305435658e-02" rms="1.6547322273254395e-01" purity="9.5152676105499268e-02" nType="0">
            <Node pos="l" depth="3" NCoef="0" IVar="-1" Cut="0.0000000000000000e+00" cType="1" res="-7.7425884082913399e-03" rms="1.8622016906738281e-01" purity="1.1378934979438782e-01" nType="-99"/>
            <Node pos="r" depth="3" NCoef="0" IVar="-1" Cut="0.0000000000000000e+00" cType="1" res="-5.4242853075265884e-02" rms="1.3985830545425415e-01" purity="7.5473040342330933e-02" nType="-99"/>
          </Node>
          <Node pos="r" depth="2" NCoef="0" IVar="10" Cut="1.4665515422821045e+00" cType="1" res="2.2592241875827312e-03" rms="2.8796803951263428e-01" purity="5.1368290185928345e-01" nType="0">
            <Node pos="l" depth="3" NCoef="0" IVar="-1" Cut="0.0000000000000000e+00" cType="1" res="4.0200590156018734e-03" rms="2.8824120759963989e-01" purity="5.3692728281021118e-01" nType="-99"/>
            <Node pos="r" depth="3" NCoef="0" IVar="-1" Cut="0.0000000000000000e+00" cType="1" res="-7.5343395583331585e-03" rms="2.8578484058380127e-01" purity="3.4146419167518616e-01" nType="-99"/>
          </Node>
        </Node>
        <Node pos="r" depth="1" NCoef="0" IVar="-1" Cut="0.0000000000000000e+00" cType="1" res="-2.4932980537414551e-02" rms="2.8534376621246338e-01" purity="7.3948758840560913e-01" nType="-99"/>
      </Node>
    </BinaryTree>
    <BinaryTree type="DecisionTree" boostWeight="1.0000000000000000e+00" itree="686">
      <Node pos="s" depth="0" NCoef="0" IVar="11" Cut="1.6951103210449219e+00" cType="1" res="-1.1204328620806336e-03" rms="2.8539276123046875e-01" purity="4.9740985035896301e-01" nType="0">
        <Node pos="l" depth="1" NCoef="0" IVar="8" Cut="1.3321650028228760e-01" cType="1" res="-1.9976423936896026e-04" rms="2.8481468558311462e-01" purity="4.9309512972831726e-01" nType="0">
          <Node pos="l" depth="2" NCoef="0" IVar="2" Cut="4.5778692626953125e+02" cType="1" res="-3.1281351111829281e-03" rms="2.8397038578987122e-01" purity="5.0303155183792114e-01" nType="0">
            <Node pos="l" depth="3" NCoef="0" IVar="-1" Cut="0.0000000000000000e+00" cType="1" res="2.0879262592643499e-04" rms="2.8051233291625977e-01" purity="4.7931319475173950e-01" nType="-99"/>
            <Node pos="r" depth="3" NCoef="0" IVar="-1" Cut="0.0000000000000000e+00" cType="1" res="-1.5869306400418282e-02" rms="2.9406440258026123e-01" purity="5.7556736469268799e-01" nType="-99"/>
          </Node>
          <Node pos="r" depth="2" NCoef="0" IVar="6" Cut="5.8303833007812500e+01" cType="1" res="3.4968622494488955e-03" rms="2.8583410382270813e-01" purity="4.8055180907249451e-01" nType="0">
            <Node pos="l" depth="3" NCoef="0" IVar="-1" Cut="0.0000000000000000e+00" cType="1" res="1.0168107226490974e-02" rms="3.0182766914367676e-01" purity="2.5707328319549561e-01" nType="-99"/>
            <Node pos="r" depth="3" NCoef="0" IVar="-1" Cut="0.0000000000000000e+00" cType="1" res="-6.6592805087566376e-03" rms="2.5996863842010498e-01" purity="8.1353205442428589e-01" nType="-99"/>
          </Node>
        </Node>
        <Node pos="r" depth="1" NCoef="0" IVar="-1" Cut="0.0000000000000000e+00" cType="1" res="-2.4918705224990845e-02" rms="2.9792818427085876e-01" purity="5.9961140155792236e-01" nType="-99"/>
      </Node>
    </BinaryTree>
    <BinaryTree type="DecisionTree" boostWeight="1.0000000000000000e+00" itree="687">
      <Node pos="s" depth="0" NCoef="0" IVar="7" Cut="1.4516815543174744e-01" cType="1" res="1.8242476508021355e-03" rms="2.8495725989341736e-01" purity="5.0437158346176147e-01" nType="0">
        <Node pos="l" depth="1" NCoef="0" IVar="3" Cut="3.1991824340820312e+02" cType="1" res="-1.7967011081054807e-03" rms="2.8879466652870178e-01" purity="5.2171218395233154e-01" nType="0">
          <Node pos="l" depth="2" NCoef="0" IVar="7" Cut="-5.5008178949356079e-01" cType="1" res="-4.7724428586661816e-03" rms="2.8888934850692749e-01" purity="4.6737313270568848e-01" nType="0">
            <Node pos="l" depth="3" NCoef="0" IVar="-1" Cut="0.0000000000000000e+00" cType="1" res="2.4049887433648109e-03" rms="2.7269351482391357e-01" purity="3.3074334263801575e-01" nType="-99"/>
            <Node pos="r" depth="3" NCoef="0" IVar="-1" Cut="0.0000000000000000e+00" cType="1" res="-1.1990376748144627e-02" rms="3.0337625741958618e-01" purity="5.9748184680938721e-01" nType="-99"/>
          </Node>
          <Node pos="r" depth="2" NCoef="0" IVar="4" Cut="2.1785891723632812e+02" cType="1" res="1.1206115595996380e-02" rms="2.8802013397216797e-01" purity="7.5915229320526123e-01" nType="0">
            <Node pos="l" depth="3" NCoef="0" IVar="-1" Cut="0.0000000000000000e+00" cType="1" res="3.8526002317667007e-02" rms="3.4060156345367432e-01" purity="6.1676508188247681e-01" nType="-99"/>
            <Node pos="r" depth="3" NCoef="0" IVar="-1" Cut="0.0000000000000000e+00" cType="1" res="-1.3037491589784622e-02" rms="2.4576975405216217e-01" purity="8.5233289003372192e-01" nType="-99"/>
          </Node>
        </Node>
        <Node pos="r" depth="1" NCoef="0" IVar="0" Cut="1.1148542480468750e+03" cType="1" res="6.5286890603601933e-03" rms="2.7982306480407715e-01" purity="4.8184219002723694e-01" nType="0">
          <Node pos="l" depth="2" NCoef="0" IVar="8" Cut="4.0062156319618225e-01" cType="1" res="-3.4343723673373461e-03" rms="1.8571592867374420e-01" purity="4.1916862130165100e-02" nType="0">
            <Node pos="l" depth="3" NCoef="0" IVar="-1" Cut="0.0000000000000000e+00" cType="1" res="2.4665766395628452e-03" rms="1.9835279881954193e-01" purity="4.9157012253999710e-02" nType="-99"/>
            <Node pos="r" depth="3" NCoef="0" IVar="-1" Cut="0.0000000000000000e+00" cType="1" res="-2.6856660842895508e-02" rms="1.6702684760093689e-01" purity="3.2173566520214081e-02" nType="-99"/>
          </Node>
          <Node pos="r" depth="2" NCoef="0" IVar="3" Cut="2.0422322082519531e+02" cType="1" res="8.8277319446206093e-03" rms="2.9729166626930237e-01" purity="5.8335793018341064e-01" nType="0">
            <Node pos="l" depth="3" NCoef="0" IVar="-1" Cut="0.0000000000000000e+00" cType="1" res="1.7768573015928268e-02" rms="3.0670422315597534e-01" purity="4.1968229413032532e-01" nType="-99"/>
            <Node pos="r" depth="3" NCoef="0" IVar="-1" Cut="0.0000000000000000e+00" cType="1" res="5.2852472290396690e-03" rms="2.9261988401412964e-01" purity="6.6117471456527710e-01" nType="-99"/>
          </Node>
        </Node>
      </Node>
    </BinaryTree>
    <BinaryTree type="DecisionTree" boostWeight="1.0000000000000000e+00" itree="688">
      <Node pos="s" depth="0" NCoef="0" IVar="10" Cut="9.3313789367675781e-01" cType="1" res="-2.2018751769792289e-04" rms="2.8086104989051819e-01" purity="5.0079429149627686e-01" nType="0">
        <Node pos="l" depth="1" NCoef="0" IVar="7" Cut="6.6666889190673828e-01" cType="1" res="2.4729829747229815e-03" rms="2.8041020035743713e-01" purity="5.2744132280349731e-01" nType="0">
          <Node pos="l" depth="2" NCoef="0" IVar="10" Cut="-1.9111479520797729e+00" cType="1" res="4.7022509388625622e-03" rms="2.8300511837005615e-01" purity="5.7529920339584351e-01" nType="0">
            <Node pos="l" depth="3" NCoef="0" IVar="-1" Cut="0.0000000000000000e+00" cType="1" res="2.0655851811170578e-02" rms="3.0648764967918396e-01" purity="3.3809643983840942e-01" nType="-99"/>
            <Node pos="r" depth="3" NCoef="0" IVar="-1" Cut="0.0000000000000000e+00" cType="1" res="4.2483936995267868e-03" rms="2.8101816773414612e-01" purity="5.9419739246368408e-01" nType="-99"/>
          </Node>
          <Node pos="r" depth="2" NCoef="0" IVar="6" Cut="6.4609352111816406e+01" cType="1" res="-6.4422287978231907e-03" rms="2.6959899067878723e-01" purity="3.3604994416236877e-01" nType="0">
            <Node pos="l" depth="3" NCoef="0" IVar="-1" Cut="0.0000000000000000e+00" cType="1" res="2.3495466448366642e-03" rms="2.6049649715423584e-01" purity="1.7697817087173462e-01" nType="-99"/>
            <Node pos="r" depth="3" NCoef="0" IVar="-1" Cut="0.0000000000000000e+00" cType="1" res="-3.2528720796108246e-02" rms="2.9007709026336670e-01" purity="7.3275399208068848e-01" nType="-99"/>
          </Node>
        </Node>
        <Node pos="r" depth="1" NCoef="0" IVar="10" Cut="1.3775843381881714e+00" cType="1" res="-9.7045078873634338e-03" rms="2.8223854303359985e-01" purity="4.0695336461067200e-01" nType="0">
          <Node pos="l" depth="2" NCoef="0" IVar="10" Cut="1.2082841396331787e+00" cType="1" res="-1.8142944201827049e-02" rms="2.7916762232780457e-01" purity="4.7875750064849854e-01" nType="0">
            <Node pos="l" depth="3" NCoef="0" IVar="-1" Cut="0.0000000000000000e+00" cType="1" res="-9.5401713624596596e-03" rms="2.8909018635749817e-01" purity="4.9424394965171814e-01" nType="-99"/>
            <Node pos="r" depth="3" NCoef="0" IVar="-1" Cut="0.0000000000000000e+00" cType="1" res="-4.5201174914836884e-02" rms="2.5739583373069763e-01" purity="4.4830009341239929e-01" nType="-99"/>
          </Node>
          <Node pos="r" depth="2" NCoef="0" IVar="7" Cut="1.7453747987747192e-01" cType="1" res="-3.5578540991991758e-03" rms="2.8429695963859558e-01" purity="3.5465034842491150e-01" nType="0">
            <Node pos="l" depth="3" NCoef="0" IVar="-1" Cut="0.0000000000000000e+00" cType="1" res="8.4157586097717285e-03" rms="2.9067742824554443e-01" purity="3.7496015429496765e-01" nType="-99"/>
            <Node pos="r" depth="3" NCoef="0" IVar="-1" Cut="0.0000000000000000e+00" cType="1" res="-1.8423980101943016e-02" rms="2.7682462334632874e-01" purity="3.3284950256347656e-01" nType="-99"/>
          </Node>
        </Node>
      </Node>
    </BinaryTree>
    <BinaryTree type="DecisionTree" boostWeight="1.0000000000000000e+00" itree="689">
      <Node pos="s" depth="0" NCoef="0" IVar="11" Cut="-2.4476339817047119e+00" cType="1" res="2.1935350378043950e-04" rms="2.8340607881546021e-01" purity="4.9894100427627563e-01" nType="0">
        <Node pos="l" depth="1" NCoef="0" IVar="9" Cut="-4.0000414848327637e-01" cType="1" res="-4.3726474978029728e-03" rms="2.8919351100921631e-01" purity="2.2334852814674377e-01" nType="0">
          <Node pos="l" depth="2" NCoef="0" IVar="1" Cut="7.4873715639114380e-02" cType="1" res="5.4488424211740494e-03" rms="2.8560751676559448e-01" purity="2.1232387423515320e-01" nType="0">
            <Node pos="l" depth="3" NCoef="0" IVar="-1" Cut="0.0000000000000000e+00" cType="1" res="-3.0744499526917934e-03" rms="2.5469225645065308e-01" purity="1.3099348545074463e-01" nType="-99"/>
            <Node pos="r" depth="3" NCoef="0" IVar="-1" Cut="0.0000000000000000e+00" cType="1" res="2.2318653762340546e-02" rms="3.7452673912048340e-01" purity="5.0253003835678101e-01" nType="-99"/>
          </Node>
          <Node pos="r" depth="2" NCoef="0" IVar="8" Cut="-1.1999471187591553e+00" cType="1" res="-1.0268452577292919e-02" rms="2.9116588830947876e-01" purity="2.2996659576892853e-01" nType="0">
            <Node pos="l" depth="3" NCoef="0" IVar="-1" Cut="0.0000000000000000e+00" cType="1" res="2.2185001522302628e-02" rms="2.3544140160083771e-01" purity="8.8644757866859436e-02" nType="-99"/>
            <Node pos="r" depth="3" NCoef="0" IVar="-1" Cut="0.0000000000000000e+00" cType="1" res="-1.4550335705280304e-02" rms="2.9890409111976624e-01" purity="2.5232693552970886e-01" nType="-99"/>
          </Node>
        </Node>
        <Node pos="r" depth="1" NCoef="0" IVar="1" Cut="1.0449315607547760e-01" cType="1" res="4.4718612916767597e-03" rms="2.7787137031555176e-01" purity="7.5415849685668945e-01" nType="0">
          <Node pos="l" depth="2" NCoef="0" IVar="0" Cut="1.3583641357421875e+03" cType="1" res="9.6929930150508881e-03" rms="3.0846151709556580e-01" purity="6.4494782686233521e-01" nType="0">
            <Node pos="l" depth="3" NCoef="0" IVar="-1" Cut="0.0000000000000000e+00" cType="1" res="2.1782293915748596e-02" rms="3.4279507398605347e-01" purity="2.7536606788635254e-01" nType="-99"/>
            <Node pos="r" depth="3" NCoef="0" IVar="-1" Cut="0.0000000000000000e+00" cType="1" res="4.5070969499647617e-03" rms="2.9607743024826050e-01" purity="7.6667636632919312e-01" nType="-99"/>
          </Node>
          <Node pos="r" depth="2" NCoef="0" IVar="4" Cut="1.7685758972167969e+02" cType="1" res="-3.5931442398577929e-03" rms="2.2226078808307648e-01" purity="9.2285460233688354e-01" nType="0">
            <Node pos="l" depth="3" NCoef="0" IVar="-1" Cut="0.0000000000000000e+00" cType="1" res="-2.0966807380318642e-02" rms="2.9221865534782410e-01" purity="8.4892827272415161e-01" nType="-99"/>
            <Node pos="r" depth="3" NCoef="0" IVar="-1" Cut="0.0000000000000000e+00" cType="1" res="1.6291314736008644e-02" rms="1.6358245909214020e-01" purity="9.6897333860397339e-01" nType="-99"/>
          </Node>
        </Node>
      </Node>
    </BinaryTree>
    <BinaryTree type="DecisionTree" boostWeight="1.0000000000000000e+00" itree="690">
      <Node pos="s" depth="0" NCoef="0" IVar="10" Cut="-1.3346536457538605e-01" cType="1" res="7.0765713462606072e-04" rms="2.8273788094520569e-01" purity="5.0097918510437012e-01" nType="0">
        <Node pos="l" depth="1" NCoef="0" IVar="10" Cut="-2.1651024818420410e+00" cType="1" res="4.8655238933861256e-03" rms="2.8428217768669128e-01" purity="4.9872994422912598e-01" nType="0">
          <Node pos="l" depth="2" NCoef="0" IVar="-1" Cut="0.0000000000000000e+00" cType="1" res="-1.6332346946001053e-02" rms="2.7630510926246643e-01" purity="2.3555317521095276e-01" nType="-99"/>
          <Node pos="r" depth="2" NCoef="0" IVar="9" Cut="-1.3333868980407715e-01" cType="1" res="6.3124978914856911e-03" rms="2.8487354516983032e-01" purity="5.2017360925674438e-01" nType="0">
            <Node pos="l" depth="3" NCoef="0" IVar="-1" Cut="0.0000000000000000e+00" cType="1" res="6.5993983298540115e-04" rms="2.9119750857353210e-01" purity="4.8457047343254089e-01" nType="-99"/>
            <Node pos="r" depth="3" NCoef="0" IVar="-1" Cut="0.0000000000000000e+00" cType="1" res="1.4892036095261574e-02" rms="2.7850407361984253e-01" purity="5.5462902784347534e-01" nType="-99"/>
          </Node>
        </Node>
        <Node pos="r" depth="1" NCoef="0" IVar="1" Cut="7.6686397194862366e-02" cType="1" res="-2.7547830250114202e-03" rms="2.8139853477478027e-01" purity="5.0285226106643677e-01" nType="0">
          <Node pos="l" depth="2" NCoef="0" IVar="5" Cut="8.7625740051269531e+01" cType="1" res="2.3726178915239871e-04" rms="2.8362852334976196e-01" purity="3.2030811905860901e-01" nType="0">
            <Node pos="l" depth="3" NCoef="0" IVar="-1" Cut="0.0000000000000000e+00" cType="1" res="5.2001206204295158e-03" rms="2.7334582805633545e-01" purity="1.7622697353363037e-01" nType="-99"/>
            <Node pos="r" depth="3" NCoef="0" IVar="-1" Cut="0.0000000000000000e+00" cType="1" res="-8.5026444867253304e-03" rms="3.0672785639762878e-01" purity="6.6615062952041626e-01" nType="-99"/>
          </Node>
          <Node pos="r" depth="2" NCoef="0" IVar="5" Cut="1.0329048156738281e+02" cType="1" res="-7.4634272605180740e-03" rms="2.7778765559196472e-01" purity="7.9012584686279297e-01" nType="0">
            <Node pos="l" depth="3" NCoef="0" IVar="-1" Cut="0.0000000000000000e+00" cType="1" res="-1.5105982311069965e-02" rms="3.4041875600814819e-01" purity="6.2605935335159302e-01" nType="-99"/>
            <Node pos="r" depth="3" NCoef="0" IVar="-1" Cut="0.0000000000000000e+00" cType="1" res="8.2900831475853920e-03" rms="1.9646188616752625e-01" purity="9.5258474349975586e-01" nType="-99"/>
          </Node>
        </Node>
      </Node>
    </BinaryTree>
    <BinaryTree type="DecisionTree" boostWeight="1.0000000000000000e+00" itree="691">
      <Node pos="s" depth="0" NCoef="0" IVar="7" Cut="9.6160274744033813e-01" cType="1" res="1.7273797129746526e-04" rms="2.8257733583450317e-01" purity="4.9898689985275269e-01" nType="0">
        <Node pos="l" depth="1" NCoef="0" IVar="7" Cut="6.1170041561126709e-01" cType="1" res="-1.7780864145606756e-03" rms="2.8901827335357666e-01" purity="5.4414325952529907e-01" nType="0">
          <Node pos="l" depth="2" NCoef="0" IVar="10" Cut="3.9971882104873657e-01" cType="1" res="-4.1329953819513321e-04" rms="2.8717070817947388e-01" purity="5.4962974786758423e-01" nType="0">
            <Node pos="l" depth="3" NCoef="0" IVar="-1" Cut="0.0000000000000000e+00" cType="1" res="3.2585018780082464e-03" rms="2.8737944364547729e-01" purity="5.6076329946517944e-01" nType="-99"/>
            <Node pos="r" depth="3" NCoef="0" IVar="-1" Cut="0.0000000000000000e+00" cType="1" res="-7.4015310965478420e-03" rms="2.8668802976608276e-01" purity="5.2896398305892944e-01" nType="-99"/>
          </Node>
          <Node pos="r" depth="2" NCoef="0" IVar="10" Cut="9.3271726369857788e-01" cType="1" res="-1.2196172028779984e-02" rms="3.0254754424095154e-01" purity="5.0226211547851562e-01" nType="0">
            <Node pos="l" depth="3" NCoef="0" IVar="-1" Cut="0.0000000000000000e+00" cType="1" res="-2.3734221234917641e-02" rms="2.8687673807144165e-01" purity="5.1141774654388428e-01" nType="-99"/>
            <Node pos="r" depth="3" NCoef="0" IVar="-1" Cut="0.0000000000000000e+00" cType="1" res="1.3334615156054497e-02" rms="3.4083193540573120e-01" purity="4.7693052887916565e-01" nType="-99"/>
          </Node>
        </Node>
        <Node pos="r" depth="1" NCoef="0" IVar="7" Cut="1.4864492416381836e+00" cType="1" res="1.1395600624382496e-02" rms="2.4191364645957947e-01" purity="2.3920783400535583e-01" nType="0">
          <Node pos="l" depth="2" NCoef="0" IVar="11" Cut="-1.6198246479034424e+00" cType="1" res="2.2759625688195229e-02" rms="2.8112426400184631e-01" purity="3.3480593562126160e-01" nType="0">
            <Node pos="l" depth="3" NCoef="0" IVar="-1" Cut="0.0000000000000000e+00" cType="1" res="1.4262712560594082e-02" rms="2.6063048839569092e-01" purity="1.3632601499557495e-01" nType="-99"/>
            <Node pos="r" depth="3" NCoef="0" IVar="-1" Cut="0.0000000000000000e+00" cType="1" res="4.0340106934309006e-02" rms="3.0794510245323181e-01" purity="6.3063156604766846e-01" nType="-99"/>
          </Node>
          <Node pos="r" depth="2" NCoef="0" IVar="10" Cut="3.9977851510047913e-01" cType="1" res="-4.4111395254731178e-03" rms="1.7194861173629761e-01" purity="1.0623607039451599e-01" nType="0">
            <Node pos="l" depth="3" NCoef="0" IVar="-1" Cut="0.0000000000000000e+00" cType="1" res="6.4393607899546623e-03" rms="1.8504148721694946e-01" purity="1.3001051545143127e-01" nType="-99"/>
            <Node pos="r" depth="3" NCoef="0" IVar="-1" Cut="0.0000000000000000e+00" cType="1" res="-3.4518349915742874e-02" rms="1.5460956096649170e-01" purity="7.8051716089248657e-02" nType="-99"/>
          </Node>
        </Node>
      </Node>
    </BinaryTree>
    <BinaryTree type="DecisionTree" boostWeight="1.0000000000000000e+00" itree="692">
      <Node pos="s" depth="0" NCoef="0" IVar="2" Cut="4.5449853515625000e+02" cType="1" res="-1.4921961119398475e-03" rms="2.8028175234794617e-01" purity="5.0045412778854370e-01" nType="0">
        <Node pos="l" depth="1" NCoef="0" IVar="4" Cut="1.8026464843750000e+02" cType="1" res="-4.1181533597409725e-03" rms="2.7758008241653442e-01" purity="4.6629783511161804e-01" nType="0">
          <Node pos="l" depth="2" NCoef="0" IVar="7" Cut="4.0433675050735474e-01" cType="1" res="-1.6254719812422991e-03" rms="2.8230610489845276e-01" purity="3.3446934819221497e-01" nType="0">
            <Node pos="l" depth="3" NCoef="0" IVar="-1" Cut="0.0000000000000000e+00" cType="1" res="-5.6730168871581554e-03" rms="2.9093205928802490e-01" purity="3.6779889464378357e-01" nType="-99"/>
            <Node pos="r" depth="3" NCoef="0" IVar="-1" Cut="0.0000000000000000e+00" cType="1" res="5.9352009557187557e-03" rms="2.6609474420547485e-01" purity="2.7493956685066223e-01" nType="-99"/>
          </Node>
          <Node pos="r" depth="2" NCoef="0" IVar="0" Cut="1.5010710449218750e+03" cType="1" res="-9.9482592195272446e-03" rms="2.6610791683197021e-01" purity="7.7463001012802124e-01" nType="0">
            <Node pos="l" depth="3" NCoef="0" IVar="-1" Cut="0.0000000000000000e+00" cType="1" res="-2.2999316453933716e-02" rms="3.4964638948440552e-01" purity="4.2455762624740601e-01" nType="-99"/>
            <Node pos="r" depth="3" NCoef="0" IVar="-1" Cut="0.0000000000000000e+00" cType="1" res="-7.3338048532605171e-03" rms="2.3556771874427795e-01" purity="8.7790971994400024e-01" nType="-99"/>
          </Node>
        </Node>
        <Node pos="r" depth="1" NCoef="0" IVar="10" Cut="-1.4667057991027832e+00" cType="1" res="5.9058838523924351e-03" rms="2.8762787580490112e-01" purity="5.9668231010437012e-01" nType="0">
          <Node pos="l" depth="2" NCoef="0" IVar="-1" Cut="0.0000000000000000e+00" cType="1" res="3.0669776722788811e-02" rms="3.2140967249870300e-01" purity="4.9568581581115723e-01" nType="-99"/>
          <Node pos="r" depth="2" NCoef="0" IVar="8" Cut="9.3312710523605347e-01" cType="1" res="3.2938220538198948e-03" rms="2.8332000970840454e-01" purity="6.0843473672866821e-01" nType="0">
            <Node pos="l" depth="3" NCoef="0" IVar="-1" Cut="0.0000000000000000e+00" cType="1" res="7.5851255096495152e-03" rms="2.8709524869918823e-01" purity="6.5149712562561035e-01" nType="-99"/>
            <Node pos="r" depth="3" NCoef="0" IVar="-1" Cut="0.0000000000000000e+00" cType="1" res="-2.0029729232192039e-02" rms="2.5914216041564941e-01" purity="3.5430231690406799e-01" nType="-99"/>
          </Node>
        </Node>
      </Node>
    </BinaryTree>
    <BinaryTree type="DecisionTree" boostWeight="1.0000000000000000e+00" itree="693">
      <Node pos="s" depth="0" NCoef="0" IVar="9" Cut="1.9999849796295166e+00" cType="1" res="1.2244707904756069e-03" rms="2.8217723965644836e-01" purity="4.9928277730941772e-01" nType="0">
        <Node pos="l" depth="1" NCoef="0" IVar="4" Cut="1.4233544921875000e+02" cType="1" res="1.9790259830188006e-04" rms="2.8568348288536072e-01" purity="5.1320248842239380e-01" nType="0">
          <Node pos="l" depth="2" NCoef="0" IVar="1" Cut="8.2005798816680908e-02" cType="1" res="4.4501521624624729e-03" rms="2.7763476967811584e-01" purity="2.3311431705951691e-01" nType="0">
            <Node pos="l" depth="3" NCoef="0" IVar="-1" Cut="0.0000000000000000e+00" cType="1" res="-2.1210897248238325e-03" rms="2.5193107128143311e-01" purity="1.4140686392784119e-01" nType="-99"/>
            <Node pos="r" depth="3" NCoef="0" IVar="-1" Cut="0.0000000000000000e+00" cType="1" res="1.9019218161702156e-02" rms="3.5310286283493042e-01" purity="5.5752527713775635e-01" nType="-99"/>
          </Node>
          <Node pos="r" depth="2" NCoef="0" IVar="1" Cut="4.0922656655311584e-02" cType="1" res="-2.8459781315177679e-03" rms="2.9127031564712524e-01" purity="7.1369761228561401e-01" nType="0">
            <Node pos="l" depth="3" NCoef="0" IVar="-1" Cut="0.0000000000000000e+00" cType="1" res="5.3652874194085598e-03" rms="3.2223552465438843e-01" purity="4.0350517630577087e-01" nType="-99"/>
            <Node pos="r" depth="3" NCoef="0" IVar="-1" Cut="0.0000000000000000e+00" cType="1" res="-7.8089456073939800e-03" rms="2.7879953384399414e-01" purity="8.2914215326309204e-01" nType="-99"/>
          </Node>
        </Node>
        <Node pos="r" depth="1" NCoef="0" IVar="-1" Cut="0.0000000000000000e+00" cType="1" res="6.0710906982421875e-02" rms="1.5469646453857422e-01" purity="1.1572428792715073e-01" nType="-99"/>
      </Node>
    </BinaryTree>
    <BinaryTree type="DecisionTree" boostWeight="1.0000000000000000e+00" itree="694">
      <Node pos="s" depth="0" NCoef="0" IVar="10" Cut="-9.3337398767471313e-01" cType="1" res="-1.4167751651257277e-03" rms="2.8666144609451294e-01" purity="5.0152260065078735e-01" nType="0">
        <Node pos="l" depth="1" NCoef="0" IVar="1" Cut="1.0450472682714462e-01" cType="1" res="-1.1856181547045708e-02" rms="2.7596402168273926e-01" purity="4.1107487678527832e-01" nType="0">
          <Node pos="l" depth="2" NCoef="0" IVar="1" Cut="5.4744064807891846e-02" cType="1" res="-1.5699170529842377e-02" rms="2.7352866530418396e-01" purity="2.7298274636268616e-01" nType="0">
            <Node pos="l" depth="3" NCoef="0" IVar="-1" Cut="0.0000000000000000e+00" cType="1" res="-1.4542425982654095e-02" rms="2.4279201030731201e-01" purity="1.7057716846466064e-01" nType="-99"/>
            <Node pos="r" depth="3" NCoef="0" IVar="-1" Cut="0.0000000000000000e+00" cType="1" res="-2.6042832061648369e-02" rms="3.3754399418830872e-01" purity="5.2741277217864990e-01" nType="-99"/>
          </Node>
          <Node pos="r" depth="2" NCoef="0" IVar="-1" Cut="0.0000000000000000e+00" cType="1" res="-1.1556636309251189e-03" rms="2.8245115280151367e-01" purity="8.0136615037918091e-01" nType="-99"/>
        </Node>
        <Node pos="r" depth="1" NCoef="0" IVar="11" Cut="-1.3430870771408081e+00" cType="1" res="1.6691482160240412e-03" rms="2.8967598080635071e-01" purity="5.2825915813446045e-01" nType="0">
          <Node pos="l" depth="2" NCoef="0" IVar="9" Cut="6.6662013530731201e-01" cType="1" res="8.6701521649956703e-03" rms="3.0327698588371277e-01" purity="3.0794647336006165e-01" nType="0">
            <Node pos="l" depth="3" NCoef="0" IVar="-1" Cut="0.0000000000000000e+00" cType="1" res="5.3703817538917065e-03" rms="3.0901303887367249e-01" purity="3.3497259020805359e-01" nType="-99"/>
            <Node pos="r" depth="3" NCoef="0" IVar="-1" Cut="0.0000000000000000e+00" cType="1" res="2.0552461966872215e-02" rms="2.8944012522697449e-01" purity="2.4560372531414032e-01" nType="-99"/>
          </Node>
          <Node pos="r" depth="2" NCoef="0" IVar="0" Cut="1.9020924072265625e+03" cType="1" res="-5.9126485139131546e-03" rms="2.7398508787155151e-01" purity="7.6684880256652832e-01" nType="0">
            <Node pos="l" depth="3" NCoef="0" IVar="-1" Cut="0.0000000000000000e+00" cType="1" res="-1.3848212547600269e-02" rms="3.1338131427764893e-01" purity="6.6134142875671387e-01" nType="-99"/>
            <Node pos="r" depth="3" NCoef="0" IVar="-1" Cut="0.0000000000000000e+00" cType="1" res="1.8595444038510323e-02" rms="1.8946534395217896e-01" purity="9.4410890340805054e-01" nType="-99"/>
          </Node>
        </Node>
      </Node>
    </BinaryTree>
    <BinaryTree type="DecisionTree" boostWeight="1.0000000000000000e+00" itree="695">
      <Node pos="s" depth="0" NCoef="0" IVar="10" Cut="6.6642332077026367e-01" cType="1" res="2.2004274069331586e-04" rms="2.8279751539230347e-01" purity="5.0186431407928467e-01" nType="0">
        <Node pos="l" depth="1" NCoef="0" IVar="3" Cut="1.4690800476074219e+02" cType="1" res="3.3157696016132832e-03" rms="2.8204667568206787e-01" purity="5.2446037530899048e-01" nType="0">
          <Node pos="l" depth="2" NCoef="0" IVar="3" Cut="1.2009627532958984e+02" cType="1" res="-9.4013586640357971e-03" rms="2.2690743207931519e-01" purity="1.1014325916767120e-01" nType="0">
            <Node pos="l" depth="3" NCoef="0" IVar="-1" Cut="0.0000000000000000e+00" cType="1" res="-2.9165453743189573e-03" rms="1.8554051220417023e-01" purity="5.2604082971811295e-02" nType="-99"/>
            <Node pos="r" depth="3" NCoef="0" IVar="-1" Cut="0.0000000000000000e+00" cType="1" res="-2.2788902744650841e-02" rms="2.6149502396583557e-01" purity="1.6757653653621674e-01" nType="-99"/>
          </Node>
          <Node pos="r" depth="2" NCoef="0" IVar="8" Cut="9.3345832824707031e-01" cType="1" res="5.8193630538880825e-03" rms="2.9161104559898376e-01" purity="6.0602605342864990e-01" nType="0">
            <Node pos="l" depth="3" NCoef="0" IVar="-1" Cut="0.0000000000000000e+00" cType="1" res="8.6322845891118050e-03" rms="2.9382720589637756e-01" purity="6.4218807220458984e-01" nType="-99"/>
            <Node pos="r" depth="3" NCoef="0" IVar="-1" Cut="0.0000000000000000e+00" cType="1" res="-6.1035305261611938e-03" rms="2.7738150954246521e-01" purity="3.8420259952545166e-01" nType="-99"/>
          </Node>
        </Node>
        <Node pos="r" depth="1" NCoef="0" IVar="6" Cut="7.6179664611816406e+01" cType="1" res="-7.0861754938960075e-03" rms="2.8442811965942383e-01" purity="4.4853541254997253e-01" nType="0">
          <Node pos="l" depth="2" NCoef="0" IVar="5" Cut="6.3542957305908203e+01" cType="1" res="-1.0986668989062309e-02" rms="2.9838487505912781e-01" purity="3.1120017170906067e-01" nType="0">
            <Node pos="l" depth="3" NCoef="0" IVar="-1" Cut="0.0000000000000000e+00" cType="1" res="-5.2073369261051994e-06" rms="2.5921148061752319e-01" purity="1.4715221524238586e-01" nType="-99"/>
            <Node pos="r" depth="3" NCoef="0" IVar="-1" Cut="0.0000000000000000e+00" cType="1" res="-1.7114112153649330e-02" rms="3.2205572724342346e-01" purity="4.2253190279006958e-01" nType="-99"/>
          </Node>
          <Node pos="r" depth="2" NCoef="0" IVar="-1" Cut="0.0000000000000000e+00" cType="1" res="9.1152032837271690e-03" rms="2.3402103781700134e-01" purity="8.8633686304092407e-01" nType="-99"/>
        </Node>
      </Node>
    </BinaryTree>
    <BinaryTree type="DecisionTree" boostWeight="1.0000000000000000e+00" itree="696">
      <Node pos="s" depth="0" NCoef="0" IVar="8" Cut="1.3323667645454407e-01" cType="1" res="1.3541306834667921e-03" rms="2.8032499551773071e-01" purity="5.0789093971252441e-01" nType="0">
        <Node pos="l" depth="1" NCoef="0" IVar="1" Cut="1.0230217128992081e-01" cType="1" res="4.5957486145198345e-03" rms="2.8553003072738647e-01" purity="5.1966398954391479e-01" nType="0">
          <Node pos="l" depth="2" NCoef="0" IVar="8" Cut="-1.1238148212432861e+00" cType="1" res="8.0132400617003441e-03" rms="2.9431712627410889e-01" purity="3.8830718398094177e-01" nType="0">
            <Node pos="l" depth="3" NCoef="0" IVar="-1" Cut="0.0000000000000000e+00" cType="1" res="-2.1118703298270702e-03" rms="2.4598693847656250e-01" purity="1.8414264917373657e-01" nType="-99"/>
            <Node pos="r" depth="3" NCoef="0" IVar="-1" Cut="0.0000000000000000e+00" cType="1" res="1.2335074134171009e-02" rms="3.1248173117637634e-01" purity="4.7490084171295166e-01" nType="-99"/>
          </Node>
          <Node pos="r" depth="2" NCoef="0" IVar="0" Cut="1.6949505615234375e+03" cType="1" res="-3.5945998970419168e-03" rms="2.6309931278228760e-01" purity="8.3447325229644775e-01" nType="0">
            <Node pos="l" depth="3" NCoef="0" IVar="-1" Cut="0.0000000000000000e+00" cType="1" res="-1.1330980807542801e-02" rms="3.3589801192283630e-01" purity="6.9438534975051880e-01" nType="-99"/>
            <Node pos="r" depth="3" NCoef="0" IVar="-1" Cut="0.0000000000000000e+00" cType="1" res="1.7681151628494263e-02" rms="1.6699917614459991e-01" purity="9.6671670675277710e-01" nType="-99"/>
          </Node>
        </Node>
        <Node pos="r" depth="1" NCoef="0" IVar="1" Cut="6.2755912542343140e-02" cType="1" res="-2.6246253401041031e-03" rms="2.7374869585037231e-01" purity="4.9344071745872498e-01" nType="0">
          <Node pos="l" depth="2" NCoef="0" IVar="10" Cut="-1.3365745544433594e-01" cType="1" res="-7.9159215092658997e-03" rms="2.6814162731170654e-01" purity="2.6315915584564209e-01" nType="0">
            <Node pos="l" depth="3" NCoef="0" IVar="-1" Cut="0.0000000000000000e+00" cType="1" res="-2.3272823542356491e-02" rms="2.5882717967033386e-01" purity="2.4019737541675568e-01" nType="-99"/>
            <Node pos="r" depth="3" NCoef="0" IVar="-1" Cut="0.0000000000000000e+00" cType="1" res="-2.1145169157534838e-03" rms="2.7395671606063843e-01" purity="2.7835986018180847e-01" nType="-99"/>
          </Node>
          <Node pos="r" depth="2" NCoef="0" IVar="6" Cut="1.3344408035278320e+01" cType="1" res="3.7582749500870705e-03" rms="2.8023040294647217e-01" purity="7.7122974395751953e-01" nType="0">
            <Node pos="l" depth="3" NCoef="0" IVar="-1" Cut="0.0000000000000000e+00" cType="1" res="-6.4137773588299751e-03" rms="3.6784547567367554e-01" purity="4.3375542759895325e-01" nType="-99"/>
            <Node pos="r" depth="3" NCoef="0" IVar="-1" Cut="0.0000000000000000e+00" cType="1" res="1.3010388240218163e-02" rms="2.3860266804695129e-01" purity="8.9910715818405151e-01" nType="-99"/>
          </Node>
        </Node>
      </Node>
    </BinaryTree>
    <BinaryTree type="DecisionTree" boostWeight="1.0000000000000000e+00" itree="697">
      <Node pos="s" depth="0" NCoef="0" IVar="8" Cut="-1.9999164342880249e+00" cType="1" res="7.7381107257679105e-04" rms="2.8658232092857361e-01" purity="5.0080418586730957e-01" nType="0">
        <Node pos="l" depth="1" NCoef="0" IVar="-1" Cut="0.0000000000000000e+00" cType="1" res="-6.3280142843723297e-02" rms="1.2683616578578949e-01" purity="5.3215794265270233e-02" nType="-99"/>
        <Node pos="r" depth="1" NCoef="0" IVar="1" Cut="1.2540175020694733e-01" cType="1" res="1.4693784760311246e-03" rms="2.9010763764381409e-01" purity="5.1469159126281738e-01" nType="0">
          <Node pos="l" depth="2" NCoef="0" IVar="10" Cut="-4.0006208419799805e-01" cType="1" res="3.1838591676205397e-03" rms="2.9853889346122742e-01" purity="4.2037367820739746e-01" nType="0">
            <Node pos="l" depth="3" NCoef="0" IVar="-1" Cut="0.0000000000000000e+00" cType="1" res="9.1538047417998314e-03" rms="2.9825350642204285e-01" purity="3.9584571123123169e-01" nType="-99"/>
            <Node pos="r" depth="3" NCoef="0" IVar="-1" Cut="0.0000000000000000e+00" cType="1" res="1.2773790513165295e-04" rms="2.9866951704025269e-01" purity="4.3520891666412354e-01" nType="-99"/>
          </Node>
          <Node pos="r" depth="2" NCoef="0" IVar="0" Cut="1.5865430908203125e+03" cType="1" res="-4.7007296234369278e-03" rms="2.5739610195159912e-01" purity="8.5412472486495972e-01" nType="0">
            <Node pos="l" depth="3" NCoef="0" IVar="-1" Cut="0.0000000000000000e+00" cType="1" res="-1.0196630842983723e-02" rms="3.4944593906402588e-01" purity="6.9083470106124878e-01" nType="-99"/>
            <Node pos="r" depth="3" NCoef="0" IVar="-1" Cut="0.0000000000000000e+00" cType="1" res="2.0842030644416809e-03" rms="1.6884052753448486e-01" purity="9.6425867080688477e-01" nType="-99"/>
          </Node>
        </Node>
      </Node>
    </BinaryTree>
    <BinaryTree type="DecisionTree" boostWeight="1.0000000000000000e+00" itree="698">
      <Node pos="s" depth="0" NCoef="0" IVar="8" Cut="-3.9994230866432190e-01" cType="1" res="5.5990583496168256e-04" rms="2.8421783447265625e-01" purity="5.0047552585601807e-01" nType="0">
        <Node pos="l" depth="1" NCoef="0" IVar="6" Cut="6.6823577880859375e+01" cType="1" res="-4.5949378982186317e-03" rms="2.7755993604660034e-01" purity="4.3819910287857056e-01" nType="0">
          <Node pos="l" depth="2" NCoef="0" IVar="9" Cut="-9.3312978744506836e-01" cType="1" res="-8.9021055027842522e-03" rms="2.8493678569793701e-01" purity="2.5348645448684692e-01" nType="0">
            <Node pos="l" depth="3" NCoef="0" IVar="-1" Cut="0.0000000000000000e+00" cType="1" res="1.1576168471947312e-03" rms="2.7061542868614197e-01" purity="1.7650917172431946e-01" nType="-99"/>
            <Node pos="r" depth="3" NCoef="0" IVar="-1" Cut="0.0000000000000000e+00" cType="1" res="-1.3502612709999084e-02" rms="2.8978905081748962e-01" purity="2.8091517090797424e-01" nType="-99"/>
          </Node>
          <Node pos="r" depth="2" NCoef="0" IVar="2" Cut="4.0587628173828125e+02" cType="1" res="5.0222743302583694e-03" rms="2.6007798314094543e-01" purity="8.5063272714614868e-01" nType="0">
            <Node pos="l" depth="3" NCoef="0" IVar="-1" Cut="0.0000000000000000e+00" cType="1" res="1.9971547648310661e-02" rms="2.6494836807250977e-01" purity="8.3950865268707275e-01" nType="-99"/>
            <Node pos="r" depth="3" NCoef="0" IVar="-1" Cut="0.0000000000000000e+00" cType="1" res="-1.6957884654402733e-02" rms="2.5149044394493103e-01" purity="8.6806392669677734e-01" nType="-99"/>
          </Node>
        </Node>
        <Node pos="r" depth="1" NCoef="0" IVar="5" Cut="6.8812805175781250e+01" cType="1" res="3.2589458860456944e-03" rms="2.8760555386543274e-01" purity="5.3308296203613281e-01" nType="0">
          <Node pos="l" depth="2" NCoef="0" IVar="5" Cut="6.0748920440673828e+01" cType="1" res="1.0171079076826572e-02" rms="2.9411625862121582e-01" purity="2.0475478470325470e-01" nType="0">
            <Node pos="l" depth="3" NCoef="0" IVar="-1" Cut="0.0000000000000000e+00" cType="1" res="-4.2030026088468730e-04" rms="2.7181082963943481e-01" purity="1.5421736240386963e-01" nType="-99"/>
            <Node pos="r" depth="3" NCoef="0" IVar="-1" Cut="0.0000000000000000e+00" cType="1" res="2.8508251532912254e-02" rms="3.2959049940109253e-01" purity="2.9554608464241028e-01" nType="-99"/>
          </Node>
          <Node pos="r" depth="2" NCoef="0" IVar="11" Cut="3.7188667804002762e-02" cType="1" res="-6.2987365527078509e-04" rms="2.8380295634269714e-01" purity="7.1780300140380859e-01" nType="0">
            <Node pos="l" depth="3" NCoef="0" IVar="-1" Cut="0.0000000000000000e+00" cType="1" res="3.6754345055669546e-03" rms="2.9689797759056091e-01" purity="6.5822350978851318e-01" nType="-99"/>
            <Node pos="r" depth="3" NCoef="0" IVar="-1" Cut="0.0000000000000000e+00" cType="1" res="-1.0003197006881237e-02" rms="2.6031133532524109e-01" purity="8.1741231679916382e-01" nType="-99"/>
          </Node>
        </Node>
      </Node>
    </BinaryTree>
    <BinaryTree type="DecisionTree" boostWeight="1.0000000000000000e+00" itree="699">
      <Node pos="s" depth="0" NCoef="0" IVar="11" Cut="-1.0669349431991577e+00" cType="1" res="-2.2256060037761927e-03" rms="2.8181293606758118e-01" purity="4.9918818473815918e-01" nType="0">
        <Node pos="l" depth="1" NCoef="0" IVar="1" Cut="1.4641878008842468e-01" cType="1" res="-5.7867472060024738e-03" rms="2.8818377852439880e-01" purity="2.9818776249885559e-01" nType="0">
          <Node pos="l" depth="2" NCoef="0" IVar="6" Cut="6.4609352111816406e+01" cType="1" res="-7.6124751940369606e-03" rms="2.8526172041893005e-01" purity="2.4863202869892120e-01" nType="0">
            <Node pos="l" depth="3" NCoef="0" IVar="-1" Cut="0.0000000000000000e+00" cType="1" res="-6.6261212341487408e-03" rms="2.8325626254081726e-01" purity="2.0906955003738403e-01" nType="-99"/>
            <Node pos="r" depth="3" NCoef="0" IVar="-1" Cut="0.0000000000000000e+00" cType="1" res="-3.5629093647003174e-02" rms="3.0637469887733459e-01" purity="7.0340901613235474e-01" nType="-99"/>
          </Node>
          <Node pos="r" depth="2" NCoef="0" IVar="-1" Cut="0.0000000000000000e+00" cType="1" res="1.1298322118818760e-02" rms="3.1360110640525818e-01" purity="7.6002496480941772e-01" nType="-99"/>
        </Node>
        <Node pos="r" depth="1" NCoef="0" IVar="8" Cut="1.1999801397323608e+00" cType="1" res="2.4939505383372307e-03" rms="2.7306929230690002e-01" purity="7.6557254791259766e-01" nType="0">
          <Node pos="l" depth="2" NCoef="0" IVar="7" Cut="-1.0756075382232666e+00" cType="1" res="6.7146611399948597e-04" rms="2.6926890015602112e-01" purity="7.9054909944534302e-01" nType="0">
            <Node pos="l" depth="3" NCoef="0" IVar="-1" Cut="0.0000000000000000e+00" cType="1" res="1.8576199188828468e-02" rms="3.0944788455963135e-01" purity="5.1162767410278320e-01" nType="-99"/>
            <Node pos="r" depth="3" NCoef="0" IVar="-1" Cut="0.0000000000000000e+00" cType="1" res="-1.0433632414788008e-03" rms="2.6567250490188599e-01" purity="8.1330126523971558e-01" nType="-99"/>
          </Node>
          <Node pos="r" depth="2" NCoef="0" IVar="-1" Cut="0.0000000000000000e+00" cType="1" res="2.0998192951083183e-02" rms="3.1036990880966187e-01" purity="4.9675589799880981e-01" nType="-99"/>
        </Node>
      </Node>
    </BinaryTree>
    <BinaryTree type="DecisionTree" boostWeight="1.0000000000000000e+00" itree="700">
      <Node pos="s" depth="0" NCoef="0" IVar="10" Cut="1.1997617483139038e+00" cType="1" res="1.6427597729489207e-03" rms="2.8474962711334229e-01" purity="5.0343322753906250e-01" nType="0">
        <Node pos="l" depth="1" NCoef="0" IVar="7" Cut="1.2058925628662109e+00" cType="1" res="4.5440367102855816e-05" rms="2.8367912769317627e-01" purity="5.2365154027938843e-01" nType="0">
          <Node pos="l" depth="2" NCoef="0" IVar="1" Cut="4.1835278272628784e-02" cType="1" res="1.0640854015946388e-03" rms="2.8938823938369751e-01" purity="5.5684685707092285e-01" nType="0">
            <Node pos="l" depth="3" NCoef="0" IVar="-1" Cut="0.0000000000000000e+00" cType="1" res="7.3252161964774132e-03" rms="2.8484150767326355e-01" purity="2.5915813446044922e-01" nType="-99"/>
            <Node pos="r" depth="3" NCoef="0" IVar="-1" Cut="0.0000000000000000e+00" cType="1" res="-1.9026836380362511e-03" rms="2.9191654920578003e-01" purity="7.2677099704742432e-01" nType="-99"/>
          </Node>
          <Node pos="r" depth="2" NCoef="0" IVar="8" Cut="1.3511517643928528e-01" cType="1" res="-1.0817429982125759e-02" rms="2.1320198476314545e-01" purity="1.6965584456920624e-01" nType="0">
            <Node pos="l" depth="3" NCoef="0" IVar="-1" Cut="0.0000000000000000e+00" cType="1" res="1.2990301474928856e-02" rms="2.1582643687725067e-01" purity="1.7807289958000183e-01" nType="-99"/>
            <Node pos="r" depth="3" NCoef="0" IVar="-1" Cut="0.0000000000000000e+00" cType="1" res="-5.7004407048225403e-02" rms="2.0792526006698608e-01" purity="1.5919189155101776e-01" nType="-99"/>
          </Node>
        </Node>
        <Node pos="r" depth="1" NCoef="0" IVar="10" Cut="1.5807349681854248e+00" cType="1" res="9.7608556970953941e-03" rms="2.8999334573745728e-01" purity="4.0067714452743530e-01" nType="0">
          <Node pos="l" depth="2" NCoef="0" IVar="10" Cut="1.3993440866470337e+00" cType="1" res="2.0036330446600914e-02" rms="2.8896772861480713e-01" purity="4.8952373862266541e-01" nType="0">
            <Node pos="l" depth="3" NCoef="0" IVar="-1" Cut="0.0000000000000000e+00" cType="1" res="-2.4295053444802761e-03" rms="2.7320298552513123e-01" purity="4.7039327025413513e-01" nType="-99"/>
            <Node pos="r" depth="3" NCoef="0" IVar="-1" Cut="0.0000000000000000e+00" cType="1" res="5.2176654338836670e-02" rms="3.0491065979003906e-01" purity="5.1277923583984375e-01" nType="-99"/>
          </Node>
          <Node pos="r" depth="2" NCoef="0" IVar="5" Cut="8.9000694274902344e+01" cType="1" res="2.4618830066174269e-03" rms="2.9049897193908691e-01" purity="3.3756679296493530e-01" nType="0">
            <Node pos="l" depth="3" NCoef="0" IVar="-1" Cut="0.0000000000000000e+00" cType="1" res="9.5305349677801132e-03" rms="2.8254973888397217e-01" purity="2.1846297383308411e-01" nType="-99"/>
            <Node pos="r" depth="3" NCoef="0" IVar="-1" Cut="0.0000000000000000e+00" cType="1" res="-1.3093745335936546e-02" rms="3.1162083148956299e-01" purity="6.7771786451339722e-01" nType="-99"/>
          </Node>
        </Node>
      </Node>
    </BinaryTree>
    <BinaryTree type="DecisionTree" boostWeight="1.0000000000000000e+00" itree="701">
      <Node pos="s" depth="0" NCoef="0" IVar="10" Cut="-2.2666914463043213e+00" cType="1" res="-6.0949497856199741e-04" rms="2.8496855497360229e-01" purity="4.9702757596969604e-01" nType="0">
        <Node pos="l" depth="1" NCoef="0" IVar="-1" Cut="0.0000000000000000e+00" cType="1" res="2.7228957042098045e-02" rms="2.9400673508644104e-01" purity="2.4593898653984070e-01" nType="-99"/>
        <Node pos="r" depth="1" NCoef="0" IVar="3" Cut="1.4267349243164062e+02" cType="1" res="-1.2599687324836850e-03" rms="2.8467139601707458e-01" purity="5.0444167852401733e-01" nType="0">
          <Node pos="l" depth="2" NCoef="0" IVar="5" Cut="7.2350349426269531e+01" cType="1" res="5.2071968093514442e-03" rms="2.3257182538509369e-01" purity="1.1583168059587479e-01" nType="0">
            <Node pos="l" depth="3" NCoef="0" IVar="-1" Cut="0.0000000000000000e+00" cType="1" res="-2.3195883259177208e-03" rms="2.0123702287673950e-01" purity="6.3050001859664917e-02" nType="-99"/>
            <Node pos="r" depth="3" NCoef="0" IVar="-1" Cut="0.0000000000000000e+00" cType="1" res="2.7964038774371147e-02" rms="3.2403638958930969e-01" purity="3.1621140241622925e-01" nType="-99"/>
          </Node>
          <Node pos="r" depth="2" NCoef="0" IVar="8" Cut="-1.4666490554809570e+00" cType="1" res="-2.5070705451071262e-03" rms="2.9364052414894104e-01" purity="5.7937961816787720e-01" nType="0">
            <Node pos="l" depth="3" NCoef="0" IVar="-1" Cut="0.0000000000000000e+00" cType="1" res="-3.5760939121246338e-02" rms="2.4869643151760101e-01" purity="1.7812974750995636e-01" nType="-99"/>
            <Node pos="r" depth="3" NCoef="0" IVar="-1" Cut="0.0000000000000000e+00" cType="1" res="-1.2105591595172882e-03" rms="2.9632487893104553e-01" purity="6.0598725080490112e-01" nType="-99"/>
          </Node>
        </Node>
      </Node>
    </BinaryTree>
    <BinaryTree type="DecisionTree" boostWeight="1.0000000000000000e+00" itree="702">
      <Node pos="s" depth="0" NCoef="0" IVar="7" Cut="1.2156506776809692e+00" cType="1" res="2.0137883257120848e-03" rms="2.8363713622093201e-01" purity="5.0602531433105469e-01" nType="0">
        <Node pos="l" depth="1" NCoef="0" IVar="11" Cut="1.4189273118972778e+00" cType="1" res="6.1365606961771846e-04" rms="2.8995013236999512e-01" purity="5.4105615615844727e-01" nType="0">
          <Node pos="l" depth="2" NCoef="0" IVar="5" Cut="7.1511108398437500e+01" cType="1" res="-3.7827299092896283e-04" rms="2.8997531533241272e-01" purity="5.3167450428009033e-01" nType="0">
            <Node pos="l" depth="3" NCoef="0" IVar="-1" Cut="0.0000000000000000e+00" cType="1" res="4.0869852527976036e-03" rms="2.9821425676345825e-01" purity="2.1745631098747253e-01" nType="-99"/>
            <Node pos="r" depth="3" NCoef="0" IVar="-1" Cut="0.0000000000000000e+00" cType="1" res="-3.7809237837791443e-03" rms="2.8427344560623169e-01" purity="7.4277770519256592e-01" nType="-99"/>
          </Node>
          <Node pos="r" depth="2" NCoef="0" IVar="-1" Cut="0.0000000000000000e+00" cType="1" res="1.5854086726903915e-02" rms="2.8915643692016602e-01" purity="6.8269652128219604e-01" nType="-99"/>
        </Node>
        <Node pos="r" depth="1" NCoef="0" IVar="5" Cut="7.5885017395019531e+01" cType="1" res="1.5609094873070717e-02" rms="2.1233382821083069e-01" purity="1.6587565839290619e-01" nType="0">
          <Node pos="l" depth="2" NCoef="0" IVar="1" Cut="9.4201760366559029e-03" cType="1" res="1.6264446312561631e-03" rms="1.6120222210884094e-01" purity="3.7965655326843262e-02" nType="0">
            <Node pos="l" depth="3" NCoef="0" IVar="-1" Cut="0.0000000000000000e+00" cType="1" res="-8.4199503064155579e-02" rms="6.0115210711956024e-02" purity="3.0157819855958223e-03" nType="-99"/>
            <Node pos="r" depth="3" NCoef="0" IVar="-1" Cut="0.0000000000000000e+00" cType="1" res="2.4976754561066628e-02" rms="2.1063600480556488e-01" purity="6.6914387047290802e-02" nType="-99"/>
          </Node>
          <Node pos="r" depth="2" NCoef="0" IVar="-1" Cut="0.0000000000000000e+00" cType="1" res="4.1601806879043579e-02" rms="2.7812936902046204e-01" purity="3.8822355866432190e-01" nType="-99"/>
        </Node>
      </Node>
    </BinaryTree>
    <BinaryTree type="DecisionTree" boostWeight="1.0000000000000000e+00" itree="703">
      <Node pos="s" depth="0" NCoef="0" IVar="9" Cut="-2.0000004768371582e+00" cType="1" res="-2.4479095009155571e-04" rms="2.8217226266860962e-01" purity="5.0336152315139771e-01" nType="0">
        <Node pos="l" depth="1" NCoef="0" IVar="-1" Cut="0.0000000000000000e+00" cType="1" res="-3.5157192498445511e-02" rms="1.9645604491233826e-01" purity="1.0624799877405167e-01" nType="-99"/>
        <Node pos="r" depth="1" NCoef="0" IVar="7" Cut="9.5165544748306274e-01" cType="1" res="3.7687033182010055e-04" rms="2.8479403257369995e-01" purity="5.1785594224929810e-01" nType="0">
          <Node pos="l" depth="2" NCoef="0" IVar="9" Cut="1.6571373939514160e+00" cType="1" res="1.9435436697676778e-03" rms="2.9087212681770325e-01" purity="5.6812018156051636e-01" nType="0">
            <Node pos="l" depth="3" NCoef="0" IVar="-1" Cut="0.0000000000000000e+00" cType="1" res="3.2271465752273798e-03" rms="2.9292505979537964e-01" purity="5.9173268079757690e-01" nType="-99"/>
            <Node pos="r" depth="3" NCoef="0" IVar="-1" Cut="0.0000000000000000e+00" cType="1" res="-1.8614450469613075e-02" rms="2.5465101003646851e-01" purity="1.8354016542434692e-01" nType="-99"/>
          </Node>
          <Node pos="r" depth="2" NCoef="0" IVar="1" Cut="4.6471014618873596e-02" cType="1" res="-8.5998978465795517e-03" rms="2.4691016972064972e-01" purity="2.2985064983367920e-01" nType="0">
            <Node pos="l" depth="3" NCoef="0" IVar="-1" Cut="0.0000000000000000e+00" cType="1" res="-4.0761730633676052e-03" rms="2.1093234419822693e-01" purity="1.2500651180744171e-01" nType="-99"/>
            <Node pos="r" depth="3" NCoef="0" IVar="-1" Cut="0.0000000000000000e+00" cType="1" res="-2.4790676310658455e-02" rms="3.2912161946296692e-01" purity="5.3436237573623657e-01" nType="-99"/>
          </Node>
        </Node>
      </Node>
    </BinaryTree>
    <BinaryTree type="DecisionTree" boostWeight="1.0000000000000000e+00" itree="704">
      <Node pos="s" depth="0" NCoef="0" IVar="0" Cut="1.4296540527343750e+03" cType="1" res="-1.3030770933255553e-03" rms="2.8165379166603088e-01" purity="5.0009620189666748e-01" nType="0">
        <Node pos="l" depth="1" NCoef="0" IVar="11" Cut="-1.0666707754135132e+00" cType="1" res="-5.5366591550409794e-03" rms="2.8557926416397095e-01" purity="2.0197324454784393e-01" nType="0">
          <Node pos="l" depth="2" NCoef="0" IVar="0" Cut="1.3696762695312500e+03" cType="1" res="-1.8313638865947723e-03" rms="2.6657244563102722e-01" purity="1.4078263938426971e-01" nType="0">
            <Node pos="l" depth="3" NCoef="0" IVar="-1" Cut="0.0000000000000000e+00" cType="1" res="-5.8511612005531788e-03" rms="2.5849869847297668e-01" purity="1.2164707481861115e-01" nType="-99"/>
            <Node pos="r" depth="3" NCoef="0" IVar="-1" Cut="0.0000000000000000e+00" cType="1" res="1.9248194992542267e-02" rms="3.4055694937705994e-01" purity="3.4639424085617065e-01" nType="-99"/>
          </Node>
          <Node pos="r" depth="2" NCoef="0" IVar="7" Cut="4.0374794602394104e-01" cType="1" res="-1.7829794436693192e-02" rms="3.4084776043891907e-01" purity="4.0498650074005127e-01" nType="0">
            <Node pos="l" depth="3" NCoef="0" IVar="-1" Cut="0.0000000000000000e+00" cType="1" res="-2.2593801841139793e-02" rms="3.4453192353248596e-01" purity="4.3620693683624268e-01" nType="-99"/>
            <Node pos="r" depth="3" NCoef="0" IVar="-1" Cut="0.0000000000000000e+00" cType="1" res="1.2659261701628566e-03" rms="3.3358484506607056e-01" purity="3.5180014371871948e-01" nType="-99"/>
          </Node>
        </Node>
        <Node pos="r" depth="1" NCoef="0" IVar="9" Cut="-1.3338361680507660e-01" cType="1" res="2.4121284950524569e-03" rms="2.7811020612716675e-01" purity="7.6171576976776123e-01" nType="0">
          <Node pos="l" depth="2" NCoef="0" IVar="6" Cut="6.1998222351074219e+01" cType="1" res="8.3830645307898521e-03" rms="2.8061008453369141e-01" purity="7.5617706775665283e-01" nType="0">
            <Node pos="l" depth="3" NCoef="0" IVar="-1" Cut="0.0000000000000000e+00" cType="1" res="1.5977144241333008e-02" rms="3.4297123551368713e-01" purity="5.5232948064804077e-01" nType="-99"/>
            <Node pos="r" depth="3" NCoef="0" IVar="-1" Cut="0.0000000000000000e+00" cType="1" res="1.7297760350629687e-03" rms="2.2769565880298615e-01" purity="8.9646011590957642e-01" nType="-99"/>
          </Node>
          <Node pos="r" depth="2" NCoef="0" IVar="1" Cut="4.0922135114669800e-02" cType="1" res="-2.3641258012503386e-03" rms="2.7600127458572388e-01" purity="7.6614630222320557e-01" nType="0">
            <Node pos="l" depth="3" NCoef="0" IVar="-1" Cut="0.0000000000000000e+00" cType="1" res="-1.0302237235009670e-02" rms="3.2163038849830627e-01" purity="4.4128644466400146e-01" nType="-99"/>
            <Node pos="r" depth="3" NCoef="0" IVar="-1" Cut="0.0000000000000000e+00" cType="1" res="1.6413456760346889e-03" rms="2.5635740160942078e-01" purity="8.9021688699722290e-01" nType="-99"/>
          </Node>
        </Node>
      </Node>
    </BinaryTree>
    <BinaryTree type="DecisionTree" boostWeight="1.0000000000000000e+00" itree="705">
      <Node pos="s" depth="0" NCoef="0" IVar="10" Cut="1.4664099216461182e+00" cType="1" res="8.6695438949391246e-04" rms="2.7899003028869629e-01" purity="5.0533723831176758e-01" nType="0">
        <Node pos="l" depth="1" NCoef="0" IVar="1" Cut="4.1755866259336472e-02" cType="1" res="2.3056098725646734e-03" rms="2.7984184026718140e-01" purity="5.2908480167388916e-01" nType="0">
          <Node pos="l" depth="2" NCoef="0" IVar="5" Cut="1.2298438262939453e+02" cType="1" res="-2.8357368428260088e-03" rms="2.6466917991638184e-01" purity="2.2121647000312805e-01" nType="0">
            <Node pos="l" depth="3" NCoef="0" IVar="-1" Cut="0.0000000000000000e+00" cType="1" res="-6.8962452933192253e-03" rms="2.6220864057540894e-01" purity="1.7776799201965332e-01" nType="-99"/>
            <Node pos="r" depth="3" NCoef="0" IVar="-1" Cut="0.0000000000000000e+00" cType="1" res="2.2796111181378365e-02" rms="2.9253789782524109e-01" purity="7.6443195343017578e-01" nType="-99"/>
          </Node>
          <Node pos="r" depth="2" NCoef="0" IVar="1" Cut="7.9530328512191772e-02" cType="1" res="5.6749251671135426e-03" rms="2.8930428624153137e-01" purity="7.3084229230880737e-01" nType="0">
            <Node pos="l" depth="3" NCoef="0" IVar="-1" Cut="0.0000000000000000e+00" cType="1" res="1.1500469408929348e-02" rms="3.2270580530166626e-01" purity="5.7615602016448975e-01" nType="-99"/>
            <Node pos="r" depth="3" NCoef="0" IVar="-1" Cut="0.0000000000000000e+00" cType="1" res="2.5980595964938402e-03" rms="2.6936513185501099e-01" purity="8.1484365463256836e-01" nType="-99"/>
          </Node>
        </Node>
        <Node pos="r" depth="1" NCoef="0" IVar="3" Cut="1.5000280761718750e+02" cType="1" res="-1.0548439808189869e-02" rms="2.7186697721481323e-01" purity="3.1690618395805359e-01" nType="0">
          <Node pos="l" depth="2" NCoef="0" IVar="-1" Cut="0.0000000000000000e+00" cType="1" res="1.5825020149350166e-02" rms="2.0140454173088074e-01" purity="8.3959400653839111e-02" nType="-99"/>
          <Node pos="r" depth="2" NCoef="0" IVar="10" Cut="1.9743447303771973e+00" cType="1" res="-1.6694828867912292e-02" rms="2.9279351234436035e-01" purity="4.0044766664505005e-01" nType="0">
            <Node pos="l" depth="3" NCoef="0" IVar="-1" Cut="0.0000000000000000e+00" cType="1" res="-2.7028784155845642e-02" rms="2.9665681719779968e-01" purity="4.6664372086524963e-01" nType="-99"/>
            <Node pos="r" depth="3" NCoef="0" IVar="-1" Cut="0.0000000000000000e+00" cType="1" res="-4.8000458627939224e-03" rms="2.8706479072570801e-01" purity="3.1165543198585510e-01" nType="-99"/>
          </Node>
        </Node>
      </Node>
    </BinaryTree>
    <BinaryTree type="DecisionTree" boostWeight="1.0000000000000000e+00" itree="706">
      <Node pos="s" depth="0" NCoef="0" IVar="11" Cut="1.1427444219589233e+00" cType="1" res="-2.6486787828616798e-04" rms="2.8325837850570679e-01" purity="4.9770259857177734e-01" nType="0">
        <Node pos="l" depth="1" NCoef="0" IVar="10" Cut="9.3306922912597656e-01" cType="1" res="9.1818702640011907e-04" rms="2.8248608112335205e-01" purity="4.8159030079841614e-01" nType="0">
          <Node pos="l" depth="2" NCoef="0" IVar="10" Cut="-2.0889201164245605e+00" cType="1" res="-1.3685063458979130e-03" rms="2.8004929423332214e-01" purity="5.0360631942749023e-01" nType="0">
            <Node pos="l" depth="3" NCoef="0" IVar="-1" Cut="0.0000000000000000e+00" cType="1" res="-2.1103193983435631e-02" rms="2.6394525170326233e-01" purity="2.2102436423301697e-01" nType="-99"/>
            <Node pos="r" depth="3" NCoef="0" IVar="-1" Cut="0.0000000000000000e+00" cType="1" res="-6.2711519422009587e-04" rms="2.8091219067573547e-01" purity="5.1966160535812378e-01" nType="-99"/>
          </Node>
          <Node pos="r" depth="2" NCoef="0" IVar="7" Cut="-4.3284825980663300e-02" cType="1" res="8.7280990555882454e-03" rms="2.9051887989044189e-01" purity="4.0639713406562805e-01" nType="0">
            <Node pos="l" depth="3" NCoef="0" IVar="-1" Cut="0.0000000000000000e+00" cType="1" res="2.5241237133741379e-02" rms="2.9432275891304016e-01" purity="4.0681913495063782e-01" nType="-99"/>
            <Node pos="r" depth="3" NCoef="0" IVar="-1" Cut="0.0000000000000000e+00" cType="1" res="-3.8704907638020813e-04" rms="2.8732645511627197e-01" purity="4.0608370304107666e-01" nType="-99"/>
          </Node>
        </Node>
        <Node pos="r" depth="1" NCoef="0" IVar="5" Cut="9.1722419738769531e+01" cType="1" res="-1.2169851921498775e-02" rms="2.9064822196960449e-01" purity="6.5983927249908447e-01" nType="0">
          <Node pos="l" depth="2" NCoef="0" IVar="-1" Cut="0.0000000000000000e+00" cType="1" res="-2.3002941161394119e-02" rms="3.2533699274063110e-01" purity="4.3805372714996338e-01" nType="-99"/>
          <Node pos="r" depth="2" NCoef="0" IVar="-1" Cut="0.0000000000000000e+00" cType="1" res="-3.0909245833754539e-03" rms="2.5943097472190857e-01" purity="8.3572965860366821e-01" nType="-99"/>
        </Node>
      </Node>
    </BinaryTree>
    <BinaryTree type="DecisionTree" boostWeight="1.0000000000000000e+00" itree="707">
      <Node pos="s" depth="0" NCoef="0" IVar="11" Cut="1.4189273118972778e+00" cType="1" res="-6.8083195947110653e-04" rms="2.8314581513404846e-01" purity="5.0238847732543945e-01" nType="0">
        <Node pos="l" depth="1" NCoef="0" IVar="3" Cut="1.4757579040527344e+02" cType="1" res="-1.9978149794042110e-03" rms="2.8190046548843384e-01" purity="4.9323239922523499e-01" nType="0">
          <Node pos="l" depth="2" NCoef="0" IVar="5" Cut="7.4542121887207031e+01" cType="1" res="6.0776742175221443e-03" rms="2.3250815272331238e-01" purity="1.1939863115549088e-01" nType="0">
            <Node pos="l" depth="3" NCoef="0" IVar="-1" Cut="0.0000000000000000e+00" cType="1" res="3.7805843167006969e-03" rms="2.0916762948036194e-01" purity="6.7750975489616394e-02" nType="-99"/>
            <Node pos="r" depth="3" NCoef="0" IVar="-1" Cut="0.0000000000000000e+00" cType="1" res="2.7300326153635979e-02" rms="3.2200145721435547e-01" purity="3.7087422609329224e-01" nType="-99"/>
          </Node>
          <Node pos="r" depth="2" NCoef="0" IVar="8" Cut="1.4664276838302612e+00" cType="1" res="-3.7322680000215769e-03" rms="2.9138970375061035e-01" purity="5.7352441549301147e-01" nType="0">
            <Node pos="l" depth="3" NCoef="0" IVar="-1" Cut="0.0000000000000000e+00" cType="1" res="-5.4636634886264801e-03" rms="2.9444965720176697e-01" purity="5.9952479600906372e-01" nType="-99"/>
            <Node pos="r" depth="3" NCoef="0" IVar="-1" Cut="0.0000000000000000e+00" cType="1" res="1.9379837438464165e-02" rms="2.4390420317649841e-01" purity="2.0868720114231110e-01" nType="-99"/>
          </Node>
        </Node>
        <Node pos="r" depth="1" NCoef="0" IVar="10" Cut="1.3439974188804626e-01" cType="1" res="2.0580379292368889e-02" rms="3.0174732208251953e-01" purity="6.5020292997360229e-01" nType="0">
          <Node pos="l" depth="2" NCoef="0" IVar="-1" Cut="0.0000000000000000e+00" cType="1" res="3.0089769512414932e-02" rms="3.0322209000587463e-01" purity="6.5539979934692383e-01" nType="-99"/>
          <Node pos="r" depth="2" NCoef="0" IVar="-1" Cut="0.0000000000000000e+00" cType="1" res="1.3115138746798038e-02" rms="3.0008566379547119e-01" purity="6.4509236812591553e-01" nType="-99"/>
        </Node>
      </Node>
    </BinaryTree>
    <BinaryTree type="DecisionTree" boostWeight="1.0000000000000000e+00" itree="708">
      <Node pos="s" depth="0" NCoef="0" IVar="4" Cut="1.8750300598144531e+02" cType="1" res="-4.2039054096676409e-04" rms="2.8205031156539917e-01" purity="4.9692666530609131e-01" nType="0">
        <Node pos="l" depth="1" NCoef="0" IVar="11" Cut="8.6509054899215698e-01" cType="1" res="2.4800142273306847e-03" rms="2.8885525465011597e-01" purity="3.5896399617195129e-01" nType="0">
          <Node pos="l" depth="2" NCoef="0" IVar="0" Cut="1.3383734130859375e+03" cType="1" res="3.7137907929718494e-03" rms="2.8575518727302551e-01" purity="3.3333370089530945e-01" nType="0">
            <Node pos="l" depth="3" NCoef="0" IVar="-1" Cut="0.0000000000000000e+00" cType="1" res="8.2367658615112305e-04" rms="2.6334220170974731e-01" purity="1.4236997067928314e-01" nType="-99"/>
            <Node pos="r" depth="3" NCoef="0" IVar="-1" Cut="0.0000000000000000e+00" cType="1" res="7.7778967097401619e-03" rms="3.1380048394203186e-01" purity="5.9473711252212524e-01" nType="-99"/>
          </Node>
          <Node pos="r" depth="2" NCoef="0" IVar="4" Cut="1.4265458679199219e+02" cType="1" res="-7.2848168201744556e-03" rms="3.1213536858558655e-01" purity="5.6181710958480835e-01" nType="0">
            <Node pos="l" depth="3" NCoef="0" IVar="-1" Cut="0.0000000000000000e+00" cType="1" res="7.7382042072713375e-03" rms="3.1313428282737732e-01" purity="4.3580734729766846e-01" nType="-99"/>
            <Node pos="r" depth="3" NCoef="0" IVar="-1" Cut="0.0000000000000000e+00" cType="1" res="-2.6272704824805260e-02" rms="3.1002789735794067e-01" purity="7.0427554845809937e-01" nType="-99"/>
          </Node>
        </Node>
        <Node pos="r" depth="1" NCoef="0" IVar="0" Cut="1.6202856445312500e+03" cType="1" res="-6.5313261002302170e-03" rms="2.6704293489456177e-01" purity="7.8760379552841187e-01" nType="0">
          <Node pos="l" depth="2" NCoef="0" IVar="5" Cut="7.2610664367675781e+01" cType="1" res="-2.1601915359497070e-02" rms="3.4170269966125488e-01" purity="4.8393711447715759e-01" nType="0">
            <Node pos="l" depth="3" NCoef="0" IVar="-1" Cut="0.0000000000000000e+00" cType="1" res="-3.7144951522350311e-02" rms="3.4225443005561829e-01" purity="2.7559402585029602e-01" nType="-99"/>
            <Node pos="r" depth="3" NCoef="0" IVar="-1" Cut="0.0000000000000000e+00" cType="1" res="-3.6532748490571976e-03" rms="3.4024211764335632e-01" purity="6.1715072393417358e-01" nType="-99"/>
          </Node>
          <Node pos="r" depth="2" NCoef="0" IVar="10" Cut="1.1998442411422729e+00" cType="1" res="-2.4222971405833960e-03" rms="2.4257247149944305e-01" purity="8.7039923667907715e-01" nType="0">
            <Node pos="l" depth="3" NCoef="0" IVar="-1" Cut="0.0000000000000000e+00" cType="1" res="-8.0446610227227211e-03" rms="2.3677888512611389e-01" purity="8.7757635116577148e-01" nType="-99"/>
            <Node pos="r" depth="3" NCoef="0" IVar="-1" Cut="0.0000000000000000e+00" cType="1" res="1.5768507495522499e-02" rms="2.7828070521354675e-01" purity="8.2165944576263428e-01" nType="-99"/>
          </Node>
        </Node>
      </Node>
    </BinaryTree>
    <BinaryTree type="DecisionTree" boostWeight="1.0000000000000000e+00" itree="709">
      <Node pos="s" depth="0" NCoef="0" IVar="10" Cut="9.3322545289993286e-01" cType="1" res="-1.1547316098585725e-03" rms="2.8505378961563110e-01" purity="4.9541717767715454e-01" nType="0">
        <Node pos="l" depth="1" NCoef="0" IVar="11" Cut="-2.4476339817047119e+00" cType="1" res="1.4526033774018288e-03" rms="2.8320389986038208e-01" purity="5.2379745244979858e-01" nType="0">
          <Node pos="l" depth="2" NCoef="0" IVar="10" Cut="-4.8894590139389038e-01" cType="1" res="-3.1188316643238068e-03" rms="2.9426202178001404e-01" purity="2.3802541196346283e-01" nType="0">
            <Node pos="l" depth="3" NCoef="0" IVar="-1" Cut="0.0000000000000000e+00" cType="1" res="4.6574445441365242e-03" rms="2.9424121975898743e-01" purity="2.1333381533622742e-01" nType="-99"/>
            <Node pos="r" depth="3" NCoef="0" IVar="-1" Cut="0.0000000000000000e+00" cType="1" res="-1.0359399020671844e-02" rms="2.9413101077079773e-01" purity="2.6111957430839539e-01" nType="-99"/>
          </Node>
          <Node pos="r" depth="2" NCoef="0" IVar="5" Cut="7.0834655761718750e+01" cType="1" res="5.3825150243937969e-03" rms="2.7327910065650940e-01" purity="7.6946622133255005e-01" nType="0">
            <Node pos="l" depth="3" NCoef="0" IVar="-1" Cut="0.0000000000000000e+00" cType="1" res="1.7290480434894562e-02" rms="3.4914413094520569e-01" purity="4.1599899530410767e-01" nType="-99"/>
            <Node pos="r" depth="3" NCoef="0" IVar="-1" Cut="0.0000000000000000e+00" cType="1" res="3.9136144332587719e-03" rms="2.5798800587654114e-01" purity="8.2992583513259888e-01" nType="-99"/>
          </Node>
        </Node>
        <Node pos="r" depth="1" NCoef="0" IVar="10" Cut="2.2665176391601562e+00" cType="1" res="-1.0089911520481110e-02" rms="2.9112708568572998e-01" purity="3.9815980195999146e-01" nType="0">
          <Node pos="l" depth="2" NCoef="0" IVar="1" Cut="3.8451958447694778e-02" cType="1" res="-1.4230791479349136e-02" rms="2.9152390360832214e-01" purity="4.1799849271774292e-01" nType="0">
            <Node pos="l" depth="3" NCoef="0" IVar="-1" Cut="0.0000000000000000e+00" cType="1" res="-5.6016254238784313e-03" rms="2.5081810355186462e-01" purity="1.4997172355651855e-01" nType="-99"/>
            <Node pos="r" depth="3" NCoef="0" IVar="-1" Cut="0.0000000000000000e+00" cType="1" res="-2.1810624748468399e-02" rms="3.1746244430541992e-01" purity="6.1147654056549072e-01" nType="-99"/>
          </Node>
          <Node pos="r" depth="2" NCoef="0" IVar="-1" Cut="0.0000000000000000e+00" cType="1" res="2.6558244600892067e-02" rms="2.8657823801040649e-01" purity="2.5729846954345703e-01" nType="-99"/>
        </Node>
      </Node>
    </BinaryTree>
    <BinaryTree type="DecisionTree" boostWeight="1.0000000000000000e+00" itree="710">
      <Node pos="s" depth="0" NCoef="0" IVar="2" Cut="6.9161602783203125e+02" cType="1" res="-1.4358278131112456e-03" rms="2.8242740035057068e-01" purity="4.9168163537979126e-01" nType="0">
        <Node pos="l" depth="1" NCoef="0" IVar="2" Cut="5.7454656982421875e+02" cType="1" res="-5.1215529674664140e-04" rms="2.8033474087715149e-01" purity="4.8807999491691589e-01" nType="0">
          <Node pos="l" depth="2" NCoef="0" IVar="2" Cut="2.7134347534179688e+02" cType="1" res="-1.5958670992404222e-03" rms="2.7956822514533997e-01" purity="4.7875532507896423e-01" nType="0">
            <Node pos="l" depth="3" NCoef="0" IVar="-1" Cut="0.0000000000000000e+00" cType="1" res="5.4787672124803066e-03" rms="2.7905783057212830e-01" purity="3.8041985034942627e-01" nType="-99"/>
            <Node pos="r" depth="3" NCoef="0" IVar="-1" Cut="0.0000000000000000e+00" cType="1" res="-4.7945566475391388e-03" rms="2.7972808480262756e-01" purity="5.1614284515380859e-01" nType="-99"/>
          </Node>
          <Node pos="r" depth="2" NCoef="0" IVar="2" Cut="6.1356408691406250e+02" cType="1" res="1.3976698741316795e-02" rms="2.8999987244606018e-01" purity="6.1274790763854980e-01" nType="0">
            <Node pos="l" depth="3" NCoef="0" IVar="-1" Cut="0.0000000000000000e+00" cType="1" res="3.7162121385335922e-02" rms="3.1010672450065613e-01" purity="6.0705345869064331e-01" nType="-99"/>
            <Node pos="r" depth="3" NCoef="0" IVar="-1" Cut="0.0000000000000000e+00" cType="1" res="5.3638534154742956e-04" rms="2.7410793304443359e-01" purity="6.1677020788192749e-01" nType="-99"/>
          </Node>
        </Node>
        <Node pos="r" depth="1" NCoef="0" IVar="-1" Cut="0.0000000000000000e+00" cType="1" res="-1.9315769895911217e-02" rms="3.2336065173149109e-01" purity="5.6876909732818604e-01" nType="-99"/>
      </Node>
    </BinaryTree>
    <BinaryTree type="DecisionTree" boostWeight="1.0000000000000000e+00" itree="711">
      <Node pos="s" depth="0" NCoef="0" IVar="9" Cut="1.1999297142028809e+00" cType="1" res="9.1328722191974521e-04" rms="2.8502234816551208e-01" purity="4.9501734972000122e-01" nType="0">
        <Node pos="l" depth="1" NCoef="0" IVar="10" Cut="6.6646564006805420e-01" cType="1" res="-1.9099243218079209e-03" rms="2.8591951727867126e-01" purity="5.2528715133666992e-01" nType="0">
          <Node pos="l" depth="2" NCoef="0" IVar="11" Cut="1.4175446033477783e+00" cType="1" res="-4.4754389673471451e-03" rms="2.8551289439201355e-01" purity="5.3781914710998535e-01" nType="0">
            <Node pos="l" depth="3" NCoef="0" IVar="-1" Cut="0.0000000000000000e+00" cType="1" res="-3.7240793462842703e-03" rms="2.8408914804458618e-01" purity="5.3183424472808838e-01" nType="-99"/>
            <Node pos="r" depth="3" NCoef="0" IVar="-1" Cut="0.0000000000000000e+00" cType="1" res="-3.3444400876760483e-02" rms="3.0859303474426270e-01" purity="6.4402252435684204e-01" nType="-99"/>
          </Node>
          <Node pos="r" depth="2" NCoef="0" IVar="7" Cut="1.9944967329502106e-01" cType="1" res="4.4442904181778431e-03" rms="2.8682535886764526e-01" purity="4.9424824118614197e-01" nType="0">
            <Node pos="l" depth="3" NCoef="0" IVar="-1" Cut="0.0000000000000000e+00" cType="1" res="1.3620732352137566e-02" rms="2.8981012105941772e-01" purity="5.2838343381881714e-01" nType="-99"/>
            <Node pos="r" depth="3" NCoef="0" IVar="-1" Cut="0.0000000000000000e+00" cType="1" res="-5.2825724706053734e-03" rms="2.8297933936119080e-01" purity="4.5363807678222656e-01" nType="-99"/>
          </Node>
        </Node>
        <Node pos="r" depth="1" NCoef="0" IVar="7" Cut="-1.8798317760229111e-02" cType="1" res="1.9443530589342117e-02" rms="2.7835223078727722e-01" purity="2.9634037613868713e-01" nType="0">
          <Node pos="l" depth="2" NCoef="0" IVar="9" Cut="1.6570641994476318e+00" cType="1" res="4.4622831046581268e-04" rms="2.7352768182754517e-01" purity="2.7482822537422180e-01" nType="0">
            <Node pos="l" depth="3" NCoef="0" IVar="-1" Cut="0.0000000000000000e+00" cType="1" res="1.1676147580146790e-02" rms="3.0357187986373901e-01" purity="3.8715121150016785e-01" nType="-99"/>
            <Node pos="r" depth="3" NCoef="0" IVar="-1" Cut="0.0000000000000000e+00" cType="1" res="-1.6770936548709869e-02" rms="2.3867727816104889e-01" purity="1.6062891483306885e-01" nType="-99"/>
          </Node>
          <Node pos="r" depth="2" NCoef="0" IVar="4" Cut="1.3739741516113281e+02" cType="1" res="3.3549170941114426e-02" rms="2.8105160593986511e-01" purity="3.1231328845024109e-01" nType="0">
            <Node pos="l" depth="3" NCoef="0" IVar="-1" Cut="0.0000000000000000e+00" cType="1" res="3.6691829562187195e-02" rms="2.2287584841251373e-01" purity="1.4078949391841888e-01" nType="-99"/>
            <Node pos="r" depth="3" NCoef="0" IVar="-1" Cut="0.0000000000000000e+00" cType="1" res="4.3084997683763504e-02" rms="3.3923989534378052e-01" purity="5.2535116672515869e-01" nType="-99"/>
          </Node>
        </Node>
      </Node>
    </BinaryTree>
    <BinaryTree type="DecisionTree" boostWeight="1.0000000000000000e+00" itree="712">
      <Node pos="s" depth="0" NCoef="0" IVar="5" Cut="7.1511116027832031e+01" cType="1" res="2.0840889774262905e-03" rms="2.8215986490249634e-01" purity="5.0260478258132935e-01" nType="0">
        <Node pos="l" depth="1" NCoef="0" IVar="7" Cut="1.6643089056015015e-01" cType="1" res="-2.8707196470350027e-03" rms="2.7965891361236572e-01" purity="1.8682090938091278e-01" nType="0">
          <Node pos="l" depth="2" NCoef="0" IVar="7" Cut="-1.0749458074569702e+00" cType="1" res="-9.4271907582879066e-03" rms="2.8427234292030334e-01" purity="1.9762410223484039e-01" nType="0">
            <Node pos="l" depth="3" NCoef="0" IVar="-1" Cut="0.0000000000000000e+00" cType="1" res="1.3806733302772045e-02" rms="1.9022603332996368e-01" purity="5.6426931172609329e-02" nType="-99"/>
            <Node pos="r" depth="3" NCoef="0" IVar="-1" Cut="0.0000000000000000e+00" cType="1" res="-1.4171775430440903e-02" rms="3.1390595436096191e-01" purity="2.5405731797218323e-01" nType="-99"/>
          </Node>
          <Node pos="r" depth="2" NCoef="0" IVar="10" Cut="-1.2001420259475708e+00" cType="1" res="5.5098426528275013e-03" rms="2.7341988682746887e-01" purity="1.7301215231418610e-01" nType="0">
            <Node pos="l" depth="3" NCoef="0" IVar="-1" Cut="0.0000000000000000e+00" cType="1" res="4.7611482441425323e-02" rms="2.7962052822113037e-01" purity="1.8822439014911652e-01" nType="-99"/>
            <Node pos="r" depth="3" NCoef="0" IVar="-1" Cut="0.0000000000000000e+00" cType="1" res="3.3618730958551168e-04" rms="2.7180650830268860e-01" purity="1.6981711983680725e-01" nType="-99"/>
          </Node>
        </Node>
        <Node pos="r" depth="1" NCoef="0" IVar="5" Cut="1.1248526000976562e+02" cType="1" res="5.4140971042215824e-03" rms="2.8377974033355713e-01" purity="7.1483558416366577e-01" nType="0">
          <Node pos="l" depth="2" NCoef="0" IVar="11" Cut="-1.3431905508041382e+00" cType="1" res="1.1227217502892017e-02" rms="3.1855031847953796e-01" purity="5.9539651870727539e-01" nType="0">
            <Node pos="l" depth="3" NCoef="0" IVar="-1" Cut="0.0000000000000000e+00" cType="1" res="1.6142545267939568e-02" rms="3.3626034855842590e-01" purity="4.3444499373435974e-01" nType="-99"/>
            <Node pos="r" depth="3" NCoef="0" IVar="-1" Cut="0.0000000000000000e+00" cType="1" res="5.2322638221085072e-03" rms="3.0389606952667236e-01" purity="7.2084343433380127e-01" nType="-99"/>
          </Node>
          <Node pos="r" depth="2" NCoef="0" IVar="1" Cut="6.2769271433353424e-02" cType="1" res="-3.2619868870824575e-03" rms="2.2169181704521179e-01" purity="8.9309835433959961e-01" nType="0">
            <Node pos="l" depth="3" NCoef="0" IVar="-1" Cut="0.0000000000000000e+00" cType="1" res="-1.8893152475357056e-02" rms="2.9589772224426270e-01" purity="7.3045384883880615e-01" nType="-99"/>
            <Node pos="r" depth="3" NCoef="0" IVar="-1" Cut="0.0000000000000000e+00" cType="1" res="5.4768440313637257e-03" rms="1.8637318909168243e-01" purity="9.5369815826416016e-01" nType="-99"/>
          </Node>
        </Node>
      </Node>
    </BinaryTree>
    <BinaryTree type="DecisionTree" boostWeight="1.0000000000000000e+00" itree="713">
      <Node pos="s" depth="0" NCoef="0" IVar="11" Cut="-2.4476201534271240e+00" cType="1" res="-8.4432581206783652e-04" rms="2.8175541758537292e-01" purity="5.0264745950698853e-01" nType="0">
        <Node pos="l" depth="1" NCoef="0" IVar="7" Cut="-3.7184163928031921e-01" cType="1" res="-5.7050231844186783e-03" rms="2.8731998801231384e-01" purity="2.2538547217845917e-01" nType="0">
          <Node pos="l" depth="2" NCoef="0" IVar="5" Cut="7.8342674255371094e+01" cType="1" res="-1.4508528634905815e-02" rms="2.6144447922706604e-01" purity="1.6904735565185547e-01" nType="0">
            <Node pos="l" depth="3" NCoef="0" IVar="-1" Cut="0.0000000000000000e+00" cType="1" res="-1.3455143198370934e-02" rms="2.3536676168441772e-01" purity="1.1258094757795334e-01" nType="-99"/>
            <Node pos="r" depth="3" NCoef="0" IVar="-1" Cut="0.0000000000000000e+00" cType="1" res="-3.0554704368114471e-02" rms="3.3555489778518677e-01" purity="3.6434480547904968e-01" nType="-99"/>
          </Node>
          <Node pos="r" depth="2" NCoef="0" IVar="4" Cut="2.1664637756347656e+02" cType="1" res="-8.6181145161390305e-04" rms="3.0049711465835571e-01" purity="2.5637966394424438e-01" nType="0">
            <Node pos="l" depth="3" NCoef="0" IVar="-1" Cut="0.0000000000000000e+00" cType="1" res="-4.4317687861621380e-03" rms="2.9167020320892334e-01" purity="2.0090331137180328e-01" nType="-99"/>
            <Node pos="r" depth="3" NCoef="0" IVar="-1" Cut="0.0000000000000000e+00" cType="1" res="1.6118228435516357e-02" rms="3.5642760992050171e-01" purity="6.5180647373199463e-01" nType="-99"/>
          </Node>
        </Node>
        <Node pos="r" depth="1" NCoef="0" IVar="6" Cut="6.7186042785644531e+01" cType="1" res="3.4948298707604408e-03" rms="2.7662125229835510e-01" purity="7.5015985965728760e-01" nType="0">
          <Node pos="l" depth="2" NCoef="0" IVar="1" Cut="3.8100942969322205e-02" cType="1" res="1.0242002084851265e-02" rms="3.2815378904342651e-01" purity="5.5113303661346436e-01" nType="0">
            <Node pos="l" depth="3" NCoef="0" IVar="-1" Cut="0.0000000000000000e+00" cType="1" res="-2.0121117122471333e-03" rms="3.0224439501762390e-01" purity="2.5889259576797485e-01" nType="-99"/>
            <Node pos="r" depth="3" NCoef="0" IVar="-1" Cut="0.0000000000000000e+00" cType="1" res="1.3625386171042919e-02" rms="3.4130325913429260e-01" purity="7.1087551116943359e-01" nType="-99"/>
          </Node>
          <Node pos="r" depth="2" NCoef="0" IVar="10" Cut="9.3312627077102661e-01" cType="1" res="-4.0966153028421104e-04" rms="2.4174915254116058e-01" purity="8.6533385515213013e-01" nType="0">
            <Node pos="l" depth="3" NCoef="0" IVar="-1" Cut="0.0000000000000000e+00" cType="1" res="-5.5458685383200645e-03" rms="2.3475398123264313e-01" purity="8.7415713071823120e-01" nType="-99"/>
            <Node pos="r" depth="3" NCoef="0" IVar="-1" Cut="0.0000000000000000e+00" cType="1" res="1.5686560422182083e-02" rms="2.7131459116935730e-01" purity="8.2465302944183350e-01" nType="-99"/>
          </Node>
        </Node>
      </Node>
    </BinaryTree>
    <BinaryTree type="DecisionTree" boostWeight="1.0000000000000000e+00" itree="714">
      <Node pos="s" depth="0" NCoef="0" IVar="3" Cut="1.4719407653808594e+02" cType="1" res="8.6614431347697973e-04" rms="2.8317618370056152e-01" purity="5.0268048048019409e-01" nType="0">
        <Node pos="l" depth="1" NCoef="0" IVar="11" Cut="-1.3429023027420044e+00" cType="1" res="-9.4540854915976524e-03" rms="2.2088424861431122e-01" purity="1.0777614265680313e-01" nType="0">
          <Node pos="l" depth="2" NCoef="0" IVar="3" Cut="1.3379042053222656e+02" cType="1" res="-3.7158108316361904e-03" rms="1.9971704483032227e-01" purity="5.5883578956127167e-02" nType="0">
            <Node pos="l" depth="3" NCoef="0" IVar="-1" Cut="0.0000000000000000e+00" cType="1" res="-3.0735149979591370e-02" rms="1.6834712028503418e-01" purity="3.5546340048313141e-02" nType="-99"/>
            <Node pos="r" depth="3" NCoef="0" IVar="-1" Cut="0.0000000000000000e+00" cType="1" res="2.7260240167379379e-02" rms="2.7394500374794006e-01" purity="1.1883109807968140e-01" nType="-99"/>
          </Node>
          <Node pos="r" depth="2" NCoef="0" IVar="-1" Cut="0.0000000000000000e+00" cType="1" res="-2.9088728129863739e-02" rms="2.8263592720031738e-01" purity="2.9211243987083435e-01" nType="-99"/>
        </Node>
        <Node pos="r" depth="1" NCoef="0" IVar="0" Cut="1.4543673095703125e+03" cType="1" res="3.0656678136438131e-03" rms="2.9470863938331604e-01" purity="5.8684545755386353e-01" nType="0">
          <Node pos="l" depth="2" NCoef="0" IVar="10" Cut="3.9960289001464844e-01" cType="1" res="9.3632359057664871e-03" rms="3.2182264328002930e-01" purity="2.8679385781288147e-01" nType="0">
            <Node pos="l" depth="3" NCoef="0" IVar="-1" Cut="0.0000000000000000e+00" cType="1" res="2.9510781168937683e-03" rms="3.1911179423332214e-01" purity="2.9057982563972473e-01" nType="-99"/>
            <Node pos="r" depth="3" NCoef="0" IVar="-1" Cut="0.0000000000000000e+00" cType="1" res="1.8793120980262756e-02" rms="3.2576367259025574e-01" purity="2.8089135885238647e-01" nType="-99"/>
          </Node>
          <Node pos="r" depth="2" NCoef="0" IVar="10" Cut="1.1993837356567383e+00" cType="1" res="-9.3240389833226800e-04" rms="2.7604222297668457e-01" purity="7.7733606100082397e-01" nType="0">
            <Node pos="l" depth="3" NCoef="0" IVar="-1" Cut="0.0000000000000000e+00" cType="1" res="1.1702545452862978e-03" rms="2.7221640944480896e-01" purity="7.9224789142608643e-01" nType="-99"/>
            <Node pos="r" depth="3" NCoef="0" IVar="-1" Cut="0.0000000000000000e+00" cType="1" res="-1.3736579567193985e-02" rms="2.9911023378372192e-01" purity="6.8190103769302368e-01" nType="-99"/>
          </Node>
        </Node>
      </Node>
    </BinaryTree>
    <BinaryTree type="DecisionTree" boostWeight="1.0000000000000000e+00" itree="715">
      <Node pos="s" depth="0" NCoef="0" IVar="9" Cut="9.3326187133789062e-01" cType="1" res="3.5942355170845985e-03" rms="2.8399556875228882e-01" purity="5.0238579511642456e-01" nType="0">
        <Node pos="l" depth="1" NCoef="0" IVar="5" Cut="9.3022178649902344e+01" cType="1" res="6.1342786066234112e-03" rms="2.8478023409843445e-01" purity="5.4002660512924194e-01" nType="0">
          <Node pos="l" depth="2" NCoef="0" IVar="1" Cut="8.3672188222408295e-02" cType="1" res="9.3710757791996002e-03" rms="3.0512231588363647e-01" purity="3.3474302291870117e-01" nType="0">
            <Node pos="l" depth="3" NCoef="0" IVar="-1" Cut="0.0000000000000000e+00" cType="1" res="7.2166263125836849e-03" rms="2.9087427258491516e-01" purity="2.2773654758930206e-01" nType="-99"/>
            <Node pos="r" depth="3" NCoef="0" IVar="-1" Cut="0.0000000000000000e+00" cType="1" res="1.5086319297552109e-02" rms="3.4431692957878113e-01" purity="6.5715843439102173e-01" nType="-99"/>
          </Node>
          <Node pos="r" depth="2" NCoef="0" IVar="8" Cut="9.2893368005752563e-01" cType="1" res="1.1494783684611320e-03" rms="2.5015708804130554e-01" purity="8.5617178678512573e-01" nType="0">
            <Node pos="l" depth="3" NCoef="0" IVar="-1" Cut="0.0000000000000000e+00" cType="1" res="-2.8166044503450394e-03" rms="2.4069228768348694e-01" purity="8.7487405538558960e-01" nType="-99"/>
            <Node pos="r" depth="3" NCoef="0" IVar="-1" Cut="0.0000000000000000e+00" cType="1" res="2.2664839401841164e-02" rms="3.0950954556465149e-01" purity="7.2053313255310059e-01" nType="-99"/>
          </Node>
        </Node>
        <Node pos="r" depth="1" NCoef="0" IVar="8" Cut="3.9928355813026428e-01" cType="1" res="-7.5435545295476913e-03" rms="2.8025725483894348e-01" purity="3.3733537793159485e-01" nType="0">
          <Node pos="l" depth="2" NCoef="0" IVar="10" Cut="6.6631764173507690e-01" cType="1" res="1.1192650999873877e-03" rms="2.8839093446731567e-01" purity="3.6071303486824036e-01" nType="0">
            <Node pos="l" depth="3" NCoef="0" IVar="-1" Cut="0.0000000000000000e+00" cType="1" res="-1.3326738961040974e-02" rms="2.8034630417823792e-01" purity="3.7503284215927124e-01" nType="-99"/>
            <Node pos="r" depth="3" NCoef="0" IVar="-1" Cut="0.0000000000000000e+00" cType="1" res="2.8406623750925064e-02" rms="3.0183854699134827e-01" purity="3.3333510160446167e-01" nType="-99"/>
          </Node>
          <Node pos="r" depth="2" NCoef="0" IVar="7" Cut="4.9751043319702148e-01" cType="1" res="-1.8506638705730438e-02" rms="2.6921302080154419e-01" purity="3.0775016546249390e-01" nType="0">
            <Node pos="l" depth="3" NCoef="0" IVar="-1" Cut="0.0000000000000000e+00" cType="1" res="-6.0818931087851524e-03" rms="2.7628087997436523e-01" purity="3.4022465348243713e-01" nType="-99"/>
            <Node pos="r" depth="3" NCoef="0" IVar="-1" Cut="0.0000000000000000e+00" cType="1" res="-4.7274619340896606e-02" rms="2.5677469372749329e-01" purity="2.5846454501152039e-01" nType="-99"/>
          </Node>
        </Node>
      </Node>
    </BinaryTree>
    <BinaryTree type="DecisionTree" boostWeight="1.0000000000000000e+00" itree="716">
      <Node pos="s" depth="0" NCoef="0" IVar="8" Cut="-1.4667360782623291e+00" cType="1" res="-1.0599727975204587e-03" rms="2.8156572580337524e-01" purity="4.9788030982017517e-01" nType="0">
        <Node pos="l" depth="1" NCoef="0" IVar="1" Cut="3.1105287373065948e-02" cType="1" res="1.4468849636614323e-02" rms="2.3488804697990417e-01" purity="1.6593800485134125e-01" nType="0">
          <Node pos="l" depth="2" NCoef="0" IVar="7" Cut="-5.5239450186491013e-02" cType="1" res="1.0689473710954189e-03" rms="1.7963698506355286e-01" purity="5.5200766772031784e-02" nType="0">
            <Node pos="l" depth="3" NCoef="0" IVar="-1" Cut="0.0000000000000000e+00" cType="1" res="8.8154422119259834e-03" rms="1.9701169431209564e-01" purity="6.8227045238018036e-02" nType="-99"/>
            <Node pos="r" depth="3" NCoef="0" IVar="-1" Cut="0.0000000000000000e+00" cType="1" res="-4.2762374505400658e-03" rms="1.6053560376167297e-01" purity="4.2287129908800125e-02" nType="-99"/>
          </Node>
          <Node pos="r" depth="2" NCoef="0" IVar="-1" Cut="0.0000000000000000e+00" cType="1" res="3.8904659450054169e-02" rms="3.1601712107658386e-01" purity="3.8724067807197571e-01" nType="-99"/>
        </Node>
        <Node pos="r" depth="1" NCoef="0" IVar="3" Cut="4.3105911254882812e+02" cType="1" res="-2.3450488224625587e-03" rms="2.8504842519760132e-01" purity="5.2534997463226318e-01" nType="0">
          <Node pos="l" depth="2" NCoef="0" IVar="2" Cut="4.5450521850585938e+02" cType="1" res="-3.3022440038621426e-03" rms="2.8459510207176208e-01" purity="5.1159447431564331e-01" nType="0">
            <Node pos="l" depth="3" NCoef="0" IVar="-1" Cut="0.0000000000000000e+00" cType="1" res="-1.3640449615195394e-03" rms="2.8225946426391602e-01" purity="5.0162631273269653e-01" nType="-99"/>
            <Node pos="r" depth="3" NCoef="0" IVar="-1" Cut="0.0000000000000000e+00" cType="1" res="-1.2820465490221977e-02" rms="2.9267758131027222e-01" purity="5.4730403423309326e-01" nType="-99"/>
          </Node>
          <Node pos="r" depth="2" NCoef="0" IVar="-1" Cut="0.0000000000000000e+00" cType="1" res="1.6939548775553703e-02" rms="2.9251617193222046e-01" purity="7.7161985635757446e-01" nType="-99"/>
        </Node>
      </Node>
    </BinaryTree>
    <BinaryTree type="DecisionTree" boostWeight="1.0000000000000000e+00" itree="717">
      <Node pos="s" depth="0" NCoef="0" IVar="8" Cut="-1.3329105079174042e-01" cType="1" res="-1.4823859091848135e-03" rms="2.8290018439292908e-01" purity="4.9289768934249878e-01" nType="0">
        <Node pos="l" depth="1" NCoef="0" IVar="4" Cut="1.3510565185546875e+02" cType="1" res="3.7562795914709568e-03" rms="2.8428611159324646e-01" purity="4.7778069972991943e-01" nType="0">
          <Node pos="l" depth="2" NCoef="0" IVar="11" Cut="-1.0677543878555298e+00" cType="1" res="1.0827962309122086e-02" rms="2.7738958597183228e-01" purity="1.9385419785976410e-01" nType="0">
            <Node pos="l" depth="3" NCoef="0" IVar="-1" Cut="0.0000000000000000e+00" cType="1" res="2.8902277350425720e-02" rms="2.5769525766372681e-01" purity="1.2577542662620544e-01" nType="-99"/>
            <Node pos="r" depth="3" NCoef="0" IVar="-1" Cut="0.0000000000000000e+00" cType="1" res="-7.7814324758946896e-03" rms="3.3432540297508240e-01" purity="4.2205360531806946e-01" nType="-99"/>
          </Node>
          <Node pos="r" depth="2" NCoef="0" IVar="11" Cut="-1.0669518709182739e+00" cType="1" res="-1.1413358151912689e-03" rms="2.8886452317237854e-01" purity="6.7441886663436890e-01" nType="0">
            <Node pos="l" depth="3" NCoef="0" IVar="-1" Cut="0.0000000000000000e+00" cType="1" res="-9.4807716086506844e-03" rms="3.2291591167449951e-01" purity="4.6925339102745056e-01" nType="-99"/>
            <Node pos="r" depth="3" NCoef="0" IVar="-1" Cut="0.0000000000000000e+00" cType="1" res="1.0067321360111237e-02" rms="2.5580143928527832e-01" purity="8.5034322738647461e-01" nType="-99"/>
          </Node>
        </Node>
        <Node pos="r" depth="1" NCoef="0" IVar="0" Cut="1.9503358154296875e+03" cType="1" res="-5.7008648291230202e-03" rms="2.8170838952064514e-01" purity="5.0507080554962158e-01" nType="0">
          <Node pos="l" depth="2" NCoef="0" IVar="5" Cut="5.9275386810302734e+01" cType="1" res="-8.1352163106203079e-03" rms="2.9479300975799561e-01" purity="3.9985746145248413e-01" nType="0">
            <Node pos="l" depth="3" NCoef="0" IVar="-1" Cut="0.0000000000000000e+00" cType="1" res="3.5569418687373400e-03" rms="2.5866171717643738e-01" purity="1.3381375372409821e-01" nType="-99"/>
            <Node pos="r" depth="3" NCoef="0" IVar="-1" Cut="0.0000000000000000e+00" cType="1" res="-1.1883822269737720e-02" rms="3.0602186918258667e-01" purity="4.9029296636581421e-01" nType="-99"/>
          </Node>
          <Node pos="r" depth="2" NCoef="0" IVar="2" Cut="5.9773596191406250e+02" cType="1" res="3.3621310722082853e-03" rms="2.2621235251426697e-01" purity="8.9677619934082031e-01" nType="0">
            <Node pos="l" depth="3" NCoef="0" IVar="-1" Cut="0.0000000000000000e+00" cType="1" res="-6.5516731701791286e-03" rms="1.8599057197570801e-01" purity="9.4997155666351318e-01" nType="-99"/>
            <Node pos="r" depth="3" NCoef="0" IVar="-1" Cut="0.0000000000000000e+00" cType="1" res="1.6339741647243500e-02" rms="2.9399251937866211e-01" purity="7.8296756744384766e-01" nType="-99"/>
          </Node>
        </Node>
      </Node>
    </BinaryTree>
    <BinaryTree type="DecisionTree" boostWeight="1.0000000000000000e+00" itree="718">
      <Node pos="s" depth="0" NCoef="0" IVar="6" Cut="6.3131359100341797e+01" cType="1" res="1.6915601445361972e-03" rms="2.8569287061691284e-01" purity="4.9985301494598389e-01" nType="0">
        <Node pos="l" depth="1" NCoef="0" IVar="1" Cut="1.0449436306953430e-01" cType="1" res="5.4086190648376942e-03" rms="3.0480664968490601e-01" purity="2.9833072423934937e-01" nType="0">
          <Node pos="l" depth="2" NCoef="0" IVar="3" Cut="2.4207023620605469e+02" cType="1" res="7.3909903876483440e-03" rms="2.9360309243202209e-01" purity="2.3418734967708588e-01" nType="0">
            <Node pos="l" depth="3" NCoef="0" IVar="-1" Cut="0.0000000000000000e+00" cType="1" res="5.6079355999827385e-03" rms="2.7041587233543396e-01" purity="1.5545858442783356e-01" nType="-99"/>
            <Node pos="r" depth="3" NCoef="0" IVar="-1" Cut="0.0000000000000000e+00" cType="1" res="1.3070976361632347e-02" rms="3.4031039476394653e-01" purity="4.1291734576225281e-01" nType="-99"/>
          </Node>
          <Node pos="r" depth="2" NCoef="0" IVar="9" Cut="3.5713174939155579e-01" cType="1" res="-4.8452997580170631e-03" rms="3.5701543092727661e-01" purity="6.3011562824249268e-01" nType="0">
            <Node pos="l" depth="3" NCoef="0" IVar="-1" Cut="0.0000000000000000e+00" cType="1" res="-1.1577191762626171e-02" rms="3.5627296566963196e-01" purity="6.3141447305679321e-01" nType="-99"/>
            <Node pos="r" depth="3" NCoef="0" IVar="-1" Cut="0.0000000000000000e+00" cType="1" res="9.4656255096197128e-03" rms="3.5756456851959229e-01" purity="6.2787294387817383e-01" nType="-99"/>
          </Node>
        </Node>
        <Node pos="r" depth="1" NCoef="0" IVar="0" Cut="1.4023734130859375e+03" cType="1" res="-4.6253050677478313e-03" rms="2.4975220859050751e-01" purity="8.4232509136199951e-01" nType="0">
          <Node pos="l" depth="2" NCoef="0" IVar="-1" Cut="0.0000000000000000e+00" cType="1" res="-2.2016715258359909e-02" rms="3.6377796530723572e-01" purity="5.0875198841094971e-01" nType="-99"/>
          <Node pos="r" depth="2" NCoef="0" IVar="1" Cut="3.9372302591800690e-02" cType="1" res="-5.9557316126301885e-04" rms="2.2570721805095673e-01" purity="8.9628070592880249e-01" nType="0">
            <Node pos="l" depth="3" NCoef="0" IVar="-1" Cut="0.0000000000000000e+00" cType="1" res="-1.1452851817011833e-02" rms="3.3041924238204956e-01" purity="6.4643460512161255e-01" nType="-99"/>
            <Node pos="r" depth="3" NCoef="0" IVar="-1" Cut="0.0000000000000000e+00" cType="1" res="3.6269892007112503e-03" rms="2.0082807540893555e-01" purity="9.4167876243591309e-01" nType="-99"/>
          </Node>
        </Node>
      </Node>
    </BinaryTree>
    <BinaryTree type="DecisionTree" boostWeight="1.0000000000000000e+00" itree="719">
      <Node pos="s" depth="0" NCoef="0" IVar="7" Cut="6.7011469602584839e-01" cType="1" res="-2.2605813574045897e-03" rms="2.8376770019531250e-01" purity="4.9652600288391113e-01" nType="0">
        <Node pos="l" depth="1" NCoef="0" IVar="3" Cut="1.4757579040527344e+02" cType="1" res="-5.0841029733419418e-03" rms="2.8762528300285339e-01" purity="5.4716497659683228e-01" nType="0">
          <Node pos="l" depth="2" NCoef="0" IVar="8" Cut="1.3333421945571899e-01" cType="1" res="7.3064570315182209e-03" rms="2.5663682818412781e-01" purity="1.5641151368618011e-01" nType="0">
            <Node pos="l" depth="3" NCoef="0" IVar="-1" Cut="0.0000000000000000e+00" cType="1" res="-4.0980442427098751e-03" rms="2.5089564919471741e-01" purity="1.4114521443843842e-01" nType="-99"/>
            <Node pos="r" depth="3" NCoef="0" IVar="-1" Cut="0.0000000000000000e+00" cType="1" res="3.2987643033266068e-02" rms="2.6381838321685791e-01" purity="1.7778387665748596e-01" nType="-99"/>
          </Node>
          <Node pos="r" depth="2" NCoef="0" IVar="6" Cut="6.3131359100341797e+01" cType="1" res="-7.4452343396842480e-03" rms="2.9309964179992676e-01" purity="6.2162655591964722e-01" nType="0">
            <Node pos="l" depth="3" NCoef="0" IVar="-1" Cut="0.0000000000000000e+00" cType="1" res="-1.1065440252423286e-02" rms="3.3311969041824341e-01" purity="4.0288773179054260e-01" nType="-99"/>
            <Node pos="r" depth="3" NCoef="0" IVar="-1" Cut="0.0000000000000000e+00" cType="1" res="-1.6812605317682028e-03" rms="2.3654150962829590e-01" purity="8.8240981101989746e-01" nType="-99"/>
          </Node>
        </Node>
        <Node pos="r" depth="1" NCoef="0" IVar="0" Cut="1.9441796875000000e+03" cType="1" res="7.4479063041508198e-03" rms="2.6985830068588257e-01" purity="3.2240736484527588e-01" nType="0">
          <Node pos="l" depth="2" NCoef="0" IVar="5" Cut="1.0316620635986328e+02" cType="1" res="4.3722535483539104e-03" rms="2.6918587088584900e-01" purity="2.4214847385883331e-01" nType="0">
            <Node pos="l" depth="3" NCoef="0" IVar="-1" Cut="0.0000000000000000e+00" cType="1" res="1.1606775224208832e-02" rms="2.5970903038978577e-01" purity="1.7332887649536133e-01" nType="-99"/>
            <Node pos="r" depth="3" NCoef="0" IVar="-1" Cut="0.0000000000000000e+00" cType="1" res="-1.5721216797828674e-02" rms="3.1849572062492371e-01" purity="6.4707642793655396e-01" nType="-99"/>
          </Node>
          <Node pos="r" depth="2" NCoef="0" IVar="-1" Cut="0.0000000000000000e+00" cType="1" res="3.2409064471721649e-02" rms="2.7323403954505920e-01" purity="8.2285636663436890e-01" nType="-99"/>
        </Node>
      </Node>
    </BinaryTree>
    <BinaryTree type="DecisionTree" boostWeight="1.0000000000000000e+00" itree="720">
      <Node pos="s" depth="0" NCoef="0" IVar="10" Cut="-6.6670811176300049e-01" cType="1" res="1.4763859799131751e-03" rms="2.8657481074333191e-01" purity="4.9679356813430786e-01" nType="0">
        <Node pos="l" depth="1" NCoef="0" IVar="1" Cut="4.1788015514612198e-02" cType="1" res="-5.2603338845074177e-03" rms="2.8915771842002869e-01" purity="4.4009733200073242e-01" nType="0">
          <Node pos="l" depth="2" NCoef="0" IVar="9" Cut="-6.6732507944107056e-01" cType="1" res="4.0707904845476151e-03" rms="2.5449320673942566e-01" purity="1.6809548437595367e-01" nType="0">
            <Node pos="l" depth="3" NCoef="0" IVar="-1" Cut="0.0000000000000000e+00" cType="1" res="-2.1148869767785072e-02" rms="2.2553601861000061e-01" purity="1.2277517467737198e-01" nType="-99"/>
            <Node pos="r" depth="3" NCoef="0" IVar="-1" Cut="0.0000000000000000e+00" cType="1" res="2.1192280575633049e-02" rms="2.6982069015502930e-01" purity="1.9517768919467926e-01" nType="-99"/>
          </Node>
          <Node pos="r" depth="2" NCoef="0" IVar="11" Cut="-2.3999682068824768e-01" cType="1" res="-1.2266029603779316e-02" rms="3.1248459219932556e-01" purity="6.4431297779083252e-01" nType="0">
            <Node pos="l" depth="3" NCoef="0" IVar="-1" Cut="0.0000000000000000e+00" cType="1" res="-1.7804840579628944e-02" rms="3.3191579580307007e-01" purity="5.4362064599990845e-01" nType="-99"/>
            <Node pos="r" depth="3" NCoef="0" IVar="-1" Cut="0.0000000000000000e+00" cType="1" res="3.9882389828562737e-03" rms="2.6826772093772888e-01" purity="8.4800672531127930e-01" nType="-99"/>
          </Node>
        </Node>
        <Node pos="r" depth="1" NCoef="0" IVar="7" Cut="-1.0725830495357513e-01" cType="1" res="4.3491921387612820e-03" rms="2.8541788458824158e-01" purity="5.2097111940383911e-01" nType="0">
          <Node pos="l" depth="2" NCoef="0" IVar="10" Cut="-1.7137441039085388e-01" cType="1" res="8.9986464008688927e-03" rms="2.8080993890762329e-01" purity="5.1517212390899658e-01" nType="0">
            <Node pos="l" depth="3" NCoef="0" IVar="-1" Cut="0.0000000000000000e+00" cType="1" res="-8.4584001451730728e-03" rms="2.8390330076217651e-01" purity="5.2871018648147583e-01" nType="-99"/>
            <Node pos="r" depth="3" NCoef="0" IVar="-1" Cut="0.0000000000000000e+00" cType="1" res="1.6205197200179100e-02" rms="2.7977049350738525e-01" purity="5.1137495040893555e-01" nType="-99"/>
          </Node>
          <Node pos="r" depth="2" NCoef="0" IVar="3" Cut="2.0711369323730469e+02" cType="1" res="8.4660941502079368e-04" rms="2.8879123926162720e-01" purity="5.2533972263336182e-01" nType="0">
            <Node pos="l" depth="3" NCoef="0" IVar="-1" Cut="0.0000000000000000e+00" cType="1" res="1.0360538028180599e-02" rms="2.9021942615509033e-01" purity="3.3044418692588806e-01" nType="-99"/>
            <Node pos="r" depth="3" NCoef="0" IVar="-1" Cut="0.0000000000000000e+00" cType="1" res="-6.0587027110159397e-03" rms="2.8753286600112915e-01" purity="6.7674809694290161e-01" nType="-99"/>
          </Node>
        </Node>
      </Node>
    </BinaryTree>
    <BinaryTree type="DecisionTree" boostWeight="1.0000000000000000e+00" itree="721">
      <Node pos="s" depth="0" NCoef="0" IVar="9" Cut="1.4666584730148315e+00" cType="1" res="1.6420708561781794e-05" rms="2.8471681475639343e-01" purity="4.9948620796203613e-01" nType="0">
        <Node pos="l" depth="1" NCoef="0" IVar="11" Cut="-1.8956748247146606e+00" cType="1" res="-1.2771455803886056e-03" rms="2.8557589650154114e-01" purity="5.2449589967727661e-01" nType="0">
          <Node pos="l" depth="2" NCoef="0" IVar="1" Cut="8.3596386015415192e-02" cType="1" res="-4.5064589940011501e-03" rms="2.9937699437141418e-01" purity="2.5666114687919617e-01" nType="0">
            <Node pos="l" depth="3" NCoef="0" IVar="-1" Cut="0.0000000000000000e+00" cType="1" res="-3.6346886190585792e-04" rms="2.7535566687583923e-01" purity="1.7817240953445435e-01" nType="-99"/>
            <Node pos="r" depth="3" NCoef="0" IVar="-1" Cut="0.0000000000000000e+00" cType="1" res="-1.3801491819322109e-02" rms="3.7172025442123413e-01" purity="5.3430408239364624e-01" nType="-99"/>
          </Node>
          <Node pos="r" depth="2" NCoef="0" IVar="3" Cut="2.0063232421875000e+02" cType="1" res="1.7484370619058609e-03" rms="2.7197608351707458e-01" purity="7.7543354034423828e-01" nType="0">
            <Node pos="l" depth="3" NCoef="0" IVar="-1" Cut="0.0000000000000000e+00" cType="1" res="-9.9824592471122742e-03" rms="3.1393188238143921e-01" purity="5.7191574573516846e-01" nType="-99"/>
            <Node pos="r" depth="3" NCoef="0" IVar="-1" Cut="0.0000000000000000e+00" cType="1" res="9.4820028170943260e-03" rms="2.5383979082107544e-01" purity="8.5375201702117920e-01" nType="-99"/>
          </Node>
        </Node>
        <Node pos="r" depth="1" NCoef="0" IVar="9" Cut="1.9745930433273315e+00" cType="1" res="1.3423304073512554e-02" rms="2.7529758214950562e-01" purity="2.4027881026268005e-01" nType="0">
          <Node pos="l" depth="2" NCoef="0" IVar="5" Cut="7.0270858764648438e+01" cType="1" res="3.1171292066574097e-02" rms="3.1445971131324768e-01" purity="3.2113912701606750e-01" nType="0">
            <Node pos="l" depth="3" NCoef="0" IVar="-1" Cut="0.0000000000000000e+00" cType="1" res="6.0104232281446457e-02" rms="2.8813415765762329e-01" purity="1.5877415239810944e-01" nType="-99"/>
            <Node pos="r" depth="3" NCoef="0" IVar="-1" Cut="0.0000000000000000e+00" cType="1" res="1.9446911290287971e-02" rms="3.3986192941665649e-01" purity="4.9301508069038391e-01" nType="-99"/>
          </Node>
          <Node pos="r" depth="2" NCoef="0" IVar="-1" Cut="0.0000000000000000e+00" cType="1" res="-2.2537996992468834e-02" rms="2.0465263724327087e-01" purity="1.2536710500717163e-01" nType="-99"/>
        </Node>
      </Node>
    </BinaryTree>
    <BinaryTree type="DecisionTree" boostWeight="1.0000000000000000e+00" itree="722">
      <Node pos="s" depth="0" NCoef="0" IVar="10" Cut="-2.2666592597961426e+00" cType="1" res="4.9384296289645135e-05" rms="2.8323349356651306e-01" purity="5.0112831592559814e-01" nType="0">
        <Node pos="l" depth="1" NCoef="0" IVar="-1" Cut="0.0000000000000000e+00" cType="1" res="-3.2468579709529877e-02" rms="2.4368833005428314e-01" purity="1.7170861363410950e-01" nType="-99"/>
        <Node pos="r" depth="1" NCoef="0" IVar="3" Cut="2.4241531372070312e+02" cType="1" res="6.8323581945151091e-04" rms="2.8420940041542053e-01" purity="5.1012212038040161e-01" nType="0">
          <Node pos="l" depth="2" NCoef="0" IVar="4" Cut="1.5103320312500000e+02" cType="1" res="3.8102157413959503e-03" rms="2.8591957688331604e-01" purity="3.8269659876823425e-01" nType="0">
            <Node pos="l" depth="3" NCoef="0" IVar="-1" Cut="0.0000000000000000e+00" cType="1" res="-1.6953019658103585e-03" rms="2.7659139037132263e-01" purity="2.3169875144958496e-01" nType="-99"/>
            <Node pos="r" depth="3" NCoef="0" IVar="-1" Cut="0.0000000000000000e+00" cType="1" res="1.4680730178952217e-02" rms="3.0294552445411682e-01" purity="6.7556244134902954e-01" nType="-99"/>
          </Node>
          <Node pos="r" depth="2" NCoef="0" IVar="0" Cut="1.6209569091796875e+03" cType="1" res="-3.9898063987493515e-03" rms="2.8156960010528564e-01" purity="7.0055013895034790e-01" nType="0">
            <Node pos="l" depth="3" NCoef="0" IVar="-1" Cut="0.0000000000000000e+00" cType="1" res="-1.3805844821035862e-02" rms="3.3815279603004456e-01" purity="3.2753574848175049e-01" nType="-99"/>
            <Node pos="r" depth="3" NCoef="0" IVar="-1" Cut="0.0000000000000000e+00" cType="1" res="3.0880590202286839e-04" rms="2.5899696350097656e-01" purity="8.2961720228195190e-01" nType="-99"/>
          </Node>
        </Node>
      </Node>
    </BinaryTree>
    <BinaryTree type="DecisionTree" boostWeight="1.0000000000000000e+00" itree="723">
      <Node pos="s" depth="0" NCoef="0" IVar="11" Cut="-5.1429104804992676e-01" cType="1" res="3.6375765921548009e-04" rms="2.8378313779830933e-01" purity="4.9801433086395264e-01" nType="0">
        <Node pos="l" depth="1" NCoef="0" IVar="4" Cut="1.7692834472656250e+02" cType="1" res="4.2015323415398598e-03" rms="2.8832739591598511e-01" purity="3.6126136779785156e-01" nType="0">
          <Node pos="l" depth="2" NCoef="0" IVar="4" Cut="1.6489765930175781e+02" cType="1" res="5.5416557006537914e-04" rms="2.7682811021804810e-01" purity="2.2533199191093445e-01" nType="0">
            <Node pos="l" depth="3" NCoef="0" IVar="-1" Cut="0.0000000000000000e+00" cType="1" res="3.6748675629496574e-03" rms="2.7209910750389099e-01" purity="2.0348247885704041e-01" nType="-99"/>
            <Node pos="r" depth="3" NCoef="0" IVar="-1" Cut="0.0000000000000000e+00" cType="1" res="-2.3597341030836105e-02" rms="3.2590124011039734e-01" purity="4.8056626319885254e-01" nType="-99"/>
          </Node>
          <Node pos="r" depth="2" NCoef="0" IVar="0" Cut="1.9458864746093750e+03" cType="1" res="1.2695041485130787e-02" rms="3.1331020593643188e-01" purity="6.7779576778411865e-01" nType="0">
            <Node pos="l" depth="3" NCoef="0" IVar="-1" Cut="0.0000000000000000e+00" cType="1" res="1.7992213368415833e-02" rms="3.4287270903587341e-01" purity="5.6552571058273315e-01" nType="-99"/>
            <Node pos="r" depth="3" NCoef="0" IVar="-1" Cut="0.0000000000000000e+00" cType="1" res="-3.5775403957813978e-03" rms="2.5412908196449280e-01" purity="8.7009167671203613e-01" nType="-99"/>
          </Node>
        </Node>
        <Node pos="r" depth="1" NCoef="0" IVar="6" Cut="6.7186195373535156e+01" cType="1" res="-6.8296249955892563e-03" rms="2.7491918206214905e-01" purity="7.5433897972106934e-01" nType="0">
          <Node pos="l" depth="2" NCoef="0" IVar="1" Cut="3.8100942969322205e-02" cType="1" res="-1.7257194966077805e-02" rms="3.3637323975563049e-01" purity="5.1828980445861816e-01" nType="0">
            <Node pos="l" depth="3" NCoef="0" IVar="-1" Cut="0.0000000000000000e+00" cType="1" res="2.1160515025258064e-03" rms="3.0799075961112976e-01" purity="2.8652355074882507e-01" nType="-99"/>
            <Node pos="r" depth="3" NCoef="0" IVar="-1" Cut="0.0000000000000000e+00" cType="1" res="-2.3408517241477966e-02" rms="3.5233342647552490e-01" purity="6.6232162714004517e-01" nType="-99"/>
          </Node>
          <Node pos="r" depth="2" NCoef="0" IVar="7" Cut="7.3226892948150635e-01" cType="1" res="-1.2896647676825523e-03" rms="2.3565612733364105e-01" purity="8.7974727153778076e-01" nType="0">
            <Node pos="l" depth="3" NCoef="0" IVar="-1" Cut="0.0000000000000000e+00" cType="1" res="2.6298791635781527e-03" rms="2.2237354516983032e-01" purity="9.0512865781784058e-01" nType="-99"/>
            <Node pos="r" depth="3" NCoef="0" IVar="-1" Cut="0.0000000000000000e+00" cType="1" res="-1.8268907442688942e-02" rms="2.9796585440635681e-01" purity="7.3996204137802124e-01" nType="-99"/>
          </Node>
        </Node>
      </Node>
    </BinaryTree>
    <BinaryTree type="DecisionTree" boostWeight="1.0000000000000000e+00" itree="724">
      <Node pos="s" depth="0" NCoef="0" IVar="2" Cut="3.4597048950195312e+02" cType="1" res="3.2089566811919212e-03" rms="2.8439339995384216e-01" purity="5.0449681282043457e-01" nType="0">
        <Node pos="l" depth="1" NCoef="0" IVar="3" Cut="1.7848605346679688e+02" cType="1" res="7.3896436952054501e-03" rms="2.8259104490280151e-01" purity="4.4080513715744019e-01" nType="0">
          <Node pos="l" depth="2" NCoef="0" IVar="1" Cut="4.1798166930675507e-02" cType="1" res="1.4058556407690048e-02" rms="2.7072188258171082e-01" purity="2.3260973393917084e-01" nType="0">
            <Node pos="l" depth="3" NCoef="0" IVar="-1" Cut="0.0000000000000000e+00" cType="1" res="-1.0486328974366188e-03" rms="1.9068564474582672e-01" purity="5.1977910101413727e-02" nType="-99"/>
            <Node pos="r" depth="3" NCoef="0" IVar="-1" Cut="0.0000000000000000e+00" cType="1" res="2.5672590360045433e-02" rms="3.3041709661483765e-01" purity="4.1011568903923035e-01" nType="-99"/>
          </Node>
          <Node pos="r" depth="2" NCoef="0" IVar="9" Cut="-1.3396731019020081e-01" cType="1" res="2.6548120658844709e-03" rms="2.9063105583190918e-01" purity="5.8862084150314331e-01" nType="0">
            <Node pos="l" depth="3" NCoef="0" IVar="-1" Cut="0.0000000000000000e+00" cType="1" res="1.2649365700781345e-02" rms="2.9398900270462036e-01" purity="5.8870029449462891e-01" nType="-99"/>
            <Node pos="r" depth="3" NCoef="0" IVar="-1" Cut="0.0000000000000000e+00" cType="1" res="-5.7454360648989677e-03" rms="2.8752982616424561e-01" purity="5.8855319023132324e-01" nType="-99"/>
          </Node>
        </Node>
        <Node pos="r" depth="1" NCoef="0" IVar="10" Cut="-6.6688150167465210e-01" cType="1" res="-8.2704279338940978e-04" rms="2.8606465458869934e-01" purity="5.6598424911499023e-01" nType="0">
          <Node pos="l" depth="2" NCoef="0" IVar="10" Cut="-1.2763271331787109e+00" cType="1" res="-8.2012899219989777e-03" rms="2.9254886507987976e-01" purity="5.1236116886138916e-01" nType="0">
            <Node pos="l" depth="3" NCoef="0" IVar="-1" Cut="0.0000000000000000e+00" cType="1" res="1.2919689761474729e-03" rms="3.1485864520072937e-01" purity="4.1435265541076660e-01" nType="-99"/>
            <Node pos="r" depth="3" NCoef="0" IVar="-1" Cut="0.0000000000000000e+00" cType="1" res="-2.0482702180743217e-02" rms="2.7122983336448669e-01" purity="5.9824460744857788e-01" nType="-99"/>
          </Node>
          <Node pos="r" depth="2" NCoef="0" IVar="6" Cut="6.0943733215332031e+01" cType="1" res="2.0526014268398285e-03" rms="2.8344023227691650e-01" purity="5.8692401647567749e-01" nType="0">
            <Node pos="l" depth="3" NCoef="0" IVar="-1" Cut="0.0000000000000000e+00" cType="1" res="-1.9518821500241756e-03" rms="3.1398594379425049e-01" purity="3.6033406853675842e-01" nType="-99"/>
            <Node pos="r" depth="3" NCoef="0" IVar="-1" Cut="0.0000000000000000e+00" cType="1" res="1.1662937700748444e-02" rms="2.3950003087520599e-01" purity="8.7165749073028564e-01" nType="-99"/>
          </Node>
        </Node>
      </Node>
    </BinaryTree>
    <BinaryTree type="DecisionTree" boostWeight="1.0000000000000000e+00" itree="725">
      <Node pos="s" depth="0" NCoef="0" IVar="10" Cut="-6.6686809062957764e-01" cType="1" res="1.0948260314762592e-03" rms="2.8357732295989990e-01" purity="4.9902993440628052e-01" nType="0">
        <Node pos="l" depth="1" NCoef="0" IVar="1" Cut="6.1348918825387955e-02" cType="1" res="-6.6092042252421379e-03" rms="2.8480681777000427e-01" purity="4.3888616561889648e-01" nType="0">
          <Node pos="l" depth="2" NCoef="0" IVar="10" Cut="-1.5810250043869019e+00" cType="1" res="1.5911548398435116e-03" rms="2.7008947730064392e-01" purity="2.2480244934558868e-01" nType="0">
            <Node pos="l" depth="3" NCoef="0" IVar="-1" Cut="0.0000000000000000e+00" cType="1" res="2.5797784328460693e-02" rms="2.6208671927452087e-01" purity="1.6478312015533447e-01" nType="-99"/>
            <Node pos="r" depth="3" NCoef="0" IVar="-1" Cut="0.0000000000000000e+00" cType="1" res="-9.3303769826889038e-03" rms="2.7450370788574219e-01" purity="2.6171121001243591e-01" nType="-99"/>
          </Node>
          <Node pos="r" depth="2" NCoef="0" IVar="4" Cut="1.6205354309082031e+02" cType="1" res="-1.6641844063997269e-02" rms="3.0153495073318481e-01" purity="7.0080459117889404e-01" nType="0">
            <Node pos="l" depth="3" NCoef="0" IVar="-1" Cut="0.0000000000000000e+00" cType="1" res="-2.8726818040013313e-02" rms="3.3824568986892700e-01" purity="4.8226696252822876e-01" nType="-99"/>
            <Node pos="r" depth="3" NCoef="0" IVar="-1" Cut="0.0000000000000000e+00" cType="1" res="-3.2141532283276320e-03" rms="2.7053710818290710e-01" purity="8.6130791902542114e-01" nType="-99"/>
          </Node>
        </Node>
        <Node pos="r" depth="1" NCoef="0" IVar="10" Cut="9.8367702960968018e-01" cType="1" res="4.2828368023037910e-03" rms="2.8300565481185913e-01" purity="5.2391809225082397e-01" nType="0">
          <Node pos="l" depth="2" NCoef="0" IVar="3" Cut="2.6707293701171875e+02" cType="1" res="7.4809924699366093e-03" rms="2.8258472681045532e-01" purity="5.7701450586318970e-01" nType="0">
            <Node pos="l" depth="3" NCoef="0" IVar="-1" Cut="0.0000000000000000e+00" cType="1" res="1.5159053727984428e-02" rms="2.8513088822364807e-01" purity="4.8564797639846802e-01" nType="-99"/>
            <Node pos="r" depth="3" NCoef="0" IVar="-1" Cut="0.0000000000000000e+00" cType="1" res="-3.7376626860350370e-03" rms="2.7720522880554199e-01" purity="7.5726759433746338e-01" nType="-99"/>
          </Node>
          <Node pos="r" depth="2" NCoef="0" IVar="4" Cut="1.7253141784667969e+02" cType="1" res="-2.7188700623810291e-03" rms="2.8379920125007629e-01" purity="4.0767422318458557e-01" nType="0">
            <Node pos="l" depth="3" NCoef="0" IVar="-1" Cut="0.0000000000000000e+00" cType="1" res="-1.4846156351268291e-02" rms="2.7032914757728577e-01" purity="2.5254678726196289e-01" nType="-99"/>
            <Node pos="r" depth="3" NCoef="0" IVar="-1" Cut="0.0000000000000000e+00" cType="1" res="1.6545617952942848e-02" rms="3.0757787823677063e-01" purity="7.1047568321228027e-01" nType="-99"/>
          </Node>
        </Node>
      </Node>
    </BinaryTree>
    <BinaryTree type="DecisionTree" boostWeight="1.0000000000000000e+00" itree="726">
      <Node pos="s" depth="0" NCoef="0" IVar="9" Cut="-6.6679990291595459e-01" cType="1" res="1.6615996719338000e-04" rms="2.8474369645118713e-01" purity="5.0319027900695801e-01" nType="0">
        <Node pos="l" depth="1" NCoef="0" IVar="7" Cut="4.3644696474075317e-01" cType="1" res="6.7590498365461826e-03" rms="2.8887078166007996e-01" purity="4.1832309961318970e-01" nType="0">
          <Node pos="l" depth="2" NCoef="0" IVar="10" Cut="-1.3373436033725739e-01" cType="1" res="1.2514743953943253e-02" rms="2.9607114195823669e-01" purity="4.7067049145698547e-01" nType="0">
            <Node pos="l" depth="3" NCoef="0" IVar="-1" Cut="0.0000000000000000e+00" cType="1" res="2.1665168926119804e-02" rms="2.9642185568809509e-01" purity="4.5620405673980713e-01" nType="-99"/>
            <Node pos="r" depth="3" NCoef="0" IVar="-1" Cut="0.0000000000000000e+00" cType="1" res="3.9415825158357620e-03" rms="2.9538172483444214e-01" purity="4.8876991868019104e-01" nType="-99"/>
          </Node>
          <Node pos="r" depth="2" NCoef="0" IVar="8" Cut="3.9964967966079712e-01" cType="1" res="-8.7139252573251724e-03" rms="2.6794657111167908e-01" purity="2.7759802341461182e-01" nType="0">
            <Node pos="l" depth="3" NCoef="0" IVar="-1" Cut="0.0000000000000000e+00" cType="1" res="-2.2930234670639038e-02" rms="2.7604448795318604e-01" purity="2.8245979547500610e-01" nType="-99"/>
            <Node pos="r" depth="3" NCoef="0" IVar="-1" Cut="0.0000000000000000e+00" cType="1" res="8.1401895731687546e-03" rms="2.5225597620010376e-01" purity="2.6893192529678345e-01" nType="-99"/>
          </Node>
        </Node>
        <Node pos="r" depth="1" NCoef="0" IVar="10" Cut="1.7331967353820801e+00" cType="1" res="-2.2739979904145002e-03" rms="2.8316202759742737e-01" purity="5.3460133075714111e-01" nType="0">
          <Node pos="l" depth="2" NCoef="0" IVar="10" Cut="-6.4132958650588989e-01" cType="1" res="-3.6988586653023958e-03" rms="2.8233695030212402e-01" purity="5.5022674798965454e-01" nType="0">
            <Node pos="l" depth="3" NCoef="0" IVar="-1" Cut="0.0000000000000000e+00" cType="1" res="3.4308468457311392e-03" rms="2.8538739681243896e-01" purity="5.0043874979019165e-01" nType="-99"/>
            <Node pos="r" depth="3" NCoef="0" IVar="-1" Cut="0.0000000000000000e+00" cType="1" res="-8.0991722643375397e-03" rms="2.8092917799949646e-01" purity="5.7223916053771973e-01" nType="-99"/>
          </Node>
          <Node pos="r" depth="2" NCoef="0" IVar="4" Cut="1.2816055297851562e+02" cType="1" res="1.4392373152077198e-02" rms="2.9212433099746704e-01" purity="3.5183373093605042e-01" nType="0">
            <Node pos="l" depth="3" NCoef="0" IVar="-1" Cut="0.0000000000000000e+00" cType="1" res="-3.3352378522977233e-04" rms="2.1998068690299988e-01" purity="1.3497859239578247e-01" nType="-99"/>
            <Node pos="r" depth="3" NCoef="0" IVar="-1" Cut="0.0000000000000000e+00" cType="1" res="2.4533394724130630e-02" rms="3.3801984786987305e-01" purity="5.2336031198501587e-01" nType="-99"/>
          </Node>
        </Node>
      </Node>
    </BinaryTree>
    <BinaryTree type="DecisionTree" boostWeight="1.0000000000000000e+00" itree="727">
      <Node pos="s" depth="0" NCoef="0" IVar="10" Cut="-9.3333214521408081e-01" cType="1" res="-1.3372837565839291e-03" rms="2.8452822566032410e-01" purity="4.9807962775230408e-01" nType="0">
        <Node pos="l" depth="1" NCoef="0" IVar="8" Cut="-1.4674695730209351e+00" cType="1" res="-7.6357983052730560e-03" rms="2.8439429402351379e-01" purity="4.0190833806991577e-01" nType="0">
          <Node pos="l" depth="2" NCoef="0" IVar="-1" Cut="0.0000000000000000e+00" cType="1" res="2.2825442254543304e-02" rms="2.3332148790359497e-01" purity="1.2579523026943207e-01" nType="-99"/>
          <Node pos="r" depth="2" NCoef="0" IVar="11" Cut="3.1361880898475647e-01" cType="1" res="-1.0174778290092945e-02" rms="2.9033476114273071e-01" purity="4.3814107775688171e-01" nType="0">
            <Node pos="l" depth="3" NCoef="0" IVar="-1" Cut="0.0000000000000000e+00" cType="1" res="-7.0690913125872612e-03" rms="2.9357454180717468e-01" purity="3.8651674985885620e-01" nType="-99"/>
            <Node pos="r" depth="3" NCoef="0" IVar="-1" Cut="0.0000000000000000e+00" cType="1" res="-3.5283494740724564e-02" rms="2.7421817183494568e-01" purity="6.7527383565902710e-01" nType="-99"/>
          </Node>
        </Node>
        <Node pos="r" depth="1" NCoef="0" IVar="0" Cut="1.3948435058593750e+03" cType="1" res="4.6643029781989753e-04" rms="2.8454089164733887e-01" purity="5.2562028169631958e-01" nType="0">
          <Node pos="l" depth="2" NCoef="0" IVar="4" Cut="1.7253179931640625e+02" cType="1" res="5.0467387773096561e-03" rms="2.9079732298851013e-01" purity="2.0917835831642151e-01" nType="0">
            <Node pos="l" depth="3" NCoef="0" IVar="-1" Cut="0.0000000000000000e+00" cType="1" res="2.6109393220394850e-03" rms="2.7948161959648132e-01" purity="1.8752110004425049e-01" nType="-99"/>
            <Node pos="r" depth="3" NCoef="0" IVar="-1" Cut="0.0000000000000000e+00" cType="1" res="2.3356491699814796e-02" rms="3.7758439779281616e-01" purity="4.0648978948593140e-01" nType="-99"/>
          </Node>
          <Node pos="r" depth="2" NCoef="0" IVar="0" Cut="1.6639313964843750e+03" cType="1" res="-2.8790486976504326e-03" rms="2.7983540296554565e-01" purity="7.5675100088119507e-01" nType="0">
            <Node pos="l" depth="3" NCoef="0" IVar="-1" Cut="0.0000000000000000e+00" cType="1" res="-8.8987583294510841e-03" rms="3.3168491721153259e-01" purity="5.9790784120559692e-01" nType="-99"/>
            <Node pos="r" depth="3" NCoef="0" IVar="-1" Cut="0.0000000000000000e+00" cType="1" res="1.3604664709419012e-03" rms="2.4677218496799469e-01" purity="8.4377855062484741e-01" nType="-99"/>
          </Node>
        </Node>
      </Node>
    </BinaryTree>
    <BinaryTree type="DecisionTree" boostWeight="1.0000000000000000e+00" itree="728">
      <Node pos="s" depth="0" NCoef="0" IVar="10" Cut="1.4660226106643677e+00" cType="1" res="-3.0826395959593356e-04" rms="2.8326836228370667e-01" purity="5.0357556343078613e-01" nType="0">
        <Node pos="l" depth="1" NCoef="0" IVar="2" Cut="4.9194171142578125e+02" cType="1" res="9.6155627397820354e-04" rms="2.8377389907836914e-01" purity="5.2614539861679077e-01" nType="0">
          <Node pos="l" depth="2" NCoef="0" IVar="11" Cut="-1.8952404260635376e+00" cType="1" res="-1.1428435100242496e-03" rms="2.8297007083892822e-01" purity="5.0254136323928833e-01" nType="0">
            <Node pos="l" depth="3" NCoef="0" IVar="-1" Cut="0.0000000000000000e+00" cType="1" res="-7.5773498974740505e-03" rms="2.9586824774742126e-01" purity="2.2575910389423370e-01" nType="-99"/>
            <Node pos="r" depth="3" NCoef="0" IVar="-1" Cut="0.0000000000000000e+00" cType="1" res="5.0081550143659115e-03" rms="2.7037799358367920e-01" purity="7.5887531042098999e-01" nType="-99"/>
          </Node>
          <Node pos="r" depth="2" NCoef="0" IVar="9" Cut="6.6667574644088745e-01" cType="1" res="9.1141732409596443e-03" rms="2.8672096133232117e-01" purity="6.1758953332901001e-01" nType="0">
            <Node pos="l" depth="3" NCoef="0" IVar="-1" Cut="0.0000000000000000e+00" cType="1" res="1.5724435448646545e-02" rms="2.8586345911026001e-01" purity="6.4940303564071655e-01" nType="-99"/>
            <Node pos="r" depth="3" NCoef="0" IVar="-1" Cut="0.0000000000000000e+00" cType="1" res="-7.8514162451028824e-03" rms="2.8905025124549866e-01" purity="5.0832784175872803e-01" nType="-99"/>
          </Node>
        </Node>
        <Node pos="r" depth="1" NCoef="0" IVar="8" Cut="9.3159347772598267e-01" cType="1" res="-1.0079278610646725e-02" rms="2.7915453910827637e-01" purity="3.2990536093711853e-01" nType="0">
          <Node pos="l" depth="2" NCoef="0" IVar="7" Cut="-3.5093495249748230e-01" cType="1" res="-2.9177546966820955e-03" rms="2.9599893093109131e-01" purity="3.8206982612609863e-01" nType="0">
            <Node pos="l" depth="3" NCoef="0" IVar="-1" Cut="0.0000000000000000e+00" cType="1" res="-2.4687658995389938e-02" rms="2.7622821927070618e-01" purity="3.0888673663139343e-01" nType="-99"/>
            <Node pos="r" depth="3" NCoef="0" IVar="-1" Cut="0.0000000000000000e+00" cType="1" res="5.4520457051694393e-03" rms="3.0442392826080322e-01" purity="4.1611713171005249e-01" nType="-99"/>
          </Node>
          <Node pos="r" depth="2" NCoef="0" IVar="-1" Cut="0.0000000000000000e+00" cType="1" res="-4.7210786491632462e-02" rms="2.2355729341506958e-01" purity="1.8240374326705933e-01" nType="-99"/>
        </Node>
      </Node>
    </BinaryTree>
    <BinaryTree type="DecisionTree" boostWeight="1.0000000000000000e+00" itree="729">
      <Node pos="s" depth="0" NCoef="0" IVar="10" Cut="2.2665197849273682e+00" cType="1" res="-2.9724315027124248e-05" rms="2.8303444385528564e-01" purity="5.0143939256668091e-01" nType="0">
        <Node pos="l" depth="1" NCoef="0" IVar="6" Cut="6.1998222351074219e+01" cType="1" res="7.3485163738951087e-04" rms="2.8342854976654053e-01" purity="5.0980854034423828e-01" nType="0">
          <Node pos="l" depth="2" NCoef="0" IVar="9" Cut="-6.6670638322830200e-01" cType="1" res="3.6108838394284248e-03" rms="3.0380994081497192e-01" purity="2.9992580413818359e-01" nType="0">
            <Node pos="l" depth="3" NCoef="0" IVar="-1" Cut="0.0000000000000000e+00" cType="1" res="1.3043954037129879e-02" rms="2.8801098465919495e-01" purity="2.3750181496143341e-01" nType="-99"/>
            <Node pos="r" depth="3" NCoef="0" IVar="-1" Cut="0.0000000000000000e+00" cType="1" res="4.3296100920997560e-04" rms="3.1020414829254150e-01" purity="3.2636508345603943e-01" nType="-99"/>
          </Node>
          <Node pos="r" depth="2" NCoef="0" IVar="9" Cut="-6.6633284091949463e-01" cType="1" res="-3.7737849634140730e-03" rms="2.4806359410285950e-01" purity="8.3883315324783325e-01" nType="0">
            <Node pos="l" depth="3" NCoef="0" IVar="-1" Cut="0.0000000000000000e+00" cType="1" res="-1.8829068168997765e-02" rms="2.7833792567253113e-01" purity="7.6968383789062500e-01" nType="-99"/>
            <Node pos="r" depth="3" NCoef="0" IVar="-1" Cut="0.0000000000000000e+00" cType="1" res="-1.1776038445532322e-03" rms="2.3874706029891968e-01" purity="8.5832738876342773e-01" nType="-99"/>
          </Node>
        </Node>
        <Node pos="r" depth="1" NCoef="0" IVar="-1" Cut="0.0000000000000000e+00" cType="1" res="-3.9359353482723236e-02" rms="2.6579335331916809e-01" purity="1.7988206446170807e-01" nType="-99"/>
      </Node>
    </BinaryTree>
    <BinaryTree type="DecisionTree" boostWeight="1.0000000000000000e+00" itree="730">
      <Node pos="s" depth="0" NCoef="0" IVar="8" Cut="-1.7332493066787720e+00" cType="1" res="1.4386711409315467e-03" rms="2.8538599610328674e-01" purity="4.9643549323081970e-01" nType="0">
        <Node pos="l" depth="1" NCoef="0" IVar="1" Cut="1.5591981820762157e-02" cType="1" res="2.1314671263098717e-02" rms="2.3430947959423065e-01" purity="1.2507687509059906e-01" nType="0">
          <Node pos="l" depth="2" NCoef="0" IVar="-1" Cut="0.0000000000000000e+00" cType="1" res="1.0554565116763115e-02" rms="1.4087979495525360e-01" purity="2.9920587316155434e-02" nType="-99"/>
          <Node pos="r" depth="2" NCoef="0" IVar="-1" Cut="0.0000000000000000e+00" cType="1" res="5.6851964443922043e-02" rms="3.0353343486785889e-01" purity="2.2840306162834167e-01" nType="-99"/>
        </Node>
        <Node pos="r" depth="1" NCoef="0" IVar="10" Cut="-2.2666139602661133e+00" cType="1" res="2.9930158052593470e-04" rms="2.8799799084663391e-01" purity="5.1772320270538330e-01" nType="0">
          <Node pos="l" depth="2" NCoef="0" IVar="-1" Cut="0.0000000000000000e+00" cType="1" res="3.6080751568078995e-02" rms="3.0230146646499634e-01" purity="2.8430640697479248e-01" nType="-99"/>
          <Node pos="r" depth="2" NCoef="0" IVar="8" Cut="4.2538937926292419e-01" cType="1" res="-5.3499086061492562e-04" rms="2.8753098845481873e-01" purity="5.2446842193603516e-01" nType="0">
            <Node pos="l" depth="3" NCoef="0" IVar="-1" Cut="0.0000000000000000e+00" cType="1" res="-4.5344065874814987e-03" rms="2.8879621624946594e-01" purity="5.7258880138397217e-01" nType="-99"/>
            <Node pos="r" depth="3" NCoef="0" IVar="-1" Cut="0.0000000000000000e+00" cType="1" res="6.8833935074508190e-03" rms="2.8509330749511719e-01" purity="4.3626621365547180e-01" nType="-99"/>
          </Node>
        </Node>
      </Node>
    </BinaryTree>
    <BinaryTree type="DecisionTree" boostWeight="1.0000000000000000e+00" itree="731">
      <Node pos="s" depth="0" NCoef="0" IVar="9" Cut="1.4664963483810425e+00" cType="1" res="3.7152043660171330e-04" rms="2.8258588910102844e-01" purity="5.0186347961425781e-01" nType="0">
        <Node pos="l" depth="1" NCoef="0" IVar="1" Cut="1.0458913445472717e-01" cType="1" res="1.7976891249418259e-03" rms="2.8520169854164124e-01" purity="5.2948844432830811e-01" nType="0">
          <Node pos="l" depth="2" NCoef="0" IVar="9" Cut="1.0601630210876465e+00" cType="1" res="-8.3424686454236507e-04" rms="2.9376280307769775e-01" purity="3.9710077643394470e-01" nType="0">
            <Node pos="l" depth="3" NCoef="0" IVar="-1" Cut="0.0000000000000000e+00" cType="1" res="-2.8068511746823788e-03" rms="2.9295256733894348e-01" purity="4.0492686629295349e-01" nType="-99"/>
            <Node pos="r" depth="3" NCoef="0" IVar="-1" Cut="0.0000000000000000e+00" cType="1" res="1.7555803060531616e-02" rms="3.0105665326118469e-01" purity="3.2068973779678345e-01" nType="-99"/>
          </Node>
          <Node pos="r" depth="2" NCoef="0" IVar="4" Cut="1.7656701660156250e+02" cType="1" res="8.1495698541402817e-03" rms="2.6328843832015991e-01" purity="8.4899127483367920e-01" nType="0">
            <Node pos="l" depth="3" NCoef="0" IVar="-1" Cut="0.0000000000000000e+00" cType="1" res="1.8645625561475754e-02" rms="3.1746375560760498e-01" purity="7.4018388986587524e-01" nType="-99"/>
            <Node pos="r" depth="3" NCoef="0" IVar="-1" Cut="0.0000000000000000e+00" cType="1" res="-2.8491471894085407e-03" rms="2.0936860144138336e-01" purity="9.3644350767135620e-01" nType="-99"/>
          </Node>
        </Node>
        <Node pos="r" depth="1" NCoef="0" IVar="0" Cut="1.2106295166015625e+03" cType="1" res="-1.4903102070093155e-02" rms="2.5237366557121277e-01" purity="2.0599254965782166e-01" nType="0">
          <Node pos="l" depth="2" NCoef="0" IVar="-1" Cut="0.0000000000000000e+00" cType="1" res="-1.4954142970964313e-03" rms="1.8552461266517639e-01" purity="4.5517653226852417e-02" nType="-99"/>
          <Node pos="r" depth="2" NCoef="0" IVar="-1" Cut="0.0000000000000000e+00" cType="1" res="-2.5595359504222870e-02" rms="2.9071918129920959e-01" purity="3.2156077027320862e-01" nType="-99"/>
        </Node>
      </Node>
    </BinaryTree>
    <BinaryTree type="DecisionTree" boostWeight="1.0000000000000000e+00" itree="732">
      <Node pos="s" depth="0" NCoef="0" IVar="7" Cut="-9.0095347166061401e-01" cType="1" res="-2.4821219267323613e-04" rms="2.8163942694664001e-01" purity="4.9939069151878357e-01" nType="0">
        <Node pos="l" depth="1" NCoef="0" IVar="1" Cut="2.9204780235886574e-02" cType="1" res="-8.8271824643015862e-03" rms="2.5021201372146606e-01" purity="2.4062423408031464e-01" nType="0">
          <Node pos="l" depth="2" NCoef="0" IVar="2" Cut="3.8565188598632812e+02" cType="1" res="-1.8210646230727434e-03" rms="2.0289081335067749e-01" purity="8.3273835480213165e-02" nType="0">
            <Node pos="l" depth="3" NCoef="0" IVar="-1" Cut="0.0000000000000000e+00" cType="1" res="1.1936075054109097e-02" rms="1.9473522901535034e-01" purity="6.5243683755397797e-02" nType="-99"/>
            <Node pos="r" depth="3" NCoef="0" IVar="-1" Cut="0.0000000000000000e+00" cType="1" res="-2.2804006934165955e-02" rms="2.1515884995460510e-01" purity="1.1273287981748581e-01" nType="-99"/>
          </Node>
          <Node pos="r" depth="2" NCoef="0" IVar="10" Cut="-1.3233940303325653e-01" cType="1" res="-1.8391413614153862e-02" rms="3.0284932255744934e-01" purity="4.5542731881141663e-01" nType="0">
            <Node pos="l" depth="3" NCoef="0" IVar="-1" Cut="0.0000000000000000e+00" cType="1" res="-6.1186794191598892e-03" rms="3.1385099887847900e-01" purity="4.6074232459068298e-01" nType="-99"/>
            <Node pos="r" depth="3" NCoef="0" IVar="-1" Cut="0.0000000000000000e+00" cType="1" res="-2.9208485037088394e-02" rms="2.9106160998344421e-01" purity="4.5016837120056152e-01" nType="-99"/>
          </Node>
        </Node>
        <Node pos="r" depth="1" NCoef="0" IVar="9" Cut="1.4663915634155273e+00" cType="1" res="1.2967914808541536e-03" rms="2.8690645098686218e-01" purity="5.4599243402481079e-01" nType="0">
          <Node pos="l" depth="2" NCoef="0" IVar="8" Cut="9.3328803777694702e-01" cType="1" res="2.4152435362339020e-03" rms="2.8924864530563354e-01" purity="5.7441312074661255e-01" nType="0">
            <Node pos="l" depth="3" NCoef="0" IVar="-1" Cut="0.0000000000000000e+00" cType="1" res="1.2018822599202394e-03" rms="2.8945451974868774e-01" purity="6.1022543907165527e-01" nType="-99"/>
            <Node pos="r" depth="3" NCoef="0" IVar="-1" Cut="0.0000000000000000e+00" cType="1" res="1.1844870634377003e-02" rms="2.8800112009048462e-01" purity="3.7805354595184326e-01" nType="-99"/>
          </Node>
          <Node pos="r" depth="2" NCoef="0" IVar="8" Cut="-1.3378888368606567e-01" cType="1" res="-1.0827966965734959e-02" rms="2.5985682010650635e-01" purity="2.3789326846599579e-01" nType="0">
            <Node pos="l" depth="3" NCoef="0" IVar="-1" Cut="0.0000000000000000e+00" cType="1" res="6.3126377062872052e-04" rms="2.5192409753799438e-01" purity="2.1479946374893188e-01" nType="-99"/>
            <Node pos="r" depth="3" NCoef="0" IVar="-1" Cut="0.0000000000000000e+00" cType="1" res="-2.2320104762911797e-02" rms="2.6468899846076965e-01" purity="2.5310146808624268e-01" nType="-99"/>
          </Node>
        </Node>
      </Node>
    </BinaryTree>
    <BinaryTree type="DecisionTree" boostWeight="1.0000000000000000e+00" itree="733">
      <Node pos="s" depth="0" NCoef="0" IVar="7" Cut="6.8550705909729004e-01" cType="1" res="-1.1520952102728188e-04" rms="2.8404593467712402e-01" purity="5.0464475154876709e-01" nType="0">
        <Node pos="l" depth="1" NCoef="0" IVar="9" Cut="-4.0006664395332336e-01" cType="1" res="2.0647074561566114e-03" rms="2.9064226150512695e-01" purity="5.5882364511489868e-01" nType="0">
          <Node pos="l" depth="2" NCoef="0" IVar="8" Cut="9.3290024995803833e-01" cType="1" res="-4.4264267198741436e-03" rms="2.9351416230201721e-01" purity="5.0606274604797363e-01" nType="0">
            <Node pos="l" depth="3" NCoef="0" IVar="-1" Cut="0.0000000000000000e+00" cType="1" res="-1.0654783109202981e-03" rms="2.9736423492431641e-01" purity="5.4582983255386353e-01" nType="-99"/>
            <Node pos="r" depth="3" NCoef="0" IVar="-1" Cut="0.0000000000000000e+00" cType="1" res="-3.3328458666801453e-02" rms="2.6854792237281799e-01" purity="2.6937800645828247e-01" nType="-99"/>
          </Node>
          <Node pos="r" depth="2" NCoef="0" IVar="8" Cut="4.0024876594543457e-01" cType="1" res="5.6971171870827675e-03" rms="2.8895908594131470e-01" purity="5.8834844827651978e-01" nType="0">
            <Node pos="l" depth="3" NCoef="0" IVar="-1" Cut="0.0000000000000000e+00" cType="1" res="2.1755397319793701e-03" rms="2.8832936286926270e-01" purity="6.2228190898895264e-01" nType="-99"/>
            <Node pos="r" depth="3" NCoef="0" IVar="-1" Cut="0.0000000000000000e+00" cType="1" res="1.5059702098369598e-02" rms="2.8997537493705750e-01" purity="5.2608323097229004e-01" nType="-99"/>
          </Node>
        </Node>
        <Node pos="r" depth="1" NCoef="0" IVar="7" Cut="7.8618454933166504e-01" cType="1" res="-7.9140299931168556e-03" rms="2.5892528891563416e-01" purity="3.1081545352935791e-01" nType="0">
          <Node pos="l" depth="2" NCoef="0" IVar="-1" Cut="0.0000000000000000e+00" cType="1" res="-3.1674534082412720e-02" rms="2.9260328412055969e-01" purity="4.8857176303863525e-01" nType="-99"/>
          <Node pos="r" depth="2" NCoef="0" IVar="7" Cut="8.8210159540176392e-01" cType="1" res="-4.7975000925362110e-03" rms="2.5325495004653931e-01" purity="2.8372484445571899e-01" nType="0">
            <Node pos="l" depth="3" NCoef="0" IVar="-1" Cut="0.0000000000000000e+00" cType="1" res="1.4477694407105446e-02" rms="3.1367334723472595e-01" purity="5.0781339406967163e-01" nType="-99"/>
            <Node pos="r" depth="3" NCoef="0" IVar="-1" Cut="0.0000000000000000e+00" cType="1" res="-1.1618378572165966e-02" rms="2.4238874018192291e-01" purity="2.4889223277568817e-01" nType="-99"/>
          </Node>
        </Node>
      </Node>
    </BinaryTree>
    <BinaryTree type="DecisionTree" boostWeight="1.0000000000000000e+00" itree="734">
      <Node pos="s" depth="0" NCoef="0" IVar="3" Cut="3.3656466674804688e+02" cType="1" res="-8.8245014194399118e-04" rms="2.8122374415397644e-01" purity="5.0009393692016602e-01" nType="0">
        <Node pos="l" depth="1" NCoef="0" IVar="9" Cut="6.6658037900924683e-01" cType="1" res="6.0600077267736197e-04" rms="2.8199070692062378e-01" purity="4.6097877621650696e-01" nType="0">
          <Node pos="l" depth="2" NCoef="0" IVar="9" Cut="5.0149303674697876e-01" cType="1" res="2.5409783702343702e-03" rms="2.8465303778648376e-01" purity="4.9731317162513733e-01" nType="0">
            <Node pos="l" depth="3" NCoef="0" IVar="-1" Cut="0.0000000000000000e+00" cType="1" res="1.1332380818203092e-03" rms="2.8416830301284790e-01" purity="4.9216592311859131e-01" nType="-99"/>
            <Node pos="r" depth="3" NCoef="0" IVar="-1" Cut="0.0000000000000000e+00" cType="1" res="2.7899960055947304e-02" rms="2.9011243581771851e-01" purity="5.6456583738327026e-01" nType="-99"/>
          </Node>
          <Node pos="r" depth="2" NCoef="0" IVar="10" Cut="1.4661639928817749e+00" cType="1" res="-4.6219420619308949e-03" rms="2.7460041642189026e-01" purity="3.6281007528305054e-01" nType="0">
            <Node pos="l" depth="3" NCoef="0" IVar="-1" Cut="0.0000000000000000e+00" cType="1" res="-1.0397671721875668e-02" rms="2.7151235938072205e-01" purity="3.8347643613815308e-01" nType="-99"/>
            <Node pos="r" depth="3" NCoef="0" IVar="-1" Cut="0.0000000000000000e+00" cType="1" res="1.9398069009184837e-02" rms="2.8963756561279297e-01" purity="2.5327929854393005e-01" nType="-99"/>
          </Node>
        </Node>
        <Node pos="r" depth="1" NCoef="0" IVar="5" Cut="8.8200637817382812e+01" cType="1" res="-9.6068317070603371e-03" rms="2.7652448415756226e-01" purity="7.2936284542083740e-01" nType="0">
          <Node pos="l" depth="2" NCoef="0" IVar="7" Cut="1.0615235194563866e-02" cType="1" res="-2.4509638547897339e-02" rms="3.3211439847946167e-01" purity="4.6950870752334595e-01" nType="0">
            <Node pos="l" depth="3" NCoef="0" IVar="-1" Cut="0.0000000000000000e+00" cType="1" res="-3.5820417106151581e-02" rms="3.3345293998718262e-01" purity="4.7324070334434509e-01" nType="-99"/>
            <Node pos="r" depth="3" NCoef="0" IVar="-1" Cut="0.0000000000000000e+00" cType="1" res="-6.2652952037751675e-03" rms="3.2987025380134583e-01" purity="4.6575066447257996e-01" nType="-99"/>
          </Node>
          <Node pos="r" depth="2" NCoef="0" IVar="8" Cut="-1.2353689223527908e-01" cType="1" res="-6.4365519210696220e-04" rms="2.3643724620342255e-01" purity="8.8565015792846680e-01" nType="0">
            <Node pos="l" depth="3" NCoef="0" IVar="-1" Cut="0.0000000000000000e+00" cType="1" res="9.5839137211441994e-03" rms="2.3407818377017975e-01" purity="8.8968998193740845e-01" nType="-99"/>
            <Node pos="r" depth="3" NCoef="0" IVar="-1" Cut="0.0000000000000000e+00" cType="1" res="-1.0381384752690792e-02" rms="2.3812307417392731e-01" purity="8.8252472877502441e-01" nType="-99"/>
          </Node>
        </Node>
      </Node>
    </BinaryTree>
    <BinaryTree type="DecisionTree" boostWeight="1.0000000000000000e+00" itree="735">
      <Node pos="s" depth="0" NCoef="0" IVar="4" Cut="1.3462727355957031e+02" cType="1" res="-2.3930077441036701e-03" rms="2.8056547045707703e-01" purity="4.9782311916351318e-01" nType="0">
        <Node pos="l" depth="1" NCoef="0" IVar="1" Cut="2.0917570218443871e-02" cType="1" res="-6.8534598685801029e-03" rms="2.5819993019104004e-01" purity="1.8132989108562469e-01" nType="0">
          <Node pos="l" depth="2" NCoef="0" IVar="11" Cut="-2.4478974342346191e+00" cType="1" res="1.0931811993941665e-03" rms="1.6828522086143494e-01" purity="4.3800447136163712e-02" nType="0">
            <Node pos="l" depth="3" NCoef="0" IVar="-1" Cut="0.0000000000000000e+00" cType="1" res="-1.4649243094027042e-02" rms="1.4237393438816071e-01" purity="2.4714279919862747e-02" nType="-99"/>
            <Node pos="r" depth="3" NCoef="0" IVar="-1" Cut="0.0000000000000000e+00" cType="1" res="3.6410745233297348e-02" rms="2.5158300995826721e-01" purity="1.2780700623989105e-01" nType="-99"/>
          </Node>
          <Node pos="r" depth="2" NCoef="0" IVar="9" Cut="-6.6698592901229858e-01" cType="1" res="-1.2034560553729534e-02" rms="3.0265671014785767e-01" purity="2.7099719643592834e-01" nType="0">
            <Node pos="l" depth="3" NCoef="0" IVar="-1" Cut="0.0000000000000000e+00" cType="1" res="3.5774143179878592e-04" rms="3.1063812971115112e-01" purity="2.6191055774688721e-01" nType="-99"/>
            <Node pos="r" depth="3" NCoef="0" IVar="-1" Cut="0.0000000000000000e+00" cType="1" res="-1.7246838659048080e-02" rms="2.9876348376274109e-01" purity="2.7515399456024170e-01" nType="-99"/>
          </Node>
        </Node>
        <Node pos="r" depth="1" NCoef="0" IVar="8" Cut="1.4664875268936157e+00" cType="1" res="3.2731980900280178e-04" rms="2.9333657026290894e-01" purity="6.9084513187408447e-01" nType="0">
          <Node pos="l" depth="2" NCoef="0" IVar="8" Cut="-3.6186790466308594e-01" cType="1" res="1.6936581814661622e-03" rms="2.9474520683288574e-01" purity="7.1250408887863159e-01" nType="0">
            <Node pos="l" depth="3" NCoef="0" IVar="-1" Cut="0.0000000000000000e+00" cType="1" res="-6.0297111049294472e-03" rms="2.9899069666862488e-01" purity="6.3192147016525269e-01" nType="-99"/>
            <Node pos="r" depth="3" NCoef="0" IVar="-1" Cut="0.0000000000000000e+00" cType="1" res="6.3466839492321014e-03" rms="2.9238680005073547e-01" purity="7.5541132688522339e-01" nType="-99"/>
          </Node>
          <Node pos="r" depth="2" NCoef="0" IVar="-1" Cut="0.0000000000000000e+00" cType="1" res="-3.1604852527379990e-02" rms="2.6380318403244019e-01" purity="2.7919739484786987e-01" nType="-99"/>
        </Node>
      </Node>
    </BinaryTree>
    <BinaryTree type="DecisionTree" boostWeight="1.0000000000000000e+00" itree="736">
      <Node pos="s" depth="0" NCoef="0" IVar="11" Cut="3.8012538105249405e-02" cType="1" res="2.1335238125175238e-03" rms="2.8277632594108582e-01" purity="5.0138306617736816e-01" nType="0">
        <Node pos="l" depth="1" NCoef="0" IVar="10" Cut="-1.9999899864196777e+00" cType="1" res="-1.1269610840827227e-03" rms="2.8350102901458740e-01" purity="4.1316440701484680e-01" nType="0">
          <Node pos="l" depth="2" NCoef="0" IVar="-1" Cut="0.0000000000000000e+00" cType="1" res="2.3848427459597588e-02" rms="2.8662255406379700e-01" purity="2.1930137276649475e-01" nType="-99"/>
          <Node pos="r" depth="2" NCoef="0" IVar="7" Cut="-9.6860431134700775e-02" cType="1" res="-2.2317238617688417e-03" rms="2.8327593207359314e-01" purity="4.2469382286071777e-01" nType="0">
            <Node pos="l" depth="3" NCoef="0" IVar="-1" Cut="0.0000000000000000e+00" cType="1" res="2.1302907261997461e-03" rms="2.8240975737571716e-01" purity="4.2580637335777283e-01" nType="-99"/>
            <Node pos="r" depth="3" NCoef="0" IVar="-1" Cut="0.0000000000000000e+00" cType="1" res="-6.8342927843332291e-03" rms="2.8399294614791870e-01" purity="4.2370900511741638e-01" nType="-99"/>
          </Node>
        </Node>
        <Node pos="r" depth="1" NCoef="0" IVar="0" Cut="1.2991364746093750e+03" cType="1" res="1.1435803957283497e-02" rms="2.8049018979072571e-01" purity="7.5307416915893555e-01" nType="0">
          <Node pos="l" depth="2" NCoef="0" IVar="-1" Cut="0.0000000000000000e+00" cType="1" res="2.9256278648972511e-02" rms="3.5965237021446228e-01" purity="3.3515343070030212e-01" nType="-99"/>
          <Node pos="r" depth="2" NCoef="0" IVar="10" Cut="1.1989690065383911e+00" cType="1" res="6.4181853085756302e-03" rms="2.6231449842453003e-01" purity="8.3314716815948486e-01" nType="0">
            <Node pos="l" depth="3" NCoef="0" IVar="-1" Cut="0.0000000000000000e+00" cType="1" res="4.1382010094821453e-03" rms="2.5652766227722168e-01" purity="8.4728986024856567e-01" nType="-99"/>
            <Node pos="r" depth="3" NCoef="0" IVar="-1" Cut="0.0000000000000000e+00" cType="1" res="2.8406739234924316e-02" rms="2.9387170076370239e-01" purity="7.4781548976898193e-01" nType="-99"/>
          </Node>
        </Node>
      </Node>
    </BinaryTree>
    <BinaryTree type="DecisionTree" boostWeight="1.0000000000000000e+00" itree="737">
      <Node pos="s" depth="0" NCoef="0" IVar="8" Cut="-1.4665532112121582e+00" cType="1" res="-2.8295170050114393e-03" rms="2.8311029076576233e-01" purity="4.9401786923408508e-01" nType="0">
        <Node pos="l" depth="1" NCoef="0" IVar="8" Cut="-2.0379595756530762e+00" cType="1" res="1.3349238783121109e-02" rms="2.5410673022270203e-01" purity="1.7943470180034637e-01" nType="0">
          <Node pos="l" depth="2" NCoef="0" IVar="-1" Cut="0.0000000000000000e+00" cType="1" res="-2.7586042881011963e-02" rms="1.4599108695983887e-01" purity="8.2654431462287903e-02" nType="-99"/>
          <Node pos="r" depth="2" NCoef="0" IVar="10" Cut="-1.3189026713371277e-01" cType="1" res="2.4981621652841568e-02" rms="2.9275465011596680e-01" purity="2.2763167321681976e-01" nType="0">
            <Node pos="l" depth="3" NCoef="0" IVar="-1" Cut="0.0000000000000000e+00" cType="1" res="1.4985177665948868e-02" rms="2.8709989786148071e-01" purity="2.0138436555862427e-01" nType="-99"/>
            <Node pos="r" depth="3" NCoef="0" IVar="-1" Cut="0.0000000000000000e+00" cType="1" res="5.3912393748760223e-02" rms="2.9822701215744019e-01" purity="2.5747159123420715e-01" nType="-99"/>
          </Node>
        </Node>
        <Node pos="r" depth="1" NCoef="0" IVar="10" Cut="-4.0005168318748474e-01" cType="1" res="-4.2356746271252632e-03" rms="2.8544864058494568e-01" purity="5.2135956287384033e-01" nType="0">
          <Node pos="l" depth="2" NCoef="0" IVar="8" Cut="-1.0602720975875854e+00" cType="1" res="1.4494978822767735e-03" rms="2.9153165221214294e-01" purity="5.0688040256500244e-01" nType="0">
            <Node pos="l" depth="3" NCoef="0" IVar="-1" Cut="0.0000000000000000e+00" cType="1" res="-2.4712393060326576e-02" rms="2.8526192903518677e-01" purity="3.4028133749961853e-01" nType="-99"/>
            <Node pos="r" depth="3" NCoef="0" IVar="-1" Cut="0.0000000000000000e+00" cType="1" res="4.2124469764530659e-03" rms="2.9200562834739685e-01" purity="5.2238035202026367e-01" nType="-99"/>
          </Node>
          <Node pos="r" depth="2" NCoef="0" IVar="9" Cut="6.6660386323928833e-01" cType="1" res="-7.5347614474594593e-03" rms="2.8180593252182007e-01" purity="5.2976173162460327e-01" nType="0">
            <Node pos="l" depth="3" NCoef="0" IVar="-1" Cut="0.0000000000000000e+00" cType="1" res="-1.2893717736005783e-02" rms="2.8305253386497498e-01" purity="5.6930464506149292e-01" nType="-99"/>
            <Node pos="r" depth="3" NCoef="0" IVar="-1" Cut="0.0000000000000000e+00" cType="1" res="9.1281987261027098e-04" rms="2.7840033173561096e-01" purity="4.2800924181938171e-01" nType="-99"/>
          </Node>
        </Node>
      </Node>
    </BinaryTree>
    <BinaryTree type="DecisionTree" boostWeight="1.0000000000000000e+00" itree="738">
      <Node pos="s" depth="0" NCoef="0" IVar="11" Cut="1.6952279806137085e+00" cType="1" res="3.9083726005628705e-04" rms="2.8360277414321899e-01" purity="5.0113159418106079e-01" nType="0">
        <Node pos="l" depth="1" NCoef="0" IVar="1" Cut="1.4641878008842468e-01" cType="1" res="1.2805607402697206e-03" rms="2.8351745009422302e-01" purity="4.9728742241859436e-01" nType="0">
          <Node pos="l" depth="2" NCoef="0" IVar="8" Cut="-1.1999515295028687e+00" cType="1" res="2.9762838967144489e-03" rms="2.9027450084686279e-01" purity="4.2692771553993225e-01" nType="0">
            <Node pos="l" depth="3" NCoef="0" IVar="-1" Cut="0.0000000000000000e+00" cType="1" res="-1.4161744154989719e-02" rms="2.4368211627006531e-01" purity="1.6432857513427734e-01" nType="-99"/>
            <Node pos="r" depth="3" NCoef="0" IVar="-1" Cut="0.0000000000000000e+00" cType="1" res="5.3513431921601295e-03" rms="2.9669830203056335e-01" purity="4.6699330210685730e-01" nType="-99"/>
          </Node>
          <Node pos="r" depth="2" NCoef="0" IVar="7" Cut="-1.7820613458752632e-02" cType="1" res="-7.7726095914840698e-03" rms="2.4410140514373779e-01" purity="8.7292540073394775e-01" nType="0">
            <Node pos="l" depth="3" NCoef="0" IVar="-1" Cut="0.0000000000000000e+00" cType="1" res="-7.2201741859316826e-03" rms="2.3449139297008514e-01" purity="8.8089573383331299e-01" nType="-99"/>
            <Node pos="r" depth="3" NCoef="0" IVar="-1" Cut="0.0000000000000000e+00" cType="1" res="-1.8026901409029961e-02" rms="2.5340175628662109e-01" purity="8.6486071348190308e-01" nType="-99"/>
          </Node>
        </Node>
        <Node pos="r" depth="1" NCoef="0" IVar="-1" Cut="0.0000000000000000e+00" cType="1" res="-2.1402141079306602e-02" rms="2.8479176759719849e-01" purity="5.8956891298294067e-01" nType="-99"/>
      </Node>
    </BinaryTree>
    <BinaryTree type="DecisionTree" boostWeight="1.0000000000000000e+00" itree="739">
      <Node pos="s" depth="0" NCoef="0" IVar="9" Cut="-9.3333506584167480e-01" cType="1" res="-2.3759114556014538e-03" rms="2.8236284852027893e-01" purity="4.9947285652160645e-01" nType="0">
        <Node pos="l" depth="1" NCoef="0" IVar="7" Cut="-8.9661026000976562e-01" cType="1" res="-1.0466910898685455e-02" rms="2.7991500496864319e-01" purity="3.3037313818931580e-01" nType="0">
          <Node pos="l" depth="2" NCoef="0" IVar="-1" Cut="0.0000000000000000e+00" cType="1" res="6.0810530558228493e-03" rms="2.5228539109230042e-01" purity="1.8866957724094391e-01" nType="-99"/>
          <Node pos="r" depth="2" NCoef="0" IVar="2" Cut="2.9928518676757812e+02" cType="1" res="-1.4627675525844097e-02" rms="2.8723448514938354e-01" purity="3.7112456560134888e-01" nType="0">
            <Node pos="l" depth="3" NCoef="0" IVar="-1" Cut="0.0000000000000000e+00" cType="1" res="-2.3220663424581289e-03" rms="2.9023051261901855e-01" purity="3.2633244991302490e-01" nType="-99"/>
            <Node pos="r" depth="3" NCoef="0" IVar="-1" Cut="0.0000000000000000e+00" cType="1" res="-2.5029592216014862e-02" rms="2.8526842594146729e-01" purity="3.9658635854721069e-01" nType="-99"/>
          </Node>
        </Node>
        <Node pos="r" depth="1" NCoef="0" IVar="10" Cut="-1.7333701848983765e+00" cType="1" res="-4.5069245970807970e-04" rms="2.8290811181068420e-01" purity="5.3970944881439209e-01" nType="0">
          <Node pos="l" depth="2" NCoef="0" IVar="9" Cut="3.1129300594329834e-01" cType="1" res="-1.9955594092607498e-02" rms="2.8660216927528381e-01" purity="3.2684105634689331e-01" nType="0">
            <Node pos="l" depth="3" NCoef="0" IVar="-1" Cut="0.0000000000000000e+00" cType="1" res="-1.4051358215510845e-02" rms="2.8871467709541321e-01" purity="3.8589924573898315e-01" nType="-99"/>
            <Node pos="r" depth="3" NCoef="0" IVar="-1" Cut="0.0000000000000000e+00" cType="1" res="-3.3658210188150406e-02" rms="2.8423866629600525e-01" purity="2.6689141988754272e-01" nType="-99"/>
          </Node>
          <Node pos="r" depth="2" NCoef="0" IVar="10" Cut="-1.0857619047164917e+00" cType="1" res="8.9861254673451185e-04" rms="2.8260099887847900e-01" purity="5.5443519353866577e-01" nType="0">
            <Node pos="l" depth="3" NCoef="0" IVar="-1" Cut="0.0000000000000000e+00" cType="1" res="1.3560401275753975e-02" rms="2.9268497228622437e-01" purity="5.3770440816879272e-01" nType="-99"/>
            <Node pos="r" depth="3" NCoef="0" IVar="-1" Cut="0.0000000000000000e+00" cType="1" res="-6.0513982316479087e-04" rms="2.8124555945396423e-01" purity="5.5659043788909912e-01" nType="-99"/>
          </Node>
        </Node>
      </Node>
    </BinaryTree>
    <BinaryTree type="DecisionTree" boostWeight="1.0000000000000000e+00" itree="740">
      <Node pos="s" depth="0" NCoef="0" IVar="8" Cut="1.7332557439804077e+00" cType="1" res="1.2903125025331974e-03" rms="2.8621903061866760e-01" purity="4.9698147177696228e-01" nType="0">
