<?xml version="1.0"?>
<MethodSetup Method="BDT::BDTG">
  <GeneralInfo>
    <Info name="TMVA Release" value="4.2.1 [262657]"/>
    <Info name="ROOT Release" value="6.14/04 [396804]"/>
    <Info name="Creator" value="unok"/>
    <Info name="Date" value="Mon Jan 14 13:18:31 2019"/>
    <Info name="Host" value="Linux lcgapp-slc6-x86-64-39.cern.ch 2.6.32-696.30.1.el6.x86_64 #1 SMP Tue May 22 06:09:36 CEST 2018 x86_64 x86_64 x86_64 GNU/Linux"/>
    <Info name="Dir" value="/gpfs/fs6001/unok/TMVA/2018/v142/V2/TMVA-0L"/>
    <Info name="Training events" value="996466"/>
    <Info name="TrainingTime" value="8.07357543e+02"/>
    <Info name="AnalysisType" value="Classification"/>
  </GeneralInfo>
  <Options>
    <Option name="V" modified="Yes">False</Option>
    <Option name="VerbosityLevel" modified="No">Default</Option>
    <Option name="VarTransform" modified="No">None</Option>
    <Option name="H" modified="Yes">False</Option>
    <Option name="CreateMVAPdfs" modified="No">False</Option>
    <Option name="IgnoreNegWeightsInTraining" modified="No">False</Option>
    <Option name="NTrees" modified="Yes">800</Option>
    <Option name="MaxDepth" modified="Yes">3</Option>
    <Option name="MinNodeSize" modified="Yes">2.500000%</Option>
    <Option name="nCuts" modified="Yes">20</Option>
    <Option name="BoostType" modified="Yes">Grad</Option>
    <Option name="AdaBoostR2Loss" modified="No">quadratic</Option>
    <Option name="UseBaggedBoost" modified="Yes">True</Option>
    <Option name="Shrinkage" modified="Yes">2.000000e-01</Option>
    <Option name="AdaBoostBeta" modified="No">5.000000e-01</Option>
    <Option name="UseRandomisedTrees" modified="No">False</Option>
    <Option name="UseNvars" modified="No">3</Option>
    <Option name="UsePoissonNvars" modified="No">True</Option>
    <Option name="BaggedSampleFraction" modified="Yes">5.000000e-01</Option>
    <Option name="UseYesNoLeaf" modified="No">True</Option>
    <Option name="NegWeightTreatment" modified="Yes">pray</Option>
    <Option name="Css" modified="No">1.000000e+00</Option>
    <Option name="Cts_sb" modified="No">1.000000e+00</Option>
    <Option name="Ctb_ss" modified="No">1.000000e+00</Option>
    <Option name="Cbb" modified="No">1.000000e+00</Option>
    <Option name="NodePurityLimit" modified="No">5.000000e-01</Option>
    <Option name="SeparationType" modified="No">giniindex</Option>
    <Option name="RegressionLossFunctionBDTG" modified="No">huber</Option>
    <Option name="HuberQuantile" modified="No">7.000000e-01</Option>
    <Option name="DoBoostMonitor" modified="No">False</Option>
    <Option name="UseFisherCuts" modified="No">False</Option>
    <Option name="MinLinCorrForFisher" modified="No">8.000000e-01</Option>
    <Option name="UseExclusiveVars" modified="No">False</Option>
    <Option name="DoPreselection" modified="No">False</Option>
    <Option name="SigToBkgFraction" modified="No">1.000000e+00</Option>
    <Option name="PruneMethod" modified="No">nopruning</Option>
    <Option name="PruneStrength" modified="No">0.000000e+00</Option>
    <Option name="PruningValFraction" modified="No">5.000000e-01</Option>
    <Option name="SkipNormalization" modified="No">False</Option>
    <Option name="nEventsMin" modified="No">0</Option>
    <Option name="UseBaggedGrad" modified="No">False</Option>
    <Option name="GradBaggingFraction" modified="No">5.000000e-01</Option>
    <Option name="UseNTrainEvents" modified="No">0</Option>
    <Option name="NNodesMax" modified="No">0</Option>
  </Options>
  <Variables NVar="10">
    <Variable VarIndex="0" Expression="met" Label="met" Title="E_{T}^{miss}" Unit="GeV" Internal="met" Type="F" Min="3.00000122e+02" Max="3.51288330e+03"/>
    <Variable VarIndex="1" Expression="meff" Label="meff" Title="m_{eff}(incl.)" Unit="GeV" Internal="meff" Type="F" Min="8.00000244e+02" Max="7.52059717e+03"/>
    <Variable VarIndex="2" Expression="jetPt0" Label="jetPt0" Title="p_{T}(j_{1})" Unit="GeV" Internal="jetPt0" Type="F" Min="2.00000092e+02" Max="3.38986719e+03"/>
    <Variable VarIndex="3" Expression="jetPt1" Label="jetPt1" Title="p_{T}(j_{2})" Unit="GeV" Internal="jetPt1" Type="F" Min="5.09737549e+01" Max="2.04839258e+03"/>
    <Variable VarIndex="4" Expression="jetPt2" Label="jetPt2" Title="p_{T}(j_{3})" Unit="GeV" Internal="jetPt2" Type="F" Min="5.00433693e+01" Max="1.21655359e+03"/>
    <Variable VarIndex="5" Expression="jetPt3" Label="jetPt3" Title="p_{T}(j_{4})" Unit="GeV" Internal="jetPt3" Type="F" Min="5.00000267e+01" Max="7.86908386e+02"/>
    <Variable VarIndex="6" Expression="jetEta0" Label="jetEta0" Title="#eta(j_{1})" Unit="" Internal="jetEta0" Type="F" Min="-2.78860641e+00" Max="2.79982066e+00"/>
    <Variable VarIndex="7" Expression="jetEta1" Label="jetEta1" Title="#eta(j_{2})" Unit="" Internal="jetEta1" Type="F" Min="-2.79999161e+00" Max="2.79996657e+00"/>
    <Variable VarIndex="8" Expression="jetEta2" Label="jetEta2" Title="#eta(j_{3})" Unit="" Internal="jetEta2" Type="F" Min="-2.79999733e+00" Max="2.79998136e+00"/>
    <Variable VarIndex="9" Expression="jetEta3" Label="jetEta3" Title="#eta(j_{4})" Unit="" Internal="jetEta3" Type="F" Min="-2.79999065e+00" Max="2.79999518e+00"/>
  </Variables>
  <Spectators NSpec="0">
  </Spectators>
  <Classes NClass="2">
    <Class Name="Signal" Index="0"/>
    <Class Name="Background" Index="1"/>
  </Classes>
  <Transformations NTransformations="0"/>
  <MVAPdfs/>
  <Weights NTrees="800" AnalysisType="1">
    <BinaryTree type="DecisionTree" boostWeight="1.0000000000000000e+00" itree="0">
      <Node pos="s" depth="0" NCoef="0" IVar="1" Cut="1.3948103027343750e+03" cType="1" res="-8.9017805294133723e-05" rms="5.0000000000000000e-01" purity="4.9991098046302795e-01" nType="0">
        <Node pos="l" depth="1" NCoef="0" IVar="4" Cut="1.0257555389404297e+02" cType="1" res="-1.3676646351814270e-01" rms="4.8093131184577942e-01" purity="3.6323353648185730e-01" nType="0">
          <Node pos="l" depth="2" NCoef="0" IVar="0" Cut="4.2733468627929688e+02" cType="1" res="-2.7905037999153137e-01" rms="4.1488659381866455e-01" purity="2.2094962000846863e-01" nType="0">
            <Node pos="l" depth="3" NCoef="0" IVar="-1" Cut="0.0000000000000000e+00" cType="1" res="-1.3198508322238922e-01" rms="3.7566554546356201e-01" purity="1.7003726959228516e-01" nType="-99"/>
            <Node pos="r" depth="3" NCoef="0" IVar="-1" Cut="0.0000000000000000e+00" cType="1" res="-5.7804141193628311e-02" rms="4.7866141796112061e-01" purity="3.5548964142799377e-01" nType="-99"/>
          </Node>
          <Node pos="r" depth="2" NCoef="0" IVar="0" Cut="4.0338189697265625e+02" cType="1" res="-1.6347974538803101e-02" rms="4.9973267316818237e-01" purity="4.8365199565887451e-01" nType="0">
            <Node pos="l" depth="3" NCoef="0" IVar="-1" Cut="0.0000000000000000e+00" cType="1" res="-3.9301779121160507e-02" rms="4.9025103449821472e-01" purity="4.0174558758735657e-01" nType="-99"/>
            <Node pos="r" depth="3" NCoef="0" IVar="-1" Cut="0.0000000000000000e+00" cType="1" res="5.0392054021358490e-02" rms="4.8386877775192261e-01" purity="6.2598013877868652e-01" nType="-99"/>
          </Node>
        </Node>
        <Node pos="r" depth="1" NCoef="0" IVar="5" Cut="8.5090957641601562e+01" cType="1" res="2.3991718888282776e-01" rms="4.3867954611778259e-01" purity="7.3991715908050537e-01" nType="0">
          <Node pos="l" depth="2" NCoef="0" IVar="0" Cut="5.5526477050781250e+02" cType="1" res="6.7382283508777618e-02" rms="4.9543881416320801e-01" purity="5.6738227605819702e-01" nType="0">
            <Node pos="l" depth="3" NCoef="0" IVar="-1" Cut="0.0000000000000000e+00" cType="1" res="-1.8588501960039139e-02" rms="4.9783572554588318e-01" purity="4.5352873206138611e-01" nType="-99"/>
            <Node pos="r" depth="3" NCoef="0" IVar="-1" Cut="0.0000000000000000e+00" cType="1" res="6.4281336963176727e-02" rms="4.7347062826156616e-01" purity="6.6070336103439331e-01" nType="-99"/>
          </Node>
          <Node pos="r" depth="2" NCoef="0" IVar="0" Cut="4.2405398559570312e+02" cType="1" res="3.0752739310264587e-01" rms="3.9424219727516174e-01" purity="8.0752736330032349e-01" nType="0">
            <Node pos="l" depth="3" NCoef="0" IVar="-1" Cut="0.0000000000000000e+00" cType="1" res="6.1244141310453415e-02" rms="4.7598028182983398e-01" purity="6.5311032533645630e-01" nType="-99"/>
            <Node pos="r" depth="3" NCoef="0" IVar="-1" Cut="0.0000000000000000e+00" cType="1" res="1.4262704551219940e-01" rms="3.5051324963569641e-01" purity="8.5656762123107910e-01" nType="-99"/>
          </Node>
        </Node>
      </Node>
    </BinaryTree>
    <BinaryTree type="DecisionTree" boostWeight="1.0000000000000000e+00" itree="1">
      <Node pos="s" depth="0" NCoef="0" IVar="1" Cut="1.1001334228515625e+03" cType="1" res="-1.2271364685148001e-03" rms="4.7949516773223877e-01" purity="4.9827226996421814e-01" nType="0">
        <Node pos="l" depth="1" NCoef="0" IVar="3" Cut="1.2878825378417969e+02" cType="1" res="-2.1592110395431519e-01" rms="4.2239078879356384e-01" purity="2.4027375876903534e-01" nType="0">
          <Node pos="l" depth="2" NCoef="0" IVar="5" Cut="6.8072235107421875e+01" cType="1" res="-2.9730150103569031e-01" rms="3.5227897763252258e-01" purity="1.4885556697845459e-01" nType="0">
            <Node pos="l" depth="3" NCoef="0" IVar="-1" Cut="0.0000000000000000e+00" cType="1" res="-1.3728407025337219e-01" rms="3.0455046892166138e-01" purity="1.0494016855955124e-01" nType="-99"/>
            <Node pos="r" depth="3" NCoef="0" IVar="-1" Cut="0.0000000000000000e+00" cType="1" res="-8.6753956973552704e-02" rms="4.2097583413124084e-01" purity="2.3769204318523407e-01" nType="-99"/>
          </Node>
          <Node pos="r" depth="2" NCoef="0" IVar="6" Cut="9.3656581640243530e-01" cType="1" res="-1.6121673583984375e-01" rms="4.5549905300140381e-01" purity="3.0172556638717651e-01" nType="0">
            <Node pos="l" depth="3" NCoef="0" IVar="-1" Cut="0.0000000000000000e+00" cType="1" res="-5.1918983459472656e-02" rms="4.6802040934562683e-01" purity="3.3458310365676880e-01" nType="-99"/>
            <Node pos="r" depth="3" NCoef="0" IVar="-1" Cut="0.0000000000000000e+00" cType="1" res="-1.1760063469409943e-01" rms="3.7415695190429688e-01" purity="1.7017759382724762e-01" nType="-99"/>
          </Node>
        </Node>
        <Node pos="r" depth="1" NCoef="0" IVar="5" Cut="8.1792243957519531e+01" cType="1" res="9.9264867603778839e-02" rms="4.7153830528259277e-01" purity="6.1903393268585205e-01" nType="0">
          <Node pos="l" depth="2" NCoef="0" IVar="0" Cut="4.2850692749023438e+02" cType="1" res="-4.5991312712430954e-02" rms="4.8912879824638367e-01" purity="4.4689577817916870e-01" nType="0">
            <Node pos="l" depth="3" NCoef="0" IVar="-1" Cut="0.0000000000000000e+00" cType="1" res="-7.0664316415786743e-02" rms="4.5300072431564331e-01" purity="2.9524484276771545e-01" nType="-99"/>
            <Node pos="r" depth="3" NCoef="0" IVar="-1" Cut="0.0000000000000000e+00" cType="1" res="1.3606734573841095e-02" rms="4.9347627162933350e-01" purity="5.4047918319702148e-01" nType="-99"/>
          </Node>
          <Node pos="r" depth="2" NCoef="0" IVar="0" Cut="4.2404891967773438e+02" cType="1" res="1.8283018469810486e-01" rms="4.3989220261573792e-01" purity="7.1806430816650391e-01" nType="0">
            <Node pos="l" depth="3" NCoef="0" IVar="-1" Cut="0.0000000000000000e+00" cType="1" res="2.7540551498532295e-02" rms="4.9156191945075989e-01" purity="5.6934654712677002e-01" nType="-99"/>
            <Node pos="r" depth="3" NCoef="0" IVar="-1" Cut="0.0000000000000000e+00" cType="1" res="1.0381506383419037e-01" rms="3.8637641072273254e-01" purity="8.1273078918457031e-01" nType="-99"/>
          </Node>
        </Node>
      </Node>
    </BinaryTree>
    <BinaryTree type="DecisionTree" boostWeight="1.0000000000000000e+00" itree="2">
      <Node pos="s" depth="0" NCoef="0" IVar="4" Cut="1.0560417175292969e+02" cType="1" res="3.1672804616391659e-03" rms="4.6515616774559021e-01" purity="5.0331562757492065e-01" nType="0">
        <Node pos="l" depth="1" NCoef="0" IVar="0" Cut="4.2114834594726562e+02" cType="1" res="-1.6069483757019043e-01" rms="4.2790460586547852e-01" purity="2.6906219124794006e-01" nType="0">
          <Node pos="l" depth="2" NCoef="0" IVar="5" Cut="6.3186111450195312e+01" cType="1" res="-2.1133282780647278e-01" rms="3.8520789146423340e-01" purity="1.8564146757125854e-01" nType="0">
            <Node pos="l" depth="3" NCoef="0" IVar="-1" Cut="0.0000000000000000e+00" cType="1" res="-1.0994356125593185e-01" rms="3.3181065320968628e-01" purity="1.2761123478412628e-01" nType="-99"/>
            <Node pos="r" depth="3" NCoef="0" IVar="-1" Cut="0.0000000000000000e+00" cType="1" res="-6.7371308803558350e-02" rms="4.2662477493286133e-01" purity="2.4400044977664948e-01" nType="-99"/>
          </Node>
          <Node pos="r" depth="2" NCoef="0" IVar="5" Cut="6.8437217712402344e+01" cType="1" res="-7.4239917099475861e-02" rms="4.8012828826904297e-01" purity="4.1148751974105835e-01" nType="0">
            <Node pos="l" depth="3" NCoef="0" IVar="-1" Cut="0.0000000000000000e+00" cType="1" res="-5.6701183319091797e-02" rms="4.6304523944854736e-01" purity="3.2882678508758545e-01" nType="-99"/>
            <Node pos="r" depth="3" NCoef="0" IVar="-1" Cut="0.0000000000000000e+00" cType="1" res="1.0481111705303192e-02" rms="4.8834848403930664e-01" purity="5.3741466999053955e-01" nType="-99"/>
          </Node>
        </Node>
        <Node pos="r" depth="1" NCoef="0" IVar="0" Cut="4.2850430297851562e+02" cType="1" res="9.3762606382369995e-02" rms="4.6012020111083984e-01" purity="6.3282859325408936e-01" nType="0">
          <Node pos="l" depth="2" NCoef="0" IVar="5" Cut="1.2011798095703125e+02" cType="1" res="-8.7275812402367592e-03" rms="4.9049732089042664e-01" purity="4.7784829139709473e-01" nType="0">
            <Node pos="l" depth="3" NCoef="0" IVar="-1" Cut="0.0000000000000000e+00" cType="1" res="-2.6396324858069420e-02" rms="4.8621088266372681e-01" purity="4.0822556614875793e-01" nType="-99"/>
            <Node pos="r" depth="3" NCoef="0" IVar="-1" Cut="0.0000000000000000e+00" cType="1" res="5.7524390518665314e-02" rms="4.6922883391380310e-01" purity="6.6402781009674072e-01" nType="-99"/>
          </Node>
          <Node pos="r" depth="2" NCoef="0" IVar="5" Cut="1.2018204498291016e+02" cType="1" res="1.8847905099391937e-01" rms="4.0785434842109680e-01" purity="7.7605378627777100e-01" nType="0">
            <Node pos="l" depth="3" NCoef="0" IVar="-1" Cut="0.0000000000000000e+00" cType="1" res="5.7726062834262848e-02" rms="4.4671627879142761e-01" purity="7.0991522073745728e-01" nType="-99"/>
            <Node pos="r" depth="3" NCoef="0" IVar="-1" Cut="0.0000000000000000e+00" cType="1" res="1.1216229200363159e-01" rms="3.2243102788925171e-01" purity="8.8127779960632324e-01" nType="-99"/>
          </Node>
        </Node>
      </Node>
    </BinaryTree>
    <BinaryTree type="DecisionTree" boostWeight="1.0000000000000000e+00" itree="3">
      <Node pos="s" depth="0" NCoef="0" IVar="5" Cut="8.5090904235839844e+01" cType="1" res="3.0630491673946381e-03" rms="4.5366209745407104e-01" purity="5.0373584032058716e-01" nType="0">
        <Node pos="l" depth="1" NCoef="0" IVar="0" Cut="4.5206744384765625e+02" cType="1" res="-9.3934334814548492e-02" rms="4.4710174202919006e-01" purity="3.3713921904563904e-01" nType="0">
          <Node pos="l" depth="2" NCoef="0" IVar="6" Cut="9.3705421686172485e-01" cType="1" res="-1.4822775125503540e-01" rms="4.1740882396697998e-01" purity="2.4510964751243591e-01" nType="0">
            <Node pos="l" depth="3" NCoef="0" IVar="-1" Cut="0.0000000000000000e+00" cType="1" res="-5.1032435148954391e-02" rms="4.3416139483451843e-01" purity="2.7702876925468445e-01" nType="-99"/>
            <Node pos="r" depth="3" NCoef="0" IVar="-1" Cut="0.0000000000000000e+00" cType="1" res="-1.1050701141357422e-01" rms="3.2271316647529602e-01" purity="1.2109521031379700e-01" nType="-99"/>
          </Node>
          <Node pos="r" depth="2" NCoef="0" IVar="3" Cut="1.4677491760253906e+02" cType="1" res="2.4902848526835442e-02" rms="4.8529541492462158e-01" purity="5.3857308626174927e-01" nType="0">
            <Node pos="l" depth="3" NCoef="0" IVar="-1" Cut="0.0000000000000000e+00" cType="1" res="-4.9131605774164200e-02" rms="4.6765732765197754e-01" purity="3.5308077931404114e-01" nType="-99"/>
            <Node pos="r" depth="3" NCoef="0" IVar="-1" Cut="0.0000000000000000e+00" cType="1" res="3.2245554029941559e-02" rms="4.8049619793891907e-01" purity="6.0832315683364868e-01" nType="-99"/>
          </Node>
        </Node>
        <Node pos="r" depth="1" NCoef="0" IVar="6" Cut="1.2303253412246704e+00" cType="1" res="1.1412443965673447e-01" rms="4.3527942895889282e-01" purity="6.9448786973953247e-01" nType="0">
          <Node pos="l" depth="2" NCoef="0" IVar="6" Cut="-1.1986578702926636e+00" cType="1" res="1.3784667849540710e-01" rms="4.2590579390525818e-01" purity="7.2054487466812134e-01" nType="0">
            <Node pos="l" depth="3" NCoef="0" IVar="-1" Cut="0.0000000000000000e+00" cType="1" res="-4.6446684747934341e-02" rms="4.7388437390327454e-01" purity="4.4139254093170166e-01" nType="-99"/>
            <Node pos="r" depth="3" NCoef="0" IVar="-1" Cut="0.0000000000000000e+00" cType="1" res="6.9343514740467072e-02" rms="4.1229239106178284e-01" purity="7.4911934137344360e-01" nType="-99"/>
          </Node>
          <Node pos="r" depth="2" NCoef="0" IVar="-1" Cut="0.0000000000000000e+00" cType="1" res="-6.4929313957691193e-02" rms="4.4984611868858337e-01" purity="3.9949902892112732e-01" nType="-99"/>
        </Node>
      </Node>
    </BinaryTree>
    <BinaryTree type="DecisionTree" boostWeight="1.0000000000000000e+00" itree="4">
      <Node pos="s" depth="0" NCoef="0" IVar="4" Cut="1.4137091064453125e+02" cType="1" res="1.3421355106402189e-04" rms="4.4662287831306458e-01" purity="5.0016260147094727e-01" nType="0">
        <Node pos="l" depth="1" NCoef="0" IVar="6" Cut="-1.1916617155075073e+00" cType="1" res="-7.4029833078384399e-02" rms="4.4370737671852112e-01" purity="3.6304435133934021e-01" nType="0">
          <Node pos="l" depth="2" NCoef="0" IVar="6" Cut="-1.4957681894302368e+00" cType="1" res="-2.4780043959617615e-01" rms="3.5174512863159180e-01" purity="1.5405586361885071e-01" nType="0">
            <Node pos="l" depth="3" NCoef="0" IVar="-1" Cut="0.0000000000000000e+00" cType="1" res="-1.2099618464708328e-01" rms="3.1878250837326050e-01" purity="1.1650346219539642e-01" nType="-99"/>
            <Node pos="r" depth="3" NCoef="0" IVar="-1" Cut="0.0000000000000000e+00" cType="1" res="-8.5642628371715546e-02" rms="3.8953936100006104e-01" purity="2.0821179449558258e-01" nType="-99"/>
          </Node>
          <Node pos="r" depth="2" NCoef="0" IVar="6" Cut="1.0891116857528687e+00" cType="1" res="-4.9647092819213867e-02" rms="4.4978776574134827e-01" purity="3.9236876368522644e-01" nType="0">
            <Node pos="l" depth="3" NCoef="0" IVar="-1" Cut="0.0000000000000000e+00" cType="1" res="-7.6589160598814487e-03" rms="4.5981356501579285e-01" purity="4.3583917617797852e-01" nType="-99"/>
            <Node pos="r" depth="3" NCoef="0" IVar="-1" Cut="0.0000000000000000e+00" cType="1" res="-9.0217746794223785e-02" rms="3.6000820994377136e-01" purity="1.8166416883468628e-01" nType="-99"/>
          </Node>
        </Node>
        <Node pos="r" depth="1" NCoef="0" IVar="6" Cut="1.2155438661575317e+00" cType="1" res="1.1106481403112411e-01" rms="4.2757678031921387e-01" purity="7.0525676012039185e-01" nType="0">
          <Node pos="l" depth="2" NCoef="0" IVar="6" Cut="-1.0442810058593750e+00" cType="1" res="1.2960019707679749e-01" rms="4.1971963644027710e-01" purity="7.2966277599334717e-01" nType="0">
            <Node pos="l" depth="3" NCoef="0" IVar="-1" Cut="0.0000000000000000e+00" cType="1" res="-2.7362467721104622e-02" rms="4.6929121017456055e-01" purity="4.8892846703529358e-01" nType="-99"/>
            <Node pos="r" depth="3" NCoef="0" IVar="-1" Cut="0.0000000000000000e+00" cType="1" res="6.7636221647262573e-02" rms="4.0563365817070007e-01" purity="7.6179981231689453e-01" nType="-99"/>
          </Node>
          <Node pos="r" depth="2" NCoef="0" IVar="-1" Cut="0.0000000000000000e+00" cType="1" res="-4.4694811105728149e-02" rms="4.5774218440055847e-01" purity="4.1782364249229431e-01" nType="-99"/>
        </Node>
      </Node>
    </BinaryTree>
    <BinaryTree type="DecisionTree" boostWeight="1.0000000000000000e+00" itree="5">
      <Node pos="s" depth="0" NCoef="0" IVar="4" Cut="1.4368092346191406e+02" cType="1" res="-3.2738377340137959e-03" rms="4.3818095326423645e-01" purity="4.9726921319961548e-01" nType="0">
        <Node pos="l" depth="1" NCoef="0" IVar="0" Cut="4.5206753540039062e+02" cType="1" res="-6.8187706172466278e-02" rms="4.3857318162918091e-01" purity="3.5651510953903198e-01" nType="0">
          <Node pos="l" depth="2" NCoef="0" IVar="5" Cut="7.2248947143554688e+01" cType="1" res="-1.1186183989048004e-01" rms="4.1684368252754211e-01" purity="2.6097884774208069e-01" nType="0">
            <Node pos="l" depth="3" NCoef="0" IVar="-1" Cut="0.0000000000000000e+00" cType="1" res="-7.2373315691947937e-02" rms="3.6841753125190735e-01" purity="1.7134805023670197e-01" nType="-99"/>
            <Node pos="r" depth="3" NCoef="0" IVar="-1" Cut="0.0000000000000000e+00" cType="1" res="-2.2260457277297974e-02" rms="4.6615210175514221e-01" purity="3.7820872664451599e-01" nType="-99"/>
          </Node>
          <Node pos="r" depth="2" NCoef="0" IVar="3" Cut="1.4142408752441406e+02" cType="1" res="2.6577986776828766e-02" rms="4.6857175230979919e-01" purity="5.6381303071975708e-01" nType="0">
            <Node pos="l" depth="3" NCoef="0" IVar="-1" Cut="0.0000000000000000e+00" cType="1" res="-3.3455397933721542e-02" rms="4.6516868472099304e-01" purity="3.8577690720558167e-01" nType="-99"/>
            <Node pos="r" depth="3" NCoef="0" IVar="-1" Cut="0.0000000000000000e+00" cType="1" res="2.8301101177930832e-02" rms="4.6337687969207764e-01" purity="6.3220387697219849e-01" nType="-99"/>
          </Node>
        </Node>
        <Node pos="r" depth="1" NCoef="0" IVar="0" Cut="4.5299554443359375e+02" cType="1" res="9.7140602767467499e-02" rms="4.1817370057106018e-01" purity="7.1499997377395630e-01" nType="0">
          <Node pos="l" depth="2" NCoef="0" IVar="6" Cut="9.7007435560226440e-01" cType="1" res="3.0103646218776703e-02" rms="4.6875140070915222e-01" purity="5.7856220006942749e-01" nType="0">
            <Node pos="l" depth="3" NCoef="0" IVar="-1" Cut="0.0000000000000000e+00" cType="1" res="2.3828063160181046e-02" rms="4.6613061428070068e-01" purity="6.1687493324279785e-01" nType="-99"/>
            <Node pos="r" depth="3" NCoef="0" IVar="-1" Cut="0.0000000000000000e+00" cType="1" res="-5.0352700054645538e-02" rms="4.5463556051254272e-01" purity="3.6294451355934143e-01" nType="-99"/>
          </Node>
          <Node pos="r" depth="2" NCoef="0" IVar="2" Cut="6.3791467285156250e+02" cType="1" res="1.6079619526863098e-01" rms="3.5207098722457886e-01" purity="8.4455579519271851e-01" nType="0">
            <Node pos="l" depth="3" NCoef="0" IVar="-1" Cut="0.0000000000000000e+00" cType="1" res="8.1712909042835236e-02" rms="3.3889159560203552e-01" purity="8.5759282112121582e-01" nType="-99"/>
            <Node pos="r" depth="3" NCoef="0" IVar="-1" Cut="0.0000000000000000e+00" cType="1" res="3.5814516246318817e-02" rms="4.1574680805206299e-01" purity="7.6261514425277710e-01" nType="-99"/>
          </Node>
        </Node>
      </Node>
    </BinaryTree>
    <BinaryTree type="DecisionTree" boostWeight="1.0000000000000000e+00" itree="6">
      <Node pos="s" depth="0" NCoef="0" IVar="1" Cut="1.4002622070312500e+03" cType="1" res="-5.2609411068260670e-03" rms="4.3374317884445190e-01" purity="4.9377653002738953e-01" nType="0">
        <Node pos="l" depth="1" NCoef="0" IVar="7" Cut="1.4666432142257690e+00" cType="1" res="-5.5195584893226624e-02" rms="4.3832400441169739e-01" purity="3.6085259914398193e-01" nType="0">
          <Node pos="l" depth="2" NCoef="0" IVar="7" Cut="-1.1746091842651367e+00" cType="1" res="-3.6216128617525101e-02" rms="4.4406813383102417e-01" purity="3.8366761803627014e-01" nType="0">
            <Node pos="l" depth="3" NCoef="0" IVar="-1" Cut="0.0000000000000000e+00" cType="1" res="-7.4271306395530701e-02" rms="3.8901433348655701e-01" purity="2.2578188776969910e-01" nType="-99"/>
            <Node pos="r" depth="3" NCoef="0" IVar="-1" Cut="0.0000000000000000e+00" cType="1" res="-3.1821716111153364e-03" rms="4.5036840438842773e-01" purity="4.1892814636230469e-01" nType="-99"/>
          </Node>
          <Node pos="r" depth="2" NCoef="0" IVar="7" Cut="1.8476040363311768e+00" cType="1" res="-2.1121147274971008e-01" rms="3.5094267129898071e-01" purity="1.7330780625343323e-01" nType="0">
            <Node pos="l" depth="3" NCoef="0" IVar="-1" Cut="0.0000000000000000e+00" cType="1" res="-6.5567173063755035e-02" rms="3.9889228343963623e-01" purity="2.4980406463146210e-01" nType="-99"/>
            <Node pos="r" depth="3" NCoef="0" IVar="-1" Cut="0.0000000000000000e+00" cType="1" res="-1.2232064455747604e-01" rms="2.8983262181282043e-01" purity="1.0530367493629456e-01" nType="-99"/>
          </Node>
        </Node>
        <Node pos="r" depth="1" NCoef="0" IVar="2" Cut="4.7364825439453125e+02" cType="1" res="8.5464522242546082e-02" rms="4.1001665592193604e-01" purity="7.3528373241424561e-01" nType="0">
          <Node pos="l" depth="2" NCoef="0" IVar="7" Cut="-9.3264144659042358e-01" cType="1" res="1.4718770980834961e-01" rms="3.6339864134788513e-01" purity="8.2321637868881226e-01" nType="0">
            <Node pos="l" depth="3" NCoef="0" IVar="-1" Cut="0.0000000000000000e+00" cType="1" res="2.5441512465476990e-02" rms="4.2499080300331116e-01" purity="7.1810930967330933e-01" nType="-99"/>
            <Node pos="r" depth="3" NCoef="0" IVar="-1" Cut="0.0000000000000000e+00" cType="1" res="7.6959863305091858e-02" rms="3.4979248046875000e-01" purity="8.4066104888916016e-01" nType="-99"/>
          </Node>
          <Node pos="r" depth="2" NCoef="0" IVar="0" Cut="5.4809960937500000e+02" cType="1" res="1.2706737965345383e-02" rms="4.4814062118530273e-01" purity="6.3163095712661743e-01" nType="0">
            <Node pos="l" depth="3" NCoef="0" IVar="-1" Cut="0.0000000000000000e+00" cType="1" res="-2.5374084711074829e-02" rms="4.6936208009719849e-01" purity="5.2116227149963379e-01" nType="-99"/>
            <Node pos="r" depth="3" NCoef="0" IVar="-1" Cut="0.0000000000000000e+00" cType="1" res="3.6623012274503708e-02" rms="4.1624701023101807e-01" purity="7.3618108034133911e-01" nType="-99"/>
          </Node>
        </Node>
      </Node>
    </BinaryTree>
    <BinaryTree type="DecisionTree" boostWeight="1.0000000000000000e+00" itree="7">
      <Node pos="s" depth="0" NCoef="0" IVar="1" Cut="1.1001270751953125e+03" cType="1" res="-2.2261578124016523e-04" rms="4.2811256647109985e-01" purity="4.9862775206565857e-01" nType="0">
        <Node pos="l" depth="1" NCoef="0" IVar="7" Cut="-1.4666503667831421e+00" cType="1" res="-9.2197589576244354e-02" rms="3.9870077371597290e-01" purity="2.2707466781139374e-01" nType="0">
          <Node pos="l" depth="2" NCoef="0" IVar="-1" Cut="0.0000000000000000e+00" cType="1" res="-9.8091416060924530e-02" rms="2.8240790963172913e-01" purity="9.4110660254955292e-02" nType="-99"/>
          <Node pos="r" depth="2" NCoef="0" IVar="1" Cut="1.0286650390625000e+03" cType="1" res="-7.7104344964027405e-02" rms="4.1056627035140991e-01" purity="2.4623058736324310e-01" nType="0">
            <Node pos="l" depth="3" NCoef="0" IVar="-1" Cut="0.0000000000000000e+00" cType="1" res="-5.0012920051813126e-02" rms="3.8572624325752258e-01" purity="1.9977287948131561e-01" nType="-99"/>
            <Node pos="r" depth="3" NCoef="0" IVar="-1" Cut="0.0000000000000000e+00" cType="1" res="-7.9712690785527229e-03" rms="4.5671954751014709e-01" purity="3.5206776857376099e-01" nType="-99"/>
          </Node>
        </Node>
        <Node pos="r" depth="1" NCoef="0" IVar="6" Cut="-1.1603770256042480e+00" cType="1" res="4.1882671415805817e-02" rms="4.3447378277778625e-01" purity="6.2294226884841919e-01" nType="0">
          <Node pos="l" depth="2" NCoef="0" IVar="0" Cut="4.1388186645507812e+02" cType="1" res="-1.4333929121494293e-01" rms="4.2991918325424194e-01" purity="3.4604662656784058e-01" nType="0">
            <Node pos="l" depth="3" NCoef="0" IVar="-1" Cut="0.0000000000000000e+00" cType="1" res="-9.2611923813819885e-02" rms="3.7474632263183594e-01" purity="1.9170276820659637e-01" nType="-99"/>
            <Node pos="r" depth="3" NCoef="0" IVar="-1" Cut="0.0000000000000000e+00" cType="1" res="-3.8728598505258560e-02" rms="4.5997074246406555e-01" purity="4.6189343929290771e-01" nType="-99"/>
          </Node>
          <Node pos="r" depth="2" NCoef="0" IVar="6" Cut="9.1378396749496460e-01" cType="1" res="6.0422852635383606e-02" rms="4.3056216835975647e-01" purity="6.5065866708755493e-01" nType="0">
            <Node pos="l" depth="3" NCoef="0" IVar="-1" Cut="0.0000000000000000e+00" cType="1" res="3.9229169487953186e-02" rms="4.2349311709403992e-01" purity="6.9230806827545166e-01" nType="-99"/>
            <Node pos="r" depth="3" NCoef="0" IVar="-1" Cut="0.0000000000000000e+00" cType="1" res="-3.0328296124935150e-02" rms="4.4240668416023254e-01" purity="4.4106397032737732e-01" nType="-99"/>
          </Node>
        </Node>
      </Node>
    </BinaryTree>
    <BinaryTree type="DecisionTree" boostWeight="1.0000000000000000e+00" itree="8">
      <Node pos="s" depth="0" NCoef="0" IVar="4" Cut="1.0560417175292969e+02" cType="1" res="2.1841288544237614e-03" rms="4.2570495605468750e-01" purity="5.0090694427490234e-01" nType="0">
        <Node pos="l" depth="1" NCoef="0" IVar="4" Cut="7.6507835388183594e+01" cType="1" res="-7.3323406279087067e-02" rms="4.0583121776580811e-01" purity="2.5738933682441711e-01" nType="0">
          <Node pos="l" depth="2" NCoef="0" IVar="6" Cut="-9.1681641340255737e-01" cType="1" res="-1.3062812387943268e-01" rms="3.5063162446022034e-01" purity="1.6327507793903351e-01" nType="0">
            <Node pos="l" depth="3" NCoef="0" IVar="-1" Cut="0.0000000000000000e+00" cType="1" res="-1.0328998416662216e-01" rms="2.4709177017211914e-01" purity="7.0719607174396515e-02" nType="-99"/>
            <Node pos="r" depth="3" NCoef="0" IVar="-1" Cut="0.0000000000000000e+00" cType="1" res="-5.6661855429410934e-02" rms="3.7207403779029846e-01" purity="1.8849936127662659e-01" nType="-99"/>
          </Node>
          <Node pos="r" depth="2" NCoef="0" IVar="7" Cut="9.3331450223922729e-01" cType="1" res="-4.0042206645011902e-02" rms="4.3120214343070984e-01" purity="3.1204864382743835e-01" nType="0">
            <Node pos="l" depth="3" NCoef="0" IVar="-1" Cut="0.0000000000000000e+00" cType="1" res="-7.0819822140038013e-03" rms="4.4310900568962097e-01" purity="3.4264844655990601e-01" nType="-99"/>
            <Node pos="r" depth="3" NCoef="0" IVar="-1" Cut="0.0000000000000000e+00" cType="1" res="-6.2401033937931061e-02" rms="3.7246182560920715e-01" purity="2.0289523899555206e-01" nType="-99"/>
          </Node>
        </Node>
        <Node pos="r" depth="1" NCoef="0" IVar="7" Cut="1.4663846492767334e+00" cType="1" res="4.3530840426683426e-02" rms="4.3063020706176758e-01" purity="6.3425326347351074e-01" nType="0">
          <Node pos="l" depth="2" NCoef="0" IVar="7" Cut="-1.3777935504913330e+00" cType="1" res="5.9603795409202576e-02" rms="4.2652550339698792e-01" purity="6.5621930360794067e-01" nType="0">
            <Node pos="l" depth="3" NCoef="0" IVar="-1" Cut="0.0000000000000000e+00" cType="1" res="-6.0497935861349106e-02" rms="4.4200497865676880e-01" purity="3.7423005700111389e-01" nType="-99"/>
            <Node pos="r" depth="3" NCoef="0" IVar="-1" Cut="0.0000000000000000e+00" cType="1" res="3.6168523132801056e-02" rms="4.2013689875602722e-01" purity="6.8384087085723877e-01" nType="-99"/>
          </Node>
          <Node pos="r" depth="2" NCoef="0" IVar="-1" Cut="0.0000000000000000e+00" cType="1" res="-7.5951673090457916e-02" rms="4.2844563722610474e-01" purity="3.4494349360466003e-01" nType="-99"/>
        </Node>
      </Node>
    </BinaryTree>
    <BinaryTree type="DecisionTree" boostWeight="1.0000000000000000e+00" itree="9">
      <Node pos="s" depth="0" NCoef="0" IVar="5" Cut="1.0546742248535156e+02" cType="1" res="2.0971165213268250e-04" rms="4.2094272375106812e-01" purity="4.9981191754341125e-01" nType="0">
        <Node pos="l" depth="1" NCoef="0" IVar="7" Cut="1.2000254392623901e+00" cType="1" res="-3.4039825201034546e-02" rms="4.2935976386070251e-01" purity="3.8537299633026123e-01" nType="0">
          <Node pos="l" depth="2" NCoef="0" IVar="7" Cut="-1.2760864496231079e+00" cType="1" res="-1.6686985269188881e-02" rms="4.3586513400077820e-01" purity="4.1524502635002136e-01" nType="0">
            <Node pos="l" depth="3" NCoef="0" IVar="-1" Cut="0.0000000000000000e+00" cType="1" res="-6.5373949706554413e-02" rms="3.7066894769668579e-01" purity="2.1207886934280396e-01" nType="-99"/>
            <Node pos="r" depth="3" NCoef="0" IVar="-1" Cut="0.0000000000000000e+00" cType="1" res="2.3783405777066946e-03" rms="4.4368371367454529e-01" purity="4.5348948240280151e-01" nType="-99"/>
          </Node>
          <Node pos="r" depth="2" NCoef="0" IVar="8" Cut="9.3332934379577637e-01" cType="1" res="-1.3419677317142487e-01" rms="3.7429034709930420e-01" purity="2.1295773983001709e-01" nType="0">
            <Node pos="l" depth="3" NCoef="0" IVar="-1" Cut="0.0000000000000000e+00" cType="1" res="-5.1253095269203186e-02" rms="3.9475542306900024e-01" purity="2.5144526362419128e-01" nType="-99"/>
            <Node pos="r" depth="3" NCoef="0" IVar="-1" Cut="0.0000000000000000e+00" cType="1" res="-1.0267441719770432e-01" rms="3.0883517861366272e-01" purity="1.2072630971670151e-01" nType="-99"/>
          </Node>
        </Node>
        <Node pos="r" depth="1" NCoef="0" IVar="0" Cut="5.4809643554687500e+02" cType="1" res="7.9243339598178864e-02" rms="3.8951787352561951e-01" purity="7.6388913393020630e-01" nType="0">
          <Node pos="l" depth="2" NCoef="0" IVar="7" Cut="-9.3462938070297241e-01" cType="1" res="5.1631122827529907e-02" rms="4.2712327837944031e-01" purity="6.9620048999786377e-01" nType="0">
            <Node pos="l" depth="3" NCoef="0" IVar="-1" Cut="0.0000000000000000e+00" cType="1" res="-2.1503733471035957e-02" rms="4.5842498540878296e-01" purity="5.4174762964248657e-01" nType="-99"/>
            <Node pos="r" depth="3" NCoef="0" IVar="-1" Cut="0.0000000000000000e+00" cType="1" res="3.3195041120052338e-02" rms="4.1831794381141663e-01" purity="7.2524219751358032e-01" nType="-99"/>
          </Node>
          <Node pos="r" depth="2" NCoef="0" IVar="5" Cut="1.5565473937988281e+02" cType="1" res="1.3725590705871582e-01" rms="2.8676757216453552e-01" purity="9.0610122680664062e-01" nType="0">
            <Node pos="l" depth="3" NCoef="0" IVar="-1" Cut="0.0000000000000000e+00" cType="1" res="7.2455063462257385e-02" rms="3.0761379003524780e-01" purity="8.9005178213119507e-01" nType="-99"/>
            <Node pos="r" depth="3" NCoef="0" IVar="-1" Cut="0.0000000000000000e+00" cType="1" res="8.9250989258289337e-02" rms="2.4725970625877380e-01" purity="9.3309968709945679e-01" nType="-99"/>
          </Node>
        </Node>
      </Node>
    </BinaryTree>
    <BinaryTree type="DecisionTree" boostWeight="1.0000000000000000e+00" itree="10">
      <Node pos="s" depth="0" NCoef="0" IVar="0" Cut="4.5299456787109375e+02" cType="1" res="2.2357453126460314e-03" rms="4.1919550299644470e-01" purity="5.0060927867889404e-01" nType="0">
        <Node pos="l" depth="1" NCoef="0" IVar="0" Cut="3.5828176879882812e+02" cType="1" res="-3.1905747950077057e-02" rms="4.2481216788291931e-01" purity="3.6770200729370117e-01" nType="0">
          <Node pos="l" depth="2" NCoef="0" IVar="8" Cut="-1.1997742652893066e+00" cType="1" res="-8.0396488308906555e-02" rms="4.0376666188240051e-01" purity="2.8648298978805542e-01" nType="0">
            <Node pos="l" depth="3" NCoef="0" IVar="-1" Cut="0.0000000000000000e+00" cType="1" res="-8.7211005389690399e-02" rms="3.3698779344558716e-01" purity="1.5761502087116241e-01" nType="-99"/>
            <Node pos="r" depth="3" NCoef="0" IVar="-1" Cut="0.0000000000000000e+00" cType="1" res="-2.8897419571876526e-02" rms="4.1352146863937378e-01" purity="3.1330031156539917e-01" nType="-99"/>
          </Node>
          <Node pos="r" depth="2" NCoef="0" IVar="8" Cut="-1.4666872024536133e+00" cType="1" res="1.3011828064918518e-02" rms="4.3865999579429626e-01" purity="4.4293615221977234e-01" nType="0">
            <Node pos="l" depth="3" NCoef="0" IVar="-1" Cut="0.0000000000000000e+00" cType="1" res="-5.8823283761739731e-02" rms="3.9650920033454895e-01" purity="2.5205802917480469e-01" nType="-99"/>
            <Node pos="r" depth="3" NCoef="0" IVar="-1" Cut="0.0000000000000000e+00" cType="1" res="1.3830509968101978e-02" rms="4.4074931740760803e-01" purity="4.6627584099769592e-01" nType="-99"/>
          </Node>
        </Node>
        <Node pos="r" depth="1" NCoef="0" IVar="4" Cut="9.7007545471191406e+01" cType="1" res="5.6029964238405228e-02" rms="4.0438243746757507e-01" purity="7.1002137660980225e-01" nType="0">
          <Node pos="l" depth="2" NCoef="0" IVar="4" Cut="7.6945312500000000e+01" cType="1" res="-2.2435275837779045e-02" rms="4.6488842368125916e-01" purity="4.1399809718132019e-01" nType="0">
            <Node pos="l" depth="3" NCoef="0" IVar="-1" Cut="0.0000000000000000e+00" cType="1" res="-4.3180484324693680e-02" rms="4.3884512782096863e-01" purity="2.9534846544265747e-01" nType="-99"/>
            <Node pos="r" depth="3" NCoef="0" IVar="-1" Cut="0.0000000000000000e+00" cType="1" res="1.3865205459296703e-02" rms="4.7510597109794617e-01" purity="4.9947026371955872e-01" nType="-99"/>
          </Node>
          <Node pos="r" depth="2" NCoef="0" IVar="8" Cut="1.1998991966247559e+00" cType="1" res="7.5332313776016235e-02" rms="3.8561564683914185e-01" purity="7.8284275531768799e-01" nType="0">
            <Node pos="l" depth="3" NCoef="0" IVar="-1" Cut="0.0000000000000000e+00" cType="1" res="4.5116502791643143e-02" rms="3.7523704767227173e-01" purity="7.9841816425323486e-01" nType="-99"/>
            <Node pos="r" depth="3" NCoef="0" IVar="-1" Cut="0.0000000000000000e+00" cType="1" res="-9.7437398508191109e-03" rms="4.4901433587074280e-01" purity="6.5837532281875610e-01" nType="-99"/>
          </Node>
        </Node>
      </Node>
    </BinaryTree>
    <BinaryTree type="DecisionTree" boostWeight="1.0000000000000000e+00" itree="11">
      <Node pos="s" depth="0" NCoef="0" IVar="6" Cut="1.2025326490402222e+00" cType="1" res="1.2585697695612907e-03" rms="4.1864654421806335e-01" purity="5.0065219402313232e-01" nType="0">
        <Node pos="l" depth="1" NCoef="0" IVar="6" Cut="-1.0781205892562866e+00" cType="1" res="1.4373059384524822e-02" rms="4.2173546552658081e-01" purity="5.3093081712722778e-01" nType="0">
          <Node pos="l" depth="2" NCoef="0" IVar="9" Cut="-6.6681873798370361e-01" cType="1" res="-9.5303162932395935e-02" rms="3.9481052756309509e-01" purity="2.8640803694725037e-01" nType="0">
            <Node pos="l" depth="3" NCoef="0" IVar="-1" Cut="0.0000000000000000e+00" cType="1" res="-7.3377244174480438e-02" rms="3.5926514863967896e-01" purity="2.1202416718006134e-01" nType="-99"/>
            <Node pos="r" depth="3" NCoef="0" IVar="-1" Cut="0.0000000000000000e+00" cType="1" res="-3.2101482152938843e-02" rms="4.1116055846214294e-01" purity="3.2961833477020264e-01" nType="-99"/>
          </Node>
          <Node pos="r" depth="2" NCoef="0" IVar="7" Cut="-1.4667332172393799e+00" cType="1" res="3.2972346991300583e-02" rms="4.2332416772842407e-01" purity="5.7239788770675659e-01" nType="0">
            <Node pos="l" depth="3" NCoef="0" IVar="-1" Cut="0.0000000000000000e+00" cType="1" res="-4.2842280119657516e-02" rms="4.1082587838172913e-01" purity="3.1681740283966064e-01" nType="-99"/>
            <Node pos="r" depth="3" NCoef="0" IVar="-1" Cut="0.0000000000000000e+00" cType="1" res="2.1125651895999908e-02" rms="4.2279413342475891e-01" purity="5.9458112716674805e-01" nType="-99"/>
          </Node>
        </Node>
        <Node pos="r" depth="1" NCoef="0" IVar="5" Cut="1.0411067199707031e+02" cType="1" res="-1.0568500310182571e-01" rms="3.7584176659584045e-01" purity="2.5374168157577515e-01" nType="0">
          <Node pos="l" depth="2" NCoef="0" IVar="2" Cut="3.0581063842773438e+02" cType="1" res="-1.3047492504119873e-01" rms="3.4805282950401306e-01" purity="1.6751912236213684e-01" nType="0">
            <Node pos="l" depth="3" NCoef="0" IVar="-1" Cut="0.0000000000000000e+00" cType="1" res="-4.2497050017118454e-02" rms="3.6778420209884644e-01" purity="1.9253402948379517e-01" nType="-99"/>
            <Node pos="r" depth="3" NCoef="0" IVar="-1" Cut="0.0000000000000000e+00" cType="1" res="-8.9914657175540924e-02" rms="3.2268026471138000e-01" purity="1.4559741318225861e-01" nType="-99"/>
          </Node>
          <Node pos="r" depth="2" NCoef="0" IVar="-1" Cut="0.0000000000000000e+00" cType="1" res="-1.0523079894483089e-02" rms="4.4628936052322388e-01" purity="5.3969389200210571e-01" nType="-99"/>
        </Node>
      </Node>
    </BinaryTree>
    <BinaryTree type="DecisionTree" boostWeight="1.0000000000000000e+00" itree="12">
      <Node pos="s" depth="0" NCoef="0" IVar="8" Cut="1.7332468032836914e+00" cType="1" res="1.7837532795965672e-03" rms="4.1766551136970520e-01" purity="5.0044959783554077e-01" nType="0">
        <Node pos="l" depth="1" NCoef="0" IVar="8" Cut="-1.7206507921218872e+00" cType="1" res="1.2406683526933193e-02" rms="4.1802325844764709e-01" purity="5.1729542016983032e-01" nType="0">
          <Node pos="l" depth="2" NCoef="0" IVar="8" Cut="-2.1318559646606445e+00" cType="1" res="-1.1937313526868820e-01" rms="3.8126182556152344e-01" purity="2.8350490331649780e-01" nType="0">
            <Node pos="l" depth="3" NCoef="0" IVar="-1" Cut="0.0000000000000000e+00" cType="1" res="-9.2523977160453796e-02" rms="3.4538778662681580e-01" purity="1.8711668252944946e-01" nType="-99"/>
            <Node pos="r" depth="3" NCoef="0" IVar="-1" Cut="0.0000000000000000e+00" cType="1" res="-3.7604484707117081e-02" rms="4.0051436424255371e-01" purity="3.5708662867546082e-01" nType="-99"/>
          </Node>
          <Node pos="r" depth="2" NCoef="0" IVar="7" Cut="1.1999429464340210e+00" cType="1" res="2.3464709520339966e-02" rms="4.1908180713653564e-01" purity="5.3691345453262329e-01" nType="0">
            <Node pos="l" depth="3" NCoef="0" IVar="-1" Cut="0.0000000000000000e+00" cType="1" res="1.8309159204363823e-02" rms="4.1887688636779785e-01" purity="5.6637603044509888e-01" nType="-99"/>
            <Node pos="r" depth="3" NCoef="0" IVar="-1" Cut="0.0000000000000000e+00" cType="1" res="-3.6186825484037399e-02" rms="4.0811038017272949e-01" purity="3.3481472730636597e-01" nType="-99"/>
          </Node>
        </Node>
        <Node pos="r" depth="1" NCoef="0" IVar="9" Cut="6.6597032546997070e-01" cType="1" res="-1.4121635258197784e-01" rms="3.8529437780380249e-01" purity="2.7368092536926270e-01" nType="0">
          <Node pos="l" depth="2" NCoef="0" IVar="-1" Cut="0.0000000000000000e+00" cType="1" res="-5.4484192281961441e-02" rms="4.0022981166839600e-01" purity="3.2251551747322083e-01" nType="-99"/>
          <Node pos="r" depth="2" NCoef="0" IVar="-1" Cut="0.0000000000000000e+00" cType="1" res="-9.5939308404922485e-02" rms="3.5258957743644714e-01" purity="1.9073778390884399e-01" nType="-99"/>
        </Node>
      </Node>
    </BinaryTree>
    <BinaryTree type="DecisionTree" boostWeight="1.0000000000000000e+00" itree="13">
      <Node pos="s" depth="0" NCoef="0" IVar="6" Cut="-9.2579740285873413e-01" cType="1" res="4.5471815392374992e-03" rms="4.1313093900680542e-01" purity="5.0666970014572144e-01" nType="0">
        <Node pos="l" depth="1" NCoef="0" IVar="5" Cut="1.0006028747558594e+02" cType="1" res="-7.6994672417640686e-02" rms="3.9284113049507141e-01" purity="3.2424560189247131e-01" nType="0">
          <Node pos="l" depth="2" NCoef="0" IVar="6" Cut="-1.6187640428543091e+00" cType="1" res="-1.0551571100950241e-01" rms="3.7107020616531372e-01" purity="2.1885922551155090e-01" nType="0">
            <Node pos="l" depth="3" NCoef="0" IVar="-1" Cut="0.0000000000000000e+00" cType="1" res="-8.5304833948612213e-02" rms="3.0273401737213135e-01" purity="1.1205966025590897e-01" nType="-99"/>
            <Node pos="r" depth="3" NCoef="0" IVar="-1" Cut="0.0000000000000000e+00" cType="1" res="-4.1990026831626892e-02" rms="3.9609292149543762e-01" purity="2.6679033041000366e-01" nType="-99"/>
          </Node>
          <Node pos="r" depth="2" NCoef="0" IVar="-1" Cut="0.0000000000000000e+00" cType="1" res="-2.1389457397162914e-03" rms="4.3502980470657349e-01" purity="5.9191000461578369e-01" nType="-99"/>
        </Node>
        <Node pos="r" depth="1" NCoef="0" IVar="6" Cut="6.7089736461639404e-01" cType="1" res="2.0507579669356346e-02" rms="4.1511663794517517e-01" purity="5.4237610101699829e-01" nType="0">
          <Node pos="l" depth="2" NCoef="0" IVar="3" Cut="1.4638182067871094e+02" cType="1" res="4.9358263611793518e-02" rms="4.1543585062026978e-01" purity="6.1018842458724976e-01" nType="0">
            <Node pos="l" depth="3" NCoef="0" IVar="-1" Cut="0.0000000000000000e+00" cType="1" res="-8.8066160678863525e-03" rms="4.3016541004180908e-01" purity="3.3143308758735657e-01" nType="-99"/>
            <Node pos="r" depth="3" NCoef="0" IVar="-1" Cut="0.0000000000000000e+00" cType="1" res="3.3356722444295883e-02" rms="4.0952652692794800e-01" purity="6.8475013971328735e-01" nType="-99"/>
          </Node>
          <Node pos="r" depth="2" NCoef="0" IVar="0" Cut="5.4554071044921875e+02" cType="1" res="-5.1669590175151825e-02" rms="4.0542158484458923e-01" purity="3.7272650003433228e-01" nType="0">
            <Node pos="l" depth="3" NCoef="0" IVar="-1" Cut="0.0000000000000000e+00" cType="1" res="-3.6433931440114975e-02" rms="4.0008747577667236e-01" purity="3.0597996711730957e-01" nType="-99"/>
            <Node pos="r" depth="3" NCoef="0" IVar="-1" Cut="0.0000000000000000e+00" cType="1" res="2.3432228714227676e-02" rms="4.1707310080528259e-01" purity="7.0379585027694702e-01" nType="-99"/>
          </Node>
        </Node>
      </Node>
    </BinaryTree>
    <BinaryTree type="DecisionTree" boostWeight="1.0000000000000000e+00" itree="14">
      <Node pos="s" depth="0" NCoef="0" IVar="8" Cut="1.4665557146072388e+00" cType="1" res="2.2389718797057867e-03" rms="4.1396158933639526e-01" purity="5.0274997949600220e-01" nType="0">
        <Node pos="l" depth="1" NCoef="0" IVar="8" Cut="-1.3778198957443237e+00" cType="1" res="1.3475678861141205e-02" rms="4.1426724195480347e-01" purity="5.2467083930969238e-01" nType="0">
          <Node pos="l" depth="2" NCoef="0" IVar="9" Cut="-9.3305832147598267e-01" cType="1" res="-9.1072686016559601e-02" rms="3.9476606249809265e-01" purity="3.1494417786598206e-01" nType="0">
            <Node pos="l" depth="3" NCoef="0" IVar="-1" Cut="0.0000000000000000e+00" cType="1" res="-7.9307034611701965e-02" rms="3.6977550387382507e-01" purity="2.1717634797096252e-01" nType="-99"/>
            <Node pos="r" depth="3" NCoef="0" IVar="-1" Cut="0.0000000000000000e+00" cType="1" res="-3.4664008766412735e-02" rms="4.0195554494857788e-01" purity="3.5473170876502991e-01" nType="-99"/>
          </Node>
          <Node pos="r" depth="2" NCoef="0" IVar="7" Cut="1.4664621353149414e+00" cType="1" res="2.9000241309404373e-02" rms="4.1484457254409790e-01" purity="5.5581349134445190e-01" nType="0">
            <Node pos="l" depth="3" NCoef="0" IVar="-1" Cut="0.0000000000000000e+00" cType="1" res="1.9122803583741188e-02" rms="4.1537743806838989e-01" purity="5.7927083969116211e-01" nType="-99"/>
            <Node pos="r" depth="3" NCoef="0" IVar="-1" Cut="0.0000000000000000e+00" cType="1" res="-4.2113237082958221e-02" rms="3.9276319742202759e-01" purity="2.8464558720588684e-01" nType="-99"/>
          </Node>
        </Node>
        <Node pos="r" depth="1" NCoef="0" IVar="9" Cut="9.3328189849853516e-01" cType="1" res="-9.5011673867702484e-02" rms="3.9827489852905273e-01" purity="3.1303140521049500e-01" nType="0">
          <Node pos="l" depth="2" NCoef="0" IVar="8" Cut="2.0379703044891357e+00" cType="1" res="-7.3294036090373993e-02" rms="4.0702357888221741e-01" purity="3.4867516160011292e-01" nType="0">
            <Node pos="l" depth="3" NCoef="0" IVar="-1" Cut="0.0000000000000000e+00" cType="1" res="-2.1508634090423584e-02" rms="4.1389700770378113e-01" purity="4.0999826788902283e-01" nType="-99"/>
            <Node pos="r" depth="3" NCoef="0" IVar="-1" Cut="0.0000000000000000e+00" cType="1" res="-6.4432561397552490e-02" rms="3.8937094807624817e-01" purity="2.4296896159648895e-01" nType="-99"/>
          </Node>
          <Node pos="r" depth="2" NCoef="0" IVar="-1" Cut="0.0000000000000000e+00" cType="1" res="-7.4629463255405426e-02" rms="3.7275606393814087e-01" purity="2.3144927620887756e-01" nType="-99"/>
        </Node>
      </Node>
    </BinaryTree>
    <BinaryTree type="DecisionTree" boostWeight="1.0000000000000000e+00" itree="15">
      <Node pos="s" depth="0" NCoef="0" IVar="0" Cut="5.7280004882812500e+02" cType="1" res="6.7600340116769075e-04" rms="4.0990152955055237e-01" purity="5.0245589017868042e-01" nType="0">
        <Node pos="l" depth="1" NCoef="0" IVar="2" Cut="4.3359854125976562e+02" cType="1" res="-1.4663604088127613e-02" rms="4.1804468631744385e-01" purity="4.3654879927635193e-01" nType="0">
          <Node pos="l" depth="2" NCoef="0" IVar="1" Cut="9.8222399902343750e+02" cType="1" res="4.7744540497660637e-03" rms="4.1561782360076904e-01" purity="4.3758448958396912e-01" nType="0">
            <Node pos="l" depth="3" NCoef="0" IVar="-1" Cut="0.0000000000000000e+00" cType="1" res="-3.9623942226171494e-02" rms="3.4839117527008057e-01" purity="1.5930627286434174e-01" nType="-99"/>
            <Node pos="r" depth="3" NCoef="0" IVar="-1" Cut="0.0000000000000000e+00" cType="1" res="1.3505152426660061e-02" rms="4.3307432532310486e-01" purity="5.2984613180160522e-01" nType="-99"/>
          </Node>
          <Node pos="r" depth="2" NCoef="0" IVar="3" Cut="2.5737878417968750e+02" cType="1" res="-8.6034528911113739e-02" rms="4.1917634010314941e-01" purity="4.3274581432342529e-01" nType="0">
            <Node pos="l" depth="3" NCoef="0" IVar="-1" Cut="0.0000000000000000e+00" cType="1" res="-6.5002910792827606e-02" rms="4.0368336439132690e-01" purity="3.1123164296150208e-01" nType="-99"/>
            <Node pos="r" depth="3" NCoef="0" IVar="-1" Cut="0.0000000000000000e+00" cType="1" res="-1.7693009227514267e-02" rms="4.2884221673011780e-01" purity="5.5734431743621826e-01" nType="-99"/>
          </Node>
        </Node>
        <Node pos="r" depth="1" NCoef="0" IVar="2" Cut="6.3800451660156250e+02" cType="1" res="6.9896936416625977e-02" rms="3.6296248435974121e-01" purity="7.9986590147018433e-01" nType="0">
          <Node pos="l" depth="2" NCoef="0" IVar="5" Cut="7.1861846923828125e+01" cType="1" res="8.5624366998672485e-02" rms="3.4830549359321594e-01" purity="8.1898617744445801e-01" nType="0">
            <Node pos="l" depth="3" NCoef="0" IVar="-1" Cut="0.0000000000000000e+00" cType="1" res="2.2247543558478355e-02" rms="4.4765588641166687e-01" purity="6.3071769475936890e-01" nType="-99"/>
            <Node pos="r" depth="3" NCoef="0" IVar="-1" Cut="0.0000000000000000e+00" cType="1" res="5.9080243110656738e-02" rms="3.1279942393302917e-01" purity="8.7371486425399780e-01" nType="-99"/>
          </Node>
          <Node pos="r" depth="2" NCoef="0" IVar="-1" Cut="0.0000000000000000e+00" cType="1" res="5.6498670019209385e-03" rms="4.0820324420928955e-01" purity="7.2770446538925171e-01" nType="-99"/>
        </Node>
      </Node>
    </BinaryTree>
    <BinaryTree type="DecisionTree" boostWeight="1.0000000000000000e+00" itree="16">
      <Node pos="s" depth="0" NCoef="0" IVar="5" Cut="1.2018177795410156e+02" cType="1" res="5.5893859826028347e-04" rms="4.0770974755287170e-01" purity="5.0275295972824097e-01" nType="0">
        <Node pos="l" depth="1" NCoef="0" IVar="5" Cut="6.3367954254150391e+01" cType="1" res="-1.5301989391446114e-02" rms="4.1819354891777039e-01" purity="4.1959601640701294e-01" nType="0">
          <Node pos="l" depth="2" NCoef="0" IVar="7" Cut="-9.3340462446212769e-01" cType="1" res="-5.9393204748630524e-02" rms="3.8514477014541626e-01" purity="2.6128241419792175e-01" nType="0">
            <Node pos="l" depth="3" NCoef="0" IVar="-1" Cut="0.0000000000000000e+00" cType="1" res="-5.7566311210393906e-02" rms="3.3549913763999939e-01" purity="1.6611373424530029e-01" nType="-99"/>
            <Node pos="r" depth="3" NCoef="0" IVar="-1" Cut="0.0000000000000000e+00" cType="1" res="-2.5222558528184891e-02" rms="3.9760151505470276e-01" purity="2.8876078128814697e-01" nType="-99"/>
          </Node>
          <Node pos="r" depth="2" NCoef="0" IVar="7" Cut="-1.7332048416137695e+00" cType="1" res="6.0307877138257027e-03" rms="4.3166610598564148e-01" purity="4.9619331955909729e-01" nType="0">
            <Node pos="l" depth="3" NCoef="0" IVar="-1" Cut="0.0000000000000000e+00" cType="1" res="-7.1598462760448456e-02" rms="3.6091664433479309e-01" purity="1.9813859462738037e-01" nType="-99"/>
            <Node pos="r" depth="3" NCoef="0" IVar="-1" Cut="0.0000000000000000e+00" cType="1" res="7.1578929200768471e-03" rms="4.3406361341476440e-01" purity="5.1438415050506592e-01" nType="-99"/>
          </Node>
        </Node>
        <Node pos="r" depth="1" NCoef="0" IVar="7" Cut="9.3314409255981445e-01" cType="1" res="5.7772569358348846e-02" rms="3.6168080568313599e-01" purity="8.0271726846694946e-01" nType="0">
          <Node pos="l" depth="2" NCoef="0" IVar="2" Cut="5.6873266601562500e+02" cType="1" res="7.0162475109100342e-02" rms="3.4915083646774292e-01" purity="8.2335776090621948e-01" nType="0">
            <Node pos="l" depth="3" NCoef="0" IVar="-1" Cut="0.0000000000000000e+00" cType="1" res="4.6193782240152359e-02" rms="3.4531068801879883e-01" purity="8.2633692026138306e-01" nType="-99"/>
            <Node pos="r" depth="3" NCoef="0" IVar="-1" Cut="0.0000000000000000e+00" cType="1" res="5.8232103474438190e-03" rms="3.6584299802780151e-01" purity="8.0516141653060913e-01" nType="-99"/>
          </Node>
          <Node pos="r" depth="2" NCoef="0" IVar="-1" Cut="0.0000000000000000e+00" cType="1" res="-7.4972612783312798e-03" rms="4.2007207870483398e-01" purity="6.8287491798400879e-01" nType="-99"/>
        </Node>
      </Node>
    </BinaryTree>
    <BinaryTree type="DecisionTree" boostWeight="1.0000000000000000e+00" itree="17">
      <Node pos="s" depth="0" NCoef="0" IVar="6" Cut="1.4692428112030029e+00" cType="1" res="-3.9039801340550184e-03" rms="4.0701752901077271e-01" purity="4.9692839384078979e-01" nType="0">
        <Node pos="l" depth="1" NCoef="0" IVar="6" Cut="-1.3693341016769409e+00" cType="1" res="3.9051410276442766e-03" rms="4.1015926003456116e-01" purity="5.1969277858734131e-01" nType="0">
          <Node pos="l" depth="2" NCoef="0" IVar="2" Cut="3.5728948974609375e+02" cType="1" res="-1.0077610611915588e-01" rms="3.5511538386344910e-01" purity="2.0536091923713684e-01" nType="0">
            <Node pos="l" depth="3" NCoef="0" IVar="-1" Cut="0.0000000000000000e+00" cType="1" res="-4.5013200491666794e-02" rms="3.5353729128837585e-01" purity="2.1002487838268280e-01" nType="-99"/>
            <Node pos="r" depth="3" NCoef="0" IVar="-1" Cut="0.0000000000000000e+00" cType="1" res="-7.4593946337699890e-02" rms="3.5445225238800049e-01" purity="1.9709557294845581e-01" nType="-99"/>
          </Node>
          <Node pos="r" depth="2" NCoef="0" IVar="7" Cut="1.7333329916000366e+00" cType="1" res="1.3422020711004734e-02" rms="4.1348931193351746e-01" purity="5.4826956987380981e-01" nType="0">
            <Node pos="l" depth="3" NCoef="0" IVar="-1" Cut="0.0000000000000000e+00" cType="1" res="1.0467767715454102e-02" rms="4.1519170999526978e-01" purity="5.6622081995010376e-01" nType="-99"/>
            <Node pos="r" depth="3" NCoef="0" IVar="-1" Cut="0.0000000000000000e+00" cType="1" res="-6.0713451355695724e-02" rms="3.6003926396369934e-01" purity="2.2883675992488861e-01" nType="-99"/>
          </Node>
        </Node>
        <Node pos="r" depth="1" NCoef="0" IVar="1" Cut="1.1492259521484375e+03" cType="1" res="-1.1243135482072830e-01" rms="3.4257534146308899e-01" purity="1.8056041002273560e-01" nType="0">
          <Node pos="l" depth="2" NCoef="0" IVar="-1" Cut="0.0000000000000000e+00" cType="1" res="-5.5562127381563187e-02" rms="3.0125662684440613e-01" purity="1.0791145265102386e-01" nType="-99"/>
          <Node pos="r" depth="2" NCoef="0" IVar="-1" Cut="0.0000000000000000e+00" cType="1" res="-7.3122002184391022e-02" rms="3.8677933812141418e-01" purity="2.7685397863388062e-01" nType="-99"/>
        </Node>
      </Node>
    </BinaryTree>
    <BinaryTree type="DecisionTree" boostWeight="1.0000000000000000e+00" itree="18">
      <Node pos="s" depth="0" NCoef="0" IVar="6" Cut="1.4693398475646973e+00" cType="1" res="1.6417406732216477e-03" rms="4.0836724638938904e-01" purity="5.0190919637680054e-01" nType="0">
        <Node pos="l" depth="1" NCoef="0" IVar="6" Cut="-5.5806195735931396e-01" cType="1" res="8.7575111538171768e-03" rms="4.1216412186622620e-01" purity="5.2503377199172974e-01" nType="0">
          <Node pos="l" depth="2" NCoef="0" IVar="7" Cut="1.4664216041564941e+00" cType="1" res="-3.6087781190872192e-02" rms="4.0677785873413086e-01" purity="4.0448048710823059e-01" nType="0">
            <Node pos="l" depth="3" NCoef="0" IVar="-1" Cut="0.0000000000000000e+00" cType="1" res="-1.3342260383069515e-02" rms="4.1388085484504700e-01" purity="4.3307870626449585e-01" nType="-99"/>
            <Node pos="r" depth="3" NCoef="0" IVar="-1" Cut="0.0000000000000000e+00" cType="1" res="-8.3748869597911835e-02" rms="3.1362470984458923e-01" purity="1.2915609776973724e-01" nType="-99"/>
          </Node>
          <Node pos="r" depth="2" NCoef="0" IVar="6" Cut="6.0045522451400757e-01" cType="1" res="2.7686813846230507e-02" rms="4.1295754909515381e-01" purity="5.7591956853866577e-01" nType="0">
            <Node pos="l" depth="3" NCoef="0" IVar="-1" Cut="0.0000000000000000e+00" cType="1" res="2.5613471865653992e-02" rms="4.1157943010330200e-01" purity="6.2727338075637817e-01" nType="-99"/>
            <Node pos="r" depth="3" NCoef="0" IVar="-1" Cut="0.0000000000000000e+00" cType="1" res="-1.2345858849585056e-02" rms="4.1162776947021484e-01" purity="4.5483255386352539e-01" nType="-99"/>
          </Node>
        </Node>
        <Node pos="r" depth="1" NCoef="0" IVar="2" Cut="3.5036892700195312e+02" cType="1" res="-9.8195411264896393e-02" rms="3.3522400259971619e-01" purity="1.7746266722679138e-01" nType="0">
          <Node pos="l" depth="2" NCoef="0" IVar="-1" Cut="0.0000000000000000e+00" cType="1" res="-4.2965717613697052e-02" rms="3.4444060921669006e-01" purity="1.7920914292335510e-01" nType="-99"/>
          <Node pos="r" depth="2" NCoef="0" IVar="-1" Cut="0.0000000000000000e+00" cType="1" res="-8.0211699008941650e-02" rms="3.1436774134635925e-01" purity="1.7466369271278381e-01" nType="-99"/>
        </Node>
      </Node>
    </BinaryTree>
    <BinaryTree type="DecisionTree" boostWeight="1.0000000000000000e+00" itree="19">
      <Node pos="s" depth="0" NCoef="0" IVar="7" Cut="-9.3328660726547241e-01" cType="1" res="-2.9126752633601427e-04" rms="4.0631571412086487e-01" purity="4.9875572323799133e-01" nType="0">
        <Node pos="l" depth="1" NCoef="0" IVar="2" Cut="5.0379855346679688e+02" cType="1" res="-5.5008154362440109e-02" rms="3.9407685399055481e-01" purity="3.5402649641036987e-01" nType="0">
          <Node pos="l" depth="2" NCoef="0" IVar="0" Cut="4.0864517211914062e+02" cType="1" res="-3.9262965321540833e-02" rms="3.9083030819892883e-01" purity="3.5138261318206787e-01" nType="0">
            <Node pos="l" depth="3" NCoef="0" IVar="-1" Cut="0.0000000000000000e+00" cType="1" res="-4.3378569185733795e-02" rms="3.6466893553733826e-01" purity="2.0961256325244904e-01" nType="-99"/>
            <Node pos="r" depth="3" NCoef="0" IVar="-1" Cut="0.0000000000000000e+00" cType="1" res="5.8628115803003311e-03" rms="4.1957393288612366e-01" purity="5.5019241571426392e-01" nType="-99"/>
          </Node>
          <Node pos="r" depth="2" NCoef="0" IVar="-1" Cut="0.0000000000000000e+00" cType="1" res="-7.6344050467014313e-02" rms="4.0006354451179504e-01" purity="3.7034282088279724e-01" nType="-99"/>
        </Node>
        <Node pos="r" depth="1" NCoef="0" IVar="7" Cut="1.0221781730651855e+00" cType="1" res="1.2551701627671719e-02" rms="4.0807357430458069e-01" purity="5.3272616863250732e-01" nType="0">
          <Node pos="l" depth="2" NCoef="0" IVar="3" Cut="1.4619770812988281e+02" cType="1" res="2.8413658961653709e-02" rms="4.1046747565269470e-01" purity="5.8611679077148438e-01" nType="0">
            <Node pos="l" depth="3" NCoef="0" IVar="-1" Cut="0.0000000000000000e+00" cType="1" res="-1.5016879886388779e-02" rms="4.1361764073371887e-01" purity="2.9428997635841370e-01" nType="-99"/>
            <Node pos="r" depth="3" NCoef="0" IVar="-1" Cut="0.0000000000000000e+00" cType="1" res="2.2693105041980743e-02" rms="4.0826776623725891e-01" purity="6.6345304250717163e-01" nType="-99"/>
          </Node>
          <Node pos="r" depth="2" NCoef="0" IVar="2" Cut="4.5912652587890625e+02" cType="1" res="-4.5352570712566376e-02" rms="3.9382669329643250e-01" purity="3.3782282471656799e-01" nType="0">
            <Node pos="l" depth="3" NCoef="0" IVar="-1" Cut="0.0000000000000000e+00" cType="1" res="-1.4471488073468208e-02" rms="3.8915377855300903e-01" purity="3.3590865135192871e-01" nType="-99"/>
            <Node pos="r" depth="3" NCoef="0" IVar="-1" Cut="0.0000000000000000e+00" cType="1" res="-6.5149553120136261e-02" rms="4.0210852026939392e-01" purity="3.4563598036766052e-01" nType="-99"/>
          </Node>
        </Node>
      </Node>
    </BinaryTree>
    <BinaryTree type="DecisionTree" boostWeight="1.0000000000000000e+00" itree="20">
      <Node pos="s" depth="0" NCoef="0" IVar="0" Cut="4.5299456787109375e+02" cType="1" res="5.2390561904758215e-04" rms="4.0572246909141541e-01" purity="4.9981811642646790e-01" nType="0">
        <Node pos="l" depth="1" NCoef="0" IVar="2" Cut="3.3078860473632812e+02" cType="1" res="-1.9688757136464119e-02" rms="4.1326668858528137e-01" purity="3.6324477195739746e-01" nType="0">
          <Node pos="l" depth="2" NCoef="0" IVar="1" Cut="1.0106817016601562e+03" cType="1" res="1.0712223127484322e-02" rms="4.1702026128768921e-01" purity="3.6723923683166504e-01" nType="0">
            <Node pos="l" depth="3" NCoef="0" IVar="-1" Cut="0.0000000000000000e+00" cType="1" res="-1.9116975367069244e-02" rms="3.7378776073455811e-01" purity="1.9108760356903076e-01" nType="-99"/>
            <Node pos="r" depth="3" NCoef="0" IVar="-1" Cut="0.0000000000000000e+00" cType="1" res="2.3412844166159630e-02" rms="4.5107045769691467e-01" purity="5.3621172904968262e-01" nType="-99"/>
          </Node>
          <Node pos="r" depth="2" NCoef="0" IVar="4" Cut="1.7861837768554688e+02" cType="1" res="-5.7866875082254410e-02" rms="4.0528672933578491e-01" purity="3.5822847485542297e-01" nType="0">
            <Node pos="l" depth="3" NCoef="0" IVar="-1" Cut="0.0000000000000000e+00" cType="1" res="-3.9341658353805542e-02" rms="3.9645263552665710e-01" purity="2.7911451458930969e-01" nType="-99"/>
            <Node pos="r" depth="3" NCoef="0" IVar="-1" Cut="0.0000000000000000e+00" cType="1" res="3.2972838380374014e-04" rms="4.2859324812889099e-01" purity="6.2496817111968994e-01" nType="-99"/>
          </Node>
        </Node>
        <Node pos="r" depth="1" NCoef="0" IVar="2" Cut="6.0637542724609375e+02" cType="1" res="3.2070923596620560e-02" rms="3.9157950878143311e-01" purity="7.1297568082809448e-01" nType="0">
          <Node pos="l" depth="2" NCoef="0" IVar="7" Cut="-9.3330574035644531e-01" cType="1" res="4.3568495661020279e-02" rms="3.8495376706123352e-01" purity="7.2201377153396606e-01" nType="0">
            <Node pos="l" depth="3" NCoef="0" IVar="-1" Cut="0.0000000000000000e+00" cType="1" res="-4.2967521585524082e-03" rms="4.3035811185836792e-01" purity="5.8173769712448120e-01" nType="-99"/>
            <Node pos="r" depth="3" NCoef="0" IVar="-1" Cut="0.0000000000000000e+00" cType="1" res="3.0409596860408783e-02" rms="3.7484979629516602e-01" purity="7.4877279996871948e-01" nType="-99"/>
          </Node>
          <Node pos="r" depth="2" NCoef="0" IVar="4" Cut="1.6004954528808594e+02" cType="1" res="-3.4245014190673828e-02" rms="4.2172303795814514e-01" purity="6.6084516048431396e-01" nType="0">
            <Node pos="l" depth="3" NCoef="0" IVar="-1" Cut="0.0000000000000000e+00" cType="1" res="-2.4831634014844894e-02" rms="4.4259563088417053e-01" purity="5.7183980941772461e-01" nType="-99"/>
            <Node pos="r" depth="3" NCoef="0" IVar="-1" Cut="0.0000000000000000e+00" cType="1" res="-7.8013464808464050e-03" rms="3.9289468526840210e-01" purity="7.7250850200653076e-01" nType="-99"/>
          </Node>
        </Node>
      </Node>
    </BinaryTree>
    <BinaryTree type="DecisionTree" boostWeight="1.0000000000000000e+00" itree="21">
      <Node pos="s" depth="0" NCoef="0" IVar="8" Cut="1.1999810934066772e+00" cType="1" res="-1.7876166384667158e-04" rms="4.0694528818130493e-01" purity="4.9818974733352661e-01" nType="0">
        <Node pos="l" depth="1" NCoef="0" IVar="8" Cut="-8.9524465799331665e-01" cType="1" res="9.4956550747156143e-03" rms="4.0752544999122620e-01" purity="5.2299994230270386e-01" nType="0">
          <Node pos="l" depth="2" NCoef="0" IVar="9" Cut="-1.4666357040405273e+00" cType="1" res="-3.8399942219257355e-02" rms="4.0076634287834167e-01" purity="4.0285909175872803e-01" nType="0">
            <Node pos="l" depth="3" NCoef="0" IVar="-1" Cut="0.0000000000000000e+00" cType="1" res="-6.5365225076675415e-02" rms="3.6709761619567871e-01" purity="2.6339769363403320e-01" nType="-99"/>
            <Node pos="r" depth="3" NCoef="0" IVar="-1" Cut="0.0000000000000000e+00" cType="1" res="-1.3175786472856998e-02" rms="4.0507325530052185e-01" purity="4.2867201566696167e-01" nType="-99"/>
          </Node>
          <Node pos="r" depth="2" NCoef="0" IVar="2" Cut="6.0637335205078125e+02" cType="1" res="2.6913831010460854e-02" rms="4.0856599807739258e-01" purity="5.6669151782989502e-01" nType="0">
            <Node pos="l" depth="3" NCoef="0" IVar="-1" Cut="0.0000000000000000e+00" cType="1" res="1.7760274931788445e-02" rms="4.0698871016502380e-01" purity="5.6253421306610107e-01" nType="-99"/>
            <Node pos="r" depth="3" NCoef="0" IVar="-1" Cut="0.0000000000000000e+00" cType="1" res="-2.3170860484242439e-02" rms="4.1957655549049377e-01" purity="6.1396497488021851e-01" nType="-99"/>
          </Node>
        </Node>
        <Node pos="r" depth="1" NCoef="0" IVar="9" Cut="9.3356424570083618e-01" cType="1" res="-5.4382156580686569e-02" rms="3.9936789870262146e-01" purity="3.5918444395065308e-01" nType="0">
          <Node pos="l" depth="2" NCoef="0" IVar="7" Cut="6.6666263341903687e-01" cType="1" res="-3.2646089792251587e-02" rms="4.0767413377761841e-01" purity="4.0395891666412354e-01" nType="0">
            <Node pos="l" depth="3" NCoef="0" IVar="-1" Cut="0.0000000000000000e+00" cType="1" res="-7.6267048716545105e-03" rms="4.1812703013420105e-01" purity="4.4885551929473877e-01" nType="-99"/>
            <Node pos="r" depth="3" NCoef="0" IVar="-1" Cut="0.0000000000000000e+00" cType="1" res="-4.0786404162645340e-02" rms="3.8015100359916687e-01" purity="3.0345451831817627e-01" nType="-99"/>
          </Node>
          <Node pos="r" depth="2" NCoef="0" IVar="-1" Cut="0.0000000000000000e+00" cType="1" res="-6.0325108468532562e-02" rms="3.7297329306602478e-01" purity="2.4963474273681641e-01" nType="-99"/>
        </Node>
      </Node>
    </BinaryTree>
    <BinaryTree type="DecisionTree" boostWeight="1.0000000000000000e+00" itree="22">
      <Node pos="s" depth="0" NCoef="0" IVar="9" Cut="1.7333378791809082e+00" cType="1" res="1.5464591560885310e-03" rms="4.0400850772857666e-01" purity="5.0291317701339722e-01" nType="0">
        <Node pos="l" depth="1" NCoef="0" IVar="9" Cut="-1.5047072172164917e+00" cType="1" res="8.1043811514973640e-03" rms="4.0388852357864380e-01" purity="5.1750355958938599e-01" nType="0">
          <Node pos="l" depth="2" NCoef="0" IVar="2" Cut="4.3401309204101562e+02" cType="1" res="-5.3796816617250443e-02" rms="3.9528194069862366e-01" purity="3.8291820883750916e-01" nType="0">
            <Node pos="l" depth="3" NCoef="0" IVar="-1" Cut="0.0000000000000000e+00" cType="1" res="-1.9724020734429359e-02" rms="3.9398187398910522e-01" purity="3.7878367304801941e-01" nType="-99"/>
            <Node pos="r" depth="3" NCoef="0" IVar="-1" Cut="0.0000000000000000e+00" cType="1" res="-5.8639824390411377e-02" rms="3.9378753304481506e-01" purity="3.9603739976882935e-01" nType="-99"/>
          </Node>
          <Node pos="r" depth="2" NCoef="0" IVar="0" Cut="4.5299548339843750e+02" cType="1" res="1.7002269625663757e-02" rms="4.0433236956596375e-01" purity="5.3684937953948975e-01" nType="0">
            <Node pos="l" depth="3" NCoef="0" IVar="-1" Cut="0.0000000000000000e+00" cType="1" res="-6.0026010032743216e-04" rms="4.1834306716918945e-01" purity="3.9673858880996704e-01" nType="-99"/>
            <Node pos="r" depth="3" NCoef="0" IVar="-1" Cut="0.0000000000000000e+00" cType="1" res="2.4796109646558762e-02" rms="3.8142710924148560e-01" purity="7.4126464128494263e-01" nType="-99"/>
          </Node>
        </Node>
        <Node pos="r" depth="1" NCoef="0" IVar="4" Cut="1.3404386901855469e+02" cType="1" res="-7.0404693484306335e-02" rms="3.9829358458518982e-01" purity="3.4283199906349182e-01" nType="0">
          <Node pos="l" depth="2" NCoef="0" IVar="6" Cut="2.3353910446166992e-01" cType="1" res="-5.3208887577056885e-02" rms="3.8519871234893799e-01" purity="2.5989025831222534e-01" nType="0">
            <Node pos="l" depth="3" NCoef="0" IVar="-1" Cut="0.0000000000000000e+00" cType="1" res="-2.1489735692739487e-02" rms="4.0370023250579834e-01" purity="2.9557368159294128e-01" nType="-99"/>
            <Node pos="r" depth="3" NCoef="0" IVar="-1" Cut="0.0000000000000000e+00" cType="1" res="-4.0167454630136490e-02" rms="3.6224582791328430e-01" purity="2.1895928680896759e-01" nType="-99"/>
          </Node>
          <Node pos="r" depth="2" NCoef="0" IVar="-1" Cut="0.0000000000000000e+00" cType="1" res="-5.4840557277202606e-02" rms="4.2136543989181519e-01" purity="5.1028227806091309e-01" nType="-99"/>
        </Node>
      </Node>
    </BinaryTree>
    <BinaryTree type="DecisionTree" boostWeight="1.0000000000000000e+00" itree="23">
      <Node pos="s" depth="0" NCoef="0" IVar="5" Cut="1.1043246459960938e+02" cType="1" res="-1.4747234527021646e-03" rms="4.0326756238937378e-01" purity="4.9799412488937378e-01" nType="0">
        <Node pos="l" depth="1" NCoef="0" IVar="2" Cut="3.4596862792968750e+02" cType="1" res="-1.4536338858306408e-02" rms="4.1478380560874939e-01" purity="3.9414069056510925e-01" nType="0">
          <Node pos="l" depth="2" NCoef="0" IVar="0" Cut="3.4496017456054688e+02" cType="1" res="4.8145749606192112e-03" rms="4.1725710034370422e-01" purity="3.6671799421310425e-01" nType="0">
            <Node pos="l" depth="3" NCoef="0" IVar="-1" Cut="0.0000000000000000e+00" cType="1" res="-1.7971815541386604e-02" rms="3.9161977171897888e-01" purity="2.3006168007850647e-01" nType="-99"/>
            <Node pos="r" depth="3" NCoef="0" IVar="-1" Cut="0.0000000000000000e+00" cType="1" res="1.1509574018418789e-02" rms="4.2808517813682556e-01" purity="4.3313229084014893e-01" nType="-99"/>
          </Node>
          <Node pos="r" depth="2" NCoef="0" IVar="0" Cut="5.5700921630859375e+02" cType="1" res="-3.6630466580390930e-02" rms="4.1082879900932312e-01" purity="4.2545083165168762e-01" nType="0">
            <Node pos="l" depth="3" NCoef="0" IVar="-1" Cut="0.0000000000000000e+00" cType="1" res="-2.9286576434969902e-02" rms="4.0578344464302063e-01" purity="3.3304491639137268e-01" nType="-99"/>
            <Node pos="r" depth="3" NCoef="0" IVar="-1" Cut="0.0000000000000000e+00" cType="1" res="1.0146492160856724e-02" rms="4.1959354281425476e-01" purity="6.8568795919418335e-01" nType="-99"/>
          </Node>
        </Node>
        <Node pos="r" depth="1" NCoef="0" IVar="9" Cut="1.1996570825576782e+00" cType="1" res="3.3570345491170883e-02" rms="3.6832326650619507e-01" purity="7.7663892507553101e-01" nType="0">
          <Node pos="l" depth="2" NCoef="0" IVar="9" Cut="-8.9521676301956177e-01" cType="1" res="4.2602125555276871e-02" rms="3.6059555411338806e-01" purity="7.9161810874938965e-01" nType="0">
            <Node pos="l" depth="3" NCoef="0" IVar="-1" Cut="0.0000000000000000e+00" cType="1" res="1.3110549189150333e-03" rms="3.8893687725067139e-01" purity="7.2072964906692505e-01" nType="-99"/>
            <Node pos="r" depth="3" NCoef="0" IVar="-1" Cut="0.0000000000000000e+00" cType="1" res="3.4007392823696136e-02" rms="3.5029608011245728e-01" purity="8.1381911039352417e-01" nType="-99"/>
          </Node>
          <Node pos="r" depth="2" NCoef="0" IVar="-1" Cut="0.0000000000000000e+00" cType="1" res="-1.7534984275698662e-02" rms="4.1414389014244080e-01" purity="6.6840356588363647e-01" nType="-99"/>
        </Node>
      </Node>
    </BinaryTree>
    <BinaryTree type="DecisionTree" boostWeight="1.0000000000000000e+00" itree="24">
      <Node pos="s" depth="0" NCoef="0" IVar="8" Cut="-1.9999969005584717e+00" cType="1" res="-3.2834024168550968e-03" rms="3.9936906099319458e-01" purity="4.9582937359809875e-01" nType="0">
        <Node pos="l" depth="1" NCoef="0" IVar="-1" Cut="0.0000000000000000e+00" cType="1" res="-6.9363638758659363e-02" rms="3.3096051216125488e-01" purity="1.9977132976055145e-01" nType="-99"/>
        <Node pos="r" depth="1" NCoef="0" IVar="6" Cut="1.2031019926071167e+00" cType="1" res="1.3434110442176461e-03" rms="4.0133190155029297e-01" purity="5.0828480720520020e-01" nType="0">
          <Node pos="l" depth="2" NCoef="0" IVar="6" Cut="-6.9752901792526245e-01" cType="1" res="8.5493279621005058e-03" rms="4.0568479895591736e-01" purity="5.4153013229370117e-01" nType="0">
            <Node pos="l" depth="3" NCoef="0" IVar="-1" Cut="0.0000000000000000e+00" cType="1" res="-1.8963905051350594e-02" rms="3.9609065651893616e-01" purity="3.8574808835983276e-01" nType="-99"/>
            <Node pos="r" depth="3" NCoef="0" IVar="-1" Cut="0.0000000000000000e+00" cType="1" res="1.2325511313974857e-02" rms="4.0784046053886414e-01" purity="5.9374690055847168e-01" nType="-99"/>
          </Node>
          <Node pos="r" depth="2" NCoef="0" IVar="6" Cut="1.5072065591812134e+00" cType="1" res="-5.9138394892215729e-02" rms="3.5705590248107910e-01" purity="2.2924534976482391e-01" nType="0">
            <Node pos="l" depth="3" NCoef="0" IVar="-1" Cut="0.0000000000000000e+00" cType="1" res="-1.6722328960895538e-02" rms="3.9090418815612793e-01" purity="3.0814614892005920e-01" nType="-99"/>
            <Node pos="r" depth="3" NCoef="0" IVar="-1" Cut="0.0000000000000000e+00" cType="1" res="-5.0860352814197540e-02" rms="3.3006983995437622e-01" purity="1.7461977899074554e-01" nType="-99"/>
          </Node>
        </Node>
      </Node>
    </BinaryTree>
    <BinaryTree type="DecisionTree" boostWeight="1.0000000000000000e+00" itree="25">
      <Node pos="s" depth="0" NCoef="0" IVar="8" Cut="9.3332880735397339e-01" cType="1" res="-9.4755110330879688e-04" rms="4.0208950638771057e-01" purity="4.9611762166023254e-01" nType="0">
        <Node pos="l" depth="1" NCoef="0" IVar="8" Cut="-1.5554459095001221e+00" cType="1" res="8.9835487306118011e-03" rms="4.0344098210334778e-01" purity="5.2332466840744019e-01" nType="0">
          <Node pos="l" depth="2" NCoef="0" IVar="6" Cut="4.2006611824035645e-01" cType="1" res="-4.9722049385309219e-02" rms="3.7700194120407104e-01" purity="3.0135980248451233e-01" nType="0">
            <Node pos="l" depth="3" NCoef="0" IVar="-1" Cut="0.0000000000000000e+00" cType="1" res="-1.7251754179596901e-02" rms="3.8475432991981506e-01" purity="3.4555128216743469e-01" nType="-99"/>
            <Node pos="r" depth="3" NCoef="0" IVar="-1" Cut="0.0000000000000000e+00" cType="1" res="-6.3694663345813751e-02" rms="3.5223218798637390e-01" purity="1.9236862659454346e-01" nType="-99"/>
          </Node>
          <Node pos="r" depth="2" NCoef="0" IVar="6" Cut="-1.4581344127655029e+00" cType="1" res="1.6678638756275177e-02" rms="4.0615069866180420e-01" purity="5.5241966247558594e-01" nType="0">
            <Node pos="l" depth="3" NCoef="0" IVar="-1" Cut="0.0000000000000000e+00" cType="1" res="-3.6452751606702805e-02" rms="3.7577143311500549e-01" purity="2.3143197596073151e-01" nType="-99"/>
            <Node pos="r" depth="3" NCoef="0" IVar="-1" Cut="0.0000000000000000e+00" cType="1" res="1.1844498105347157e-02" rms="4.0753838419914246e-01" purity="5.7353979349136353e-01" nType="-99"/>
          </Node>
        </Node>
        <Node pos="r" depth="1" NCoef="0" IVar="0" Cut="4.0721505737304688e+02" cType="1" res="-3.7750873714685440e-02" rms="3.9486899971961975e-01" purity="3.9529204368591309e-01" nType="0">
          <Node pos="l" depth="2" NCoef="0" IVar="0" Cut="3.3063717651367188e+02" cType="1" res="-6.1681400984525681e-02" rms="3.7638333439826965e-01" purity="2.3979708552360535e-01" nType="0">
            <Node pos="l" depth="3" NCoef="0" IVar="-1" Cut="0.0000000000000000e+00" cType="1" res="-6.5893046557903290e-02" rms="3.2889175415039062e-01" purity="1.6666980087757111e-01" nType="-99"/>
            <Node pos="r" depth="3" NCoef="0" IVar="-1" Cut="0.0000000000000000e+00" cType="1" res="-2.1100426092743874e-02" rms="3.9682787656784058e-01" purity="2.7819824218750000e-01" nType="-99"/>
          </Node>
          <Node pos="r" depth="2" NCoef="0" IVar="9" Cut="9.3333321809768677e-01" cType="1" res="-1.2679223902523518e-02" rms="4.1186150908470154e-01" purity="5.5820173025131226e-01" nType="0">
            <Node pos="l" depth="3" NCoef="0" IVar="-1" Cut="0.0000000000000000e+00" cType="1" res="2.8116644825786352e-03" rms="4.1188871860504150e-01" purity="5.9117025136947632e-01" nType="-99"/>
            <Node pos="r" depth="3" NCoef="0" IVar="-1" Cut="0.0000000000000000e+00" cType="1" res="-3.4530356526374817e-02" rms="4.0730282664299011e-01" purity="4.6208101511001587e-01" nType="-99"/>
          </Node>
        </Node>
      </Node>
    </BinaryTree>
    <BinaryTree type="DecisionTree" boostWeight="1.0000000000000000e+00" itree="26">
      <Node pos="s" depth="0" NCoef="0" IVar="7" Cut="-1.7332614660263062e+00" cType="1" res="-8.2895252853631973e-04" rms="4.0227794647216797e-01" purity="4.9577909708023071e-01" nType="0">
        <Node pos="l" depth="1" NCoef="0" IVar="6" Cut="1.5801113843917847e-01" cType="1" res="-7.8753501176834106e-02" rms="3.4240517020225525e-01" purity="2.2136731445789337e-01" nType="0">
          <Node pos="l" depth="2" NCoef="0" IVar="-1" Cut="0.0000000000000000e+00" cType="1" res="-3.3829703927040100e-02" rms="3.5764443874359131e-01" purity="2.4665613472461700e-01" nType="-99"/>
          <Node pos="r" depth="2" NCoef="0" IVar="-1" Cut="0.0000000000000000e+00" cType="1" res="-7.0486061275005341e-02" rms="3.1789001822471619e-01" purity="1.8730477988719940e-01" nType="-99"/>
        </Node>
        <Node pos="r" depth="1" NCoef="0" IVar="7" Cut="6.4125150442123413e-01" cType="1" res="4.0791910141706467e-03" rms="4.0525215864181519e-01" purity="5.1306313276290894e-01" nType="0">
          <Node pos="l" depth="2" NCoef="0" IVar="8" Cut="1.7333102226257324e+00" cType="1" res="1.7861429601907730e-02" rms="4.0716826915740967e-01" purity="5.5686867237091064e-01" nType="0">
            <Node pos="l" depth="3" NCoef="0" IVar="-1" Cut="0.0000000000000000e+00" cType="1" res="1.2382814660668373e-02" rms="4.0765157341957092e-01" purity="5.7147085666656494e-01" nType="-99"/>
            <Node pos="r" depth="3" NCoef="0" IVar="-1" Cut="0.0000000000000000e+00" cType="1" res="-3.5043422132730484e-02" rms="3.9057171344757080e-01" purity="3.1979259848594666e-01" nType="-99"/>
          </Node>
          <Node pos="r" depth="2" NCoef="0" IVar="2" Cut="4.4429980468750000e+02" cType="1" res="-3.0075743794441223e-02" rms="3.9841461181640625e-01" purity="4.0450495481491089e-01" nType="0">
            <Node pos="l" depth="3" NCoef="0" IVar="-1" Cut="0.0000000000000000e+00" cType="1" res="-9.0799145400524139e-03" rms="3.9534500241279602e-01" purity="3.9761996269226074e-01" nType="-99"/>
            <Node pos="r" depth="3" NCoef="0" IVar="-1" Cut="0.0000000000000000e+00" cType="1" res="-4.1909493505954742e-02" rms="4.0485352277755737e-01" purity="4.2766383290290833e-01" nType="-99"/>
          </Node>
        </Node>
      </Node>
    </BinaryTree>
    <BinaryTree type="DecisionTree" boostWeight="1.0000000000000000e+00" itree="27">
      <Node pos="s" depth="0" NCoef="0" IVar="2" Cut="3.5189852905273438e+02" cType="1" res="3.7046443321742117e-04" rms="4.0158411860466003e-01" purity="5.0003880262374878e-01" nType="0">
        <Node pos="l" depth="1" NCoef="0" IVar="1" Cut="1.1794943847656250e+03" cType="1" res="1.9273715093731880e-02" rms="4.0761646628379822e-01" purity="4.6691799163818359e-01" nType="0">
          <Node pos="l" depth="2" NCoef="0" IVar="0" Cut="3.3445715332031250e+02" cType="1" res="-2.1612709388136864e-03" rms="4.1654154658317566e-01" purity="3.0573761463165283e-01" nType="0">
            <Node pos="l" depth="3" NCoef="0" IVar="-1" Cut="0.0000000000000000e+00" cType="1" res="-2.6533324271440506e-02" rms="3.7707325816154480e-01" purity="2.2224983572959900e-01" nType="-99"/>
            <Node pos="r" depth="3" NCoef="0" IVar="-1" Cut="0.0000000000000000e+00" cType="1" res="9.5203723758459091e-03" rms="4.3217873573303223e-01" purity="3.4439107775688171e-01" nType="-99"/>
          </Node>
          <Node pos="r" depth="2" NCoef="0" IVar="7" Cut="-6.6671335697174072e-01" cType="1" res="5.6569565087556839e-02" rms="3.8879588246345520e-01" purity="7.4736398458480835e-01" nType="0">
            <Node pos="l" depth="3" NCoef="0" IVar="-1" Cut="0.0000000000000000e+00" cType="1" res="8.1654181703925133e-03" rms="4.1578352451324463e-01" purity="6.6368293762207031e-01" nType="-99"/>
            <Node pos="r" depth="3" NCoef="0" IVar="-1" Cut="0.0000000000000000e+00" cType="1" res="3.8545046001672745e-02" rms="3.7945446372032166e-01" purity="7.7249872684478760e-01" nType="-99"/>
          </Node>
        </Node>
        <Node pos="r" depth="1" NCoef="0" IVar="0" Cut="6.0413476562500000e+02" cType="1" res="-2.0759319886565208e-02" rms="3.9365920424461365e-01" purity="5.3706073760986328e-01" nType="0">
          <Node pos="l" depth="2" NCoef="0" IVar="3" Cut="1.8625119018554688e+02" cType="1" res="-3.6977320909500122e-02" rms="3.9984717965126038e-01" purity="4.5908451080322266e-01" nType="0">
            <Node pos="l" depth="3" NCoef="0" IVar="-1" Cut="0.0000000000000000e+00" cType="1" res="-5.1110986620187759e-02" rms="3.7315505743026733e-01" purity="2.3997052013874054e-01" nType="-99"/>
            <Node pos="r" depth="3" NCoef="0" IVar="-1" Cut="0.0000000000000000e+00" cType="1" res="-5.2287024445831776e-03" rms="4.1019546985626221e-01" purity="5.7133668661117554e-01" nType="-99"/>
          </Node>
          <Node pos="r" depth="2" NCoef="0" IVar="2" Cut="6.4124194335937500e+02" cType="1" res="3.0605014413595200e-02" rms="3.6870732903480530e-01" purity="7.8402084112167358e-01" nType="0">
            <Node pos="l" depth="3" NCoef="0" IVar="-1" Cut="0.0000000000000000e+00" cType="1" res="2.9080741107463837e-02" rms="3.5045391321182251e-01" purity="8.1465345621109009e-01" nType="-99"/>
            <Node pos="r" depth="3" NCoef="0" IVar="-1" Cut="0.0000000000000000e+00" cType="1" res="-3.2555654179304838e-03" rms="4.1010141372680664e-01" purity="7.0449531078338623e-01" nType="-99"/>
          </Node>
        </Node>
      </Node>
    </BinaryTree>
    <BinaryTree type="DecisionTree" boostWeight="1.0000000000000000e+00" itree="28">
      <Node pos="s" depth="0" NCoef="0" IVar="7" Cut="-1.4664330482482910e+00" cType="1" res="1.8788217566907406e-03" rms="4.0066981315612793e-01" purity="5.0008064508438110e-01" nType="0">
        <Node pos="l" depth="1" NCoef="0" IVar="2" Cut="3.1438156127929688e+02" cType="1" res="-5.2390418946743011e-02" rms="3.6407774686813354e-01" purity="2.4720144271850586e-01" nType="0">
          <Node pos="l" depth="2" NCoef="0" IVar="-1" Cut="0.0000000000000000e+00" cType="1" res="-1.3728335499763489e-02" rms="3.6945021152496338e-01" purity="2.3625506460666656e-01" nType="-99"/>
          <Node pos="r" depth="2" NCoef="0" IVar="-1" Cut="0.0000000000000000e+00" cType="1" res="-4.7403112053871155e-02" rms="3.5711869597434998e-01" purity="2.5666663050651550e-01" nType="-99"/>
        </Node>
        <Node pos="r" depth="1" NCoef="0" IVar="7" Cut="7.6835888624191284e-01" cType="1" res="7.1491361595690250e-03" rms="4.0365841984748840e-01" purity="5.2463877201080322e-01" nType="0">
          <Node pos="l" depth="2" NCoef="0" IVar="6" Cut="-1.4580757617950439e+00" cType="1" res="1.8250182271003723e-02" rms="4.0719574689865112e-01" purity="5.7230418920516968e-01" nType="0">
            <Node pos="l" depth="3" NCoef="0" IVar="-1" Cut="0.0000000000000000e+00" cType="1" res="-3.3830713480710983e-02" rms="3.7832483649253845e-01" purity="2.3871874809265137e-01" nType="-99"/>
            <Node pos="r" depth="3" NCoef="0" IVar="-1" Cut="0.0000000000000000e+00" cType="1" res="1.2503853999078274e-02" rms="4.0845930576324463e-01" purity="5.9293091297149658e-01" nType="-99"/>
          </Node>
          <Node pos="r" depth="2" NCoef="0" IVar="7" Cut="1.5423074960708618e+00" cType="1" res="-2.5128440931439400e-02" rms="3.9140790700912476e-01" purity="3.8604611158370972e-01" nType="0">
            <Node pos="l" depth="3" NCoef="0" IVar="-1" Cut="0.0000000000000000e+00" cType="1" res="-5.4765720851719379e-03" rms="4.0889632701873779e-01" purity="4.6638277173042297e-01" nType="-99"/>
            <Node pos="r" depth="3" NCoef="0" IVar="-1" Cut="0.0000000000000000e+00" cType="1" res="-3.6243982613086700e-02" rms="3.5071450471878052e-01" purity="2.2094297409057617e-01" nType="-99"/>
          </Node>
        </Node>
      </Node>
    </BinaryTree>
    <BinaryTree type="DecisionTree" boostWeight="1.0000000000000000e+00" itree="29">
      <Node pos="s" depth="0" NCoef="0" IVar="2" Cut="5.8174090576171875e+02" cType="1" res="2.7618152089416981e-03" rms="4.0193456411361694e-01" purity="4.9986150860786438e-01" nType="0">
        <Node pos="l" depth="1" NCoef="0" IVar="0" Cut="3.6729519653320312e+02" cType="1" res="9.1274464502930641e-03" rms="4.0023857355117798e-01" purity="4.9480828642845154e-01" nType="0">
          <Node pos="l" depth="2" NCoef="0" IVar="2" Cut="2.7271151733398438e+02" cType="1" res="-2.1784484386444092e-02" rms="3.9926278591156006e-01" purity="3.0423408746719360e-01" nType="0">
            <Node pos="l" depth="3" NCoef="0" IVar="-1" Cut="0.0000000000000000e+00" cType="1" res="7.7255601063370705e-03" rms="4.1921886801719666e-01" purity="3.0761405825614929e-01" nType="-99"/>
            <Node pos="r" depth="3" NCoef="0" IVar="-1" Cut="0.0000000000000000e+00" cType="1" res="-2.3507401347160339e-02" rms="3.8639599084854126e-01" purity="3.0236327648162842e-01" nType="-99"/>
          </Node>
          <Node pos="r" depth="2" NCoef="0" IVar="3" Cut="1.0197739410400391e+02" cType="1" res="2.6407722383737564e-02" rms="3.9974275231361389e-01" purity="6.0134238004684448e-01" nType="0">
            <Node pos="l" depth="3" NCoef="0" IVar="-1" Cut="0.0000000000000000e+00" cType="1" res="-2.9131857678294182e-02" rms="3.5130828619003296e-01" purity="1.7208181321620941e-01" nType="-99"/>
            <Node pos="r" depth="3" NCoef="0" IVar="-1" Cut="0.0000000000000000e+00" cType="1" res="1.7644492909312248e-02" rms="4.0250483155250549e-01" purity="6.3214808702468872e-01" nType="-99"/>
          </Node>
        </Node>
        <Node pos="r" depth="1" NCoef="0" IVar="0" Cut="6.0599444580078125e+02" cType="1" res="-6.2396235764026642e-02" rms="4.1329973936080933e-01" purity="5.5158543586730957e-01" nType="0">
          <Node pos="l" depth="2" NCoef="0" IVar="-1" Cut="0.0000000000000000e+00" cType="1" res="-5.5494401603937149e-02" rms="4.1581553220748901e-01" purity="4.1690963506698608e-01" nType="-99"/>
          <Node pos="r" depth="2" NCoef="0" IVar="-1" Cut="0.0000000000000000e+00" cType="1" res="-4.2391126044094563e-03" rms="4.0344691276550293e-01" purity="7.1336561441421509e-01" nType="-99"/>
        </Node>
      </Node>
    </BinaryTree>
    <BinaryTree type="DecisionTree" boostWeight="1.0000000000000000e+00" itree="30">
      <Node pos="s" depth="0" NCoef="0" IVar="8" Cut="-1.2000275850296021e+00" cType="1" res="3.7496283184736967e-03" rms="4.0168121457099915e-01" purity="5.0266093015670776e-01" nType="0">
        <Node pos="l" depth="1" NCoef="0" IVar="9" Cut="-1.1998246908187866e+00" cType="1" res="-3.4380462020635605e-02" rms="3.8972690701484680e-01" purity="3.5408306121826172e-01" nType="0">
          <Node pos="l" depth="2" NCoef="0" IVar="-1" Cut="0.0000000000000000e+00" cType="1" res="-4.5547872781753540e-02" rms="3.5737332701683044e-01" purity="2.3460315167903900e-01" nType="-99"/>
          <Node pos="r" depth="2" NCoef="0" IVar="6" Cut="4.2029789090156555e-01" cType="1" res="-2.4236943572759628e-02" rms="3.9728429913520813e-01" purity="3.8590139150619507e-01" nType="0">
            <Node pos="l" depth="3" NCoef="0" IVar="-1" Cut="0.0000000000000000e+00" cType="1" res="-5.7813995517790318e-03" rms="4.0631499886512756e-01" purity="4.2845293879508972e-01" nType="-99"/>
            <Node pos="r" depth="3" NCoef="0" IVar="-1" Cut="0.0000000000000000e+00" cType="1" res="-3.6351189017295837e-02" rms="3.7287575006484985e-01" purity="2.8501993417739868e-01" nType="-99"/>
          </Node>
        </Node>
        <Node pos="r" depth="1" NCoef="0" IVar="8" Cut="7.0470035076141357e-01" cType="1" res="1.0437071323394775e-02" rms="4.0336999297142029e-01" purity="5.2871918678283691e-01" nType="0">
          <Node pos="l" depth="2" NCoef="0" IVar="4" Cut="9.5694229125976562e+01" cType="1" res="2.0595209673047066e-02" rms="4.0449517965316772e-01" purity="5.7051575183868408e-01" nType="0">
            <Node pos="l" depth="3" NCoef="0" IVar="-1" Cut="0.0000000000000000e+00" cType="1" res="-4.5617204159498215e-03" rms="4.0773802995681763e-01" purity="2.7700185775756836e-01" nType="-99"/>
            <Node pos="r" depth="3" NCoef="0" IVar="-1" Cut="0.0000000000000000e+00" cType="1" res="1.6593998298048973e-02" rms="4.0298664569854736e-01" purity="6.6666322946548462e-01" nType="-99"/>
          </Node>
          <Node pos="r" depth="2" NCoef="0" IVar="6" Cut="4.0398254990577698e-01" cType="1" res="-1.0972819291055202e-02" rms="4.0014445781707764e-01" purity="4.4062620401382446e-01" nType="0">
            <Node pos="l" depth="3" NCoef="0" IVar="-1" Cut="0.0000000000000000e+00" cType="1" res="3.2983659766614437e-03" rms="4.0432673692703247e-01" purity="4.9746400117874146e-01" nType="-99"/>
            <Node pos="r" depth="3" NCoef="0" IVar="-1" Cut="0.0000000000000000e+00" cType="1" res="-2.3033199831843376e-02" rms="3.9153110980987549e-01" purity="3.4649440646171570e-01" nType="-99"/>
          </Node>
        </Node>
      </Node>
    </BinaryTree>
    <BinaryTree type="DecisionTree" boostWeight="1.0000000000000000e+00" itree="31">
      <Node pos="s" depth="0" NCoef="0" IVar="6" Cut="-9.2557221651077271e-01" cType="1" res="1.9363558294571703e-06" rms="3.9969334006309509e-01" purity="4.9829900264739990e-01" nType="0">
        <Node pos="l" depth="1" NCoef="0" IVar="0" Cut="4.9935806274414062e+02" cType="1" res="-3.9888292551040649e-02" rms="3.7599807977676392e-01" purity="3.0959776043891907e-01" nType="0">
          <Node pos="l" depth="2" NCoef="0" IVar="2" Cut="2.9362603759765625e+02" cType="1" res="-5.8827299624681473e-02" rms="3.6149424314498901e-01" purity="2.1830841898918152e-01" nType="0">
            <Node pos="l" depth="3" NCoef="0" IVar="-1" Cut="0.0000000000000000e+00" cType="1" res="-1.8330484628677368e-02" rms="3.7761825323104858e-01" purity="2.3162144422531128e-01" nType="-99"/>
            <Node pos="r" depth="3" NCoef="0" IVar="-1" Cut="0.0000000000000000e+00" cType="1" res="-5.0098661333322525e-02" rms="3.4715691208839417e-01" purity="2.0826601982116699e-01" nType="-99"/>
          </Node>
          <Node pos="r" depth="2" NCoef="0" IVar="-1" Cut="0.0000000000000000e+00" cType="1" res="1.3915852643549442e-02" rms="4.1619861125946045e-01" purity="6.2979197502136230e-01" nType="-99"/>
        </Node>
        <Node pos="r" depth="1" NCoef="0" IVar="9" Cut="-1.7333266735076904e+00" cType="1" res="7.7836979180574417e-03" rms="4.0369468927383423e-01" purity="5.3511077165603638e-01" nType="0">
          <Node pos="l" depth="2" NCoef="0" IVar="9" Cut="-2.1904687881469727e+00" cType="1" res="-5.1302820444107056e-02" rms="4.0420728921890259e-01" purity="3.9007568359375000e-01" nType="0">
            <Node pos="l" depth="3" NCoef="0" IVar="-1" Cut="0.0000000000000000e+00" cType="1" res="-4.2474064975976944e-02" rms="4.0086299180984497e-01" purity="3.3560705184936523e-01" nType="-99"/>
            <Node pos="r" depth="3" NCoef="0" IVar="-1" Cut="0.0000000000000000e+00" cType="1" res="-1.8516236916184425e-02" rms="4.0565815567970276e-01" purity="4.2961472272872925e-01" nType="-99"/>
          </Node>
          <Node pos="r" depth="2" NCoef="0" IVar="6" Cut="1.9127216339111328e+00" cType="1" res="1.2594206258654594e-02" rms="4.0327200293540955e-01" purity="5.4691874980926514e-01" nType="0">
            <Node pos="l" depth="3" NCoef="0" IVar="-1" Cut="0.0000000000000000e+00" cType="1" res="8.8325487449765205e-03" rms="4.0547978878021240e-01" purity="5.6052041053771973e-01" nType="-99"/>
            <Node pos="r" depth="3" NCoef="0" IVar="-1" Cut="0.0000000000000000e+00" cType="1" res="-5.4804462939500809e-02" rms="3.1925708055496216e-01" purity="1.4901129901409149e-01" nType="-99"/>
          </Node>
        </Node>
      </Node>
    </BinaryTree>
    <BinaryTree type="DecisionTree" boostWeight="1.0000000000000000e+00" itree="32">
      <Node pos="s" depth="0" NCoef="0" IVar="4" Cut="2.1477749633789062e+02" cType="1" res="-3.4967130050063133e-03" rms="3.9495447278022766e-01" purity="4.9705350399017334e-01" nType="0">
        <Node pos="l" depth="1" NCoef="0" IVar="5" Cut="5.7783119201660156e+01" cType="1" res="-9.0781850740313530e-03" rms="4.0193888545036316e-01" purity="4.5352020859718323e-01" nType="0">
          <Node pos="l" depth="2" NCoef="0" IVar="9" Cut="-6.6670334339141846e-01" cType="1" res="-4.5292045921087265e-02" rms="3.6695197224617004e-01" purity="2.2700560092926025e-01" nType="0">
            <Node pos="l" depth="3" NCoef="0" IVar="-1" Cut="0.0000000000000000e+00" cType="1" res="-1.0686476714909077e-02" rms="3.7708595395088196e-01" purity="2.4409915506839752e-01" nType="-99"/>
            <Node pos="r" depth="3" NCoef="0" IVar="-1" Cut="0.0000000000000000e+00" cType="1" res="-3.6932945251464844e-02" rms="3.6079460382461548e-01" purity="2.1826525032520294e-01" nType="-99"/>
          </Node>
          <Node pos="r" depth="2" NCoef="0" IVar="8" Cut="1.4666872024536133e+00" cType="1" res="-1.4205459738150239e-03" rms="4.0854290127754211e-01" purity="5.0141811370849609e-01" nType="0">
            <Node pos="l" depth="3" NCoef="0" IVar="-1" Cut="0.0000000000000000e+00" cType="1" res="2.0319509785622358e-03" rms="4.1068053245544434e-01" purity="5.2244758605957031e-01" nType="-99"/>
            <Node pos="r" depth="3" NCoef="0" IVar="-1" Cut="0.0000000000000000e+00" cType="1" res="-2.5894330814480782e-02" rms="3.8710868358612061e-01" purity="3.2197973132133484e-01" nType="-99"/>
          </Node>
        </Node>
        <Node pos="r" depth="1" NCoef="0" IVar="8" Cut="6.6550242900848389e-01" cType="1" res="3.6201387643814087e-02" rms="3.3853328227996826e-01" purity="8.0668312311172485e-01" nType="0">
          <Node pos="l" depth="2" NCoef="0" IVar="8" Cut="-6.5434247255325317e-01" cType="1" res="4.9227632582187653e-02" rms="3.3107870817184448e-01" purity="8.2689696550369263e-01" nType="0">
            <Node pos="l" depth="3" NCoef="0" IVar="-1" Cut="0.0000000000000000e+00" cType="1" res="-7.2113529313355684e-04" rms="3.7087824940681458e-01" purity="7.4084979295730591e-01" nType="-99"/>
            <Node pos="r" depth="3" NCoef="0" IVar="-1" Cut="0.0000000000000000e+00" cType="1" res="4.8919651657342911e-02" rms="3.1063029170036316e-01" purity="8.6271065473556519e-01" nType="-99"/>
          </Node>
          <Node pos="r" depth="2" NCoef="0" IVar="-1" Cut="0.0000000000000000e+00" cType="1" res="-6.2695420347154140e-03" rms="3.5989442467689514e-01" purity="7.3526161909103394e-01" nType="-99"/>
        </Node>
      </Node>
    </BinaryTree>
    <BinaryTree type="DecisionTree" boostWeight="1.0000000000000000e+00" itree="33">
      <Node pos="s" depth="0" NCoef="0" IVar="6" Cut="6.7062079906463623e-01" cType="1" res="-2.8022273909300566e-03" rms="3.9677023887634277e-01" purity="4.9516573548316956e-01" nType="0">
        <Node pos="l" depth="1" NCoef="0" IVar="6" Cut="-4.8245719075202942e-01" cType="1" res="5.4520298726856709e-03" rms="4.0019527077674866e-01" purity="5.3642517328262329e-01" nType="0">
          <Node pos="l" depth="2" NCoef="0" IVar="7" Cut="9.3310862779617310e-01" cType="1" res="-2.1039681509137154e-02" rms="3.9242765307426453e-01" purity="4.1521057486534119e-01" nType="0">
            <Node pos="l" depth="3" NCoef="0" IVar="-1" Cut="0.0000000000000000e+00" cType="1" res="-6.2085348181426525e-03" rms="4.0033969283103943e-01" purity="4.5536208152770996e-01" nType="-99"/>
            <Node pos="r" depth="3" NCoef="0" IVar="-1" Cut="0.0000000000000000e+00" cType="1" res="-4.3438114225864410e-02" rms="3.5179308056831360e-01" purity="2.3759911954402924e-01" nType="-99"/>
          </Node>
          <Node pos="r" depth="2" NCoef="0" IVar="3" Cut="1.4559230041503906e+02" cType="1" res="2.2707181051373482e-02" rms="4.0424200892448425e-01" purity="6.1537736654281616e-01" nType="0">
            <Node pos="l" depth="3" NCoef="0" IVar="-1" Cut="0.0000000000000000e+00" cType="1" res="-2.2368771024048328e-03" rms="4.1827538609504700e-01" purity="3.2366925477981567e-01" nType="-99"/>
            <Node pos="r" depth="3" NCoef="0" IVar="-1" Cut="0.0000000000000000e+00" cType="1" res="1.6828674823045731e-02" rms="4.0024849772453308e-01" purity="6.9065576791763306e-01" nType="-99"/>
          </Node>
        </Node>
        <Node pos="r" depth="1" NCoef="0" IVar="5" Cut="1.3847581481933594e+02" cType="1" res="-2.9188062995672226e-02" rms="3.8443070650100708e-01" purity="3.6327445507049561e-01" nType="0">
          <Node pos="l" depth="2" NCoef="0" IVar="2" Cut="5.0683432006835938e+02" cType="1" res="-3.8305096328258514e-02" rms="3.8538536429405212e-01" purity="3.0533543229103088e-01" nType="0">
            <Node pos="l" depth="3" NCoef="0" IVar="-1" Cut="0.0000000000000000e+00" cType="1" res="-1.8276754766702652e-02" rms="3.8258925080299377e-01" purity="3.0226194858551025e-01" nType="-99"/>
            <Node pos="r" depth="3" NCoef="0" IVar="-1" Cut="0.0000000000000000e+00" cType="1" res="-5.2223041653633118e-02" rms="3.9935994148254395e-01" purity="3.2689276337623596e-01" nType="-99"/>
          </Node>
          <Node pos="r" depth="2" NCoef="0" IVar="-1" Cut="0.0000000000000000e+00" cType="1" res="2.0315138623118401e-02" rms="3.7164741754531860e-01" purity="7.6492220163345337e-01" nType="-99"/>
        </Node>
      </Node>
    </BinaryTree>
    <BinaryTree type="DecisionTree" boostWeight="1.0000000000000000e+00" itree="34">
      <Node pos="s" depth="0" NCoef="0" IVar="2" Cut="6.1997546386718750e+02" cType="1" res="-2.9380600899457932e-03" rms="3.9591726660728455e-01" purity="4.9640718102455139e-01" nType="0">
        <Node pos="l" depth="1" NCoef="0" IVar="1" Cut="1.2515644531250000e+03" cType="1" res="8.7486201664432883e-04" rms="3.9399927854537964e-01" purity="4.9279585480690002e-01" nType="0">
          <Node pos="l" depth="2" NCoef="0" IVar="2" Cut="2.5993225097656250e+02" cType="1" res="-1.7979003489017487e-02" rms="4.0433338284492493e-01" purity="3.0090191960334778e-01" nType="0">
            <Node pos="l" depth="3" NCoef="0" IVar="-1" Cut="0.0000000000000000e+00" cType="1" res="8.8886320590972900e-03" rms="4.2951872944831848e-01" purity="3.6822566390037537e-01" nType="-99"/>
            <Node pos="r" depth="3" NCoef="0" IVar="-1" Cut="0.0000000000000000e+00" cType="1" res="-2.2044135257601738e-02" rms="3.8800394535064697e-01" purity="2.6271337270736694e-01" nType="-99"/>
          </Node>
          <Node pos="r" depth="2" NCoef="0" IVar="2" Cut="4.1999633789062500e+02" cType="1" res="2.2232314571738243e-02" rms="3.8082942366600037e-01" purity="7.1017122268676758e-01" nType="0">
            <Node pos="l" depth="3" NCoef="0" IVar="-1" Cut="0.0000000000000000e+00" cType="1" res="2.3608651012182236e-02" rms="3.6561188101768494e-01" purity="7.7484917640686035e-01" nType="-99"/>
            <Node pos="r" depth="3" NCoef="0" IVar="-1" Cut="0.0000000000000000e+00" cType="1" res="1.0772256646305323e-03" rms="3.9871808886528015e-01" purity="6.2658607959747314e-01" nType="-99"/>
          </Node>
        </Node>
        <Node pos="r" depth="1" NCoef="0" IVar="0" Cut="5.5564984130859375e+02" cType="1" res="-5.6063219904899597e-02" rms="4.1813254356384277e-01" purity="5.4672318696975708e-01" nType="0">
          <Node pos="l" depth="2" NCoef="0" IVar="-1" Cut="0.0000000000000000e+00" cType="1" res="-5.5175274610519409e-02" rms="4.0436398983001709e-01" purity="3.7176087498664856e-01" nType="-99"/>
          <Node pos="r" depth="2" NCoef="0" IVar="-1" Cut="0.0000000000000000e+00" cType="1" res="-9.0855350717902184e-03" rms="4.2401927709579468e-01" purity="6.8024045228958130e-01" nType="-99"/>
        </Node>
      </Node>
    </BinaryTree>
    <BinaryTree type="DecisionTree" boostWeight="1.0000000000000000e+00" itree="35">
      <Node pos="s" depth="0" NCoef="0" IVar="7" Cut="-6.6657251119613647e-01" cType="1" res="6.2695047818124294e-03" rms="3.9893311262130737e-01" purity="5.0351291894912720e-01" nType="0">
        <Node pos="l" depth="1" NCoef="0" IVar="2" Cut="4.4893908691406250e+02" cType="1" res="-1.6861028969287872e-02" rms="3.9621445536613464e-01" purity="4.1039028763771057e-01" nType="0">
          <Node pos="l" depth="2" NCoef="0" IVar="1" Cut="1.2678282470703125e+03" cType="1" res="-6.4558023586869240e-03" rms="3.9285016059875488e-01" purity="4.0160942077636719e-01" nType="0">
            <Node pos="l" depth="3" NCoef="0" IVar="-1" Cut="0.0000000000000000e+00" cType="1" res="-1.2822099961340427e-02" rms="3.9328676462173462e-01" purity="2.5885450839996338e-01" nType="-99"/>
            <Node pos="r" depth="3" NCoef="0" IVar="-1" Cut="0.0000000000000000e+00" cType="1" res="1.4902959577739239e-02" rms="3.8994139432907104e-01" purity="7.1808749437332153e-01" nType="-99"/>
          </Node>
          <Node pos="r" depth="2" NCoef="0" IVar="0" Cut="4.5300106811523438e+02" cType="1" res="-5.2250023931264877e-02" rms="4.0545523166656494e-01" purity="4.4025471806526184e-01" nType="0">
            <Node pos="l" depth="3" NCoef="0" IVar="-1" Cut="0.0000000000000000e+00" cType="1" res="-4.1739519685506821e-02" rms="3.7528291344642639e-01" purity="2.5767007470130920e-01" nType="-99"/>
            <Node pos="r" depth="3" NCoef="0" IVar="-1" Cut="0.0000000000000000e+00" cType="1" res="-2.0489159971475601e-02" rms="4.2668271064758301e-01" purity="5.8097171783447266e-01" nType="-99"/>
          </Node>
        </Node>
        <Node pos="r" depth="1" NCoef="0" IVar="7" Cut="6.5401840209960938e-01" cType="1" res="1.4661799184978008e-02" rms="3.9958405494689941e-01" purity="5.3729999065399170e-01" nType="0">
          <Node pos="l" depth="2" NCoef="0" IVar="3" Cut="1.4619770812988281e+02" cType="1" res="2.7787737548351288e-02" rms="4.0168169140815735e-01" purity="6.0711997747421265e-01" nType="0">
            <Node pos="l" depth="3" NCoef="0" IVar="-1" Cut="0.0000000000000000e+00" cType="1" res="-5.9983753599226475e-03" rms="4.0685060620307922e-01" purity="3.0195486545562744e-01" nType="-99"/>
            <Node pos="r" depth="3" NCoef="0" IVar="-1" Cut="0.0000000000000000e+00" cType="1" res="2.1522114053368568e-02" rms="3.9980739355087280e-01" purity="6.8308734893798828e-01" nType="-99"/>
          </Node>
          <Node pos="r" depth="2" NCoef="0" IVar="9" Cut="9.3327355384826660e-01" cType="1" res="-7.7987802214920521e-03" rms="3.9495828747749329e-01" purity="4.1782686114311218e-01" nType="0">
            <Node pos="l" depth="3" NCoef="0" IVar="-1" Cut="0.0000000000000000e+00" cType="1" res="5.3816325962543488e-03" rms="3.9996260404586792e-01" purity="4.5794349908828735e-01" nType="-99"/>
            <Node pos="r" depth="3" NCoef="0" IVar="-1" Cut="0.0000000000000000e+00" cType="1" res="-3.1736835837364197e-02" rms="3.7813872098922729e-01" purity="3.1358271837234497e-01" nType="-99"/>
          </Node>
        </Node>
      </Node>
    </BinaryTree>
    <BinaryTree type="DecisionTree" boostWeight="1.0000000000000000e+00" itree="36">
      <Node pos="s" depth="0" NCoef="0" IVar="7" Cut="-1.2000035047531128e+00" cType="1" res="-5.6727748597040772e-04" rms="3.9874684810638428e-01" purity="4.9707064032554626e-01" nType="0">
        <Node pos="l" depth="1" NCoef="0" IVar="3" Cut="1.6126062011718750e+02" cType="1" res="-3.3742036670446396e-02" rms="3.7814003229141235e-01" purity="3.0052691698074341e-01" nType="0">
          <Node pos="l" depth="2" NCoef="0" IVar="9" Cut="-3.9905482530593872e-01" cType="1" res="1.5895311953499913e-03" rms="3.5175690054893494e-01" purity="2.0348590612411499e-01" nType="0">
            <Node pos="l" depth="3" NCoef="0" IVar="-1" Cut="0.0000000000000000e+00" cType="1" res="-2.3168861865997314e-02" rms="3.2141393423080444e-01" purity="1.6521716117858887e-01" nType="-99"/>
            <Node pos="r" depth="3" NCoef="0" IVar="-1" Cut="0.0000000000000000e+00" cType="1" res="2.0313000306487083e-02" rms="3.7278023362159729e-01" purity="2.3481498658657074e-01" nType="-99"/>
          </Node>
          <Node pos="r" depth="2" NCoef="0" IVar="6" Cut="1.5970027446746826e-01" cType="1" res="-5.9629470109939575e-02" rms="3.9435344934463501e-01" purity="3.7162885069847107e-01" nType="0">
            <Node pos="l" depth="3" NCoef="0" IVar="-1" Cut="0.0000000000000000e+00" cType="1" res="-1.6949702054262161e-02" rms="4.0414026379585266e-01" purity="4.2717102169990540e-01" nType="-99"/>
            <Node pos="r" depth="3" NCoef="0" IVar="-1" Cut="0.0000000000000000e+00" cType="1" res="-5.8587342500686646e-02" rms="3.7583890557289124e-01" purity="2.9113876819610596e-01" nType="-99"/>
          </Node>
        </Node>
        <Node pos="r" depth="1" NCoef="0" IVar="7" Cut="1.0857038497924805e+00" cType="1" res="4.5371097512543201e-03" rms="4.0158048272132874e-01" purity="5.2731156349182129e-01" nType="0">
          <Node pos="l" depth="2" NCoef="0" IVar="3" Cut="2.3760939025878906e+02" cType="1" res="1.0773447342216969e-02" rms="4.0616181492805481e-01" purity="5.7442951202392578e-01" nType="0">
            <Node pos="l" depth="3" NCoef="0" IVar="-1" Cut="0.0000000000000000e+00" cType="1" res="1.1292253620922565e-03" rms="4.2250475287437439e-01" purity="4.7792917490005493e-01" nType="-99"/>
            <Node pos="r" depth="3" NCoef="0" IVar="-1" Cut="0.0000000000000000e+00" cType="1" res="1.5780126675963402e-02" rms="3.7674462795257568e-01" purity="7.3611080646514893e-01" nType="-99"/>
          </Node>
          <Node pos="r" depth="2" NCoef="0" IVar="2" Cut="3.2956475830078125e+02" cType="1" res="-2.4057123810052872e-02" rms="3.7855455279350281e-01" purity="3.1127104163169861e-01" nType="0">
            <Node pos="l" depth="3" NCoef="0" IVar="-1" Cut="0.0000000000000000e+00" cType="1" res="2.2972756996750832e-03" rms="3.8094580173492432e-01" purity="3.1003373861312866e-01" nType="-99"/>
            <Node pos="r" depth="3" NCoef="0" IVar="-1" Cut="0.0000000000000000e+00" cType="1" res="-3.3099532127380371e-02" rms="3.7380307912826538e-01" purity="3.1258076429367065e-01" nType="-99"/>
          </Node>
        </Node>
      </Node>
    </BinaryTree>
    <BinaryTree type="DecisionTree" boostWeight="1.0000000000000000e+00" itree="37">
      <Node pos="s" depth="0" NCoef="0" IVar="7" Cut="-6.6667419672012329e-01" cType="1" res="6.7931180819869041e-04" rms="3.9524349570274353e-01" purity="4.9839791655540466e-01" nType="0">
        <Node pos="l" depth="1" NCoef="0" IVar="7" Cut="-2.0888872146606445e+00" cType="1" res="-2.3516695946455002e-02" rms="3.8872584700584412e-01" purity="3.9949145913124084e-01" nType="0">
          <Node pos="l" depth="2" NCoef="0" IVar="-1" Cut="0.0000000000000000e+00" cType="1" res="-5.4229672998189926e-02" rms="3.2153731584548950e-01" purity="1.5187965333461761e-01" nType="-99"/>
          <Node pos="r" depth="2" NCoef="0" IVar="9" Cut="-3.9997324347496033e-01" cType="1" res="-1.6971185803413391e-02" rms="3.9589092135429382e-01" purity="4.3065020442008972e-01" nType="0">
            <Node pos="l" depth="3" NCoef="0" IVar="-1" Cut="0.0000000000000000e+00" cType="1" res="-2.1597733721137047e-02" rms="3.8915029168128967e-01" purity="3.8643670082092285e-01" nType="-99"/>
            <Node pos="r" depth="3" NCoef="0" IVar="-1" Cut="0.0000000000000000e+00" cType="1" res="-9.4200065359473228e-04" rms="4.0042656660079956e-01" purity="4.6530732512474060e-01" nType="-99"/>
          </Node>
        </Node>
        <Node pos="r" depth="1" NCoef="0" IVar="6" Cut="1.7350500822067261e+00" cType="1" res="9.2965122312307358e-03" rms="3.9718309044837952e-01" purity="5.3362262248992920e-01" nType="0">
          <Node pos="l" depth="2" NCoef="0" IVar="2" Cut="4.7998303222656250e+02" cType="1" res="1.2136599048972130e-02" rms="3.9991810917854309e-01" purity="5.4880291223526001e-01" nType="0">
            <Node pos="l" depth="3" NCoef="0" IVar="-1" Cut="0.0000000000000000e+00" cType="1" res="1.1347858235239983e-02" rms="4.0005946159362793e-01" purity="5.3987783193588257e-01" nType="-99"/>
            <Node pos="r" depth="3" NCoef="0" IVar="-1" Cut="0.0000000000000000e+00" cType="1" res="-9.5708835870027542e-03" rms="3.9805459976196289e-01" purity="5.8459264039993286e-01" nType="-99"/>
          </Node>
          <Node pos="r" depth="2" NCoef="0" IVar="-1" Cut="0.0000000000000000e+00" cType="1" res="-4.4103357940912247e-02" rms="3.1532335281372070e-01" purity="1.6244639456272125e-01" nType="-99"/>
        </Node>
      </Node>
    </BinaryTree>
    <BinaryTree type="DecisionTree" boostWeight="1.0000000000000000e+00" itree="38">
      <Node pos="s" depth="0" NCoef="0" IVar="8" Cut="1.9999079704284668e+00" cType="1" res="2.2868704982101917e-03" rms="3.9574387669563293e-01" purity="5.0308138132095337e-01" nType="0">
        <Node pos="l" depth="1" NCoef="0" IVar="6" Cut="-1.4577512741088867e+00" cType="1" res="5.3414511494338512e-03" rms="3.9725705981254578e-01" purity="5.1530230045318604e-01" nType="0">
          <Node pos="l" depth="2" NCoef="0" IVar="8" Cut="-5.6974854320287704e-02" cType="1" res="-4.7813870012760162e-02" rms="3.3784937858581543e-01" purity="1.9757577776908875e-01" nType="0">
            <Node pos="l" depth="3" NCoef="0" IVar="-1" Cut="0.0000000000000000e+00" cType="1" res="-4.6704858541488647e-02" rms="3.0703437328338623e-01" purity="1.6925901174545288e-01" nType="-99"/>
            <Node pos="r" depth="3" NCoef="0" IVar="-1" Cut="0.0000000000000000e+00" cType="1" res="-1.7110385000705719e-02" rms="3.7249094247817993e-01" purity="2.3387435078620911e-01" nType="-99"/>
          </Node>
          <Node pos="r" depth="2" NCoef="0" IVar="2" Cut="6.5569537353515625e+02" cType="1" res="9.1324048116803169e-03" rms="4.0088880062103271e-01" purity="5.3796201944351196e-01" nType="0">
            <Node pos="l" depth="3" NCoef="0" IVar="-1" Cut="0.0000000000000000e+00" cType="1" res="7.1923360228538513e-03" rms="3.9989215135574341e-01" purity="5.3512835502624512e-01" nType="-99"/>
            <Node pos="r" depth="3" NCoef="0" IVar="-1" Cut="0.0000000000000000e+00" cType="1" res="-2.5085574015974998e-02" rms="4.1432026028633118e-01" purity="5.8813291788101196e-01" nType="-99"/>
          </Node>
        </Node>
        <Node pos="r" depth="1" NCoef="0" IVar="-1" Cut="0.0000000000000000e+00" cType="1" res="-4.4319804757833481e-02" rms="3.5165277123451233e-01" purity="2.2047840058803558e-01" nType="-99"/>
      </Node>
    </BinaryTree>
    <BinaryTree type="DecisionTree" boostWeight="1.0000000000000000e+00" itree="39">
      <Node pos="s" depth="0" NCoef="0" IVar="7" Cut="1.7331721782684326e+00" cType="1" res="1.9498753827065229e-03" rms="3.9587408304214478e-01" purity="5.0284546613693237e-01" nType="0">
        <Node pos="l" depth="1" NCoef="0" IVar="8" Cut="-6.6667610406875610e-01" cType="1" res="5.0906278192996979e-03" rms="3.9916864037513733e-01" purity="5.2240145206451416e-01" nType="0">
          <Node pos="l" depth="2" NCoef="0" IVar="9" Cut="-6.6678416728973389e-01" cType="1" res="-1.6023376956582069e-02" rms="3.9401847124099731e-01" purity="4.4723692536354065e-01" nType="0">
            <Node pos="l" depth="3" NCoef="0" IVar="-1" Cut="0.0000000000000000e+00" cType="1" res="-2.6085346937179565e-02" rms="3.8099163770675659e-01" purity="3.7100273370742798e-01" nType="-99"/>
            <Node pos="r" depth="3" NCoef="0" IVar="-1" Cut="0.0000000000000000e+00" cType="1" res="-9.2857534764334559e-04" rms="4.0006700158119202e-01" purity="4.8802962899208069e-01" nType="-99"/>
          </Node>
          <Node pos="r" depth="2" NCoef="0" IVar="2" Cut="6.3790661621093750e+02" cType="1" res="1.3334160670638084e-02" rms="4.0085971355438232e-01" purity="5.5174785852432251e-01" nType="0">
            <Node pos="l" depth="3" NCoef="0" IVar="-1" Cut="0.0000000000000000e+00" cType="1" res="9.4980318099260330e-03" rms="3.9966070652008057e-01" purity="5.4946440458297729e-01" nType="-99"/>
            <Node pos="r" depth="3" NCoef="0" IVar="-1" Cut="0.0000000000000000e+00" cType="1" res="-1.6953572630882263e-02" rms="4.1685763001441956e-01" purity="5.8801454305648804e-01" nType="-99"/>
          </Node>
        </Node>
        <Node pos="r" depth="1" NCoef="0" IVar="3" Cut="1.7612408447265625e+02" cType="1" res="-4.8286959528923035e-02" rms="3.3487102389335632e-01" purity="1.9004431366920471e-01" nType="0">
          <Node pos="l" depth="2" NCoef="0" IVar="-1" Cut="0.0000000000000000e+00" cType="1" res="-1.2662759050726891e-02" rms="3.1383866071701050e-01" purity="1.3265332579612732e-01" nType="-99"/>
          <Node pos="r" depth="2" NCoef="0" IVar="-1" Cut="0.0000000000000000e+00" cType="1" res="-5.3948950022459030e-02" rms="3.5420167446136475e-01" purity="2.5947707891464233e-01" nType="-99"/>
        </Node>
      </Node>
    </BinaryTree>
    <BinaryTree type="DecisionTree" boostWeight="1.0000000000000000e+00" itree="40">
      <Node pos="s" depth="0" NCoef="0" IVar="6" Cut="6.7610859870910645e-01" cType="1" res="-1.9182461546733975e-03" rms="3.9673912525177002e-01" purity="4.9404874444007874e-01" nType="0">
        <Node pos="l" depth="1" NCoef="0" IVar="6" Cut="-9.6713316440582275e-01" cType="1" res="5.7845306582748890e-03" rms="4.0208122134208679e-01" purity="5.3617525100708008e-01" nType="0">
          <Node pos="l" depth="2" NCoef="0" IVar="9" Cut="9.3370962142944336e-01" cType="1" res="-2.6937631890177727e-02" rms="3.7572389841079712e-01" purity="2.9302576184272766e-01" nType="0">
            <Node pos="l" depth="3" NCoef="0" IVar="-1" Cut="0.0000000000000000e+00" cType="1" res="-9.6975332126021385e-03" rms="3.8178908824920654e-01" purity="3.1387069821357727e-01" nType="-99"/>
            <Node pos="r" depth="3" NCoef="0" IVar="-1" Cut="0.0000000000000000e+00" cType="1" res="-4.9703340977430344e-02" rms="3.4606656432151794e-01" purity="2.0850667357444763e-01" nType="-99"/>
          </Node>
          <Node pos="r" depth="2" NCoef="0" IVar="6" Cut="-4.1938129067420959e-01" cType="1" res="1.4135171659290791e-02" rms="4.0811529755592346e-01" purity="5.9822660684585571e-01" nType="0">
            <Node pos="l" depth="3" NCoef="0" IVar="-1" Cut="0.0000000000000000e+00" cType="1" res="-1.4796737814322114e-03" rms="4.0832403302192688e-01" purity="5.5079096555709839e-01" nType="-99"/>
            <Node pos="r" depth="3" NCoef="0" IVar="-1" Cut="0.0000000000000000e+00" cType="1" res="1.1989990249276161e-02" rms="4.0784019231796265e-01" purity="6.1716550588607788e-01" nType="-99"/>
          </Node>
        </Node>
        <Node pos="r" depth="1" NCoef="0" IVar="0" Cut="5.3808752441406250e+02" cType="1" res="-2.6474563404917717e-02" rms="3.7816065549850464e-01" purity="3.5975015163421631e-01" nType="0">
          <Node pos="l" depth="2" NCoef="0" IVar="2" Cut="4.3990127563476562e+02" cType="1" res="-3.6562394350767136e-02" rms="3.7667465209960938e-01" purity="2.7934935688972473e-01" nType="0">
            <Node pos="l" depth="3" NCoef="0" IVar="-1" Cut="0.0000000000000000e+00" cType="1" res="-1.5155486762523651e-02" rms="3.8081672787666321e-01" purity="2.8927958011627197e-01" nType="-99"/>
            <Node pos="r" depth="3" NCoef="0" IVar="-1" Cut="0.0000000000000000e+00" cType="1" res="-5.8245986700057983e-02" rms="3.5025203227996826e-01" purity="2.3207342624664307e-01" nType="-99"/>
          </Node>
          <Node pos="r" depth="2" NCoef="0" IVar="-1" Cut="0.0000000000000000e+00" cType="1" res="1.0377125814557076e-02" rms="3.8146683573722839e-01" purity="7.0973867177963257e-01" nType="-99"/>
        </Node>
      </Node>
    </BinaryTree>
    <BinaryTree type="DecisionTree" boostWeight="1.0000000000000000e+00" itree="41">
      <Node pos="s" depth="0" NCoef="0" IVar="6" Cut="4.1052445769309998e-01" cType="1" res="-1.4755377778783441e-03" rms="3.9498805999755859e-01" purity="4.9997624754905701e-01" nType="0">
        <Node pos="l" depth="1" NCoef="0" IVar="6" Cut="-6.5122348070144653e-01" cType="1" res="6.3948608003556728e-03" rms="3.9878365397453308e-01" purity="5.3720963001251221e-01" nType="0">
          <Node pos="l" depth="2" NCoef="0" IVar="0" Cut="5.2774310302734375e+02" cType="1" res="-1.2668209150433540e-02" rms="3.9006090164184570e-01" purity="3.8182863593101501e-01" nType="0">
            <Node pos="l" depth="3" NCoef="0" IVar="-1" Cut="0.0000000000000000e+00" cType="1" res="-1.3265895657241344e-02" rms="3.8710120320320129e-01" purity="3.0336582660675049e-01" nType="-99"/>
            <Node pos="r" depth="3" NCoef="0" IVar="-1" Cut="0.0000000000000000e+00" cType="1" res="1.3103828765451908e-02" rms="3.9962399005889893e-01" purity="6.9275110960006714e-01" nType="-99"/>
          </Node>
          <Node pos="r" depth="2" NCoef="0" IVar="9" Cut="-1.7331318855285645e+00" cType="1" res="1.7013309523463249e-02" rms="4.0316995978355408e-01" purity="6.2375938892364502e-01" nType="0">
            <Node pos="l" depth="3" NCoef="0" IVar="-1" Cut="0.0000000000000000e+00" cType="1" res="-2.0126892253756523e-02" rms="4.1443443298339844e-01" purity="4.6564570069313049e-01" nType="-99"/>
            <Node pos="r" depth="3" NCoef="0" IVar="-1" Cut="0.0000000000000000e+00" cType="1" res="1.2479782104492188e-02" rms="4.0194123983383179e-01" purity="6.3645130395889282e-01" nType="-99"/>
          </Node>
        </Node>
        <Node pos="r" depth="1" NCoef="0" IVar="8" Cut="-6.6678768396377563e-01" cType="1" res="-1.7777631059288979e-02" rms="3.8649833202362061e-01" purity="4.2285412549972534e-01" nType="0">
          <Node pos="l" depth="2" NCoef="0" IVar="7" Cut="4.0022209286689758e-01" cType="1" res="-4.5549366623163223e-02" rms="3.7254160642623901e-01" purity="3.4368798136711121e-01" nType="0">
            <Node pos="l" depth="3" NCoef="0" IVar="-1" Cut="0.0000000000000000e+00" cType="1" res="-2.0726637914776802e-02" rms="3.7897443771362305e-01" purity="3.8133320212364197e-01" nType="-99"/>
            <Node pos="r" depth="3" NCoef="0" IVar="-1" Cut="0.0000000000000000e+00" cType="1" res="-4.6868629753589630e-02" rms="3.5773345828056335e-01" purity="2.6750648021697998e-01" nType="-99"/>
          </Node>
          <Node pos="r" depth="2" NCoef="0" IVar="5" Cut="7.4263389587402344e+01" cType="1" res="-8.8979508727788925e-03" rms="3.9043915271759033e-01" purity="4.4816651940345764e-01" nType="0">
            <Node pos="l" depth="3" NCoef="0" IVar="-1" Cut="0.0000000000000000e+00" cType="1" res="-1.7184861004352570e-02" rms="3.7313193082809448e-01" purity="2.5192937254905701e-01" nType="-99"/>
            <Node pos="r" depth="3" NCoef="0" IVar="-1" Cut="0.0000000000000000e+00" cType="1" res="2.4449601769447327e-03" rms="4.0221410989761353e-01" purity="5.9281736612319946e-01" nType="-99"/>
          </Node>
        </Node>
      </Node>
    </BinaryTree>
    <BinaryTree type="DecisionTree" boostWeight="1.0000000000000000e+00" itree="42">
      <Node pos="s" depth="0" NCoef="0" IVar="9" Cut="2.2666633129119873e+00" cType="1" res="2.2056698799133301e-03" rms="3.9782944321632385e-01" purity="4.9980676174163818e-01" nType="0">
        <Node pos="l" depth="1" NCoef="0" IVar="8" Cut="1.1999886035919189e+00" cType="1" res="4.3648094870150089e-03" rms="3.9834016561508179e-01" purity="5.0567048788070679e-01" nType="0">
          <Node pos="l" depth="2" NCoef="0" IVar="5" Cut="1.3518943786621094e+02" cType="1" res="9.3106068670749664e-03" rms="3.9916259050369263e-01" purity="5.3264921903610229e-01" nType="0">
            <Node pos="l" depth="3" NCoef="0" IVar="-1" Cut="0.0000000000000000e+00" cType="1" res="2.8867600485682487e-03" rms="4.1119170188903809e-01" purity="4.7318246960639954e-01" nType="-99"/>
            <Node pos="r" depth="3" NCoef="0" IVar="-1" Cut="0.0000000000000000e+00" cType="1" res="2.4055549874901772e-02" rms="3.2855740189552307e-01" purity="8.4247708320617676e-01" nType="-99"/>
          </Node>
          <Node pos="r" depth="2" NCoef="0" IVar="4" Cut="1.2393005371093750e+02" cType="1" res="-2.4675518274307251e-02" rms="3.9222028851509094e-01" purity="3.4725901484489441e-01" nType="0">
            <Node pos="l" depth="3" NCoef="0" IVar="-1" Cut="0.0000000000000000e+00" cType="1" res="-1.8119493033736944e-03" rms="3.7669733166694641e-01" purity="2.4084785580635071e-01" nType="-99"/>
            <Node pos="r" depth="3" NCoef="0" IVar="-1" Cut="0.0000000000000000e+00" cType="1" res="-3.0974579975008965e-02" rms="4.1181522607803345e-01" purity="5.0332736968994141e-01" nType="-99"/>
          </Node>
        </Node>
        <Node pos="r" depth="1" NCoef="0" IVar="-1" Cut="0.0000000000000000e+00" cType="1" res="-4.0200810879468918e-02" rms="3.7515938282012939e-01" purity="3.1557810306549072e-01" nType="-99"/>
      </Node>
    </BinaryTree>
    <BinaryTree type="DecisionTree" boostWeight="1.0000000000000000e+00" itree="43">
      <Node pos="s" depth="0" NCoef="0" IVar="4" Cut="9.5599784851074219e+01" cType="1" res="-1.2977035949006677e-03" rms="3.9455717802047729e-01" purity="4.9675831198692322e-01" nType="0">
        <Node pos="l" depth="1" NCoef="0" IVar="3" Cut="2.0391291809082031e+02" cType="1" res="-1.9648503512144089e-02" rms="3.6858657002449036e-01" purity="2.1718433499336243e-01" nType="0">
          <Node pos="l" depth="2" NCoef="0" IVar="5" Cut="6.7320541381835938e+01" cType="1" res="-2.9015230014920235e-02" rms="3.5358127951622009e-01" purity="1.7995299398899078e-01" nType="0">
            <Node pos="l" depth="3" NCoef="0" IVar="-1" Cut="0.0000000000000000e+00" cType="1" res="-2.8400102630257607e-02" rms="3.2970407605171204e-01" purity="1.4483304321765900e-01" nType="-99"/>
            <Node pos="r" depth="3" NCoef="0" IVar="-1" Cut="0.0000000000000000e+00" cType="1" res="-6.4140688627958298e-03" rms="4.0070822834968567e-01" purity="2.5751498341560364e-01" nType="-99"/>
          </Node>
          <Node pos="r" depth="2" NCoef="0" IVar="5" Cut="6.2848030090332031e+01" cType="1" res="1.5835788100957870e-02" rms="4.1870778799057007e-01" purity="3.5822910070419312e-01" nType="0">
            <Node pos="l" depth="3" NCoef="0" IVar="-1" Cut="0.0000000000000000e+00" cType="1" res="-1.5880983555689454e-03" rms="4.0356218814849854e-01" purity="2.9982355237007141e-01" nType="-99"/>
            <Node pos="r" depth="3" NCoef="0" IVar="-1" Cut="0.0000000000000000e+00" cType="1" res="1.8535619601607323e-02" rms="4.3273919820785522e-01" purity="4.1757723689079285e-01" nType="-99"/>
          </Node>
        </Node>
        <Node pos="r" depth="1" NCoef="0" IVar="6" Cut="-1.4280054569244385e+00" cType="1" res="5.7910983450710773e-03" rms="4.0391969680786133e-01" purity="6.0475605726242065e-01" nType="0">
          <Node pos="l" depth="2" NCoef="0" IVar="-1" Cut="0.0000000000000000e+00" cType="1" res="-2.4875065311789513e-02" rms="3.8183760643005371e-01" purity="2.6110729575157166e-01" nType="-99"/>
          <Node pos="r" depth="2" NCoef="0" IVar="6" Cut="1.5917797088623047e+00" cType="1" res="8.8215470314025879e-03" rms="4.0509840846061707e-01" purity="6.2667596340179443e-01" nType="0">
            <Node pos="l" depth="3" NCoef="0" IVar="-1" Cut="0.0000000000000000e+00" cType="1" res="6.4587080851197243e-03" rms="4.0639817714691162e-01" purity="6.4573872089385986e-01" nType="-99"/>
            <Node pos="r" depth="3" NCoef="0" IVar="-1" Cut="0.0000000000000000e+00" cType="1" res="-2.3952715098857880e-02" rms="3.7500077486038208e-01" purity="2.4554704129695892e-01" nType="-99"/>
          </Node>
        </Node>
      </Node>
    </BinaryTree>
    <BinaryTree type="DecisionTree" boostWeight="1.0000000000000000e+00" itree="44">
      <Node pos="s" depth="0" NCoef="0" IVar="9" Cut="1.4666808843612671e+00" cType="1" res="8.2178617594763637e-04" rms="3.9608564972877502e-01" purity="4.9648231267929077e-01" nType="0">
        <Node pos="l" depth="1" NCoef="0" IVar="9" Cut="-1.7840691804885864e+00" cType="1" res="4.8121456056833267e-03" rms="3.9678996801376343e-01" purity="5.1291757822036743e-01" nType="0">
          <Node pos="l" depth="2" NCoef="0" IVar="8" Cut="-6.6701984405517578e-01" cType="1" res="-3.5561595112085342e-02" rms="3.8035535812377930e-01" purity="3.5316511988639832e-01" nType="0">
            <Node pos="l" depth="3" NCoef="0" IVar="-1" Cut="0.0000000000000000e+00" cType="1" res="-4.4779069721698761e-02" rms="3.4574922919273376e-01" purity="2.3616836965084076e-01" nType="-99"/>
            <Node pos="r" depth="3" NCoef="0" IVar="-1" Cut="0.0000000000000000e+00" cType="1" res="-1.1433929204940796e-02" rms="3.9621847867965698e-01" purity="4.1395235061645508e-01" nType="-99"/>
          </Node>
          <Node pos="r" depth="2" NCoef="0" IVar="2" Cut="3.2520437622070312e+02" cType="1" res="8.6307888850569725e-03" rms="3.9809739589691162e-01" purity="5.2802735567092896e-01" nType="0">
            <Node pos="l" depth="3" NCoef="0" IVar="-1" Cut="0.0000000000000000e+00" cType="1" res="1.2973411940038204e-02" rms="4.1006785631179810e-01" purity="4.8403272032737732e-01" nType="-99"/>
            <Node pos="r" depth="3" NCoef="0" IVar="-1" Cut="0.0000000000000000e+00" cType="1" res="-1.0818921728059649e-03" rms="3.8827684521675110e-01" purity="5.6202226877212524e-01" nType="-99"/>
          </Node>
        </Node>
        <Node pos="r" depth="1" NCoef="0" IVar="8" Cut="9.3394953012466431e-01" cType="1" res="-2.8248848393559456e-02" rms="3.8968494534492493e-01" purity="3.7674766778945923e-01" nType="0">
          <Node pos="l" depth="2" NCoef="0" IVar="6" Cut="4.5891556143760681e-01" cType="1" res="-1.5526646748185158e-02" rms="4.0233534574508667e-01" purity="4.2905843257904053e-01" nType="0">
            <Node pos="l" depth="3" NCoef="0" IVar="-1" Cut="0.0000000000000000e+00" cType="1" res="-1.8358463421463966e-02" rms="4.0515094995498657e-01" purity="4.5176267623901367e-01" nType="-99"/>
            <Node pos="r" depth="3" NCoef="0" IVar="-1" Cut="0.0000000000000000e+00" cType="1" res="6.8843620829284191e-03" rms="3.9612600207328796e-01" purity="3.9086920022964478e-01" nType="-99"/>
          </Node>
          <Node pos="r" depth="2" NCoef="0" IVar="-1" Cut="0.0000000000000000e+00" cType="1" res="-4.1479114443063736e-02" rms="3.5146665573120117e-01" purity="2.3713548481464386e-01" nType="-99"/>
        </Node>
      </Node>
    </BinaryTree>
    <BinaryTree type="DecisionTree" boostWeight="1.0000000000000000e+00" itree="45">
      <Node pos="s" depth="0" NCoef="0" IVar="1" Cut="1.7003846435546875e+03" cType="1" res="1.9140903896186501e-04" rms="3.9251437783241272e-01" purity="5.0115233659744263e-01" nType="0">
        <Node pos="l" depth="1" NCoef="0" IVar="0" Cut="3.8598233032226562e+02" cType="1" res="-4.6123885549604893e-03" rms="4.0060779452323914e-01" purity="4.4413137435913086e-01" nType="0">
          <Node pos="l" depth="2" NCoef="0" IVar="2" Cut="3.8266607666015625e+02" cType="1" res="-2.0752977579832077e-02" rms="3.9263972640037537e-01" purity="3.0343800783157349e-01" nType="0">
            <Node pos="l" depth="3" NCoef="0" IVar="-1" Cut="0.0000000000000000e+00" cType="1" res="-5.1220771856606007e-03" rms="3.9811205863952637e-01" purity="3.1589904427528381e-01" nType="-99"/>
            <Node pos="r" depth="3" NCoef="0" IVar="-1" Cut="0.0000000000000000e+00" cType="1" res="-3.5064037889242172e-02" rms="3.7343198060989380e-01" purity="2.6622465252876282e-01" nType="-99"/>
          </Node>
          <Node pos="r" depth="2" NCoef="0" IVar="2" Cut="5.0807354736328125e+02" cType="1" res="9.9905543029308319e-03" rms="4.0713161230087280e-01" purity="5.7142150402069092e-01" nType="0">
            <Node pos="l" depth="3" NCoef="0" IVar="-1" Cut="0.0000000000000000e+00" cType="1" res="8.9961420744657516e-03" rms="4.0424209833145142e-01" purity="5.9026056528091431e-01" nType="-99"/>
            <Node pos="r" depth="3" NCoef="0" IVar="-1" Cut="0.0000000000000000e+00" cType="1" res="-2.0680068060755730e-02" rms="4.2979311943054199e-01" purity="3.9761859178543091e-01" nType="-99"/>
          </Node>
        </Node>
        <Node pos="r" depth="1" NCoef="0" IVar="2" Cut="7.3636529541015625e+02" cType="1" res="2.5515308603644371e-02" rms="3.4563791751861572e-01" purity="8.0174642801284790e-01" nType="0">
          <Node pos="l" depth="2" NCoef="0" IVar="6" Cut="-6.2251013517379761e-01" cType="1" res="3.6369714885950089e-02" rms="3.2390201091766357e-01" purity="8.3983802795410156e-01" nType="0">
            <Node pos="l" depth="3" NCoef="0" IVar="-1" Cut="0.0000000000000000e+00" cType="1" res="8.7341833859682083e-03" rms="3.6408117413520813e-01" purity="7.6178145408630371e-01" nType="-99"/>
            <Node pos="r" depth="3" NCoef="0" IVar="-1" Cut="0.0000000000000000e+00" cType="1" res="3.2955151051282883e-02" rms="3.1337785720825195e-01" purity="8.5834234952926636e-01" nType="-99"/>
          </Node>
          <Node pos="r" depth="2" NCoef="0" IVar="-1" Cut="0.0000000000000000e+00" cType="1" res="-1.2555764988064766e-02" rms="4.2667725682258606e-01" purity="6.3029140233993530e-01" nType="-99"/>
        </Node>
      </Node>
    </BinaryTree>
    <BinaryTree type="DecisionTree" boostWeight="1.0000000000000000e+00" itree="46">
      <Node pos="s" depth="0" NCoef="0" IVar="7" Cut="1.9999099969863892e+00" cType="1" res="1.4865119010210037e-03" rms="3.9551717042922974e-01" purity="5.0183236598968506e-01" nType="0">
        <Node pos="l" depth="1" NCoef="0" IVar="7" Cut="-1.6570631265640259e+00" cType="1" res="3.5314296837896109e-03" rms="3.9831143617630005e-01" purity="5.1411998271942139e-01" nType="0">
          <Node pos="l" depth="2" NCoef="0" IVar="9" Cut="-6.6664081811904907e-01" cType="1" res="-3.7545662373304367e-02" rms="3.4028685092926025e-01" purity="2.1534606814384460e-01" nType="0">
            <Node pos="l" depth="3" NCoef="0" IVar="-1" Cut="0.0000000000000000e+00" cType="1" res="-5.0181817263364792e-02" rms="3.0639794468879700e-01" purity="1.5460799634456635e-01" nType="-99"/>
            <Node pos="r" depth="3" NCoef="0" IVar="-1" Cut="0.0000000000000000e+00" cType="1" res="-1.4167192392051220e-02" rms="3.5895580053329468e-01" purity="2.5361561775207520e-01" nType="-99"/>
          </Node>
          <Node pos="r" depth="2" NCoef="0" IVar="8" Cut="-1.9999918937683105e+00" cType="1" res="6.4931116066873074e-03" rms="4.0200942754745483e-01" purity="5.3566175699234009e-01" nType="0">
            <Node pos="l" depth="3" NCoef="0" IVar="-1" Cut="0.0000000000000000e+00" cType="1" res="-3.0814526602625847e-02" rms="3.5780143737792969e-01" purity="2.5007581710815430e-01" nType="-99"/>
            <Node pos="r" depth="3" NCoef="0" IVar="-1" Cut="0.0000000000000000e+00" cType="1" res="5.0526922568678856e-03" rms="4.0350615978240967e-01" purity="5.4681640863418579e-01" nType="-99"/>
          </Node>
        </Node>
        <Node pos="r" depth="1" NCoef="0" IVar="-1" Cut="0.0000000000000000e+00" cType="1" res="-4.5928455889225006e-02" rms="2.9988709092140198e-01" purity="1.5279388427734375e-01" nType="-99"/>
      </Node>
    </BinaryTree>
    <BinaryTree type="DecisionTree" boostWeight="1.0000000000000000e+00" itree="47">
      <Node pos="s" depth="0" NCoef="0" IVar="5" Cut="1.5527264404296875e+02" cType="1" res="6.2122457893565297e-04" rms="3.9391437172889709e-01" purity="5.0115126371383667e-01" nType="0">
        <Node pos="l" depth="1" NCoef="0" IVar="5" Cut="6.0025760650634766e+01" cType="1" res="-2.3029819130897522e-03" rms="4.0094155073165894e-01" purity="4.6466290950775146e-01" nType="0">
          <Node pos="l" depth="2" NCoef="0" IVar="9" Cut="-6.6666561365127563e-01" cType="1" res="-1.9431447610259056e-02" rms="3.7447884678840637e-01" purity="2.5400710105895996e-01" nType="0">
            <Node pos="l" depth="3" NCoef="0" IVar="-1" Cut="0.0000000000000000e+00" cType="1" res="1.4431212330237031e-03" rms="3.8383021950721741e-01" purity="2.7315902709960938e-01" nType="-99"/>
            <Node pos="r" depth="3" NCoef="0" IVar="-1" Cut="0.0000000000000000e+00" cType="1" res="-2.0104685798287392e-02" rms="3.6904358863830566e-01" purity="2.4408446252346039e-01" nType="-99"/>
          </Node>
          <Node pos="r" depth="2" NCoef="0" IVar="6" Cut="4.0495520830154419e-01" cType="1" res="2.3812551517039537e-03" rms="4.0775439143180847e-01" purity="5.2227240800857544e-01" nType="0">
            <Node pos="l" depth="3" NCoef="0" IVar="-1" Cut="0.0000000000000000e+00" cType="1" res="5.4633147083222866e-03" rms="4.1009408235549927e-01" purity="5.5928874015808105e-01" nType="-99"/>
            <Node pos="r" depth="3" NCoef="0" IVar="-1" Cut="0.0000000000000000e+00" cType="1" res="-7.0433784276247025e-03" rms="4.0255340933799744e-01" purity="4.4671723246574402e-01" nType="-99"/>
          </Node>
        </Node>
        <Node pos="r" depth="1" NCoef="0" IVar="9" Cut="4.0040892362594604e-01" cType="1" res="2.9128720983862877e-02" rms="3.1594252586364746e-01" purity="8.5686874389648438e-01" nType="0">
          <Node pos="l" depth="2" NCoef="0" IVar="-1" Cut="0.0000000000000000e+00" cType="1" res="3.1156176701188087e-02" rms="3.0867180228233337e-01" purity="8.6830693483352661e-01" nType="-99"/>
          <Node pos="r" depth="2" NCoef="0" IVar="-1" Cut="0.0000000000000000e+00" cType="1" res="7.4051748961210251e-03" rms="3.3025860786437988e-01" purity="8.3211106061935425e-01" nType="-99"/>
        </Node>
      </Node>
    </BinaryTree>
    <BinaryTree type="DecisionTree" boostWeight="1.0000000000000000e+00" itree="48">
      <Node pos="s" depth="0" NCoef="0" IVar="9" Cut="-2.2666225433349609e+00" cType="1" res="1.5994405839592218e-03" rms="3.9485964179039001e-01" purity="5.0064092874526978e-01" nType="0">
        <Node pos="l" depth="1" NCoef="0" IVar="-1" Cut="0.0000000000000000e+00" cType="1" res="-3.3407226204872131e-02" rms="3.7169262766838074e-01" purity="2.8534659743309021e-01" nType="-99"/>
        <Node pos="r" depth="1" NCoef="0" IVar="2" Cut="4.9193713378906250e+02" cType="1" res="3.2326281070709229e-03" rms="3.9542433619499207e-01" purity="5.0715249776840210e-01" nType="0">
          <Node pos="l" depth="2" NCoef="0" IVar="0" Cut="3.6157406616210938e+02" cType="1" res="7.6939258724451065e-03" rms="3.9508992433547974e-01" purity="4.9669599533081055e-01" nType="0">
            <Node pos="l" depth="3" NCoef="0" IVar="-1" Cut="0.0000000000000000e+00" cType="1" res="-4.3751611374318600e-03" rms="3.9542528986930847e-01" purity="3.0911034345626831e-01" nType="-99"/>
            <Node pos="r" depth="3" NCoef="0" IVar="-1" Cut="0.0000000000000000e+00" cType="1" res="9.5610888674855232e-03" rms="3.9469534158706665e-01" purity="5.9459429979324341e-01" nType="-99"/>
          </Node>
          <Node pos="r" depth="2" NCoef="0" IVar="0" Cut="4.5299533081054688e+02" cType="1" res="-1.7272541299462318e-02" rms="3.9631241559982300e-01" purity="5.5521333217620850e-01" nType="0">
            <Node pos="l" depth="3" NCoef="0" IVar="-1" Cut="0.0000000000000000e+00" cType="1" res="-2.7556447312235832e-02" rms="3.8326030969619751e-01" purity="3.3823683857917786e-01" nType="-99"/>
            <Node pos="r" depth="3" NCoef="0" IVar="-1" Cut="0.0000000000000000e+00" cType="1" res="-1.3393287372309715e-04" rms="4.0226772427558899e-01" purity="6.7413413524627686e-01" nType="-99"/>
          </Node>
        </Node>
      </Node>
    </BinaryTree>
    <BinaryTree type="DecisionTree" boostWeight="1.0000000000000000e+00" itree="49">
      <Node pos="s" depth="0" NCoef="0" IVar="8" Cut="3.9998623728752136e-01" cType="1" res="9.5805313321761787e-05" rms="3.9488703012466431e-01" purity="4.9980804324150085e-01" nType="0">
        <Node pos="l" depth="1" NCoef="0" IVar="8" Cut="-6.6667413711547852e-01" cType="1" res="5.9586423449218273e-03" rms="3.9574003219604492e-01" purity="5.2206498384475708e-01" nType="0">
          <Node pos="l" depth="2" NCoef="0" IVar="9" Cut="1.4666681289672852e+00" cType="1" res="-7.0927743799984455e-03" rms="3.9089241623878479e-01" purity="4.3698579072952271e-01" nType="0">
            <Node pos="l" depth="3" NCoef="0" IVar="-1" Cut="0.0000000000000000e+00" cType="1" res="-1.2878281995654106e-03" rms="3.9256471395492554e-01" purity="4.5047655701637268e-01" nType="-99"/>
            <Node pos="r" depth="3" NCoef="0" IVar="-1" Cut="0.0000000000000000e+00" cType="1" res="-3.2709900289773941e-02" rms="3.7296137213706970e-01" purity="3.1841367483139038e-01" nType="-99"/>
          </Node>
          <Node pos="r" depth="2" NCoef="0" IVar="3" Cut="2.0986851501464844e+02" cType="1" res="1.6347676515579224e-02" rms="3.9925187826156616e-01" purity="5.8978867530822754e-01" nType="0">
            <Node pos="l" depth="3" NCoef="0" IVar="-1" Cut="0.0000000000000000e+00" cType="1" res="2.8977363836020231e-03" rms="4.2071655392646790e-01" purity="4.4794857501983643e-01" nType="-99"/>
            <Node pos="r" depth="3" NCoef="0" IVar="-1" Cut="0.0000000000000000e+00" cType="1" res="1.7711684107780457e-02" rms="3.7664526700973511e-01" purity="7.2914153337478638e-01" nType="-99"/>
          </Node>
        </Node>
        <Node pos="r" depth="1" NCoef="0" IVar="6" Cut="1.2328315973281860e+00" cType="1" res="-1.0215153917670250e-02" rms="3.9317029714584351e-01" purity="4.6066480875015259e-01" nType="0">
          <Node pos="l" depth="2" NCoef="0" IVar="9" Cut="9.3338084220886230e-01" cType="1" res="-4.3352902866899967e-03" rms="4.0254697203636169e-01" purity="5.0067067146301270e-01" nType="0">
            <Node pos="l" depth="3" NCoef="0" IVar="-1" Cut="0.0000000000000000e+00" cType="1" res="2.4156621657311916e-03" rms="4.0185415744781494e-01" purity="5.3347504138946533e-01" nType="-99"/>
            <Node pos="r" depth="3" NCoef="0" IVar="-1" Cut="0.0000000000000000e+00" cType="1" res="-1.7060957849025726e-02" rms="4.0356457233428955e-01" purity="4.0687891840934753e-01" nType="-99"/>
          </Node>
          <Node pos="r" depth="2" NCoef="0" IVar="-1" Cut="0.0000000000000000e+00" cType="1" res="-4.1116878390312195e-02" rms="3.1389850378036499e-01" purity="1.7117628455162048e-01" nType="-99"/>
        </Node>
      </Node>
    </BinaryTree>
    <BinaryTree type="DecisionTree" boostWeight="1.0000000000000000e+00" itree="50">
      <Node pos="s" depth="0" NCoef="0" IVar="6" Cut="1.7427591085433960e+00" cType="1" res="-1.7621413571760058e-03" rms="3.9446148276329041e-01" purity="4.9618107080459595e-01" nType="0">
        <Node pos="l" depth="1" NCoef="0" IVar="8" Cut="-1.7333347797393799e+00" cType="1" res="8.4596586020779796e-06" rms="3.9806270599365234e-01" purity="5.1017767190933228e-01" nType="0">
          <Node pos="l" depth="2" NCoef="0" IVar="3" Cut="1.7546585083007812e+02" cType="1" res="-3.2574422657489777e-02" rms="3.7483027577400208e-01" purity="2.6128607988357544e-01" nType="0">
            <Node pos="l" depth="3" NCoef="0" IVar="-1" Cut="0.0000000000000000e+00" cType="1" res="4.8521226271986961e-03" rms="3.4757933020591736e-01" purity="1.8861168622970581e-01" nType="-99"/>
            <Node pos="r" depth="3" NCoef="0" IVar="-1" Cut="0.0000000000000000e+00" cType="1" res="-4.2934428900480270e-02" rms="3.9714071154594421e-01" purity="3.3626586198806763e-01" nType="-99"/>
          </Node>
          <Node pos="r" depth="2" NCoef="0" IVar="9" Cut="-6.6666269302368164e-01" cType="1" res="2.3859716020524502e-03" rms="3.9960107207298279e-01" purity="5.2833878993988037e-01" nType="0">
            <Node pos="l" depth="3" NCoef="0" IVar="-1" Cut="0.0000000000000000e+00" cType="1" res="-6.3280672766268253e-03" rms="4.0123727917671204e-01" purity="4.8534482717514038e-01" nType="-99"/>
            <Node pos="r" depth="3" NCoef="0" IVar="-1" Cut="0.0000000000000000e+00" cType="1" res="4.6848882921040058e-03" rms="3.9879977703094482e-01" purity="5.4612916707992554e-01" nType="-99"/>
          </Node>
        </Node>
        <Node pos="r" depth="1" NCoef="0" IVar="-1" Cut="0.0000000000000000e+00" cType="1" res="-3.7593703716993332e-02" rms="2.8815832734107971e-01" purity="1.5009649097919464e-01" nType="-99"/>
      </Node>
    </BinaryTree>
    <BinaryTree type="DecisionTree" boostWeight="1.0000000000000000e+00" itree="51">
      <Node pos="s" depth="0" NCoef="0" IVar="2" Cut="6.0637432861328125e+02" cType="1" res="-1.6645384021103382e-03" rms="3.9546912908554077e-01" purity="4.9642568826675415e-01" nType="0">
        <Node pos="l" depth="1" NCoef="0" IVar="0" Cut="5.0188296508789062e+02" cType="1" res="1.7858752980828285e-03" rms="3.9440265297889709e-01" purity="4.9293956160545349e-01" nType="0">
          <Node pos="l" depth="2" NCoef="0" IVar="2" Cut="3.7415969848632812e+02" cType="1" res="-6.0005784034729004e-03" rms="4.0536665916442871e-01" purity="3.9443930983543396e-01" nType="0">
            <Node pos="l" depth="3" NCoef="0" IVar="-1" Cut="0.0000000000000000e+00" cType="1" res="2.2701679263263941e-03" rms="4.1220167279243469e-01" purity="3.9552158117294312e-01" nType="-99"/>
            <Node pos="r" depth="3" NCoef="0" IVar="-1" Cut="0.0000000000000000e+00" cType="1" res="-1.7547659575939178e-02" rms="3.8822653889656067e-01" purity="3.9194706082344055e-01" nType="-99"/>
          </Node>
          <Node pos="r" depth="2" NCoef="0" IVar="0" Cut="5.5956384277343750e+02" cType="1" res="2.4302445352077484e-02" rms="3.5988083481788635e-01" purity="7.7777904272079468e-01" nType="0">
            <Node pos="l" depth="3" NCoef="0" IVar="-1" Cut="0.0000000000000000e+00" cType="1" res="2.4243824183940887e-02" rms="3.8506925106048584e-01" purity="7.1962881088256836e-01" nType="-99"/>
            <Node pos="r" depth="3" NCoef="0" IVar="-1" Cut="0.0000000000000000e+00" cType="1" res="1.2035179883241653e-02" rms="3.4413325786590576e-01" purity="8.1151068210601807e-01" nType="-99"/>
          </Node>
        </Node>
        <Node pos="r" depth="1" NCoef="0" IVar="0" Cut="6.0600750732421875e+02" cType="1" res="-4.5906655490398407e-02" rms="4.0630897879600525e-01" purity="5.4112517833709717e-01" nType="0">
          <Node pos="l" depth="2" NCoef="0" IVar="-1" Cut="0.0000000000000000e+00" cType="1" res="-4.4426307082176208e-02" rms="4.0080326795578003e-01" purity="3.9686810970306396e-01" nType="-99"/>
          <Node pos="r" depth="2" NCoef="0" IVar="-1" Cut="0.0000000000000000e+00" cType="1" res="-4.9356422387063503e-03" rms="4.0876340866088867e-01" purity="6.9495207071304321e-01" nType="-99"/>
        </Node>
      </Node>
    </BinaryTree>
    <BinaryTree type="DecisionTree" boostWeight="1.0000000000000000e+00" itree="52">
      <Node pos="s" depth="0" NCoef="0" IVar="6" Cut="-3.8569763302803040e-01" cType="1" res="-2.9723304323852062e-03" rms="3.9394500851631165e-01" purity="4.9314296245574951e-01" nType="0">
        <Node pos="l" depth="1" NCoef="0" IVar="8" Cut="-6.6662222146987915e-01" cType="1" res="-1.7102455720305443e-02" rms="3.8932406902313232e-01" purity="4.3194833397865295e-01" nType="0">
          <Node pos="l" depth="2" NCoef="0" IVar="1" Cut="1.3006286621093750e+03" cType="1" res="-3.6363907158374786e-02" rms="3.7298601865768433e-01" purity="3.5430312156677246e-01" nType="0">
            <Node pos="l" depth="3" NCoef="0" IVar="-1" Cut="0.0000000000000000e+00" cType="1" res="-3.4617833793163300e-02" rms="3.5406553745269775e-01" purity="2.0778982341289520e-01" nType="-99"/>
            <Node pos="r" depth="3" NCoef="0" IVar="-1" Cut="0.0000000000000000e+00" cType="1" res="-8.0751078203320503e-03" rms="4.0131929516792297e-01" purity="5.9666520357131958e-01" nType="-99"/>
          </Node>
          <Node pos="r" depth="2" NCoef="0" IVar="9" Cut="9.3338888883590698e-01" cType="1" res="-7.5159235857427120e-03" rms="3.9685693383216858e-01" purity="4.7059279680252075e-01" nType="0">
            <Node pos="l" depth="3" NCoef="0" IVar="-1" Cut="0.0000000000000000e+00" cType="1" res="-1.3753128005191684e-03" rms="3.9854484796524048e-01" purity="4.9420481920242310e-01" nType="-99"/>
            <Node pos="r" depth="3" NCoef="0" IVar="-1" Cut="0.0000000000000000e+00" cType="1" res="-1.7518369480967522e-02" rms="3.8960415124893188e-01" purity="3.7936520576477051e-01" nType="-99"/>
          </Node>
        </Node>
        <Node pos="r" depth="1" NCoef="0" IVar="6" Cut="9.7946494817733765e-01" cType="1" res="4.3195160105824471e-03" rms="3.9611142873764038e-01" purity="5.2472239732742310e-01" nType="0">
          <Node pos="l" depth="2" NCoef="0" IVar="5" Cut="8.1792259216308594e+01" cType="1" res="1.1563306674361229e-02" rms="4.0515759587287903e-01" purity="5.9855002164840698e-01" nType="0">
            <Node pos="l" depth="3" NCoef="0" IVar="-1" Cut="0.0000000000000000e+00" cType="1" res="1.1532316915690899e-02" rms="4.2910039424896240e-01" purity="4.3337175250053406e-01" nType="-99"/>
            <Node pos="r" depth="3" NCoef="0" IVar="-1" Cut="0.0000000000000000e+00" cType="1" res="1.5920096775516868e-03" rms="3.8150420784950256e-01" purity="7.5097030401229858e-01" nType="-99"/>
          </Node>
          <Node pos="r" depth="2" NCoef="0" IVar="9" Cut="1.1997551918029785e+00" cType="1" res="-1.9474556669592857e-02" rms="3.6380824446678162e-01" purity="2.8221702575683594e-01" nType="0">
            <Node pos="l" depth="3" NCoef="0" IVar="-1" Cut="0.0000000000000000e+00" cType="1" res="-4.4979816302657127e-03" rms="3.7645798921585083e-01" purity="3.0849161744117737e-01" nType="-99"/>
            <Node pos="r" depth="3" NCoef="0" IVar="-1" Cut="0.0000000000000000e+00" cType="1" res="-4.8208888620138168e-02" rms="3.1353640556335449e-01" purity="1.9352436065673828e-01" nType="-99"/>
          </Node>
        </Node>
      </Node>
    </BinaryTree>
    <BinaryTree type="DecisionTree" boostWeight="1.0000000000000000e+00" itree="53">
      <Node pos="s" depth="0" NCoef="0" IVar="1" Cut="1.1200330810546875e+03" cType="1" res="1.1259783059358597e-03" rms="3.9343240857124329e-01" purity="4.9912035465240479e-01" nType="0">
        <Node pos="l" depth="1" NCoef="0" IVar="3" Cut="9.1702491760253906e+01" cType="1" res="-1.5076549723744392e-02" rms="3.8198545575141907e-01" purity="2.3386919498443604e-01" nType="0">
          <Node pos="l" depth="2" NCoef="0" IVar="-1" Cut="0.0000000000000000e+00" cType="1" res="-5.6020520627498627e-02" rms="2.4533826112747192e-01" purity="6.8659454584121704e-02" nType="-99"/>
          <Node pos="r" depth="2" NCoef="0" IVar="4" Cut="1.2529587554931641e+02" cType="1" res="-9.8592313006520271e-03" rms="3.9524260163307190e-01" purity="2.5420615077018738e-01" nType="0">
            <Node pos="l" depth="3" NCoef="0" IVar="-1" Cut="0.0000000000000000e+00" cType="1" res="-1.5088804066181183e-03" rms="3.8544583320617676e-01" purity="2.2783714532852173e-01" nType="-99"/>
            <Node pos="r" depth="3" NCoef="0" IVar="-1" Cut="0.0000000000000000e+00" cType="1" res="-2.1481238305568695e-02" rms="4.3365761637687683e-01" purity="3.6858743429183960e-01" nType="-99"/>
          </Node>
        </Node>
        <Node pos="r" depth="1" NCoef="0" IVar="7" Cut="9.3325251340866089e-01" cType="1" res="9.3592070043087006e-03" rms="3.9887124300003052e-01" purity="6.3390624523162842e-01" nType="0">
          <Node pos="l" depth="2" NCoef="0" IVar="5" Cut="8.5090919494628906e+01" cType="1" res="1.4358795247972012e-02" rms="3.9747023582458496e-01" purity="6.6553437709808350e-01" nType="0">
            <Node pos="l" depth="3" NCoef="0" IVar="-1" Cut="0.0000000000000000e+00" cType="1" res="1.4210243709385395e-02" rms="4.3423086404800415e-01" purity="5.2050340175628662e-01" nType="-99"/>
            <Node pos="r" depth="3" NCoef="0" IVar="-1" Cut="0.0000000000000000e+00" cType="1" res="4.3529649265110493e-03" rms="3.7217819690704346e-01" purity="7.5710368156433105e-01" nType="-99"/>
          </Node>
          <Node pos="r" depth="2" NCoef="0" IVar="3" Cut="2.8324069213867188e+02" cType="1" res="-1.5079816803336143e-02" rms="4.0476217865943909e-01" purity="4.7930145263671875e-01" nType="0">
            <Node pos="l" depth="3" NCoef="0" IVar="-1" Cut="0.0000000000000000e+00" cType="1" res="1.6568934079259634e-03" rms="4.0412884950637817e-01" purity="4.8889797925949097e-01" nType="-99"/>
            <Node pos="r" depth="3" NCoef="0" IVar="-1" Cut="0.0000000000000000e+00" cType="1" res="-4.4139821082353592e-02" rms="4.0102994441986084e-01" purity="4.4702583551406860e-01" nType="-99"/>
          </Node>
        </Node>
      </Node>
    </BinaryTree>
    <BinaryTree type="DecisionTree" boostWeight="1.0000000000000000e+00" itree="54">
      <Node pos="s" depth="0" NCoef="0" IVar="7" Cut="-6.6663986444473267e-01" cType="1" res="2.0774949807673693e-03" rms="3.9322087168693542e-01" purity="5.0256818532943726e-01" nType="0">
        <Node pos="l" depth="1" NCoef="0" IVar="6" Cut="4.2433086037635803e-01" cType="1" res="-9.9061196669936180e-03" rms="3.8767439126968384e-01" purity="4.1277593374252319e-01" nType="0">
          <Node pos="l" depth="2" NCoef="0" IVar="6" Cut="-3.2975429296493530e-01" cType="1" res="-1.3836800644639879e-04" rms="3.9504760503768921e-01" purity="4.5232409238815308e-01" nType="0">
            <Node pos="l" depth="3" NCoef="0" IVar="-1" Cut="0.0000000000000000e+00" cType="1" res="-1.3250432908535004e-02" rms="3.7433412671089172e-01" purity="3.6952760815620422e-01" nType="-99"/>
            <Node pos="r" depth="3" NCoef="0" IVar="-1" Cut="0.0000000000000000e+00" cType="1" res="1.5770992264151573e-02" rms="4.1995209455490112e-01" purity="5.6470459699630737e-01" nType="-99"/>
          </Node>
          <Node pos="r" depth="2" NCoef="0" IVar="8" Cut="3.9996626973152161e-01" cType="1" res="-3.2746624201536179e-02" rms="3.6885175108909607e-01" purity="3.2029810547828674e-01" nType="0">
            <Node pos="l" depth="3" NCoef="0" IVar="-1" Cut="0.0000000000000000e+00" cType="1" res="-1.0149087756872177e-02" rms="3.7647089362144470e-01" purity="3.6476799845695496e-01" nType="-99"/>
            <Node pos="r" depth="3" NCoef="0" IVar="-1" Cut="0.0000000000000000e+00" cType="1" res="-4.5410659164190292e-02" rms="3.5196885466575623e-01" purity="2.3765963315963745e-01" nType="-99"/>
          </Node>
        </Node>
        <Node pos="r" depth="1" NCoef="0" IVar="8" Cut="1.9999133348464966e+00" cType="1" res="6.4591155387461185e-03" rms="3.9513871073722839e-01" purity="5.3539925813674927e-01" nType="0">
          <Node pos="l" depth="2" NCoef="0" IVar="2" Cut="6.1037017822265625e+02" cType="1" res="9.1517772525548935e-03" rms="3.9674222469329834e-01" purity="5.4925787448883057e-01" nType="0">
            <Node pos="l" depth="3" NCoef="0" IVar="-1" Cut="0.0000000000000000e+00" cType="1" res="7.1028959937393665e-03" rms="3.9591783285140991e-01" purity="5.4562258720397949e-01" nType="-99"/>
            <Node pos="r" depth="3" NCoef="0" IVar="-1" Cut="0.0000000000000000e+00" cType="1" res="-1.0513244196772575e-02" rms="4.0590879321098328e-01" purity="5.9484630823135376e-01" nType="-99"/>
          </Node>
          <Node pos="r" depth="2" NCoef="0" IVar="-1" Cut="0.0000000000000000e+00" cType="1" res="-3.7731468677520752e-02" rms="3.5165739059448242e-01" purity="2.2299744188785553e-01" nType="-99"/>
        </Node>
      </Node>
    </BinaryTree>
    <BinaryTree type="DecisionTree" boostWeight="1.0000000000000000e+00" itree="55">
      <Node pos="s" depth="0" NCoef="0" IVar="2" Cut="5.0379696655273438e+02" cType="1" res="4.0535549633204937e-03" rms="3.9437252283096313e-01" purity="5.0368881225585938e-01" nType="0">
        <Node pos="l" depth="1" NCoef="0" IVar="5" Cut="6.9011810302734375e+01" cType="1" res="7.9698394984006882e-03" rms="3.9388808608055115e-01" purity="4.9468967318534851e-01" nType="0">
          <Node pos="l" depth="2" NCoef="0" IVar="4" Cut="1.4625090026855469e+02" cType="1" res="-4.5564398169517517e-03" rms="3.8457411527633667e-01" purity="2.7390959858894348e-01" nType="0">
            <Node pos="l" depth="3" NCoef="0" IVar="-1" Cut="0.0000000000000000e+00" cType="1" res="4.6718731755390763e-04" rms="3.7906754016876221e-01" purity="2.4280783534049988e-01" nType="-99"/>
            <Node pos="r" depth="3" NCoef="0" IVar="-1" Cut="0.0000000000000000e+00" cType="1" res="-2.2381020709872246e-02" rms="4.1963025927543640e-01" purity="4.9397322535514832e-01" nType="-99"/>
          </Node>
          <Node pos="r" depth="2" NCoef="0" IVar="9" Cut="-1.4666482210159302e+00" cType="1" res="1.4652558602392673e-02" rms="3.9860710501670837e-01" purity="6.1247491836547852e-01" nType="0">
            <Node pos="l" depth="3" NCoef="0" IVar="-1" Cut="0.0000000000000000e+00" cType="1" res="-1.0015507228672504e-02" rms="4.0183231234550476e-01" purity="4.9337401986122131e-01" nType="-99"/>
            <Node pos="r" depth="3" NCoef="0" IVar="-1" Cut="0.0000000000000000e+00" cType="1" res="1.1422493495047092e-02" rms="3.9802822470664978e-01" purity="6.2729257345199585e-01" nType="-99"/>
          </Node>
        </Node>
        <Node pos="r" depth="1" NCoef="0" IVar="1" Cut="1.6276469726562500e+03" cType="1" res="-1.6206596046686172e-02" rms="3.9625152945518494e-01" purity="5.5024397373199463e-01" nType="0">
          <Node pos="l" depth="2" NCoef="0" IVar="3" Cut="2.0051083374023438e+02" cType="1" res="-4.5981261879205704e-02" rms="3.9590319991111755e-01" purity="3.0016899108886719e-01" nType="0">
            <Node pos="l" depth="3" NCoef="0" IVar="-1" Cut="0.0000000000000000e+00" cType="1" res="-4.3087922036647797e-02" rms="3.8278335332870483e-01" purity="2.5044086575508118e-01" nType="-99"/>
            <Node pos="r" depth="3" NCoef="0" IVar="-1" Cut="0.0000000000000000e+00" cType="1" res="-1.1237957514822483e-02" rms="4.0664261579513550e-01" purity="3.4863516688346863e-01" nType="-99"/>
          </Node>
          <Node pos="r" depth="2" NCoef="0" IVar="7" Cut="3.9976832270622253e-01" cType="1" res="9.5787784084677696e-04" rms="3.9543476700782776e-01" purity="6.9440704584121704e-01" nType="0">
            <Node pos="l" depth="3" NCoef="0" IVar="-1" Cut="0.0000000000000000e+00" cType="1" res="7.1716234087944031e-03" rms="3.9415079355239868e-01" purity="7.2268044948577881e-01" nType="-99"/>
            <Node pos="r" depth="3" NCoef="0" IVar="-1" Cut="0.0000000000000000e+00" cType="1" res="-1.3963181525468826e-02" rms="3.9725801348686218e-01" purity="6.2954360246658325e-01" nType="-99"/>
          </Node>
        </Node>
      </Node>
    </BinaryTree>
    <BinaryTree type="DecisionTree" boostWeight="1.0000000000000000e+00" itree="56">
      <Node pos="s" depth="0" NCoef="0" IVar="7" Cut="-6.6671001911163330e-01" cType="1" res="1.4351429854286835e-05" rms="3.9382371306419373e-01" purity="4.9608317017555237e-01" nType="0">
        <Node pos="l" depth="1" NCoef="0" IVar="3" Cut="2.4588810729980469e+02" cType="1" res="-1.6002545133233070e-02" rms="3.8773134350776672e-01" purity="3.9944878220558167e-01" nType="0">
          <Node pos="l" depth="2" NCoef="0" IVar="1" Cut="1.3997969970703125e+03" cType="1" res="-7.4292477220296860e-03" rms="3.8507157564163208e-01" purity="3.4936335682868958e-01" nType="0">
            <Node pos="l" depth="3" NCoef="0" IVar="-1" Cut="0.0000000000000000e+00" cType="1" res="-9.8998583853244781e-03" rms="3.8270583748817444e-01" purity="2.7636516094207764e-01" nType="-99"/>
            <Node pos="r" depth="3" NCoef="0" IVar="-1" Cut="0.0000000000000000e+00" cType="1" res="1.7582943663001060e-02" rms="3.9402076601982117e-01" purity="6.9436603784561157e-01" nType="-99"/>
          </Node>
          <Node pos="r" depth="2" NCoef="0" IVar="7" Cut="-1.1742951869964600e+00" cType="1" res="-4.2580459266901016e-02" rms="3.9468151330947876e-01" purity="5.5471771955490112e-01" nType="0">
            <Node pos="l" depth="3" NCoef="0" IVar="-1" Cut="0.0000000000000000e+00" cType="1" res="-4.3037738651037216e-02" rms="3.9230692386627197e-01" purity="4.0799194574356079e-01" nType="-99"/>
            <Node pos="r" depth="3" NCoef="0" IVar="-1" Cut="0.0000000000000000e+00" cType="1" res="-1.3006992638111115e-02" rms="3.9494520425796509e-01" purity="6.6276681423187256e-01" nType="-99"/>
          </Node>
        </Node>
        <Node pos="r" depth="1" NCoef="0" IVar="7" Cut="6.5390390157699585e-01" cType="1" res="5.7314559817314148e-03" rms="3.9581871032714844e-01" purity="5.3057610988616943e-01" nType="0">
          <Node pos="l" depth="2" NCoef="0" IVar="9" Cut="1.7333978414535522e+00" cType="1" res="1.2686948291957378e-02" rms="3.9962419867515564e-01" purity="6.0347944498062134e-01" nType="0">
            <Node pos="l" depth="3" NCoef="0" IVar="-1" Cut="0.0000000000000000e+00" cType="1" res="9.7188223153352737e-03" rms="4.0031921863555908e-01" purity="6.1514800786972046e-01" nType="-99"/>
            <Node pos="r" depth="3" NCoef="0" IVar="-1" Cut="0.0000000000000000e+00" cType="1" res="-1.5634337440133095e-02" rms="3.8877591490745544e-01" purity="4.5916345715522766e-01" nType="-99"/>
          </Node>
          <Node pos="r" depth="2" NCoef="0" IVar="0" Cut="5.2998779296875000e+02" cType="1" res="-6.2434254214167595e-03" rms="3.8888853788375854e-01" purity="4.0506228804588318e-01" nType="0">
            <Node pos="l" depth="3" NCoef="0" IVar="-1" Cut="0.0000000000000000e+00" cType="1" res="-7.8319674357771873e-03" rms="3.8810297846794128e-01" purity="3.2568201422691345e-01" nType="-99"/>
            <Node pos="r" depth="3" NCoef="0" IVar="-1" Cut="0.0000000000000000e+00" cType="1" res="1.0354326106607914e-02" rms="3.9103540778160095e-01" purity="7.0838791131973267e-01" nType="-99"/>
          </Node>
        </Node>
      </Node>
    </BinaryTree>
    <BinaryTree type="DecisionTree" boostWeight="1.0000000000000000e+00" itree="57">
      <Node pos="s" depth="0" NCoef="0" IVar="7" Cut="-1.9999029636383057e+00" cType="1" res="-3.0134548433125019e-04" rms="3.9364933967590332e-01" purity="5.0016319751739502e-01" nType="0">
        <Node pos="l" depth="1" NCoef="0" IVar="-1" Cut="0.0000000000000000e+00" cType="1" res="-3.3220328390598297e-02" rms="3.0858135223388672e-01" purity="1.8568918108940125e-01" nType="-99"/>
        <Node pos="r" depth="1" NCoef="0" IVar="0" Cut="5.7280041503906250e+02" cType="1" res="1.2661138316616416e-03" rms="3.9637109637260437e-01" purity="5.1184380054473877e-01" nType="0">
          <Node pos="l" depth="2" NCoef="0" IVar="0" Cut="3.5196130371093750e+02" cType="1" res="-2.0370418205857277e-03" rms="4.0518727898597717e-01" purity="4.4627776741981506e-01" nType="0">
            <Node pos="l" depth="3" NCoef="0" IVar="-1" Cut="0.0000000000000000e+00" cType="1" res="-1.1166429147124290e-02" rms="3.9304530620574951e-01" purity="2.9747816920280457e-01" nType="-99"/>
            <Node pos="r" depth="3" NCoef="0" IVar="-1" Cut="0.0000000000000000e+00" cType="1" res="3.3245119266211987e-03" rms="4.1065838932991028e-01" purity="5.1758301258087158e-01" nType="-99"/>
          </Node>
          <Node pos="r" depth="2" NCoef="0" IVar="3" Cut="3.3712051391601562e+02" cType="1" res="1.5964891761541367e-02" rms="3.5411751270294189e-01" purity="8.0360746383666992e-01" nType="0">
            <Node pos="l" depth="3" NCoef="0" IVar="-1" Cut="0.0000000000000000e+00" cType="1" res="1.6701834276318550e-02" rms="3.5647433996200562e-01" purity="7.9877829551696777e-01" nType="-99"/>
            <Node pos="r" depth="3" NCoef="0" IVar="-1" Cut="0.0000000000000000e+00" cType="1" res="-9.9641121923923492e-03" rms="3.4299847483634949e-01" purity="8.2316309213638306e-01" nType="-99"/>
          </Node>
        </Node>
      </Node>
    </BinaryTree>
    <BinaryTree type="DecisionTree" boostWeight="1.0000000000000000e+00" itree="58">
      <Node pos="s" depth="0" NCoef="0" IVar="2" Cut="3.4596881103515625e+02" cType="1" res="1.0667778551578522e-03" rms="3.9349168539047241e-01" purity="5.0245022773742676e-01" nType="0">
        <Node pos="l" depth="1" NCoef="0" IVar="0" Cut="3.4608139038085938e+02" cType="1" res="7.9250484704971313e-03" rms="4.0169927477836609e-01" purity="4.6501588821411133e-01" nType="0">
          <Node pos="l" depth="2" NCoef="0" IVar="0" Cut="3.2852548217773438e+02" cType="1" res="-6.8402504548430443e-03" rms="3.8901177048683167e-01" purity="2.8531670570373535e-01" nType="0">
            <Node pos="l" depth="3" NCoef="0" IVar="-1" Cut="0.0000000000000000e+00" cType="1" res="-1.5076580457389355e-02" rms="3.7546339631080627e-01" purity="2.6461419463157654e-01" nType="-99"/>
            <Node pos="r" depth="3" NCoef="0" IVar="-1" Cut="0.0000000000000000e+00" cType="1" res="1.4367981813848019e-02" rms="4.1067433357238770e-01" purity="3.2272467017173767e-01" nType="-99"/>
          </Node>
          <Node pos="r" depth="2" NCoef="0" IVar="5" Cut="6.2416950225830078e+01" cType="1" res="1.4422637410461903e-02" rms="4.0698754787445068e-01" purity="5.4409396648406982e-01" nType="0">
            <Node pos="l" depth="3" NCoef="0" IVar="-1" Cut="0.0000000000000000e+00" cType="1" res="-1.8112960970029235e-03" rms="3.9960056543350220e-01" purity="2.8545731306076050e-01" nType="-99"/>
            <Node pos="r" depth="3" NCoef="0" IVar="-1" Cut="0.0000000000000000e+00" cType="1" res="1.1958195827901363e-02" rms="4.0907648205757141e-01" purity="6.2328189611434937e-01" nType="-99"/>
          </Node>
        </Node>
        <Node pos="r" depth="1" NCoef="0" IVar="3" Cut="2.3176020812988281e+02" cType="1" res="-5.9100748039782047e-03" rms="3.8483729958534241e-01" purity="5.4053175449371338e-01" nType="0">
          <Node pos="l" depth="2" NCoef="0" IVar="3" Cut="1.8013601684570312e+02" cType="1" res="-2.1522387862205505e-02" rms="3.8766750693321228e-01" purity="3.9891344308853149e-01" nType="0">
            <Node pos="l" depth="3" NCoef="0" IVar="-1" Cut="0.0000000000000000e+00" cType="1" res="-2.2226912900805473e-02" rms="3.7747097015380859e-01" purity="2.9736909270286560e-01" nType="-99"/>
            <Node pos="r" depth="3" NCoef="0" IVar="-1" Cut="0.0000000000000000e+00" cType="1" res="-4.0477621951140463e-04" rms="4.0299248695373535e-01" purity="5.6573718786239624e-01" nType="-99"/>
          </Node>
          <Node pos="r" depth="2" NCoef="0" IVar="7" Cut="9.3346148729324341e-01" cType="1" res="8.2079730927944183e-03" rms="3.8171052932739258e-01" purity="6.6859567165374756e-01" nType="0">
            <Node pos="l" depth="3" NCoef="0" IVar="-1" Cut="0.0000000000000000e+00" cType="1" res="9.9120177328586578e-03" rms="3.7794598937034607e-01" purity="7.0212602615356445e-01" nType="-99"/>
            <Node pos="r" depth="3" NCoef="0" IVar="-1" Cut="0.0000000000000000e+00" cType="1" res="-1.9848106428980827e-02" rms="4.0101787447929382e-01" purity="4.6758329868316650e-01" nType="-99"/>
          </Node>
        </Node>
      </Node>
    </BinaryTree>
    <BinaryTree type="DecisionTree" boostWeight="1.0000000000000000e+00" itree="59">
      <Node pos="s" depth="0" NCoef="0" IVar="9" Cut="2.2666633129119873e+00" cType="1" res="1.9594680052250624e-03" rms="3.9311608672142029e-01" purity="5.0232940912246704e-01" nType="0">
        <Node pos="l" depth="1" NCoef="0" IVar="9" Cut="-1.8349142074584961e+00" cType="1" res="3.6877961829304695e-03" rms="3.9394941926002502e-01" purity="5.0880712270736694e-01" nType="0">
          <Node pos="l" depth="2" NCoef="0" IVar="8" Cut="1.3330440223217010e-01" cType="1" res="-2.1426297724246979e-02" rms="3.7693071365356445e-01" purity="3.4174734354019165e-01" nType="0">
            <Node pos="l" depth="3" NCoef="0" IVar="-1" Cut="0.0000000000000000e+00" cType="1" res="-1.4394677709788084e-03" rms="3.7383061647415161e-01" purity="3.5548391938209534e-01" nType="-99"/>
            <Node pos="r" depth="3" NCoef="0" IVar="-1" Cut="0.0000000000000000e+00" cType="1" res="-3.4169588238000870e-02" rms="3.7988561391830444e-01" purity="3.1866899132728577e-01" nType="-99"/>
          </Node>
          <Node pos="r" depth="2" NCoef="0" IVar="8" Cut="1.9997187852859497e+00" cType="1" res="5.6364331394433975e-03" rms="3.9517256617546082e-01" purity="5.2176946401596069e-01" nType="0">
            <Node pos="l" depth="3" NCoef="0" IVar="-1" Cut="0.0000000000000000e+00" cType="1" res="4.3805437162518501e-03" rms="3.9610451459884644e-01" purity="5.3366619348526001e-01" nType="-99"/>
            <Node pos="r" depth="3" NCoef="0" IVar="-1" Cut="0.0000000000000000e+00" cType="1" res="-1.8405402079224586e-02" rms="3.7138941884040833e-01" purity="2.4438066780567169e-01" nType="-99"/>
          </Node>
        </Node>
        <Node pos="r" depth="1" NCoef="0" IVar="-1" Cut="0.0000000000000000e+00" cType="1" res="-3.6650713533163071e-02" rms="3.6005288362503052e-01" purity="2.8927892446517944e-01" nType="-99"/>
      </Node>
    </BinaryTree>
    <BinaryTree type="DecisionTree" boostWeight="1.0000000000000000e+00" itree="60">
      <Node pos="s" depth="0" NCoef="0" IVar="2" Cut="6.5569537353515625e+02" cType="1" res="4.2619081214070320e-03" rms="3.9538970589637756e-01" purity="5.0376325845718384e-01" nType="0">
        <Node pos="l" depth="1" NCoef="0" IVar="1" Cut="1.2740013427734375e+03" cType="1" res="6.1000054702162743e-03" rms="3.9430496096611023e-01" purity="5.0077563524246216e-01" nType="0">
          <Node pos="l" depth="2" NCoef="0" IVar="4" Cut="1.0540808868408203e+02" cType="1" res="-2.7027542237192392e-03" rms="4.0719127655029297e-01" purity="3.1929108500480652e-01" nType="0">
            <Node pos="l" depth="3" NCoef="0" IVar="-1" Cut="0.0000000000000000e+00" cType="1" res="9.6466206014156342e-03" rms="3.8206368684768677e-01" purity="2.2623710334300995e-01" nType="-99"/>
            <Node pos="r" depth="3" NCoef="0" IVar="-1" Cut="0.0000000000000000e+00" cType="1" res="-1.2232366017997265e-02" rms="4.3605548143386841e-01" purity="4.3704241514205933e-01" nType="-99"/>
          </Node>
          <Node pos="r" depth="2" NCoef="0" IVar="9" Cut="6.6664379835128784e-01" cType="1" res="1.6581086441874504e-02" rms="3.7812271714210510e-01" purity="7.1686178445816040e-01" nType="0">
            <Node pos="l" depth="3" NCoef="0" IVar="-1" Cut="0.0000000000000000e+00" cType="1" res="1.6361668705940247e-02" rms="3.7452524900436401e-01" purity="7.3509895801544189e-01" nType="-99"/>
            <Node pos="r" depth="3" NCoef="0" IVar="-1" Cut="0.0000000000000000e+00" cType="1" res="-2.7892189100384712e-03" rms="3.8692912459373474e-01" purity="6.6745269298553467e-01" nType="-99"/>
          </Node>
        </Node>
        <Node pos="r" depth="1" NCoef="0" IVar="-1" Cut="0.0000000000000000e+00" cType="1" res="-1.7073353752493858e-02" rms="4.1387397050857544e-01" purity="5.6039148569107056e-01" nType="-99"/>
      </Node>
    </BinaryTree>
    <BinaryTree type="DecisionTree" boostWeight="1.0000000000000000e+00" itree="61">
      <Node pos="s" depth="0" NCoef="0" IVar="7" Cut="9.3337392807006836e-01" cType="1" res="7.1709632175043225e-04" rms="3.9456641674041748e-01" purity="5.0062704086303711e-01" nType="0">
        <Node pos="l" depth="1" NCoef="0" IVar="7" Cut="-3.1103757023811340e-01" cType="1" res="4.0102414786815643e-03" rms="3.9814594388008118e-01" purity="5.3707605600357056e-01" nType="0">
          <Node pos="l" depth="2" NCoef="0" IVar="9" Cut="1.4666498899459839e+00" cType="1" res="-4.4604525901377201e-03" rms="3.9357540011405945e-01" purity="4.6520757675170898e-01" nType="0">
            <Node pos="l" depth="3" NCoef="0" IVar="-1" Cut="0.0000000000000000e+00" cType="1" res="-5.8727082796394825e-04" rms="3.9490950107574463e-01" purity="4.7879815101623535e-01" nType="-99"/>
            <Node pos="r" depth="3" NCoef="0" IVar="-1" Cut="0.0000000000000000e+00" cType="1" res="-2.2562155500054359e-02" rms="3.8060575723648071e-01" purity="3.4871220588684082e-01" nType="-99"/>
          </Node>
          <Node pos="r" depth="2" NCoef="0" IVar="3" Cut="2.3760939025878906e+02" cType="1" res="1.1603469960391521e-02" rms="4.0204721689224243e-01" purity="6.0149973630905151e-01" nType="0">
            <Node pos="l" depth="3" NCoef="0" IVar="-1" Cut="0.0000000000000000e+00" cType="1" res="2.1471811924129725e-03" rms="4.2126938700675964e-01" purity="5.0457507371902466e-01" nType="-99"/>
            <Node pos="r" depth="3" NCoef="0" IVar="-1" Cut="0.0000000000000000e+00" cType="1" res="1.6592433676123619e-02" rms="3.6854183673858643e-01" purity="7.5802129507064819e-01" nType="-99"/>
          </Node>
        </Node>
        <Node pos="r" depth="1" NCoef="0" IVar="9" Cut="-9.3329173326492310e-01" cType="1" res="-1.3318644836544991e-02" rms="3.7861007452011108e-01" purity="3.4527739882469177e-01" nType="0">
          <Node pos="l" depth="2" NCoef="0" IVar="-1" Cut="0.0000000000000000e+00" cType="1" res="-3.1184185296297073e-02" rms="3.5586202144622803e-01" purity="2.7133148908615112e-01" nType="-99"/>
          <Node pos="r" depth="2" NCoef="0" IVar="9" Cut="1.0222707986831665e+00" cType="1" res="-5.6799249723553658e-03" rms="3.8344755768775940e-01" purity="3.6293289065361023e-01" nType="0">
            <Node pos="l" depth="3" NCoef="0" IVar="-1" Cut="0.0000000000000000e+00" cType="1" res="5.5701658129692078e-03" rms="3.9706331491470337e-01" purity="4.2001351714134216e-01" nType="-99"/>
            <Node pos="r" depth="3" NCoef="0" IVar="-1" Cut="0.0000000000000000e+00" cType="1" res="-2.4882622063159943e-02" rms="3.5303878784179688e-01" purity="2.4931646883487701e-01" nType="-99"/>
          </Node>
        </Node>
      </Node>
    </BinaryTree>
    <BinaryTree type="DecisionTree" boostWeight="1.0000000000000000e+00" itree="62">
      <Node pos="s" depth="0" NCoef="0" IVar="7" Cut="1.9998744726181030e+00" cType="1" res="-1.3676895759999752e-03" rms="3.9349728822708130e-01" purity="4.9860766530036926e-01" nType="0">
        <Node pos="l" depth="1" NCoef="0" IVar="6" Cut="-1.1917632818222046e+00" cType="1" res="2.8823054162785411e-04" rms="3.9644646644592285e-01" purity="5.1128447055816650e-01" nType="0">
          <Node pos="l" depth="2" NCoef="0" IVar="9" Cut="-6.6657108068466187e-01" cType="1" res="2.2037770599126816e-02" rms="3.8190004229545593e-01" purity="2.9785105586051941e-01" nType="0">
            <Node pos="l" depth="3" NCoef="0" IVar="-1" Cut="0.0000000000000000e+00" cType="1" res="-1.0664909146726131e-02" rms="3.5403451323509216e-01" purity="2.1527394652366638e-01" nType="-99"/>
            <Node pos="r" depth="3" NCoef="0" IVar="-1" Cut="0.0000000000000000e+00" cType="1" res="2.9195686802268028e-02" rms="3.9593058824539185e-01" purity="3.4677568078041077e-01" nType="-99"/>
          </Node>
          <Node pos="r" depth="2" NCoef="0" IVar="9" Cut="1.1999948024749756e+00" cType="1" res="-2.4012452922761440e-03" rms="3.9812576770782471e-01" purity="5.3767693042755127e-01" nType="0">
            <Node pos="l" depth="3" NCoef="0" IVar="-1" Cut="0.0000000000000000e+00" cType="1" res="-3.7486737128347158e-03" rms="3.9763858914375305e-01" purity="5.5231064558029175e-01" nType="-99"/>
            <Node pos="r" depth="3" NCoef="0" IVar="-1" Cut="0.0000000000000000e+00" cType="1" res="8.9237838983535767e-03" rms="3.9996787905693054e-01" purity="4.6908876299858093e-01" nType="-99"/>
          </Node>
        </Node>
        <Node pos="r" depth="1" NCoef="0" IVar="-1" Cut="0.0000000000000000e+00" cType="1" res="-4.1260924190282822e-02" rms="2.9615604877471924e-01" purity="1.4532081782817841e-01" nType="-99"/>
      </Node>
    </BinaryTree>
    <BinaryTree type="DecisionTree" boostWeight="1.0000000000000000e+00" itree="63">
      <Node pos="s" depth="0" NCoef="0" IVar="6" Cut="-1.7242288589477539e+00" cType="1" res="-6.2702689319849014e-05" rms="3.9212727546691895e-01" purity="5.0052201747894287e-01" nType="0">
        <Node pos="l" depth="1" NCoef="0" IVar="-1" Cut="0.0000000000000000e+00" cType="1" res="-3.6665320396423340e-02" rms="3.1960067152976990e-01" purity="1.5349274873733521e-01" nType="-99"/>
        <Node pos="r" depth="1" NCoef="0" IVar="7" Cut="-4.0000954270362854e-01" cType="1" res="1.7099996330216527e-03" rms="3.9460057020187378e-01" purity="5.1416200399398804e-01" nType="0">
          <Node pos="l" depth="2" NCoef="0" IVar="8" Cut="1.4665237665176392e+00" cType="1" res="-7.7175283804535866e-03" rms="3.9263468980789185e-01" purity="4.6499380469322205e-01" nType="0">
            <Node pos="l" depth="3" NCoef="0" IVar="-1" Cut="0.0000000000000000e+00" cType="1" res="-2.6029977016150951e-03" rms="3.9552870392799377e-01" purity="4.8443832993507385e-01" nType="-99"/>
            <Node pos="r" depth="3" NCoef="0" IVar="-1" Cut="0.0000000000000000e+00" cType="1" res="-3.0252659693360329e-02" rms="3.5953319072723389e-01" purity="2.6523467898368835e-01" nType="-99"/>
          </Node>
          <Node pos="r" depth="2" NCoef="0" IVar="9" Cut="-3.9999672770500183e-01" cType="1" res="6.8001667968928814e-03" rms="3.9556452631950378e-01" purity="5.4070925712585449e-01" nType="0">
            <Node pos="l" depth="3" NCoef="0" IVar="-1" Cut="0.0000000000000000e+00" cType="1" res="1.2294922955334187e-02" rms="3.9875942468643188e-01" purity="5.5578464269638062e-01" nType="-99"/>
            <Node pos="r" depth="3" NCoef="0" IVar="-1" Cut="0.0000000000000000e+00" cType="1" res="-2.8635520720854402e-04" rms="3.9359849691390991e-01" purity="5.3236967325210571e-01" nType="-99"/>
          </Node>
        </Node>
      </Node>
    </BinaryTree>
    <BinaryTree type="DecisionTree" boostWeight="1.0000000000000000e+00" itree="64">
      <Node pos="s" depth="0" NCoef="0" IVar="6" Cut="-1.7241441011428833e+00" cType="1" res="2.1382504201028496e-04" rms="3.9235153794288635e-01" purity="5.0205391645431519e-01" nType="0">
        <Node pos="l" depth="1" NCoef="0" IVar="-1" Cut="0.0000000000000000e+00" cType="1" res="-3.4431345760822296e-02" rms="3.1447365880012512e-01" purity="1.4670491218566895e-01" nType="-99"/>
        <Node pos="r" depth="1" NCoef="0" IVar="3" Cut="4.3168344116210938e+02" cType="1" res="1.7843098612502217e-03" rms="3.9499688148498535e-01" purity="5.1592332124710083e-01" nType="0">
          <Node pos="l" depth="2" NCoef="0" IVar="4" Cut="6.8188735961914062e+01" cType="1" res="2.7830484323203564e-03" rms="3.9509353041648865e-01" purity="5.1159763336181641e-01" nType="0">
            <Node pos="l" depth="3" NCoef="0" IVar="-1" Cut="0.0000000000000000e+00" cType="1" res="-2.3505032062530518e-02" rms="3.2186731696128845e-01" purity="1.4789575338363647e-01" nType="-99"/>
            <Node pos="r" depth="3" NCoef="0" IVar="-1" Cut="0.0000000000000000e+00" cType="1" res="3.2238436397165060e-03" rms="4.0000605583190918e-01" purity="5.3922909498214722e-01" nType="-99"/>
          </Node>
          <Node pos="r" depth="2" NCoef="0" IVar="-1" Cut="0.0000000000000000e+00" cType="1" res="-1.9758302718400955e-02" rms="3.9040604233741760e-01" purity="6.5766251087188721e-01" nType="-99"/>
        </Node>
      </Node>
    </BinaryTree>
    <BinaryTree type="DecisionTree" boostWeight="1.0000000000000000e+00" itree="65">
      <Node pos="s" depth="0" NCoef="0" IVar="2" Cut="3.4596862792968750e+02" cType="1" res="4.1452454752288759e-04" rms="3.9151945710182190e-01" purity="5.0221323966979980e-01" nType="0">
        <Node pos="l" depth="1" NCoef="0" IVar="1" Cut="8.9607592773437500e+02" cType="1" res="8.1075634807348251e-03" rms="4.0091550350189209e-01" purity="4.6693244576454163e-01" nType="0">
          <Node pos="l" depth="2" NCoef="0" IVar="5" Cut="5.9794933319091797e+01" cType="1" res="-2.4512264877557755e-02" rms="3.0901646614074707e-01" purity="1.1777596175670624e-01" nType="0">
            <Node pos="l" depth="3" NCoef="0" IVar="-1" Cut="0.0000000000000000e+00" cType="1" res="-3.9348145946860313e-03" rms="3.0881237983703613e-01" purity="1.1552754789590836e-01" nType="-99"/>
            <Node pos="r" depth="3" NCoef="0" IVar="-1" Cut="0.0000000000000000e+00" cType="1" res="-3.7060540169477463e-02" rms="3.0770254135131836e-01" purity="1.2018203735351562e-01" nType="-99"/>
          </Node>
          <Node pos="r" depth="2" NCoef="0" IVar="4" Cut="1.0528271484375000e+02" cType="1" res="1.2990300543606281e-02" rms="4.1269353032112122e-01" purity="5.1919639110565186e-01" nType="0">
            <Node pos="l" depth="3" NCoef="0" IVar="-1" Cut="0.0000000000000000e+00" cType="1" res="2.1978285163640976e-02" rms="4.2597910761833191e-01" purity="3.2123628258705139e-01" nType="-99"/>
            <Node pos="r" depth="3" NCoef="0" IVar="-1" Cut="0.0000000000000000e+00" cType="1" res="1.2063210597261786e-03" rms="4.0582096576690674e-01" purity="6.1245721578598022e-01" nType="-99"/>
          </Node>
        </Node>
        <Node pos="r" depth="1" NCoef="0" IVar="6" Cut="-1.3919270038604736e+00" cType="1" res="-7.5436811894178391e-03" rms="3.8139286637306213e-01" purity="5.3870999813079834e-01" nType="0">
          <Node pos="l" depth="2" NCoef="0" IVar="-1" Cut="0.0000000000000000e+00" cType="1" res="-4.5723002403974533e-02" rms="3.1241831183433533e-01" purity="1.6799372434616089e-01" nType="-99"/>
          <Node pos="r" depth="2" NCoef="0" IVar="6" Cut="1.0032799243927002e+00" cType="1" res="-4.5604347251355648e-03" rms="3.8493829965591431e-01" purity="5.6097429990768433e-01" nType="0">
            <Node pos="l" depth="3" NCoef="0" IVar="-1" Cut="0.0000000000000000e+00" cType="1" res="-1.5145573706831783e-04" rms="3.9036437869071960e-01" purity="6.0456591844558716e-01" nType="-99"/>
            <Node pos="r" depth="3" NCoef="0" IVar="-1" Cut="0.0000000000000000e+00" cType="1" res="-2.2749762982130051e-02" rms="3.4790807962417603e-01" purity="2.8853440284729004e-01" nType="-99"/>
          </Node>
        </Node>
      </Node>
    </BinaryTree>
    <BinaryTree type="DecisionTree" boostWeight="1.0000000000000000e+00" itree="66">
      <Node pos="s" depth="0" NCoef="0" IVar="5" Cut="7.7733779907226562e+01" cType="1" res="-3.2248815987259150e-03" rms="3.9312413334846497e-01" purity="4.9565586447715759e-01" nType="0">
        <Node pos="l" depth="1" NCoef="0" IVar="5" Cut="5.9244628906250000e+01" cType="1" res="-1.0888365097343922e-02" rms="3.9057195186614990e-01" purity="3.0494743585586548e-01" nType="0">
          <Node pos="l" depth="2" NCoef="0" IVar="6" Cut="-1.1639569997787476e+00" cType="1" res="-2.5315396487712860e-02" rms="3.6917707324028015e-01" purity="2.3457641899585724e-01" nType="0">
            <Node pos="l" depth="3" NCoef="0" IVar="-1" Cut="0.0000000000000000e+00" cType="1" res="2.6730773970484734e-02" rms="3.3492922782897949e-01" purity="1.4834597706794739e-01" nType="-99"/>
            <Node pos="r" depth="3" NCoef="0" IVar="-1" Cut="0.0000000000000000e+00" cType="1" res="-2.2596605122089386e-02" rms="3.7415087223052979e-01" purity="2.4961440265178680e-01" nType="-99"/>
          </Node>
          <Node pos="r" depth="2" NCoef="0" IVar="8" Cut="-1.2000035047531128e+00" cType="1" res="-1.1631376110017300e-03" rms="4.0406540036201477e-01" purity="3.5238435864448547e-01" nType="0">
            <Node pos="l" depth="3" NCoef="0" IVar="-1" Cut="0.0000000000000000e+00" cType="1" res="-2.2291544824838638e-02" rms="3.4023183584213257e-01" purity="2.2549349069595337e-01" nType="-99"/>
            <Node pos="r" depth="3" NCoef="0" IVar="-1" Cut="0.0000000000000000e+00" cType="1" res="2.8800852596759796e-03" rms="4.1566100716590881e-01" purity="3.7835621833801270e-01" nType="-99"/>
          </Node>
        </Node>
        <Node pos="r" depth="1" NCoef="0" IVar="8" Cut="-1.4666795730590820e+00" cType="1" res="3.1996127218008041e-03" rms="3.9513650536537170e-01" purity="6.5553158521652222e-01" nType="0">
          <Node pos="l" depth="2" NCoef="0" IVar="-1" Cut="0.0000000000000000e+00" cType="1" res="-1.2855027802288532e-02" rms="4.1323426365852356e-01" purity="4.7683444619178772e-01" nType="-99"/>
          <Node pos="r" depth="2" NCoef="0" IVar="8" Cut="1.5808019638061523e+00" cType="1" res="5.5439653806388378e-03" rms="3.9331367611885071e-01" purity="6.7230421304702759e-01" nType="0">
            <Node pos="l" depth="3" NCoef="0" IVar="-1" Cut="0.0000000000000000e+00" cType="1" res="4.7658407129347324e-03" rms="3.9141789078712463e-01" purity="6.9087749719619751e-01" nType="-99"/>
            <Node pos="r" depth="3" NCoef="0" IVar="-1" Cut="0.0000000000000000e+00" cType="1" res="-9.6310544759035110e-03" rms="4.1489860415458679e-01" purity="4.4777497649192810e-01" nType="-99"/>
          </Node>
        </Node>
      </Node>
    </BinaryTree>
    <BinaryTree type="DecisionTree" boostWeight="1.0000000000000000e+00" itree="67">
      <Node pos="s" depth="0" NCoef="0" IVar="2" Cut="5.0379714965820312e+02" cType="1" res="-2.5875281426124275e-04" rms="3.9468416571617126e-01" purity="4.9614942073822021e-01" nType="0">
        <Node pos="l" depth="1" NCoef="0" IVar="2" Cut="2.1446670532226562e+02" cType="1" res="2.7975805569440126e-03" rms="3.9392706751823425e-01" purity="4.8783260583877563e-01" nType="0">
          <Node pos="l" depth="2" NCoef="0" IVar="-1" Cut="0.0000000000000000e+00" cType="1" res="1.9175719469785690e-02" rms="4.2561432719230652e-01" purity="4.0294003486633301e-01" nType="-99"/>
          <Node pos="r" depth="2" NCoef="0" IVar="3" Cut="1.1598498535156250e+02" cType="1" res="1.1401557130739093e-03" rms="3.9198690652847290e-01" purity="4.9264997243881226e-01" nType="0">
            <Node pos="l" depth="3" NCoef="0" IVar="-1" Cut="0.0000000000000000e+00" cType="1" res="-1.6645200550556183e-02" rms="3.2830256223678589e-01" purity="1.4722788333892822e-01" nType="-99"/>
            <Node pos="r" depth="3" NCoef="0" IVar="-1" Cut="0.0000000000000000e+00" cType="1" res="2.6823391672223806e-03" rms="4.0062668919563293e-01" purity="5.4479438066482544e-01" nType="-99"/>
          </Node>
        </Node>
        <Node pos="r" depth="1" NCoef="0" IVar="1" Cut="1.6019439697265625e+03" cType="1" res="-1.6458131372928619e-02" rms="3.9828160405158997e-01" purity="5.4023045301437378e-01" nType="0">
          <Node pos="l" depth="2" NCoef="0" IVar="1" Cut="1.4366501464843750e+03" cType="1" res="-5.0811287015676498e-02" rms="3.8118535280227661e-01" purity="2.7805963158607483e-01" nType="0">
            <Node pos="l" depth="3" NCoef="0" IVar="-1" Cut="0.0000000000000000e+00" cType="1" res="-4.9674984067678452e-02" rms="3.3224669098854065e-01" purity="1.5859766304492950e-01" nType="-99"/>
            <Node pos="r" depth="3" NCoef="0" IVar="-1" Cut="0.0000000000000000e+00" cType="1" res="-1.5499480068683624e-02" rms="4.2460957169532776e-01" purity="4.0097418427467346e-01" nType="-99"/>
          </Node>
          <Node pos="r" depth="2" NCoef="0" IVar="4" Cut="1.4042288208007812e+02" cType="1" res="1.5056445263326168e-03" rms="4.0577924251556396e-01" purity="6.7732352018356323e-01" nType="0">
            <Node pos="l" depth="3" NCoef="0" IVar="-1" Cut="0.0000000000000000e+00" cType="1" res="1.7724717035889626e-02" rms="4.4403502345085144e-01" purity="5.7515841722488403e-01" nType="-99"/>
            <Node pos="r" depth="3" NCoef="0" IVar="-1" Cut="0.0000000000000000e+00" cType="1" res="-1.0515690781176090e-02" rms="3.8331046700477600e-01" purity="7.3031252622604370e-01" nType="-99"/>
          </Node>
        </Node>
      </Node>
    </BinaryTree>
    <BinaryTree type="DecisionTree" boostWeight="1.0000000000000000e+00" itree="68">
      <Node pos="s" depth="0" NCoef="0" IVar="4" Cut="1.0496535491943359e+02" cType="1" res="9.3092810129746795e-04" rms="3.9310064911842346e-01" purity="5.0072139501571655e-01" nType="0">
        <Node pos="l" depth="1" NCoef="0" IVar="1" Cut="1.0548281250000000e+03" cType="1" res="1.0196239687502384e-02" rms="3.9044380187988281e-01" purity="2.6752784848213196e-01" nType="0">
          <Node pos="l" depth="2" NCoef="0" IVar="0" Cut="3.2637051391601562e+02" cType="1" res="-7.4908263050019741e-03" rms="3.4717768430709839e-01" purity="1.6088674962520599e-01" nType="0">
            <Node pos="l" depth="3" NCoef="0" IVar="-1" Cut="0.0000000000000000e+00" cType="1" res="-3.2796233892440796e-02" rms="2.8700289130210876e-01" purity="9.9288567900657654e-02" nType="-99"/>
            <Node pos="r" depth="3" NCoef="0" IVar="-1" Cut="0.0000000000000000e+00" cType="1" res="1.7426352715119720e-03" rms="3.6620330810546875e-01" purity="1.8337035179138184e-01" nType="-99"/>
          </Node>
          <Node pos="r" depth="2" NCoef="0" IVar="8" Cut="-1.1999231576919556e+00" cType="1" res="2.8842078521847725e-02" rms="4.3059599399566650e-01" purity="3.7994968891143799e-01" nType="0">
            <Node pos="l" depth="3" NCoef="0" IVar="-1" Cut="0.0000000000000000e+00" cType="1" res="4.3678738176822662e-02" rms="4.2514079809188843e-01" purity="3.3726108074188232e-01" nType="-99"/>
            <Node pos="r" depth="3" NCoef="0" IVar="-1" Cut="0.0000000000000000e+00" cType="1" res="1.1353755369782448e-02" rms="4.3130952119827271e-01" purity="3.8926592469215393e-01" nType="-99"/>
          </Node>
        </Node>
        <Node pos="r" depth="1" NCoef="0" IVar="1" Cut="1.6877923583984375e+03" cType="1" res="-4.1458196938037872e-03" rms="3.9445656538009644e-01" purity="6.2849533557891846e-01" nType="0">
          <Node pos="l" depth="2" NCoef="0" IVar="8" Cut="-1.7328028678894043e+00" cType="1" res="-9.9533386528491974e-03" rms="4.1063025593757629e-01" purity="5.7051342725753784e-01" nType="0">
            <Node pos="l" depth="3" NCoef="0" IVar="-1" Cut="0.0000000000000000e+00" cType="1" res="-3.5461515188217163e-02" rms="3.8769775629043579e-01" purity="3.0209478735923767e-01" nType="-99"/>
            <Node pos="r" depth="3" NCoef="0" IVar="-1" Cut="0.0000000000000000e+00" cType="1" res="-4.0860027074813843e-03" rms="4.1178432106971741e-01" purity="5.8669948577880859e-01" nType="-99"/>
          </Node>
          <Node pos="r" depth="2" NCoef="0" IVar="4" Cut="1.5725810241699219e+02" cType="1" res="1.5143812634050846e-02" rms="3.3445763587951660e-01" purity="8.2108187675476074e-01" nType="0">
            <Node pos="l" depth="3" NCoef="0" IVar="-1" Cut="0.0000000000000000e+00" cType="1" res="-4.5544239692389965e-03" rms="3.8493373990058899e-01" purity="7.2274988889694214e-01" nType="-99"/>
            <Node pos="r" depth="3" NCoef="0" IVar="-1" Cut="0.0000000000000000e+00" cType="1" res="1.7571773380041122e-02" rms="3.2030299305915833e-01" purity="8.4575396776199341e-01" nType="-99"/>
          </Node>
        </Node>
      </Node>
    </BinaryTree>
    <BinaryTree type="DecisionTree" boostWeight="1.0000000000000000e+00" itree="69">
      <Node pos="s" depth="0" NCoef="0" IVar="1" Cut="1.7444438476562500e+03" cType="1" res="-2.7300589135847986e-04" rms="3.9262136816978455e-01" purity="5.0014168024063110e-01" nType="0">
        <Node pos="l" depth="1" NCoef="0" IVar="2" Cut="5.4253216552734375e+02" cType="1" res="-2.2430205717682838e-03" rms="3.9846995472908020e-01" purity="4.5463746786117554e-01" nType="0">
          <Node pos="l" depth="2" NCoef="0" IVar="0" Cut="3.3284179687500000e+02" cType="1" res="2.4761210079304874e-04" rms="3.9899197220802307e-01" purity="4.6209332346916199e-01" nType="0">
            <Node pos="l" depth="3" NCoef="0" IVar="-1" Cut="0.0000000000000000e+00" cType="1" res="-1.2637000530958176e-02" rms="3.7957692146301270e-01" purity="2.6855140924453735e-01" nType="-99"/>
            <Node pos="r" depth="3" NCoef="0" IVar="-1" Cut="0.0000000000000000e+00" cType="1" res="3.2815877348184586e-03" rms="4.0378904342651367e-01" purity="5.1296466588973999e-01" nType="-99"/>
          </Node>
          <Node pos="r" depth="2" NCoef="0" IVar="6" Cut="-1.2818030081689358e-02" cType="1" res="-4.2262990027666092e-02" rms="3.8779848814010620e-01" purity="3.3483555912971497e-01" nType="0">
            <Node pos="l" depth="3" NCoef="0" IVar="-1" Cut="0.0000000000000000e+00" cType="1" res="-2.5704056024551392e-02" rms="3.8802820444107056e-01" purity="3.3298876881599426e-01" nType="-99"/>
            <Node pos="r" depth="3" NCoef="0" IVar="-1" Cut="0.0000000000000000e+00" cType="1" res="-2.3801110684871674e-02" rms="3.8755741715431213e-01" purity="3.3669871091842651e-01" nType="-99"/>
          </Node>
        </Node>
        <Node pos="r" depth="1" NCoef="0" IVar="3" Cut="4.1319259643554688e+02" cType="1" res="1.2458842247724533e-02" rms="3.5222509503364563e-01" purity="7.9422700405120850e-01" nType="0">
          <Node pos="l" depth="2" NCoef="0" IVar="3" Cut="2.9280218505859375e+02" cType="1" res="2.2179078310728073e-02" rms="3.3823007345199585e-01" purity="8.1958574056625366e-01" nType="0">
            <Node pos="l" depth="3" NCoef="0" IVar="-1" Cut="0.0000000000000000e+00" cType="1" res="2.6468886062502861e-02" rms="3.4691122174263000e-01" purity="8.1610739231109619e-01" nType="-99"/>
            <Node pos="r" depth="3" NCoef="0" IVar="-1" Cut="0.0000000000000000e+00" cType="1" res="8.4317764267325401e-03" rms="3.2922345399856567e-01" purity="8.2292956113815308e-01" nType="-99"/>
          </Node>
          <Node pos="r" depth="2" NCoef="0" IVar="-1" Cut="0.0000000000000000e+00" cType="1" res="-1.4611235819756985e-02" rms="3.9641666412353516e-01" purity="7.0333021879196167e-01" nType="-99"/>
        </Node>
      </Node>
    </BinaryTree>
    <BinaryTree type="DecisionTree" boostWeight="1.0000000000000000e+00" itree="70">
      <Node pos="s" depth="0" NCoef="0" IVar="5" Cut="8.1792190551757812e+01" cType="1" res="3.1596692861057818e-04" rms="3.9090007543563843e-01" purity="5.0188845396041870e-01" nType="0">
        <Node pos="l" depth="1" NCoef="0" IVar="5" Cut="7.1194641113281250e+01" cType="1" res="6.4676515758037567e-03" rms="3.9646503329277039e-01" purity="3.3385506272315979e-01" nType="0">
          <Node pos="l" depth="2" NCoef="0" IVar="7" Cut="-4.0006798505783081e-01" cType="1" res="-2.6222439482808113e-03" rms="3.8671487569808960e-01" purity="2.9220688343048096e-01" nType="0">
            <Node pos="l" depth="3" NCoef="0" IVar="-1" Cut="0.0000000000000000e+00" cType="1" res="-1.2679553590714931e-02" rms="3.6854508519172668e-01" purity="2.3592813313007355e-01" nType="-99"/>
            <Node pos="r" depth="3" NCoef="0" IVar="-1" Cut="0.0000000000000000e+00" cType="1" res="3.7150403950363398e-03" rms="3.9623141288757324e-01" purity="3.2357946038246155e-01" nType="-99"/>
          </Node>
          <Node pos="r" depth="2" NCoef="0" IVar="9" Cut="4.0022963285446167e-01" cType="1" res="3.1735096126794815e-02" rms="4.2135822772979736e-01" purity="4.4962567090988159e-01" nType="0">
            <Node pos="l" depth="3" NCoef="0" IVar="-1" Cut="0.0000000000000000e+00" cType="1" res="9.1164754703640938e-03" rms="4.2053484916687012e-01" purity="4.3250018358230591e-01" nType="-99"/>
            <Node pos="r" depth="3" NCoef="0" IVar="-1" Cut="0.0000000000000000e+00" cType="1" res="3.0671361833810806e-02" rms="4.2150610685348511e-01" purity="4.7465118765830994e-01" nType="-99"/>
          </Node>
        </Node>
        <Node pos="r" depth="1" NCoef="0" IVar="5" Cut="1.4234887695312500e+02" cType="1" res="-5.9373052790760994e-03" rms="3.8506013154983521e-01" purity="6.7269670963287354e-01" nType="0">
          <Node pos="l" depth="2" NCoef="0" IVar="0" Cut="5.4566949462890625e+02" cType="1" res="-1.2355309911072254e-02" rms="4.0406185388565063e-01" purity="6.1312872171401978e-01" nType="0">
            <Node pos="l" depth="3" NCoef="0" IVar="-1" Cut="0.0000000000000000e+00" cType="1" res="-9.8463920876383781e-03" rms="4.2276281118392944e-01" purity="5.3870111703872681e-01" nType="-99"/>
            <Node pos="r" depth="3" NCoef="0" IVar="-1" Cut="0.0000000000000000e+00" cType="1" res="3.5027053672820330e-03" rms="3.4042024612426758e-01" purity="8.3944016695022583e-01" nType="-99"/>
          </Node>
          <Node pos="r" depth="2" NCoef="0" IVar="9" Cut="-6.6583210229873657e-01" cType="1" res="1.2040132656693459e-02" rms="3.2531714439392090e-01" purity="8.3955234289169312e-01" nType="0">
            <Node pos="l" depth="3" NCoef="0" IVar="-1" Cut="0.0000000000000000e+00" cType="1" res="-5.9867114759981632e-03" rms="3.5864323377609253e-01" purity="7.9477518796920776e-01" nType="-99"/>
            <Node pos="r" depth="3" NCoef="0" IVar="-1" Cut="0.0000000000000000e+00" cType="1" res="1.5783892944455147e-02" rms="3.1429249048233032e-01" purity="8.5310643911361694e-01" nType="-99"/>
          </Node>
        </Node>
      </Node>
    </BinaryTree>
    <BinaryTree type="DecisionTree" boostWeight="1.0000000000000000e+00" itree="71">
      <Node pos="s" depth="0" NCoef="0" IVar="9" Cut="1.4666597843170166e+00" cType="1" res="1.7041648970916867e-03" rms="3.9452424645423889e-01" purity="5.0053888559341431e-01" nType="0">
        <Node pos="l" depth="1" NCoef="0" IVar="3" Cut="4.2993606567382812e+02" cType="1" res="-2.0462758839130402e-03" rms="3.9376714825630188e-01" purity="5.1179581880569458e-01" nType="0">
          <Node pos="l" depth="2" NCoef="0" IVar="1" Cut="1.9995825195312500e+03" cType="1" res="-1.2546612415462732e-03" rms="3.9419007301330566e-01" purity="5.0680053234100342e-01" nType="0">
            <Node pos="l" depth="3" NCoef="0" IVar="-1" Cut="0.0000000000000000e+00" cType="1" res="-1.7576842801645398e-03" rms="3.9702275395393372e-01" purity="4.9019691348075867e-01" nType="-99"/>
            <Node pos="r" depth="3" NCoef="0" IVar="-1" Cut="0.0000000000000000e+00" cType="1" res="2.3636767640709877e-02" rms="3.2948368787765503e-01" purity="8.4633874893188477e-01" nType="-99"/>
          </Node>
          <Node pos="r" depth="2" NCoef="0" IVar="-1" Cut="0.0000000000000000e+00" cType="1" res="-1.6929412260651588e-02" rms="3.7965562939643860e-01" purity="6.6613340377807617e-01" nType="-99"/>
        </Node>
        <Node pos="r" depth="1" NCoef="0" IVar="3" Cut="1.4559230041503906e+02" cType="1" res="2.7371009811758995e-02" rms="3.9872151613235474e-01" purity="4.2349997162818909e-01" nType="0">
          <Node pos="l" depth="2" NCoef="0" IVar="-1" Cut="0.0000000000000000e+00" cType="1" res="5.1971018314361572e-02" rms="3.8996419310569763e-01" purity="2.5548022985458374e-01" nType="-99"/>
          <Node pos="r" depth="2" NCoef="0" IVar="7" Cut="-1.3294990360736847e-01" cType="1" res="1.1489694938063622e-02" rms="4.0129512548446655e-01" purity="4.9428644776344299e-01" nType="0">
            <Node pos="l" depth="3" NCoef="0" IVar="-1" Cut="0.0000000000000000e+00" cType="1" res="-7.6061566360294819e-03" rms="3.9803946018218994e-01" purity="4.6230551600456238e-01" nType="-99"/>
            <Node pos="r" depth="3" NCoef="0" IVar="-1" Cut="0.0000000000000000e+00" cType="1" res="1.5965819358825684e-02" rms="4.0258511900901794e-01" purity="5.1413673162460327e-01" nType="-99"/>
          </Node>
        </Node>
      </Node>
    </BinaryTree>
    <BinaryTree type="DecisionTree" boostWeight="1.0000000000000000e+00" itree="72">
      <Node pos="s" depth="0" NCoef="0" IVar="6" Cut="1.7352451086044312e+00" cType="1" res="6.2069698469713330e-04" rms="3.9268922805786133e-01" purity="4.9825003743171692e-01" nType="0">
        <Node pos="l" depth="1" NCoef="0" IVar="2" Cut="6.1997546386718750e+02" cType="1" res="1.8730112351477146e-03" rms="3.9607572555541992e-01" purity="5.1310682296752930e-01" nType="0">
          <Node pos="l" depth="2" NCoef="0" IVar="1" Cut="9.5801922607421875e+02" cType="1" res="3.3961720764636993e-03" rms="3.9558869600296021e-01" purity="5.0908625125885010e-01" nType="0">
            <Node pos="l" depth="3" NCoef="0" IVar="-1" Cut="0.0000000000000000e+00" cType="1" res="-1.0084606707096100e-02" rms="3.4402021765708923e-01" purity="1.5416228771209717e-01" nType="-99"/>
            <Node pos="r" depth="3" NCoef="0" IVar="-1" Cut="0.0000000000000000e+00" cType="1" res="3.7025099154561758e-03" rms="4.0325158834457397e-01" purity="5.6649416685104370e-01" nType="-99"/>
          </Node>
          <Node pos="r" depth="2" NCoef="0" IVar="0" Cut="5.7281738281250000e+02" cType="1" res="-1.8835021182894707e-02" rms="4.0206658840179443e-01" purity="5.6776851415634155e-01" nType="0">
            <Node pos="l" depth="3" NCoef="0" IVar="-1" Cut="0.0000000000000000e+00" cType="1" res="-2.9869619756937027e-02" rms="3.9522776007652283e-01" purity="3.8243189454078674e-01" nType="-99"/>
            <Node pos="r" depth="3" NCoef="0" IVar="-1" Cut="0.0000000000000000e+00" cType="1" res="3.9643403142690659e-03" rms="4.0515798330307007e-01" purity="7.0486360788345337e-01" nType="-99"/>
          </Node>
        </Node>
        <Node pos="r" depth="1" NCoef="0" IVar="-1" Cut="0.0000000000000000e+00" cType="1" res="-2.6797048747539520e-02" rms="3.0115640163421631e-01" purity="1.5000858902931213e-01" nType="-99"/>
      </Node>
    </BinaryTree>
    <BinaryTree type="DecisionTree" boostWeight="1.0000000000000000e+00" itree="73">
      <Node pos="s" depth="0" NCoef="0" IVar="6" Cut="-1.7238987684249878e+00" cType="1" res="5.6429998949170113e-05" rms="3.9282503724098206e-01" purity="4.9968302249908447e-01" nType="0">
        <Node pos="l" depth="1" NCoef="0" IVar="-1" Cut="0.0000000000000000e+00" cType="1" res="-2.6640944182872772e-02" rms="3.0760130286216736e-01" purity="1.6030791401863098e-01" nType="-99"/>
        <Node pos="r" depth="1" NCoef="0" IVar="4" Cut="1.4145735168457031e+02" cType="1" res="1.2905350886285305e-03" rms="3.9580544829368591e-01" purity="5.1327103376388550e-01" nType="0">
          <Node pos="l" depth="2" NCoef="0" IVar="9" Cut="6.6666585206985474e-01" cType="1" res="6.0353283770382404e-03" rms="4.0695694088935852e-01" purity="3.7433773279190063e-01" nType="0">
            <Node pos="l" depth="3" NCoef="0" IVar="-1" Cut="0.0000000000000000e+00" cType="1" res="6.6594602540135384e-03" rms="4.1283428668975830e-01" purity="3.9322274923324585e-01" nType="-99"/>
            <Node pos="r" depth="3" NCoef="0" IVar="-1" Cut="0.0000000000000000e+00" cType="1" res="-3.2288297079503536e-03" rms="3.9360359311103821e-01" purity="3.3314403891563416e-01" nType="-99"/>
          </Node>
          <Node pos="r" depth="2" NCoef="0" IVar="8" Cut="9.3323951959609985e-01" cType="1" res="-5.6465375237166882e-03" rms="3.7880435585975647e-01" purity="7.1639698743820190e-01" nType="0">
            <Node pos="l" depth="3" NCoef="0" IVar="-1" Cut="0.0000000000000000e+00" cType="1" res="2.0918264635838568e-04" rms="3.7345290184020996e-01" purity="7.3905622959136963e-01" nType="-99"/>
            <Node pos="r" depth="3" NCoef="0" IVar="-1" Cut="0.0000000000000000e+00" cType="1" res="-2.1554639562964439e-02" rms="4.0270036458969116e-01" purity="6.0554653406143188e-01" nType="-99"/>
          </Node>
        </Node>
      </Node>
    </BinaryTree>
    <BinaryTree type="DecisionTree" boostWeight="1.0000000000000000e+00" itree="74">
      <Node pos="s" depth="0" NCoef="0" IVar="9" Cut="9.3332815170288086e-01" cType="1" res="-2.6620577045832761e-05" rms="3.9240214228630066e-01" purity="5.0004464387893677e-01" nType="0">
        <Node pos="l" depth="1" NCoef="0" IVar="0" Cut="4.5206744384765625e+02" cType="1" res="4.4521586969494820e-03" rms="3.9478805661201477e-01" purity="5.2233213186264038e-01" nType="0">
          <Node pos="l" depth="2" NCoef="0" IVar="0" Cut="3.2172387695312500e+02" cType="1" res="1.0272967629134655e-02" rms="4.0590843558311462e-01" purity="3.8778683543205261e-01" nType="0">
            <Node pos="l" depth="3" NCoef="0" IVar="-1" Cut="0.0000000000000000e+00" cType="1" res="-1.8362283706665039e-02" rms="3.7412652373313904e-01" purity="2.5058811902999878e-01" nType="-99"/>
            <Node pos="r" depth="3" NCoef="0" IVar="-1" Cut="0.0000000000000000e+00" cType="1" res="1.1583172716200352e-02" rms="4.1263982653617859e-01" purity="4.2061221599578857e-01" nType="-99"/>
          </Node>
          <Node pos="r" depth="2" NCoef="0" IVar="5" Cut="1.5527272033691406e+02" cType="1" res="-4.3902331963181496e-03" rms="3.7709650397300720e-01" purity="7.2671985626220703e-01" nType="0">
            <Node pos="l" depth="3" NCoef="0" IVar="-1" Cut="0.0000000000000000e+00" cType="1" res="-5.1437257789075375e-03" rms="3.9314278960227966e-01" purity="6.9375419616699219e-01" nType="-99"/>
            <Node pos="r" depth="3" NCoef="0" IVar="-1" Cut="0.0000000000000000e+00" cType="1" res="1.9843036308884621e-02" rms="2.6362749934196472e-01" purity="9.1935694217681885e-01" nType="-99"/>
          </Node>
        </Node>
        <Node pos="r" depth="1" NCoef="0" IVar="8" Cut="1.3335964083671570e-01" cType="1" res="-1.4616272412240505e-02" rms="3.8416549563407898e-01" purity="4.2744299769401550e-01" nType="0">
          <Node pos="l" depth="2" NCoef="0" IVar="0" Cut="5.0975326538085938e+02" cType="1" res="-2.1865987218916416e-03" rms="3.8788431882858276e-01" purity="4.6433600783348083e-01" nType="0">
            <Node pos="l" depth="3" NCoef="0" IVar="-1" Cut="0.0000000000000000e+00" cType="1" res="-7.7424347400665283e-03" rms="3.9432600140571594e-01" purity="3.5680401325225830e-01" nType="-99"/>
            <Node pos="r" depth="3" NCoef="0" IVar="-1" Cut="0.0000000000000000e+00" cType="1" res="1.8019601702690125e-02" rms="3.6791911721229553e-01" purity="7.6304703950881958e-01" nType="-99"/>
          </Node>
          <Node pos="r" depth="2" NCoef="0" IVar="2" Cut="4.4574127197265625e+02" cType="1" res="-2.6896294206380844e-02" rms="3.8005676865577698e-01" purity="3.9099416136741638e-01" nType="0">
            <Node pos="l" depth="3" NCoef="0" IVar="-1" Cut="0.0000000000000000e+00" cType="1" res="-1.3058281503617764e-02" rms="3.7914025783538818e-01" purity="3.9228186011314392e-01" nType="-99"/>
            <Node pos="r" depth="3" NCoef="0" IVar="-1" Cut="0.0000000000000000e+00" cType="1" res="-3.3523328602313995e-02" rms="3.8210698962211609e-01" purity="3.8659271597862244e-01" nType="-99"/>
          </Node>
        </Node>
      </Node>
    </BinaryTree>
    <BinaryTree type="DecisionTree" boostWeight="1.0000000000000000e+00" itree="75">
      <Node pos="s" depth="0" NCoef="0" IVar="8" Cut="-1.1999987363815308e+00" cType="1" res="2.5326062459498644e-03" rms="3.9205995202064514e-01" purity="5.0380599498748779e-01" nType="0">
        <Node pos="l" depth="1" NCoef="0" IVar="4" Cut="9.2470581054687500e+01" cType="1" res="-1.3091827742755413e-02" rms="3.7521991133689880e-01" purity="3.5796186327934265e-01" nType="0">
          <Node pos="l" depth="2" NCoef="0" IVar="-1" Cut="0.0000000000000000e+00" cType="1" res="1.5729829668998718e-02" rms="3.4575331211090088e-01" purity="1.8666023015975952e-01" nType="-99"/>
          <Node pos="r" depth="2" NCoef="0" IVar="7" Cut="3.9964887499809265e-01" cType="1" res="-2.8687816113233566e-02" rms="3.8845348358154297e-01" purity="4.4526034593582153e-01" nType="0">
            <Node pos="l" depth="3" NCoef="0" IVar="-1" Cut="0.0000000000000000e+00" cType="1" res="-9.5621915534138680e-03" rms="3.9035502076148987e-01" purity="4.7715950012207031e-01" nType="-99"/>
            <Node pos="r" depth="3" NCoef="0" IVar="-1" Cut="0.0000000000000000e+00" cType="1" res="-3.7369940429925919e-02" rms="3.8195079565048218e-01" purity="3.6813154816627502e-01" nType="-99"/>
          </Node>
        </Node>
        <Node pos="r" depth="1" NCoef="0" IVar="1" Cut="1.4296335449218750e+03" cType="1" res="5.2592754364013672e-03" rms="3.9486181735992432e-01" purity="5.2925765514373779e-01" nType="0">
          <Node pos="l" depth="2" NCoef="0" IVar="0" Cut="4.3120800781250000e+02" cType="1" res="-1.1811226140707731e-03" rms="4.1268661618232727e-01" purity="4.0081411600112915e-01" nType="0">
            <Node pos="l" depth="3" NCoef="0" IVar="-1" Cut="0.0000000000000000e+00" cType="1" res="4.4219112023711205e-03" rms="4.0615406632423401e-01" purity="3.3861929178237915e-01" nType="-99"/>
            <Node pos="r" depth="3" NCoef="0" IVar="-1" Cut="0.0000000000000000e+00" cType="1" res="-1.2630889192223549e-02" rms="4.2802470922470093e-01" purity="5.5814236402511597e-01" nType="-99"/>
          </Node>
          <Node pos="r" depth="2" NCoef="0" IVar="5" Cut="8.5090957641601562e+01" cType="1" res="1.7339859157800674e-02" rms="3.5873648524284363e-01" purity="7.7018588781356812e-01" nType="0">
            <Node pos="l" depth="3" NCoef="0" IVar="-1" Cut="0.0000000000000000e+00" cType="1" res="1.9455451518297195e-02" rms="4.2061084508895874e-01" purity="6.1874717473983765e-01" nType="-99"/>
            <Node pos="r" depth="3" NCoef="0" IVar="-1" Cut="0.0000000000000000e+00" cType="1" res="8.6863804608583450e-03" rms="3.3163312077522278e-01" purity="8.2838982343673706e-01" nType="-99"/>
          </Node>
        </Node>
      </Node>
    </BinaryTree>
    <BinaryTree type="DecisionTree" boostWeight="1.0000000000000000e+00" itree="76">
      <Node pos="s" depth="0" NCoef="0" IVar="6" Cut="4.0452641248703003e-01" cType="1" res="-4.1502579115331173e-03" rms="3.8960623741149902e-01" purity="4.9427041411399841e-01" nType="0">
        <Node pos="l" depth="1" NCoef="0" IVar="9" Cut="-1.7331949472427368e+00" cType="1" res="-8.7208602053578943e-05" rms="3.9135691523551941e-01" purity="5.3241991996765137e-01" nType="0">
          <Node pos="l" depth="2" NCoef="0" IVar="5" Cut="7.0844932556152344e+01" cType="1" res="-2.4569509550929070e-02" rms="3.7613785266876221e-01" purity="3.5474127531051636e-01" nType="0">
            <Node pos="l" depth="3" NCoef="0" IVar="-1" Cut="0.0000000000000000e+00" cType="1" res="-6.7790849134325981e-03" rms="3.5146698355674744e-01" purity="2.2873127460479736e-01" nType="-99"/>
            <Node pos="r" depth="3" NCoef="0" IVar="-1" Cut="0.0000000000000000e+00" cType="1" res="-2.3114195093512535e-02" rms="3.9684364199638367e-01" purity="4.6998500823974609e-01" nType="-99"/>
          </Node>
          <Node pos="r" depth="2" NCoef="0" IVar="6" Cut="-2.0370058715343475e-01" cType="1" res="2.2122790105640888e-03" rms="3.9267766475677490e-01" purity="5.4910826683044434e-01" nType="0">
            <Node pos="l" depth="3" NCoef="0" IVar="-1" Cut="0.0000000000000000e+00" cType="1" res="-2.8281896375119686e-03" rms="3.8864710927009583e-01" purity="4.9125468730926514e-01" nType="-99"/>
            <Node pos="r" depth="3" NCoef="0" IVar="-1" Cut="0.0000000000000000e+00" cType="1" res="8.0791246145963669e-03" rms="3.9890334010124207e-01" purity="6.4307928085327148e-01" nType="-99"/>
          </Node>
        </Node>
        <Node pos="r" depth="1" NCoef="0" IVar="6" Cut="5.1856857538223267e-01" cType="1" res="-1.2392133474349976e-02" rms="3.8589924573898315e-01" purity="4.1688442230224609e-01" nType="0">
          <Node pos="l" depth="2" NCoef="0" IVar="-1" Cut="0.0000000000000000e+00" cType="1" res="-2.9048584401607513e-02" rms="4.0252536535263062e-01" purity="5.4542833566665649e-01" nType="-99"/>
          <Node pos="r" depth="2" NCoef="0" IVar="8" Cut="-9.3349957466125488e-01" cType="1" res="-7.8489119186997414e-03" rms="3.8343718647956848e-01" purity="4.0005850791931152e-01" nType="0">
            <Node pos="l" depth="3" NCoef="0" IVar="-1" Cut="0.0000000000000000e+00" cType="1" res="-2.7097892016172409e-02" rms="3.5499876737594604e-01" purity="2.8009650111198425e-01" nType="-99"/>
            <Node pos="r" depth="3" NCoef="0" IVar="-1" Cut="0.0000000000000000e+00" cType="1" res="-6.2649085884913802e-04" rms="3.8943710923194885e-01" purity="4.2798352241516113e-01" nType="-99"/>
          </Node>
        </Node>
      </Node>
    </BinaryTree>
    <BinaryTree type="DecisionTree" boostWeight="1.0000000000000000e+00" itree="77">
      <Node pos="s" depth="0" NCoef="0" IVar="4" Cut="1.0495019531250000e+02" cType="1" res="-4.4214850640855730e-04" rms="3.9415359497070312e-01" purity="4.9820378422737122e-01" nType="0">
        <Node pos="l" depth="1" NCoef="0" IVar="5" Cut="5.2607250213623047e+01" cType="1" res="1.1531090363860130e-02" rms="3.8923910260200500e-01" purity="2.7479925751686096e-01" nType="0">
          <Node pos="l" depth="2" NCoef="0" IVar="-1" Cut="0.0000000000000000e+00" cType="1" res="-2.2875171154737473e-02" rms="3.2298675179481506e-01" purity="1.5391126275062561e-01" nType="-99"/>
          <Node pos="r" depth="2" NCoef="0" IVar="4" Cut="7.0075225830078125e+01" cType="1" res="1.6672806814312935e-02" rms="3.9674374461174011e-01" purity="2.9049995541572571e-01" nType="0">
            <Node pos="l" depth="3" NCoef="0" IVar="-1" Cut="0.0000000000000000e+00" cType="1" res="-6.1669950373470783e-03" rms="3.3623605966567993e-01" purity="1.6783647239208221e-01" nType="-99"/>
            <Node pos="r" depth="3" NCoef="0" IVar="-1" Cut="0.0000000000000000e+00" cType="1" res="1.4105208218097687e-02" rms="4.0989947319030762e-01" purity="3.2033529877662659e-01" nType="-99"/>
          </Node>
        </Node>
        <Node pos="r" depth="1" NCoef="0" IVar="1" Cut="1.4406042480468750e+03" cType="1" res="-7.0852623321115971e-03" rms="3.9669823646545410e-01" purity="6.2215530872344971e-01" nType="0">
          <Node pos="l" depth="2" NCoef="0" IVar="7" Cut="3.9987355470657349e-01" cType="1" res="-1.8101554363965988e-02" rms="4.2768663167953491e-01" purity="4.9578449130058289e-01" nType="0">
            <Node pos="l" depth="3" NCoef="0" IVar="-1" Cut="0.0000000000000000e+00" cType="1" res="-4.7213938087224960e-03" rms="4.2912909388542175e-01" purity="5.2713239192962646e-01" nType="-99"/>
            <Node pos="r" depth="3" NCoef="0" IVar="-1" Cut="0.0000000000000000e+00" cType="1" res="-1.9708503037691116e-02" rms="4.2450374364852905e-01" purity="4.3875032663345337e-01" nType="-99"/>
          </Node>
          <Node pos="r" depth="2" NCoef="0" IVar="2" Cut="7.1830859375000000e+02" cType="1" res="6.5236389636993408e-03" rms="3.5422566533088684e-01" purity="7.7826672792434692e-01" nType="0">
            <Node pos="l" depth="3" NCoef="0" IVar="-1" Cut="0.0000000000000000e+00" cType="1" res="7.4292821809649467e-03" rms="3.4702169895172119e-01" purity="7.9126924276351929e-01" nType="-99"/>
            <Node pos="r" depth="3" NCoef="0" IVar="-1" Cut="0.0000000000000000e+00" cType="1" res="-1.3717420399188995e-02" rms="4.1888663172721863e-01" purity="6.4699494838714600e-01" nType="-99"/>
          </Node>
        </Node>
      </Node>
    </BinaryTree>
    <BinaryTree type="DecisionTree" boostWeight="1.0000000000000000e+00" itree="78">
      <Node pos="s" depth="0" NCoef="0" IVar="9" Cut="2.2666563987731934e+00" cType="1" res="-6.3557148678228259e-05" rms="3.9100357890129089e-01" purity="5.0204771757125854e-01" nType="0">
        <Node pos="l" depth="1" NCoef="0" IVar="2" Cut="3.4597247314453125e+02" cType="1" res="8.3639426156878471e-04" rms="3.9163410663604736e-01" purity="5.0813245773315430e-01" nType="0">
          <Node pos="l" depth="2" NCoef="0" IVar="0" Cut="4.3824322509765625e+02" cType="1" res="5.3542233072221279e-03" rms="4.0220788121223450e-01" purity="4.6774715185165405e-01" nType="0">
            <Node pos="l" depth="3" NCoef="0" IVar="-1" Cut="0.0000000000000000e+00" cType="1" res="7.9932520166039467e-03" rms="4.0950211882591248e-01" purity="3.6643201112747192e-01" nType="-99"/>
            <Node pos="r" depth="3" NCoef="0" IVar="-1" Cut="0.0000000000000000e+00" cType="1" res="-7.9680830240249634e-03" rms="3.8490897417068481e-01" purity="6.9345468282699585e-01" nType="-99"/>
          </Node>
          <Node pos="r" depth="2" NCoef="0" IVar="6" Cut="7.1621412038803101e-01" cType="1" res="-3.7336037494242191e-03" rms="3.8058495521545410e-01" purity="5.4898405075073242e-01" nType="0">
            <Node pos="l" depth="3" NCoef="0" IVar="-1" Cut="0.0000000000000000e+00" cType="1" res="1.1176242260262370e-03" rms="3.8536950945854187e-01" purity="5.9148240089416504e-01" nType="-99"/>
            <Node pos="r" depth="3" NCoef="0" IVar="-1" Cut="0.0000000000000000e+00" cType="1" res="-1.7519360408186913e-02" rms="3.6003422737121582e-01" purity="3.7935045361518860e-01" nType="-99"/>
          </Node>
        </Node>
        <Node pos="r" depth="1" NCoef="0" IVar="-1" Cut="0.0000000000000000e+00" cType="1" res="-1.9690224900841713e-02" rms="3.6936053633689880e-01" purity="3.0945026874542236e-01" nType="-99"/>
      </Node>
    </BinaryTree>
    <BinaryTree type="DecisionTree" boostWeight="1.0000000000000000e+00" itree="79">
      <Node pos="s" depth="0" NCoef="0" IVar="2" Cut="7.4716033935546875e+02" cType="1" res="2.4061782751232386e-03" rms="3.9171320199966431e-01" purity="5.0095349550247192e-01" nType="0">
        <Node pos="l" depth="1" NCoef="0" IVar="1" Cut="1.3208105468750000e+03" cType="1" res="3.9471406489610672e-03" rms="3.9076954126358032e-01" purity="4.9933370947837830e-01" nType="0">
          <Node pos="l" depth="2" NCoef="0" IVar="2" Cut="3.7592666625976562e+02" cType="1" res="-3.7755351513624191e-03" rms="4.0393236279487610e-01" purity="3.3774352073669434e-01" nType="0">
            <Node pos="l" depth="3" NCoef="0" IVar="-1" Cut="0.0000000000000000e+00" cType="1" res="1.7315564909949899e-03" rms="4.1246992349624634e-01" purity="3.6800476908683777e-01" nType="-99"/>
            <Node pos="r" depth="3" NCoef="0" IVar="-1" Cut="0.0000000000000000e+00" cType="1" res="-2.2609574720263481e-02" rms="3.6345419287681580e-01" purity="2.0731626451015472e-01" nType="-99"/>
          </Node>
          <Node pos="r" depth="2" NCoef="0" IVar="6" Cut="-6.0095494985580444e-01" cType="1" res="1.4780111610889435e-02" rms="3.7124967575073242e-01" purity="7.2600418329238892e-01" nType="0">
            <Node pos="l" depth="3" NCoef="0" IVar="-1" Cut="0.0000000000000000e+00" cType="1" res="-5.5721192620694637e-03" rms="3.8970467448234558e-01" purity="6.2621051073074341e-01" nType="-99"/>
            <Node pos="r" depth="3" NCoef="0" IVar="-1" Cut="0.0000000000000000e+00" cType="1" res="1.5463131479918957e-02" rms="3.6543124914169312e-01" purity="7.5496172904968262e-01" nType="-99"/>
          </Node>
        </Node>
        <Node pos="r" depth="1" NCoef="0" IVar="-1" Cut="0.0000000000000000e+00" cType="1" res="-3.1414587050676346e-02" rms="4.2211550474166870e-01" purity="5.6309390068054199e-01" nType="-99"/>
      </Node>
    </BinaryTree>
    <BinaryTree type="DecisionTree" boostWeight="1.0000000000000000e+00" itree="80">
      <Node pos="s" depth="0" NCoef="0" IVar="9" Cut="-3.9997741580009460e-01" cType="1" res="-3.0382780823856592e-04" rms="3.9189913868904114e-01" purity="4.9778327345848083e-01" nType="0">
        <Node pos="l" depth="1" NCoef="0" IVar="8" Cut="3.9981511235237122e-01" cType="1" res="6.8376213312149048e-03" rms="3.9328724145889282e-01" purity="4.8929658532142639e-01" nType="0">
          <Node pos="l" depth="2" NCoef="0" IVar="6" Cut="9.4935733079910278e-01" cType="1" res="-1.4641825109720230e-03" rms="3.9197087287902832e-01" purity="4.8401954770088196e-01" nType="0">
            <Node pos="l" depth="3" NCoef="0" IVar="-1" Cut="0.0000000000000000e+00" cType="1" res="-4.0301647968590260e-03" rms="3.9263930916786194e-01" purity="5.0435525178909302e-01" nType="-99"/>
            <Node pos="r" depth="3" NCoef="0" IVar="-1" Cut="0.0000000000000000e+00" cType="1" res="2.1545784547924995e-02" rms="3.8601490855216980e-01" purity="3.4954264760017395e-01" nType="-99"/>
          </Node>
          <Node pos="r" depth="2" NCoef="0" IVar="6" Cut="4.3874558806419373e-01" cType="1" res="2.3449230939149857e-02" rms="3.9538511633872986e-01" purity="4.9985572695732117e-01" nType="0">
            <Node pos="l" depth="3" NCoef="0" IVar="-1" Cut="0.0000000000000000e+00" cType="1" res="2.0670911297202110e-02" rms="3.9831453561782837e-01" purity="5.4467058181762695e-01" nType="-99"/>
            <Node pos="r" depth="3" NCoef="0" IVar="-1" Cut="0.0000000000000000e+00" cType="1" res="1.4839994255453348e-03" rms="3.8796263933181763e-01" purity="4.0034943819046021e-01" nType="-99"/>
          </Node>
        </Node>
        <Node pos="r" depth="1" NCoef="0" IVar="8" Cut="6.6660726070404053e-01" cType="1" res="-4.8163789324462414e-03" rms="3.9095222949981689e-01" purity="5.0314593315124512e-01" nType="0">
          <Node pos="l" depth="2" NCoef="0" IVar="9" Cut="6.6668796539306641e-01" cType="1" res="1.0150525486096740e-03" rms="3.9309191703796387e-01" purity="5.3957945108413696e-01" nType="0">
            <Node pos="l" depth="3" NCoef="0" IVar="-1" Cut="0.0000000000000000e+00" cType="1" res="-5.8029950596392155e-03" rms="3.9804705977439880e-01" purity="5.6418913602828979e-01" nType="-99"/>
            <Node pos="r" depth="3" NCoef="0" IVar="-1" Cut="0.0000000000000000e+00" cType="1" res="7.4912323616445065e-03" rms="3.8743105530738831e-01" purity="5.1322269439697266e-01" nType="-99"/>
          </Node>
          <Node pos="r" depth="2" NCoef="0" IVar="6" Cut="6.7417836189270020e-01" cType="1" res="-1.8375944346189499e-02" rms="3.8559028506278992e-01" purity="4.1842859983444214e-01" nType="0">
            <Node pos="l" depth="3" NCoef="0" IVar="-1" Cut="0.0000000000000000e+00" cType="1" res="-1.7825856804847717e-02" rms="3.9723029732704163e-01" purity="4.6881762146949768e-01" nType="-99"/>
            <Node pos="r" depth="3" NCoef="0" IVar="-1" Cut="0.0000000000000000e+00" cType="1" res="2.0386904943734407e-03" rms="3.5890120267868042e-01" purity="3.1219807267189026e-01" nType="-99"/>
          </Node>
        </Node>
      </Node>
    </BinaryTree>
    <BinaryTree type="DecisionTree" boostWeight="1.0000000000000000e+00" itree="81">
      <Node pos="s" depth="0" NCoef="0" IVar="8" Cut="3.9999222755432129e-01" cType="1" res="-2.1052057854831219e-04" rms="3.9081504940986633e-01" purity="4.9930042028427124e-01" nType="0">
        <Node pos="l" depth="1" NCoef="0" IVar="7" Cut="-1.7332614660263062e+00" cType="1" res="5.0065070390701294e-03" rms="3.9238777756690979e-01" purity="5.2332955598831177e-01" nType="0">
          <Node pos="l" depth="2" NCoef="0" IVar="-1" Cut="0.0000000000000000e+00" cType="1" res="-2.0891956984996796e-02" rms="3.2566770911216736e-01" purity="2.0166750252246857e-01" nType="-99"/>
          <Node pos="r" depth="2" NCoef="0" IVar="9" Cut="4.0002393722534180e-01" cType="1" res="7.0276292972266674e-03" rms="3.9623573422431946e-01" purity="5.4415494203567505e-01" nType="0">
            <Node pos="l" depth="3" NCoef="0" IVar="-1" Cut="0.0000000000000000e+00" cType="1" res="8.5399765521287918e-04" rms="3.9707139134407043e-01" purity="5.4043418169021606e-01" nType="-99"/>
            <Node pos="r" depth="3" NCoef="0" IVar="-1" Cut="0.0000000000000000e+00" cType="1" res="1.0911550372838974e-02" rms="3.9455285668373108e-01" purity="5.5073672533035278e-01" nType="-99"/>
          </Node>
        </Node>
        <Node pos="r" depth="1" NCoef="0" IVar="0" Cut="4.1510635375976562e+02" cType="1" res="-9.3383686617016792e-03" rms="3.8787931203842163e-01" purity="4.5725846290588379e-01" nType="0">
          <Node pos="l" depth="2" NCoef="0" IVar="4" Cut="1.1159590148925781e+02" cType="1" res="-2.0302031189203262e-02" rms="3.8075527548789978e-01" purity="2.8625154495239258e-01" nType="0">
            <Node pos="l" depth="3" NCoef="0" IVar="-1" Cut="0.0000000000000000e+00" cType="1" res="-4.0860092267394066e-03" rms="3.4783652424812317e-01" purity="1.7097118496894836e-01" nType="-99"/>
            <Node pos="r" depth="3" NCoef="0" IVar="-1" Cut="0.0000000000000000e+00" cType="1" res="-2.0233048126101494e-02" rms="4.1258427500724792e-01" purity="4.1010260581970215e-01" nType="-99"/>
          </Node>
          <Node pos="r" depth="2" NCoef="0" IVar="9" Cut="1.3346025347709656e-01" cType="1" res="2.1737201604992151e-03" rms="3.9489403367042542e-01" purity="6.3681960105895996e-01" nType="0">
            <Node pos="l" depth="3" NCoef="0" IVar="-1" Cut="0.0000000000000000e+00" cType="1" res="1.1836565099656582e-02" rms="3.9262014627456665e-01" purity="6.7568272352218628e-01" nType="-99"/>
            <Node pos="r" depth="3" NCoef="0" IVar="-1" Cut="0.0000000000000000e+00" cType="1" res="-1.0157287120819092e-02" rms="3.9662313461303711e-01" purity="5.9365653991699219e-01" nType="-99"/>
          </Node>
        </Node>
      </Node>
    </BinaryTree>
    <BinaryTree type="DecisionTree" boostWeight="1.0000000000000000e+00" itree="82">
      <Node pos="s" depth="0" NCoef="0" IVar="7" Cut="1.9997532367706299e+00" cType="1" res="7.7918602619320154e-04" rms="3.9128831028938293e-01" purity="5.0092232227325439e-01" nType="0">
        <Node pos="l" depth="1" NCoef="0" IVar="2" Cut="7.5996600341796875e+02" cType="1" res="1.9915828015655279e-03" rms="3.9442563056945801e-01" purity="5.1298809051513672e-01" nType="0">
          <Node pos="l" depth="2" NCoef="0" IVar="1" Cut="1.5917478027343750e+03" cType="1" res="2.9699157457798719e-03" rms="3.9429676532745361e-01" purity="5.1033258438110352e-01" nType="0">
            <Node pos="l" depth="3" NCoef="0" IVar="-1" Cut="0.0000000000000000e+00" cType="1" res="2.2884961799718440e-04" rms="4.0678736567497253e-01" purity="4.3674162030220032e-01" nType="-99"/>
            <Node pos="r" depth="3" NCoef="0" IVar="-1" Cut="0.0000000000000000e+00" cType="1" res="1.1064659804105759e-02" rms="3.3845800161361694e-01" purity="8.1023186445236206e-01" nType="-99"/>
          </Node>
          <Node pos="r" depth="2" NCoef="0" IVar="-1" Cut="0.0000000000000000e+00" cType="1" res="-1.9404467195272446e-02" rms="3.9748987555503845e-01" purity="6.1224800348281860e-01" nType="-99"/>
        </Node>
        <Node pos="r" depth="1" NCoef="0" IVar="-1" Cut="0.0000000000000000e+00" cType="1" res="-3.1174639239907265e-02" rms="2.8479182720184326e-01" purity="1.5463486313819885e-01" nType="-99"/>
      </Node>
    </BinaryTree>
    <BinaryTree type="DecisionTree" boostWeight="1.0000000000000000e+00" itree="83">
      <Node pos="s" depth="0" NCoef="0" IVar="7" Cut="4.0003180503845215e-01" cType="1" res="-5.1726505625993013e-04" rms="3.9150369167327881e-01" purity="4.9931892752647400e-01" nType="0">
        <Node pos="l" depth="1" NCoef="0" IVar="9" Cut="-1.9999896287918091e+00" cType="1" res="3.1686630100011826e-03" rms="3.9274141192436218e-01" purity="5.2812278270721436e-01" nType="0">
          <Node pos="l" depth="2" NCoef="0" IVar="-1" Cut="0.0000000000000000e+00" cType="1" res="2.1649479866027832e-02" rms="3.9960122108459473e-01" purity="3.9483824372291565e-01" nType="-99"/>
          <Node pos="r" depth="2" NCoef="0" IVar="9" Cut="5.7183504104614258e-02" cType="1" res="1.2890889775007963e-03" rms="3.9223194122314453e-01" purity="5.3645795583724976e-01" nType="0">
            <Node pos="l" depth="3" NCoef="0" IVar="-1" Cut="0.0000000000000000e+00" cType="1" res="-3.3805659040808678e-03" rms="3.8894364237785339e-01" purity="5.3381985425949097e-01" nType="-99"/>
            <Node pos="r" depth="3" NCoef="0" IVar="-1" Cut="0.0000000000000000e+00" cType="1" res="5.3424569778144360e-03" rms="3.9566531777381897e-01" purity="5.3933387994766235e-01" nType="-99"/>
          </Node>
        </Node>
        <Node pos="r" depth="1" NCoef="0" IVar="3" Cut="1.3588713073730469e+02" cType="1" res="-7.4303112924098969e-03" rms="3.8907751441001892e-01" purity="4.4529670476913452e-01" nType="0">
          <Node pos="l" depth="2" NCoef="0" IVar="8" Cut="1.3315233588218689e-01" cType="1" res="1.7716139554977417e-02" rms="3.6702641844749451e-01" purity="2.1791739761829376e-01" nType="0">
            <Node pos="l" depth="3" NCoef="0" IVar="-1" Cut="0.0000000000000000e+00" cType="1" res="3.4004826098680496e-02" rms="3.9381226897239685e-01" purity="2.5600174069404602e-01" nType="-99"/>
            <Node pos="r" depth="3" NCoef="0" IVar="-1" Cut="0.0000000000000000e+00" cType="1" res="-7.0571252144873142e-03" rms="3.3774742484092712e-01" purity="1.8200910091400146e-01" nType="-99"/>
          </Node>
          <Node pos="r" depth="2" NCoef="0" IVar="6" Cut="-1.0840511322021484e-01" cType="1" res="-1.4567723497748375e-02" rms="3.9482051134109497e-01" purity="5.0983464717864990e-01" nType="0">
            <Node pos="l" depth="3" NCoef="0" IVar="-1" Cut="0.0000000000000000e+00" cType="1" res="-1.9541807472705841e-02" rms="3.9224147796630859e-01" purity="4.7886008024215698e-01" nType="-99"/>
            <Node pos="r" depth="3" NCoef="0" IVar="-1" Cut="0.0000000000000000e+00" cType="1" res="-1.9452871056273580e-03" rms="3.9619287848472595e-01" purity="5.3131633996963501e-01" nType="-99"/>
          </Node>
        </Node>
      </Node>
    </BinaryTree>
    <BinaryTree type="DecisionTree" boostWeight="1.0000000000000000e+00" itree="84">
      <Node pos="s" depth="0" NCoef="0" IVar="8" Cut="-2.0000112056732178e+00" cType="1" res="-6.6356913885101676e-04" rms="3.9255261421203613e-01" purity="4.9845960736274719e-01" nType="0">
        <Node pos="l" depth="1" NCoef="0" IVar="-1" Cut="0.0000000000000000e+00" cType="1" res="-2.4035001173615456e-02" rms="3.3398133516311646e-01" purity="2.0952698588371277e-01" nType="-99"/>
        <Node pos="r" depth="1" NCoef="0" IVar="4" Cut="1.4132994079589844e+02" cType="1" res="6.0739350738003850e-04" rms="3.9485436677932739e-01" purity="5.1102858781814575e-01" nType="0">
          <Node pos="l" depth="2" NCoef="0" IVar="8" Cut="1.4285035133361816e+00" cType="1" res="5.5589326657354832e-03" rms="4.0606024861335754e-01" purity="3.6994355916976929e-01" nType="0">
            <Node pos="l" depth="3" NCoef="0" IVar="-1" Cut="0.0000000000000000e+00" cType="1" res="1.0660856496542692e-03" rms="4.1138190031051636e-01" purity="3.8566380739212036e-01" nType="-99"/>
            <Node pos="r" depth="3" NCoef="0" IVar="-1" Cut="0.0000000000000000e+00" cType="1" res="2.0680751651525497e-02" rms="3.7241077423095703e-01" purity="2.7735728025436401e-01" nType="-99"/>
          </Node>
          <Node pos="r" depth="2" NCoef="0" IVar="8" Cut="9.7138804197311401e-01" cType="1" res="-6.4647356048226357e-03" rms="3.7816175818443298e-01" purity="7.1253591775894165e-01" nType="0">
            <Node pos="l" depth="3" NCoef="0" IVar="-1" Cut="0.0000000000000000e+00" cType="1" res="-1.3704083394259214e-03" rms="3.7373653054237366e-01" purity="7.3711144924163818e-01" nType="-99"/>
            <Node pos="r" depth="3" NCoef="0" IVar="-1" Cut="0.0000000000000000e+00" cType="1" res="-1.7934257164597511e-02" rms="3.9874908328056335e-01" purity="5.8985137939453125e-01" nType="-99"/>
          </Node>
        </Node>
      </Node>
    </BinaryTree>
    <BinaryTree type="DecisionTree" boostWeight="1.0000000000000000e+00" itree="85">
      <Node pos="s" depth="0" NCoef="0" IVar="9" Cut="-1.3333073258399963e-01" cType="1" res="-1.8818770768120885e-03" rms="3.9155095815658569e-01" purity="5.0030303001403809e-01" nType="0">
        <Node pos="l" depth="1" NCoef="0" IVar="8" Cut="-1.3338361680507660e-01" cType="1" res="-9.2486515641212463e-03" rms="3.9113923907279968e-01" purity="4.8937574028968811e-01" nType="0">
          <Node pos="l" depth="2" NCoef="0" IVar="7" Cut="1.3268560171127319e-01" cType="1" res="-1.9223241135478020e-02" rms="3.8899388909339905e-01" purity="4.5275753736495972e-01" nType="0">
            <Node pos="l" depth="3" NCoef="0" IVar="-1" Cut="0.0000000000000000e+00" cType="1" res="-1.8665486946702003e-02" rms="3.8348311185836792e-01" purity="4.4465085864067078e-01" nType="-99"/>
            <Node pos="r" depth="3" NCoef="0" IVar="-1" Cut="0.0000000000000000e+00" cType="1" res="-2.0875111222267151e-03" rms="3.9812296628952026e-01" purity="4.6720001101493835e-01" nType="-99"/>
          </Node>
          <Node pos="r" depth="2" NCoef="0" IVar="8" Cut="1.5427815914154053e+00" cType="1" res="7.1710096563037951e-06" rms="3.9289304614067078e-01" purity="5.2335518598556519e-01" nType="0">
            <Node pos="l" depth="3" NCoef="0" IVar="-1" Cut="0.0000000000000000e+00" cType="1" res="3.2935249619185925e-03" rms="3.9685672521591187e-01" purity="5.6187087297439575e-01" nType="-99"/>
            <Node pos="r" depth="3" NCoef="0" IVar="-1" Cut="0.0000000000000000e+00" cType="1" res="-1.9087014719843864e-02" rms="3.6903122067451477e-01" purity="3.1147098541259766e-01" nType="-99"/>
          </Node>
        </Node>
        <Node pos="r" depth="1" NCoef="0" IVar="8" Cut="-1.2000001668930054e+00" cType="1" res="4.3173995800316334e-03" rms="3.9178976416587830e-01" purity="5.0949859619140625e-01" nType="0">
          <Node pos="l" depth="2" NCoef="0" IVar="8" Cut="-1.5047711133956909e+00" cType="1" res="2.4092512205243111e-02" rms="3.9501172304153442e-01" purity="4.1208690404891968e-01" nType="0">
            <Node pos="l" depth="3" NCoef="0" IVar="-1" Cut="0.0000000000000000e+00" cType="1" res="7.9005341976881027e-03" rms="3.8522240519523621e-01" purity="3.5143968462944031e-01" nType="-99"/>
            <Node pos="r" depth="3" NCoef="0" IVar="-1" Cut="0.0000000000000000e+00" cType="1" res="2.9984371736645699e-02" rms="4.1154989600181580e-01" purity="5.2452868223190308e-01" nType="-99"/>
          </Node>
          <Node pos="r" depth="2" NCoef="0" IVar="7" Cut="-1.4664088487625122e+00" cType="1" res="1.1933952337130904e-03" rms="3.9118692278862000e-01" purity="5.2488732337951660e-01" nType="0">
            <Node pos="l" depth="3" NCoef="0" IVar="-1" Cut="0.0000000000000000e+00" cType="1" res="2.4176033213734627e-02" rms="3.9464420080184937e-01" purity="3.3338597416877747e-01" nType="-99"/>
            <Node pos="r" depth="3" NCoef="0" IVar="-1" Cut="0.0000000000000000e+00" cType="1" res="-9.6876022871583700e-04" rms="3.9078015089035034e-01" purity="5.4048681259155273e-01" nType="-99"/>
          </Node>
        </Node>
      </Node>
    </BinaryTree>
    <BinaryTree type="DecisionTree" boostWeight="1.0000000000000000e+00" itree="86">
      <Node pos="s" depth="0" NCoef="0" IVar="8" Cut="-6.6667360067367554e-01" cType="1" res="2.5309755001217127e-03" rms="3.9169967174530029e-01" purity="5.0198513269424438e-01" nType="0">
        <Node pos="l" depth="1" NCoef="0" IVar="9" Cut="-1.2000410556793213e+00" cType="1" res="-1.0201431810855865e-02" rms="3.8299697637557983e-01" purity="4.2869552969932556e-01" nType="0">
          <Node pos="l" depth="2" NCoef="0" IVar="8" Cut="-1.3777819871902466e+00" cType="1" res="-3.4245420247316360e-02" rms="3.5899922251701355e-01" purity="2.8075572848320007e-01" nType="0">
            <Node pos="l" depth="3" NCoef="0" IVar="-1" Cut="0.0000000000000000e+00" cType="1" res="-1.3219228945672512e-02" rms="3.3324551582336426e-01" purity="2.0041798055171967e-01" nType="-99"/>
            <Node pos="r" depth="3" NCoef="0" IVar="-1" Cut="0.0000000000000000e+00" cType="1" res="-3.2326463609933853e-02" rms="3.8023748993873596e-01" purity="3.5418692231178284e-01" nType="-99"/>
          </Node>
          <Node pos="r" depth="2" NCoef="0" IVar="6" Cut="-1.1916617155075073e+00" cType="1" res="-4.3508624657988548e-03" rms="3.8838708400726318e-01" purity="4.6469342708587646e-01" nType="0">
            <Node pos="l" depth="3" NCoef="0" IVar="-1" Cut="0.0000000000000000e+00" cType="1" res="1.8774179741740227e-02" rms="3.7158286571502686e-01" purity="2.7400189638137817e-01" nType="-99"/>
            <Node pos="r" depth="3" NCoef="0" IVar="-1" Cut="0.0000000000000000e+00" cType="1" res="-5.6998487561941147e-03" rms="3.9079520106315613e-01" purity="4.9502629041671753e-01" nType="-99"/>
          </Node>
        </Node>
        <Node pos="r" depth="1" NCoef="0" IVar="2" Cut="3.5189874267578125e+02" cType="1" res="7.4540833011269569e-03" rms="3.9490321278572083e-01" purity="5.3032326698303223e-01" nType="0">
          <Node pos="l" depth="2" NCoef="0" IVar="4" Cut="9.1784324645996094e+01" cType="1" res="1.5124692581593990e-02" rms="4.0444433689117432e-01" purity="4.9962094426155090e-01" nType="0">
            <Node pos="l" depth="3" NCoef="0" IVar="-1" Cut="0.0000000000000000e+00" cType="1" res="-5.2770148031413555e-03" rms="3.7636289000511169e-01" purity="2.1599358320236206e-01" nType="-99"/>
            <Node pos="r" depth="3" NCoef="0" IVar="-1" Cut="0.0000000000000000e+00" cType="1" res="1.3653216883540154e-02" rms="4.1338184475898743e-01" purity="5.9725409746170044e-01" nType="-99"/>
          </Node>
          <Node pos="r" depth="2" NCoef="0" IVar="7" Cut="-1.1999529600143433e+00" cType="1" res="-1.0808838997036219e-03" rms="3.8382828235626221e-01" purity="5.6448537111282349e-01" nType="0">
            <Node pos="l" depth="3" NCoef="0" IVar="-1" Cut="0.0000000000000000e+00" cType="1" res="-2.0626310259103775e-02" rms="3.7757208943367004e-01" purity="3.2505810260772705e-01" nType="-99"/>
            <Node pos="r" depth="3" NCoef="0" IVar="-1" Cut="0.0000000000000000e+00" cType="1" res="1.5239644562825561e-03" rms="3.8439491391181946e-01" purity="5.9189397096633911e-01" nType="-99"/>
          </Node>
        </Node>
      </Node>
    </BinaryTree>
    <BinaryTree type="DecisionTree" boostWeight="1.0000000000000000e+00" itree="87">
      <Node pos="s" depth="0" NCoef="0" IVar="5" Cut="8.5090904235839844e+01" cType="1" res="-5.7089776964858174e-04" rms="3.9146801829338074e-01" purity="4.9803668260574341e-01" nType="0">
        <Node pos="l" depth="1" NCoef="0" IVar="5" Cut="7.0051780700683594e+01" cType="1" res="6.0156043618917465e-03" rms="3.9845815300941467e-01" purity="3.4261944890022278e-01" nType="0">
          <Node pos="l" depth="2" NCoef="0" IVar="1" Cut="1.0999040527343750e+03" cType="1" res="-2.2584619000554085e-03" rms="3.8437008857727051e-01" purity="2.8545743227005005e-01" nType="0">
            <Node pos="l" depth="3" NCoef="0" IVar="-1" Cut="0.0000000000000000e+00" cType="1" res="-6.4282212406396866e-03" rms="3.4964337944984436e-01" purity="1.6902071237564087e-01" nType="-99"/>
            <Node pos="r" depth="3" NCoef="0" IVar="-1" Cut="0.0000000000000000e+00" cType="1" res="2.5606506969779730e-03" rms="4.2113405466079712e-01" purity="4.2111569643020630e-01" nType="-99"/>
          </Node>
          <Node pos="r" depth="2" NCoef="0" IVar="1" Cut="1.0691859130859375e+03" cType="1" res="2.1919341757893562e-02" rms="4.2377179861068726e-01" purity="4.5249161124229431e-01" nType="0">
            <Node pos="l" depth="3" NCoef="0" IVar="-1" Cut="0.0000000000000000e+00" cType="1" res="-3.0636251904070377e-03" rms="4.0267875790596008e-01" purity="2.6665973663330078e-01" nType="-99"/>
            <Node pos="r" depth="3" NCoef="0" IVar="-1" Cut="0.0000000000000000e+00" cType="1" res="1.8993273377418518e-02" rms="4.3269968032836914e-01" purity="5.3936553001403809e-01" nType="-99"/>
          </Node>
        </Node>
        <Node pos="r" depth="1" NCoef="0" IVar="0" Cut="5.4808660888671875e+02" cType="1" res="-8.4269493818283081e-03" rms="3.8281553983688354e-01" purity="6.8341064453125000e-01" nType="0">
          <Node pos="l" depth="2" NCoef="0" IVar="2" Cut="5.4411102294921875e+02" cType="1" res="-1.3717282563447952e-02" rms="4.0834805369377136e-01" purity="6.0916143655776978e-01" nType="0">
            <Node pos="l" depth="3" NCoef="0" IVar="-1" Cut="0.0000000000000000e+00" cType="1" res="-5.8934823609888554e-03" rms="4.0839779376983643e-01" purity="6.1633849143981934e-01" nType="-99"/>
            <Node pos="r" depth="3" NCoef="0" IVar="-1" Cut="0.0000000000000000e+00" cType="1" res="-3.0335489660501480e-02" rms="4.0556624531745911e-01" purity="5.3202831745147705e-01" nType="-99"/>
          </Node>
          <Node pos="r" depth="2" NCoef="0" IVar="5" Cut="1.1851177215576172e+02" cType="1" res="5.1968237385153770e-03" rms="3.0703353881835938e-01" purity="8.7461870908737183e-01" nType="0">
            <Node pos="l" depth="3" NCoef="0" IVar="-1" Cut="0.0000000000000000e+00" cType="1" res="-5.1928823813796043e-03" rms="3.5591927170753479e-01" purity="8.1686276197433472e-01" nType="-99"/>
            <Node pos="r" depth="3" NCoef="0" IVar="-1" Cut="0.0000000000000000e+00" cType="1" res="1.6890877857804298e-02" rms="2.6647943258285522e-01" purity="9.1577041149139404e-01" nType="-99"/>
          </Node>
        </Node>
      </Node>
    </BinaryTree>
    <BinaryTree type="DecisionTree" boostWeight="1.0000000000000000e+00" itree="88">
      <Node pos="s" depth="0" NCoef="0" IVar="0" Cut="4.2781579589843750e+02" cType="1" res="3.0084922909736633e-03" rms="3.9145982265472412e-01" purity="5.0521534681320190e-01" nType="0">
        <Node pos="l" depth="1" NCoef="0" IVar="0" Cut="3.9129470825195312e+02" cType="1" res="1.0170046240091324e-02" rms="3.9827734231948853e-01" purity="3.5678109526634216e-01" nType="0">
          <Node pos="l" depth="2" NCoef="0" IVar="2" Cut="3.3078372192382812e+02" cType="1" res="3.4847578499466181e-03" rms="3.9417099952697754e-01" purity="3.2704460620880127e-01" nType="0">
            <Node pos="l" depth="3" NCoef="0" IVar="-1" Cut="0.0000000000000000e+00" cType="1" res="8.5362195968627930e-03" rms="4.0548828244209290e-01" purity="3.3443331718444824e-01" nType="-99"/>
            <Node pos="r" depth="3" NCoef="0" IVar="-1" Cut="0.0000000000000000e+00" cType="1" res="-6.9000562652945518e-03" rms="3.7780007719993591e-01" purity="3.1700119376182556e-01" nType="-99"/>
          </Node>
          <Node pos="r" depth="2" NCoef="0" IVar="7" Cut="4.0061432123184204e-01" cType="1" res="3.4278940409421921e-02" rms="4.1184633970260620e-01" purity="4.6401849389076233e-01" nType="0">
            <Node pos="l" depth="3" NCoef="0" IVar="-1" Cut="0.0000000000000000e+00" cType="1" res="2.8832340613007545e-02" rms="4.1804879903793335e-01" purity="5.0144445896148682e-01" nType="-99"/>
            <Node pos="r" depth="3" NCoef="0" IVar="-1" Cut="0.0000000000000000e+00" cType="1" res="2.5974302552640438e-03" rms="3.9805710315704346e-01" purity="3.9278253912925720e-01" nType="-99"/>
          </Node>
        </Node>
        <Node pos="r" depth="1" NCoef="0" IVar="9" Cut="1.7333552837371826e+00" cType="1" res="-5.6673693470656872e-03" rms="3.8285887241363525e-01" purity="6.8503600358963013e-01" nType="0">
          <Node pos="l" depth="2" NCoef="0" IVar="9" Cut="-8.5693591833114624e-01" cType="1" res="-3.0455074738711119e-03" rms="3.8024827837944031e-01" purity="6.9679218530654907e-01" nType="0">
            <Node pos="l" depth="3" NCoef="0" IVar="-1" Cut="0.0000000000000000e+00" cType="1" res="-1.0882396250963211e-02" rms="3.9047580957412720e-01" purity="6.2812048196792603e-01" nType="-99"/>
            <Node pos="r" depth="3" NCoef="0" IVar="-1" Cut="0.0000000000000000e+00" cType="1" res="1.1740844929590821e-03" rms="3.7661877274513245e-01" purity="7.1995812654495239e-01" nType="-99"/>
          </Node>
          <Node pos="r" depth="2" NCoef="0" IVar="-1" Cut="0.0000000000000000e+00" cType="1" res="-2.4989163503050804e-02" rms="4.1494336724281311e-01" purity="5.2601069211959839e-01" nType="-99"/>
        </Node>
      </Node>
    </BinaryTree>
    <BinaryTree type="DecisionTree" boostWeight="1.0000000000000000e+00" itree="89">
      <Node pos="s" depth="0" NCoef="0" IVar="2" Cut="3.5189852905273438e+02" cType="1" res="1.0502408258616924e-03" rms="3.9280253648757935e-01" purity="5.0076168775558472e-01" nType="0">
        <Node pos="l" depth="1" NCoef="0" IVar="1" Cut="8.9523071289062500e+02" cType="1" res="8.0402707681059837e-03" rms="4.0013244748115540e-01" purity="4.7236779332160950e-01" nType="0">
          <Node pos="l" depth="2" NCoef="0" IVar="5" Cut="5.9794277191162109e+01" cType="1" res="-1.4782325364649296e-02" rms="3.1452712416648865e-01" purity="1.2034554779529572e-01" nType="0">
            <Node pos="l" depth="3" NCoef="0" IVar="-1" Cut="0.0000000000000000e+00" cType="1" res="1.0427949950098991e-02" rms="3.1776669621467590e-01" purity="1.2335057556629181e-01" nType="-99"/>
            <Node pos="r" depth="3" NCoef="0" IVar="-1" Cut="0.0000000000000000e+00" cType="1" res="-3.4515585750341415e-02" rms="3.0874654650688171e-01" purity="1.1707659065723419e-01" nType="-99"/>
          </Node>
          <Node pos="r" depth="2" NCoef="0" IVar="2" Cut="2.4339993286132812e+02" cType="1" res="1.1255634948611259e-02" rms="4.1065973043441772e-01" purity="5.2196252346038818e-01" nType="0">
            <Node pos="l" depth="3" NCoef="0" IVar="-1" Cut="0.0000000000000000e+00" cType="1" res="1.5189781785011292e-02" rms="4.3411028385162354e-01" purity="5.0621819496154785e-01" nType="-99"/>
            <Node pos="r" depth="3" NCoef="0" IVar="-1" Cut="0.0000000000000000e+00" cType="1" res="4.0040551684796810e-03" rms="4.0306198596954346e-01" purity="5.2679777145385742e-01" nType="-99"/>
          </Node>
        </Node>
        <Node pos="r" depth="1" NCoef="0" IVar="4" Cut="2.7223577880859375e+02" cType="1" res="-6.9812447763979435e-03" rms="3.8405087590217590e-01" purity="5.3338605165481567e-01" nType="0">
          <Node pos="l" depth="2" NCoef="0" IVar="1" Cut="1.7651823730468750e+03" cType="1" res="-4.9019353464245796e-03" rms="3.8513818383216858e-01" purity="5.1819139719009399e-01" nType="0">
            <Node pos="l" depth="3" NCoef="0" IVar="-1" Cut="0.0000000000000000e+00" cType="1" res="-6.5184230916202068e-03" rms="3.9137309789657593e-01" purity="4.4813096523284912e-01" nType="-99"/>
            <Node pos="r" depth="3" NCoef="0" IVar="-1" Cut="0.0000000000000000e+00" cType="1" res="1.0984157212078571e-02" rms="3.6026087403297424e-01" purity="7.7931040525436401e-01" nType="-99"/>
          </Node>
          <Node pos="r" depth="2" NCoef="0" IVar="-1" Cut="0.0000000000000000e+00" cType="1" res="-3.1623236835002899e-02" rms="3.6575806140899658e-01" purity="7.6338922977447510e-01" nType="-99"/>
        </Node>
      </Node>
    </BinaryTree>
    <BinaryTree type="DecisionTree" boostWeight="1.0000000000000000e+00" itree="90">
      <Node pos="s" depth="0" NCoef="0" IVar="9" Cut="1.4666652679443359e+00" cType="1" res="4.3061806354671717e-04" rms="3.9166206121444702e-01" purity="5.0286012887954712e-01" nType="0">
        <Node pos="l" depth="1" NCoef="0" IVar="7" Cut="1.7332185506820679e+00" cType="1" res="3.3170969691127539e-03" rms="3.9241394400596619e-01" purity="5.2072650194168091e-01" nType="0">
          <Node pos="l" depth="2" NCoef="0" IVar="6" Cut="-9.0098547935485840e-01" cType="1" res="2.0053472835570574e-03" rms="3.9411559700965881e-01" purity="5.3660190105438232e-01" nType="0">
            <Node pos="l" depth="3" NCoef="0" IVar="-1" Cut="0.0000000000000000e+00" cType="1" res="-6.7886663600802422e-03" rms="3.7552857398986816e-01" purity="3.5043409466743469e-01" nType="-99"/>
            <Node pos="r" depth="3" NCoef="0" IVar="-1" Cut="0.0000000000000000e+00" cType="1" res="2.8515954036265612e-03" rms="3.9776048064231873e-01" purity="5.7463979721069336e-01" nType="-99"/>
          </Node>
          <Node pos="r" depth="2" NCoef="0" IVar="-1" Cut="0.0000000000000000e+00" cType="1" res="2.1940682083368301e-02" rms="3.6043375730514526e-01" purity="2.4180468916893005e-01" nType="-99"/>
        </Node>
        <Node pos="r" depth="1" NCoef="0" IVar="6" Cut="-6.1287790536880493e-02" cType="1" res="-2.0647963508963585e-02" rms="3.8547238707542419e-01" purity="3.7239041924476624e-01" nType="0">
          <Node pos="l" depth="2" NCoef="0" IVar="-1" Cut="0.0000000000000000e+00" cType="1" res="-3.5843744874000549e-02" rms="3.7737259268760681e-01" purity="3.3637616038322449e-01" nType="-99"/>
          <Node pos="r" depth="2" NCoef="0" IVar="6" Cut="7.5552701950073242e-01" cType="1" res="2.3449182044714689e-03" rms="3.8917633891105652e-01" purity="3.9675101637840271e-01" nType="0">
            <Node pos="l" depth="3" NCoef="0" IVar="-1" Cut="0.0000000000000000e+00" cType="1" res="1.6108287498354912e-02" rms="4.2570888996124268e-01" purity="5.3587114810943604e-01" nType="-99"/>
            <Node pos="r" depth="3" NCoef="0" IVar="-1" Cut="0.0000000000000000e+00" cType="1" res="-1.9285231828689575e-02" rms="3.4320223331451416e-01" purity="2.4599091708660126e-01" nType="-99"/>
          </Node>
        </Node>
      </Node>
    </BinaryTree>
    <BinaryTree type="DecisionTree" boostWeight="1.0000000000000000e+00" itree="91">
      <Node pos="s" depth="0" NCoef="0" IVar="8" Cut="-1.9999969005584717e+00" cType="1" res="3.8248675409704447e-03" rms="3.9289295673370361e-01" purity="5.0179308652877808e-01" nType="0">
        <Node pos="l" depth="1" NCoef="0" IVar="-1" Cut="0.0000000000000000e+00" cType="1" res="-2.2584738209843636e-02" rms="3.2859706878662109e-01" purity="2.0777906477451324e-01" nType="-99"/>
        <Node pos="r" depth="1" NCoef="0" IVar="8" Cut="2.1142749786376953e+00" cType="1" res="5.1659196615219116e-03" rms="3.9531835913658142e-01" purity="5.1419132947921753e-01" nType="0">
          <Node pos="l" depth="2" NCoef="0" IVar="0" Cut="4.5299465942382812e+02" cType="1" res="5.9872679412364960e-03" rms="3.9709419012069702e-01" purity="5.2439671754837036e-01" nType="0">
            <Node pos="l" depth="3" NCoef="0" IVar="-1" Cut="0.0000000000000000e+00" cType="1" res="6.0940659604966640e-03" rms="4.0812876820564270e-01" purity="3.9427050948143005e-01" nType="-99"/>
            <Node pos="r" depth="3" NCoef="0" IVar="-1" Cut="0.0000000000000000e+00" cType="1" res="-1.7687561921775341e-04" rms="3.7942928075790405e-01" purity="7.2434496879577637e-01" nType="-99"/>
          </Node>
          <Node pos="r" depth="2" NCoef="0" IVar="-1" Cut="0.0000000000000000e+00" cType="1" res="-1.2741026468575001e-02" rms="3.4354743361473083e-01" purity="2.4042907357215881e-01" nType="-99"/>
        </Node>
      </Node>
    </BinaryTree>
    <BinaryTree type="DecisionTree" boostWeight="1.0000000000000000e+00" itree="92">
      <Node pos="s" depth="0" NCoef="0" IVar="7" Cut="-1.9999976158142090e+00" cType="1" res="3.3987136557698250e-03" rms="3.9356723427772522e-01" purity="5.0389546155929565e-01" nType="0">
        <Node pos="l" depth="1" NCoef="0" IVar="-1" Cut="0.0000000000000000e+00" cType="1" res="-2.6577185839414597e-02" rms="3.0917882919311523e-01" purity="1.7323781549930573e-01" nType="-99"/>
        <Node pos="r" depth="1" NCoef="0" IVar="3" Cut="1.4556855773925781e+02" cType="1" res="4.6242736279964447e-03" rms="3.9624786376953125e-01" purity="5.1593852043151855e-01" nType="0">
          <Node pos="l" depth="2" NCoef="0" IVar="3" Cut="1.2304437255859375e+02" cType="1" res="1.4238821342587471e-02" rms="3.8852480053901672e-01" purity="2.6650956273078918e-01" nType="0">
            <Node pos="l" depth="3" NCoef="0" IVar="-1" Cut="0.0000000000000000e+00" cType="1" res="9.9132666946388781e-05" rms="3.5795658826828003e-01" purity="2.0079258084297180e-01" nType="-99"/>
            <Node pos="r" depth="3" NCoef="0" IVar="-1" Cut="0.0000000000000000e+00" cType="1" res="2.0778616890311241e-02" rms="4.2874044179916382e-01" purity="3.6325117945671082e-01" nType="-99"/>
          </Node>
          <Node pos="r" depth="2" NCoef="0" IVar="0" Cut="4.5299490356445312e+02" cType="1" res="1.6027835663408041e-03" rms="3.9859613776206970e-01" purity="5.9432464838027954e-01" nType="0">
            <Node pos="l" depth="3" NCoef="0" IVar="-1" Cut="0.0000000000000000e+00" cType="1" res="5.2382200956344604e-03" rms="4.2214229702949524e-01" purity="4.6252349019050598e-01" nType="-99"/>
            <Node pos="r" depth="3" NCoef="0" IVar="-1" Cut="0.0000000000000000e+00" cType="1" res="-6.0456898063421249e-03" rms="3.6590588092803955e-01" purity="7.6360321044921875e-01" nType="-99"/>
          </Node>
        </Node>
      </Node>
    </BinaryTree>
    <BinaryTree type="DecisionTree" boostWeight="1.0000000000000000e+00" itree="93">
      <Node pos="s" depth="0" NCoef="0" IVar="2" Cut="4.7998324584960938e+02" cType="1" res="1.2145920190960169e-03" rms="3.9222204685211182e-01" purity="5.0288772583007812e-01" nType="0">
        <Node pos="l" depth="1" NCoef="0" IVar="2" Cut="3.3332421875000000e+02" cType="1" res="3.9503765292465687e-03" rms="3.9253339171409607e-01" purity="4.9355673789978027e-01" nType="0">
          <Node pos="l" depth="2" NCoef="0" IVar="1" Cut="1.3438322753906250e+03" cType="1" res="-1.1538397520780563e-03" rms="3.9852365851402283e-01" purity="4.6085447072982788e-01" nType="0">
            <Node pos="l" depth="3" NCoef="0" IVar="-1" Cut="0.0000000000000000e+00" cType="1" res="-3.1080855987966061e-03" rms="4.1244056820869446e-01" purity="3.8301283121109009e-01" nType="-99"/>
            <Node pos="r" depth="3" NCoef="0" IVar="-1" Cut="0.0000000000000000e+00" cType="1" res="1.7876164987683296e-02" rms="3.1634038686752319e-01" purity="8.6247247457504272e-01" nType="-99"/>
          </Node>
          <Node pos="r" depth="2" NCoef="0" IVar="2" Cut="4.0316098022460938e+02" cType="1" res="1.0887161828577518e-02" rms="3.8413405418395996e-01" purity="5.3800010681152344e-01" nType="0">
            <Node pos="l" depth="3" NCoef="0" IVar="-1" Cut="0.0000000000000000e+00" cType="1" res="1.4736469835042953e-02" rms="3.8808518648147583e-01" purity="5.3385508060455322e-01" nType="-99"/>
            <Node pos="r" depth="3" NCoef="0" IVar="-1" Cut="0.0000000000000000e+00" cType="1" res="-2.9383304063230753e-03" rms="3.7808689475059509e-01" purity="5.4373008012771606e-01" nType="-99"/>
          </Node>
        </Node>
        <Node pos="r" depth="1" NCoef="0" IVar="9" Cut="3.9997959136962891e-01" cType="1" res="-1.0272156447172165e-02" rms="3.9070302248001099e-01" purity="5.4206562042236328e-01" nType="0">
          <Node pos="l" depth="2" NCoef="0" IVar="1" Cut="1.5617429199218750e+03" cType="1" res="2.4090884253382683e-03" rms="3.9133152365684509e-01" purity="5.7084345817565918e-01" nType="0">
            <Node pos="l" depth="3" NCoef="0" IVar="-1" Cut="0.0000000000000000e+00" cType="1" res="-1.2223462574183941e-02" rms="3.9824414253234863e-01" purity="2.9159218072891235e-01" nType="-99"/>
            <Node pos="r" depth="3" NCoef="0" IVar="-1" Cut="0.0000000000000000e+00" cType="1" res="8.4034586325287819e-03" rms="3.8743790984153748e-01" purity="7.0769232511520386e-01" nType="-99"/>
          </Node>
          <Node pos="r" depth="2" NCoef="0" IVar="7" Cut="-1.3218553364276886e-01" cType="1" res="-3.3399205654859543e-02" rms="3.8848984241485596e-01" purity="4.8958289623260498e-01" nType="0">
            <Node pos="l" depth="3" NCoef="0" IVar="-1" Cut="0.0000000000000000e+00" cType="1" res="-3.9431184530258179e-02" rms="3.7966039776802063e-01" purity="4.6837440133094788e-01" nType="-99"/>
            <Node pos="r" depth="3" NCoef="0" IVar="-1" Cut="0.0000000000000000e+00" cType="1" res="-9.1896858066320419e-03" rms="3.9290010929107666e-01" purity="5.0317132472991943e-01" nType="-99"/>
          </Node>
        </Node>
      </Node>
    </BinaryTree>
    <BinaryTree type="DecisionTree" boostWeight="1.0000000000000000e+00" itree="94">
      <Node pos="s" depth="0" NCoef="0" IVar="7" Cut="1.3331982493400574e-01" cType="1" res="-3.0083083547651768e-03" rms="3.9058515429496765e-01" purity="5.0030344724655151e-01" nType="0">
        <Node pos="l" depth="1" NCoef="0" IVar="9" Cut="-1.4666302204132080e+00" cType="1" res="3.1390364747494459e-03" rms="3.9302343130111694e-01" purity="5.1625823974609375e-01" nType="0">
          <Node pos="l" depth="2" NCoef="0" IVar="0" Cut="4.2277508544921875e+02" cType="1" res="2.1380690857768059e-02" rms="3.9179056882858276e-01" purity="4.2655691504478455e-01" nType="0">
            <Node pos="l" depth="3" NCoef="0" IVar="-1" Cut="0.0000000000000000e+00" cType="1" res="2.5259958580136299e-02" rms="3.9147427678108215e-01" purity="2.9484871029853821e-01" nType="-99"/>
            <Node pos="r" depth="3" NCoef="0" IVar="-1" Cut="0.0000000000000000e+00" cType="1" res="1.4601070433855057e-03" rms="3.9139056205749512e-01" purity="5.9883284568786621e-01" nType="-99"/>
          </Node>
          <Node pos="r" depth="2" NCoef="0" IVar="6" Cut="-1.4580618143081665e+00" cType="1" res="1.9033950229641050e-04" rms="3.9314287900924683e-01" purity="5.3075820207595825e-01" nType="0">
            <Node pos="l" depth="3" NCoef="0" IVar="-1" Cut="0.0000000000000000e+00" cType="1" res="2.1107444539666176e-02" rms="3.6774238944053650e-01" purity="2.6671856641769409e-01" nType="-99"/>
            <Node pos="r" depth="3" NCoef="0" IVar="-1" Cut="0.0000000000000000e+00" cType="1" res="-1.1135643580928445e-03" rms="3.9477062225341797e-01" purity="5.4906189441680908e-01" nType="-99"/>
          </Node>
        </Node>
        <Node pos="r" depth="1" NCoef="0" IVar="9" Cut="-1.7333097457885742e+00" cType="1" res="-1.0684940963983536e-02" rms="3.8738179206848145e-01" purity="4.8037946224212646e-01" nType="0">
          <Node pos="l" depth="2" NCoef="0" IVar="-1" Cut="0.0000000000000000e+00" cType="1" res="-3.6932162940502167e-02" rms="3.6295932531356812e-01" purity="3.2408937811851501e-01" nType="-99"/>
          <Node pos="r" depth="2" NCoef="0" IVar="1" Cut="1.3539519042968750e+03" cType="1" res="-7.2392611764371395e-03" rms="3.8895565271377563e-01" purity="4.9223616719245911e-01" nType="0">
            <Node pos="l" depth="3" NCoef="0" IVar="-1" Cut="0.0000000000000000e+00" cType="1" res="-9.1880392283201218e-03" rms="4.0250113606452942e-01" purity="3.4079641103744507e-01" nType="-99"/>
            <Node pos="r" depth="3" NCoef="0" IVar="-1" Cut="0.0000000000000000e+00" cType="1" res="3.1149014830589294e-03" rms="3.6716479063034058e-01" purity="7.2179991006851196e-01" nType="-99"/>
          </Node>
        </Node>
      </Node>
    </BinaryTree>
    <BinaryTree type="DecisionTree" boostWeight="1.0000000000000000e+00" itree="95">
      <Node pos="s" depth="0" NCoef="0" IVar="9" Cut="-1.9999927282333374e+00" cType="1" res="-3.6183155607432127e-03" rms="3.8962802290916443e-01" purity="4.9824333190917969e-01" nType="0">
        <Node pos="l" depth="1" NCoef="0" IVar="9" Cut="-2.3428864479064941e+00" cType="1" res="2.5676894932985306e-02" rms="3.9615246653556824e-01" purity="3.8431930541992188e-01" nType="0">
          <Node pos="l" depth="2" NCoef="0" IVar="-1" Cut="0.0000000000000000e+00" cType="1" res="-6.3313143327832222e-03" rms="3.8381057977676392e-01" purity="3.1244197487831116e-01" nType="-99"/>
          <Node pos="r" depth="2" NCoef="0" IVar="-1" Cut="0.0000000000000000e+00" cType="1" res="3.5116378217935562e-02" rms="4.0378978848457336e-01" purity="4.4366553425788879e-01" nType="-99"/>
        </Node>
        <Node pos="r" depth="1" NCoef="0" IVar="0" Cut="6.8344689941406250e+02" cType="1" res="-5.3668478503823280e-03" rms="3.8916540145874023e-01" purity="5.0504308938980103e-01" nType="0">
          <Node pos="l" depth="2" NCoef="0" IVar="0" Cut="5.0085180664062500e+02" cType="1" res="-7.2072381153702736e-03" rms="3.9182859659194946e-01" purity="4.7740295529365540e-01" nType="0">
            <Node pos="l" depth="3" NCoef="0" IVar="-1" Cut="0.0000000000000000e+00" cType="1" res="-7.0021990686655045e-03" rms="3.9809098839759827e-01" purity="3.9766088128089905e-01" nType="-99"/>
            <Node pos="r" depth="3" NCoef="0" IVar="-1" Cut="0.0000000000000000e+00" cType="1" res="4.7011603601276875e-03" rms="3.6973229050636292e-01" purity="7.4468904733657837e-01" nType="-99"/>
          </Node>
          <Node pos="r" depth="2" NCoef="0" IVar="3" Cut="2.2971743774414062e+02" cType="1" res="1.5237757936120033e-02" rms="3.5735246539115906e-01" purity="8.1449562311172485e-01" nType="0">
            <Node pos="l" depth="3" NCoef="0" IVar="-1" Cut="0.0000000000000000e+00" cType="1" res="2.5912307202816010e-02" rms="3.9539372920989990e-01" purity="7.6174759864807129e-01" nType="-99"/>
            <Node pos="r" depth="3" NCoef="0" IVar="-1" Cut="0.0000000000000000e+00" cType="1" res="1.8516896525397897e-03" rms="3.3358860015869141e-01" purity="8.4384971857070923e-01" nType="-99"/>
          </Node>
        </Node>
      </Node>
    </BinaryTree>
    <BinaryTree type="DecisionTree" boostWeight="1.0000000000000000e+00" itree="96">
      <Node pos="s" depth="0" NCoef="0" IVar="9" Cut="-1.7333281040191650e+00" cType="1" res="-7.6639867620542645e-04" rms="3.9076220989227295e-01" purity="4.9849441647529602e-01" nType="0">
        <Node pos="l" depth="1" NCoef="0" IVar="9" Cut="-1.9873005151748657e+00" cType="1" res="-1.7595596611499786e-02" rms="3.7759810686111450e-01" purity="3.4547120332717896e-01" nType="0">
          <Node pos="l" depth="2" NCoef="0" IVar="9" Cut="-2.2969036102294922e+00" cType="1" res="-7.8041022643446922e-03" rms="3.8530007004737854e-01" purity="3.4120559692382812e-01" nType="0">
            <Node pos="l" depth="3" NCoef="0" IVar="-1" Cut="0.0000000000000000e+00" cType="1" res="-1.1610485613346100e-02" rms="3.6881521344184875e-01" purity="3.0318805575370789e-01" nType="-99"/>
            <Node pos="r" depth="3" NCoef="0" IVar="-1" Cut="0.0000000000000000e+00" cType="1" res="8.8532059453427792e-04" rms="4.0067368745803833e-01" purity="3.7867596745491028e-01" nType="-99"/>
          </Node>
          <Node pos="r" depth="2" NCoef="0" IVar="-1" Cut="0.0000000000000000e+00" cType="1" res="-2.4318657815456390e-02" rms="3.6107224225997925e-01" purity="3.5392209887504578e-01" nType="-99"/>
        </Node>
        <Node pos="r" depth="1" NCoef="0" IVar="7" Cut="-9.3333888053894043e-01" cType="1" res="7.3106732452288270e-04" rms="3.9187711477279663e-01" purity="5.1211047172546387e-01" nType="0">
          <Node pos="l" depth="2" NCoef="0" IVar="3" Cut="2.5574108886718750e+02" cType="1" res="1.2652254663407803e-02" rms="3.9351105690002441e-01" purity="3.9135435223579407e-01" nType="0">
            <Node pos="l" depth="3" NCoef="0" IVar="-1" Cut="0.0000000000000000e+00" cType="1" res="1.5606913715600967e-02" rms="3.9256414771080017e-01" purity="3.5908779501914978e-01" nType="-99"/>
            <Node pos="r" depth="3" NCoef="0" IVar="-1" Cut="0.0000000000000000e+00" cType="1" res="-1.7397610470652580e-02" rms="3.9454880356788635e-01" purity="5.1847559213638306e-01" nType="-99"/>
          </Node>
          <Node pos="r" depth="2" NCoef="0" IVar="1" Cut="1.0774588623046875e+03" cType="1" res="-2.1255719475448132e-03" rms="3.9143064618110657e-01" purity="5.4104691743850708e-01" nType="0">
            <Node pos="l" depth="3" NCoef="0" IVar="-1" Cut="0.0000000000000000e+00" cType="1" res="-9.7579173743724823e-03" rms="3.9143824577331543e-01" purity="2.3577226698398590e-01" nType="-99"/>
            <Node pos="r" depth="3" NCoef="0" IVar="-1" Cut="0.0000000000000000e+00" cType="1" res="1.5737537760287523e-03" rms="3.9132586121559143e-01" purity="6.4842629432678223e-01" nType="-99"/>
          </Node>
        </Node>
      </Node>
    </BinaryTree>
    <BinaryTree type="DecisionTree" boostWeight="1.0000000000000000e+00" itree="97">
      <Node pos="s" depth="0" NCoef="0" IVar="7" Cut="1.9998919963836670e+00" cType="1" res="-4.8001331742852926e-04" rms="3.8951858878135681e-01" purity="5.0100338459014893e-01" nType="0">
        <Node pos="l" depth="1" NCoef="0" IVar="6" Cut="-9.1657048463821411e-01" cType="1" res="8.1532524200156331e-04" rms="3.9263144135475159e-01" purity="5.1334679126739502e-01" nType="0">
          <Node pos="l" depth="2" NCoef="0" IVar="0" Cut="3.9113772583007812e+02" cType="1" res="-1.3861841522157192e-02" rms="3.6867904663085938e-01" purity="3.2198476791381836e-01" nType="0">
            <Node pos="l" depth="3" NCoef="0" IVar="-1" Cut="0.0000000000000000e+00" cType="1" res="-2.1833913400769234e-02" rms="3.2892081141471863e-01" purity="1.7000918090343475e-01" nType="-99"/>
            <Node pos="r" depth="3" NCoef="0" IVar="-1" Cut="0.0000000000000000e+00" cType="1" res="-4.3792306678369641e-04" rms="4.0281498432159424e-01" purity="4.6821841597557068e-01" nType="-99"/>
          </Node>
          <Node pos="r" depth="2" NCoef="0" IVar="9" Cut="1.4666606187820435e+00" cType="1" res="3.7222998216748238e-03" rms="3.9713978767395020e-01" purity="5.5124813318252563e-01" nType="0">
            <Node pos="l" depth="3" NCoef="0" IVar="-1" Cut="0.0000000000000000e+00" cType="1" res="7.9877761891111732e-04" rms="3.9619368314743042e-01" purity="5.6547850370407104e-01" nType="-99"/>
            <Node pos="r" depth="3" NCoef="0" IVar="-1" Cut="0.0000000000000000e+00" cType="1" res="1.3102630153298378e-02" rms="4.0322482585906982e-01" purity="4.5255637168884277e-01" nType="-99"/>
          </Node>
        </Node>
        <Node pos="r" depth="1" NCoef="0" IVar="-1" Cut="0.0000000000000000e+00" cType="1" res="-3.5271674394607544e-02" rms="2.8400647640228271e-01" purity="1.4792346954345703e-01" nType="-99"/>
      </Node>
    </BinaryTree>
    <BinaryTree type="DecisionTree" boostWeight="1.0000000000000000e+00" itree="98">
      <Node pos="s" depth="0" NCoef="0" IVar="7" Cut="-2.0000109672546387e+00" cType="1" res="1.7681240569800138e-03" rms="3.9073556661605835e-01" purity="5.0375980138778687e-01" nType="0">
        <Node pos="l" depth="1" NCoef="0" IVar="-1" Cut="0.0000000000000000e+00" cType="1" res="-2.8403144329786301e-02" rms="3.0530238151550293e-01" purity="1.7078903317451477e-01" nType="-99"/>
        <Node pos="r" depth="1" NCoef="0" IVar="0" Cut="4.5299456787109375e+02" cType="1" res="3.0023078434169292e-03" rms="3.9341402053833008e-01" purity="5.1576548814773560e-01" nType="0">
          <Node pos="l" depth="2" NCoef="0" IVar="3" Cut="1.5203672790527344e+02" cType="1" res="6.8022352643311024e-03" rms="4.0262636542320251e-01" purity="3.8519576191902161e-01" nType="0">
            <Node pos="l" depth="3" NCoef="0" IVar="-1" Cut="0.0000000000000000e+00" cType="1" res="-4.9203787930309772e-03" rms="3.6260995268821716e-01" purity="2.0174306631088257e-01" nType="-99"/>
            <Node pos="r" depth="3" NCoef="0" IVar="-1" Cut="0.0000000000000000e+00" cType="1" res="7.5467419810593128e-03" rms="4.2039731144905090e-01" purity="4.7359234094619751e-01" nType="-99"/>
          </Node>
          <Node pos="r" depth="2" NCoef="0" IVar="1" Cut="1.4879887695312500e+03" cType="1" res="-2.8620560187846422e-03" rms="3.7868246436119080e-01" purity="7.1727150678634644e-01" nType="0">
            <Node pos="l" depth="3" NCoef="0" IVar="-1" Cut="0.0000000000000000e+00" cType="1" res="-6.8116183392703533e-03" rms="4.2525726556777954e-01" purity="5.9180694818496704e-01" nType="-99"/>
            <Node pos="r" depth="3" NCoef="0" IVar="-1" Cut="0.0000000000000000e+00" cType="1" res="3.2812058925628662e-03" rms="3.3870959281921387e-01" purity="8.1300139427185059e-01" nType="-99"/>
          </Node>
        </Node>
      </Node>
    </BinaryTree>
    <BinaryTree type="DecisionTree" boostWeight="1.0000000000000000e+00" itree="99">
      <Node pos="s" depth="0" NCoef="0" IVar="6" Cut="-1.1919130086898804e+00" cType="1" res="1.3698195107281208e-03" rms="3.9406913518905640e-01" purity="4.9836888909339905e-01" nType="0">
        <Node pos="l" depth="1" NCoef="0" IVar="6" Cut="-1.3440010547637939e+00" cType="1" res="1.7615295946598053e-02" rms="3.6758887767791748e-01" purity="2.7370366454124451e-01" nType="0">
          <Node pos="l" depth="2" NCoef="0" IVar="7" Cut="-1.3319471478462219e-01" cType="1" res="4.3885358609259129e-03" rms="3.5168299078941345e-01" purity="2.2853192687034607e-01" nType="0">
            <Node pos="l" depth="3" NCoef="0" IVar="-1" Cut="0.0000000000000000e+00" cType="1" res="-7.1951285935938358e-03" rms="3.4019926190376282e-01" purity="2.1088618040084839e-01" nType="-99"/>
            <Node pos="r" depth="3" NCoef="0" IVar="-1" Cut="0.0000000000000000e+00" cType="1" res="1.3756841421127319e-02" rms="3.6231356859207153e-01" purity="2.4614788591861725e-01" nType="-99"/>
          </Node>
          <Node pos="r" depth="2" NCoef="0" IVar="-1" Cut="0.0000000000000000e+00" cType="1" res="3.6244824528694153e-02" rms="4.0898612141609192e-01" purity="4.0888917446136475e-01" nType="-99"/>
        </Node>
        <Node pos="r" depth="1" NCoef="0" IVar="2" Cut="6.3790563964843750e+02" cType="1" res="-6.4275017939507961e-04" rms="3.9718049764633179e-01" purity="5.2620154619216919e-01" nType="0">
          <Node pos="l" depth="2" NCoef="0" IVar="2" Cut="2.6255725097656250e+02" cType="1" res="8.8233314454555511e-04" rms="3.9697739481925964e-01" purity="5.2306246757507324e-01" nType="0">
            <Node pos="l" depth="3" NCoef="0" IVar="-1" Cut="0.0000000000000000e+00" cType="1" res="7.6533430255949497e-03" rms="4.2092740535736084e-01" purity="4.5665639638900757e-01" nType="-99"/>
            <Node pos="r" depth="3" NCoef="0" IVar="-1" Cut="0.0000000000000000e+00" cType="1" res="-1.6480331541970372e-03" rms="3.8978865742683411e-01" purity="5.4206103086471558e-01" nType="-99"/>
          </Node>
          <Node pos="r" depth="2" NCoef="0" IVar="8" Cut="-1.3342560827732086e-01" cType="1" res="-2.4329435080289841e-02" rms="3.9957556128501892e-01" purity="5.7495582103729248e-01" nType="0">
            <Node pos="l" depth="3" NCoef="0" IVar="-1" Cut="0.0000000000000000e+00" cType="1" res="-6.4114527776837349e-03" rms="4.0341055393218994e-01" purity="5.8376145362854004e-01" nType="-99"/>
            <Node pos="r" depth="3" NCoef="0" IVar="-1" Cut="0.0000000000000000e+00" cType="1" res="-2.0587883889675140e-02" rms="3.9581111073493958e-01" purity="5.6720143556594849e-01" nType="-99"/>
          </Node>
        </Node>
      </Node>
    </BinaryTree>
    <BinaryTree type="DecisionTree" boostWeight="1.0000000000000000e+00" itree="100">
      <Node pos="s" depth="0" NCoef="0" IVar="1" Cut="1.7003806152343750e+03" cType="1" res="-1.9060381455346942e-03" rms="3.8885140419006348e-01" purity="5.0037604570388794e-01" nType="0">
        <Node pos="l" depth="1" NCoef="0" IVar="4" Cut="2.0413601684570312e+02" cType="1" res="-4.8270402476191521e-03" rms="3.9594936370849609e-01" purity="4.4549143314361572e-01" nType="0">
          <Node pos="l" depth="2" NCoef="0" IVar="1" Cut="1.0143687744140625e+03" cType="1" res="-2.4934567045420408e-03" rms="3.9722949266433716e-01" purity="4.2518013715744019e-01" nType="0">
            <Node pos="l" depth="3" NCoef="0" IVar="-1" Cut="0.0000000000000000e+00" cType="1" res="-1.4060895889997482e-02" rms="3.4848970174789429e-01" purity="1.6938447952270508e-01" nType="-99"/>
            <Node pos="r" depth="3" NCoef="0" IVar="-1" Cut="0.0000000000000000e+00" cType="1" res="1.7690949607640505e-03" rms="4.1269245743751526e-01" purity="5.1414442062377930e-01" nType="-99"/>
          </Node>
          <Node pos="r" depth="2" NCoef="0" IVar="1" Cut="1.5022734375000000e+03" cType="1" res="-3.3224064856767654e-02" rms="3.7887638807296753e-01" purity="6.9265675544738770e-01" nType="0">
            <Node pos="l" depth="3" NCoef="0" IVar="-1" Cut="0.0000000000000000e+00" cType="1" res="-3.8321487605571747e-02" rms="4.0963464975357056e-01" purity="5.9093254804611206e-01" nType="-99"/>
            <Node pos="r" depth="3" NCoef="0" IVar="-1" Cut="0.0000000000000000e+00" cType="1" res="-4.8799742944538593e-03" rms="3.4704345464706421e-01" purity="7.8306460380554199e-01" nType="-99"/>
          </Node>
        </Node>
        <Node pos="r" depth="1" NCoef="0" IVar="8" Cut="6.6666024923324585e-01" cType="1" res="1.3854159042239189e-02" rms="3.4764286875724792e-01" purity="7.9650455713272095e-01" nType="0">
          <Node pos="l" depth="2" NCoef="0" IVar="0" Cut="6.0430468750000000e+02" cType="1" res="1.9917275756597519e-02" rms="3.4111279249191284e-01" purity="8.1515097618103027e-01" nType="0">
            <Node pos="l" depth="3" NCoef="0" IVar="-1" Cut="0.0000000000000000e+00" cType="1" res="2.4658447131514549e-02" rms="3.6114194989204407e-01" purity="7.7781802415847778e-01" nType="-99"/>
            <Node pos="r" depth="3" NCoef="0" IVar="-1" Cut="0.0000000000000000e+00" cType="1" res="6.8993507884442806e-03" rms="3.2356405258178711e-01" purity="8.4521806240081787e-01" nType="-99"/>
          </Node>
          <Node pos="r" depth="2" NCoef="0" IVar="-1" Cut="0.0000000000000000e+00" cType="1" res="-5.3341099992394447e-03" rms="3.6895704269409180e-01" purity="7.3074972629547119e-01" nType="-99"/>
        </Node>
      </Node>
    </BinaryTree>
    <BinaryTree type="DecisionTree" boostWeight="1.0000000000000000e+00" itree="101">
      <Node pos="s" depth="0" NCoef="0" IVar="5" Cut="8.5090957641601562e+01" cType="1" res="2.5646572466939688e-03" rms="3.9240825176239014e-01" purity="5.0225239992141724e-01" nType="0">
        <Node pos="l" depth="1" NCoef="0" IVar="0" Cut="4.3904486083984375e+02" cType="1" res="8.9870551601052284e-03" rms="4.0009018778800964e-01" purity="3.4658336639404297e-01" nType="0">
          <Node pos="l" depth="2" NCoef="0" IVar="0" Cut="3.5959106445312500e+02" cType="1" res="1.6923848539590836e-02" rms="3.8125747442245483e-01" purity="2.4907408654689789e-01" nType="0">
            <Node pos="l" depth="3" NCoef="0" IVar="-1" Cut="0.0000000000000000e+00" cType="1" res="2.5969657581299543e-03" rms="3.5746726393699646e-01" purity="1.9172579050064087e-01" nType="-99"/>
            <Node pos="r" depth="3" NCoef="0" IVar="-1" Cut="0.0000000000000000e+00" cType="1" res="2.0355015993118286e-02" rms="4.0634819865226746e-01" purity="3.1505107879638672e-01" nType="-99"/>
          </Node>
          <Node pos="r" depth="2" NCoef="0" IVar="8" Cut="-9.3332618474960327e-01" cType="1" res="-5.8498526923358440e-03" rms="4.3271473050117493e-01" purity="5.2886551618576050e-01" nType="0">
            <Node pos="l" depth="3" NCoef="0" IVar="-1" Cut="0.0000000000000000e+00" cType="1" res="1.3445809483528137e-02" rms="4.3349888920783997e-01" purity="4.8516985774040222e-01" nType="-99"/>
            <Node pos="r" depth="3" NCoef="0" IVar="-1" Cut="0.0000000000000000e+00" cType="1" res="-8.0949226394295692e-03" rms="4.3207708001136780e-01" purity="5.4161149263381958e-01" nType="-99"/>
          </Node>
        </Node>
        <Node pos="r" depth="1" NCoef="0" IVar="5" Cut="1.5193078613281250e+02" cType="1" res="-5.1123076118528843e-03" rms="3.8288232684135437e-01" purity="6.8833023309707642e-01" nType="0">
          <Node pos="l" depth="2" NCoef="0" IVar="5" Cut="8.8273834228515625e+01" cType="1" res="-1.0061036795377731e-02" rms="4.0075007081031799e-01" purity="6.4072436094284058e-01" nType="0">
            <Node pos="l" depth="3" NCoef="0" IVar="-1" Cut="0.0000000000000000e+00" cType="1" res="-4.9000892788171768e-02" rms="4.0159451961517334e-01" purity="4.4122043251991272e-01" nType="-99"/>
            <Node pos="r" depth="3" NCoef="0" IVar="-1" Cut="0.0000000000000000e+00" cType="1" res="-2.6390361599624157e-03" rms="4.0011036396026611e-01" purity="6.5701818466186523e-01" nType="-99"/>
          </Node>
          <Node pos="r" depth="2" NCoef="0" IVar="1" Cut="1.8041845703125000e+03" cType="1" res="1.2082261033356190e-02" rms="3.1235957145690918e-01" purity="8.5373860597610474e-01" nType="0">
            <Node pos="l" depth="3" NCoef="0" IVar="-1" Cut="0.0000000000000000e+00" cType="1" res="5.0666620954871178e-03" rms="3.3510279655456543e-01" purity="8.1990462541580200e-01" nType="-99"/>
            <Node pos="r" depth="3" NCoef="0" IVar="-1" Cut="0.0000000000000000e+00" cType="1" res="2.1429480984807014e-02" rms="2.8033950924873352e-01" purity="8.9710706472396851e-01" nType="-99"/>
          </Node>
        </Node>
      </Node>
    </BinaryTree>
    <BinaryTree type="DecisionTree" boostWeight="1.0000000000000000e+00" itree="102">
      <Node pos="s" depth="0" NCoef="0" IVar="8" Cut="9.3318241834640503e-01" cType="1" res="-5.4696376901119947e-04" rms="3.8911470770835876e-01" purity="5.0305914878845215e-01" nType="0">
        <Node pos="l" depth="1" NCoef="0" IVar="1" Cut="1.7003806152343750e+03" cType="1" res="-4.0617287158966064e-03" rms="3.8857203722000122e-01" purity="5.2695697546005249e-01" nType="0">
          <Node pos="l" depth="2" NCoef="0" IVar="0" Cut="3.2936566162109375e+02" cType="1" res="-6.7133121192455292e-03" rms="3.9833649992942810e-01" purity="4.6860149502754211e-01" nType="0">
            <Node pos="l" depth="3" NCoef="0" IVar="-1" Cut="0.0000000000000000e+00" cType="1" res="-1.5302808955311775e-02" rms="3.7583655118942261e-01" purity="2.7194112539291382e-01" nType="-99"/>
            <Node pos="r" depth="3" NCoef="0" IVar="-1" Cut="0.0000000000000000e+00" cType="1" res="-1.8661901121959090e-03" rms="4.0311783552169800e-01" purity="5.1270562410354614e-01" nType="-99"/>
          </Node>
          <Node pos="r" depth="2" NCoef="0" IVar="7" Cut="-6.6678142547607422e-01" cType="1" res="9.0147228911519051e-03" rms="3.3599072694778442e-01" purity="8.1474101543426514e-01" nType="0">
            <Node pos="l" depth="3" NCoef="0" IVar="-1" Cut="0.0000000000000000e+00" cType="1" res="-6.6633159294724464e-03" rms="3.6829581856727600e-01" purity="7.4417430162429810e-01" nType="-99"/>
            <Node pos="r" depth="3" NCoef="0" IVar="-1" Cut="0.0000000000000000e+00" cType="1" res="1.2112563475966454e-02" rms="3.2673758268356323e-01" purity="8.3341783285140991e-01" nType="-99"/>
          </Node>
        </Node>
        <Node pos="r" depth="1" NCoef="0" IVar="9" Cut="-9.3332630395889282e-01" cType="1" res="1.2158031575381756e-02" rms="3.9080646634101868e-01" purity="4.1667461395263672e-01" nType="0">
          <Node pos="l" depth="2" NCoef="0" IVar="-1" Cut="0.0000000000000000e+00" cType="1" res="-1.3108395040035248e-02" rms="3.7743183970451355e-01" purity="3.7158319354057312e-01" nType="-99"/>
          <Node pos="r" depth="2" NCoef="0" IVar="4" Cut="1.6740414428710938e+02" cType="1" res="2.0157111808657646e-02" rms="3.9365434646606445e-01" purity="4.2788866162300110e-01" nType="0">
            <Node pos="l" depth="3" NCoef="0" IVar="-1" Cut="0.0000000000000000e+00" cType="1" res="1.8186371773481369e-02" rms="3.9518305659294128e-01" purity="3.6688366532325745e-01" nType="-99"/>
            <Node pos="r" depth="3" NCoef="0" IVar="-1" Cut="0.0000000000000000e+00" cType="1" res="-4.4799954630434513e-03" rms="3.8670814037322998e-01" purity="6.5471792221069336e-01" nType="-99"/>
          </Node>
        </Node>
      </Node>
    </BinaryTree>
    <BinaryTree type="DecisionTree" boostWeight="1.0000000000000000e+00" itree="103">
      <Node pos="s" depth="0" NCoef="0" IVar="3" Cut="1.4619770812988281e+02" cType="1" res="-1.9574670586735010e-03" rms="3.9032927155494690e-01" purity="4.9663209915161133e-01" nType="0">
        <Node pos="l" depth="1" NCoef="0" IVar="2" Cut="3.2042095947265625e+02" cType="1" res="6.2735644169151783e-03" rms="3.7814420461654663e-01" purity="2.4791598320007324e-01" nType="0">
          <Node pos="l" depth="2" NCoef="0" IVar="1" Cut="9.3979290771484375e+02" cType="1" res="1.9355313852429390e-02" rms="3.8732603192329407e-01" purity="2.5763481855392456e-01" nType="0">
            <Node pos="l" depth="3" NCoef="0" IVar="-1" Cut="0.0000000000000000e+00" cType="1" res="-2.9124342836439610e-03" rms="3.3232831954956055e-01" purity="1.4095410704612732e-01" nType="-99"/>
            <Node pos="r" depth="3" NCoef="0" IVar="-1" Cut="0.0000000000000000e+00" cType="1" res="2.6325445622205734e-02" rms="4.4589680433273315e-01" purity="4.0584820508956909e-01" nType="-99"/>
          </Node>
          <Node pos="r" depth="2" NCoef="0" IVar="4" Cut="9.1112014770507812e+01" cType="1" res="-9.3137817457318306e-03" rms="3.6629438400268555e-01" purity="2.3633570969104767e-01" nType="0">
            <Node pos="l" depth="3" NCoef="0" IVar="-1" Cut="0.0000000000000000e+00" cType="1" res="5.5432431399822235e-03" rms="3.4589594602584839e-01" purity="1.8291556835174561e-01" nType="-99"/>
            <Node pos="r" depth="3" NCoef="0" IVar="-1" Cut="0.0000000000000000e+00" cType="1" res="-2.0675348117947578e-02" rms="3.9603161811828613e-01" purity="3.2372432947158813e-01" nType="-99"/>
          </Node>
        </Node>
        <Node pos="r" depth="1" NCoef="0" IVar="1" Cut="1.4402408447265625e+03" cType="1" res="-4.7054523602128029e-03" rms="3.9427524805068970e-01" purity="5.7966762781143188e-01" nType="0">
          <Node pos="l" depth="2" NCoef="0" IVar="1" Cut="1.2878474121093750e+03" cType="1" res="-9.1393413022160530e-03" rms="4.1635781526565552e-01" purity="4.5496231317520142e-01" nType="0">
            <Node pos="l" depth="3" NCoef="0" IVar="-1" Cut="0.0000000000000000e+00" cType="1" res="-8.2987751811742783e-03" rms="4.2242434620857239e-01" purity="3.8883191347122192e-01" nType="-99"/>
            <Node pos="r" depth="3" NCoef="0" IVar="-1" Cut="0.0000000000000000e+00" cType="1" res="2.4593628477305174e-03" rms="4.0096786618232727e-01" purity="6.1519163846969604e-01" nType="-99"/>
          </Node>
          <Node pos="r" depth="2" NCoef="0" IVar="8" Cut="-4.0014520287513733e-01" cType="1" res="1.6457075253129005e-03" rms="3.6019861698150635e-01" purity="7.5829714536666870e-01" nType="0">
            <Node pos="l" depth="3" NCoef="0" IVar="-1" Cut="0.0000000000000000e+00" cType="1" res="-7.1786465123295784e-03" rms="3.8155654072761536e-01" purity="7.1832275390625000e-01" nType="-99"/>
            <Node pos="r" depth="3" NCoef="0" IVar="-1" Cut="0.0000000000000000e+00" cType="1" res="5.7351007126271725e-03" rms="3.4901148080825806e-01" purity="7.7806437015533447e-01" nType="-99"/>
          </Node>
        </Node>
      </Node>
    </BinaryTree>
    <BinaryTree type="DecisionTree" boostWeight="1.0000000000000000e+00" itree="104">
      <Node pos="s" depth="0" NCoef="0" IVar="7" Cut="-1.4666682481765747e+00" cType="1" res="-1.4994883676990867e-03" rms="3.9031171798706055e-01" purity="4.9632439017295837e-01" nType="0">
        <Node pos="l" depth="1" NCoef="0" IVar="4" Cut="1.2796176147460938e+02" cType="1" res="1.7296718433499336e-02" rms="3.7465563416481018e-01" purity="2.6943731307983398e-01" nType="0">
          <Node pos="l" depth="2" NCoef="0" IVar="5" Cut="6.8303054809570312e+01" cType="1" res="3.2641012221574783e-02" rms="3.5304981470108032e-01" purity="1.9274783134460449e-01" nType="0">
            <Node pos="l" depth="3" NCoef="0" IVar="-1" Cut="0.0000000000000000e+00" cType="1" res="1.0710641741752625e-02" rms="3.0436846613883972e-01" purity="1.1526280641555786e-01" nType="-99"/>
            <Node pos="r" depth="3" NCoef="0" IVar="-1" Cut="0.0000000000000000e+00" cType="1" res="4.3561711907386780e-02" rms="4.0228664875030518e-01" purity="2.8643161058425903e-01" nType="-99"/>
          </Node>
          <Node pos="r" depth="2" NCoef="0" IVar="-1" Cut="0.0000000000000000e+00" cType="1" res="-6.5500754863023758e-03" rms="4.1025230288505554e-01" purity="4.1180902719497681e-01" nType="-99"/>
        </Node>
        <Node pos="r" depth="1" NCoef="0" IVar="7" Cut="-2.4762853980064392e-01" cType="1" res="-3.3914812374860048e-03" rms="3.9180302619934082e-01" purity="5.1916247606277466e-01" nType="0">
          <Node pos="l" depth="2" NCoef="0" IVar="8" Cut="-1.4666333198547363e+00" cType="1" res="-1.1194909922778606e-02" rms="3.9680424332618713e-01" purity="5.2535265684127808e-01" nType="0">
            <Node pos="l" depth="3" NCoef="0" IVar="-1" Cut="0.0000000000000000e+00" cType="1" res="1.0732630267739296e-02" rms="3.8124614953994751e-01" purity="3.6530980467796326e-01" nType="-99"/>
            <Node pos="r" depth="3" NCoef="0" IVar="-1" Cut="0.0000000000000000e+00" cType="1" res="-9.2151565477252007e-03" rms="3.9867103099822998e-01" purity="5.4646390676498413e-01" nType="-99"/>
          </Node>
          <Node pos="r" depth="2" NCoef="0" IVar="6" Cut="-1.4580285549163818e+00" cType="1" res="7.0278922794386744e-04" rms="3.8909071683883667e-01" purity="5.1591461896896362e-01" nType="0">
            <Node pos="l" depth="3" NCoef="0" IVar="-1" Cut="0.0000000000000000e+00" cType="1" res="2.1301552653312683e-02" rms="3.7002539634704590e-01" purity="2.5062692165374756e-01" nType="-99"/>
            <Node pos="r" depth="3" NCoef="0" IVar="-1" Cut="0.0000000000000000e+00" cType="1" res="-6.9353391882032156e-04" rms="3.9030438661575317e-01" purity="5.3415942192077637e-01" nType="-99"/>
          </Node>
        </Node>
      </Node>
    </BinaryTree>
    <BinaryTree type="DecisionTree" boostWeight="1.0000000000000000e+00" itree="105">
      <Node pos="s" depth="0" NCoef="0" IVar="6" Cut="-1.1820021867752075e+00" cType="1" res="5.7142187142744660e-04" rms="3.8982284069061279e-01" purity="4.9881932139396667e-01" nType="0">
        <Node pos="l" depth="1" NCoef="0" IVar="5" Cut="6.8967781066894531e+01" cType="1" res="2.4156069383025169e-02" rms="3.7452313303947449e-01" purity="2.8155928850173950e-01" nType="0">
          <Node pos="l" depth="2" NCoef="0" IVar="-1" Cut="0.0000000000000000e+00" cType="1" res="-1.0218673385679722e-02" rms="3.0412450432777405e-01" purity="1.2496101856231689e-01" nType="-99"/>
          <Node pos="r" depth="2" NCoef="0" IVar="6" Cut="-1.5612316131591797e+00" cType="1" res="4.7277908772230148e-02" rms="4.1402214765548706e-01" purity="3.8798218965530396e-01" nType="0">
            <Node pos="l" depth="3" NCoef="0" IVar="-1" Cut="0.0000000000000000e+00" cType="1" res="1.3637376949191093e-02" rms="3.9110356569290161e-01" purity="2.8286996483802795e-01" nType="-99"/>
            <Node pos="r" depth="3" NCoef="0" IVar="-1" Cut="0.0000000000000000e+00" cType="1" res="4.1515942662954330e-02" rms="4.3090310692787170e-01" purity="4.7577399015426636e-01" nType="-99"/>
          </Node>
        </Node>
        <Node pos="r" depth="1" NCoef="0" IVar="7" Cut="3.9998450875282288e-01" cType="1" res="-2.4403932038694620e-03" rms="3.9163139462471008e-01" purity="5.2656394243240356e-01" nType="0">
          <Node pos="l" depth="2" NCoef="0" IVar="9" Cut="1.4666808843612671e+00" cType="1" res="3.5931235179305077e-03" rms="3.9335727691650391e-01" purity="5.6211555004119873e-01" nType="0">
            <Node pos="l" depth="3" NCoef="0" IVar="-1" Cut="0.0000000000000000e+00" cType="1" res="4.0913573466241360e-03" rms="3.9321294426918030e-01" purity="5.7788765430450439e-01" nType="-99"/>
            <Node pos="r" depth="3" NCoef="0" IVar="-1" Cut="0.0000000000000000e+00" cType="1" res="-1.2484577484428883e-02" rms="3.9378720521926880e-01" purity="4.3042859435081482e-01" nType="-99"/>
          </Node>
          <Node pos="r" depth="2" NCoef="0" IVar="8" Cut="1.7326960563659668e+00" cType="1" res="-1.3639265671372414e-02" rms="3.8815909624099731e-01" purity="4.6057623624801636e-01" nType="0">
            <Node pos="l" depth="3" NCoef="0" IVar="-1" Cut="0.0000000000000000e+00" cType="1" res="-1.0857637040317059e-02" rms="3.8802132010459900e-01" purity="4.7959178686141968e-01" nType="-99"/>
            <Node pos="r" depth="3" NCoef="0" IVar="-1" Cut="0.0000000000000000e+00" cType="1" res="1.4914995990693569e-02" rms="3.8797253370285034e-01" purity="2.6785922050476074e-01" nType="-99"/>
          </Node>
        </Node>
      </Node>
    </BinaryTree>
    <BinaryTree type="DecisionTree" boostWeight="1.0000000000000000e+00" itree="106">
      <Node pos="s" depth="0" NCoef="0" IVar="7" Cut="-1.1999139785766602e+00" cType="1" res="-2.4710914585739374e-03" rms="3.8698199391365051e-01" purity="4.9999472498893738e-01" nType="0">
        <Node pos="l" depth="1" NCoef="0" IVar="9" Cut="-6.6664081811904907e-01" cType="1" res="-2.0570794120430946e-02" rms="3.6136257648468018e-01" purity="2.8478583693504333e-01" nType="0">
          <Node pos="l" depth="2" NCoef="0" IVar="-1" Cut="0.0000000000000000e+00" cType="1" res="-4.2758926749229431e-02" rms="3.1965845823287964e-01" purity="2.0692107081413269e-01" nType="-99"/>
          <Node pos="r" depth="2" NCoef="0" IVar="8" Cut="3.9979743957519531e-01" cType="1" res="-1.1731742415577173e-03" rms="3.8225290179252625e-01" purity="3.3017575740814209e-01" nType="0">
            <Node pos="l" depth="3" NCoef="0" IVar="-1" Cut="0.0000000000000000e+00" cType="1" res="1.0636701248586178e-02" rms="3.9089170098304749e-01" purity="3.6780431866645813e-01" nType="-99"/>
            <Node pos="r" depth="3" NCoef="0" IVar="-1" Cut="0.0000000000000000e+00" cType="1" res="-2.5486590340733528e-02" rms="3.6142617464065552e-01" purity="2.5325351953506470e-01" nType="-99"/>
          </Node>
        </Node>
        <Node pos="r" depth="1" NCoef="0" IVar="1" Cut="1.3751604003906250e+03" cType="1" res="2.0906806457787752e-04" rms="3.9056155085563660e-01" purity="5.3186231851577759e-01" nType="0">
          <Node pos="l" depth="2" NCoef="0" IVar="6" Cut="-1.4297814369201660e+00" cType="1" res="-5.5992766283452511e-03" rms="4.1013529896736145e-01" purity="3.7853285670280457e-01" nType="0">
            <Node pos="l" depth="3" NCoef="0" IVar="-1" Cut="0.0000000000000000e+00" cType="1" res="1.9133104011416435e-02" rms="3.5835894942283630e-01" purity="1.9624815881252289e-01" nType="-99"/>
            <Node pos="r" depth="3" NCoef="0" IVar="-1" Cut="0.0000000000000000e+00" cType="1" res="-4.7000781632959843e-03" rms="4.1442820429801941e-01" purity="3.9510270953178406e-01" nType="-99"/>
          </Node>
          <Node pos="r" depth="2" NCoef="0" IVar="6" Cut="-8.2046681642532349e-01" cType="1" res="8.8087031617760658e-03" rms="3.5945799946784973e-01" purity="7.5887662172317505e-01" nType="0">
            <Node pos="l" depth="3" NCoef="0" IVar="-1" Cut="0.0000000000000000e+00" cType="1" res="-9.0740630403161049e-03" rms="3.9434838294982910e-01" purity="6.0493779182434082e-01" nType="-99"/>
            <Node pos="r" depth="3" NCoef="0" IVar="-1" Cut="0.0000000000000000e+00" cType="1" res="9.6886847168207169e-03" rms="3.5335707664489746e-01" purity="7.8371763229370117e-01" nType="-99"/>
          </Node>
        </Node>
      </Node>
    </BinaryTree>
    <BinaryTree type="DecisionTree" boostWeight="1.0000000000000000e+00" itree="107">
      <Node pos="s" depth="0" NCoef="0" IVar="7" Cut="1.9999914169311523e+00" cType="1" res="1.0140641825273633e-03" rms="3.8965094089508057e-01" purity="5.0012570619583130e-01" nType="0">
        <Node pos="l" depth="1" NCoef="0" IVar="7" Cut="1.3142259120941162e+00" cType="1" res="-9.1199115558993071e-05" rms="3.9162120223045349e-01" purity="5.1123487949371338e-01" nType="0">
          <Node pos="l" depth="2" NCoef="0" IVar="4" Cut="1.0559147644042969e+02" cType="1" res="1.8584069330245256e-03" rms="3.9405700564384460e-01" purity="5.2957725524902344e-01" nType="0">
            <Node pos="l" depth="3" NCoef="0" IVar="-1" Cut="0.0000000000000000e+00" cType="1" res="5.9595722705125809e-03" rms="3.9835578203201294e-01" purity="2.9249590635299683e-01" nType="-99"/>
            <Node pos="r" depth="3" NCoef="0" IVar="-1" Cut="0.0000000000000000e+00" cType="1" res="-1.3058871263638139e-03" rms="3.9170512557029724e-01" purity="6.5515214204788208e-01" nType="-99"/>
          </Node>
          <Node pos="r" depth="2" NCoef="0" IVar="7" Cut="1.7060527801513672e+00" cType="1" res="-2.3591214790940285e-02" rms="3.6014059185981750e-01" purity="2.9014053940773010e-01" nType="0">
            <Node pos="l" depth="3" NCoef="0" IVar="-1" Cut="0.0000000000000000e+00" cType="1" res="-2.5227736681699753e-02" rms="3.6328250169754028e-01" purity="3.1168296933174133e-01" nType="-99"/>
            <Node pos="r" depth="3" NCoef="0" IVar="-1" Cut="0.0000000000000000e+00" cType="1" res="1.6607829602435231e-03" rms="3.5274419188499451e-01" purity="2.4978433549404144e-01" nType="-99"/>
          </Node>
        </Node>
        <Node pos="r" depth="1" NCoef="0" IVar="-1" Cut="0.0000000000000000e+00" cType="1" res="2.8650358319282532e-02" rms="3.3264309167861938e-01" purity="2.0923252403736115e-01" nType="-99"/>
      </Node>
    </BinaryTree>
    <BinaryTree type="DecisionTree" boostWeight="1.0000000000000000e+00" itree="108">
      <Node pos="s" depth="0" NCoef="0" IVar="7" Cut="6.6669124364852905e-01" cType="1" res="2.8165290132164955e-03" rms="3.9245820045471191e-01" purity="5.0127995014190674e-01" nType="0">
        <Node pos="l" depth="1" NCoef="0" IVar="7" Cut="-1.8094356060028076e+00" cType="1" res="1.5703753160778433e-04" rms="3.9385202527046204e-01" purity="5.3293401002883911e-01" nType="0">
          <Node pos="l" depth="2" NCoef="0" IVar="7" Cut="-2.1396214962005615e+00" cType="1" res="2.4212175980210304e-02" rms="3.6356875300407410e-01" purity="2.3543113470077515e-01" nType="0">
            <Node pos="l" depth="3" NCoef="0" IVar="-1" Cut="0.0000000000000000e+00" cType="1" res="-6.9838524796068668e-03" rms="3.3719593286514282e-01" purity="1.7032858729362488e-01" nType="-99"/>
            <Node pos="r" depth="3" NCoef="0" IVar="-1" Cut="0.0000000000000000e+00" cType="1" res="4.1510432958602905e-02" rms="3.8462078571319580e-01" purity="2.9764449596405029e-01" nType="-99"/>
          </Node>
          <Node pos="r" depth="2" NCoef="0" IVar="3" Cut="1.4645880126953125e+02" cType="1" res="-1.6984997782856226e-03" rms="3.9603111147880554e-01" purity="5.5588245391845703e-01" nType="0">
            <Node pos="l" depth="3" NCoef="0" IVar="-1" Cut="0.0000000000000000e+00" cType="1" res="-1.0700967162847519e-02" rms="3.8659042119979858e-01" purity="2.7048134803771973e-01" nType="-99"/>
            <Node pos="r" depth="3" NCoef="0" IVar="-1" Cut="0.0000000000000000e+00" cType="1" res="1.5873020747676492e-03" rms="3.9851549267768860e-01" purity="6.3526320457458496e-01" nType="-99"/>
          </Node>
        </Node>
        <Node pos="r" depth="1" NCoef="0" IVar="6" Cut="9.7093170881271362e-01" cType="1" res="1.0000713169574738e-02" rms="3.8857701420783997e-01" purity="4.1577172279357910e-01" nType="0">
          <Node pos="l" depth="2" NCoef="0" IVar="3" Cut="1.2790616607666016e+02" cType="1" res="1.4368080534040928e-02" rms="3.9985913038253784e-01" purity="4.5759800076484680e-01" nType="0">
            <Node pos="l" depth="3" NCoef="0" IVar="-1" Cut="0.0000000000000000e+00" cType="1" res="2.9686186462640762e-02" rms="3.8466864824295044e-01" purity="2.1992188692092896e-01" nType="-99"/>
            <Node pos="r" depth="3" NCoef="0" IVar="-1" Cut="0.0000000000000000e+00" cType="1" res="5.6708282791078091e-03" rms="4.0304166078567505e-01" purity="5.1138460636138916e-01" nType="-99"/>
          </Node>
          <Node pos="r" depth="2" NCoef="0" IVar="9" Cut="3.9951997995376587e-01" cType="1" res="-8.6866607889533043e-03" rms="3.3540993928909302e-01" purity="2.3680262267589569e-01" nType="0">
            <Node pos="l" depth="3" NCoef="0" IVar="-1" Cut="0.0000000000000000e+00" cType="1" res="8.4189213812351227e-03" rms="3.4264415502548218e-01" purity="2.8817829489707947e-01" nType="-99"/>
            <Node pos="r" depth="3" NCoef="0" IVar="-1" Cut="0.0000000000000000e+00" cType="1" res="-2.4904577061533928e-02" rms="3.2711753249168396e-01" purity="1.8692578375339508e-01" nType="-99"/>
          </Node>
        </Node>
      </Node>
    </BinaryTree>
    <BinaryTree type="DecisionTree" boostWeight="1.0000000000000000e+00" itree="109">
      <Node pos="s" depth="0" NCoef="0" IVar="6" Cut="-1.6887011528015137e+00" cType="1" res="-9.5452160167042166e-05" rms="3.8751327991485596e-01" purity="5.0235098600387573e-01" nType="0">
        <Node pos="l" depth="1" NCoef="0" IVar="-1" Cut="0.0000000000000000e+00" cType="1" res="-2.5804689154028893e-02" rms="3.1777158379554749e-01" purity="1.4988829195499420e-01" nType="-99"/>
        <Node pos="r" depth="1" NCoef="0" IVar="8" Cut="-9.3334126472473145e-01" cType="1" res="1.1129576014354825e-03" rms="3.9013698697090149e-01" purity="5.1722961664199829e-01" nType="0">
          <Node pos="l" depth="2" NCoef="0" IVar="3" Cut="1.9717588806152344e+02" cType="1" res="-7.6801348477602005e-03" rms="3.8011291623115540e-01" purity="4.1900441050529480e-01" nType="0">
            <Node pos="l" depth="3" NCoef="0" IVar="-1" Cut="0.0000000000000000e+00" cType="1" res="-1.6070028766989708e-02" rms="3.6136144399642944e-01" purity="2.6671108603477478e-01" nType="-99"/>
            <Node pos="r" depth="3" NCoef="0" IVar="-1" Cut="0.0000000000000000e+00" cType="1" res="5.3221234120428562e-03" rms="3.9864000678062439e-01" purity="5.8250814676284790e-01" nType="-99"/>
          </Node>
          <Node pos="r" depth="2" NCoef="0" IVar="8" Cut="-2.2219592332839966e-01" cType="1" res="3.4419642761349678e-03" rms="3.9271622896194458e-01" purity="5.4324632883071899e-01" nType="0">
            <Node pos="l" depth="3" NCoef="0" IVar="-1" Cut="0.0000000000000000e+00" cType="1" res="1.0195545852184296e-02" rms="3.9779156446456909e-01" purity="5.9289532899856567e-01" nType="-99"/>
            <Node pos="r" depth="3" NCoef="0" IVar="-1" Cut="0.0000000000000000e+00" cType="1" res="-9.1037538368254900e-04" rms="3.9066904783248901e-01" purity="5.2446329593658447e-01" nType="-99"/>
          </Node>
        </Node>
      </Node>
    </BinaryTree>
    <BinaryTree type="DecisionTree" boostWeight="1.0000000000000000e+00" itree="110">
      <Node pos="s" depth="0" NCoef="0" IVar="6" Cut="-1.6939350366592407e+00" cType="1" res="4.5233005657792091e-03" rms="3.9204454421997070e-01" purity="5.0084739923477173e-01" nType="0">
        <Node pos="l" depth="1" NCoef="0" IVar="-1" Cut="0.0000000000000000e+00" cType="1" res="-2.1006865426898003e-02" rms="3.2000079751014709e-01" purity="1.5000106394290924e-01" nType="-99"/>
        <Node pos="r" depth="1" NCoef="0" IVar="7" Cut="1.9999195337295532e+00" cType="1" res="5.6654731743037701e-03" rms="3.9468744397163391e-01" purity="5.1529365777969360e-01" nType="0">
          <Node pos="l" depth="2" NCoef="0" IVar="6" Cut="-1.2659471035003662e+00" cType="1" res="6.7383307032287121e-03" rms="3.9768299460411072e-01" purity="5.2717584371566772e-01" nType="0">
            <Node pos="l" depth="3" NCoef="0" IVar="-1" Cut="0.0000000000000000e+00" cType="1" res="2.1008647978305817e-02" rms="4.0816500782966614e-01" purity="3.2322627305984497e-01" nType="-99"/>
            <Node pos="r" depth="3" NCoef="0" IVar="-1" Cut="0.0000000000000000e+00" cType="1" res="3.3740100916475058e-03" rms="3.9699730277061462e-01" purity="5.3947722911834717e-01" nType="-99"/>
          </Node>
          <Node pos="r" depth="2" NCoef="0" IVar="-1" Cut="0.0000000000000000e+00" cType="1" res="-2.4029089137911797e-02" rms="2.9103338718414307e-01" purity="1.6466745734214783e-01" nType="-99"/>
        </Node>
      </Node>
    </BinaryTree>
    <BinaryTree type="DecisionTree" boostWeight="1.0000000000000000e+00" itree="111">
      <Node pos="s" depth="0" NCoef="0" IVar="3" Cut="1.4500955200195312e+02" cType="1" res="3.1097985338419676e-03" rms="3.9393782615661621e-01" purity="5.0182193517684937e-01" nType="0">
        <Node pos="l" depth="1" NCoef="0" IVar="1" Cut="1.2646979980468750e+03" cType="1" res="1.7114557325839996e-02" rms="3.8377499580383301e-01" purity="2.5627592206001282e-01" nType="0">
          <Node pos="l" depth="2" NCoef="0" IVar="2" Cut="2.9846310424804688e+02" cType="1" res="9.5543954521417618e-03" rms="3.7178567051887512e-01" purity="2.2236664593219757e-01" nType="0">
            <Node pos="l" depth="3" NCoef="0" IVar="-1" Cut="0.0000000000000000e+00" cType="1" res="1.8987445160746574e-02" rms="3.9264118671417236e-01" purity="2.6343595981597900e-01" nType="-99"/>
            <Node pos="r" depth="3" NCoef="0" IVar="-1" Cut="0.0000000000000000e+00" cType="1" res="-7.1429507806897163e-03" rms="3.4785917401313782e-01" purity="1.7974053323268890e-01" nType="-99"/>
          </Node>
          <Node pos="r" depth="2" NCoef="0" IVar="-1" Cut="0.0000000000000000e+00" cType="1" res="3.8377631455659866e-02" rms="4.5696172118186951e-01" purity="4.9910899996757507e-01" nType="-99"/>
        </Node>
        <Node pos="r" depth="1" NCoef="0" IVar="0" Cut="4.5299490356445312e+02" cType="1" res="-1.3648350723087788e-03" rms="3.9702600240707397e-01" purity="5.8027589321136475e-01" nType="0">
          <Node pos="l" depth="2" NCoef="0" IVar="5" Cut="8.3128784179687500e+01" cType="1" res="4.6081738546490669e-03" rms="4.1705989837646484e-01" purity="4.4505992531776428e-01" nType="0">
            <Node pos="l" depth="3" NCoef="0" IVar="-1" Cut="0.0000000000000000e+00" cType="1" res="1.1188343167304993e-02" rms="4.0722087025642395e-01" purity="3.1164100766181946e-01" nType="-99"/>
            <Node pos="r" depth="3" NCoef="0" IVar="-1" Cut="0.0000000000000000e+00" cType="1" res="-4.5861159451305866e-03" rms="4.2565068602561951e-01" purity="5.6983709335327148e-01" nType="-99"/>
          </Node>
          <Node pos="r" depth="2" NCoef="0" IVar="1" Cut="1.2529315185546875e+03" cType="1" res="-9.1691445559263229e-03" rms="3.6906972527503967e-01" purity="7.5694853067398071e-01" nType="0">
            <Node pos="l" depth="3" NCoef="0" IVar="-1" Cut="0.0000000000000000e+00" cType="1" res="-1.9332248717546463e-02" rms="4.5687225461006165e-01" purity="5.3772324323654175e-01" nType="-99"/>
            <Node pos="r" depth="3" NCoef="0" IVar="-1" Cut="0.0000000000000000e+00" cType="1" res="-4.2590629309415817e-03" rms="3.5574269294738770e-01" purity="7.8578794002532959e-01" nType="-99"/>
          </Node>
        </Node>
      </Node>
    </BinaryTree>
    <BinaryTree type="DecisionTree" boostWeight="1.0000000000000000e+00" itree="112">
      <Node pos="s" depth="0" NCoef="0" IVar="4" Cut="2.8413723754882812e+02" cType="1" res="2.4049584753811359e-03" rms="3.9165201783180237e-01" purity="5.0235080718994141e-01" nType="0">
        <Node pos="l" depth="1" NCoef="0" IVar="4" Cut="8.3485275268554688e+01" cType="1" res="3.2421429641544819e-03" rms="3.9246240258216858e-01" purity="4.9502286314964294e-01" nType="0">
          <Node pos="l" depth="2" NCoef="0" IVar="7" Cut="1.1998810768127441e+00" cType="1" res="-1.1825824156403542e-02" rms="3.4815815091133118e-01" purity="1.9291375577449799e-01" nType="0">
            <Node pos="l" depth="3" NCoef="0" IVar="-1" Cut="0.0000000000000000e+00" cType="1" res="-1.3499262742698193e-02" rms="3.5614001750946045e-01" purity="2.0413765311241150e-01" nType="-99"/>
            <Node pos="r" depth="3" NCoef="0" IVar="-1" Cut="0.0000000000000000e+00" cType="1" res="2.2557331249117851e-02" rms="3.0686315894126892e-01" purity="1.4143317937850952e-01" nType="-99"/>
          </Node>
          <Node pos="r" depth="2" NCoef="0" IVar="0" Cut="4.2283312988281250e+02" cType="1" res="6.6742510534822941e-03" rms="4.0179243683815002e-01" purity="5.6383579969406128e-01" nType="0">
            <Node pos="l" depth="3" NCoef="0" IVar="-1" Cut="0.0000000000000000e+00" cType="1" res="8.0429976806044579e-03" rms="4.1556021571159363e-01" purity="4.1572722792625427e-01" nType="-99"/>
            <Node pos="r" depth="3" NCoef="0" IVar="-1" Cut="0.0000000000000000e+00" cType="1" res="-7.9085258767008781e-04" rms="3.8627353310585022e-01" purity="7.2324728965759277e-01" nType="-99"/>
          </Node>
        </Node>
        <Node pos="r" depth="1" NCoef="0" IVar="-1" Cut="0.0000000000000000e+00" cType="1" res="-2.3793354630470276e-02" rms="3.5889104008674622e-01" purity="7.7446007728576660e-01" nType="-99"/>
      </Node>
    </BinaryTree>
    <BinaryTree type="DecisionTree" boostWeight="1.0000000000000000e+00" itree="113">
      <Node pos="s" depth="0" NCoef="0" IVar="9" Cut="-1.9999927282333374e+00" cType="1" res="-1.2881208676844835e-03" rms="3.8972347974777222e-01" purity="5.0102108716964722e-01" nType="0">
        <Node pos="l" depth="1" NCoef="0" IVar="7" Cut="-1.3431386649608612e-01" cType="1" res="-2.2698927670717239e-02" rms="3.6508038640022278e-01" purity="3.3531674742698669e-01" nType="0">
          <Node pos="l" depth="2" NCoef="0" IVar="-1" Cut="0.0000000000000000e+00" cType="1" res="-6.9892909377813339e-03" rms="3.6580383777618408e-01" purity="3.2407152652740479e-01" nType="-99"/>
          <Node pos="r" depth="2" NCoef="0" IVar="-1" Cut="0.0000000000000000e+00" cType="1" res="-2.3834507912397385e-02" rms="3.6386024951934814e-01" purity="3.4709066152572632e-01" nType="-99"/>
        </Node>
        <Node pos="r" depth="1" NCoef="0" IVar="7" Cut="-1.4665950536727905e+00" cType="1" res="-7.1032198320608586e-05" rms="3.9104247093200684e-01" purity="5.1044046878814697e-01" nType="0">
          <Node pos="l" depth="2" NCoef="0" IVar="8" Cut="-6.6678768396377563e-01" cType="1" res="1.6097936779260635e-02" rms="3.7023848295211792e-01" purity="2.8267338871955872e-01" nType="0">
            <Node pos="l" depth="3" NCoef="0" IVar="-1" Cut="0.0000000000000000e+00" cType="1" res="-4.9239571671932936e-04" rms="3.3105865120887756e-01" purity="2.2951272130012512e-01" nType="-99"/>
            <Node pos="r" depth="3" NCoef="0" IVar="-1" Cut="0.0000000000000000e+00" cType="1" res="1.7632449045777321e-02" rms="3.9036282896995544e-01" purity="3.1276601552963257e-01" nType="-99"/>
          </Node>
          <Node pos="r" depth="2" NCoef="0" IVar="4" Cut="9.6877296447753906e+01" cType="1" res="-1.6256117960438132e-03" rms="3.9294958114624023e-01" purity="5.3233933448791504e-01" nType="0">
            <Node pos="l" depth="3" NCoef="0" IVar="-1" Cut="0.0000000000000000e+00" cType="1" res="4.6704951673746109e-03" rms="3.9234480261802673e-01" purity="2.7014380693435669e-01" nType="-99"/>
            <Node pos="r" depth="3" NCoef="0" IVar="-1" Cut="0.0000000000000000e+00" cType="1" res="-3.1617169734090567e-03" rms="3.9313232898712158e-01" purity="6.3372093439102173e-01" nType="-99"/>
          </Node>
        </Node>
      </Node>
    </BinaryTree>
    <BinaryTree type="DecisionTree" boostWeight="1.0000000000000000e+00" itree="114">
      <Node pos="s" depth="0" NCoef="0" IVar="6" Cut="1.7353583574295044e+00" cType="1" res="2.0942548289895058e-03" rms="3.9136466383934021e-01" purity="5.0485491752624512e-01" nType="0">
        <Node pos="l" depth="1" NCoef="0" IVar="8" Cut="-2.0000112056732178e+00" cType="1" res="3.0640750192105770e-03" rms="3.9469927549362183e-01" purity="5.1869571208953857e-01" nType="0">
          <Node pos="l" depth="2" NCoef="0" IVar="-1" Cut="0.0000000000000000e+00" cType="1" res="2.0199676975607872e-02" rms="3.7334191799163818e-01" purity="2.5895917415618896e-01" nType="-99"/>
          <Node pos="r" depth="2" NCoef="0" IVar="2" Cut="4.9193713378906250e+02" cType="1" res="2.0697272848337889e-03" rms="3.9558264613151550e-01" purity="5.3012144565582275e-01" nType="0">
            <Node pos="l" depth="3" NCoef="0" IVar="-1" Cut="0.0000000000000000e+00" cType="1" res="2.5704351719468832e-03" rms="3.9595010876655579e-01" purity="5.2160817384719849e-01" nType="-99"/>
            <Node pos="r" depth="3" NCoef="0" IVar="-1" Cut="0.0000000000000000e+00" cType="1" res="-4.2722122743725777e-03" rms="3.9380565285682678e-01" purity="5.6836235523223877e-01" nType="-99"/>
          </Node>
        </Node>
        <Node pos="r" depth="1" NCoef="0" IVar="-1" Cut="0.0000000000000000e+00" cType="1" res="-2.0379317924380302e-02" rms="2.9632338881492615e-01" purity="1.6289612650871277e-01" nType="-99"/>
      </Node>
    </BinaryTree>
    <BinaryTree type="DecisionTree" boostWeight="1.0000000000000000e+00" itree="115">
      <Node pos="s" depth="0" NCoef="0" IVar="6" Cut="-9.0091937780380249e-01" cType="1" res="-5.3574298508465290e-03" rms="3.8887497782707214e-01" purity="4.9636837840080261e-01" nType="0">
        <Node pos="l" depth="1" NCoef="0" IVar="9" Cut="1.1997698545455933e+00" cType="1" res="-1.9907601177692413e-02" rms="3.6816665530204773e-01" purity="3.1075105071067810e-01" nType="0">
          <Node pos="l" depth="2" NCoef="0" IVar="9" Cut="-3.2372635602951050e-01" cType="1" res="-1.4811786822974682e-02" rms="3.7526366114616394e-01" purity="3.2774269580841064e-01" nType="0">
            <Node pos="l" depth="3" NCoef="0" IVar="-1" Cut="0.0000000000000000e+00" cType="1" res="-1.7541639506816864e-02" rms="3.6476770043373108e-01" purity="2.7957823872566223e-01" nType="-99"/>
            <Node pos="r" depth="3" NCoef="0" IVar="-1" Cut="0.0000000000000000e+00" cType="1" res="-1.7044637352228165e-03" rms="3.8741895556449890e-01" purity="3.8689005374908447e-01" nType="-99"/>
          </Node>
          <Node pos="r" depth="2" NCoef="0" IVar="-1" Cut="0.0000000000000000e+00" cType="1" res="-3.7774737924337387e-02" rms="3.2334950566291809e-01" purity="2.1412277221679688e-01" nType="-99"/>
        </Node>
        <Node pos="r" depth="1" NCoef="0" IVar="7" Cut="-1.7333588600158691e+00" cType="1" res="-2.4233753792941570e-03" rms="3.9285334944725037e-01" purity="5.3379827737808228e-01" nType="0">
          <Node pos="l" depth="2" NCoef="0" IVar="-1" Cut="0.0000000000000000e+00" cType="1" res="-2.0858848467469215e-02" rms="3.4294533729553223e-01" purity="2.2414840757846832e-01" nType="-99"/>
          <Node pos="r" depth="2" NCoef="0" IVar="8" Cut="-9.3337321281433105e-01" cType="1" res="-1.0021759662777185e-03" rms="3.9541170001029968e-01" purity="5.5112457275390625e-01" nType="0">
            <Node pos="l" depth="3" NCoef="0" IVar="-1" Cut="0.0000000000000000e+00" cType="1" res="6.8388511426746845e-03" rms="4.0271353721618652e-01" purity="4.8308575153350830e-01" nType="-99"/>
            <Node pos="r" depth="3" NCoef="0" IVar="-1" Cut="0.0000000000000000e+00" cType="1" res="-2.5332793593406677e-03" rms="3.9350312948226929e-01" purity="5.6819820404052734e-01" nType="-99"/>
          </Node>
        </Node>
      </Node>
    </BinaryTree>
    <BinaryTree type="DecisionTree" boostWeight="1.0000000000000000e+00" itree="116">
      <Node pos="s" depth="0" NCoef="0" IVar="6" Cut="4.1064694523811340e-01" cType="1" res="-2.2414349950850010e-03" rms="3.9076352119445801e-01" purity="4.9752217531204224e-01" nType="0">
        <Node pos="l" depth="1" NCoef="0" IVar="7" Cut="1.7330977916717529e+00" cType="1" res="1.2223385274410248e-03" rms="3.9216569066047668e-01" purity="5.3639715909957886e-01" nType="0">
          <Node pos="l" depth="2" NCoef="0" IVar="1" Cut="1.0999007568359375e+03" cType="1" res="2.4950255174189806e-03" rms="3.9504572749137878e-01" purity="5.5596858263015747e-01" nType="0">
            <Node pos="l" depth="3" NCoef="0" IVar="-1" Cut="0.0000000000000000e+00" cType="1" res="-3.9240480400621891e-03" rms="3.9984545111656189e-01" purity="2.7188596129417419e-01" nType="-99"/>
            <Node pos="r" depth="3" NCoef="0" IVar="-1" Cut="0.0000000000000000e+00" cType="1" res="3.9088428020477295e-03" rms="3.9303949475288391e-01" purity="6.7036640644073486e-01" nType="-99"/>
          </Node>
          <Node pos="r" depth="2" NCoef="0" IVar="-1" Cut="0.0000000000000000e+00" cType="1" res="-1.7314447090029716e-02" rms="3.3694273233413696e-01" purity="1.9336858391761780e-01" nType="-99"/>
        </Node>
        <Node pos="r" depth="1" NCoef="0" IVar="8" Cut="-1.4668934345245361e+00" cType="1" res="-9.3461731448769569e-03" rms="3.8777485489845276e-01" purity="4.1778361797332764e-01" nType="0">
          <Node pos="l" depth="2" NCoef="0" IVar="-1" Cut="0.0000000000000000e+00" cType="1" res="-3.3272542059421539e-02" rms="3.2225447893142700e-01" purity="2.1774357557296753e-01" nType="-99"/>
          <Node pos="r" depth="2" NCoef="0" IVar="7" Cut="9.3346554040908813e-01" cType="1" res="-6.0837422497570515e-03" rms="3.9360287785530090e-01" purity="4.3786677718162537e-01" nType="0">
            <Node pos="l" depth="3" NCoef="0" IVar="-1" Cut="0.0000000000000000e+00" cType="1" res="-7.8054387122392654e-03" rms="3.9760619401931763e-01" purity="4.6995237469673157e-01" nType="-99"/>
            <Node pos="r" depth="3" NCoef="0" IVar="-1" Cut="0.0000000000000000e+00" cType="1" res="1.0446120984852314e-02" rms="3.7934482097625732e-01" purity="3.3178365230560303e-01" nType="-99"/>
          </Node>
        </Node>
      </Node>
    </BinaryTree>
    <BinaryTree type="DecisionTree" boostWeight="1.0000000000000000e+00" itree="117">
      <Node pos="s" depth="0" NCoef="0" IVar="7" Cut="1.4666746854782104e+00" cType="1" res="2.8196116909384727e-03" rms="3.9339891076087952e-01" purity="5.0061601400375366e-01" nType="0">
        <Node pos="l" depth="1" NCoef="0" IVar="9" Cut="1.9999907016754150e+00" cType="1" res="1.1278729652985930e-03" rms="3.9650216698646545e-01" purity="5.2472722530364990e-01" nType="0">
          <Node pos="l" depth="2" NCoef="0" IVar="8" Cut="-1.7332714796066284e+00" cType="1" res="2.3308573290705681e-03" rms="3.9675739407539368e-01" purity="5.3366917371749878e-01" nType="0">
            <Node pos="l" depth="3" NCoef="0" IVar="-1" Cut="0.0000000000000000e+00" cType="1" res="1.6789283603429794e-02" rms="3.8885203003883362e-01" purity="3.3048737049102783e-01" nType="-99"/>
            <Node pos="r" depth="3" NCoef="0" IVar="-1" Cut="0.0000000000000000e+00" cType="1" res="4.4983727275393903e-04" rms="3.9730218052864075e-01" purity="5.4904562234878540e-01" nType="-99"/>
          </Node>
          <Node pos="r" depth="2" NCoef="0" IVar="-1" Cut="0.0000000000000000e+00" cType="1" res="-1.4275812543928623e-02" rms="3.9075338840484619e-01" purity="3.5037800669670105e-01" nType="-99"/>
        </Node>
        <Node pos="r" depth="1" NCoef="0" IVar="7" Cut="1.6571801900863647e+00" cType="1" res="1.9394578412175179e-02" rms="3.6116945743560791e-01" purity="2.6438450813293457e-01" nType="0">
          <Node pos="l" depth="2" NCoef="0" IVar="-1" Cut="0.0000000000000000e+00" cType="1" res="3.4930624067783356e-02" rms="4.0631616115570068e-01" purity="3.7580582499504089e-01" nType="-99"/>
          <Node pos="r" depth="2" NCoef="0" IVar="8" Cut="-1.3344141840934753e-01" cType="1" res="6.6573782823979855e-03" rms="3.4151127934455872e-01" purity="2.2185355424880981e-01" nType="0">
            <Node pos="l" depth="3" NCoef="0" IVar="-1" Cut="0.0000000000000000e+00" cType="1" res="2.0045984536409378e-02" rms="3.5884764790534973e-01" purity="2.4694237112998962e-01" nType="-99"/>
            <Node pos="r" depth="3" NCoef="0" IVar="-1" Cut="0.0000000000000000e+00" cType="1" res="-4.9710092134773731e-03" rms="3.2841074466705322e-01" purity="2.0450530946254730e-01" nType="-99"/>
          </Node>
        </Node>
      </Node>
    </BinaryTree>
    <BinaryTree type="DecisionTree" boostWeight="1.0000000000000000e+00" itree="118">
      <Node pos="s" depth="0" NCoef="0" IVar="8" Cut="9.3327093124389648e-01" cType="1" res="-9.5907016657292843e-04" rms="3.8966131210327148e-01" purity="5.0158298015594482e-01" nType="0">
        <Node pos="l" depth="1" NCoef="0" IVar="6" Cut="-1.4286668300628662e+00" cType="1" res="2.3160390555858612e-03" rms="3.9213648438453674e-01" purity="5.3065454959869385e-01" nType="0">
          <Node pos="l" depth="2" NCoef="0" IVar="9" Cut="-3.9981159567832947e-01" cType="1" res="2.9222138226032257e-02" rms="3.7065404653549194e-01" purity="2.5491434335708618e-01" nType="0">
            <Node pos="l" depth="3" NCoef="0" IVar="-1" Cut="0.0000000000000000e+00" cType="1" res="3.8317934377118945e-04" rms="3.3226370811462402e-01" purity="1.8240591883659363e-01" nType="-99"/>
            <Node pos="r" depth="3" NCoef="0" IVar="-1" Cut="0.0000000000000000e+00" cType="1" res="3.8613744080066681e-02" rms="3.9736011624336243e-01" purity="3.1326156854629517e-01" nType="-99"/>
          </Node>
          <Node pos="r" depth="2" NCoef="0" IVar="7" Cut="-3.9998671412467957e-01" cType="1" res="1.8238912161905318e-04" rms="3.9371120929718018e-01" purity="5.5252069234848022e-01" nType="0">
            <Node pos="l" depth="3" NCoef="0" IVar="-1" Cut="0.0000000000000000e+00" cType="1" res="-5.0088823772966862e-03" rms="3.9187368750572205e-01" purity="4.9719440937042236e-01" nType="-99"/>
            <Node pos="r" depth="3" NCoef="0" IVar="-1" Cut="0.0000000000000000e+00" cType="1" res="3.0199640896171331e-03" rms="3.9466232061386108e-01" purity="5.8342671394348145e-01" nType="-99"/>
          </Node>
        </Node>
        <Node pos="r" depth="1" NCoef="0" IVar="6" Cut="-8.7719035148620605e-01" cType="1" res="-1.3372475281357765e-02" rms="3.7987732887268066e-01" purity="3.9139506220817566e-01" nType="0">
          <Node pos="l" depth="2" NCoef="0" IVar="-1" Cut="0.0000000000000000e+00" cType="1" res="-3.3149637281894684e-02" rms="3.3651396632194519e-01" purity="2.1166060864925385e-01" nType="-99"/>
          <Node pos="r" depth="2" NCoef="0" IVar="5" Cut="7.5604431152343750e+01" cType="1" res="-7.5111580081284046e-03" rms="3.8733240962028503e-01" purity="4.2572659254074097e-01" nType="0">
            <Node pos="l" depth="3" NCoef="0" IVar="-1" Cut="0.0000000000000000e+00" cType="1" res="-1.3003496453166008e-02" rms="3.6946502327919006e-01" purity="2.4895250797271729e-01" nType="-99"/>
            <Node pos="r" depth="3" NCoef="0" IVar="-1" Cut="0.0000000000000000e+00" cType="1" res="1.5139159513637424e-03" rms="4.0220025181770325e-01" purity="5.8198678493499756e-01" nType="-99"/>
          </Node>
        </Node>
      </Node>
    </BinaryTree>
    <BinaryTree type="DecisionTree" boostWeight="1.0000000000000000e+00" itree="119">
      <Node pos="s" depth="0" NCoef="0" IVar="3" Cut="3.1278753662109375e+02" cType="1" res="-1.1437952052801847e-03" rms="3.9035773277282715e-01" purity="5.0257289409637451e-01" nType="0">
        <Node pos="l" depth="1" NCoef="0" IVar="5" Cut="1.2235132598876953e+02" cType="1" res="1.4126920141279697e-03" rms="3.9356076717376709e-01" purity="4.7548937797546387e-01" nType="0">
          <Node pos="l" depth="2" NCoef="0" IVar="4" Cut="8.7295593261718750e+01" cType="1" res="4.9327546730637550e-03" rms="4.0131059288978577e-01" purity="4.1427624225616455e-01" nType="0">
            <Node pos="l" depth="3" NCoef="0" IVar="-1" Cut="0.0000000000000000e+00" cType="1" res="-9.8199313506484032e-03" rms="3.5263621807098389e-01" purity="1.9289609789848328e-01" nType="-99"/>
            <Node pos="r" depth="3" NCoef="0" IVar="-1" Cut="0.0000000000000000e+00" cType="1" res="6.8829888477921486e-03" rms="4.1845980286598206e-01" purity="5.0011533498764038e-01" nType="-99"/>
          </Node>
          <Node pos="r" depth="2" NCoef="0" IVar="6" Cut="7.1595442295074463e-01" cType="1" res="-1.5932882204651833e-02" rms="3.5238248109817505e-01" purity="7.7712512016296387e-01" nType="0">
            <Node pos="l" depth="3" NCoef="0" IVar="-1" Cut="0.0000000000000000e+00" cType="1" res="-8.2037430256605148e-03" rms="3.4208086133003235e-01" purity="8.0549007654190063e-01" nType="-99"/>
            <Node pos="r" depth="3" NCoef="0" IVar="-1" Cut="0.0000000000000000e+00" cType="1" res="-2.8541788458824158e-02" rms="3.9382940530776978e-01" purity="6.5075147151947021e-01" nType="-99"/>
          </Node>
        </Node>
        <Node pos="r" depth="1" NCoef="0" IVar="8" Cut="-6.6575449705123901e-01" cType="1" res="-1.7502726987004280e-02" rms="3.6878508329391479e-01" purity="6.7587965726852417e-01" nType="0">
          <Node pos="l" depth="2" NCoef="0" IVar="-1" Cut="0.0000000000000000e+00" cType="1" res="-3.2085198909044266e-02" rms="3.8041985034942627e-01" purity="6.0187935829162598e-01" nType="-99"/>
          <Node pos="r" depth="2" NCoef="0" IVar="7" Cut="3.9748820662498474e-01" cType="1" res="-8.0472538247704506e-03" rms="3.6450403928756714e-01" purity="6.9938081502914429e-01" nType="0">
            <Node pos="l" depth="3" NCoef="0" IVar="-1" Cut="0.0000000000000000e+00" cType="1" res="7.0621044142171741e-04" rms="3.5709595680236816e-01" purity="7.3589402437210083e-01" nType="-99"/>
            <Node pos="r" depth="3" NCoef="0" IVar="-1" Cut="0.0000000000000000e+00" cType="1" res="-1.8458126112818718e-02" rms="3.7952375411987305e-01" purity="6.1914640665054321e-01" nType="-99"/>
          </Node>
        </Node>
      </Node>
    </BinaryTree>
    <BinaryTree type="DecisionTree" boostWeight="1.0000000000000000e+00" itree="120">
      <Node pos="s" depth="0" NCoef="0" IVar="6" Cut="1.7352451086044312e+00" cType="1" res="4.3097313027828932e-04" rms="3.8822096586227417e-01" purity="5.0034117698669434e-01" nType="0">
        <Node pos="l" depth="1" NCoef="0" IVar="7" Cut="1.9999883174896240e+00" cType="1" res="1.7426386475563049e-03" rms="3.9186057448387146e-01" purity="5.1564174890518188e-01" nType="0">
          <Node pos="l" depth="2" NCoef="0" IVar="2" Cut="5.0379797363281250e+02" cType="1" res="2.6988559402525425e-03" rms="3.9456564188003540e-01" purity="5.2790617942810059e-01" nType="0">
            <Node pos="l" depth="3" NCoef="0" IVar="-1" Cut="0.0000000000000000e+00" cType="1" res="3.0819333624094725e-03" rms="3.9442226290702820e-01" purity="5.2095651626586914e-01" nType="-99"/>
            <Node pos="r" depth="3" NCoef="0" IVar="-1" Cut="0.0000000000000000e+00" cType="1" res="-4.9489000812172890e-03" rms="3.9511150121688843e-01" purity="5.6284534931182861e-01" nType="-99"/>
          </Node>
          <Node pos="r" depth="2" NCoef="0" IVar="-1" Cut="0.0000000000000000e+00" cType="1" res="-2.3666873574256897e-02" rms="3.0106174945831299e-01" purity="1.5756335854530334e-01" nType="-99"/>
        </Node>
        <Node pos="r" depth="1" NCoef="0" IVar="-1" Cut="0.0000000000000000e+00" cType="1" res="-2.9858605936169624e-02" rms="2.8663605451583862e-01" purity="1.3636198639869690e-01" nType="-99"/>
      </Node>
    </BinaryTree>
    <BinaryTree type="DecisionTree" boostWeight="1.0000000000000000e+00" itree="121">
      <Node pos="s" depth="0" NCoef="0" IVar="9" Cut="-3.9998027682304382e-01" cType="1" res="-2.5698994286358356e-03" rms="3.9001002907752991e-01" purity="4.9755531549453735e-01" nType="0">
        <Node pos="l" depth="1" NCoef="0" IVar="9" Cut="-5.1428347826004028e-01" cType="1" res="4.6555604785680771e-03" rms="3.9197558164596558e-01" purity="4.8391821980476379e-01" nType="0">
          <Node pos="l" depth="2" NCoef="0" IVar="7" Cut="-1.4662545919418335e+00" cType="1" res="1.9142666133120656e-03" rms="3.9167472720146179e-01" purity="4.7252514958381653e-01" nType="0">
            <Node pos="l" depth="3" NCoef="0" IVar="-1" Cut="0.0000000000000000e+00" cType="1" res="2.1497827023267746e-02" rms="3.5972553491592407e-01" purity="2.5280067324638367e-01" nType="-99"/>
            <Node pos="r" depth="3" NCoef="0" IVar="-1" Cut="0.0000000000000000e+00" cType="1" res="-9.4276404706761241e-04" rms="3.9572992920875549e-01" purity="5.0262528657913208e-01" nType="-99"/>
          </Node>
          <Node pos="r" depth="2" NCoef="0" IVar="-1" Cut="0.0000000000000000e+00" cType="1" res="1.9462388008832932e-02" rms="3.9387446641921997e-01" purity="5.9242296218872070e-01" nType="-99"/>
        </Node>
        <Node pos="r" depth="1" NCoef="0" IVar="9" Cut="6.6667789220809937e-01" cType="1" res="-6.9913086481392384e-03" rms="3.8873615860939026e-01" purity="5.0590014457702637e-01" nType="0">
          <Node pos="l" depth="2" NCoef="0" IVar="6" Cut="1.2183284759521484e+00" cType="1" res="-1.5849916264414787e-02" rms="3.8757160305976868e-01" purity="5.4594194889068604e-01" nType="0">
            <Node pos="l" depth="3" NCoef="0" IVar="-1" Cut="0.0000000000000000e+00" cType="1" res="-1.2572419829666615e-02" rms="3.8973605632781982e-01" purity="5.7248365879058838e-01" nType="-99"/>
            <Node pos="r" depth="3" NCoef="0" IVar="-1" Cut="0.0000000000000000e+00" cType="1" res="1.4058277010917664e-02" rms="3.6448317766189575e-01" purity="2.9342904686927795e-01" nType="-99"/>
          </Node>
          <Node pos="r" depth="2" NCoef="0" IVar="6" Cut="9.5142346620559692e-01" cType="1" res="2.1955966949462891e-03" rms="3.8972756266593933e-01" purity="4.6437448263168335e-01" nType="0">
            <Node pos="l" depth="3" NCoef="0" IVar="-1" Cut="0.0000000000000000e+00" cType="1" res="3.9433035999536514e-03" rms="3.9929440617561340e-01" purity="5.1804089546203613e-01" nType="-99"/>
            <Node pos="r" depth="3" NCoef="0" IVar="-1" Cut="0.0000000000000000e+00" cType="1" res="-1.0663109831511974e-02" rms="3.4922295808792114e-01" purity="2.5378826260566711e-01" nType="-99"/>
          </Node>
        </Node>
      </Node>
    </BinaryTree>
    <BinaryTree type="DecisionTree" boostWeight="1.0000000000000000e+00" itree="122">
      <Node pos="s" depth="0" NCoef="0" IVar="6" Cut="1.2070914506912231e+00" cType="1" res="-9.2890230007469654e-04" rms="3.9239016175270081e-01" purity="4.9640351533889771e-01" nType="0">
        <Node pos="l" depth="1" NCoef="0" IVar="8" Cut="9.3333548307418823e-01" cType="1" res="-3.4987882245332003e-03" rms="3.9646649360656738e-01" purity="5.2517753839492798e-01" nType="0">
          <Node pos="l" depth="2" NCoef="0" IVar="7" Cut="1.4665392637252808e+00" cType="1" res="-7.7670463360846043e-03" rms="3.9388185739517212e-01" purity="5.4341471195220947e-01" nType="0">
            <Node pos="l" depth="3" NCoef="0" IVar="-1" Cut="0.0000000000000000e+00" cType="1" res="-6.2722112052142620e-03" rms="3.9518797397613525e-01" purity="5.6274861097335815e-01" nType="-99"/>
            <Node pos="r" depth="3" NCoef="0" IVar="-1" Cut="0.0000000000000000e+00" cType="1" res="1.1696198023855686e-02" rms="3.7741774320602417e-01" purity="3.1742292642593384e-01" nType="-99"/>
          </Node>
          <Node pos="r" depth="2" NCoef="0" IVar="5" Cut="9.7024780273437500e+01" cType="1" res="1.2811053544282913e-02" rms="4.0577808022499084e-01" purity="4.5548978447914124e-01" nType="0">
            <Node pos="l" depth="3" NCoef="0" IVar="-1" Cut="0.0000000000000000e+00" cType="1" res="1.4600524678826332e-02" rms="4.1201934218406677e-01" purity="3.5161453485488892e-01" nType="-99"/>
            <Node pos="r" depth="3" NCoef="0" IVar="-1" Cut="0.0000000000000000e+00" cType="1" res="-6.0729291290044785e-03" rms="3.9120861887931824e-01" purity="6.7663359642028809e-01" nType="-99"/>
          </Node>
        </Node>
        <Node pos="r" depth="1" NCoef="0" IVar="9" Cut="9.3308395147323608e-01" cType="1" res="1.9661320373415947e-02" rms="3.5739207267761230e-01" purity="2.6586261391639709e-01" nType="0">
          <Node pos="l" depth="2" NCoef="0" IVar="7" Cut="3.9821010828018188e-01" cType="1" res="3.4405939280986786e-02" rms="3.7530505657196045e-01" purity="3.0133911967277527e-01" nType="0">
            <Node pos="l" depth="3" NCoef="0" IVar="-1" Cut="0.0000000000000000e+00" cType="1" res="3.6269906908273697e-02" rms="3.9260631799697876e-01" purity="3.1781566143035889e-01" nType="-99"/>
            <Node pos="r" depth="3" NCoef="0" IVar="-1" Cut="0.0000000000000000e+00" cType="1" res="8.1847636029124260e-03" rms="3.4301188588142395e-01" purity="2.7369448542594910e-01" nType="-99"/>
          </Node>
          <Node pos="r" depth="2" NCoef="0" IVar="-1" Cut="0.0000000000000000e+00" cType="1" res="-1.2481378391385078e-02" rms="3.1058496236801147e-01" purity="1.8567989766597748e-01" nType="-99"/>
        </Node>
      </Node>
    </BinaryTree>
    <BinaryTree type="DecisionTree" boostWeight="1.0000000000000000e+00" itree="123">
      <Node pos="s" depth="0" NCoef="0" IVar="5" Cut="1.4537655639648438e+02" cType="1" res="-1.0504126548767090e-03" rms="3.8948085904121399e-01" purity="4.9812176823616028e-01" nType="0">
        <Node pos="l" depth="1" NCoef="0" IVar="4" Cut="1.4122962951660156e+02" cType="1" res="-2.8554629534482956e-03" rms="3.9807778596878052e-01" purity="4.5058757066726685e-01" nType="0">
          <Node pos="l" depth="2" NCoef="0" IVar="5" Cut="1.0202875518798828e+02" cType="1" res="8.8298018090426922e-04" rms="3.9982640743255615e-01" purity="3.5512062907218933e-01" nType="0">
            <Node pos="l" depth="3" NCoef="0" IVar="-1" Cut="0.0000000000000000e+00" cType="1" res="-1.2165893567726016e-03" rms="3.9698693156242371e-01" purity="3.2022774219512939e-01" nType="-99"/>
            <Node pos="r" depth="3" NCoef="0" IVar="-1" Cut="0.0000000000000000e+00" cType="1" res="1.2677574530243874e-02" rms="4.2037999629974365e-01" purity="6.2314885854721069e-01" nType="-99"/>
          </Node>
          <Node pos="r" depth="2" NCoef="0" IVar="0" Cut="5.7809020996093750e+02" cType="1" res="-1.0621881112456322e-02" rms="3.9430701732635498e-01" purity="6.4891511201858521e-01" nType="0">
            <Node pos="l" depth="3" NCoef="0" IVar="-1" Cut="0.0000000000000000e+00" cType="1" res="-9.5346346497535706e-03" rms="4.1289681196212769e-01" purity="5.8408230543136597e-01" nType="-99"/>
            <Node pos="r" depth="3" NCoef="0" IVar="-1" Cut="0.0000000000000000e+00" cType="1" res="7.4984775856137276e-03" rms="3.2667875289916992e-01" purity="8.5754829645156860e-01" nType="-99"/>
          </Node>
        </Node>
        <Node pos="r" depth="1" NCoef="0" IVar="8" Cut="-6.6585022211074829e-01" cType="1" res="1.2177051045000553e-02" rms="3.1918889284133911e-01" purity="8.4645396471023560e-01" nType="0">
          <Node pos="l" depth="2" NCoef="0" IVar="-1" Cut="0.0000000000000000e+00" cType="1" res="-6.8594096228480339e-03" rms="3.2984274625778198e-01" purity="8.0768299102783203e-01" nType="-99"/>
          <Node pos="r" depth="2" NCoef="0" IVar="3" Cut="2.9425109863281250e+02" cType="1" res="1.8648546189069748e-02" rms="3.1544378399848938e-01" purity="8.5880899429321289e-01" nType="0">
            <Node pos="l" depth="3" NCoef="0" IVar="-1" Cut="0.0000000000000000e+00" cType="1" res="2.4021431803703308e-02" rms="3.1964838504791260e-01" purity="8.5674697160720825e-01" nType="-99"/>
            <Node pos="r" depth="3" NCoef="0" IVar="-1" Cut="0.0000000000000000e+00" cType="1" res="5.4262843914330006e-03" rms="3.0831834673881531e-01" purity="8.6202299594879150e-01" nType="-99"/>
          </Node>
        </Node>
      </Node>
    </BinaryTree>
    <BinaryTree type="DecisionTree" boostWeight="1.0000000000000000e+00" itree="124">
      <Node pos="s" depth="0" NCoef="0" IVar="6" Cut="-1.1653145551681519e+00" cType="1" res="2.9919089283794165e-03" rms="3.9183291792869568e-01" purity="5.0080645084381104e-01" nType="0">
        <Node pos="l" depth="1" NCoef="0" IVar="6" Cut="-1.3163652420043945e+00" cType="1" res="-9.5893656834959984e-03" rms="3.5717380046844482e-01" purity="2.5509148836135864e-01" nType="0">
          <Node pos="l" depth="2" NCoef="0" IVar="4" Cut="1.2850804138183594e+02" cType="1" res="-1.7359033226966858e-02" rms="3.4377577900886536e-01" purity="2.1012653410434723e-01" nType="0">
            <Node pos="l" depth="3" NCoef="0" IVar="-1" Cut="0.0000000000000000e+00" cType="1" res="-2.2966540418565273e-03" rms="3.0848941206932068e-01" purity="1.3855718076229095e-01" nType="-99"/>
            <Node pos="r" depth="3" NCoef="0" IVar="-1" Cut="0.0000000000000000e+00" cType="1" res="-2.5831568986177444e-02" rms="3.9739903807640076e-01" purity="3.3719903230667114e-01" nType="-99"/>
          </Node>
          <Node pos="r" depth="2" NCoef="0" IVar="-1" Cut="0.0000000000000000e+00" cType="1" res="8.8844224810600281e-03" rms="3.9479187130928040e-01" purity="3.9418953657150269e-01" nType="-99"/>
        </Node>
        <Node pos="r" depth="1" NCoef="0" IVar="9" Cut="1.2000002861022949e+00" cType="1" res="4.6043419279158115e-03" rms="3.9602679014205933e-01" purity="5.3229761123657227e-01" nType="0">
          <Node pos="l" depth="2" NCoef="0" IVar="6" Cut="1.6667855978012085e+00" cType="1" res="2.3660291917622089e-03" rms="3.9584970474243164e-01" purity="5.5036622285842896e-01" nType="0">
            <Node pos="l" depth="3" NCoef="0" IVar="-1" Cut="0.0000000000000000e+00" cType="1" res="6.3492893241345882e-04" rms="3.9797189831733704e-01" purity="5.6748884916305542e-01" nType="-99"/>
            <Node pos="r" depth="3" NCoef="0" IVar="-1" Cut="0.0000000000000000e+00" cType="1" res="2.4842675775289536e-02" rms="3.5217428207397461e-01" purity="2.2542320191860199e-01" nType="-99"/>
          </Node>
          <Node pos="r" depth="2" NCoef="0" IVar="5" Cut="9.0713066101074219e+01" cType="1" res="1.5130886808037758e-02" rms="3.9668920636177063e-01" purity="4.4732278585433960e-01" nType="0">
            <Node pos="l" depth="3" NCoef="0" IVar="-1" Cut="0.0000000000000000e+00" cType="1" res="1.6800157725811005e-02" rms="3.9474987983703613e-01" purity="3.5034149885177612e-01" nType="-99"/>
            <Node pos="r" depth="3" NCoef="0" IVar="-1" Cut="0.0000000000000000e+00" cType="1" res="-3.5631908103823662e-03" rms="3.9973554015159607e-01" purity="6.4189720153808594e-01" nType="-99"/>
          </Node>
        </Node>
      </Node>
    </BinaryTree>
    <BinaryTree type="DecisionTree" boostWeight="1.0000000000000000e+00" itree="125">
      <Node pos="s" depth="0" NCoef="0" IVar="6" Cut="-1.2024944275617599e-01" cType="1" res="4.1685597971081734e-03" rms="3.9122122526168823e-01" purity="5.0374180078506470e-01" nType="0">
        <Node pos="l" depth="1" NCoef="0" IVar="2" Cut="3.5189959716796875e+02" cType="1" res="1.4350813813507557e-02" rms="3.9250960946083069e-01" purity="5.0332969427108765e-01" nType="0">
          <Node pos="l" depth="2" NCoef="0" IVar="7" Cut="-1.3415174186229706e-01" cType="1" res="2.2650459781289101e-02" rms="4.0164765715599060e-01" purity="4.7593715786933899e-01" nType="0">
            <Node pos="l" depth="3" NCoef="0" IVar="-1" Cut="0.0000000000000000e+00" cType="1" res="6.3209105283021927e-03" rms="4.0131297707557678e-01" purity="4.4535815715789795e-01" nType="-99"/>
            <Node pos="r" depth="3" NCoef="0" IVar="-1" Cut="0.0000000000000000e+00" cType="1" res="2.1784113720059395e-02" rms="4.0157952904701233e-01" purity="5.0567048788070679e-01" nType="-99"/>
          </Node>
          <Node pos="r" depth="2" NCoef="0" IVar="4" Cut="9.4844429016113281e+01" cType="1" res="4.8733991570770741e-03" rms="3.8158679008483887e-01" purity="5.3460949659347534e-01" nType="0">
            <Node pos="l" depth="3" NCoef="0" IVar="-1" Cut="0.0000000000000000e+00" cType="1" res="-9.7656250000000000e-03" rms="3.6165979504585266e-01" purity="2.1695303916931152e-01" nType="-99"/>
            <Node pos="r" depth="3" NCoef="0" IVar="-1" Cut="0.0000000000000000e+00" cType="1" res="6.8880296312272549e-03" rms="3.8750404119491577e-01" purity="6.3519102334976196e-01" nType="-99"/>
          </Node>
        </Node>
        <Node pos="r" depth="1" NCoef="0" IVar="6" Cut="1.6873302459716797e+00" cType="1" res="-4.4452161528170109e-03" rms="3.8992038369178772e-01" purity="5.0409042835235596e-01" nType="0">
          <Node pos="l" depth="2" NCoef="0" IVar="6" Cut="1.2569456100463867e+00" cType="1" res="-2.0927549339830875e-03" rms="3.9722517132759094e-01" purity="5.3579765558242798e-01" nType="0">
            <Node pos="l" depth="3" NCoef="0" IVar="-1" Cut="0.0000000000000000e+00" cType="1" res="-3.1762414146214724e-03" rms="3.9914479851722717e-01" purity="5.6389635801315308e-01" nType="-99"/>
            <Node pos="r" depth="3" NCoef="0" IVar="-1" Cut="0.0000000000000000e+00" cType="1" res="1.5796003863215446e-02" rms="3.8048553466796875e-01" purity="3.0848032236099243e-01" nType="-99"/>
          </Node>
          <Node pos="r" depth="2" NCoef="0" IVar="-1" Cut="0.0000000000000000e+00" cType="1" res="-2.9599156230688095e-02" rms="2.9171752929687500e-01" purity="1.3935320079326630e-01" nType="-99"/>
        </Node>
      </Node>
    </BinaryTree>
    <BinaryTree type="DecisionTree" boostWeight="1.0000000000000000e+00" itree="126">
      <Node pos="s" depth="0" NCoef="0" IVar="7" Cut="-1.7333588600158691e+00" cType="1" res="-2.9619999695569277e-03" rms="3.8857302069664001e-01" purity="4.9663305282592773e-01" nType="0">
        <Node pos="l" depth="1" NCoef="0" IVar="9" Cut="-1.3396790623664856e-01" cType="1" res="-2.8350429609417915e-02" rms="3.2730221748352051e-01" purity="1.8744464218616486e-01" nType="0">
          <Node pos="l" depth="2" NCoef="0" IVar="-1" Cut="0.0000000000000000e+00" cType="1" res="-2.1498383954167366e-02" rms="3.2572531700134277e-01" purity="1.7367610335350037e-01" nType="-99"/>
          <Node pos="r" depth="2" NCoef="0" IVar="-1" Cut="0.0000000000000000e+00" cType="1" res="-2.5098262354731560e-02" rms="3.2901081442832947e-01" purity="2.0276673138141632e-01" nType="-99"/>
        </Node>
        <Node pos="r" depth="1" NCoef="0" IVar="1" Cut="1.3539428710937500e+03" cType="1" res="-1.4607717748731375e-03" rms="3.9184463024139404e-01" purity="5.1491546630859375e-01" nType="0">
          <Node pos="l" depth="2" NCoef="0" IVar="2" Cut="2.2631176757812500e+02" cType="1" res="-5.2165254019200802e-03" rms="4.0748757123947144e-01" purity="3.6449250578880310e-01" nType="0">
            <Node pos="l" depth="3" NCoef="0" IVar="-1" Cut="0.0000000000000000e+00" cType="1" res="1.1783852241933346e-02" rms="4.3272426724433899e-01" purity="3.9969792962074280e-01" nType="-99"/>
            <Node pos="r" depth="3" NCoef="0" IVar="-1" Cut="0.0000000000000000e+00" cType="1" res="-5.5075162090361118e-03" rms="4.0331941843032837e-01" purity="3.5907390713691711e-01" nType="-99"/>
          </Node>
          <Node pos="r" depth="2" NCoef="0" IVar="6" Cut="1.2306374311447144e+00" cType="1" res="3.9875176735222340e-03" rms="3.6790388822555542e-01" purity="7.3312681913375854e-01" nType="0">
            <Node pos="l" depth="3" NCoef="0" IVar="-1" Cut="0.0000000000000000e+00" cType="1" res="1.4548945473507047e-03" rms="3.6364769935607910e-01" purity="7.4899822473526001e-01" nType="-99"/>
            <Node pos="r" depth="3" NCoef="0" IVar="-1" Cut="0.0000000000000000e+00" cType="1" res="1.7444144934415817e-02" rms="4.2073211073875427e-01" purity="5.1672279834747314e-01" nType="-99"/>
          </Node>
        </Node>
      </Node>
    </BinaryTree>
    <BinaryTree type="DecisionTree" boostWeight="1.0000000000000000e+00" itree="127">
      <Node pos="s" depth="0" NCoef="0" IVar="6" Cut="-1.2023095786571503e-01" cType="1" res="4.8446390428580344e-04" rms="3.8987496495246887e-01" purity="5.0038766860961914e-01" nType="0">
        <Node pos="l" depth="1" NCoef="0" IVar="9" Cut="-1.7331635951995850e+00" cType="1" res="-6.1073852702975273e-03" rms="3.8857135176658630e-01" purity="4.8423740267753601e-01" nType="0">
          <Node pos="l" depth="2" NCoef="0" IVar="-1" Cut="0.0000000000000000e+00" cType="1" res="9.9118752405047417e-03" rms="3.7274891138076782e-01" purity="3.5505685210227966e-01" nType="-99"/>
          <Node pos="r" depth="2" NCoef="0" IVar="9" Cut="-6.5384143590927124e-01" cType="1" res="-8.2807317376136780e-03" rms="3.9014628529548645e-01" purity="4.9791869521141052e-01" nType="0">
            <Node pos="l" depth="3" NCoef="0" IVar="-1" Cut="0.0000000000000000e+00" cType="1" res="-1.5814349055290222e-02" rms="3.8732951879501343e-01" purity="4.5471295714378357e-01" nType="-99"/>
            <Node pos="r" depth="3" NCoef="0" IVar="-1" Cut="0.0000000000000000e+00" cType="1" res="-1.6616258071735501e-03" rms="3.9100173115730286e-01" purity="5.1351284980773926e-01" nType="-99"/>
          </Node>
        </Node>
        <Node pos="r" depth="1" NCoef="0" IVar="7" Cut="-6.6667419672012329e-01" cType="1" res="5.7795969769358635e-03" rms="3.9083847403526306e-01" purity="5.1336097717285156e-01" nType="0">
          <Node pos="l" depth="2" NCoef="0" IVar="9" Cut="-1.3333249092102051e-01" cType="1" res="-8.8437516242265701e-03" rms="3.8153675198554993e-01" purity="4.0871664881706238e-01" nType="0">
            <Node pos="l" depth="3" NCoef="0" IVar="-1" Cut="0.0000000000000000e+00" cType="1" res="-2.1129518747329712e-02" rms="3.7791484594345093e-01" purity="3.7173253297805786e-01" nType="-99"/>
            <Node pos="r" depth="3" NCoef="0" IVar="-1" Cut="0.0000000000000000e+00" cType="1" res="6.9898003712296486e-03" rms="3.8361844420433044e-01" purity="4.4093582034111023e-01" nType="-99"/>
          </Node>
          <Node pos="r" depth="2" NCoef="0" IVar="0" Cut="4.3904656982421875e+02" cType="1" res="1.0487305931746960e-02" rms="3.9367064833641052e-01" purity="5.4704928398132324e-01" nType="0">
            <Node pos="l" depth="3" NCoef="0" IVar="-1" Cut="0.0000000000000000e+00" cType="1" res="1.2339417822659016e-02" rms="4.0952363610267639e-01" purity="4.0928590297698975e-01" nType="-99"/>
            <Node pos="r" depth="3" NCoef="0" IVar="-1" Cut="0.0000000000000000e+00" cType="1" res="-1.6391471726819873e-03" rms="3.7208366394042969e-01" purity="7.2274637222290039e-01" nType="-99"/>
          </Node>
        </Node>
      </Node>
    </BinaryTree>
    <BinaryTree type="DecisionTree" boostWeight="1.0000000000000000e+00" itree="128">
      <Node pos="s" depth="0" NCoef="0" IVar="1" Cut="1.1200286865234375e+03" cType="1" res="-1.4227459905669093e-03" rms="3.8945275545120239e-01" purity="4.9857008457183838e-01" nType="0">
        <Node pos="l" depth="1" NCoef="0" IVar="1" Cut="1.0438277587890625e+03" cType="1" res="-1.2595388107001781e-02" rms="3.7893944978713989e-01" purity="2.3578366637229919e-01" nType="0">
          <Node pos="l" depth="2" NCoef="0" IVar="7" Cut="-4.0059319138526917e-01" cType="1" res="-1.9541563466191292e-02" rms="3.5864827036857605e-01" purity="1.8506748974323273e-01" nType="0">
            <Node pos="l" depth="3" NCoef="0" IVar="-1" Cut="0.0000000000000000e+00" cType="1" res="-2.2856849245727062e-03" rms="3.4625348448753357e-01" purity="1.7551401257514954e-01" nType="-99"/>
            <Node pos="r" depth="3" NCoef="0" IVar="-1" Cut="0.0000000000000000e+00" cType="1" res="-2.0899366587400436e-02" rms="3.6580929160118103e-01" purity="1.9105163216590881e-01" nType="-99"/>
          </Node>
          <Node pos="r" depth="2" NCoef="0" IVar="7" Cut="-1.3460008800029755e-01" cType="1" res="4.1233575902879238e-03" rms="4.2334663867950439e-01" purity="3.5785248875617981e-01" nType="0">
            <Node pos="l" depth="3" NCoef="0" IVar="-1" Cut="0.0000000000000000e+00" cType="1" res="-7.1139945648610592e-03" rms="4.1639077663421631e-01" purity="3.2070532441139221e-01" nType="-99"/>
            <Node pos="r" depth="3" NCoef="0" IVar="-1" Cut="0.0000000000000000e+00" cType="1" res="9.7313439473509789e-03" rms="4.2851421236991882e-01" purity="3.8841721415519714e-01" nType="-99"/>
          </Node>
        </Node>
        <Node pos="r" depth="1" NCoef="0" IVar="4" Cut="1.0495019531250000e+02" cType="1" res="4.2335921898484230e-03" rms="3.9454790949821472e-01" purity="6.3161015510559082e-01" nType="0">
          <Node pos="l" depth="2" NCoef="0" IVar="8" Cut="9.3324780464172363e-01" cType="1" res="2.2387454286217690e-02" rms="4.3161913752555847e-01" purity="4.0965336561203003e-01" nType="0">
            <Node pos="l" depth="3" NCoef="0" IVar="-1" Cut="0.0000000000000000e+00" cType="1" res="6.6040931269526482e-03" rms="4.3586209416389465e-01" purity="4.1365423798561096e-01" nType="-99"/>
            <Node pos="r" depth="3" NCoef="0" IVar="-1" Cut="0.0000000000000000e+00" cType="1" res="3.2434403896331787e-02" rms="4.1735199093818665e-01" purity="3.9788696169853210e-01" nType="-99"/>
          </Node>
          <Node pos="r" depth="2" NCoef="0" IVar="8" Cut="-9.3336182832717896e-01" cType="1" res="-3.0934152891859412e-04" rms="3.8457852602005005e-01" purity="6.8715387582778931e-01" nType="0">
            <Node pos="l" depth="3" NCoef="0" IVar="-1" Cut="0.0000000000000000e+00" cType="1" res="-1.2746149674057961e-02" rms="3.9550307393074036e-01" purity="5.9310609102249146e-01" nType="-99"/>
            <Node pos="r" depth="3" NCoef="0" IVar="-1" Cut="0.0000000000000000e+00" cType="1" res="2.8412078972905874e-03" rms="3.8192370533943176e-01" purity="7.0836627483367920e-01" nType="-99"/>
          </Node>
        </Node>
      </Node>
    </BinaryTree>
    <BinaryTree type="DecisionTree" boostWeight="1.0000000000000000e+00" itree="129">
      <Node pos="s" depth="0" NCoef="0" IVar="3" Cut="1.4429158020019531e+02" cType="1" res="2.4154444690793753e-04" rms="3.8816913962364197e-01" purity="4.9981284141540527e-01" nType="0">
        <Node pos="l" depth="1" NCoef="0" IVar="8" Cut="-9.3336051702499390e-01" cType="1" res="9.4089675694704056e-03" rms="3.7974455952644348e-01" purity="2.4739897251129150e-01" nType="0">
          <Node pos="l" depth="2" NCoef="0" IVar="7" Cut="-4.0046170353889465e-01" cType="1" res="-1.2754455208778381e-02" rms="3.3193382620811462e-01" purity="1.6784591972827911e-01" nType="0">
            <Node pos="l" depth="3" NCoef="0" IVar="-1" Cut="0.0000000000000000e+00" cType="1" res="-4.2732469737529755e-02" rms="2.8133213520050049e-01" purity="1.1017550528049469e-01" nType="-99"/>
            <Node pos="r" depth="3" NCoef="0" IVar="-1" Cut="0.0000000000000000e+00" cType="1" res="9.6024265512824059e-03" rms="3.6506259441375732e-01" purity="2.1337960660457611e-01" nType="-99"/>
          </Node>
          <Node pos="r" depth="2" NCoef="0" IVar="7" Cut="-4.0004774928092957e-01" cType="1" res="1.6533771529793739e-02" rms="3.9361840486526489e-01" purity="2.7297264337539673e-01" nType="0">
            <Node pos="l" depth="3" NCoef="0" IVar="-1" Cut="0.0000000000000000e+00" cType="1" res="2.7847349643707275e-02" rms="3.9636924862861633e-01" purity="2.8047469258308411e-01" nType="-99"/>
            <Node pos="r" depth="3" NCoef="0" IVar="-1" Cut="0.0000000000000000e+00" cType="1" res="2.3035858757793903e-03" rms="3.9142155647277832e-01" purity="2.6862341165542603e-01" nType="-99"/>
          </Node>
        </Node>
        <Node pos="r" depth="1" NCoef="0" IVar="9" Cut="-1.1999946832656860e+00" cType="1" res="-2.6308468077331781e-03" rms="3.9072716236114502e-01" purity="5.7890063524246216e-01" nType="0">
          <Node pos="l" depth="2" NCoef="0" IVar="8" Cut="6.6754907369613647e-01" cType="1" res="1.1579424142837524e-02" rms="3.9607489109039307e-01" purity="5.0705260038375854e-01" nType="0">
            <Node pos="l" depth="3" NCoef="0" IVar="-1" Cut="0.0000000000000000e+00" cType="1" res="1.2072379700839520e-02" rms="3.9435860514640808e-01" purity="5.2929890155792236e-01" nType="-99"/>
            <Node pos="r" depth="3" NCoef="0" IVar="-1" Cut="0.0000000000000000e+00" cType="1" res="-1.0258273221552372e-02" rms="4.0088668465614319e-01" purity="4.2675688862800598e-01" nType="-99"/>
          </Node>
          <Node pos="r" depth="2" NCoef="0" IVar="5" Cut="8.5090904235839844e+01" cType="1" res="-5.5247354321181774e-03" rms="3.8956558704376221e-01" purity="5.9353232383728027e-01" nType="0">
            <Node pos="l" depth="3" NCoef="0" IVar="-1" Cut="0.0000000000000000e+00" cType="1" res="-9.1439895331859589e-03" rms="4.1288679838180542e-01" purity="4.1332310438156128e-01" nType="-99"/>
            <Node pos="r" depth="3" NCoef="0" IVar="-1" Cut="0.0000000000000000e+00" cType="1" res="1.4920356916263700e-03" rms="3.7122198939323425e-01" purity="7.2659671306610107e-01" nType="-99"/>
          </Node>
        </Node>
      </Node>
    </BinaryTree>
    <BinaryTree type="DecisionTree" boostWeight="1.0000000000000000e+00" itree="130">
      <Node pos="s" depth="0" NCoef="0" IVar="8" Cut="1.3332903385162354e-01" cType="1" res="5.7907641166821122e-04" rms="3.8858038187026978e-01" purity="5.0109559297561646e-01" nType="0">
        <Node pos="l" depth="1" NCoef="0" IVar="9" Cut="-1.3320735096931458e-01" cType="1" res="6.3964240252971649e-03" rms="3.9134955406188965e-01" purity="5.1110857725143433e-01" nType="0">
          <Node pos="l" depth="2" NCoef="0" IVar="7" Cut="-4.0013167262077332e-01" cType="1" res="-4.4939941726624966e-03" rms="3.8674205541610718e-01" purity="4.7696328163146973e-01" nType="0">
            <Node pos="l" depth="3" NCoef="0" IVar="-1" Cut="0.0000000000000000e+00" cType="1" res="-1.1514956131577492e-02" rms="3.7915372848510742e-01" purity="3.9849102497100830e-01" nType="-99"/>
            <Node pos="r" depth="3" NCoef="0" IVar="-1" Cut="0.0000000000000000e+00" cType="1" res="3.0269504059106112e-03" rms="3.9193767309188843e-01" purity="5.3426623344421387e-01" nType="-99"/>
          </Node>
          <Node pos="r" depth="2" NCoef="0" IVar="0" Cut="5.5525360107421875e+02" cType="1" res="1.6668939962983131e-02" rms="3.9537164568901062e-01" purity="5.4331660270690918e-01" nType="0">
            <Node pos="l" depth="3" NCoef="0" IVar="-1" Cut="0.0000000000000000e+00" cType="1" res="1.3215391896665096e-02" rms="4.0591460466384888e-01" purity="4.7498407959938049e-01" nType="-99"/>
            <Node pos="r" depth="3" NCoef="0" IVar="-1" Cut="0.0000000000000000e+00" cType="1" res="-2.0303961355239153e-03" rms="3.5159358382225037e-01" purity="8.0408453941345215e-01" nType="-99"/>
          </Node>
        </Node>
        <Node pos="r" depth="1" NCoef="0" IVar="1" Cut="1.6287131347656250e+03" cType="1" res="-6.3878502696752548e-03" rms="3.8512217998504639e-01" purity="4.8910391330718994e-01" nType="0">
          <Node pos="l" depth="2" NCoef="0" IVar="8" Cut="3.8730284571647644e-01" cType="1" res="-1.1031712405383587e-02" rms="3.9554303884506226e-01" purity="4.1609948873519897e-01" nType="0">
            <Node pos="l" depth="3" NCoef="0" IVar="-1" Cut="0.0000000000000000e+00" cType="1" res="-2.0333763211965561e-02" rms="3.9766117930412292e-01" purity="4.8340180516242981e-01" nType="-99"/>
            <Node pos="r" depth="3" NCoef="0" IVar="-1" Cut="0.0000000000000000e+00" cType="1" res="-3.8751077372580767e-03" rms="3.9491894841194153e-01" purity="4.0182861685752869e-01" nType="-99"/>
          </Node>
          <Node pos="r" depth="2" NCoef="0" IVar="8" Cut="1.0222210884094238e+00" cType="1" res="1.2666789814829826e-02" rms="3.3835959434509277e-01" purity="7.8865474462509155e-01" nType="0">
            <Node pos="l" depth="3" NCoef="0" IVar="-1" Cut="0.0000000000000000e+00" cType="1" res="1.8902897834777832e-02" rms="3.2421508431434631e-01" purity="8.3139479160308838e-01" nType="-99"/>
            <Node pos="r" depth="3" NCoef="0" IVar="-1" Cut="0.0000000000000000e+00" cType="1" res="-5.8545549400150776e-03" rms="3.6554005742073059e-01" purity="6.9837439060211182e-01" nType="-99"/>
          </Node>
        </Node>
      </Node>
    </BinaryTree>
    <BinaryTree type="DecisionTree" boostWeight="1.0000000000000000e+00" itree="131">
      <Node pos="s" depth="0" NCoef="0" IVar="7" Cut="3.9993354678153992e-01" cType="1" res="-3.3092917874455452e-04" rms="3.8736149668693542e-01" purity="5.0040763616561890e-01" nType="0">
        <Node pos="l" depth="1" NCoef="0" IVar="1" Cut="1.0998944091796875e+03" cType="1" res="3.9563411846756935e-03" rms="3.9010140299797058e-01" purity="5.2900677919387817e-01" nType="0">
          <Node pos="l" depth="2" NCoef="0" IVar="1" Cut="1.0141984863281250e+03" cType="1" res="1.3490683399140835e-02" rms="3.9722481369972229e-01" purity="2.6001170277595520e-01" nType="0">
            <Node pos="l" depth="3" NCoef="0" IVar="-1" Cut="0.0000000000000000e+00" cType="1" res="-7.5885596743319184e-05" rms="3.7174531817436218e-01" purity="1.9475957751274109e-01" nType="-99"/>
            <Node pos="r" depth="3" NCoef="0" IVar="-1" Cut="0.0000000000000000e+00" cType="1" res="2.0860632881522179e-02" rms="4.3702137470245361e-01" purity="3.7351259589195251e-01" nType="-99"/>
          </Node>
          <Node pos="r" depth="2" NCoef="0" IVar="3" Cut="1.4728408813476562e+02" cType="1" res="-1.4000121154822409e-04" rms="3.8692849874496460e-01" purity="6.4457803964614868e-01" nType="0">
            <Node pos="l" depth="3" NCoef="0" IVar="-1" Cut="0.0000000000000000e+00" cType="1" res="-1.0833647102117538e-02" rms="4.1679918766021729e-01" purity="3.9929819107055664e-01" nType="-99"/>
            <Node pos="r" depth="3" NCoef="0" IVar="-1" Cut="0.0000000000000000e+00" cType="1" res="1.3492060825228691e-03" rms="3.8338476419448853e-01" purity="6.7197889089584351e-01" nType="-99"/>
          </Node>
        </Node>
        <Node pos="r" depth="1" NCoef="0" IVar="4" Cut="1.3190666198730469e+02" cType="1" res="-8.2636550068855286e-03" rms="3.8211318850517273e-01" purity="4.4749066233634949e-01" nType="0">
          <Node pos="l" depth="2" NCoef="0" IVar="3" Cut="1.3090934753417969e+02" cType="1" res="-1.8114866688847542e-02" rms="3.7758144736289978e-01" purity="2.8135332465171814e-01" nType="0">
            <Node pos="l" depth="3" NCoef="0" IVar="-1" Cut="0.0000000000000000e+00" cType="1" res="-2.4032902438193560e-03" rms="3.4655669331550598e-01" purity="1.9071537256240845e-01" nType="-99"/>
            <Node pos="r" depth="3" NCoef="0" IVar="-1" Cut="0.0000000000000000e+00" cType="1" res="-1.6226423904299736e-02" rms="3.9330351352691650e-01" purity="3.3103263378143311e-01" nType="-99"/>
          </Node>
          <Node pos="r" depth="2" NCoef="0" IVar="4" Cut="2.0596107482910156e+02" cType="1" res="4.0856990963220596e-03" rms="3.8736560940742493e-01" purity="6.5575838088989258e-01" nType="0">
            <Node pos="l" depth="3" NCoef="0" IVar="-1" Cut="0.0000000000000000e+00" cType="1" res="6.7741437815129757e-03" rms="3.9378750324249268e-01" purity="6.2877744436264038e-01" nType="-99"/>
            <Node pos="r" depth="3" NCoef="0" IVar="-1" Cut="0.0000000000000000e+00" cType="1" res="-1.0116529650986195e-02" rms="3.6927691102027893e-01" purity="7.2697299718856812e-01" nType="-99"/>
          </Node>
        </Node>
      </Node>
    </BinaryTree>
    <BinaryTree type="DecisionTree" boostWeight="1.0000000000000000e+00" itree="132">
      <Node pos="s" depth="0" NCoef="0" IVar="9" Cut="3.9999842643737793e-01" cType="1" res="1.1172614758834243e-03" rms="3.8945645093917847e-01" purity="5.0217908620834351e-01" nType="0">
        <Node pos="l" depth="1" NCoef="0" IVar="9" Cut="-6.6667187213897705e-01" cType="1" res="-2.5775867979973555e-03" rms="3.8978472352027893e-01" purity="5.0795680284500122e-01" nType="0">
          <Node pos="l" depth="2" NCoef="0" IVar="6" Cut="-1.1578360795974731e+00" cType="1" res="5.7267374359071255e-03" rms="3.8994464278221130e-01" purity="4.6621206402778625e-01" nType="0">
            <Node pos="l" depth="3" NCoef="0" IVar="-1" Cut="0.0000000000000000e+00" cType="1" res="-1.5156257897615433e-02" rms="3.2620897889137268e-01" purity="2.0577795803546906e-01" nType="-99"/>
            <Node pos="r" depth="3" NCoef="0" IVar="-1" Cut="0.0000000000000000e+00" cType="1" res="6.2064132653176785e-03" rms="3.9949131011962891e-01" purity="5.0987482070922852e-01" nType="-99"/>
          </Node>
          <Node pos="r" depth="2" NCoef="0" IVar="1" Cut="1.4400942382812500e+03" cType="1" res="-1.0545299388468266e-02" rms="3.8946482539176941e-01" purity="5.4800945520401001e-01" nType="0">
            <Node pos="l" depth="3" NCoef="0" IVar="-1" Cut="0.0000000000000000e+00" cType="1" res="-1.0483824647963047e-02" rms="4.1152206063270569e-01" purity="4.0964615345001221e-01" nType="-99"/>
            <Node pos="r" depth="3" NCoef="0" IVar="-1" Cut="0.0000000000000000e+00" cType="1" res="1.6456077573820949e-03" rms="3.4728801250457764e-01" purity="7.8940999507904053e-01" nType="-99"/>
          </Node>
        </Node>
        <Node pos="r" depth="1" NCoef="0" IVar="7" Cut="1.7330365180969238e+00" cType="1" res="7.0362426340579987e-03" rms="3.8885676860809326e-01" purity="4.9292349815368652e-01" nType="0">
          <Node pos="l" depth="2" NCoef="0" IVar="9" Cut="1.4285660982131958e+00" cType="1" res="9.2424713075160980e-03" rms="3.9445456862449646e-01" purity="5.1768249273300171e-01" nType="0">
            <Node pos="l" depth="3" NCoef="0" IVar="-1" Cut="0.0000000000000000e+00" cType="1" res="3.1087703537195921e-03" rms="3.9221343398094177e-01" purity="5.5666261911392212e-01" nType="-99"/>
            <Node pos="r" depth="3" NCoef="0" IVar="-1" Cut="0.0000000000000000e+00" cType="1" res="1.1327418498694897e-02" rms="3.9873498678207397e-01" purity="4.4005706906318665e-01" nType="-99"/>
          </Node>
          <Node pos="r" depth="2" NCoef="0" IVar="-1" Cut="0.0000000000000000e+00" cType="1" res="-2.1888801828026772e-02" rms="2.9950013756752014e-01" purity="1.5122342109680176e-01" nType="-99"/>
        </Node>
      </Node>
    </BinaryTree>
    <BinaryTree type="DecisionTree" boostWeight="1.0000000000000000e+00" itree="133">
      <Node pos="s" depth="0" NCoef="0" IVar="9" Cut="-1.7332998514175415e+00" cType="1" res="9.3314847617875785e-05" rms="3.8962131738662720e-01" purity="4.9914273619651794e-01" nType="0">
        <Node pos="l" depth="1" NCoef="0" IVar="7" Cut="-1.3356938958168030e-01" cType="1" res="-1.9170287996530533e-02" rms="3.7834301590919495e-01" purity="3.3497682213783264e-01" nType="0">
          <Node pos="l" depth="2" NCoef="0" IVar="-1" Cut="0.0000000000000000e+00" cType="1" res="-4.4054287718608975e-04" rms="3.8067558407783508e-01" purity="3.3487850427627563e-01" nType="-99"/>
          <Node pos="r" depth="2" NCoef="0" IVar="-1" Cut="0.0000000000000000e+00" cType="1" res="-2.6325946673750877e-02" rms="3.7467101216316223e-01" purity="3.3508586883544922e-01" nType="-99"/>
        </Node>
        <Node pos="r" depth="1" NCoef="0" IVar="9" Cut="-1.0856810808181763e+00" cType="1" res="1.8140078755095601e-03" rms="3.9056664705276489e-01" purity="5.1380658149719238e-01" nType="0">
          <Node pos="l" depth="2" NCoef="0" IVar="5" Cut="1.0591063690185547e+02" cType="1" res="1.7821881920099258e-02" rms="4.0269431471824646e-01" purity="4.7703164815902710e-01" nType="0">
            <Node pos="l" depth="3" NCoef="0" IVar="-1" Cut="0.0000000000000000e+00" cType="1" res="1.8654631450772285e-02" rms="4.1099163889884949e-01" purity="4.0095609426498413e-01" nType="-99"/>
            <Node pos="r" depth="3" NCoef="0" IVar="-1" Cut="0.0000000000000000e+00" cType="1" res="-1.2065968476235867e-02" rms="3.7407514452934265e-01" purity="7.0914149284362793e-01" nType="-99"/>
          </Node>
          <Node pos="r" depth="2" NCoef="0" IVar="9" Cut="-7.1561723947525024e-01" cType="1" res="-3.9009322063066065e-04" rms="3.8881558179855347e-01" purity="5.1887011528015137e-01" nType="0">
            <Node pos="l" depth="3" NCoef="0" IVar="-1" Cut="0.0000000000000000e+00" cType="1" res="-1.0704687796533108e-02" rms="3.9021670818328857e-01" purity="5.1424264907836914e-01" nType="-99"/>
            <Node pos="r" depth="3" NCoef="0" IVar="-1" Cut="0.0000000000000000e+00" cType="1" res="1.0229935869574547e-03" rms="3.8859641551971436e-01" purity="5.1944601535797119e-01" nType="-99"/>
          </Node>
        </Node>
      </Node>
    </BinaryTree>
    <BinaryTree type="DecisionTree" boostWeight="1.0000000000000000e+00" itree="134">
      <Node pos="s" depth="0" NCoef="0" IVar="7" Cut="9.3335062265396118e-01" cType="1" res="5.1274819998070598e-04" rms="3.8995522260665894e-01" purity="5.0045651197433472e-01" nType="0">
        <Node pos="l" depth="1" NCoef="0" IVar="9" Cut="-2.2666587829589844e+00" cType="1" res="-2.4555251002311707e-03" rms="3.9194619655609131e-01" purity="5.3195393085479736e-01" nType="0">
          <Node pos="l" depth="2" NCoef="0" IVar="-1" Cut="0.0000000000000000e+00" cType="1" res="2.4279097095131874e-02" rms="4.0055394172668457e-01" purity="3.6560735106468201e-01" nType="-99"/>
          <Node pos="r" depth="2" NCoef="0" IVar="7" Cut="-2.0887911319732666e+00" cType="1" res="-3.7708515301346779e-03" rms="3.9158669114112854e-01" purity="5.3751993179321289e-01" nType="0">
            <Node pos="l" depth="3" NCoef="0" IVar="-1" Cut="0.0000000000000000e+00" cType="1" res="-3.3456914126873016e-02" rms="2.9428911209106445e-01" purity="1.5151952207088470e-01" nType="-99"/>
            <Node pos="r" depth="3" NCoef="0" IVar="-1" Cut="0.0000000000000000e+00" cType="1" res="-1.6616176581010222e-03" rms="3.9450058341026306e-01" purity="5.5100429058074951e-01" nType="-99"/>
          </Node>
        </Node>
        <Node pos="r" depth="1" NCoef="0" IVar="8" Cut="-1.2000237703323364e+00" cType="1" res="1.2860584072768688e-02" rms="3.8131353259086609e-01" purity="3.6942937970161438e-01" nType="0">
          <Node pos="l" depth="2" NCoef="0" IVar="-1" Cut="0.0000000000000000e+00" cType="1" res="3.9242766797542572e-02" rms="3.7635445594787598e-01" purity="3.0571767687797546e-01" nType="-99"/>
          <Node pos="r" depth="2" NCoef="0" IVar="2" Cut="4.2242892456054688e+02" cType="1" res="6.1145005747675896e-03" rms="3.8179463148117065e-01" purity="3.8076379895210266e-01" nType="0">
            <Node pos="l" depth="3" NCoef="0" IVar="-1" Cut="0.0000000000000000e+00" cType="1" res="1.2274369597434998e-02" rms="3.8813516497612000e-01" purity="3.8485911488533020e-01" nType="-99"/>
            <Node pos="r" depth="3" NCoef="0" IVar="-1" Cut="0.0000000000000000e+00" cType="1" res="-1.9303301349282265e-02" rms="3.6085084080696106e-01" purity="3.6905232071876526e-01" nType="-99"/>
          </Node>
        </Node>
      </Node>
    </BinaryTree>
    <BinaryTree type="DecisionTree" boostWeight="1.0000000000000000e+00" itree="135">
      <Node pos="s" depth="0" NCoef="0" IVar="7" Cut="-1.3327915966510773e-01" cType="1" res="1.0829962557181716e-03" rms="3.9081633090972900e-01" purity="4.9929070472717285e-01" nType="0">
        <Node pos="l" depth="1" NCoef="0" IVar="6" Cut="6.7610859870910645e-01" cType="1" res="7.7104843221604824e-03" rms="3.9205843210220337e-01" purity="4.9219360947608948e-01" nType="0">
          <Node pos="l" depth="2" NCoef="0" IVar="6" Cut="1.8812173977494240e-02" cType="1" res="1.3257463462650776e-02" rms="3.9885416626930237e-01" purity="5.2916866540908813e-01" nType="0">
            <Node pos="l" depth="3" NCoef="0" IVar="-1" Cut="0.0000000000000000e+00" cType="1" res="3.6607403308153152e-03" rms="3.9366900920867920e-01" purity="4.8763179779052734e-01" nType="-99"/>
            <Node pos="r" depth="3" NCoef="0" IVar="-1" Cut="0.0000000000000000e+00" cType="1" res="1.8447164446115494e-02" rms="4.0949836373329163e-01" purity="6.2019121646881104e-01" nType="-99"/>
          </Node>
          <Node pos="r" depth="2" NCoef="0" IVar="7" Cut="-8.9519196748733521e-01" cType="1" res="-1.2768135406076908e-02" rms="3.6514890193939209e-01" purity="3.5568726062774658e-01" nType="0">
            <Node pos="l" depth="3" NCoef="0" IVar="-1" Cut="0.0000000000000000e+00" cType="1" res="-3.1266160309314728e-02" rms="3.2780116796493530e-01" purity="2.1023994684219360e-01" nType="-99"/>
            <Node pos="r" depth="3" NCoef="0" IVar="-1" Cut="0.0000000000000000e+00" cType="1" res="5.5080647580325603e-03" rms="3.9211654663085938e-01" purity="4.7613298892974854e-01" nType="-99"/>
          </Node>
        </Node>
        <Node pos="r" depth="1" NCoef="0" IVar="8" Cut="1.1999297142028809e+00" cType="1" res="-4.4018160551786423e-03" rms="3.8970020413398743e-01" purity="5.0516414642333984e-01" nType="0">
          <Node pos="l" depth="2" NCoef="0" IVar="8" Cut="-1.0857486724853516e+00" cType="1" res="-1.0110404342412949e-02" rms="3.8876456022262573e-01" purity="5.2953541278839111e-01" nType="0">
            <Node pos="l" depth="3" NCoef="0" IVar="-1" Cut="0.0000000000000000e+00" cType="1" res="-1.9621862098574638e-02" rms="3.7702569365501404e-01" purity="3.7744253873825073e-01" nType="-99"/>
            <Node pos="r" depth="3" NCoef="0" IVar="-1" Cut="0.0000000000000000e+00" cType="1" res="-3.7072016857564449e-03" rms="3.9129093289375305e-01" purity="5.6459736824035645e-01" nType="-99"/>
          </Node>
          <Node pos="r" depth="2" NCoef="0" IVar="8" Cut="1.8856507539749146e+00" cType="1" res="2.3077430203557014e-02" rms="3.9301446080207825e-01" purity="3.8784903287887573e-01" nType="0">
            <Node pos="l" depth="3" NCoef="0" IVar="-1" Cut="0.0000000000000000e+00" cType="1" res="2.2719273343682289e-02" rms="4.0338510274887085e-01" purity="4.4979241490364075e-01" nType="-99"/>
            <Node pos="r" depth="3" NCoef="0" IVar="-1" Cut="0.0000000000000000e+00" cType="1" res="-2.1900376304984093e-03" rms="3.6995995044708252e-01" purity="2.6356241106987000e-01" nType="-99"/>
          </Node>
        </Node>
      </Node>
    </BinaryTree>
    <BinaryTree type="DecisionTree" boostWeight="1.0000000000000000e+00" itree="136">
      <Node pos="s" depth="0" NCoef="0" IVar="9" Cut="-1.2000159025192261e+00" cType="1" res="1.6050895210355520e-03" rms="3.9265570044517517e-01" purity="5.0039547681808472e-01" nType="0">
        <Node pos="l" depth="1" NCoef="0" IVar="6" Cut="6.8539416790008545e-01" cType="1" res="1.4459512196481228e-02" rms="3.8936713337898254e-01" purity="4.4119471311569214e-01" nType="0">
          <Node pos="l" depth="2" NCoef="0" IVar="7" Cut="-9.3337059020996094e-01" cType="1" res="2.1682484075427055e-02" rms="3.9523592591285706e-01" purity="4.7533527016639709e-01" nType="0">
            <Node pos="l" depth="3" NCoef="0" IVar="-1" Cut="0.0000000000000000e+00" cType="1" res="3.3674757927656174e-02" rms="3.8544049859046936e-01" purity="3.6076232790946960e-01" nType="-99"/>
            <Node pos="r" depth="3" NCoef="0" IVar="-1" Cut="0.0000000000000000e+00" cType="1" res="7.8466730192303658e-03" rms="3.9827889204025269e-01" purity="5.1648259162902832e-01" nType="-99"/>
          </Node>
          <Node pos="r" depth="2" NCoef="0" IVar="-1" Cut="0.0000000000000000e+00" cType="1" res="-1.1257954873144627e-02" rms="3.6245822906494141e-01" purity="2.9946836829185486e-01" nType="-99"/>
        </Node>
        <Node pos="r" depth="1" NCoef="0" IVar="6" Cut="-1.4578237533569336e+00" cType="1" res="-1.1307201348245144e-03" rms="3.9329785108566284e-01" purity="5.1299518346786499e-01" nType="0">
          <Node pos="l" depth="2" NCoef="0" IVar="-1" Cut="0.0000000000000000e+00" cType="1" res="1.3434027321636677e-02" rms="3.6848098039627075e-01" purity="2.4123713374137878e-01" nType="-99"/>
          <Node pos="r" depth="2" NCoef="0" IVar="6" Cut="1.1775875091552734e+00" cType="1" res="-2.3302515037357807e-03" rms="3.9483210444450378e-01" purity="5.3071510791778564e-01" nType="0">
            <Node pos="l" depth="3" NCoef="0" IVar="-1" Cut="0.0000000000000000e+00" cType="1" res="-2.7267758268862963e-03" rms="3.9950385689735413e-01" purity="5.6874758005142212e-01" nType="-99"/>
            <Node pos="r" depth="3" NCoef="0" IVar="-1" Cut="0.0000000000000000e+00" cType="1" res="8.9548528194427490e-03" rms="3.6101406812667847e-01" purity="2.7096480131149292e-01" nType="-99"/>
          </Node>
        </Node>
      </Node>
    </BinaryTree>
    <BinaryTree type="DecisionTree" boostWeight="1.0000000000000000e+00" itree="137">
      <Node pos="s" depth="0" NCoef="0" IVar="0" Cut="4.5206744384765625e+02" cType="1" res="3.1825280166231096e-04" rms="3.8785776495933533e-01" purity="4.9934431910514832e-01" nType="0">
        <Node pos="l" depth="1" NCoef="0" IVar="2" Cut="2.5014503479003906e+02" cType="1" res="5.0934902392327785e-03" rms="3.9578616619110107e-01" purity="3.7131258845329285e-01" nType="0">
          <Node pos="l" depth="2" NCoef="0" IVar="6" Cut="6.7071783542633057e-01" cType="1" res="2.0183142274618149e-02" rms="4.1757515072822571e-01" purity="3.5390231013298035e-01" nType="0">
            <Node pos="l" depth="3" NCoef="0" IVar="-1" Cut="0.0000000000000000e+00" cType="1" res="4.7309496439993382e-03" rms="4.2119967937469482e-01" purity="3.8094022870063782e-01" nType="-99"/>
            <Node pos="r" depth="3" NCoef="0" IVar="-1" Cut="0.0000000000000000e+00" cType="1" res="3.5955742001533508e-02" rms="4.0679511427879333e-01" purity="2.8608098626136780e-01" nType="-99"/>
          </Node>
          <Node pos="r" depth="2" NCoef="0" IVar="9" Cut="-1.7332956790924072e+00" cType="1" res="8.6564727826043963e-04" rms="3.8935786485671997e-01" purity="3.7619060277938843e-01" nType="0">
            <Node pos="l" depth="3" NCoef="0" IVar="-1" Cut="0.0000000000000000e+00" cType="1" res="-1.7179947346448898e-02" rms="3.5291546583175659e-01" purity="2.4071057140827179e-01" nType="-99"/>
            <Node pos="r" depth="3" NCoef="0" IVar="-1" Cut="0.0000000000000000e+00" cType="1" res="2.0326338708400726e-03" rms="3.9256802201271057e-01" purity="3.8908302783966064e-01" nType="-99"/>
          </Node>
        </Node>
        <Node pos="r" depth="1" NCoef="0" IVar="1" Cut="1.4473970947265625e+03" cType="1" res="-7.3116342537105083e-03" rms="3.7471562623977661e-01" purity="7.0391374826431274e-01" nType="0">
          <Node pos="l" depth="2" NCoef="0" IVar="0" Cut="4.9764849853515625e+02" cType="1" res="-2.2857664152979851e-02" rms="4.1691806912422180e-01" purity="5.5723994970321655e-01" nType="0">
            <Node pos="l" depth="3" NCoef="0" IVar="-1" Cut="0.0000000000000000e+00" cType="1" res="-2.5919103994965553e-02" rms="4.0864476561546326e-01" purity="4.9438282847404480e-01" nType="-99"/>
            <Node pos="r" depth="3" NCoef="0" IVar="-1" Cut="0.0000000000000000e+00" cType="1" res="-2.8541530482470989e-03" rms="4.2241168022155762e-01" purity="6.0635375976562500e-01" nType="-99"/>
          </Node>
          <Node pos="r" depth="2" NCoef="0" IVar="8" Cut="-9.3333190679550171e-01" cType="1" res="2.9041252564638853e-03" rms="3.4379452466964722e-01" purity="8.0029749870300293e-01" nType="0">
            <Node pos="l" depth="3" NCoef="0" IVar="-1" Cut="0.0000000000000000e+00" cType="1" res="-1.5075182542204857e-02" rms="3.7779861688613892e-01" purity="7.1602457761764526e-01" nType="-99"/>
            <Node pos="r" depth="3" NCoef="0" IVar="-1" Cut="0.0000000000000000e+00" cType="1" res="6.6415946930646896e-03" rms="3.3623865246772766e-01" purity="8.1744158267974854e-01" nType="-99"/>
          </Node>
        </Node>
      </Node>
    </BinaryTree>
    <BinaryTree type="DecisionTree" boostWeight="1.0000000000000000e+00" itree="138">
      <Node pos="s" depth="0" NCoef="0" IVar="9" Cut="1.9999910593032837e+00" cType="1" res="-1.3132269959896803e-03" rms="3.8939514756202698e-01" purity="4.9775925278663635e-01" nType="0">
        <Node pos="l" depth="1" NCoef="0" IVar="6" Cut="-1.6922358274459839e+00" cType="1" res="-2.6160399429500103e-03" rms="3.8930651545524597e-01" purity="5.0480103492736816e-01" nType="0">
          <Node pos="l" depth="2" NCoef="0" IVar="-1" Cut="0.0000000000000000e+00" cType="1" res="1.9893761724233627e-02" rms="3.5029813647270203e-01" purity="2.0783717930316925e-01" nType="-99"/>
          <Node pos="r" depth="2" NCoef="0" IVar="9" Cut="-1.2000107765197754e+00" cType="1" res="-3.7272116169333458e-03" rms="3.9092522859573364e-01" purity="5.1809757947921753e-01" nType="0">
            <Node pos="l" depth="3" NCoef="0" IVar="-1" Cut="0.0000000000000000e+00" cType="1" res="4.3410887010395527e-03" rms="3.9529007673263550e-01" purity="4.4404384493827820e-01" nType="-99"/>
            <Node pos="r" depth="3" NCoef="0" IVar="-1" Cut="0.0000000000000000e+00" cType="1" res="-3.9424998685717583e-03" rms="3.8991501927375793e-01" purity="5.3446584939956665e-01" nType="-99"/>
          </Node>
        </Node>
        <Node pos="r" depth="1" NCoef="0" IVar="8" Cut="1.3394820690155029e-01" cType="1" res="2.0740885287523270e-02" rms="3.9023289084434509e-01" purity="3.7855541706085205e-01" nType="0">
          <Node pos="l" depth="2" NCoef="0" IVar="-1" Cut="0.0000000000000000e+00" cType="1" res="7.1101826615631580e-03" rms="3.8414028286933899e-01" purity="4.0861845016479492e-01" nType="-99"/>
          <Node pos="r" depth="2" NCoef="0" IVar="-1" Cut="0.0000000000000000e+00" cType="1" res="2.1121779456734657e-02" rms="3.9591026306152344e-01" purity="3.4886857867240906e-01" nType="-99"/>
        </Node>
      </Node>
    </BinaryTree>
    <BinaryTree type="DecisionTree" boostWeight="1.0000000000000000e+00" itree="139">
      <Node pos="s" depth="0" NCoef="0" IVar="5" Cut="8.5090904235839844e+01" cType="1" res="1.5210952842608094e-03" rms="3.9318013191223145e-01" purity="4.9809882044792175e-01" nType="0">
        <Node pos="l" depth="1" NCoef="0" IVar="9" Cut="-6.6663789749145508e-01" cType="1" res="6.2100691720843315e-03" rms="3.9914605021476746e-01" purity="3.4484672546386719e-01" nType="0">
          <Node pos="l" depth="2" NCoef="0" IVar="7" Cut="-3.9942339062690735e-01" cType="1" res="1.5635842457413673e-02" rms="3.9600491523742676e-01" purity="3.2919961214065552e-01" nType="0">
            <Node pos="l" depth="3" NCoef="0" IVar="-1" Cut="0.0000000000000000e+00" cType="1" res="-1.9525202224031091e-03" rms="3.7273958325386047e-01" purity="2.6480236649513245e-01" nType="-99"/>
            <Node pos="r" depth="3" NCoef="0" IVar="-1" Cut="0.0000000000000000e+00" cType="1" res="1.8150994554162025e-02" rms="4.1169139742851257e-01" purity="3.7635734677314758e-01" nType="-99"/>
          </Node>
          <Node pos="r" depth="2" NCoef="0" IVar="3" Cut="2.4191111755371094e+02" cType="1" res="1.7656738637015224e-03" rms="4.0054166316986084e-01" purity="3.5222455859184265e-01" nType="0">
            <Node pos="l" depth="3" NCoef="0" IVar="-1" Cut="0.0000000000000000e+00" cType="1" res="-1.4145348686724901e-03" rms="3.9714029431343079e-01" purity="2.9922071099281311e-01" nType="-99"/>
            <Node pos="r" depth="3" NCoef="0" IVar="-1" Cut="0.0000000000000000e+00" cType="1" res="8.5460739210247993e-03" rms="4.1156515479087830e-01" purity="5.3167128562927246e-01" nType="-99"/>
          </Node>
        </Node>
        <Node pos="r" depth="1" NCoef="0" IVar="1" Cut="1.4308884277343750e+03" cType="1" res="-4.0573910810053349e-03" rms="3.8588818907737732e-01" purity="6.8042331933975220e-01" nType="0">
          <Node pos="l" depth="2" NCoef="0" IVar="2" Cut="3.9995034790039062e+02" cType="1" res="-1.1500117368996143e-02" rms="4.2609545588493347e-01" purity="5.4847520589828491e-01" nType="0">
            <Node pos="l" depth="3" NCoef="0" IVar="-1" Cut="0.0000000000000000e+00" cType="1" res="-2.5667678564786911e-03" rms="4.2782083153724670e-01" purity="5.7106399536132812e-01" nType="-99"/>
            <Node pos="r" depth="3" NCoef="0" IVar="-1" Cut="0.0000000000000000e+00" cType="1" res="-3.5890720784664154e-02" rms="4.0839579701423645e-01" purity="3.7197330594062805e-01" nType="-99"/>
          </Node>
          <Node pos="r" depth="2" NCoef="0" IVar="9" Cut="-1.1999243497848511e+00" cType="1" res="3.0488388147205114e-03" rms="3.4297913312911987e-01" purity="8.0640584230422974e-01" nType="0">
            <Node pos="l" depth="3" NCoef="0" IVar="-1" Cut="0.0000000000000000e+00" cType="1" res="-1.2164396233856678e-02" rms="3.8558825850486755e-01" purity="7.2125738859176636e-01" nType="-99"/>
            <Node pos="r" depth="3" NCoef="0" IVar="-1" Cut="0.0000000000000000e+00" cType="1" res="5.1099685952067375e-03" rms="3.3626013994216919e-01" purity="8.1873673200607300e-01" nType="-99"/>
          </Node>
        </Node>
      </Node>
    </BinaryTree>
    <BinaryTree type="DecisionTree" boostWeight="1.0000000000000000e+00" itree="140">
      <Node pos="s" depth="0" NCoef="0" IVar="8" Cut="-1.7333164215087891e+00" cType="1" res="7.4043835047632456e-04" rms="3.9100247621536255e-01" purity="4.9758854508399963e-01" nType="0">
        <Node pos="l" depth="1" NCoef="0" IVar="8" Cut="-2.1904611587524414e+00" cType="1" res="1.8803436309099197e-02" rms="3.7778505682945251e-01" purity="2.9681107401847839e-01" nType="0">
          <Node pos="l" depth="2" NCoef="0" IVar="-1" Cut="0.0000000000000000e+00" cType="1" res="-1.1335484683513641e-02" rms="3.4513020515441895e-01" purity="2.0432187616825104e-01" nType="-99"/>
          <Node pos="r" depth="2" NCoef="0" IVar="-1" Cut="0.0000000000000000e+00" cType="1" res="2.7555676177144051e-02" rms="3.9566230773925781e-01" purity="3.5530862212181091e-01" nType="-99"/>
        </Node>
        <Node pos="r" depth="1" NCoef="0" IVar="7" Cut="-1.4667341709136963e+00" cType="1" res="-6.4167386153712869e-04" rms="3.9196118712425232e-01" purity="5.1295131444931030e-01" nType="0">
          <Node pos="l" depth="2" NCoef="0" IVar="9" Cut="-6.6622841358184814e-01" cType="1" res="1.6067337244749069e-02" rms="3.6248815059661865e-01" purity="3.0096065998077393e-01" nType="0">
            <Node pos="l" depth="3" NCoef="0" IVar="-1" Cut="0.0000000000000000e+00" cType="1" res="-3.8562365807592869e-03" rms="3.4076446294784546e-01" purity="2.2240784764289856e-01" nType="-99"/>
            <Node pos="r" depth="3" NCoef="0" IVar="-1" Cut="0.0000000000000000e+00" cType="1" res="1.9243570044636726e-02" rms="3.7370675802230835e-01" purity="3.4541502594947815e-01" nType="-99"/>
          </Node>
          <Node pos="r" depth="2" NCoef="0" IVar="1" Cut="1.0974031982421875e+03" cType="1" res="-2.3131666239351034e-03" rms="3.9474958181381226e-01" purity="5.3415787220001221e-01" nType="0">
            <Node pos="l" depth="3" NCoef="0" IVar="-1" Cut="0.0000000000000000e+00" cType="1" res="-6.2920451164245605e-03" rms="3.9618071913719177e-01" purity="2.5466111302375793e-01" nType="-99"/>
            <Node pos="r" depth="3" NCoef="0" IVar="-1" Cut="0.0000000000000000e+00" cType="1" res="5.4720183834433556e-04" rms="3.9411202073097229e-01" purity="6.4988756179809570e-01" nType="-99"/>
          </Node>
        </Node>
      </Node>
    </BinaryTree>
    <BinaryTree type="DecisionTree" boostWeight="1.0000000000000000e+00" itree="141">
      <Node pos="s" depth="0" NCoef="0" IVar="8" Cut="-4.0000143647193909e-01" cType="1" res="-7.6948356581851840e-04" rms="3.9069193601608276e-01" purity="4.9829331040382385e-01" nType="0">
        <Node pos="l" depth="1" NCoef="0" IVar="7" Cut="-4.0009093284606934e-01" cType="1" res="1.0499683208763599e-02" rms="3.9432433247566223e-01" purity="4.7454935312271118e-01" nType="0">
          <Node pos="l" depth="2" NCoef="0" IVar="8" Cut="-6.2860280275344849e-01" cType="1" res="-3.2859526108950377e-03" rms="3.8438367843627930e-01" purity="4.0588983893394470e-01" nType="0">
            <Node pos="l" depth="3" NCoef="0" IVar="-1" Cut="0.0000000000000000e+00" cType="1" res="1.6803608741611242e-03" rms="3.8045713305473328e-01" purity="3.8708850741386414e-01" nType="-99"/>
            <Node pos="r" depth="3" NCoef="0" IVar="-1" Cut="0.0000000000000000e+00" cType="1" res="-1.9414616748690605e-02" rms="4.0100961923599243e-01" purity="4.9305564165115356e-01" nType="-99"/>
          </Node>
          <Node pos="r" depth="2" NCoef="0" IVar="4" Cut="1.7171113586425781e+02" cType="1" res="1.9571373239159584e-02" rms="4.0047252178192139e-01" purity="5.1973104476928711e-01" nType="0">
            <Node pos="l" depth="3" NCoef="0" IVar="-1" Cut="0.0000000000000000e+00" cType="1" res="1.8078299239277840e-02" rms="4.0809807181358337e-01" purity="4.5456749200820923e-01" nType="-99"/>
            <Node pos="r" depth="3" NCoef="0" IVar="-1" Cut="0.0000000000000000e+00" cType="1" res="-8.8542345911264420e-03" rms="3.7311524152755737e-01" purity="7.2953349351882935e-01" nType="-99"/>
          </Node>
        </Node>
        <Node pos="r" depth="1" NCoef="0" IVar="8" Cut="2.1904613971710205e+00" cType="1" res="-7.3403748683631420e-03" rms="3.8840734958648682e-01" purity="5.1213800907135010e-01" nType="0">
          <Node pos="l" depth="2" NCoef="0" IVar="9" Cut="-4.0000489354133606e-01" cType="1" res="-5.5996929295361042e-03" rms="3.9051473140716553e-01" purity="5.2684444189071655e-01" nType="0">
            <Node pos="l" depth="3" NCoef="0" IVar="-1" Cut="0.0000000000000000e+00" cType="1" res="2.6660531293600798e-03" rms="3.9196175336837769e-01" purity="5.3599309921264648e-01" nType="-99"/>
            <Node pos="r" depth="3" NCoef="0" IVar="-1" Cut="0.0000000000000000e+00" cType="1" res="-7.2217681445181370e-03" rms="3.8958716392517090e-01" purity="5.2167302370071411e-01" nType="-99"/>
          </Node>
          <Node pos="r" depth="2" NCoef="0" IVar="-1" Cut="0.0000000000000000e+00" cType="1" res="-3.5097580403089523e-02" rms="3.3707451820373535e-01" purity="1.9194470345973969e-01" nType="-99"/>
        </Node>
      </Node>
    </BinaryTree>
    <BinaryTree type="DecisionTree" boostWeight="1.0000000000000000e+00" itree="142">
      <Node pos="s" depth="0" NCoef="0" IVar="1" Cut="1.1200350341796875e+03" cType="1" res="-7.8218273120000958e-04" rms="3.8778010010719299e-01" purity="4.9854582548141479e-01" nType="0">
        <Node pos="l" depth="1" NCoef="0" IVar="1" Cut="9.3715692138671875e+02" cType="1" res="-7.7900900505483150e-03" rms="3.7911012768745422e-01" purity="2.4012324213981628e-01" nType="0">
          <Node pos="l" depth="2" NCoef="0" IVar="0" Cut="3.6087277221679688e+02" cType="1" res="-2.5192225351929665e-02" rms="3.1046488881111145e-01" purity="1.2202078849077225e-01" nType="0">
            <Node pos="l" depth="3" NCoef="0" IVar="-1" Cut="0.0000000000000000e+00" cType="1" res="-1.1119841597974300e-02" rms="3.1166240572929382e-01" purity="1.2700371444225311e-01" nType="-99"/>
            <Node pos="r" depth="3" NCoef="0" IVar="-1" Cut="0.0000000000000000e+00" cType="1" res="-5.0165813416242599e-02" rms="3.0368804931640625e-01" purity="1.0759972035884857e-01" nType="-99"/>
          </Node>
          <Node pos="r" depth="2" NCoef="0" IVar="6" Cut="-6.5107065439224243e-01" cType="1" res="4.8767420230433345e-04" rms="4.0746593475341797e-01" purity="2.9630163311958313e-01" nType="0">
            <Node pos="l" depth="3" NCoef="0" IVar="-1" Cut="0.0000000000000000e+00" cType="1" res="1.2538614682853222e-02" rms="3.8817366957664490e-01" purity="2.5593084096908569e-01" nType="-99"/>
            <Node pos="r" depth="3" NCoef="0" IVar="-1" Cut="0.0000000000000000e+00" cType="1" res="-3.8053765892982483e-03" rms="4.1456547379493713e-01" purity="3.1211572885513306e-01" nType="-99"/>
          </Node>
        </Node>
        <Node pos="r" depth="1" NCoef="0" IVar="8" Cut="1.7332170009613037e+00" cType="1" res="2.7936301194131374e-03" rms="3.9208188652992249e-01" purity="6.3040703535079956e-01" nType="0">
          <Node pos="l" depth="2" NCoef="0" IVar="6" Cut="1.4821797609329224e+00" cType="1" res="6.2604533741250634e-04" rms="3.9077678322792053e-01" purity="6.4225256443023682e-01" nType="0">
            <Node pos="l" depth="3" NCoef="0" IVar="-1" Cut="0.0000000000000000e+00" cType="1" res="1.4818715862929821e-03" rms="3.9216843247413635e-01" purity="6.5949606895446777e-01" nType="-99"/>
            <Node pos="r" depth="3" NCoef="0" IVar="-1" Cut="0.0000000000000000e+00" cType="1" res="-2.2053275257349014e-02" rms="3.5975030064582825e-01" purity="2.9294189810752869e-01" nType="-99"/>
          </Node>
          <Node pos="r" depth="2" NCoef="0" IVar="-1" Cut="0.0000000000000000e+00" cType="1" res="2.1171929314732552e-02" rms="4.0997636318206787e-01" purity="4.5063325762748718e-01" nType="-99"/>
        </Node>
      </Node>
    </BinaryTree>
    <BinaryTree type="DecisionTree" boostWeight="1.0000000000000000e+00" itree="143">
      <Node pos="s" depth="0" NCoef="0" IVar="9" Cut="-1.7333251237869263e+00" cType="1" res="-2.9335999861359596e-03" rms="3.8672679662704468e-01" purity="4.9890854954719543e-01" nType="0">
        <Node pos="l" depth="1" NCoef="0" IVar="6" Cut="1.4403937757015228e-01" cType="1" res="-2.3675665259361267e-02" rms="3.6645752191543579e-01" purity="3.3316847681999207e-01" nType="0">
          <Node pos="l" depth="2" NCoef="0" IVar="-1" Cut="0.0000000000000000e+00" cType="1" res="-7.9199643805623055e-03" rms="3.7271705269813538e-01" purity="3.4731251001358032e-01" nType="-99"/>
          <Node pos="r" depth="2" NCoef="0" IVar="-1" Cut="0.0000000000000000e+00" cType="1" res="-2.9349204152822495e-02" rms="3.5573911666870117e-01" purity="3.1128546595573425e-01" nType="-99"/>
        </Node>
        <Node pos="r" depth="1" NCoef="0" IVar="6" Cut="-1.0719166696071625e-01" cType="1" res="-1.0984748369082808e-03" rms="3.8841584324836731e-01" purity="5.1357215642929077e-01" nType="0">
          <Node pos="l" depth="2" NCoef="0" IVar="1" Cut="1.0769832763671875e+03" cType="1" res="-6.2350439839065075e-03" rms="3.8648599386215210e-01" purity="5.0537413358688354e-01" nType="0">
            <Node pos="l" depth="3" NCoef="0" IVar="-1" Cut="0.0000000000000000e+00" cType="1" res="-1.6252836212515831e-02" rms="3.6668184399604797e-01" purity="2.0154698193073273e-01" nType="-99"/>
            <Node pos="r" depth="3" NCoef="0" IVar="-1" Cut="0.0000000000000000e+00" cType="1" res="3.3029456972144544e-05" rms="3.9337256550788879e-01" purity="6.1775135993957520e-01" nType="-99"/>
          </Node>
          <Node pos="r" depth="2" NCoef="0" IVar="7" Cut="-1.7334636449813843e+00" cType="1" res="3.1433515250682831e-03" rms="3.8995134830474854e-01" purity="5.2034217119216919e-01" nType="0">
            <Node pos="l" depth="3" NCoef="0" IVar="-1" Cut="0.0000000000000000e+00" cType="1" res="-2.1580725908279419e-02" rms="3.2119262218475342e-01" purity="1.8227495253086090e-01" nType="-99"/>
            <Node pos="r" depth="3" NCoef="0" IVar="-1" Cut="0.0000000000000000e+00" cType="1" res="3.0765489209443331e-03" rms="3.9339098334312439e-01" purity="5.3931027650833130e-01" nType="-99"/>
          </Node>
        </Node>
      </Node>
    </BinaryTree>
    <BinaryTree type="DecisionTree" boostWeight="1.0000000000000000e+00" itree="144">
      <Node pos="s" depth="0" NCoef="0" IVar="5" Cut="1.2018177795410156e+02" cType="1" res="1.6137764323502779e-03" rms="3.9103895425796509e-01" purity="5.0156795978546143e-01" nType="0">
        <Node pos="l" depth="1" NCoef="0" IVar="9" Cut="-3.9995926618576050e-01" cType="1" res="4.3479287996888161e-03" rms="4.0164923667907715e-01" purity="4.2479071021080017e-01" nType="0">
          <Node pos="l" depth="2" NCoef="0" IVar="8" Cut="9.3327093124389648e-01" cType="1" res="-4.1605485603213310e-03" rms="3.9602532982826233e-01" purity="3.9622971415519714e-01" nType="0">
            <Node pos="l" depth="3" NCoef="0" IVar="-1" Cut="0.0000000000000000e+00" cType="1" res="2.2643047850579023e-04" rms="3.9917686581611633e-01" purity="4.1372948884963989e-01" nType="-99"/>
            <Node pos="r" depth="3" NCoef="0" IVar="-1" Cut="0.0000000000000000e+00" cType="1" res="-1.5658756718039513e-02" rms="3.8138025999069214e-01" purity="3.2005861401557922e-01" nType="-99"/>
          </Node>
          <Node pos="r" depth="2" NCoef="0" IVar="6" Cut="-6.5961813926696777e-01" cType="1" res="9.5391152426600456e-03" rms="4.0495437383651733e-01" purity="4.4221630692481995e-01" nType="0">
            <Node pos="l" depth="3" NCoef="0" IVar="-1" Cut="0.0000000000000000e+00" cType="1" res="1.5398940071463585e-02" rms="4.0124922990798950e-01" purity="3.6155125498771667e-01" nType="-99"/>
            <Node pos="r" depth="3" NCoef="0" IVar="-1" Cut="0.0000000000000000e+00" cType="1" res="3.3050875645130873e-03" rms="4.0591996908187866e-01" purity="4.6539163589477539e-01" nType="-99"/>
          </Node>
        </Node>
        <Node pos="r" depth="1" NCoef="0" IVar="2" Cut="3.2477139282226562e+02" cType="1" res="-8.6405640468001366e-03" rms="3.4818732738494873e-01" purity="7.8951823711395264e-01" nType="0">
          <Node pos="l" depth="2" NCoef="0" IVar="-1" Cut="0.0000000000000000e+00" cType="1" res="5.3509199060499668e-03" rms="3.5706117749214172e-01" purity="7.8133380413055420e-01" nType="-99"/>
          <Node pos="r" depth="2" NCoef="0" IVar="1" Cut="1.6170264892578125e+03" cType="1" res="-1.7574612051248550e-02" rms="3.4274083375930786e-01" purity="7.9415076971054077e-01" nType="0">
            <Node pos="l" depth="3" NCoef="0" IVar="-1" Cut="0.0000000000000000e+00" cType="1" res="-4.0094271302223206e-02" rms="3.9523831009864807e-01" purity="6.6424006223678589e-01" nType="-99"/>
            <Node pos="r" depth="3" NCoef="0" IVar="-1" Cut="0.0000000000000000e+00" cType="1" res="1.9056291785091162e-03" rms="3.1313166022300720e-01" purity="8.5527431964874268e-01" nType="-99"/>
          </Node>
        </Node>
      </Node>
    </BinaryTree>
    <BinaryTree type="DecisionTree" boostWeight="1.0000000000000000e+00" itree="145">
      <Node pos="s" depth="0" NCoef="0" IVar="8" Cut="1.7333195209503174e+00" cType="1" res="-3.1282115378417075e-04" rms="3.8975504040718079e-01" purity="4.9683871865272522e-01" nType="0">
        <Node pos="l" depth="1" NCoef="0" IVar="9" Cut="1.4666681289672852e+00" cType="1" res="1.2011564103886485e-03" rms="3.9143633842468262e-01" purity="5.1499706506729126e-01" nType="0">
          <Node pos="l" depth="2" NCoef="0" IVar="2" Cut="7.1824768066406250e+02" cType="1" res="2.7720250654965639e-03" rms="3.9185059070587158e-01" purity="5.2951103448867798e-01" nType="0">
            <Node pos="l" depth="3" NCoef="0" IVar="-1" Cut="0.0000000000000000e+00" cType="1" res="2.4229364935308695e-03" rms="3.9119240641593933e-01" purity="5.2662032842636108e-01" nType="-99"/>
            <Node pos="r" depth="3" NCoef="0" IVar="-1" Cut="0.0000000000000000e+00" cType="1" res="-1.3077205978333950e-02" rms="4.0864548087120056e-01" purity="6.0891181230545044e-01" nType="-99"/>
          </Node>
          <Node pos="r" depth="2" NCoef="0" IVar="7" Cut="-1.3317310810089111e-01" cType="1" res="-1.0749545879662037e-02" rms="3.8806214928627014e-01" purity="4.0457922220230103e-01" nType="0">
            <Node pos="l" depth="3" NCoef="0" IVar="-1" Cut="0.0000000000000000e+00" cType="1" res="-2.4958318099379539e-02" rms="3.8305333256721497e-01" purity="3.6864501237869263e-01" nType="-99"/>
            <Node pos="r" depth="3" NCoef="0" IVar="-1" Cut="0.0000000000000000e+00" cType="1" res="4.2319390922784805e-03" rms="3.9017185568809509e-01" purity="4.2710056900978088e-01" nType="-99"/>
          </Node>
        </Node>
        <Node pos="r" depth="1" NCoef="0" IVar="4" Cut="1.1255870056152344e+02" cType="1" res="-2.0628882572054863e-02" rms="3.6584255099296570e-01" purity="2.5317177176475525e-01" nType="0">
          <Node pos="l" depth="2" NCoef="0" IVar="-1" Cut="0.0000000000000000e+00" cType="1" res="2.7626793598756194e-04" rms="3.3400517702102661e-01" purity="1.7082014679908752e-01" nType="-99"/>
          <Node pos="r" depth="2" NCoef="0" IVar="-1" Cut="0.0000000000000000e+00" cType="1" res="-2.9088342562317848e-02" rms="4.0323334932327271e-01" purity="3.6461517214775085e-01" nType="-99"/>
        </Node>
      </Node>
    </BinaryTree>
    <BinaryTree type="DecisionTree" boostWeight="1.0000000000000000e+00" itree="146">
      <Node pos="s" depth="0" NCoef="0" IVar="8" Cut="9.3326550722122192e-01" cType="1" res="-1.0195317736361176e-04" rms="3.9084950089454651e-01" purity="4.9871513247489929e-01" nType="0">
        <Node pos="l" depth="1" NCoef="0" IVar="6" Cut="1.4688652753829956e+00" cType="1" res="3.2139795366674662e-03" rms="3.9304175972938538e-01" purity="5.2882558107376099e-01" nType="0">
          <Node pos="l" depth="2" NCoef="0" IVar="7" Cut="-1.3335196673870087e-01" cType="1" res="1.4541214331984520e-03" rms="3.9447170495986938e-01" purity="5.4686343669891357e-01" nType="0">
            <Node pos="l" depth="3" NCoef="0" IVar="-1" Cut="0.0000000000000000e+00" cType="1" res="6.1697997152805328e-03" rms="3.9616790413856506e-01" purity="5.3529059886932373e-01" nType="-99"/>
            <Node pos="r" depth="3" NCoef="0" IVar="-1" Cut="0.0000000000000000e+00" cType="1" res="-3.7059374153614044e-03" rms="3.9281913638114929e-01" purity="5.5713969469070435e-01" nType="-99"/>
          </Node>
          <Node pos="r" depth="2" NCoef="0" IVar="-1" Cut="0.0000000000000000e+00" cType="1" res="2.4563988670706749e-02" rms="3.6958217620849609e-01" purity="2.5447994470596313e-01" nType="-99"/>
        </Node>
        <Node pos="r" depth="1" NCoef="0" IVar="4" Cut="1.2825053405761719e+02" cType="1" res="-1.2633515521883965e-02" rms="3.8219130039215088e-01" purity="3.8492190837860107e-01" nType="0">
          <Node pos="l" depth="2" NCoef="0" IVar="5" Cut="8.3237121582031250e+01" cType="1" res="-2.2256970405578613e-03" rms="3.7479951977729797e-01" purity="2.6706764101982117e-01" nType="0">
            <Node pos="l" depth="3" NCoef="0" IVar="-1" Cut="0.0000000000000000e+00" cType="1" res="-8.7910518050193787e-03" rms="3.5538965463638306e-01" purity="2.1193309128284454e-01" nType="-99"/>
            <Node pos="r" depth="3" NCoef="0" IVar="-1" Cut="0.0000000000000000e+00" cType="1" res="1.6809487715363503e-02" rms="4.3362179398536682e-01" purity="4.5719552040100098e-01" nType="-99"/>
          </Node>
          <Node pos="r" depth="2" NCoef="0" IVar="8" Cut="1.1999402046203613e+00" cType="1" res="-2.8039846569299698e-02" rms="3.9237138628959656e-01" purity="5.5937749147415161e-01" nType="0">
            <Node pos="l" depth="3" NCoef="0" IVar="-1" Cut="0.0000000000000000e+00" cType="1" res="-9.4016315415501595e-03" rms="3.6750587821006775e-01" purity="6.8155419826507568e-01" nType="-99"/>
            <Node pos="r" depth="3" NCoef="0" IVar="-1" Cut="0.0000000000000000e+00" cType="1" res="-2.1293925121426582e-02" rms="4.0512302517890930e-01" purity="4.9246376752853394e-01" nType="-99"/>
          </Node>
        </Node>
      </Node>
    </BinaryTree>
    <BinaryTree type="DecisionTree" boostWeight="1.0000000000000000e+00" itree="147">
      <Node pos="s" depth="0" NCoef="0" IVar="7" Cut="-9.3336862325668335e-01" cType="1" res="-1.5839898260310292e-03" rms="3.9096185564994812e-01" purity="4.9535277485847473e-01" nType="0">
        <Node pos="l" depth="1" NCoef="0" IVar="9" Cut="-1.3320173323154449e-01" cType="1" res="1.1259684339165688e-02" rms="3.8587322831153870e-01" purity="3.6512568593025208e-01" nType="0">
          <Node pos="l" depth="2" NCoef="0" IVar="6" Cut="-3.6743298172950745e-01" cType="1" res="-3.2893426250666380e-03" rms="3.7228313088417053e-01" purity="3.3109927177429199e-01" nType="0">
            <Node pos="l" depth="3" NCoef="0" IVar="-1" Cut="0.0000000000000000e+00" cType="1" res="1.3767418451607227e-02" rms="3.7486210465431213e-01" purity="3.1877660751342773e-01" nType="-99"/>
            <Node pos="r" depth="3" NCoef="0" IVar="-1" Cut="0.0000000000000000e+00" cType="1" res="-1.4934425242245197e-02" rms="3.6911678314208984e-01" purity="3.4125250577926636e-01" nType="-99"/>
          </Node>
          <Node pos="r" depth="2" NCoef="0" IVar="3" Cut="1.7708906555175781e+02" cType="1" res="2.6625012978911400e-02" rms="3.9914911985397339e-01" purity="4.0106120705604553e-01" nType="0">
            <Node pos="l" depth="3" NCoef="0" IVar="-1" Cut="0.0000000000000000e+00" cType="1" res="3.4078024327754974e-02" rms="3.8107618689537048e-01" purity="3.0493494868278503e-01" nType="-99"/>
            <Node pos="r" depth="3" NCoef="0" IVar="-1" Cut="0.0000000000000000e+00" cType="1" res="4.9570691771805286e-03" rms="4.1420391201972961e-01" purity="4.8936206102371216e-01" nType="-99"/>
          </Node>
        </Node>
        <Node pos="r" depth="1" NCoef="0" IVar="7" Cut="-2.2226786613464355e-01" cType="1" res="-4.7548157162964344e-03" rms="3.9214321970939636e-01" purity="5.2750301361083984e-01" nType="0">
          <Node pos="l" depth="2" NCoef="0" IVar="9" Cut="1.1998955011367798e+00" cType="1" res="-1.6764713451266289e-02" rms="3.9254900813102722e-01" purity="5.6480443477630615e-01" nType="0">
            <Node pos="l" depth="3" NCoef="0" IVar="-1" Cut="0.0000000000000000e+00" cType="1" res="-1.3881891034543514e-02" rms="3.9116653800010681e-01" purity="5.7594704627990723e-01" nType="-99"/>
            <Node pos="r" depth="3" NCoef="0" IVar="-1" Cut="0.0000000000000000e+00" cType="1" res="5.2986512891948223e-03" rms="3.9886304736137390e-01" purity="5.0563287734985352e-01" nType="-99"/>
          </Node>
          <Node pos="r" depth="2" NCoef="0" IVar="9" Cut="-1.3334208726882935e-01" cType="1" res="-2.3755313304718584e-04" rms="3.9189526438713074e-01" purity="5.1347291469573975e-01" nType="0">
            <Node pos="l" depth="3" NCoef="0" IVar="-1" Cut="0.0000000000000000e+00" cType="1" res="4.1337306611239910e-03" rms="3.9286249876022339e-01" purity="5.2577871084213257e-01" nType="-99"/>
            <Node pos="r" depth="3" NCoef="0" IVar="-1" Cut="0.0000000000000000e+00" cType="1" res="-3.3692030701786280e-03" rms="3.9110955595970154e-01" purity="5.0440549850463867e-01" nType="-99"/>
          </Node>
        </Node>
      </Node>
    </BinaryTree>
    <BinaryTree type="DecisionTree" boostWeight="1.0000000000000000e+00" itree="148">
      <Node pos="s" depth="0" NCoef="0" IVar="7" Cut="1.4666694402694702e+00" cType="1" res="5.6122330715879798e-04" rms="3.9010602235794067e-01" purity="4.9703350663185120e-01" nType="0">
        <Node pos="l" depth="1" NCoef="0" IVar="6" Cut="-6.5985119342803955e-01" cType="1" res="2.5470154359936714e-03" rms="3.9511248469352722e-01" purity="5.2412754297256470e-01" nType="0">
          <Node pos="l" depth="2" NCoef="0" IVar="6" Cut="-1.6735492944717407e+00" cType="1" res="1.4415952377021313e-02" rms="3.9856699109077454e-01" purity="4.2567020654678345e-01" nType="0">
            <Node pos="l" depth="3" NCoef="0" IVar="-1" Cut="0.0000000000000000e+00" cType="1" res="-5.0666844472289085e-03" rms="3.4507554769515991e-01" purity="1.8677313625812531e-01" nType="-99"/>
            <Node pos="r" depth="3" NCoef="0" IVar="-1" Cut="0.0000000000000000e+00" cType="1" res="1.1296809650957584e-02" rms="4.0867578983306885e-01" purity="4.7530534863471985e-01" nType="-99"/>
          </Node>
          <Node pos="r" depth="2" NCoef="0" IVar="1" Cut="1.4400571289062500e+03" cType="1" res="-1.2157199671491981e-03" rms="3.9393636584281921e-01" purity="5.5534088611602783e-01" nType="0">
            <Node pos="l" depth="3" NCoef="0" IVar="-1" Cut="0.0000000000000000e+00" cType="1" res="-3.7537005264312029e-03" rms="4.1616123914718628e-01" purity="4.2627876996994019e-01" nType="-99"/>
            <Node pos="r" depth="3" NCoef="0" IVar="-1" Cut="0.0000000000000000e+00" cType="1" res="6.4548333175480366e-03" rms="3.5001736879348755e-01" purity="7.8856861591339111e-01" nType="-99"/>
          </Node>
        </Node>
        <Node pos="r" depth="1" NCoef="0" IVar="3" Cut="1.6519105529785156e+02" cType="1" res="-1.9898721948266029e-02" rms="3.3349663019180298e-01" purity="2.1787904202938080e-01" nType="0">
          <Node pos="l" depth="2" NCoef="0" IVar="-1" Cut="0.0000000000000000e+00" cType="1" res="8.4104044362902641e-03" rms="3.0879303812980652e-01" purity="1.5452308952808380e-01" nType="-99"/>
          <Node pos="r" depth="2" NCoef="0" IVar="-1" Cut="0.0000000000000000e+00" cType="1" res="-3.1420357525348663e-02" rms="3.5326114296913147e-01" purity="2.7790910005569458e-01" nType="-99"/>
        </Node>
      </Node>
    </BinaryTree>
    <BinaryTree type="DecisionTree" boostWeight="1.0000000000000000e+00" itree="149">
      <Node pos="s" depth="0" NCoef="0" IVar="0" Cut="6.0413476562500000e+02" cType="1" res="2.5955459568649530e-03" rms="3.9117288589477539e-01" purity="4.9978184700012207e-01" nType="0">
        <Node pos="l" depth="1" NCoef="0" IVar="0" Cut="3.2896517944335938e+02" cType="1" res="6.0909977182745934e-03" rms="3.9651489257812500e-01" purity="4.5490330457687378e-01" nType="0">
          <Node pos="l" depth="2" NCoef="0" IVar="8" Cut="-6.6721659898757935e-01" cType="1" res="-9.8446728661656380e-03" rms="3.7231743335723877e-01" purity="2.5906276702880859e-01" nType="0">
            <Node pos="l" depth="3" NCoef="0" IVar="-1" Cut="0.0000000000000000e+00" cType="1" res="-3.0478794127702713e-02" rms="3.2860782742500305e-01" purity="1.7214500904083252e-01" nType="-99"/>
            <Node pos="r" depth="3" NCoef="0" IVar="-1" Cut="0.0000000000000000e+00" cType="1" res="8.8576594134792686e-04" rms="3.8757574558258057e-01" purity="2.9321420192718506e-01" nType="-99"/>
          </Node>
          <Node pos="r" depth="2" NCoef="0" IVar="4" Cut="1.4466677856445312e+02" cType="1" res="9.6664084121584892e-03" rms="4.0165698528289795e-01" purity="4.9884307384490967e-01" nType="0">
            <Node pos="l" depth="3" NCoef="0" IVar="-1" Cut="0.0000000000000000e+00" cType="1" res="8.6036184802651405e-03" rms="4.1068324446678162e-01" purity="3.8091698288917542e-01" nType="-99"/>
            <Node pos="r" depth="3" NCoef="0" IVar="-1" Cut="0.0000000000000000e+00" cType="1" res="9.9434016738086939e-04" rms="3.8506370782852173e-01" purity="7.0711344480514526e-01" nType="-99"/>
          </Node>
        </Node>
        <Node pos="r" depth="1" NCoef="0" IVar="5" Cut="8.5090972900390625e+01" cType="1" res="-1.9782550632953644e-02" rms="3.5425749421119690e-01" purity="7.8709715604782104e-01" nType="0">
          <Node pos="l" depth="2" NCoef="0" IVar="-1" Cut="0.0000000000000000e+00" cType="1" res="-2.7064455673098564e-02" rms="4.2367979884147644e-01" purity="6.3078349828720093e-01" nType="-99"/>
          <Node pos="r" depth="2" NCoef="0" IVar="5" Cut="1.1851113128662109e+02" cType="1" res="-4.4698864221572876e-03" rms="3.0690288543701172e-01" purity="8.7584257125854492e-01" nType="0">
            <Node pos="l" depth="3" NCoef="0" IVar="-1" Cut="0.0000000000000000e+00" cType="1" res="-1.3819196261465549e-02" rms="3.5227578878402710e-01" purity="8.2314473390579224e-01" nType="-99"/>
            <Node pos="r" depth="3" NCoef="0" IVar="-1" Cut="0.0000000000000000e+00" cType="1" res="4.6431790105998516e-03" rms="2.7099654078483582e-01" purity="9.1212970018386841e-01" nType="-99"/>
          </Node>
        </Node>
      </Node>
    </BinaryTree>
    <BinaryTree type="DecisionTree" boostWeight="1.0000000000000000e+00" itree="150">
      <Node pos="s" depth="0" NCoef="0" IVar="6" Cut="-1.7242288589477539e+00" cType="1" res="1.1903136037290096e-03" rms="3.9108419418334961e-01" purity="4.9555391073226929e-01" nType="0">
        <Node pos="l" depth="1" NCoef="0" IVar="-1" Cut="0.0000000000000000e+00" cType="1" res="-2.3588266223669052e-02" rms="2.9868596792221069e-01" purity="1.4885272085666656e-01" nType="-99"/>
        <Node pos="r" depth="1" NCoef="0" IVar="9" Cut="1.9999749660491943e+00" cType="1" res="2.2273065987974405e-03" rms="3.9418923854827881e-01" purity="5.0897490978240967e-01" nType="0">
          <Node pos="l" depth="2" NCoef="0" IVar="9" Cut="-5.7149343192577362e-02" cType="1" res="9.2559144832193851e-04" rms="3.9395004510879517e-01" purity="5.1640152931213379e-01" nType="0">
            <Node pos="l" depth="3" NCoef="0" IVar="-1" Cut="0.0000000000000000e+00" cType="1" res="4.2143207974731922e-03" rms="3.9616617560386658e-01" purity="5.1406872272491455e-01" nType="-99"/>
            <Node pos="r" depth="3" NCoef="0" IVar="-1" Cut="0.0000000000000000e+00" cType="1" res="-3.1222372781485319e-03" rms="3.9156121015548706e-01" purity="5.1881426572799683e-01" nType="-99"/>
          </Node>
          <Node pos="r" depth="2" NCoef="0" IVar="9" Cut="2.3047342300415039e+00" cType="1" res="2.3901326581835747e-02" rms="3.9752483367919922e-01" purity="3.8531887531280518e-01" nType="0">
            <Node pos="l" depth="3" NCoef="0" IVar="-1" Cut="0.0000000000000000e+00" cType="1" res="2.2867925465106964e-02" rms="3.9635151624679565e-01" purity="4.2777252197265625e-01" nType="-99"/>
            <Node pos="r" depth="3" NCoef="0" IVar="-1" Cut="0.0000000000000000e+00" cType="1" res="7.9488614574074745e-03" rms="3.9831703901290894e-01" purity="3.4338885545730591e-01" nType="-99"/>
          </Node>
        </Node>
      </Node>
    </BinaryTree>
    <BinaryTree type="DecisionTree" boostWeight="1.0000000000000000e+00" itree="151">
      <Node pos="s" depth="0" NCoef="0" IVar="7" Cut="1.9999725818634033e+00" cType="1" res="-1.9892947748303413e-03" rms="3.8877564668655396e-01" purity="4.9945196509361267e-01" nType="0">
        <Node pos="l" depth="1" NCoef="0" IVar="8" Cut="1.7331833839416504e+00" cType="1" res="-3.0797950457781553e-03" rms="3.9082178473472595e-01" purity="5.1018351316452026e-01" nType="0">
          <Node pos="l" depth="2" NCoef="0" IVar="6" Cut="1.7349984645843506e+00" cType="1" res="-4.2815729975700378e-03" rms="3.9160978794097900e-01" purity="5.2541059255599976e-01" nType="0">
            <Node pos="l" depth="3" NCoef="0" IVar="-1" Cut="0.0000000000000000e+00" cType="1" res="-3.3021105919033289e-03" rms="3.9357009530067444e-01" purity="5.3814780712127686e-01" nType="-99"/>
            <Node pos="r" depth="3" NCoef="0" IVar="-1" Cut="0.0000000000000000e+00" cType="1" res="1.6071559861302376e-02" rms="3.3855071663856506e-01" purity="2.0907592773437500e-01" nType="-99"/>
          </Node>
          <Node pos="r" depth="2" NCoef="0" IVar="8" Cut="2.0379416942596436e+00" cType="1" res="1.3232584111392498e-02" rms="3.7958806753158569e-01" purity="3.0349776148796082e-01" nType="0">
            <Node pos="l" depth="3" NCoef="0" IVar="-1" Cut="0.0000000000000000e+00" cType="1" res="1.7670832574367523e-02" rms="3.9106708765029907e-01" purity="3.7449550628662109e-01" nType="-99"/>
            <Node pos="r" depth="3" NCoef="0" IVar="-1" Cut="0.0000000000000000e+00" cType="1" res="1.9939590711146593e-03" rms="3.6994621157646179e-01" purity="2.4753747880458832e-01" nType="-99"/>
          </Node>
        </Node>
        <Node pos="r" depth="1" NCoef="0" IVar="-1" Cut="0.0000000000000000e+00" cType="1" res="2.4997131898999214e-02" rms="3.2875996828079224e-01" purity="2.1554918587207794e-01" nType="-99"/>
      </Node>
    </BinaryTree>
    <BinaryTree type="DecisionTree" boostWeight="1.0000000000000000e+00" itree="152">
      <Node pos="s" depth="0" NCoef="0" IVar="6" Cut="1.2070914506912231e+00" cType="1" res="-1.5585721703246236e-03" rms="3.8836491107940674e-01" purity="4.9897319078445435e-01" nType="0">
        <Node pos="l" depth="1" NCoef="0" IVar="7" Cut="1.7331482172012329e+00" cType="1" res="9.5584808150306344e-04" rms="3.9417555928230286e-01" purity="5.3133475780487061e-01" nType="0">
          <Node pos="l" depth="2" NCoef="0" IVar="1" Cut="1.1200374755859375e+03" cType="1" res="-8.9333346113562584e-04" rms="3.9546123147010803e-01" purity="5.4725068807601929e-01" nType="0">
            <Node pos="l" depth="3" NCoef="0" IVar="-1" Cut="0.0000000000000000e+00" cType="1" res="-7.4085467495024204e-03" rms="4.0283277630805969e-01" purity="2.7364826202392578e-01" nType="-99"/>
            <Node pos="r" depth="3" NCoef="0" IVar="-1" Cut="0.0000000000000000e+00" cType="1" res="2.7103233151137829e-03" rms="3.9195689558982849e-01" purity="6.7166280746459961e-01" nType="-99"/>
          </Node>
          <Node pos="r" depth="2" NCoef="0" IVar="7" Cut="2.0887136459350586e+00" cType="1" res="3.1828459352254868e-02" rms="3.7069559097290039e-01" purity="2.6561358571052551e-01" nType="0">
            <Node pos="l" depth="3" NCoef="0" IVar="-1" Cut="0.0000000000000000e+00" cType="1" res="3.3170111477375031e-02" rms="3.9630666375160217e-01" purity="3.1373962759971619e-01" nType="-99"/>
            <Node pos="r" depth="3" NCoef="0" IVar="-1" Cut="0.0000000000000000e+00" cType="1" res="1.4872320927679539e-02" rms="3.4205612540245056e-01" purity="2.1658730506896973e-01" nType="-99"/>
          </Node>
        </Node>
        <Node pos="r" depth="1" NCoef="0" IVar="3" Cut="2.2364028930664062e+02" cType="1" res="-2.2944996133446693e-02" rms="3.3412709832191467e-01" purity="2.2372141480445862e-01" nType="0">
          <Node pos="l" depth="2" NCoef="0" IVar="3" Cut="1.5024436950683594e+02" cType="1" res="-1.4835671521723270e-02" rms="3.2021939754486084e-01" purity="1.6198901832103729e-01" nType="0">
            <Node pos="l" depth="3" NCoef="0" IVar="-1" Cut="0.0000000000000000e+00" cType="1" res="-3.3907704055309296e-02" rms="2.5125738978385925e-01" purity="8.4192819893360138e-02" nType="-99"/>
            <Node pos="r" depth="3" NCoef="0" IVar="-1" Cut="0.0000000000000000e+00" cType="1" res="-1.6926339594647288e-03" rms="3.7287116050720215e-01" purity="2.3466819524765015e-01" nType="-99"/>
          </Node>
          <Node pos="r" depth="2" NCoef="0" IVar="-1" Cut="0.0000000000000000e+00" cType="1" res="-2.6680463925004005e-02" rms="3.6443498730659485e-01" purity="3.7094125151634216e-01" nType="-99"/>
        </Node>
      </Node>
    </BinaryTree>
    <BinaryTree type="DecisionTree" boostWeight="1.0000000000000000e+00" itree="153">
      <Node pos="s" depth="0" NCoef="0" IVar="0" Cut="4.5299566650390625e+02" cType="1" res="5.6793298572301865e-03" rms="3.9088603854179382e-01" purity="5.0570046901702881e-01" nType="0">
        <Node pos="l" depth="1" NCoef="0" IVar="9" Cut="-1.3328965008258820e-01" cType="1" res="1.0236509144306183e-02" rms="4.0091475844383240e-01" purity="3.7412050366401672e-01" nType="0">
          <Node pos="l" depth="2" NCoef="0" IVar="4" Cut="1.9991087341308594e+02" cType="1" res="1.7201771959662437e-02" rms="4.0174835920333862e-01" purity="3.7902903556823730e-01" nType="0">
            <Node pos="l" depth="3" NCoef="0" IVar="-1" Cut="0.0000000000000000e+00" cType="1" res="1.3352012261748314e-02" rms="4.0153509378433228e-01" purity="3.4921395778656006e-01" nType="-99"/>
            <Node pos="r" depth="3" NCoef="0" IVar="-1" Cut="0.0000000000000000e+00" cType="1" res="-8.6292512714862823e-03" rms="4.0219742059707642e-01" purity="6.3673651218414307e-01" nType="-99"/>
          </Node>
          <Node pos="r" depth="2" NCoef="0" IVar="3" Cut="2.1720397949218750e+02" cType="1" res="4.1810250841081142e-03" rms="4.0009012818336487e-01" purity="3.6985307931900024e-01" nType="0">
            <Node pos="l" depth="3" NCoef="0" IVar="-1" Cut="0.0000000000000000e+00" cType="1" res="-4.4474876485764980e-03" rms="3.8952800631523132e-01" purity="2.8188237547874451e-01" nType="-99"/>
            <Node pos="r" depth="3" NCoef="0" IVar="-1" Cut="0.0000000000000000e+00" cType="1" res="1.4273394830524921e-02" rms="4.1873937845230103e-01" purity="5.3789383172988892e-01" nType="-99"/>
          </Node>
        </Node>
        <Node pos="r" depth="1" NCoef="0" IVar="1" Cut="1.1710413818359375e+03" cType="1" res="-1.4985386515036225e-03" rms="3.7443348765373230e-01" purity="7.1294784545898438e-01" nType="0">
          <Node pos="l" depth="2" NCoef="0" IVar="-1" Cut="0.0000000000000000e+00" cType="1" res="-1.4870635233819485e-02" rms="4.4722053408622742e-01" purity="3.9086371660232544e-01" nType="-99"/>
          <Node pos="r" depth="2" NCoef="0" IVar="9" Cut="3.9993125200271606e-01" cType="1" res="1.4358714688569307e-03" rms="3.6531698703765869e-01" purity="7.4880445003509521e-01" nType="0">
            <Node pos="l" depth="3" NCoef="0" IVar="-1" Cut="0.0000000000000000e+00" cType="1" res="4.9527334049344063e-03" rms="3.6140540242195129e-01" purity="7.6214373111724854e-01" nType="-99"/>
            <Node pos="r" depth="3" NCoef="0" IVar="-1" Cut="0.0000000000000000e+00" cType="1" res="-5.7645826600492001e-03" rms="3.7206098437309265e-01" purity="7.2480785846710205e-01" nType="-99"/>
          </Node>
        </Node>
      </Node>
    </BinaryTree>
    <BinaryTree type="DecisionTree" boostWeight="1.0000000000000000e+00" itree="154">
      <Node pos="s" depth="0" NCoef="0" IVar="1" Cut="1.7600894775390625e+03" cType="1" res="-2.8089431580156088e-03" rms="3.8949722051620483e-01" purity="4.9765110015869141e-01" nType="0">
        <Node pos="l" depth="1" NCoef="0" IVar="9" Cut="-2.2666230201721191e+00" cType="1" res="-5.4717799648642540e-03" rms="3.9586293697357178e-01" purity="4.5008787512779236e-01" nType="0">
          <Node pos="l" depth="2" NCoef="0" IVar="-1" Cut="0.0000000000000000e+00" cType="1" res="-3.2843790948390961e-02" rms="3.5014265775680542e-01" purity="2.5307524204254150e-01" nType="-99"/>
          <Node pos="r" depth="2" NCoef="0" IVar="3" Cut="1.5825604248046875e+02" cType="1" res="-4.1940114460885525e-03" rms="3.9714428782463074e-01" purity="4.5626720786094666e-01" nType="0">
            <Node pos="l" depth="3" NCoef="0" IVar="-1" Cut="0.0000000000000000e+00" cType="1" res="3.6000860854983330e-03" rms="3.8775548338890076e-01" purity="2.7443042397499084e-01" nType="-99"/>
            <Node pos="r" depth="3" NCoef="0" IVar="-1" Cut="0.0000000000000000e+00" cType="1" res="-5.5333529599010944e-03" rms="4.0178346633911133e-01" purity="5.4942739009857178e-01" nType="-99"/>
          </Node>
        </Node>
        <Node pos="r" depth="1" NCoef="0" IVar="7" Cut="-6.6625803709030151e-01" cType="1" res="1.4394689351320267e-02" rms="3.4506100416183472e-01" purity="8.0494022369384766e-01" nType="0">
          <Node pos="l" depth="2" NCoef="0" IVar="-1" Cut="0.0000000000000000e+00" cType="1" res="2.5012683123350143e-02" rms="3.6274310946464539e-01" purity="7.7493423223495483e-01" nType="-99"/>
          <Node pos="r" depth="2" NCoef="0" IVar="8" Cut="3.9982813596725464e-01" cType="1" res="7.6638432219624519e-03" rms="3.3915123343467712e-01" purity="8.1417298316955566e-01" nType="0">
            <Node pos="l" depth="3" NCoef="0" IVar="-1" Cut="0.0000000000000000e+00" cType="1" res="9.5500797033309937e-04" rms="3.3469817042350769e-01" purity="8.2371443510055542e-01" nType="-99"/>
            <Node pos="r" depth="3" NCoef="0" IVar="-1" Cut="0.0000000000000000e+00" cType="1" res="1.5262373723089695e-02" rms="3.4693127870559692e-01" purity="7.9646819829940796e-01" nType="-99"/>
          </Node>
        </Node>
      </Node>
    </BinaryTree>
    <BinaryTree type="DecisionTree" boostWeight="1.0000000000000000e+00" itree="155">
      <Node pos="s" depth="0" NCoef="0" IVar="6" Cut="1.7354359626770020e+00" cType="1" res="2.8263207059353590e-03" rms="3.9191454648971558e-01" purity="4.9927482008934021e-01" nType="0">
        <Node pos="l" depth="1" NCoef="0" IVar="7" Cut="6.6656476259231567e-01" cType="1" res="1.8157250015065074e-03" rms="3.9408531785011292e-01" purity="5.1196819543838501e-01" nType="0">
          <Node pos="l" depth="2" NCoef="0" IVar="6" Cut="-1.7111502885818481e+00" cType="1" res="-1.4846874400973320e-03" rms="3.9478465914726257e-01" purity="5.4068171977996826e-01" nType="0">
            <Node pos="l" depth="3" NCoef="0" IVar="-1" Cut="0.0000000000000000e+00" cType="1" res="2.6619000360369682e-02" rms="3.5568454861640930e-01" purity="2.1972011029720306e-01" nType="-99"/>
            <Node pos="r" depth="3" NCoef="0" IVar="-1" Cut="0.0000000000000000e+00" cType="1" res="-1.8593693384900689e-03" rms="3.9638474583625793e-01" purity="5.5506265163421631e-01" nType="-99"/>
          </Node>
          <Node pos="r" depth="2" NCoef="0" IVar="1" Cut="1.0743011474609375e+03" cType="1" res="1.0858645662665367e-02" rms="3.9202040433883667e-01" purity="4.3329495191574097e-01" nType="0">
            <Node pos="l" depth="3" NCoef="0" IVar="-1" Cut="0.0000000000000000e+00" cType="1" res="-6.6303173080086708e-03" rms="3.5140761733055115e-01" purity="1.7591074109077454e-01" nType="-99"/>
            <Node pos="r" depth="3" NCoef="0" IVar="-1" Cut="0.0000000000000000e+00" cType="1" res="1.1836554855108261e-02" rms="4.0847975015640259e-01" purity="5.4765582084655762e-01" nType="-99"/>
          </Node>
        </Node>
        <Node pos="r" depth="1" NCoef="0" IVar="-1" Cut="0.0000000000000000e+00" cType="1" res="2.6195337995886803e-02" rms="3.3577382564544678e-01" purity="1.9975973665714264e-01" nType="-99"/>
      </Node>
    </BinaryTree>
    <BinaryTree type="DecisionTree" boostWeight="1.0000000000000000e+00" itree="156">
      <Node pos="s" depth="0" NCoef="0" IVar="7" Cut="3.9998084306716919e-01" cType="1" res="-2.9833140433765948e-04" rms="3.9077854156494141e-01" purity="4.9769821763038635e-01" nType="0">
        <Node pos="l" depth="1" NCoef="0" IVar="9" Cut="1.2000002861022949e+00" cType="1" res="4.8325834795832634e-03" rms="3.9455929398536682e-01" purity="5.2672809362411499e-01" nType="0">
          <Node pos="l" depth="2" NCoef="0" IVar="0" Cut="4.5299465942382812e+02" cType="1" res="7.4341297149658203e-03" rms="3.9367216825485229e-01" purity="5.4220306873321533e-01" nType="0">
            <Node pos="l" depth="3" NCoef="0" IVar="-1" Cut="0.0000000000000000e+00" cType="1" res="7.8821927309036255e-03" rms="4.0612560510635376e-01" purity="4.1283732652664185e-01" nType="-99"/>
            <Node pos="r" depth="3" NCoef="0" IVar="-1" Cut="0.0000000000000000e+00" cType="1" res="-5.2828091429546475e-04" rms="3.7428689002990723e-01" purity="7.3410964012145996e-01" nType="-99"/>
          </Node>
          <Node pos="r" depth="2" NCoef="0" IVar="5" Cut="8.9557258605957031e+01" cType="1" res="-1.0575504042208195e-02" rms="3.9942577481269836e-01" purity="4.3507492542266846e-01" nType="0">
            <Node pos="l" depth="3" NCoef="0" IVar="-1" Cut="0.0000000000000000e+00" cType="1" res="4.9012443050742149e-03" rms="3.9914333820343018e-01" purity="3.3832770586013794e-01" nType="-99"/>
            <Node pos="r" depth="3" NCoef="0" IVar="-1" Cut="0.0000000000000000e+00" cType="1" res="-2.8549842536449432e-02" rms="3.9777091145515442e-01" purity="6.1181265115737915e-01" nType="-99"/>
          </Node>
        </Node>
        <Node pos="r" depth="1" NCoef="0" IVar="9" Cut="-4.0002849698066711e-01" cType="1" res="-9.8038623109459877e-03" rms="3.8349458575248718e-01" purity="4.4391739368438721e-01" nType="0">
          <Node pos="l" depth="2" NCoef="0" IVar="1" Cut="1.4887255859375000e+03" cType="1" res="-2.7413178235292435e-02" rms="3.7685868144035339e-01" purity="4.2439305782318115e-01" nType="0">
            <Node pos="l" depth="3" NCoef="0" IVar="-1" Cut="0.0000000000000000e+00" cType="1" res="-2.4262532591819763e-02" rms="3.7303313612937927e-01" purity="3.2794335484504700e-01" nType="-99"/>
            <Node pos="r" depth="3" NCoef="0" IVar="-1" Cut="0.0000000000000000e+00" cType="1" res="8.6702761473134160e-04" rms="3.8611981272697449e-01" purity="6.9930225610733032e-01" nType="-99"/>
          </Node>
          <Node pos="r" depth="2" NCoef="0" IVar="4" Cut="1.2431292724609375e+02" cType="1" res="-1.4061587862670422e-03" rms="3.8633650541305542e-01" purity="4.5322835445404053e-01" nType="0">
            <Node pos="l" depth="3" NCoef="0" IVar="-1" Cut="0.0000000000000000e+00" cType="1" res="7.9750511795282364e-03" rms="3.8642391562461853e-01" purity="2.9413795471191406e-01" nType="-99"/>
            <Node pos="r" depth="3" NCoef="0" IVar="-1" Cut="0.0000000000000000e+00" cType="1" res="-1.0124880820512772e-02" rms="3.8572952151298523e-01" purity="6.2543177604675293e-01" nType="-99"/>
          </Node>
        </Node>
      </Node>
    </BinaryTree>
    <BinaryTree type="DecisionTree" boostWeight="1.0000000000000000e+00" itree="157">
      <Node pos="s" depth="0" NCoef="0" IVar="8" Cut="3.9998826384544373e-01" cType="1" res="-2.4143492337316275e-03" rms="3.9010527729988098e-01" purity="4.9438634514808655e-01" nType="0">
        <Node pos="l" depth="1" NCoef="0" IVar="6" Cut="-3.7108394503593445e-01" cType="1" res="-5.8880792930722237e-03" rms="3.9059197902679443e-01" purity="5.0796622037887573e-01" nType="0">
          <Node pos="l" depth="2" NCoef="0" IVar="9" Cut="-9.3313193321228027e-01" cType="1" res="-1.7264325171709061e-02" rms="3.8722553849220276e-01" purity="4.3642482161521912e-01" nType="0">
            <Node pos="l" depth="3" NCoef="0" IVar="-1" Cut="0.0000000000000000e+00" cType="1" res="-3.5220410791225731e-04" rms="3.8081979751586914e-01" purity="3.7790957093238831e-01" nType="-99"/>
            <Node pos="r" depth="3" NCoef="0" IVar="-1" Cut="0.0000000000000000e+00" cType="1" res="-1.5737295150756836e-02" rms="3.8968756794929504e-01" purity="4.6118560433387756e-01" nType="-99"/>
          </Node>
          <Node pos="r" depth="2" NCoef="0" IVar="9" Cut="1.1998776197433472e+00" cType="1" res="7.4170087464153767e-04" rms="3.9238843321800232e-01" purity="5.4965877532958984e-01" nType="0">
            <Node pos="l" depth="3" NCoef="0" IVar="-1" Cut="0.0000000000000000e+00" cType="1" res="-2.0382795482873917e-03" rms="3.9217370748519897e-01" purity="5.5849367380142212e-01" nType="-99"/>
            <Node pos="r" depth="3" NCoef="0" IVar="-1" Cut="0.0000000000000000e+00" cType="1" res="1.2391950935125351e-02" rms="3.9288675785064697e-01" purity="5.0711113214492798e-01" nType="-99"/>
          </Node>
        </Node>
        <Node pos="r" depth="1" NCoef="0" IVar="7" Cut="1.3321444392204285e-01" cType="1" res="3.5749529488384724e-03" rms="3.8919192552566528e-01" purity="4.7097229957580566e-01" nType="0">
          <Node pos="l" depth="2" NCoef="0" IVar="8" Cut="6.2857794761657715e-01" cType="1" res="-6.2572555616497993e-03" rms="3.9261555671691895e-01" purity="4.7714027762413025e-01" nType="0">
            <Node pos="l" depth="3" NCoef="0" IVar="-1" Cut="0.0000000000000000e+00" cType="1" res="1.2289447709918022e-02" rms="4.0456947684288025e-01" purity="5.9443944692611694e-01" nType="-99"/>
            <Node pos="r" depth="3" NCoef="0" IVar="-1" Cut="0.0000000000000000e+00" cType="1" res="-8.4318416193127632e-03" rms="3.8908722996711731e-01" purity="4.4588926434516907e-01" nType="-99"/>
          </Node>
          <Node pos="r" depth="2" NCoef="0" IVar="6" Cut="-3.3161228895187378e-01" cType="1" res="1.2990247458219528e-02" rms="3.8565012812614441e-01" purity="4.6506583690643311e-01" nType="0">
            <Node pos="l" depth="3" NCoef="0" IVar="-1" Cut="0.0000000000000000e+00" cType="1" res="2.3646052926778793e-02" rms="3.9011210203170776e-01" purity="4.5275047421455383e-01" nType="-99"/>
            <Node pos="r" depth="3" NCoef="0" IVar="-1" Cut="0.0000000000000000e+00" cType="1" res="1.9578896462917328e-03" rms="3.8324305415153503e-01" purity="4.7047013044357300e-01" nType="-99"/>
          </Node>
        </Node>
      </Node>
    </BinaryTree>
    <BinaryTree type="DecisionTree" boostWeight="1.0000000000000000e+00" itree="158">
      <Node pos="s" depth="0" NCoef="0" IVar="3" Cut="3.3631930541992188e+02" cType="1" res="2.0518747624009848e-03" rms="3.8970687985420227e-01" purity="4.9993169307708740e-01" nType="0">
        <Node pos="l" depth="1" NCoef="0" IVar="1" Cut="1.2924299316406250e+03" cType="1" res="3.6289067938923836e-03" rms="3.9039030671119690e-01" purity="4.8264858126640320e-01" nType="0">
          <Node pos="l" depth="2" NCoef="0" IVar="5" Cut="1.0283771514892578e+02" cType="1" res="-1.1271693510934711e-03" rms="4.0200683474540710e-01" purity="3.2307466864585876e-01" nType="0">
            <Node pos="l" depth="3" NCoef="0" IVar="-1" Cut="0.0000000000000000e+00" cType="1" res="1.7336404416710138e-03" rms="3.9637807011604309e-01" purity="2.9326385259628296e-01" nType="-99"/>
            <Node pos="r" depth="3" NCoef="0" IVar="-1" Cut="0.0000000000000000e+00" cType="1" res="-1.4907027594745159e-02" rms="4.3844249844551086e-01" purity="5.3163796663284302e-01" nType="-99"/>
          </Node>
          <Node pos="r" depth="2" NCoef="0" IVar="0" Cut="4.2115399169921875e+02" cType="1" res="1.0562616400420666e-02" rms="3.7269830703735352e-01" purity="7.1528559923171997e-01" nType="0">
            <Node pos="l" depth="3" NCoef="0" IVar="-1" Cut="0.0000000000000000e+00" cType="1" res="1.6038853675127029e-02" rms="3.9890539646148682e-01" purity="5.8815389871597290e-01" nType="-99"/>
            <Node pos="r" depth="3" NCoef="0" IVar="-1" Cut="0.0000000000000000e+00" cType="1" res="3.4293679054826498e-03" rms="3.6296910047531128e-01" purity="7.5942629575729370e-01" nType="-99"/>
          </Node>
        </Node>
        <Node pos="r" depth="1" NCoef="0" IVar="8" Cut="-6.6595971584320068e-01" cType="1" res="-1.2903201393783092e-02" rms="3.8284254074096680e-01" purity="6.6382843255996704e-01" nType="0">
          <Node pos="l" depth="2" NCoef="0" IVar="-1" Cut="0.0000000000000000e+00" cType="1" res="1.1062176898121834e-02" rms="4.0555739402770996e-01" purity="6.2960445880889893e-01" nType="-99"/>
          <Node pos="r" depth="2" NCoef="0" IVar="9" Cut="-1.3297772407531738e-01" cType="1" res="-2.4220304563641548e-02" rms="3.7355923652648926e-01" purity="6.7633301019668579e-01" nType="0">
            <Node pos="l" depth="3" NCoef="0" IVar="-1" Cut="0.0000000000000000e+00" cType="1" res="-9.5980493351817131e-03" rms="3.6443150043487549e-01" purity="7.0789986848831177e-01" nType="-99"/>
            <Node pos="r" depth="3" NCoef="0" IVar="-1" Cut="0.0000000000000000e+00" cType="1" res="-2.3059437051415443e-02" rms="3.8123965263366699e-01" purity="6.4822179079055786e-01" nType="-99"/>
          </Node>
        </Node>
      </Node>
    </BinaryTree>
    <BinaryTree type="DecisionTree" boostWeight="1.0000000000000000e+00" itree="159">
      <Node pos="s" depth="0" NCoef="0" IVar="9" Cut="-2.2666587829589844e+00" cType="1" res="3.6143668694421649e-04" rms="3.8901531696319580e-01" purity="5.0030148029327393e-01" nType="0">
        <Node pos="l" depth="1" NCoef="0" IVar="-1" Cut="0.0000000000000000e+00" cType="1" res="1.5569636598229408e-02" rms="3.7233406305313110e-01" purity="3.6303690075874329e-01" nType="-99"/>
        <Node pos="r" depth="1" NCoef="0" IVar="7" Cut="-1.7332259416580200e+00" cType="1" res="-3.8980724639259279e-04" rms="3.8955950736999512e-01" purity="5.0506252050399780e-01" nType="0">
          <Node pos="l" depth="2" NCoef="0" IVar="0" Cut="3.9030038452148438e+02" cType="1" res="1.4350702054798603e-02" rms="3.5184019804000854e-01" purity="2.3622888326644897e-01" nType="0">
            <Node pos="l" depth="3" NCoef="0" IVar="-1" Cut="0.0000000000000000e+00" cType="1" res="-7.8608430922031403e-03" rms="2.8908091783523560e-01" purity="1.1328191310167313e-01" nType="-99"/>
            <Node pos="r" depth="3" NCoef="0" IVar="-1" Cut="0.0000000000000000e+00" cType="1" res="2.3367861285805702e-02" rms="4.0787512063980103e-01" purity="3.6948776245117188e-01" nType="-99"/>
          </Node>
          <Node pos="r" depth="2" NCoef="0" IVar="6" Cut="-1.1653994321823120e+00" cType="1" res="-1.2969864765182137e-03" rms="3.9174413681030273e-01" purity="5.2160739898681641e-01" nType="0">
            <Node pos="l" depth="3" NCoef="0" IVar="-1" Cut="0.0000000000000000e+00" cType="1" res="-1.0344085283577442e-02" rms="3.6222833395004272e-01" purity="2.7543550729751587e-01" nType="-99"/>
            <Node pos="r" depth="3" NCoef="0" IVar="-1" Cut="0.0000000000000000e+00" cType="1" res="1.8741274834610522e-04" rms="3.9508515596389771e-01" purity="5.5094993114471436e-01" nType="-99"/>
          </Node>
        </Node>
      </Node>
    </BinaryTree>
    <BinaryTree type="DecisionTree" boostWeight="1.0000000000000000e+00" itree="160">
      <Node pos="s" depth="0" NCoef="0" IVar="7" Cut="-1.4666166305541992e+00" cType="1" res="2.4528161156922579e-04" rms="3.8664102554321289e-01" purity="5.0070339441299438e-01" nType="0">
        <Node pos="l" depth="1" NCoef="0" IVar="3" Cut="1.6321623229980469e+02" cType="1" res="-1.4552072621881962e-02" rms="3.4860658645629883e-01" purity="2.3531599342823029e-01" nType="0">
          <Node pos="l" depth="2" NCoef="0" IVar="-1" Cut="0.0000000000000000e+00" cType="1" res="3.1442753970623016e-03" rms="3.1488049030303955e-01" purity="1.6001196205615997e-01" nType="-99"/>
          <Node pos="r" depth="2" NCoef="0" IVar="-1" Cut="0.0000000000000000e+00" cType="1" res="-1.9398925825953484e-02" rms="3.7354075908660889e-01" purity="2.9751372337341309e-01" nType="-99"/>
        </Node>
        <Node pos="r" depth="1" NCoef="0" IVar="3" Cut="1.4497755432128906e+02" cType="1" res="1.6874825814738870e-03" rms="3.9011973142623901e-01" purity="5.2656894922256470e-01" nType="0">
          <Node pos="l" depth="2" NCoef="0" IVar="5" Cut="6.2988506317138672e+01" cType="1" res="-6.9951317273080349e-03" rms="3.7735202908515930e-01" purity="2.5109001994132996e-01" nType="0">
            <Node pos="l" depth="3" NCoef="0" IVar="-1" Cut="0.0000000000000000e+00" cType="1" res="7.2131101042032242e-03" rms="3.5260793566703796e-01" purity="1.6841213405132294e-01" nType="-99"/>
            <Node pos="r" depth="3" NCoef="0" IVar="-1" Cut="0.0000000000000000e+00" cType="1" res="-1.1515695601701736e-02" rms="3.9639648795127869e-01" purity="3.2020977139472961e-01" nType="-99"/>
          </Node>
          <Node pos="r" depth="2" NCoef="0" IVar="7" Cut="1.7839094400405884e+00" cType="1" res="4.2366711422801018e-03" rms="3.9375334978103638e-01" purity="6.0744869709014893e-01" nType="0">
            <Node pos="l" depth="3" NCoef="0" IVar="-1" Cut="0.0000000000000000e+00" cType="1" res="3.6937883123755455e-03" rms="3.9626359939575195e-01" purity="6.2563902139663696e-01" nType="-99"/>
            <Node pos="r" depth="3" NCoef="0" IVar="-1" Cut="0.0000000000000000e+00" cType="1" res="-2.1437700837850571e-02" rms="3.3659103512763977e-01" purity="2.3519998788833618e-01" nType="-99"/>
          </Node>
        </Node>
      </Node>
    </BinaryTree>
    <BinaryTree type="DecisionTree" boostWeight="1.0000000000000000e+00" itree="161">
      <Node pos="s" depth="0" NCoef="0" IVar="7" Cut="-4.0000954270362854e-01" cType="1" res="2.7002445422112942e-03" rms="3.8882294297218323e-01" purity="5.0425350666046143e-01" nType="0">
        <Node pos="l" depth="1" NCoef="0" IVar="3" Cut="3.3563439941406250e+02" cType="1" res="1.1549020186066628e-02" rms="3.9045721292495728e-01" purity="4.6899956464767456e-01" nType="0">
          <Node pos="l" depth="2" NCoef="0" IVar="9" Cut="-3.9986175298690796e-01" cType="1" res="1.5063566155731678e-02" rms="3.9078795909881592e-01" purity="4.5388501882553101e-01" nType="0">
            <Node pos="l" depth="3" NCoef="0" IVar="-1" Cut="0.0000000000000000e+00" cType="1" res="4.6240471419878304e-04" rms="3.8561096787452698e-01" purity="3.9718306064605713e-01" nType="-99"/>
            <Node pos="r" depth="3" NCoef="0" IVar="-1" Cut="0.0000000000000000e+00" cType="1" res="1.6595464199781418e-02" rms="3.9414983987808228e-01" purity="4.9472385644912720e-01" nType="-99"/>
          </Node>
          <Node pos="r" depth="2" NCoef="0" IVar="-1" Cut="0.0000000000000000e+00" cType="1" res="-1.6008235514163971e-02" rms="3.8518661260604858e-01" purity="6.2436228990554810e-01" nType="-99"/>
        </Node>
        <Node pos="r" depth="1" NCoef="0" IVar="3" Cut="2.0422947692871094e+02" cType="1" res="-2.2579415235668421e-03" rms="3.8781595230102539e-01" purity="5.2400720119476318e-01" nType="0">
          <Node pos="l" depth="2" NCoef="0" IVar="7" Cut="1.7332670688629150e+00" cType="1" res="-1.1194947175681591e-02" rms="3.9572376012802124e-01" purity="3.7116184830665588e-01" nType="0">
            <Node pos="l" depth="3" NCoef="0" IVar="-1" Cut="0.0000000000000000e+00" cType="1" res="-1.1477989144623280e-02" rms="4.0147042274475098e-01" purity="3.9549264311790466e-01" nType="-99"/>
            <Node pos="r" depth="3" NCoef="0" IVar="-1" Cut="0.0000000000000000e+00" cType="1" res="4.0887724608182907e-02" rms="3.4836965799331665e-01" purity="2.0141810178756714e-01" nType="-99"/>
          </Node>
          <Node pos="r" depth="2" NCoef="0" IVar="7" Cut="1.2761776447296143e+00" cType="1" res="6.7202565260231495e-03" rms="3.7949404120445251e-01" purity="6.7755711078643799e-01" nType="0">
            <Node pos="l" depth="3" NCoef="0" IVar="-1" Cut="0.0000000000000000e+00" cType="1" res="9.5964763313531876e-03" rms="3.8004007935523987e-01" purity="7.2368329763412476e-01" nType="-99"/>
            <Node pos="r" depth="3" NCoef="0" IVar="-1" Cut="0.0000000000000000e+00" cType="1" res="-2.6377720758318901e-02" rms="3.7240627408027649e-01" purity="3.7947088479995728e-01" nType="-99"/>
          </Node>
        </Node>
      </Node>
    </BinaryTree>
    <BinaryTree type="DecisionTree" boostWeight="1.0000000000000000e+00" itree="162">
      <Node pos="s" depth="0" NCoef="0" IVar="3" Cut="2.4120411682128906e+02" cType="1" res="-1.7376161413267255e-03" rms="3.8963085412979126e-01" purity="4.9734595417976379e-01" nType="0">
        <Node pos="l" depth="1" NCoef="0" IVar="3" Cut="1.9591087341308594e+02" cType="1" res="2.6811354327946901e-03" rms="3.9802190661430359e-01" purity="4.1655018925666809e-01" nType="0">
          <Node pos="l" depth="2" NCoef="0" IVar="4" Cut="1.2642424774169922e+02" cType="1" res="-3.6430971231311560e-03" rms="3.9384281635284424e-01" purity="3.4090790152549744e-01" nType="0">
            <Node pos="l" depth="3" NCoef="0" IVar="-1" Cut="0.0000000000000000e+00" cType="1" res="9.1860530665144324e-04" rms="3.8636073470115662e-01" purity="2.7671033143997192e-01" nType="-99"/>
            <Node pos="r" depth="3" NCoef="0" IVar="-1" Cut="0.0000000000000000e+00" cType="1" res="-1.1139187030494213e-02" rms="4.1583108901977539e-01" purity="5.4020768404006958e-01" nType="-99"/>
          </Node>
          <Node pos="r" depth="2" NCoef="0" IVar="7" Cut="9.3317383527755737e-01" cType="1" res="1.7699118703603745e-02" rms="4.0738111734390259e-01" purity="5.9617590904235840e-01" nType="0">
            <Node pos="l" depth="3" NCoef="0" IVar="-1" Cut="0.0000000000000000e+00" cType="1" res="6.6026216372847557e-03" rms="4.0461882948875427e-01" purity="6.2374585866928101e-01" nType="-99"/>
            <Node pos="r" depth="3" NCoef="0" IVar="-1" Cut="0.0000000000000000e+00" cType="1" res="2.9293095692992210e-02" rms="4.1766554117202759e-01" purity="4.7825500369071960e-01" nType="-99"/>
          </Node>
        </Node>
        <Node pos="r" depth="1" NCoef="0" IVar="7" Cut="1.1998503208160400e+00" cType="1" res="-1.1178966611623764e-02" rms="3.7089037895202637e-01" purity="6.6997861862182617e-01" nType="0">
          <Node pos="l" depth="2" NCoef="0" IVar="4" Cut="9.5826080322265625e+01" cType="1" res="-8.2405330613255501e-03" rms="3.7132605910301208e-01" purity="6.9756847620010376e-01" nType="0">
            <Node pos="l" depth="3" NCoef="0" IVar="-1" Cut="0.0000000000000000e+00" cType="1" res="-1.9838146865367889e-02" rms="4.0105360746383667e-01" purity="3.7780374288558960e-01" nType="-99"/>
            <Node pos="r" depth="3" NCoef="0" IVar="-1" Cut="0.0000000000000000e+00" cType="1" res="-3.7610514555126429e-03" rms="3.6769405007362366e-01" purity="7.3368847370147705e-01" nType="-99"/>
          </Node>
          <Node pos="r" depth="2" NCoef="0" IVar="-1" Cut="0.0000000000000000e+00" cType="1" res="-2.5648178532719612e-02" rms="3.6526435613632202e-01" purity="3.9636421203613281e-01" nType="-99"/>
        </Node>
      </Node>
    </BinaryTree>
    <BinaryTree type="DecisionTree" boostWeight="1.0000000000000000e+00" itree="163">
      <Node pos="s" depth="0" NCoef="0" IVar="4" Cut="1.0559147644042969e+02" cType="1" res="2.9268529033288360e-04" rms="3.8984900712966919e-01" purity="5.0049775838851929e-01" nType="0">
        <Node pos="l" depth="1" NCoef="0" IVar="7" Cut="-9.3337017297744751e-01" cType="1" res="7.1350792422890663e-03" rms="3.8628461956977844e-01" purity="2.6969939470291138e-01" nType="0">
          <Node pos="l" depth="2" NCoef="0" IVar="3" Cut="1.1639332580566406e+02" cType="1" res="-1.6078226268291473e-02" rms="3.3546575903892517e-01" purity="1.6515807807445526e-01" nType="0">
            <Node pos="l" depth="3" NCoef="0" IVar="-1" Cut="0.0000000000000000e+00" cType="1" res="7.4786115437746048e-03" rms="3.0691447854042053e-01" purity="1.3548016548156738e-01" nType="-99"/>
            <Node pos="r" depth="3" NCoef="0" IVar="-1" Cut="0.0000000000000000e+00" cType="1" res="-2.2814029827713966e-02" rms="3.5056900978088379e-01" purity="1.8275116384029388e-01" nType="-99"/>
          </Node>
          <Node pos="r" depth="2" NCoef="0" IVar="8" Cut="-9.3344491720199585e-01" cType="1" res="1.3873730786144733e-02" rms="3.9957660436630249e-01" purity="3.0004698038101196e-01" nType="0">
            <Node pos="l" depth="3" NCoef="0" IVar="-1" Cut="0.0000000000000000e+00" cType="1" res="2.6951540261507034e-02" rms="3.9632624387741089e-01" purity="2.7266514301300049e-01" nType="-99"/>
            <Node pos="r" depth="3" NCoef="0" IVar="-1" Cut="0.0000000000000000e+00" cType="1" res="4.2753471061587334e-03" rms="4.0030106902122498e-01" purity="3.0844056606292725e-01" nType="-99"/>
          </Node>
        </Node>
        <Node pos="r" depth="1" NCoef="0" IVar="8" Cut="-1.4661114215850830e+00" cType="1" res="-3.5367803648114204e-03" rms="3.9177760481834412e-01" purity="6.2966805696487427e-01" nType="0">
          <Node pos="l" depth="2" NCoef="0" IVar="7" Cut="-1.3553290069103241e-01" cType="1" res="-2.5737885385751724e-02" rms="3.9944469928741455e-01" purity="4.2240202426910400e-01" nType="0">
            <Node pos="l" depth="3" NCoef="0" IVar="-1" Cut="0.0000000000000000e+00" cType="1" res="-1.8103932961821556e-02" rms="3.9525124430656433e-01" purity="4.0669608116149902e-01" nType="-99"/>
            <Node pos="r" depth="3" NCoef="0" IVar="-1" Cut="0.0000000000000000e+00" cType="1" res="-1.2882282957434654e-02" rms="4.0329897403717041e-01" purity="4.3712207674980164e-01" nType="-99"/>
          </Node>
          <Node pos="r" depth="2" NCoef="0" IVar="8" Cut="1.7841835021972656e+00" cType="1" res="-1.5415168600156903e-03" rms="3.9101943373680115e-01" purity="6.4829558134078979e-01" nType="0">
            <Node pos="l" depth="3" NCoef="0" IVar="-1" Cut="0.0000000000000000e+00" cType="1" res="7.0133006374817342e-05" rms="3.9087256789207458e-01" purity="6.6347122192382812e-01" nType="-99"/>
            <Node pos="r" depth="3" NCoef="0" IVar="-1" Cut="0.0000000000000000e+00" cType="1" res="-1.9529756158590317e-02" rms="3.9247736334800720e-01" purity="3.6661973595619202e-01" nType="-99"/>
          </Node>
        </Node>
      </Node>
    </BinaryTree>
    <BinaryTree type="DecisionTree" boostWeight="1.0000000000000000e+00" itree="164">
      <Node pos="s" depth="0" NCoef="0" IVar="9" Cut="2.2666666507720947e+00" cType="1" res="-2.3495978675782681e-03" rms="3.8948562741279602e-01" purity="4.9805837869644165e-01" nType="0">
        <Node pos="l" depth="1" NCoef="0" IVar="9" Cut="5.7778877019882202e-01" cType="1" res="-1.6741985455155373e-03" rms="3.9028131961822510e-01" purity="5.0404864549636841e-01" nType="0">
          <Node pos="l" depth="2" NCoef="0" IVar="7" Cut="-1.9999425411224365e+00" cType="1" res="-4.3271244503557682e-03" rms="3.8847553730010986e-01" purity="5.1161122322082520e-01" nType="0">
            <Node pos="l" depth="3" NCoef="0" IVar="-1" Cut="0.0000000000000000e+00" cType="1" res="2.0788574591279030e-02" rms="3.3339622616767883e-01" purity="2.0948246121406555e-01" nType="-99"/>
            <Node pos="r" depth="3" NCoef="0" IVar="-1" Cut="0.0000000000000000e+00" cType="1" res="-3.5117443185299635e-03" rms="3.9048308134078979e-01" purity="5.2373307943344116e-01" nType="-99"/>
          </Node>
          <Node pos="r" depth="2" NCoef="0" IVar="6" Cut="6.7041534185409546e-01" cType="1" res="4.2690625414252281e-03" rms="3.9423197507858276e-01" purity="4.8710650205612183e-01" nType="0">
            <Node pos="l" depth="3" NCoef="0" IVar="-1" Cut="0.0000000000000000e+00" cType="1" res="-1.2592603452503681e-03" rms="3.9903351664543152e-01" purity="5.3506594896316528e-01" nType="-99"/>
            <Node pos="r" depth="3" NCoef="0" IVar="-1" Cut="0.0000000000000000e+00" cType="1" res="1.3555582612752914e-02" rms="3.8225373625755310e-01" purity="3.7393569946289062e-01" nType="-99"/>
          </Node>
        </Node>
        <Node pos="r" depth="1" NCoef="0" IVar="-1" Cut="0.0000000000000000e+00" cType="1" res="-1.7136037349700928e-02" rms="3.6244741082191467e-01" purity="3.0642279982566833e-01" nType="-99"/>
      </Node>
    </BinaryTree>
    <BinaryTree type="DecisionTree" boostWeight="1.0000000000000000e+00" itree="165">
      <Node pos="s" depth="0" NCoef="0" IVar="2" Cut="5.9880731201171875e+02" cType="1" res="-3.6548959906212986e-04" rms="3.8904330134391785e-01" purity="4.9723571538925171e-01" nType="0">
        <Node pos="l" depth="1" NCoef="0" IVar="2" Cut="2.1899102783203125e+02" cType="1" res="1.3732911320403218e-03" rms="3.8818550109863281e-01" purity="4.9303677678108215e-01" nType="0">
          <Node pos="l" depth="2" NCoef="0" IVar="-1" Cut="0.0000000000000000e+00" cType="1" res="1.6812143847346306e-02" rms="4.2680427432060242e-01" purity="4.0885961055755615e-01" nType="-99"/>
          <Node pos="r" depth="2" NCoef="0" IVar="6" Cut="1.4689624309539795e+00" cType="1" res="-4.5485995360650122e-04" rms="3.8531422615051270e-01" purity="4.9883800745010376e-01" nType="0">
            <Node pos="l" depth="3" NCoef="0" IVar="-1" Cut="0.0000000000000000e+00" cType="1" res="7.6443771831691265e-04" rms="3.8967525959014893e-01" purity="5.2209204435348511e-01" nType="-99"/>
            <Node pos="r" depth="3" NCoef="0" IVar="-1" Cut="0.0000000000000000e+00" cType="1" res="-2.0671997219324112e-02" rms="3.1804412603378296e-01" purity="1.7703735828399658e-01" nType="-99"/>
          </Node>
        </Node>
        <Node pos="r" depth="1" NCoef="0" IVar="7" Cut="-3.9974781870841980e-01" cType="1" res="-2.0739261060953140e-02" rms="3.9839214086532593e-01" purity="5.4643523693084717e-01" nType="0">
          <Node pos="l" depth="2" NCoef="0" IVar="-1" Cut="0.0000000000000000e+00" cType="1" res="-2.7110330760478973e-02" rms="4.0241664648056030e-01" purity="4.7576203942298889e-01" nType="-99"/>
          <Node pos="r" depth="2" NCoef="0" IVar="6" Cut="1.1106797493994236e-02" cType="1" res="-8.2138516008853912e-03" rms="3.9583054184913635e-01" purity="5.8046287298202515e-01" nType="0">
            <Node pos="l" depth="3" NCoef="0" IVar="-1" Cut="0.0000000000000000e+00" cType="1" res="-1.7062958329916000e-02" rms="3.9218109846115112e-01" purity="5.5554836988449097e-01" nType="-99"/>
            <Node pos="r" depth="3" NCoef="0" IVar="-1" Cut="0.0000000000000000e+00" cType="1" res="6.9075035862624645e-03" rms="3.9843854308128357e-01" purity="6.0536968708038330e-01" nType="-99"/>
          </Node>
        </Node>
      </Node>
    </BinaryTree>
    <BinaryTree type="DecisionTree" boostWeight="1.0000000000000000e+00" itree="166">
      <Node pos="s" depth="0" NCoef="0" IVar="9" Cut="-2.2666587829589844e+00" cType="1" res="6.0913058405276388e-05" rms="3.8933032751083374e-01" purity="4.9838134646415710e-01" nType="0">
        <Node pos="l" depth="1" NCoef="0" IVar="-1" Cut="0.0000000000000000e+00" cType="1" res="-2.7400920167565346e-02" rms="3.5531687736511230e-01" purity="2.7359756827354431e-01" nType="-99"/>
        <Node pos="r" depth="1" NCoef="0" IVar="6" Cut="6.7077326774597168e-01" cType="1" res="1.2124318163841963e-03" rms="3.9023336768150330e-01" purity="5.0503832101821899e-01" nType="0">
          <Node pos="l" depth="2" NCoef="0" IVar="7" Cut="1.3334523141384125e-01" cType="1" res="-2.0687044598162174e-03" rms="3.9279121160507202e-01" purity="5.4425448179244995e-01" nType="0">
            <Node pos="l" depth="3" NCoef="0" IVar="-1" Cut="0.0000000000000000e+00" cType="1" res="-4.2983209714293480e-03" rms="3.9381176233291626e-01" purity="5.4447883367538452e-01" nType="-99"/>
            <Node pos="r" depth="3" NCoef="0" IVar="-1" Cut="0.0000000000000000e+00" cType="1" res="2.5514706503599882e-03" rms="3.9138156175613403e-01" purity="5.4396373033523560e-01" nType="-99"/>
          </Node>
          <Node pos="r" depth="2" NCoef="0" IVar="2" Cut="4.2463906860351562e+02" cType="1" res="1.1434631422162056e-02" rms="3.8197422027587891e-01" purity="3.8286244869232178e-01" nType="0">
            <Node pos="l" depth="3" NCoef="0" IVar="-1" Cut="0.0000000000000000e+00" cType="1" res="1.3152255676686764e-02" rms="3.8453602790832520e-01" purity="3.7112712860107422e-01" nType="-99"/>
            <Node pos="r" depth="3" NCoef="0" IVar="-1" Cut="0.0000000000000000e+00" cType="1" res="-6.6260853782296181e-03" rms="3.7384387850761414e-01" purity="4.1592282056808472e-01" nType="-99"/>
          </Node>
        </Node>
      </Node>
    </BinaryTree>
    <BinaryTree type="DecisionTree" boostWeight="1.0000000000000000e+00" itree="167">
      <Node pos="s" depth="0" NCoef="0" IVar="9" Cut="-1.7332983016967773e+00" cType="1" res="3.2183565199375153e-03" rms="3.8960298895835876e-01" purity="5.0297147035598755e-01" nType="0">
        <Node pos="l" depth="1" NCoef="0" IVar="9" Cut="-2.1396496295928955e+00" cType="1" res="2.5745538994669914e-02" rms="3.8360098004341125e-01" purity="3.9355117082595825e-01" nType="0">
          <Node pos="l" depth="2" NCoef="0" IVar="-1" Cut="0.0000000000000000e+00" cType="1" res="1.7483843257650733e-03" rms="3.7108370661735535e-01" purity="3.2894271612167358e-01" nType="-99"/>
          <Node pos="r" depth="2" NCoef="0" IVar="-1" Cut="0.0000000000000000e+00" cType="1" res="2.9679227620363235e-02" rms="3.9266526699066162e-01" purity="4.4729176163673401e-01" nType="-99"/>
        </Node>
        <Node pos="r" depth="1" NCoef="0" IVar="8" Cut="-1.9999327659606934e+00" cType="1" res="1.0845887009054422e-03" rms="3.9009925723075867e-01" purity="5.1333576440811157e-01" nType="0">
          <Node pos="l" depth="2" NCoef="0" IVar="-1" Cut="0.0000000000000000e+00" cType="1" res="-2.3918058723211288e-02" rms="3.3234012126922607e-01" purity="2.2396509349346161e-01" nType="-99"/>
          <Node pos="r" depth="2" NCoef="0" IVar="2" Cut="6.9944549560546875e+02" cType="1" res="2.3581029381603003e-03" rms="3.9218553900718689e-01" purity="5.2494537830352783e-01" nType="0">
            <Node pos="l" depth="3" NCoef="0" IVar="-1" Cut="0.0000000000000000e+00" cType="1" res="2.0697021391242743e-03" rms="3.9170765876770020e-01" purity="5.2196097373962402e-01" nType="-99"/>
            <Node pos="r" depth="3" NCoef="0" IVar="-1" Cut="0.0000000000000000e+00" cType="1" res="-9.8732821643352509e-03" rms="4.0322932600975037e-01" purity="5.9820497035980225e-01" nType="-99"/>
          </Node>
        </Node>
      </Node>
    </BinaryTree>
    <BinaryTree type="DecisionTree" boostWeight="1.0000000000000000e+00" itree="168">
      <Node pos="s" depth="0" NCoef="0" IVar="9" Cut="1.3344982266426086e-01" cType="1" res="4.3077026493847370e-03" rms="3.9068689942359924e-01" purity="5.0523132085800171e-01" nType="0">
        <Node pos="l" depth="1" NCoef="0" IVar="3" Cut="2.4120411682128906e+02" cType="1" res="9.9494345486164093e-03" rms="3.9100381731987000e-01" purity="5.1662218570709229e-01" nType="0">
          <Node pos="l" depth="2" NCoef="0" IVar="0" Cut="5.5563226318359375e+02" cType="1" res="1.5594790689647198e-02" rms="4.0019926428794861e-01" purity="4.3883609771728516e-01" nType="0">
            <Node pos="l" depth="3" NCoef="0" IVar="-1" Cut="0.0000000000000000e+00" cType="1" res="1.2150092050433159e-02" rms="4.0349972248077393e-01" purity="3.9236992597579956e-01" nType="-99"/>
            <Node pos="r" depth="3" NCoef="0" IVar="-1" Cut="0.0000000000000000e+00" cType="1" res="-5.2565392106771469e-03" rms="3.7808907032012939e-01" purity="7.2943311929702759e-01" nType="-99"/>
          </Node>
          <Node pos="r" depth="2" NCoef="0" IVar="7" Cut="-3.9823660254478455e-01" cType="1" res="-2.1658262703567743e-03" rms="3.7020975351333618e-01" purity="6.8355566263198853e-01" nType="0">
            <Node pos="l" depth="3" NCoef="0" IVar="-1" Cut="0.0000000000000000e+00" cType="1" res="-1.2049111537635326e-02" rms="3.8126775622367859e-01" purity="6.1691963672637939e-01" nType="-99"/>
            <Node pos="r" depth="3" NCoef="0" IVar="-1" Cut="0.0000000000000000e+00" cType="1" res="4.2087337933480740e-03" rms="3.6413076519966125e-01" purity="7.1783280372619629e-01" nType="-99"/>
          </Node>
        </Node>
        <Node pos="r" depth="1" NCoef="0" IVar="6" Cut="-1.1919403076171875e+00" cType="1" res="-2.4801949039101601e-03" rms="3.9019715785980225e-01" purity="4.9152630567550659e-01" nType="0">
          <Node pos="l" depth="2" NCoef="0" IVar="-1" Cut="0.0000000000000000e+00" cType="1" res="-2.0575484260916710e-02" rms="3.4457063674926758e-01" purity="2.4849231541156769e-01" nType="-99"/>
          <Node pos="r" depth="2" NCoef="0" IVar="7" Cut="3.9980316162109375e-01" cType="1" res="4.9417187256040052e-05" rms="3.9432093501091003e-01" purity="5.1549613475799561e-01" nType="0">
            <Node pos="l" depth="3" NCoef="0" IVar="-1" Cut="0.0000000000000000e+00" cType="1" res="4.5117484405636787e-03" rms="3.9699062705039978e-01" purity="5.6255859136581421e-01" nType="-99"/>
            <Node pos="r" depth="3" NCoef="0" IVar="-1" Cut="0.0000000000000000e+00" cType="1" res="-6.9529777392745018e-03" rms="3.8990381360054016e-01" purity="4.4267335534095764e-01" nType="-99"/>
          </Node>
        </Node>
      </Node>
    </BinaryTree>
    <BinaryTree type="DecisionTree" boostWeight="1.0000000000000000e+00" itree="169">
      <Node pos="s" depth="0" NCoef="0" IVar="8" Cut="1.7332569360733032e+00" cType="1" res="-1.8406478920951486e-03" rms="3.8902762532234192e-01" purity="4.9848082661628723e-01" nType="0">
        <Node pos="l" depth="1" NCoef="0" IVar="1" Cut="1.4400612792968750e+03" cType="1" res="-3.4348610788583755e-03" rms="3.8966050744056702e-01" purity="5.1354056596755981e-01" nType="0">
          <Node pos="l" depth="2" NCoef="0" IVar="3" Cut="2.6563568115234375e+02" cType="1" res="-6.6108535975217819e-03" rms="4.0591827034950256e-01" purity="3.9223706722259521e-01" nType="0">
            <Node pos="l" depth="3" NCoef="0" IVar="-1" Cut="0.0000000000000000e+00" cType="1" res="-2.2870246320962906e-03" rms="4.0445619821548462e-01" purity="3.8768178224563599e-01" nType="-99"/>
            <Node pos="r" depth="3" NCoef="0" IVar="-1" Cut="0.0000000000000000e+00" cType="1" res="-2.2096902132034302e-02" rms="4.2097479104995728e-01" purity="4.4460889697074890e-01" nType="-99"/>
          </Node>
          <Node pos="r" depth="2" NCoef="0" IVar="6" Cut="-6.1028563976287842e-01" cType="1" res="3.0005751177668571e-03" rms="3.5435146093368530e-01" purity="7.5933486223220825e-01" nType="0">
            <Node pos="l" depth="3" NCoef="0" IVar="-1" Cut="0.0000000000000000e+00" cType="1" res="-1.0059844702482224e-02" rms="3.8305717706680298e-01" purity="6.6262733936309814e-01" nType="-99"/>
            <Node pos="r" depth="3" NCoef="0" IVar="-1" Cut="0.0000000000000000e+00" cType="1" res="6.0461643151938915e-03" rms="3.4644511342048645e-01" purity="7.8415405750274658e-01" nType="-99"/>
          </Node>
        </Node>
        <Node pos="r" depth="1" NCoef="0" IVar="9" Cut="4.0038880705833435e-01" cType="1" res="1.9555933773517609e-02" rms="3.7978446483612061e-01" purity="2.9635760188102722e-01" nType="0">
          <Node pos="l" depth="2" NCoef="0" IVar="-1" Cut="0.0000000000000000e+00" cType="1" res="-2.9050374869257212e-03" rms="3.7998560070991516e-01" purity="3.0726319551467896e-01" nType="-99"/>
          <Node pos="r" depth="2" NCoef="0" IVar="-1" Cut="0.0000000000000000e+00" cType="1" res="3.5895586013793945e-02" rms="3.7780299782752991e-01" purity="2.8415864706039429e-01" nType="-99"/>
        </Node>
      </Node>
    </BinaryTree>
    <BinaryTree type="DecisionTree" boostWeight="1.0000000000000000e+00" itree="170">
      <Node pos="s" depth="0" NCoef="0" IVar="6" Cut="1.4692428112030029e+00" cType="1" res="-1.6443260246887803e-03" rms="3.8766017556190491e-01" purity="4.9726462364196777e-01" nType="0">
        <Node pos="l" depth="1" NCoef="0" IVar="8" Cut="-1.4665185213088989e+00" cType="1" res="-2.1498744899872690e-04" rms="3.9202871918678284e-01" purity="5.2061200141906738e-01" nType="0">
          <Node pos="l" depth="2" NCoef="0" IVar="6" Cut="2.6374176144599915e-01" cType="1" res="1.3202597387135029e-02" rms="3.7910631299018860e-01" purity="3.4702426195144653e-01" nType="0">
            <Node pos="l" depth="3" NCoef="0" IVar="-1" Cut="0.0000000000000000e+00" cType="1" res="1.6164632514119148e-02" rms="3.8254839181900024e-01" purity="3.6678618192672729e-01" nType="-99"/>
            <Node pos="r" depth="3" NCoef="0" IVar="-1" Cut="0.0000000000000000e+00" cType="1" res="-9.0206200256943703e-03" rms="3.6896207928657532e-01" purity="2.9683783650398254e-01" nType="-99"/>
          </Node>
          <Node pos="r" depth="2" NCoef="0" IVar="4" Cut="1.8697322082519531e+02" cType="1" res="-1.8256180919706821e-03" rms="3.9352065324783325e-01" purity="5.4144930839538574e-01" nType="0">
            <Node pos="l" depth="3" NCoef="0" IVar="-1" Cut="0.0000000000000000e+00" cType="1" res="-3.1546731479465961e-03" rms="4.0666955709457397e-01" purity="4.6929976344108582e-01" nType="-99"/>
            <Node pos="r" depth="3" NCoef="0" IVar="-1" Cut="0.0000000000000000e+00" cType="1" res="8.3976369351148605e-03" rms="3.4156134724617004e-01" purity="8.0203515291213989e-01" nType="-99"/>
          </Node>
        </Node>
        <Node pos="r" depth="1" NCoef="0" IVar="3" Cut="1.5236444091796875e+02" cType="1" res="-2.1761773154139519e-02" rms="3.1922864913940430e-01" purity="1.6865767538547516e-01" nType="0">
          <Node pos="l" depth="2" NCoef="0" IVar="-1" Cut="0.0000000000000000e+00" cType="1" res="2.2971985861659050e-02" rms="2.9209923744201660e-01" purity="1.0868147015571594e-01" nType="-99"/>
          <Node pos="r" depth="2" NCoef="0" IVar="-1" Cut="0.0000000000000000e+00" cType="1" res="-3.4355770796537399e-02" rms="3.3265411853790283e-01" purity="2.0575949549674988e-01" nType="-99"/>
        </Node>
      </Node>
    </BinaryTree>
    <BinaryTree type="DecisionTree" boostWeight="1.0000000000000000e+00" itree="171">
      <Node pos="s" depth="0" NCoef="0" IVar="1" Cut="1.7444438476562500e+03" cType="1" res="-2.4068739730864763e-03" rms="3.8697347044944763e-01" purity="4.9712708592414856e-01" nType="0">
        <Node pos="l" depth="1" NCoef="0" IVar="2" Cut="5.3211462402343750e+02" cType="1" res="-4.4360407628118992e-03" rms="3.9375177025794983e-01" purity="4.4885358214378357e-01" nType="0">
          <Node pos="l" depth="2" NCoef="0" IVar="1" Cut="1.2497010498046875e+03" cType="1" res="-2.6557757519185543e-03" rms="3.9344361424446106e-01" purity="4.5687627792358398e-01" nType="0">
            <Node pos="l" depth="3" NCoef="0" IVar="-1" Cut="0.0000000000000000e+00" cType="1" res="-5.2684498950839043e-03" rms="3.9689731597900391e-01" purity="3.0115175247192383e-01" nType="-99"/>
            <Node pos="r" depth="3" NCoef="0" IVar="-1" Cut="0.0000000000000000e+00" cType="1" res="3.9986176416277885e-03" rms="3.8790374994277954e-01" purity="6.9658142328262329e-01" nType="-99"/>
          </Node>
          <Node pos="r" depth="2" NCoef="0" IVar="4" Cut="1.1144856262207031e+02" cType="1" res="-2.9934646561741829e-02" rms="3.9726498723030090e-01" purity="3.3394488692283630e-01" nType="0">
            <Node pos="l" depth="3" NCoef="0" IVar="-1" Cut="0.0000000000000000e+00" cType="1" res="-1.0661404579877853e-02" rms="3.8610813021659851e-01" purity="2.6343184709548950e-01" nType="-99"/>
            <Node pos="r" depth="3" NCoef="0" IVar="-1" Cut="0.0000000000000000e+00" cType="1" res="-2.4674564599990845e-02" rms="4.0793377161026001e-01" purity="4.0634030103683472e-01" nType="-99"/>
          </Node>
        </Node>
        <Node pos="r" depth="1" NCoef="0" IVar="3" Cut="3.3355603027343750e+02" cType="1" res="1.0382449254393578e-02" rms="3.4088835120201111e-01" purity="8.0138283967971802e-01" nType="0">
          <Node pos="l" depth="2" NCoef="0" IVar="1" Cut="1.9993778076171875e+03" cType="1" res="1.9470067694783211e-02" rms="3.1839510798454285e-01" purity="8.3771222829818726e-01" nType="0">
            <Node pos="l" depth="3" NCoef="0" IVar="-1" Cut="0.0000000000000000e+00" cType="1" res="7.3095113039016724e-03" rms="3.1830826401710510e-01" purity="8.3080953359603882e-01" nType="-99"/>
            <Node pos="r" depth="3" NCoef="0" IVar="-1" Cut="0.0000000000000000e+00" cType="1" res="3.4080579876899719e-02" rms="3.1735655665397644e-01" purity="8.5108828544616699e-01" nType="-99"/>
          </Node>
          <Node pos="r" depth="2" NCoef="0" IVar="6" Cut="-4.1993152350187302e-02" cType="1" res="-1.6702816355973482e-03" rms="3.6826351284980774e-01" purity="7.5319999456405640e-01" nType="0">
            <Node pos="l" depth="3" NCoef="0" IVar="-1" Cut="0.0000000000000000e+00" cType="1" res="9.3557517975568771e-03" rms="3.5922014713287354e-01" purity="7.7170538902282715e-01" nType="-99"/>
            <Node pos="r" depth="3" NCoef="0" IVar="-1" Cut="0.0000000000000000e+00" cType="1" res="-1.2334925122559071e-02" rms="3.7688040733337402e-01" purity="7.3385548591613770e-01" nType="-99"/>
          </Node>
        </Node>
      </Node>
    </BinaryTree>
    <BinaryTree type="DecisionTree" boostWeight="1.0000000000000000e+00" itree="172">
      <Node pos="s" depth="0" NCoef="0" IVar="7" Cut="1.7333289384841919e+00" cType="1" res="5.4488615132868290e-03" rms="3.9136469364166260e-01" purity="5.0282931327819824e-01" nType="0">
        <Node pos="l" depth="1" NCoef="0" IVar="7" Cut="1.0857137441635132e+00" cType="1" res="4.2932024225592613e-03" rms="3.9404121041297913e-01" purity="5.1968652009963989e-01" nType="0">
          <Node pos="l" depth="2" NCoef="0" IVar="0" Cut="4.3640008544921875e+02" cType="1" res="5.9398743323981762e-03" rms="3.9491042494773865e-01" purity="5.3628373146057129e-01" nType="0">
            <Node pos="l" depth="3" NCoef="0" IVar="-1" Cut="0.0000000000000000e+00" cType="1" res="6.4135324209928513e-03" rms="4.0628507733345032e-01" purity="3.9447289705276489e-01" nType="-99"/>
            <Node pos="r" depth="3" NCoef="0" IVar="-1" Cut="0.0000000000000000e+00" cType="1" res="5.1982580771436915e-05" rms="3.7997889518737793e-01" purity="7.1536797285079956e-01" nType="-99"/>
          </Node>
          <Node pos="r" depth="2" NCoef="0" IVar="8" Cut="6.6597497463226318e-01" cType="1" res="-1.0582889430224895e-02" rms="3.8578143715858459e-01" purity="3.6974656581878662e-01" nType="0">
            <Node pos="l" depth="3" NCoef="0" IVar="-1" Cut="0.0000000000000000e+00" cType="1" res="-1.2836499372497201e-03" rms="3.9964017271995544e-01" purity="4.1300103068351746e-01" nType="-99"/>
            <Node pos="r" depth="3" NCoef="0" IVar="-1" Cut="0.0000000000000000e+00" cType="1" res="-1.8057042732834816e-02" rms="3.5894927382469177e-01" purity="2.9179510474205017e-01" nType="-99"/>
          </Node>
        </Node>
        <Node pos="r" depth="1" NCoef="0" IVar="5" Cut="7.3819519042968750e+01" cType="1" res="2.3267680779099464e-02" rms="3.4700956940650940e-01" purity="2.4291215837001801e-01" nType="0">
          <Node pos="l" depth="2" NCoef="0" IVar="-1" Cut="0.0000000000000000e+00" cType="1" res="-9.1311940923333168e-03" rms="2.7748247981071472e-01" purity="9.7329072654247284e-02" nType="-99"/>
          <Node pos="r" depth="2" NCoef="0" IVar="-1" Cut="0.0000000000000000e+00" cType="1" res="3.4658107906579971e-02" rms="4.0244626998901367e-01" purity="3.8858833909034729e-01" nType="-99"/>
        </Node>
      </Node>
    </BinaryTree>
    <BinaryTree type="DecisionTree" boostWeight="1.0000000000000000e+00" itree="173">
      <Node pos="s" depth="0" NCoef="0" IVar="1" Cut="1.6877022705078125e+03" cType="1" res="-1.8741812091320753e-03" rms="3.8735252618789673e-01" purity="4.9923369288444519e-01" nType="0">
        <Node pos="l" depth="1" NCoef="0" IVar="4" Cut="1.6856799316406250e+02" cType="1" res="-4.1507943533360958e-03" rms="3.9612689614295959e-01" purity="4.3928429484367371e-01" nType="0">
          <Node pos="l" depth="2" NCoef="0" IVar="8" Cut="-2.0000112056732178e+00" cType="1" res="-1.3016886077821255e-03" rms="3.9888307452201843e-01" purity="3.8470557332038879e-01" nType="0">
            <Node pos="l" depth="3" NCoef="0" IVar="-1" Cut="0.0000000000000000e+00" cType="1" res="2.4792911484837532e-02" rms="3.5365149378776550e-01" purity="2.1516560018062592e-01" nType="-99"/>
            <Node pos="r" depth="3" NCoef="0" IVar="-1" Cut="0.0000000000000000e+00" cType="1" res="-1.8143499037250876e-03" rms="4.0117794275283813e-01" purity="3.9410471916198730e-01" nType="-99"/>
          </Node>
          <Node pos="r" depth="2" NCoef="0" IVar="5" Cut="8.5000923156738281e+01" cType="1" res="-1.6561439260840416e-02" rms="3.8364347815513611e-01" purity="6.7702823877334595e-01" nType="0">
            <Node pos="l" depth="3" NCoef="0" IVar="-1" Cut="0.0000000000000000e+00" cType="1" res="-2.3024721071124077e-02" rms="4.1533443331718445e-01" purity="4.9144375324249268e-01" nType="-99"/>
            <Node pos="r" depth="3" NCoef="0" IVar="-1" Cut="0.0000000000000000e+00" cType="1" res="-6.0766302049160004e-03" rms="3.7228882312774658e-01" purity="7.3799288272857666e-01" nType="-99"/>
          </Node>
        </Node>
        <Node pos="r" depth="1" NCoef="0" IVar="9" Cut="-3.9989086985588074e-01" cType="1" res="9.5817185938358307e-03" rms="3.3954697847366333e-01" purity="8.0089837312698364e-01" nType="0">
          <Node pos="l" depth="2" NCoef="0" IVar="6" Cut="7.4838344007730484e-03" cType="1" res="-4.4985553249716759e-03" rms="3.4851694107055664e-01" purity="7.7897924184799194e-01" nType="0">
            <Node pos="l" depth="3" NCoef="0" IVar="-1" Cut="0.0000000000000000e+00" cType="1" res="6.3934992067515850e-03" rms="3.4587013721466064e-01" purity="7.8946256637573242e-01" nType="-99"/>
            <Node pos="r" depth="3" NCoef="0" IVar="-1" Cut="0.0000000000000000e+00" cType="1" res="-1.6602493822574615e-02" rms="3.5118645429611206e-01" purity="7.6576942205429077e-01" nType="-99"/>
          </Node>
          <Node pos="r" depth="2" NCoef="0" IVar="5" Cut="1.3654042053222656e+02" cType="1" res="1.7183629795908928e-02" rms="3.3435776829719543e-01" purity="8.1273251771926880e-01" nType="0">
            <Node pos="l" depth="3" NCoef="0" IVar="-1" Cut="0.0000000000000000e+00" cType="1" res="2.0230982452630997e-02" rms="3.6468765139579773e-01" purity="7.6673048734664917e-01" nType="-99"/>
            <Node pos="r" depth="3" NCoef="0" IVar="-1" Cut="0.0000000000000000e+00" cType="1" res="-3.4508982207626104e-04" rms="2.8529492020606995e-01" purity="8.7756067514419556e-01" nType="-99"/>
          </Node>
        </Node>
      </Node>
    </BinaryTree>
    <BinaryTree type="DecisionTree" boostWeight="1.0000000000000000e+00" itree="174">
      <Node pos="s" depth="0" NCoef="0" IVar="6" Cut="4.0456292033195496e-01" cType="1" res="-3.2540078973397613e-04" rms="3.8915544748306274e-01" purity="5.0002467632293701e-01" nType="0">
        <Node pos="l" depth="1" NCoef="0" IVar="6" Cut="-3.5572078824043274e-01" cType="1" res="3.0928100459277630e-03" rms="3.9129751920700073e-01" purity="5.3930938243865967e-01" nType="0">
          <Node pos="l" depth="2" NCoef="0" IVar="8" Cut="-1.4666403532028198e+00" cType="1" res="-3.8925462868064642e-03" rms="3.8659763336181641e-01" purity="4.4898283481597900e-01" nType="0">
            <Node pos="l" depth="3" NCoef="0" IVar="-1" Cut="0.0000000000000000e+00" cType="1" res="-1.9113194197416306e-02" rms="3.5757765173912048e-01" purity="2.5893902778625488e-01" nType="-99"/>
            <Node pos="r" depth="3" NCoef="0" IVar="-1" Cut="0.0000000000000000e+00" cType="1" res="-6.7043036688119173e-04" rms="3.9028289914131165e-01" purity="4.7477591037750244e-01" nType="-99"/>
          </Node>
          <Node pos="r" depth="2" NCoef="0" IVar="9" Cut="6.6668057441711426e-01" cType="1" res="1.0725479573011398e-02" rms="3.9622846245765686e-01" purity="6.3800621032714844e-01" nType="0">
            <Node pos="l" depth="3" NCoef="0" IVar="-1" Cut="0.0000000000000000e+00" cType="1" res="1.0836774483323097e-02" rms="3.9513951539993286e-01" purity="6.5176033973693848e-01" nType="-99"/>
            <Node pos="r" depth="3" NCoef="0" IVar="-1" Cut="0.0000000000000000e+00" cType="1" res="-3.9069242775440216e-03" rms="3.9865618944168091e-01" purity="6.0093969106674194e-01" nType="-99"/>
          </Node>
        </Node>
        <Node pos="r" depth="1" NCoef="0" IVar="2" Cut="3.1770138549804688e+02" cType="1" res="-7.5303772464394569e-03" rms="3.8450175523757935e-01" purity="4.1721969842910767e-01" nType="0">
          <Node pos="l" depth="2" NCoef="0" IVar="9" Cut="-4.0034583210945129e-01" cType="1" res="5.5920989252626896e-03" rms="3.9273318648338318e-01" purity="3.9507421851158142e-01" nType="0">
            <Node pos="l" depth="3" NCoef="0" IVar="-1" Cut="0.0000000000000000e+00" cType="1" res="1.8545908853411674e-02" rms="3.9877274632453918e-01" purity="4.2400994896888733e-01" nType="-99"/>
            <Node pos="r" depth="3" NCoef="0" IVar="-1" Cut="0.0000000000000000e+00" cType="1" res="-3.9346129633486271e-03" rms="3.8916569948196411e-01" purity="3.8061708211898804e-01" nType="-99"/>
          </Node>
          <Node pos="r" depth="2" NCoef="0" IVar="6" Cut="1.0887968540191650e+00" cType="1" res="-1.8067061901092529e-02" rms="3.7743243575096130e-01" purity="4.3500137329101562e-01" nType="0">
            <Node pos="l" depth="3" NCoef="0" IVar="-1" Cut="0.0000000000000000e+00" cType="1" res="-5.3523248061537743e-03" rms="3.9776062965393066e-01" purity="5.4440069198608398e-01" nType="-99"/>
            <Node pos="r" depth="3" NCoef="0" IVar="-1" Cut="0.0000000000000000e+00" cType="1" res="-2.8376679867506027e-02" rms="3.3767461776733398e-01" purity="2.4075309932231903e-01" nType="-99"/>
          </Node>
        </Node>
      </Node>
    </BinaryTree>
    <BinaryTree type="DecisionTree" boostWeight="1.0000000000000000e+00" itree="175">
      <Node pos="s" depth="0" NCoef="0" IVar="6" Cut="6.7080944776535034e-01" cType="1" res="1.0840756585821509e-03" rms="3.8845250010490417e-01" purity="4.9984002113342285e-01" nType="0">
        <Node pos="l" depth="1" NCoef="0" IVar="8" Cut="-1.9999327659606934e+00" cType="1" res="-1.8850011983886361e-03" rms="3.9200967550277710e-01" purity="5.3829926252365112e-01" nType="0">
          <Node pos="l" depth="2" NCoef="0" IVar="-1" Cut="0.0000000000000000e+00" cType="1" res="2.0160511136054993e-02" rms="3.7987911701202393e-01" purity="2.9653978347778320e-01" nType="-99"/>
          <Node pos="r" depth="2" NCoef="0" IVar="2" Cut="4.7998324584960938e+02" cType="1" res="-3.2113245688378811e-03" rms="3.9250200986862183e-01" purity="5.4931420087814331e-01" nType="0">
            <Node pos="l" depth="3" NCoef="0" IVar="-1" Cut="0.0000000000000000e+00" cType="1" res="-4.0750950574874878e-03" rms="3.9221176505088806e-01" purity="5.3475189208984375e-01" nType="-99"/>
            <Node pos="r" depth="3" NCoef="0" IVar="-1" Cut="0.0000000000000000e+00" cType="1" res="5.5195158347487450e-03" rms="3.9338466525077820e-01" purity="6.0522842407226562e-01" nType="-99"/>
          </Node>
        </Node>
        <Node pos="r" depth="1" NCoef="0" IVar="3" Cut="3.1238128662109375e+02" cType="1" res="1.0369949974119663e-02" rms="3.7695994973182678e-01" purity="3.7955757975578308e-01" nType="0">
          <Node pos="l" depth="2" NCoef="0" IVar="5" Cut="6.2004421234130859e+01" cType="1" res="5.8202059008181095e-03" rms="3.7484905123710632e-01" purity="3.4977424144744873e-01" nType="0">
            <Node pos="l" depth="3" NCoef="0" IVar="-1" Cut="0.0000000000000000e+00" cType="1" res="-1.4763713814318180e-02" rms="3.0736640095710754e-01" purity="1.4236754179000854e-01" nType="-99"/>
            <Node pos="r" depth="3" NCoef="0" IVar="-1" Cut="0.0000000000000000e+00" cType="1" res="8.6315451189875603e-03" rms="3.9647427201271057e-01" purity="4.2593571543693542e-01" nType="-99"/>
          </Node>
          <Node pos="r" depth="2" NCoef="0" IVar="-1" Cut="0.0000000000000000e+00" cType="1" res="2.7741072699427605e-02" rms="3.9061629772186279e-01" purity="6.0055053234100342e-01" nType="-99"/>
        </Node>
      </Node>
    </BinaryTree>
    <BinaryTree type="DecisionTree" boostWeight="1.0000000000000000e+00" itree="176">
      <Node pos="s" depth="0" NCoef="0" IVar="2" Cut="7.1824926757812500e+02" cType="1" res="1.4783589867874980e-03" rms="3.9094260334968567e-01" purity="4.9954298138618469e-01" nType="0">
        <Node pos="l" depth="1" NCoef="0" IVar="7" Cut="1.1997808218002319e+00" cType="1" res="2.5611366145312786e-03" rms="3.9021188020706177e-01" purity="4.9705797433853149e-01" nType="0">
          <Node pos="l" depth="2" NCoef="0" IVar="9" Cut="1.4666652679443359e+00" cType="1" res="8.3151203580200672e-04" rms="3.9344236254692078e-01" purity="5.2681642770767212e-01" nType="0">
            <Node pos="l" depth="3" NCoef="0" IVar="-1" Cut="0.0000000000000000e+00" cType="1" res="-9.5992541173473001e-04" rms="3.9236536622047424e-01" purity="5.3662252426147461e-01" nType="-99"/>
            <Node pos="r" depth="3" NCoef="0" IVar="-1" Cut="0.0000000000000000e+00" cType="1" res="1.1267595924437046e-02" rms="4.0085095167160034e-01" purity="4.5487096905708313e-01" nType="-99"/>
          </Node>
          <Node pos="r" depth="2" NCoef="0" IVar="7" Cut="1.6569005250930786e+00" cType="1" res="1.3488753698766232e-02" rms="3.6896157264709473e-01" purity="3.0904677510261536e-01" nType="0">
            <Node pos="l" depth="3" NCoef="0" IVar="-1" Cut="0.0000000000000000e+00" cType="1" res="2.4372920393943787e-02" rms="4.0142390131950378e-01" purity="4.0514934062957764e-01" nType="-99"/>
            <Node pos="r" depth="3" NCoef="0" IVar="-1" Cut="0.0000000000000000e+00" cType="1" res="-9.5135029405355453e-03" rms="3.2947087287902832e-01" purity="2.0771300792694092e-01" nType="-99"/>
          </Node>
        </Node>
        <Node pos="r" depth="1" NCoef="0" IVar="-1" Cut="0.0000000000000000e+00" cType="1" res="-1.7190478742122650e-02" rms="4.1081318259239197e-01" purity="5.7358443737030029e-01" nType="-99"/>
      </Node>
    </BinaryTree>
    <BinaryTree type="DecisionTree" boostWeight="1.0000000000000000e+00" itree="177">
      <Node pos="s" depth="0" NCoef="0" IVar="5" Cut="8.5090919494628906e+01" cType="1" res="-5.7790073333308101e-04" rms="3.8839051127433777e-01" purity="4.9864101409912109e-01" nType="0">
        <Node pos="l" depth="1" NCoef="0" IVar="7" Cut="-1.4665132761001587e+00" cType="1" res="4.7312900424003601e-03" rms="3.9562100172042847e-01" purity="3.4241312742233276e-01" nType="0">
          <Node pos="l" depth="2" NCoef="0" IVar="3" Cut="1.5759931945800781e+02" cType="1" res="-1.6591038554906845e-02" rms="3.1037572026252747e-01" purity="1.4250169694423676e-01" nType="0">
            <Node pos="l" depth="3" NCoef="0" IVar="-1" Cut="0.0000000000000000e+00" cType="1" res="5.6271497160196304e-03" rms="2.9926404356956482e-01" purity="1.2313614040613174e-01" nType="-99"/>
            <Node pos="r" depth="3" NCoef="0" IVar="-1" Cut="0.0000000000000000e+00" cType="1" res="-3.2522909343242645e-02" rms="3.2083192467689514e-01" purity="1.6466011106967926e-01" nType="-99"/>
          </Node>
          <Node pos="r" depth="2" NCoef="0" IVar="9" Cut="-1.9999399185180664e+00" cType="1" res="7.2848261334002018e-03" rms="4.0455213189125061e-01" purity="3.6635428667068481e-01" nType="0">
            <Node pos="l" depth="3" NCoef="0" IVar="-1" Cut="0.0000000000000000e+00" cType="1" res="2.5966988876461983e-02" rms="3.8209944963455200e-01" purity="3.2599300146102905e-01" nType="-99"/>
            <Node pos="r" depth="3" NCoef="0" IVar="-1" Cut="0.0000000000000000e+00" cType="1" res="3.1341458670794964e-03" rms="4.0595528483390808e-01" purity="3.6911419034004211e-01" nType="-99"/>
          </Node>
        </Node>
        <Node pos="r" depth="1" NCoef="0" IVar="7" Cut="1.1998195648193359e+00" cType="1" res="-6.8511255085468292e-03" rms="3.7957403063774109e-01" purity="6.8323647975921631e-01" nType="0">
          <Node pos="l" depth="2" NCoef="0" IVar="9" Cut="-1.1999765634536743e+00" cType="1" res="-3.8502721581608057e-03" rms="3.7765270471572876e-01" purity="7.1047335863113403e-01" nType="0">
            <Node pos="l" depth="3" NCoef="0" IVar="-1" Cut="0.0000000000000000e+00" cType="1" res="-1.2688927352428436e-02" rms="4.0018409490585327e-01" purity="6.1342364549636841e-01" nType="-99"/>
            <Node pos="r" depth="3" NCoef="0" IVar="-1" Cut="0.0000000000000000e+00" cType="1" res="-7.6085008913651109e-04" rms="3.7361261248588562e-01" purity="7.2698783874511719e-01" nType="-99"/>
          </Node>
          <Node pos="r" depth="2" NCoef="0" IVar="-1" Cut="0.0000000000000000e+00" cType="1" res="-1.9442768767476082e-02" rms="3.9450204372406006e-01" purity="4.5348933339118958e-01" nType="-99"/>
        </Node>
      </Node>
    </BinaryTree>
    <BinaryTree type="DecisionTree" boostWeight="1.0000000000000000e+00" itree="178">
      <Node pos="s" depth="0" NCoef="0" IVar="8" Cut="3.9991745352745056e-01" cType="1" res="3.3643706701695919e-03" rms="3.8901653885841370e-01" purity="5.0228679180145264e-01" nType="0">
        <Node pos="l" depth="1" NCoef="0" IVar="7" Cut="-1.2000195980072021e+00" cType="1" res="8.3625372499227524e-03" rms="3.8969913125038147e-01" purity="5.2742451429367065e-01" nType="0">
          <Node pos="l" depth="2" NCoef="0" IVar="8" Cut="-1.1238692998886108e+00" cType="1" res="2.5505755096673965e-02" rms="3.8013449311256409e-01" purity="3.3919620513916016e-01" nType="0">
            <Node pos="l" depth="3" NCoef="0" IVar="-1" Cut="0.0000000000000000e+00" cType="1" res="-7.0124673657119274e-03" rms="3.1992444396018982e-01" purity="1.9004905223846436e-01" nType="-99"/>
            <Node pos="r" depth="3" NCoef="0" IVar="-1" Cut="0.0000000000000000e+00" cType="1" res="2.6518838480114937e-02" rms="4.0546590089797974e-01" purity="4.1247740387916565e-01" nType="-99"/>
          </Node>
          <Node pos="r" depth="2" NCoef="0" IVar="9" Cut="4.0002137422561646e-01" cType="1" res="5.4159974679350853e-03" rms="3.9124390482902527e-01" purity="5.5977684259414673e-01" nType="0">
            <Node pos="l" depth="3" NCoef="0" IVar="-1" Cut="0.0000000000000000e+00" cType="1" res="-1.0288071352988482e-03" rms="3.9126899838447571e-01" purity="5.5621075630187988e-01" nType="-99"/>
            <Node pos="r" depth="3" NCoef="0" IVar="-1" Cut="0.0000000000000000e+00" cType="1" res="1.1041755788028240e-02" rms="3.9091980457305908e-01" purity="5.6575411558151245e-01" nType="-99"/>
          </Node>
        </Node>
        <Node pos="r" depth="1" NCoef="0" IVar="8" Cut="7.4276840686798096e-01" cType="1" res="-5.5905403569340706e-03" rms="3.8762938976287842e-01" purity="4.5724904537200928e-01" nType="0">
          <Node pos="l" depth="2" NCoef="0" IVar="7" Cut="-4.0016150474548340e-01" cType="1" res="-2.7310019358992577e-02" rms="3.9127650856971741e-01" purity="5.2571016550064087e-01" nType="0">
            <Node pos="l" depth="3" NCoef="0" IVar="-1" Cut="0.0000000000000000e+00" cType="1" res="-1.5356702497228980e-03" rms="4.0399050712585449e-01" purity="5.1851218938827515e-01" nType="-99"/>
            <Node pos="r" depth="3" NCoef="0" IVar="-1" Cut="0.0000000000000000e+00" cType="1" res="-2.5546552613377571e-02" rms="3.8460922241210938e-01" purity="5.2908921241760254e-01" nType="-99"/>
          </Node>
          <Node pos="r" depth="2" NCoef="0" IVar="4" Cut="1.0559147644042969e+02" cType="1" res="2.4281824007630348e-03" rms="3.8596540689468384e-01" purity="4.3197357654571533e-01" nType="0">
            <Node pos="l" depth="3" NCoef="0" IVar="-1" Cut="0.0000000000000000e+00" cType="1" res="1.6275700181722641e-02" rms="3.6841452121734619e-01" purity="2.6438152790069580e-01" nType="-99"/>
            <Node pos="r" depth="3" NCoef="0" IVar="-1" Cut="0.0000000000000000e+00" cType="1" res="-6.9437175989151001e-03" rms="3.9728751778602600e-01" purity="5.4993236064910889e-01" nType="-99"/>
          </Node>
        </Node>
      </Node>
    </BinaryTree>
    <BinaryTree type="DecisionTree" boostWeight="1.0000000000000000e+00" itree="179">
      <Node pos="s" depth="0" NCoef="0" IVar="9" Cut="1.3333526253700256e-01" cType="1" res="4.3770036427304149e-04" rms="3.8920372724533081e-01" purity="4.9923190474510193e-01" nType="0">
        <Node pos="l" depth="1" NCoef="0" IVar="7" Cut="1.4665691852569580e+00" cType="1" res="4.7268909402191639e-03" rms="3.8778603076934814e-01" purity="5.1230621337890625e-01" nType="0">
          <Node pos="l" depth="2" NCoef="0" IVar="7" Cut="-5.6507170200347900e-01" cType="1" res="6.7928228527307510e-03" rms="3.9099746942520142e-01" purity="5.3469097614288330e-01" nType="0">
            <Node pos="l" depth="3" NCoef="0" IVar="-1" Cut="0.0000000000000000e+00" cType="1" res="-4.0410188958048820e-03" rms="3.8336762785911560e-01" purity="4.1697376966476440e-01" nType="-99"/>
            <Node pos="r" depth="3" NCoef="0" IVar="-1" Cut="0.0000000000000000e+00" cType="1" res="8.6868721991777420e-03" rms="3.9488255977630615e-01" purity="5.9825915098190308e-01" nType="-99"/>
          </Node>
          <Node pos="r" depth="2" NCoef="0" IVar="-1" Cut="0.0000000000000000e+00" cType="1" res="-1.5900235623121262e-02" rms="3.4496849775314331e-01" purity="2.3770895600318909e-01" nType="-99"/>
        </Node>
        <Node pos="r" depth="1" NCoef="0" IVar="7" Cut="1.2000842094421387e+00" cType="1" res="-4.6291779726743698e-03" rms="3.9081117510795593e-01" purity="4.8378700017929077e-01" nType="0">
          <Node pos="l" depth="2" NCoef="0" IVar="9" Cut="8.9525270462036133e-01" cType="1" res="-8.6091179400682449e-03" rms="3.9539748430252075e-01" purity="5.1756250858306885e-01" nType="0">
            <Node pos="l" depth="3" NCoef="0" IVar="-1" Cut="0.0000000000000000e+00" cType="1" res="-1.2829159386456013e-02" rms="3.9336374402046204e-01" purity="5.5493640899658203e-01" nType="-99"/>
            <Node pos="r" depth="3" NCoef="0" IVar="-1" Cut="0.0000000000000000e+00" cType="1" res="9.6075137844309211e-04" rms="3.9691168069839478e-01" purity="4.8451906442642212e-01" nType="-99"/>
          </Node>
          <Node pos="r" depth="2" NCoef="0" IVar="9" Cut="8.9521765708923340e-01" cType="1" res="1.5968009829521179e-02" rms="3.6546713113784790e-01" purity="3.0899012088775635e-01" nType="0">
            <Node pos="l" depth="3" NCoef="0" IVar="-1" Cut="0.0000000000000000e+00" cType="1" res="3.0600273981690407e-02" rms="3.8744392991065979e-01" purity="4.2493075132369995e-01" nType="-99"/>
            <Node pos="r" depth="3" NCoef="0" IVar="-1" Cut="0.0000000000000000e+00" cType="1" res="-6.1465250328183174e-03" rms="3.4572866559028625e-01" purity="2.1953974664211273e-01" nType="-99"/>
          </Node>
        </Node>
      </Node>
    </BinaryTree>
    <BinaryTree type="DecisionTree" boostWeight="1.0000000000000000e+00" itree="180">
      <Node pos="s" depth="0" NCoef="0" IVar="6" Cut="-9.1652387380599976e-01" cType="1" res="-1.9065163796767592e-03" rms="3.8717374205589294e-01" purity="4.9834591150283813e-01" nType="0">
        <Node pos="l" depth="1" NCoef="0" IVar="8" Cut="-3.9968642592430115e-01" cType="1" res="9.1549577191472054e-03" rms="3.7802964448928833e-01" purity="3.3122667670249939e-01" nType="0">
          <Node pos="l" depth="2" NCoef="0" IVar="5" Cut="8.7725059509277344e+01" cType="1" res="-7.3605203069746494e-03" rms="3.5324174165725708e-01" purity="2.9292473196983337e-01" nType="0">
            <Node pos="l" depth="3" NCoef="0" IVar="-1" Cut="0.0000000000000000e+00" cType="1" res="-1.7440220341086388e-02" rms="3.3149263262748718e-01" purity="1.6351217031478882e-01" nType="-99"/>
            <Node pos="r" depth="3" NCoef="0" IVar="-1" Cut="0.0000000000000000e+00" cType="1" res="8.7219374254345894e-03" rms="3.8723021745681763e-01" purity="5.1842647790908813e-01" nType="-99"/>
          </Node>
          <Node pos="r" depth="2" NCoef="0" IVar="8" Cut="8.1923311948776245e-01" cType="1" res="2.2361533716320992e-02" rms="3.9624345302581787e-01" purity="3.6185473203659058e-01" nType="0">
            <Node pos="l" depth="3" NCoef="0" IVar="-1" Cut="0.0000000000000000e+00" cType="1" res="3.0187403783202171e-02" rms="4.1400671005249023e-01" purity="4.4059816002845764e-01" nType="-99"/>
            <Node pos="r" depth="3" NCoef="0" IVar="-1" Cut="0.0000000000000000e+00" cType="1" res="-1.6198024153709412e-02" rms="3.5984680056571960e-01" purity="2.2776560485363007e-01" nType="-99"/>
          </Node>
        </Node>
        <Node pos="r" depth="1" NCoef="0" IVar="7" Cut="6.6652560234069824e-01" cType="1" res="-4.1600558906793594e-03" rms="3.8897174596786499e-01" purity="5.3239285945892334e-01" nType="0">
          <Node pos="l" depth="2" NCoef="0" IVar="2" Cut="3.3679010009765625e+02" cType="1" res="-6.2854413408786058e-04" rms="3.9246243238449097e-01" purity="5.7058709859848022e-01" nType="0">
            <Node pos="l" depth="3" NCoef="0" IVar="-1" Cut="0.0000000000000000e+00" cType="1" res="-3.7386000622063875e-03" rms="4.0629333257675171e-01" purity="5.1866477727890015e-01" nType="-99"/>
            <Node pos="r" depth="3" NCoef="0" IVar="-1" Cut="0.0000000000000000e+00" cType="1" res="2.6333311107009649e-03" rms="3.8056778907775879e-01" purity="6.1359173059463501e-01" nType="-99"/>
          </Node>
          <Node pos="r" depth="2" NCoef="0" IVar="2" Cut="4.4429504394531250e+02" cType="1" res="-1.3998906128108501e-02" rms="3.7890356779098511e-01" purity="4.2598316073417664e-01" nType="0">
            <Node pos="l" depth="3" NCoef="0" IVar="-1" Cut="0.0000000000000000e+00" cType="1" res="-4.7696372494101524e-03" rms="3.7818080186843872e-01" purity="4.2163950204849243e-01" nType="-99"/>
            <Node pos="r" depth="3" NCoef="0" IVar="-1" Cut="0.0000000000000000e+00" cType="1" res="-2.3784661665558815e-02" rms="3.8046926259994507e-01" purity="4.4109907746315002e-01" nType="-99"/>
          </Node>
        </Node>
      </Node>
    </BinaryTree>
    <BinaryTree type="DecisionTree" boostWeight="1.0000000000000000e+00" itree="181">
      <Node pos="s" depth="0" NCoef="0" IVar="6" Cut="1.7354359626770020e+00" cType="1" res="5.0370609387755394e-03" rms="3.8916394114494324e-01" purity="5.0668549537658691e-01" nType="0">
        <Node pos="l" depth="1" NCoef="0" IVar="9" Cut="6.6667807102203369e-01" cType="1" res="3.4507287200540304e-03" rms="3.9072430133819580e-01" purity="5.1974922418594360e-01" nType="0">
          <Node pos="l" depth="2" NCoef="0" IVar="4" Cut="9.5751335144042969e+01" cType="1" res="7.5159291736781597e-03" rms="3.9020964503288269e-01" purity="5.3755819797515869e-01" nType="0">
            <Node pos="l" depth="3" NCoef="0" IVar="-1" Cut="0.0000000000000000e+00" cType="1" res="-1.5380207914859056e-03" rms="3.8097333908081055e-01" purity="2.5223037600517273e-01" nType="-99"/>
            <Node pos="r" depth="3" NCoef="0" IVar="-1" Cut="0.0000000000000000e+00" cType="1" res="7.0035243406891823e-03" rms="3.9346387982368469e-01" purity="6.4162594079971313e-01" nType="-99"/>
          </Node>
          <Node pos="r" depth="2" NCoef="0" IVar="8" Cut="1.2000194787979126e+00" cType="1" res="-6.3216728158295155e-03" rms="3.9178615808486938e-01" purity="4.7693794965744019e-01" nType="0">
            <Node pos="l" depth="3" NCoef="0" IVar="-1" Cut="0.0000000000000000e+00" cType="1" res="-4.4004485243931413e-04" rms="3.9587482810020447e-01" purity="5.2028459310531616e-01" nType="-99"/>
            <Node pos="r" depth="3" NCoef="0" IVar="-1" Cut="0.0000000000000000e+00" cType="1" res="-2.2740961983799934e-02" rms="3.7066254019737244e-01" purity="2.7175474166870117e-01" nType="-99"/>
          </Node>
        </Node>
        <Node pos="r" depth="1" NCoef="0" IVar="-1" Cut="0.0000000000000000e+00" cType="1" res="4.0720142424106598e-02" rms="3.4938406944274902e-01" purity="2.0620372891426086e-01" nType="-99"/>
      </Node>
    </BinaryTree>
    <BinaryTree type="DecisionTree" boostWeight="1.0000000000000000e+00" itree="182">
      <Node pos="s" depth="0" NCoef="0" IVar="3" Cut="4.3143447875976562e+02" cType="1" res="-3.5572939086705446e-03" rms="3.8893774151802063e-01" purity="4.9740272760391235e-01" nType="0">
        <Node pos="l" depth="1" NCoef="0" IVar="7" Cut="3.9982864260673523e-01" cType="1" res="-4.3900241144001484e-03" rms="3.8879489898681641e-01" purity="4.9165907502174377e-01" nType="0">
          <Node pos="l" depth="2" NCoef="0" IVar="7" Cut="9.5057591795921326e-02" cType="1" res="-8.0588143318891525e-03" rms="3.8902375102043152e-01" purity="5.1448744535446167e-01" nType="0">
            <Node pos="l" depth="3" NCoef="0" IVar="-1" Cut="0.0000000000000000e+00" cType="1" res="-3.1882089097052813e-03" rms="3.8820028305053711e-01" purity="4.9970918893814087e-01" nType="-99"/>
            <Node pos="r" depth="3" NCoef="0" IVar="-1" Cut="0.0000000000000000e+00" cType="1" res="-1.5876961871981621e-02" rms="3.9279165863990784e-01" purity="5.8979010581970215e-01" nType="-99"/>
          </Node>
          <Node pos="r" depth="2" NCoef="0" IVar="7" Cut="1.0855085849761963e+00" cType="1" res="2.1751665044575930e-03" rms="3.8829848170280457e-01" purity="4.5080840587615967e-01" nType="0">
            <Node pos="l" depth="3" NCoef="0" IVar="-1" Cut="0.0000000000000000e+00" cType="1" res="6.6125970333814621e-03" rms="4.0550422668457031e-01" purity="5.6157064437866211e-01" nType="-99"/>
            <Node pos="r" depth="3" NCoef="0" IVar="-1" Cut="0.0000000000000000e+00" cType="1" res="-6.1329836025834084e-03" rms="3.6499339342117310e-01" purity="3.1010305881500244e-01" nType="-99"/>
          </Node>
        </Node>
        <Node pos="r" depth="1" NCoef="0" IVar="-1" Cut="0.0000000000000000e+00" cType="1" res="1.3848233036696911e-02" rms="3.9248102903366089e-01" purity="6.7654114961624146e-01" nType="-99"/>
      </Node>
    </BinaryTree>
    <BinaryTree type="DecisionTree" boostWeight="1.0000000000000000e+00" itree="183">
      <Node pos="s" depth="0" NCoef="0" IVar="7" Cut="-1.9998900890350342e+00" cType="1" res="-1.6318591078743339e-03" rms="3.8881298899650574e-01" purity="4.9833121895790100e-01" nType="0">
        <Node pos="l" depth="1" NCoef="0" IVar="-1" Cut="0.0000000000000000e+00" cType="1" res="2.3691831156611443e-02" rms="3.4633791446685791e-01" purity="2.3096500337123871e-01" nType="-99"/>
        <Node pos="r" depth="1" NCoef="0" IVar="9" Cut="-1.9999927282333374e+00" cType="1" res="-2.7464104350656271e-03" rms="3.9033272862434387e-01" purity="5.0875353813171387e-01" nType="0">
          <Node pos="l" depth="2" NCoef="0" IVar="9" Cut="-2.3047754764556885e+00" cType="1" res="1.7257729545235634e-02" rms="3.9611470699310303e-01" purity="3.8106822967529297e-01" nType="0">
            <Node pos="l" depth="3" NCoef="0" IVar="-1" Cut="0.0000000000000000e+00" cType="1" res="1.0552434250712395e-03" rms="3.8294366002082825e-01" purity="3.3387419581413269e-01" nType="-99"/>
            <Node pos="r" depth="3" NCoef="0" IVar="-1" Cut="0.0000000000000000e+00" cType="1" res="2.0655063912272453e-02" rms="4.0832379460334778e-01" purity="4.2852127552032471e-01" nType="-99"/>
          </Node>
          <Node pos="r" depth="2" NCoef="0" IVar="8" Cut="1.3333013653755188e-01" cType="1" res="-3.8692583329975605e-03" rms="3.8997521996498108e-01" purity="5.1592063903808594e-01" nType="0">
            <Node pos="l" depth="3" NCoef="0" IVar="-1" Cut="0.0000000000000000e+00" cType="1" res="4.9294641939923167e-04" rms="3.9255040884017944e-01" purity="5.3440707921981812e-01" nType="-99"/>
            <Node pos="r" depth="3" NCoef="0" IVar="-1" Cut="0.0000000000000000e+00" cType="1" res="-6.2499549239873886e-03" rms="3.8670936226844788e-01" purity="4.9319037795066833e-01" nType="-99"/>
          </Node>
        </Node>
      </Node>
    </BinaryTree>
    <BinaryTree type="DecisionTree" boostWeight="1.0000000000000000e+00" itree="184">
      <Node pos="s" depth="0" NCoef="0" IVar="9" Cut="-1.7333238124847412e+00" cType="1" res="-5.2366456657182425e-05" rms="3.8771790266036987e-01" purity="4.9979898333549500e-01" nType="0">
        <Node pos="l" depth="1" NCoef="0" IVar="8" Cut="1.3328680396080017e-01" cType="1" res="-2.0542776212096214e-02" rms="3.7560650706291199e-01" purity="3.4183087944984436e-01" nType="0">
          <Node pos="l" depth="2" NCoef="0" IVar="-1" Cut="0.0000000000000000e+00" cType="1" res="-2.2145606577396393e-02" rms="3.6479264497756958e-01" purity="3.1685784459114075e-01" nType="-99"/>
          <Node pos="r" depth="2" NCoef="0" IVar="-1" Cut="0.0000000000000000e+00" cType="1" res="-3.0335560441017151e-03" rms="3.9001387357711792e-01" purity="3.7758290767669678e-01" nType="-99"/>
        </Node>
        <Node pos="r" depth="1" NCoef="0" IVar="7" Cut="-6.6661459207534790e-01" cType="1" res="1.7607787158340216e-03" rms="3.8871940970420837e-01" purity="5.1377719640731812e-01" nType="0">
          <Node pos="l" depth="2" NCoef="0" IVar="0" Cut="4.5299887084960938e+02" cType="1" res="1.1017261072993279e-02" rms="3.8898187875747681e-01" purity="4.3687072396278381e-01" nType="0">
            <Node pos="l" depth="3" NCoef="0" IVar="-1" Cut="0.0000000000000000e+00" cType="1" res="1.4403942041099072e-03" rms="3.8278988003730774e-01" purity="3.0578690767288208e-01" nType="-99"/>
            <Node pos="r" depth="3" NCoef="0" IVar="-1" Cut="0.0000000000000000e+00" cType="1" res="1.6852539032697678e-02" rms="3.9915883541107178e-01" purity="6.6735684871673584e-01" nType="-99"/>
          </Node>
          <Node pos="r" depth="2" NCoef="0" IVar="8" Cut="2.0000035762786865e+00" cType="1" res="-1.5836686361581087e-03" rms="3.8857030868530273e-01" purity="5.4156410694122314e-01" nType="0">
            <Node pos="l" depth="3" NCoef="0" IVar="-1" Cut="0.0000000000000000e+00" cType="1" res="-3.4180007060058415e-04" rms="3.9019379019737244e-01" purity="5.5505305528640747e-01" nType="-99"/>
            <Node pos="r" depth="3" NCoef="0" IVar="-1" Cut="0.0000000000000000e+00" cType="1" res="-1.9429421052336693e-02" rms="3.4851855039596558e-01" purity="2.3311698436737061e-01" nType="-99"/>
          </Node>
        </Node>
      </Node>
    </BinaryTree>
    <BinaryTree type="DecisionTree" boostWeight="1.0000000000000000e+00" itree="185">
      <Node pos="s" depth="0" NCoef="0" IVar="9" Cut="-1.3333073258399963e-01" cType="1" res="-6.2940118368715048e-04" rms="3.8840982317924500e-01" purity="5.0093609094619751e-01" nType="0">
        <Node pos="l" depth="1" NCoef="0" IVar="8" Cut="1.4665949344635010e+00" cType="1" res="5.2979271858930588e-03" rms="3.8965487480163574e-01" purity="5.0304746627807617e-01" nType="0">
          <Node pos="l" depth="2" NCoef="0" IVar="1" Cut="1.3539539794921875e+03" cType="1" res="3.0910661444067955e-03" rms="3.8894492387771606e-01" purity="5.1621747016906738e-01" nType="0">
            <Node pos="l" depth="3" NCoef="0" IVar="-1" Cut="0.0000000000000000e+00" cType="1" res="-1.8122907495126128e-03" rms="4.0198162198066711e-01" purity="3.6013451218605042e-01" nType="-99"/>
            <Node pos="r" depth="3" NCoef="0" IVar="-1" Cut="0.0000000000000000e+00" cType="1" res="8.4365922957658768e-03" rms="3.6945235729217529e-01" purity="7.3809635639190674e-01" nType="-99"/>
          </Node>
          <Node pos="r" depth="2" NCoef="0" IVar="-1" Cut="0.0000000000000000e+00" cType="1" res="1.7774840816855431e-02" rms="3.9583191275596619e-01" purity="3.7542816996574402e-01" nType="-99"/>
        </Node>
        <Node pos="r" depth="1" NCoef="0" IVar="2" Cut="3.5190020751953125e+02" cType="1" res="-5.7540475390851498e-03" rms="3.8725703954696655e-01" purity="4.9911057949066162e-01" nType="0">
          <Node pos="l" depth="2" NCoef="0" IVar="0" Cut="3.4608493041992188e+02" cType="1" res="8.4823899669572711e-04" rms="3.9628621935844421e-01" purity="4.6875295042991638e-01" nType="0">
            <Node pos="l" depth="3" NCoef="0" IVar="-1" Cut="0.0000000000000000e+00" cType="1" res="1.2047505937516689e-02" rms="3.9781248569488525e-01" purity="2.9934173822402954e-01" nType="-99"/>
            <Node pos="r" depth="3" NCoef="0" IVar="-1" Cut="0.0000000000000000e+00" cType="1" res="-4.0609375573694706e-03" rms="3.9540150761604309e-01" purity="5.4137891530990601e-01" nType="-99"/>
          </Node>
          <Node pos="r" depth="2" NCoef="0" IVar="8" Cut="-1.3321845233440399e-01" cType="1" res="-1.3189917430281639e-02" rms="3.7669038772583008e-01" purity="5.3330111503601074e-01" nType="0">
            <Node pos="l" depth="3" NCoef="0" IVar="-1" Cut="0.0000000000000000e+00" cType="1" res="-1.6856299713253975e-02" rms="3.7781998515129089e-01" purity="5.3964084386825562e-01" nType="-99"/>
            <Node pos="r" depth="3" NCoef="0" IVar="-1" Cut="0.0000000000000000e+00" cType="1" res="-3.1789625063538551e-03" rms="3.7563231587409973e-01" purity="5.2863526344299316e-01" nType="-99"/>
          </Node>
        </Node>
      </Node>
    </BinaryTree>
    <BinaryTree type="DecisionTree" boostWeight="1.0000000000000000e+00" itree="186">
      <Node pos="s" depth="0" NCoef="0" IVar="5" Cut="1.2018177795410156e+02" cType="1" res="1.6822267789393663e-03" rms="3.9008867740631104e-01" purity="5.0250858068466187e-01" nType="0">
        <Node pos="l" depth="1" NCoef="0" IVar="5" Cut="9.6787757873535156e+01" cType="1" res="4.2498940601944923e-03" rms="4.0090036392211914e-01" purity="4.2645016312599182e-01" nType="0">
          <Node pos="l" depth="2" NCoef="0" IVar="5" Cut="8.5647552490234375e+01" cType="1" res="1.3275478268042207e-03" rms="3.9854556322097778e-01" purity="3.7437874078750610e-01" nType="0">
            <Node pos="l" depth="3" NCoef="0" IVar="-1" Cut="0.0000000000000000e+00" cType="1" res="3.0059616547077894e-03" rms="3.9588674902915955e-01" purity="3.4655514359474182e-01" nType="-99"/>
            <Node pos="r" depth="3" NCoef="0" IVar="-1" Cut="0.0000000000000000e+00" cType="1" res="-1.0508497245609760e-02" rms="4.1283372044563293e-01" purity="5.3294533491134644e-01" nType="-99"/>
          </Node>
          <Node pos="r" depth="2" NCoef="0" IVar="7" Cut="9.3290513753890991e-01" cType="1" res="1.6907634213566780e-02" rms="4.1070416569709778e-01" purity="6.5199047327041626e-01" nType="0">
            <Node pos="l" depth="3" NCoef="0" IVar="-1" Cut="0.0000000000000000e+00" cType="1" res="6.2250085175037384e-03" rms="4.0391674637794495e-01" purity="6.7526066303253174e-01" nType="-99"/>
            <Node pos="r" depth="3" NCoef="0" IVar="-1" Cut="0.0000000000000000e+00" cType="1" res="2.7903834357857704e-02" rms="4.4055485725402832e-01" purity="5.3984940052032471e-01" nType="-99"/>
          </Node>
        </Node>
        <Node pos="r" depth="1" NCoef="0" IVar="8" Cut="1.3310191035270691e-01" cType="1" res="-7.9845888540148735e-03" rms="3.4619992971420288e-01" purity="7.8885501623153687e-01" nType="0">
          <Node pos="l" depth="2" NCoef="0" IVar="0" Cut="5.1305688476562500e+02" cType="1" res="-1.9660856574773788e-02" rms="3.4806525707244873e-01" purity="7.8509378433227539e-01" nType="0">
            <Node pos="l" depth="3" NCoef="0" IVar="-1" Cut="0.0000000000000000e+00" cType="1" res="-2.1898329257965088e-02" rms="3.8935080170631409e-01" purity="7.0547461509704590e-01" nType="-99"/>
            <Node pos="r" depth="3" NCoef="0" IVar="-1" Cut="0.0000000000000000e+00" cType="1" res="-8.8052044156938791e-04" rms="2.7254340052604675e-01" purity="9.0610444545745850e-01" nType="-99"/>
          </Node>
          <Node pos="r" depth="2" NCoef="0" IVar="7" Cut="-4.0061253309249878e-01" cType="1" res="5.5366843007504940e-03" rms="3.4353169798851013e-01" purity="7.9321050643920898e-01" nType="0">
            <Node pos="l" depth="3" NCoef="0" IVar="-1" Cut="0.0000000000000000e+00" cType="1" res="-1.8004618585109711e-02" rms="3.6713969707489014e-01" purity="7.3321622610092163e-01" nType="-99"/>
            <Node pos="r" depth="3" NCoef="0" IVar="-1" Cut="0.0000000000000000e+00" cType="1" res="1.3385643251240253e-02" rms="3.3401522040367126e-01" purity="8.1478154659271240e-01" nType="-99"/>
          </Node>
        </Node>
      </Node>
    </BinaryTree>
    <BinaryTree type="DecisionTree" boostWeight="1.0000000000000000e+00" itree="187">
      <Node pos="s" depth="0" NCoef="0" IVar="8" Cut="1.7333204746246338e+00" cType="1" res="-1.1744512012228370e-03" rms="3.8774320483207703e-01" purity="4.9677786231040955e-01" nType="0">
        <Node pos="l" depth="1" NCoef="0" IVar="8" Cut="-2.1523745059967041e+00" cType="1" res="2.3369428163277917e-05" rms="3.8962256908416748e-01" purity="5.1460599899291992e-01" nType="0">
          <Node pos="l" depth="2" NCoef="0" IVar="-1" Cut="0.0000000000000000e+00" cType="1" res="-2.1419890224933624e-02" rms="3.2564404606819153e-01" purity="1.9319912791252136e-01" nType="-99"/>
          <Node pos="r" depth="2" NCoef="0" IVar="9" Cut="-1.3333471119403839e-01" cType="1" res="9.1012247139587998e-04" rms="3.9160066843032837e-01" purity="5.2562624216079712e-01" nType="0">
            <Node pos="l" depth="3" NCoef="0" IVar="-1" Cut="0.0000000000000000e+00" cType="1" res="4.2704418301582336e-03" rms="3.9540466666221619e-01" purity="5.2288204431533813e-01" nType="-99"/>
            <Node pos="r" depth="3" NCoef="0" IVar="-1" Cut="0.0000000000000000e+00" cType="1" res="-2.5921107735484838e-03" rms="3.8818395137786865e-01" purity="5.2802079916000366e-01" nType="-99"/>
          </Node>
        </Node>
        <Node pos="r" depth="1" NCoef="0" IVar="4" Cut="1.0055766296386719e+02" cType="1" res="-1.7584111541509628e-02" rms="3.6061280965805054e-01" purity="2.5253921747207642e-01" nType="0">
          <Node pos="l" depth="2" NCoef="0" IVar="-1" Cut="0.0000000000000000e+00" cType="1" res="3.1155508477240801e-03" rms="3.3356252312660217e-01" purity="1.5351556241512299e-01" nType="-99"/>
          <Node pos="r" depth="2" NCoef="0" IVar="-1" Cut="0.0000000000000000e+00" cType="1" res="-2.2556375712156296e-02" rms="3.8194298744201660e-01" purity="3.3987259864807129e-01" nType="-99"/>
        </Node>
      </Node>
    </BinaryTree>
    <BinaryTree type="DecisionTree" boostWeight="1.0000000000000000e+00" itree="188">
      <Node pos="s" depth="0" NCoef="0" IVar="2" Cut="6.5569537353515625e+02" cType="1" res="-1.0550119914114475e-03" rms="3.8959610462188721e-01" purity="4.9723020195960999e-01" nType="0">
        <Node pos="l" depth="1" NCoef="0" IVar="9" Cut="-1.7332589626312256e+00" cType="1" res="4.2906455928459764e-04" rms="3.8862526416778564e-01" purity="4.9471887946128845e-01" nType="0">
          <Node pos="l" depth="2" NCoef="0" IVar="0" Cut="3.6729928588867188e+02" cType="1" res="1.9383506849408150e-02" rms="3.8478270173072815e-01" purity="3.9071452617645264e-01" nType="0">
            <Node pos="l" depth="3" NCoef="0" IVar="-1" Cut="0.0000000000000000e+00" cType="1" res="-2.8114190790802240e-03" rms="3.5054960846900940e-01" purity="2.1211829781532288e-01" nType="-99"/>
            <Node pos="r" depth="3" NCoef="0" IVar="-1" Cut="0.0000000000000000e+00" cType="1" res="2.1401273086667061e-02" rms="4.0497493743896484e-01" purity="5.0791180133819580e-01" nType="-99"/>
          </Node>
          <Node pos="r" depth="2" NCoef="0" IVar="9" Cut="6.4130210876464844e-01" cType="1" res="-1.3725666794925928e-03" rms="3.8894045352935791e-01" purity="5.0460457801818848e-01" nType="0">
            <Node pos="l" depth="3" NCoef="0" IVar="-1" Cut="0.0000000000000000e+00" cType="1" res="-3.8198558613657951e-03" rms="3.8895693421363831e-01" purity="5.2666431665420532e-01" nType="-99"/>
            <Node pos="r" depth="3" NCoef="0" IVar="-1" Cut="0.0000000000000000e+00" cType="1" res="4.8419046215713024e-03" rms="3.8876137137413025e-01" purity="4.6144428849220276e-01" nType="-99"/>
          </Node>
        </Node>
        <Node pos="r" depth="1" NCoef="0" IVar="-1" Cut="0.0000000000000000e+00" cType="1" res="-1.6630405560135841e-02" rms="4.0653201937675476e-01" purity="5.4481494426727295e-01" nType="-99"/>
      </Node>
    </BinaryTree>
    <BinaryTree type="DecisionTree" boostWeight="1.0000000000000000e+00" itree="189">
      <Node pos="s" depth="0" NCoef="0" IVar="6" Cut="9.4164842367172241e-01" cType="1" res="1.0619746753945947e-03" rms="3.8904982805252075e-01" purity="5.0186252593994141e-01" nType="0">
        <Node pos="l" depth="1" NCoef="0" IVar="5" Cut="8.5090919494628906e+01" cType="1" res="4.0619927458465099e-03" rms="3.9530462026596069e-01" purity="5.4146724939346313e-01" nType="0">
          <Node pos="l" depth="2" NCoef="0" IVar="7" Cut="6.6677957773208618e-01" cType="1" res="1.0422508232295513e-02" rms="4.1233918070793152e-01" purity="3.8474920392036438e-01" nType="0">
            <Node pos="l" depth="3" NCoef="0" IVar="-1" Cut="0.0000000000000000e+00" cType="1" res="2.5761041324585676e-03" rms="4.1468921303749084e-01" purity="4.0922501683235168e-01" nType="-99"/>
            <Node pos="r" depth="3" NCoef="0" IVar="-1" Cut="0.0000000000000000e+00" cType="1" res="1.7392359673976898e-02" rms="4.0555539727210999e-01" purity="3.1934893131256104e-01" nType="-99"/>
          </Node>
          <Node pos="r" depth="2" NCoef="0" IVar="9" Cut="9.3318408727645874e-01" cType="1" res="-3.0799403320997953e-03" rms="3.7512826919555664e-01" purity="7.1743887662887573e-01" nType="0">
            <Node pos="l" depth="3" NCoef="0" IVar="-1" Cut="0.0000000000000000e+00" cType="1" res="4.6783523430349305e-05" rms="3.7333458662033081e-01" purity="7.2967052459716797e-01" nType="-99"/>
            <Node pos="r" depth="3" NCoef="0" IVar="-1" Cut="0.0000000000000000e+00" cType="1" res="-1.0798527859151363e-02" rms="3.8229525089263916e-01" purity="6.6600561141967773e-01" nType="-99"/>
          </Node>
        </Node>
        <Node pos="r" depth="1" NCoef="0" IVar="4" Cut="1.2884243774414062e+02" cType="1" res="-1.4417676255106926e-02" rms="3.5462611913681030e-01" purity="2.9750823974609375e-01" nType="0">
          <Node pos="l" depth="2" NCoef="0" IVar="7" Cut="3.9993080496788025e-01" cType="1" res="-2.7422539889812469e-02" rms="3.2052221894264221e-01" purity="1.6131804883480072e-01" nType="0">
            <Node pos="l" depth="3" NCoef="0" IVar="-1" Cut="0.0000000000000000e+00" cType="1" res="-9.2676449567079544e-03" rms="3.4635564684867859e-01" purity="1.9051586091518402e-01" nType="-99"/>
            <Node pos="r" depth="3" NCoef="0" IVar="-1" Cut="0.0000000000000000e+00" cType="1" res="-4.5284070074558258e-02" rms="2.8016722202301025e-01" purity="1.2162561714649200e-01" nType="-99"/>
          </Node>
          <Node pos="r" depth="2" NCoef="0" IVar="7" Cut="1.3238140940666199e-01" cType="1" res="4.5209741219878197e-03" rms="3.9835372567176819e-01" purity="4.9583852291107178e-01" nType="0">
            <Node pos="l" depth="3" NCoef="0" IVar="-1" Cut="0.0000000000000000e+00" cType="1" res="-9.3419132754206657e-03" rms="3.8906174898147583e-01" purity="4.7289144992828369e-01" nType="-99"/>
            <Node pos="r" depth="3" NCoef="0" IVar="-1" Cut="0.0000000000000000e+00" cType="1" res="1.4840649440884590e-02" rms="4.0665069222450256e-01" purity="5.1922667026519775e-01" nType="-99"/>
          </Node>
        </Node>
      </Node>
    </BinaryTree>
    <BinaryTree type="DecisionTree" boostWeight="1.0000000000000000e+00" itree="190">
      <Node pos="s" depth="0" NCoef="0" IVar="5" Cut="8.5090904235839844e+01" cType="1" res="7.5612624641507864e-04" rms="3.8782000541687012e-01" purity="5.0007045269012451e-01" nType="0">
        <Node pos="l" depth="1" NCoef="0" IVar="4" Cut="9.4969596862792969e+01" cType="1" res="-4.9771112389862537e-03" rms="3.9127174019813538e-01" purity="3.3384767174720764e-01" nType="0">
          <Node pos="l" depth="2" NCoef="0" IVar="8" Cut="1.4666141271591187e+00" cType="1" res="3.8244694005697966e-03" rms="3.7136316299438477e-01" purity="2.3243401944637299e-01" nType="0">
            <Node pos="l" depth="3" NCoef="0" IVar="-1" Cut="0.0000000000000000e+00" cType="1" res="-4.1858531767502427e-04" rms="3.7463930249214172e-01" purity="2.4049733579158783e-01" nType="-99"/>
            <Node pos="r" depth="3" NCoef="0" IVar="-1" Cut="0.0000000000000000e+00" cType="1" res="2.7569346129894257e-02" rms="3.5051512718200684e-01" purity="1.8535663187503815e-01" nType="-99"/>
          </Node>
          <Node pos="r" depth="2" NCoef="0" IVar="6" Cut="6.9755041599273682e-01" cType="1" res="-1.3849875889718533e-02" rms="4.1017374396324158e-01" purity="4.3608143925666809e-01" nType="0">
            <Node pos="l" depth="3" NCoef="0" IVar="-1" Cut="0.0000000000000000e+00" cType="1" res="-4.4564045965671539e-03" rms="4.1911134123802185e-01" purity="4.8596012592315674e-01" nType="-99"/>
            <Node pos="r" depth="3" NCoef="0" IVar="-1" Cut="0.0000000000000000e+00" cType="1" res="-2.1639993414282799e-02" rms="3.7832406163215637e-01" purity="2.7024802565574646e-01" nType="-99"/>
          </Node>
        </Node>
        <Node pos="r" depth="1" NCoef="0" IVar="7" Cut="9.3313908576965332e-01" cType="1" res="7.3384153656661510e-03" rms="3.8371324539184570e-01" purity="6.9090974330902100e-01" nType="0">
          <Node pos="l" depth="2" NCoef="0" IVar="9" Cut="-6.6670626401901245e-01" cType="1" res="1.9734457600861788e-03" rms="3.7820139527320862e-01" purity="7.1524327993392944e-01" nType="0">
            <Node pos="l" depth="3" NCoef="0" IVar="-1" Cut="0.0000000000000000e+00" cType="1" res="-5.9588137082755566e-03" rms="3.9353412389755249e-01" purity="6.6070336103439331e-01" nType="-99"/>
            <Node pos="r" depth="3" NCoef="0" IVar="-1" Cut="0.0000000000000000e+00" cType="1" res="4.3462775647640228e-03" rms="3.7211817502975464e-01" purity="7.3599123954772949e-01" nType="-99"/>
          </Node>
          <Node pos="r" depth="2" NCoef="0" IVar="8" Cut="1.3357828557491302e-01" cType="1" res="3.2962381839752197e-02" rms="4.0804356336593628e-01" purity="5.7468855381011963e-01" nType="0">
            <Node pos="l" depth="3" NCoef="0" IVar="-1" Cut="0.0000000000000000e+00" cType="1" res="8.0865537747740746e-03" rms="4.1185158491134644e-01" purity="5.6046086549758911e-01" nType="-99"/>
            <Node pos="r" depth="3" NCoef="0" IVar="-1" Cut="0.0000000000000000e+00" cType="1" res="3.0710397288203239e-02" rms="4.0359032154083252e-01" purity="5.8801186084747314e-01" nType="-99"/>
          </Node>
        </Node>
      </Node>
    </BinaryTree>
    <BinaryTree type="DecisionTree" boostWeight="1.0000000000000000e+00" itree="191">
      <Node pos="s" depth="0" NCoef="0" IVar="8" Cut="-9.3330693244934082e-01" cType="1" res="-8.3647738210856915e-04" rms="3.8885760307312012e-01" purity="4.9927639961242676e-01" nType="0">
        <Node pos="l" depth="1" NCoef="0" IVar="6" Cut="-9.0029066801071167e-01" cType="1" res="1.1112134903669357e-02" rms="3.9059913158416748e-01" purity="4.1460913419723511e-01" nType="0">
          <Node pos="l" depth="2" NCoef="0" IVar="-1" Cut="0.0000000000000000e+00" cType="1" res="2.8146041557192802e-02" rms="3.7207612395286560e-01" purity="2.9040342569351196e-01" nType="-99"/>
          <Node pos="r" depth="2" NCoef="0" IVar="9" Cut="-1.3334959745407104e-01" cType="1" res="3.4607585985213518e-03" rms="3.9568689465522766e-01" purity="4.5200547575950623e-01" nType="0">
            <Node pos="l" depth="3" NCoef="0" IVar="-1" Cut="0.0000000000000000e+00" cType="1" res="-6.8746749311685562e-03" rms="3.9706167578697205e-01" purity="4.1866457462310791e-01" nType="-99"/>
            <Node pos="r" depth="3" NCoef="0" IVar="-1" Cut="0.0000000000000000e+00" cType="1" res="1.0879258625209332e-02" rms="3.9387631416320801e-01" purity="4.8431167006492615e-01" nType="-99"/>
          </Node>
        </Node>
        <Node pos="r" depth="1" NCoef="0" IVar="1" Cut="1.4400612792968750e+03" cType="1" res="-4.0700030513107777e-03" rms="3.8832175731658936e-01" purity="5.2218902111053467e-01" nType="0">
          <Node pos="l" depth="2" NCoef="0" IVar="2" Cut="4.1093829345703125e+02" cType="1" res="-9.4305928796529770e-03" rms="4.0482833981513977e-01" purity="3.9572870731353760e-01" nType="0">
            <Node pos="l" depth="3" NCoef="0" IVar="-1" Cut="0.0000000000000000e+00" cType="1" res="-3.0819957610219717e-03" rms="4.1070276498794556e-01" purity="4.1839161515235901e-01" nType="-99"/>
            <Node pos="r" depth="3" NCoef="0" IVar="-1" Cut="0.0000000000000000e+00" cType="1" res="-2.0750740543007851e-02" rms="3.7107080221176147e-01" purity="2.7472355961799622e-01" nType="-99"/>
          </Node>
          <Node pos="r" depth="2" NCoef="0" IVar="4" Cut="1.0509559631347656e+02" cType="1" res="6.3819750212132931e-03" rms="3.5369706153869629e-01" purity="7.6875907182693481e-01" nType="0">
            <Node pos="l" depth="3" NCoef="0" IVar="-1" Cut="0.0000000000000000e+00" cType="1" res="-1.5046813525259495e-02" rms="4.2676359415054321e-01" purity="4.9676159024238586e-01" nType="-99"/>
            <Node pos="r" depth="3" NCoef="0" IVar="-1" Cut="0.0000000000000000e+00" cType="1" res="8.3094285801053047e-03" rms="3.4456613659858704e-01" purity="7.9849219322204590e-01" nType="-99"/>
          </Node>
        </Node>
      </Node>
    </BinaryTree>
    <BinaryTree type="DecisionTree" boostWeight="1.0000000000000000e+00" itree="192">
      <Node pos="s" depth="0" NCoef="0" IVar="9" Cut="1.2000041007995605e+00" cType="1" res="5.0987250870093703e-04" rms="3.8800546526908875e-01" purity="5.0226610898971558e-01" nType="0">
        <Node pos="l" depth="1" NCoef="0" IVar="6" Cut="-9.2584401369094849e-01" cType="1" res="2.9707676731050014e-03" rms="3.8996270298957825e-01" purity="5.2119404077529907e-01" nType="0">
          <Node pos="l" depth="2" NCoef="0" IVar="8" Cut="-9.3314981460571289e-01" cType="1" res="1.9396813586354256e-02" rms="3.8286662101745605e-01" purity="3.7116202712059021e-01" nType="0">
            <Node pos="l" depth="3" NCoef="0" IVar="-1" Cut="0.0000000000000000e+00" cType="1" res="-6.3019003719091415e-03" rms="3.4177774190902710e-01" purity="2.5050199031829834e-01" nType="-99"/>
            <Node pos="r" depth="3" NCoef="0" IVar="-1" Cut="0.0000000000000000e+00" cType="1" res="1.9305611029267311e-02" rms="3.9661073684692383e-01" purity="4.1614019870758057e-01" nType="-99"/>
          </Node>
          <Node pos="r" depth="2" NCoef="0" IVar="8" Cut="1.7332196235656738e+00" cType="1" res="-5.6610658066347241e-04" rms="3.9138358831405640e-01" purity="5.5349910259246826e-01" nType="0">
            <Node pos="l" depth="3" NCoef="0" IVar="-1" Cut="0.0000000000000000e+00" cType="1" res="-1.7079639947041869e-03" rms="3.9046257734298706e-01" purity="5.6649994850158691e-01" nType="-99"/>
            <Node pos="r" depth="3" NCoef="0" IVar="-1" Cut="0.0000000000000000e+00" cType="1" res="1.9296627491712570e-02" rms="4.0340396761894226e-01" purity="3.6333832144737244e-01" nType="-99"/>
          </Node>
        </Node>
        <Node pos="r" depth="1" NCoef="0" IVar="8" Cut="-9.3321394920349121e-01" cType="1" res="-1.1271371506154537e-02" rms="3.7827351689338684e-01" purity="4.1165110468864441e-01" nType="0">
          <Node pos="l" depth="2" NCoef="0" IVar="-1" Cut="0.0000000000000000e+00" cType="1" res="-2.7098510414361954e-02" rms="3.7957522273063660e-01" purity="3.0467557907104492e-01" nType="-99"/>
          <Node pos="r" depth="2" NCoef="0" IVar="8" Cut="1.0221734046936035e+00" cType="1" res="-4.9900077283382416e-03" rms="3.7769639492034912e-01" purity="4.3546172976493835e-01" nType="0">
            <Node pos="l" depth="3" NCoef="0" IVar="-1" Cut="0.0000000000000000e+00" cType="1" res="2.7800698298960924e-03" rms="3.8849803805351257e-01" purity="5.1524347066879272e-01" nType="-99"/>
            <Node pos="r" depth="3" NCoef="0" IVar="-1" Cut="0.0000000000000000e+00" cType="1" res="-2.1595152094960213e-02" rms="3.4838029742240906e-01" purity="2.3752658069133759e-01" nType="-99"/>
          </Node>
        </Node>
      </Node>
    </BinaryTree>
    <BinaryTree type="DecisionTree" boostWeight="1.0000000000000000e+00" itree="193">
      <Node pos="s" depth="0" NCoef="0" IVar="7" Cut="-1.3332949578762054e-01" cType="1" res="-1.3454824220389128e-03" rms="3.8593468070030212e-01" purity="5.0025075674057007e-01" nType="0">
        <Node pos="l" depth="1" NCoef="0" IVar="5" Cut="7.7498695373535156e+01" cType="1" res="-8.0778617411851883e-03" rms="3.8353285193443298e-01" purity="4.8107284307479858e-01" nType="0">
          <Node pos="l" depth="2" NCoef="0" IVar="7" Cut="-5.1425486803054810e-01" cType="1" res="-1.7476445063948631e-02" rms="3.7465867400169373e-01" purity="2.8838899731636047e-01" nType="0">
            <Node pos="l" depth="3" NCoef="0" IVar="-1" Cut="0.0000000000000000e+00" cType="1" res="-4.8963897861540318e-03" rms="3.6747148633003235e-01" purity="2.6248562335968018e-01" nType="-99"/>
            <Node pos="r" depth="3" NCoef="0" IVar="-1" Cut="0.0000000000000000e+00" cType="1" res="-2.7404500171542168e-02" rms="3.9314168691635132e-01" purity="3.6341029405593872e-01" nType="-99"/>
          </Node>
          <Node pos="r" depth="2" NCoef="0" IVar="8" Cut="9.3340224027633667e-01" cType="1" res="-9.7689626272767782e-05" rms="3.9073222875595093e-01" purity="6.4467734098434448e-01" nType="0">
            <Node pos="l" depth="3" NCoef="0" IVar="-1" Cut="0.0000000000000000e+00" cType="1" res="-3.0433642677962780e-03" rms="3.8604012131690979e-01" purity="6.6282600164413452e-01" nType="-99"/>
            <Node pos="r" depth="3" NCoef="0" IVar="-1" Cut="0.0000000000000000e+00" cType="1" res="1.3105102814733982e-02" rms="4.1206794977188110e-01" purity="5.5653291940689087e-01" nType="-99"/>
          </Node>
        </Node>
        <Node pos="r" depth="1" NCoef="0" IVar="6" Cut="-1.4475477933883667e+00" cType="1" res="4.1456734761595726e-03" rms="3.8779616355895996e-01" purity="5.1589292287826538e-01" nType="0">
          <Node pos="l" depth="2" NCoef="0" IVar="-1" Cut="0.0000000000000000e+00" cType="1" res="2.3346958681941032e-02" rms="3.7541121244430542e-01" purity="2.5548675656318665e-01" nType="-99"/>
          <Node pos="r" depth="2" NCoef="0" IVar="9" Cut="1.7333474159240723e+00" cType="1" res="2.3636477999389172e-03" rms="3.8858985900878906e-01" purity="5.3420162200927734e-01" nType="0">
            <Node pos="l" depth="3" NCoef="0" IVar="-1" Cut="0.0000000000000000e+00" cType="1" res="2.2535369498655200e-04" rms="3.8814100623130798e-01" purity="5.4701840877532959e-01" nType="-99"/>
            <Node pos="r" depth="3" NCoef="0" IVar="-1" Cut="0.0000000000000000e+00" cType="1" res="1.3889865949749947e-02" rms="3.9228674769401550e-01" purity="4.1340568661689758e-01" nType="-99"/>
          </Node>
        </Node>
      </Node>
    </BinaryTree>
    <BinaryTree type="DecisionTree" boostWeight="1.0000000000000000e+00" itree="194">
      <Node pos="s" depth="0" NCoef="0" IVar="9" Cut="-1.9999638795852661e+00" cType="1" res="-4.2345845140516758e-03" rms="3.8890954852104187e-01" purity="4.9346902966499329e-01" nType="0">
        <Node pos="l" depth="1" NCoef="0" IVar="6" Cut="-7.8990027308464050e-02" cType="1" res="1.9305182620882988e-02" rms="3.9276406168937683e-01" purity="3.7296086549758911e-01" nType="0">
          <Node pos="l" depth="2" NCoef="0" IVar="-1" Cut="0.0000000000000000e+00" cType="1" res="1.9317137077450752e-02" rms="3.9332291483879089e-01" purity="3.8445669412612915e-01" nType="-99"/>
          <Node pos="r" depth="2" NCoef="0" IVar="-1" Cut="0.0000000000000000e+00" cType="1" res="5.8163469657301903e-03" rms="3.9190298318862915e-01" purity="3.6090666055679321e-01" nType="-99"/>
        </Node>
        <Node pos="r" depth="1" NCoef="0" IVar="3" Cut="1.4626008605957031e+02" cType="1" res="-5.5903932079672813e-03" rms="3.8864296674728394e-01" purity="5.0040990114212036e-01" nType="0">
          <Node pos="l" depth="2" NCoef="0" IVar="9" Cut="1.2000161409378052e+00" cType="1" res="-1.4403696171939373e-02" rms="3.6866372823715210e-01" purity="2.3321932554244995e-01" nType="0">
            <Node pos="l" depth="3" NCoef="0" IVar="-1" Cut="0.0000000000000000e+00" cType="1" res="-1.3634614646434784e-02" rms="3.7114664912223816e-01" purity="2.3754386603832245e-01" nType="-99"/>
            <Node pos="r" depth="3" NCoef="0" IVar="-1" Cut="0.0000000000000000e+00" cType="1" res="4.6554221771657467e-03" rms="3.5890111327171326e-01" purity="2.1776601672172546e-01" nType="-99"/>
          </Node>
          <Node pos="r" depth="2" NCoef="0" IVar="4" Cut="1.0495019531250000e+02" cType="1" res="-2.7978729922324419e-03" rms="3.9472147822380066e-01" purity="5.8506995439529419e-01" nType="0">
            <Node pos="l" depth="3" NCoef="0" IVar="-1" Cut="0.0000000000000000e+00" cType="1" res="9.3164313584566116e-03" rms="4.1897159814834595e-01" purity="3.5684254765510559e-01" nType="-99"/>
            <Node pos="r" depth="3" NCoef="0" IVar="-1" Cut="0.0000000000000000e+00" cType="1" res="-5.1791802980005741e-03" rms="3.8748943805694580e-01" purity="6.4911407232284546e-01" nType="-99"/>
          </Node>
        </Node>
      </Node>
    </BinaryTree>
    <BinaryTree type="DecisionTree" boostWeight="1.0000000000000000e+00" itree="195">
      <Node pos="s" depth="0" NCoef="0" IVar="9" Cut="-1.3333073258399963e-01" cType="1" res="7.6767895370721817e-04" rms="3.8788640499114990e-01" purity="5.0193685293197632e-01" nType="0">
        <Node pos="l" depth="1" NCoef="0" IVar="8" Cut="1.7331820726394653e+00" cType="1" res="-5.4610096849501133e-03" rms="3.8516610860824585e-01" purity="4.9651482701301575e-01" nType="0">
          <Node pos="l" depth="2" NCoef="0" IVar="6" Cut="1.2140775918960571e+00" cType="1" res="-3.5212573129683733e-03" rms="3.8695290684700012e-01" purity="5.1052826642990112e-01" nType="0">
            <Node pos="l" depth="3" NCoef="0" IVar="-1" Cut="0.0000000000000000e+00" cType="1" res="-3.3928649500012398e-03" rms="3.8890582323074341e-01" purity="5.3375148773193359e-01" nType="-99"/>
            <Node pos="r" depth="3" NCoef="0" IVar="-1" Cut="0.0000000000000000e+00" cType="1" res="1.0625375434756279e-02" rms="3.6573138833045959e-01" purity="2.7062791585922241e-01" nType="-99"/>
          </Node>
          <Node pos="r" depth="2" NCoef="0" IVar="-1" Cut="0.0000000000000000e+00" cType="1" res="-2.5491243228316307e-02" rms="3.5423699021339417e-01" purity="2.7442881464958191e-01" nType="-99"/>
        </Node>
        <Node pos="r" depth="1" NCoef="0" IVar="9" Cut="7.0477300882339478e-01" cType="1" res="6.0735293664038181e-03" rms="3.9011025428771973e-01" purity="5.0655555725097656e-01" nType="0">
          <Node pos="l" depth="2" NCoef="0" IVar="9" Cut="2.6576825976371765e-01" cType="1" res="1.5570214949548244e-02" rms="3.9362093806266785e-01" purity="5.6579887866973877e-01" nType="0">
            <Node pos="l" depth="3" NCoef="0" IVar="-1" Cut="0.0000000000000000e+00" cType="1" res="3.4797522239387035e-03" rms="3.9072614908218384e-01" purity="5.5916327238082886e-01" nType="-99"/>
            <Node pos="r" depth="3" NCoef="0" IVar="-1" Cut="0.0000000000000000e+00" cType="1" res="1.5981739386916161e-02" rms="3.9605554938316345e-01" purity="5.7196694612503052e-01" nType="-99"/>
          </Node>
          <Node pos="r" depth="2" NCoef="0" IVar="6" Cut="-1.1822530031204224e+00" cType="1" res="-2.1406523883342743e-03" rms="3.8686001300811768e-01" purity="4.5531287789344788e-01" nType="0">
            <Node pos="l" depth="3" NCoef="0" IVar="-1" Cut="0.0000000000000000e+00" cType="1" res="-2.1580757573246956e-02" rms="3.2575654983520508e-01" purity="2.0981900393962860e-01" nType="-99"/>
            <Node pos="r" depth="3" NCoef="0" IVar="-1" Cut="0.0000000000000000e+00" cType="1" res="3.5026422119699419e-04" rms="3.9271154999732971e-01" purity="4.8145264387130737e-01" nType="-99"/>
          </Node>
        </Node>
      </Node>
    </BinaryTree>
    <BinaryTree type="DecisionTree" boostWeight="1.0000000000000000e+00" itree="196">
      <Node pos="s" depth="0" NCoef="0" IVar="6" Cut="1.3866491615772247e-01" cType="1" res="1.9678203389048576e-03" rms="3.8859298825263977e-01" purity="5.0281679630279541e-01" nType="0">
        <Node pos="l" depth="1" NCoef="0" IVar="9" Cut="3.9998260140419006e-01" cType="1" res="-2.8470940887928009e-03" rms="3.8918760418891907e-01" purity="5.1636093854904175e-01" nType="0">
          <Node pos="l" depth="2" NCoef="0" IVar="9" Cut="9.5207661390304565e-02" cType="1" res="2.9888290446251631e-03" rms="3.8787361979484558e-01" purity="5.3031343221664429e-01" nType="0">
            <Node pos="l" depth="3" NCoef="0" IVar="-1" Cut="0.0000000000000000e+00" cType="1" res="-7.5380480848252773e-04" rms="3.8880366086959839e-01" purity="5.1338541507720947e-01" nType="-99"/>
            <Node pos="r" depth="3" NCoef="0" IVar="-1" Cut="0.0000000000000000e+00" cType="1" res="1.7254602164030075e-02" rms="3.8169792294502258e-01" purity="6.2641990184783936e-01" nType="-99"/>
          </Node>
          <Node pos="r" depth="2" NCoef="0" IVar="8" Cut="4.0006160736083984e-01" cType="1" res="-1.4508443884551525e-02" rms="3.9153954386711121e-01" purity="4.8848095536231995e-01" nType="0">
            <Node pos="l" depth="3" NCoef="0" IVar="-1" Cut="0.0000000000000000e+00" cType="1" res="-1.3656257651746273e-02" rms="3.8975253701210022e-01" purity="5.1712965965270996e-01" nType="-99"/>
            <Node pos="r" depth="3" NCoef="0" IVar="-1" Cut="0.0000000000000000e+00" cType="1" res="-2.0826407708227634e-03" rms="3.9440321922302246e-01" purity="4.3817442655563354e-01" nType="-99"/>
          </Node>
        </Node>
        <Node pos="r" depth="1" NCoef="0" IVar="3" Cut="1.4160820007324219e+02" cType="1" res="8.0618755891919136e-03" rms="3.8775339722633362e-01" purity="4.8567447066307068e-01" nType="0">
          <Node pos="l" depth="2" NCoef="0" IVar="7" Cut="-3.9978766441345215e-01" cType="1" res="-4.3359496630728245e-03" rms="3.5818338394165039e-01" purity="2.1562546491622925e-01" nType="0">
            <Node pos="l" depth="3" NCoef="0" IVar="-1" Cut="0.0000000000000000e+00" cType="1" res="2.0360618829727173e-02" rms="3.6793401837348938e-01" purity="2.2551086544990540e-01" nType="-99"/>
            <Node pos="r" depth="3" NCoef="0" IVar="-1" Cut="0.0000000000000000e+00" cType="1" res="-1.4383052475750446e-02" rms="3.5202696919441223e-01" purity="2.1049116551876068e-01" nType="-99"/>
          </Node>
          <Node pos="r" depth="2" NCoef="0" IVar="8" Cut="-1.4665772914886475e+00" cType="1" res="1.1768431402742863e-02" rms="3.9609020948410034e-01" purity="5.6641060113906860e-01" nType="0">
            <Node pos="l" depth="3" NCoef="0" IVar="-1" Cut="0.0000000000000000e+00" cType="1" res="2.5815567001700401e-02" rms="4.0893152356147766e-01" purity="4.0494686365127563e-01" nType="-99"/>
            <Node pos="r" depth="3" NCoef="0" IVar="-1" Cut="0.0000000000000000e+00" cType="1" res="5.8725764974951744e-03" rms="3.9476937055587769e-01" purity="5.8149802684783936e-01" nType="-99"/>
          </Node>
        </Node>
      </Node>
    </BinaryTree>
    <BinaryTree type="DecisionTree" boostWeight="1.0000000000000000e+00" itree="197">
      <Node pos="s" depth="0" NCoef="0" IVar="9" Cut="4.0000277757644653e-01" cType="1" res="1.8856211099773645e-03" rms="3.8985970616340637e-01" purity="4.9658256769180298e-01" nType="0">
        <Node pos="l" depth="1" NCoef="0" IVar="7" Cut="6.6644358634948730e-01" cType="1" res="-2.9553193598985672e-03" rms="3.8926658034324646e-01" purity="5.0497823953628540e-01" nType="0">
          <Node pos="l" depth="2" NCoef="0" IVar="6" Cut="1.4783003330230713e+00" cType="1" res="1.0041373316198587e-03" rms="3.9249375462532043e-01" purity="5.3327167034149170e-01" nType="0">
            <Node pos="l" depth="3" NCoef="0" IVar="-1" Cut="0.0000000000000000e+00" cType="1" res="-1.1348249390721321e-03" rms="3.9297661185264587e-01" purity="5.4836958646774292e-01" nType="-99"/>
            <Node pos="r" depth="3" NCoef="0" IVar="-1" Cut="0.0000000000000000e+00" cType="1" res="3.7193812429904938e-02" rms="3.8142716884613037e-01" purity="2.8178784251213074e-01" nType="-99"/>
          </Node>
          <Node pos="r" depth="2" NCoef="0" IVar="3" Cut="2.3775593566894531e+02" cType="1" res="-1.5992851927876472e-02" rms="3.7815293669700623e-01" purity="4.1181480884552002e-01" nType="0">
            <Node pos="l" depth="3" NCoef="0" IVar="-1" Cut="0.0000000000000000e+00" cType="1" res="-4.5420243404805660e-03" rms="3.7291187047958374e-01" purity="3.5570025444030762e-01" nType="-99"/>
            <Node pos="r" depth="3" NCoef="0" IVar="-1" Cut="0.0000000000000000e+00" cType="1" res="-2.5334138423204422e-02" rms="3.8978767395019531e-01" purity="5.4956197738647461e-01" nType="-99"/>
          </Node>
        </Node>
        <Node pos="r" depth="1" NCoef="0" IVar="0" Cut="4.2644326782226562e+02" cType="1" res="9.7960252314805984e-03" rms="3.9069795608520508e-01" purity="4.8286357522010803e-01" nType="0">
          <Node pos="l" depth="2" NCoef="0" IVar="2" Cut="2.7974407958984375e+02" cType="1" res="1.7480375245213509e-02" rms="3.9346745610237122e-01" purity="3.4317806363105774e-01" nType="0">
            <Node pos="l" depth="3" NCoef="0" IVar="-1" Cut="0.0000000000000000e+00" cType="1" res="2.4663019925355911e-02" rms="4.1620543599128723e-01" purity="3.4940087795257568e-01" nType="-99"/>
            <Node pos="r" depth="3" NCoef="0" IVar="-1" Cut="0.0000000000000000e+00" cType="1" res="3.2339554745703936e-03" rms="3.7915936112403870e-01" purity="3.3958935737609863e-01" nType="-99"/>
          </Node>
          <Node pos="r" depth="2" NCoef="0" IVar="6" Cut="-6.0818403959274292e-01" cType="1" res="1.2877312838099897e-04" rms="3.8696900010108948e-01" purity="6.5859413146972656e-01" nType="0">
            <Node pos="l" depth="3" NCoef="0" IVar="-1" Cut="0.0000000000000000e+00" cType="1" res="-1.6138512641191483e-02" rms="3.9150315523147583e-01" purity="5.6063717603683472e-01" nType="-99"/>
            <Node pos="r" depth="3" NCoef="0" IVar="-1" Cut="0.0000000000000000e+00" cType="1" res="4.5064226724207401e-03" rms="3.8554546236991882e-01" purity="6.8324136734008789e-01" nType="-99"/>
          </Node>
        </Node>
      </Node>
    </BinaryTree>
    <BinaryTree type="DecisionTree" boostWeight="1.0000000000000000e+00" itree="198">
      <Node pos="s" depth="0" NCoef="0" IVar="4" Cut="1.4368092346191406e+02" cType="1" res="-1.4760129852220416e-03" rms="3.8957589864730835e-01" purity="4.9659642577171326e-01" nType="0">
        <Node pos="l" depth="1" NCoef="0" IVar="9" Cut="1.3333696126937866e-01" cType="1" res="3.1470847316086292e-03" rms="3.9791220426559448e-01" purity="3.6759904026985168e-01" nType="0">
          <Node pos="l" depth="2" NCoef="0" IVar="7" Cut="-1.1998838186264038e+00" cType="1" res="9.3959150835871696e-03" rms="4.0016612410545349e-01" purity="3.7749060988426208e-01" nType="0">
            <Node pos="l" depth="3" NCoef="0" IVar="-1" Cut="0.0000000000000000e+00" cType="1" res="-8.1933746114373207e-03" rms="3.3527967333793640e-01" purity="2.1467658877372742e-01" nType="-99"/>
            <Node pos="r" depth="3" NCoef="0" IVar="-1" Cut="0.0000000000000000e+00" cType="1" res="8.0994926393032074e-03" rms="4.1296473145484924e-01" purity="4.1335025429725647e-01" nType="-99"/>
          </Node>
          <Node pos="r" depth="2" NCoef="0" IVar="7" Cut="-4.0025353431701660e-01" cType="1" res="-4.2210356332361698e-03" rms="3.9511108398437500e-01" purity="3.5593572258949280e-01" nType="0">
            <Node pos="l" depth="3" NCoef="0" IVar="-1" Cut="0.0000000000000000e+00" cType="1" res="7.5804884545505047e-03" rms="3.9736568927764893e-01" purity="3.5884624719619751e-01" nType="-99"/>
            <Node pos="r" depth="3" NCoef="0" IVar="-1" Cut="0.0000000000000000e+00" cType="1" res="-7.5410390272736549e-03" rms="3.9377957582473755e-01" purity="3.5453116893768311e-01" nType="-99"/>
          </Node>
        </Node>
        <Node pos="r" depth="1" NCoef="0" IVar="2" Cut="4.9193817138671875e+02" cType="1" res="-8.8753094896674156e-03" rms="3.7573060393333435e-01" purity="7.0305752754211426e-01" nType="0">
          <Node pos="l" depth="2" NCoef="0" IVar="5" Cut="6.6224479675292969e+01" cType="1" res="-1.4455853030085564e-02" rms="3.7672144174575806e-01" purity="6.9959139823913574e-01" nType="0">
            <Node pos="l" depth="3" NCoef="0" IVar="-1" Cut="0.0000000000000000e+00" cType="1" res="-2.6042349636554718e-02" rms="4.1507065296173096e-01" purity="4.4991257786750793e-01" nType="-99"/>
            <Node pos="r" depth="3" NCoef="0" IVar="-1" Cut="0.0000000000000000e+00" cType="1" res="-8.0842683091759682e-03" rms="3.7204855680465698e-01" purity="7.2737008333206177e-01" nType="-99"/>
          </Node>
          <Node pos="r" depth="2" NCoef="0" IVar="5" Cut="1.1358461761474609e+02" cType="1" res="8.9397095143795013e-03" rms="3.7199008464813232e-01" purity="7.1412259340286255e-01" nType="0">
            <Node pos="l" depth="3" NCoef="0" IVar="-1" Cut="0.0000000000000000e+00" cType="1" res="1.3163620606064796e-02" rms="3.9592295885086060e-01" purity="6.3014900684356689e-01" nType="-99"/>
            <Node pos="r" depth="3" NCoef="0" IVar="-1" Cut="0.0000000000000000e+00" cType="1" res="-2.0033409819006920e-03" rms="3.4944424033164978e-01" purity="7.8714019060134888e-01" nType="-99"/>
          </Node>
        </Node>
      </Node>
    </BinaryTree>
    <BinaryTree type="DecisionTree" boostWeight="1.0000000000000000e+00" itree="199">
      <Node pos="s" depth="0" NCoef="0" IVar="6" Cut="-9.2559170722961426e-01" cType="1" res="-3.3848633756861091e-04" rms="3.8838240504264832e-01" purity="4.9550342559814453e-01" nType="0">
        <Node pos="l" depth="1" NCoef="0" IVar="8" Cut="6.6624033451080322e-01" cType="1" res="-1.3156940229237080e-02" rms="3.6396813392639160e-01" purity="3.0941146612167358e-01" nType="0">
          <Node pos="l" depth="2" NCoef="0" IVar="0" Cut="4.8433285522460938e+02" cType="1" res="-5.3632920607924461e-03" rms="3.7111905217170715e-01" purity="3.3040013909339905e-01" nType="0">
            <Node pos="l" depth="3" NCoef="0" IVar="-1" Cut="0.0000000000000000e+00" cType="1" res="-1.0195107199251652e-02" rms="3.5690912604331970e-01" purity="2.3111519217491150e-01" nType="-99"/>
            <Node pos="r" depth="3" NCoef="0" IVar="-1" Cut="0.0000000000000000e+00" cType="1" res="1.2110340408980846e-02" rms="4.0976029634475708e-01" purity="6.2835127115249634e-01" nType="-99"/>
          </Node>
          <Node pos="r" depth="2" NCoef="0" IVar="-1" Cut="0.0000000000000000e+00" cType="1" res="-2.7924830093979836e-02" rms="3.3977761864662170e-01" purity="2.4450649321079254e-01" nType="-99"/>
        </Node>
        <Node pos="r" depth="1" NCoef="0" IVar="2" Cut="6.5569555664062500e+02" cType="1" res="2.1959322039037943e-03" rms="3.9298048615455627e-01" purity="5.3229683637619019e-01" nType="0">
          <Node pos="l" depth="2" NCoef="0" IVar="3" Cut="1.0826113891601562e+02" cType="1" res="3.5869861021637917e-03" rms="3.9222913980484009e-01" purity="5.2973657846450806e-01" nType="0">
            <Node pos="l" depth="3" NCoef="0" IVar="-1" Cut="0.0000000000000000e+00" cType="1" res="-1.0263707488775253e-02" rms="3.3436125516891479e-01" purity="1.5803833305835724e-01" nType="-99"/>
            <Node pos="r" depth="3" NCoef="0" IVar="-1" Cut="0.0000000000000000e+00" cType="1" res="3.3052598591893911e-03" rms="3.9750173687934875e-01" purity="5.6679570674896240e-01" nType="-99"/>
          </Node>
          <Node pos="r" depth="2" NCoef="0" IVar="-1" Cut="0.0000000000000000e+00" cType="1" res="-1.2598508037626743e-02" rms="4.0504845976829529e-01" purity="5.7677090167999268e-01" nType="-99"/>
        </Node>
      </Node>
    </BinaryTree>
    <BinaryTree type="DecisionTree" boostWeight="1.0000000000000000e+00" itree="200">
      <Node pos="s" depth="0" NCoef="0" IVar="3" Cut="1.4500955200195312e+02" cType="1" res="-5.2501016762107611e-04" rms="3.8646447658538818e-01" purity="5.0074148178100586e-01" nType="0">
        <Node pos="l" depth="1" NCoef="0" IVar="7" Cut="9.3325120210647583e-01" cType="1" res="-1.1600907891988754e-02" rms="3.6524069309234619e-01" purity="2.2954514622688293e-01" nType="0">
          <Node pos="l" depth="2" NCoef="0" IVar="8" Cut="9.3326687812805176e-01" cType="1" res="-2.1289339289069176e-02" rms="3.7091848254203796e-01" purity="2.3827689886093140e-01" nType="0">
            <Node pos="l" depth="3" NCoef="0" IVar="-1" Cut="0.0000000000000000e+00" cType="1" res="-2.0907625555992126e-02" rms="3.7036195397377014e-01" purity="2.4050951004028320e-01" nType="-99"/>
            <Node pos="r" depth="3" NCoef="0" IVar="-1" Cut="0.0000000000000000e+00" cType="1" res="9.4735864549875259e-03" rms="3.7069672346115112e-01" purity="2.3102749884128571e-01" nType="-99"/>
          </Node>
          <Node pos="r" depth="2" NCoef="0" IVar="8" Cut="1.3369078934192657e-01" cType="1" res="1.8397416919469833e-02" rms="3.4535264968872070e-01" purity="2.0250897109508514e-01" nType="0">
            <Node pos="l" depth="3" NCoef="0" IVar="-1" Cut="0.0000000000000000e+00" cType="1" res="2.7262838557362556e-02" rms="3.6934453248977661e-01" purity="2.3438487946987152e-01" nType="-99"/>
            <Node pos="r" depth="3" NCoef="0" IVar="-1" Cut="0.0000000000000000e+00" cType="1" res="2.3102755658328533e-03" rms="3.2071158289909363e-01" purity="1.7297603189945221e-01" nType="-99"/>
          </Node>
        </Node>
        <Node pos="r" depth="1" NCoef="0" IVar="7" Cut="-1.1999139785766602e+00" cType="1" res="2.8767534531652927e-03" rms="3.9269012212753296e-01" purity="5.8403462171554565e-01" nType="0">
          <Node pos="l" depth="2" NCoef="0" IVar="8" Cut="-1.3320584595203400e-01" cType="1" res="-1.4698969200253487e-02" rms="3.8591817021369934e-01" purity="3.5858845710754395e-01" nType="0">
            <Node pos="l" depth="3" NCoef="0" IVar="-1" Cut="0.0000000000000000e+00" cType="1" res="3.0516299884766340e-03" rms="3.9389505982398987e-01" purity="3.6532583832740784e-01" nType="-99"/>
            <Node pos="r" depth="3" NCoef="0" IVar="-1" Cut="0.0000000000000000e+00" cType="1" res="-2.3320695385336876e-02" rms="3.7564432621002197e-01" purity="3.5107281804084778e-01" nType="-99"/>
          </Node>
          <Node pos="r" depth="2" NCoef="0" IVar="6" Cut="1.4680609703063965e+00" cType="1" res="5.2020517177879810e-03" rms="3.9351853728294373e-01" purity="6.1386150121688843e-01" nType="0">
            <Node pos="l" depth="3" NCoef="0" IVar="-1" Cut="0.0000000000000000e+00" cType="1" res="4.2843003757297993e-03" rms="3.9534386992454529e-01" purity="6.3596194982528687e-01" nType="-99"/>
            <Node pos="r" depth="3" NCoef="0" IVar="-1" Cut="0.0000000000000000e+00" cType="1" res="-1.5311285853385925e-02" rms="3.6003866791725159e-01" purity="2.3776777088642120e-01" nType="-99"/>
          </Node>
        </Node>
      </Node>
    </BinaryTree>
    <BinaryTree type="DecisionTree" boostWeight="1.0000000000000000e+00" itree="201">
      <Node pos="s" depth="0" NCoef="0" IVar="7" Cut="9.3327766656875610e-01" cType="1" res="-5.3964153630658984e-04" rms="3.8774144649505615e-01" purity="5.0052970647811890e-01" nType="0">
        <Node pos="l" depth="1" NCoef="0" IVar="7" Cut="4.4435601681470871e-02" cType="1" res="-2.9618262778967619e-03" rms="3.9056265354156494e-01" purity="5.3236931562423706e-01" nType="0">
          <Node pos="l" depth="2" NCoef="0" IVar="0" Cut="4.5206777954101562e+02" cType="1" res="3.1377556733787060e-03" rms="3.9104565978050232e-01" purity="5.0665813684463501e-01" nType="0">
            <Node pos="l" depth="3" NCoef="0" IVar="-1" Cut="0.0000000000000000e+00" cType="1" res="4.5828977599740028e-03" rms="3.9980688691139221e-01" purity="3.7753584980964661e-01" nType="-99"/>
            <Node pos="r" depth="3" NCoef="0" IVar="-1" Cut="0.0000000000000000e+00" cType="1" res="-2.4075873661786318e-03" rms="3.7673053145408630e-01" purity="7.1017253398895264e-01" nType="-99"/>
          </Node>
          <Node pos="r" depth="2" NCoef="0" IVar="9" Cut="1.1998350620269775e+00" cType="1" res="-1.4208107255399227e-02" rms="3.8942015171051025e-01" purity="5.7977497577667236e-01" nType="0">
            <Node pos="l" depth="3" NCoef="0" IVar="-1" Cut="0.0000000000000000e+00" cType="1" res="-1.2705329805612564e-02" rms="3.8668999075889587e-01" purity="5.9273642301559448e-01" nType="-99"/>
            <Node pos="r" depth="3" NCoef="0" IVar="-1" Cut="0.0000000000000000e+00" cType="1" res="5.7476758956909180e-03" rms="4.0079659223556519e-01" purity="5.2060216665267944e-01" nType="-99"/>
          </Node>
        </Node>
        <Node pos="r" depth="1" NCoef="0" IVar="1" Cut="1.0679053955078125e+03" cType="1" res="9.3376804143190384e-03" rms="3.7585625052452087e-01" purity="3.7069240212440491e-01" nType="0">
          <Node pos="l" depth="2" NCoef="0" IVar="-1" Cut="0.0000000000000000e+00" cType="1" res="-5.9827738441526890e-03" rms="3.2461598515510559e-01" purity="1.4509105682373047e-01" nType="-99"/>
          <Node pos="r" depth="2" NCoef="0" IVar="6" Cut="-5.7309597730636597e-01" cType="1" res="1.7179865390062332e-02" rms="3.9838916063308716e-01" purity="4.8152258992195129e-01" nType="0">
            <Node pos="l" depth="3" NCoef="0" IVar="-1" Cut="0.0000000000000000e+00" cType="1" res="-8.6111538112163544e-03" rms="3.8818359375000000e-01" purity="3.1540545821189880e-01" nType="-99"/>
            <Node pos="r" depth="3" NCoef="0" IVar="-1" Cut="0.0000000000000000e+00" cType="1" res="1.6201985999941826e-02" rms="4.0111222863197327e-01" purity="5.3441792726516724e-01" nType="-99"/>
          </Node>
        </Node>
      </Node>
    </BinaryTree>
    <BinaryTree type="DecisionTree" boostWeight="1.0000000000000000e+00" itree="202">
      <Node pos="s" depth="0" NCoef="0" IVar="8" Cut="1.9999754428863525e+00" cType="1" res="-1.7791440477594733e-03" rms="3.8763657212257385e-01" purity="4.9762544035911560e-01" nType="0">
        <Node pos="l" depth="1" NCoef="0" IVar="4" Cut="1.4368092346191406e+02" cType="1" res="-2.8880559839308262e-03" rms="3.8839587569236755e-01" purity="5.0814849138259888e-01" nType="0">
          <Node pos="l" depth="2" NCoef="0" IVar="6" Cut="1.7354359626770020e+00" cType="1" res="-7.0401239208877087e-03" rms="4.0044063329696655e-01" purity="3.6005479097366333e-01" nType="0">
            <Node pos="l" depth="3" NCoef="0" IVar="-1" Cut="0.0000000000000000e+00" cType="1" res="-5.2373209036886692e-03" rms="4.0368589758872986e-01" purity="3.7125384807586670e-01" nType="-99"/>
            <Node pos="r" depth="3" NCoef="0" IVar="-1" Cut="0.0000000000000000e+00" cType="1" res="2.5948692113161087e-02" rms="3.2944667339324951e-01" purity="1.4183102548122406e-01" nType="-99"/>
          </Node>
          <Node pos="r" depth="2" NCoef="0" IVar="5" Cut="1.2018177795410156e+02" cType="1" res="3.1688287854194641e-03" rms="3.7003958225250244e-01" purity="7.2418212890625000e-01" nType="0">
            <Node pos="l" depth="3" NCoef="0" IVar="-1" Cut="0.0000000000000000e+00" cType="1" res="6.5847113728523254e-03" rms="4.0272855758666992e-01" purity="6.3983374834060669e-01" nType="-99"/>
            <Node pos="r" depth="3" NCoef="0" IVar="-1" Cut="0.0000000000000000e+00" cType="1" res="-4.0316525846719742e-03" rms="3.3350133895874023e-01" purity="8.0961042642593384e-01" nType="-99"/>
          </Node>
        </Node>
        <Node pos="r" depth="1" NCoef="0" IVar="-1" Cut="0.0000000000000000e+00" cType="1" res="1.7239330336451530e-02" rms="3.6962926387786865e-01" purity="2.6528504490852356e-01" nType="-99"/>
      </Node>
    </BinaryTree>
    <BinaryTree type="DecisionTree" boostWeight="1.0000000000000000e+00" itree="203">
      <Node pos="s" depth="0" NCoef="0" IVar="2" Cut="6.1037054443359375e+02" cType="1" res="3.5760554019361734e-03" rms="3.8742783665657043e-01" purity="5.0282877683639526e-01" nType="0">
        <Node pos="l" depth="1" NCoef="0" IVar="9" Cut="-1.7333266735076904e+00" cType="1" res="5.1991865038871765e-03" rms="3.8687196373939514e-01" purity="4.9926573038101196e-01" nType="0">
          <Node pos="l" depth="2" NCoef="0" IVar="8" Cut="-6.6671413183212280e-01" cType="1" res="-1.3609663583338261e-02" rms="3.7000924348831177e-01" purity="3.4650430083274841e-01" nType="0">
            <Node pos="l" depth="3" NCoef="0" IVar="-1" Cut="0.0000000000000000e+00" cType="1" res="-2.7926677837967873e-02" rms="3.2446035742759705e-01" purity="2.2590969502925873e-01" nType="-99"/>
            <Node pos="r" depth="3" NCoef="0" IVar="-1" Cut="0.0000000000000000e+00" cType="1" res="-1.6615723725408316e-03" rms="3.9169815182685852e-01" purity="4.1081976890563965e-01" nType="-99"/>
          </Node>
          <Node pos="r" depth="2" NCoef="0" IVar="0" Cut="4.3762866210937500e+02" cType="1" res="6.8868622183799744e-03" rms="3.8830468058586121e-01" purity="5.1297265291213989e-01" nType="0">
            <Node pos="l" depth="3" NCoef="0" IVar="-1" Cut="0.0000000000000000e+00" cType="1" res="7.6288678683340549e-03" rms="3.9911231398582458e-01" purity="3.7960872054100037e-01" nType="-99"/>
            <Node pos="r" depth="3" NCoef="0" IVar="-1" Cut="0.0000000000000000e+00" cType="1" res="-7.4820680310949683e-04" rms="3.7151676416397095e-01" purity="7.1122825145721436e-01" nType="-99"/>
          </Node>
        </Node>
        <Node pos="r" depth="1" NCoef="0" IVar="1" Cut="2.0071405029296875e+03" cType="1" res="-1.7319874837994576e-02" rms="3.9391717314720154e-01" purity="5.4869848489761353e-01" nType="0">
          <Node pos="l" depth="2" NCoef="0" IVar="-1" Cut="0.0000000000000000e+00" cType="1" res="-2.4404330179095268e-02" rms="4.0247273445129395e-01" purity="3.8418555259704590e-01" nType="-99"/>
          <Node pos="r" depth="2" NCoef="0" IVar="-1" Cut="0.0000000000000000e+00" cType="1" res="6.0553587973117828e-03" rms="3.8234195113182068e-01" purity="7.3185193538665771e-01" nType="-99"/>
        </Node>
      </Node>
    </BinaryTree>
    <BinaryTree type="DecisionTree" boostWeight="1.0000000000000000e+00" itree="204">
      <Node pos="s" depth="0" NCoef="0" IVar="2" Cut="6.5569689941406250e+02" cType="1" res="1.4142818981781602e-03" rms="3.8874116539955139e-01" purity="5.0086271762847900e-01" nType="0">
        <Node pos="l" depth="1" NCoef="0" IVar="2" Cut="2.2170141601562500e+02" cType="1" res="3.9308491977863014e-04" rms="3.8750159740447998e-01" purity="4.9601036310195923e-01" nType="0">
          <Node pos="l" depth="2" NCoef="0" IVar="-1" Cut="0.0000000000000000e+00" cType="1" res="1.2883676216006279e-02" rms="4.2769190669059753e-01" purity="3.9872032403945923e-01" nType="-99"/>
          <Node pos="r" depth="2" NCoef="0" IVar="3" Cut="1.0860707855224609e+02" cType="1" res="-1.2200629571452737e-03" rms="3.8420745730400085e-01" purity="5.0345045328140259e-01" nType="0">
            <Node pos="l" depth="3" NCoef="0" IVar="-1" Cut="0.0000000000000000e+00" cType="1" res="-1.5533573925495148e-02" rms="3.1101599335670471e-01" purity="1.2983204424381256e-01" nType="-99"/>
            <Node pos="r" depth="3" NCoef="0" IVar="-1" Cut="0.0000000000000000e+00" cType="1" res="2.6175373932346702e-04" rms="3.9106228947639465e-01" purity="5.4267489910125732e-01" nType="-99"/>
          </Node>
        </Node>
        <Node pos="r" depth="1" NCoef="0" IVar="0" Cut="6.0602410888671875e+02" cType="1" res="1.9511010497808456e-02" rms="4.0966436266899109e-01" purity="5.8685189485549927e-01" nType="0">
          <Node pos="l" depth="2" NCoef="0" IVar="-1" Cut="0.0000000000000000e+00" cType="1" res="3.4290817566215992e-03" rms="4.0025582909584045e-01" purity="4.5896387100219727e-01" nType="-99"/>
          <Node pos="r" depth="2" NCoef="0" IVar="-1" Cut="0.0000000000000000e+00" cType="1" res="1.7997633665800095e-02" rms="4.1752982139587402e-01" purity="7.0112723112106323e-01" nType="-99"/>
        </Node>
      </Node>
    </BinaryTree>
    <BinaryTree type="DecisionTree" boostWeight="1.0000000000000000e+00" itree="205">
      <Node pos="s" depth="0" NCoef="0" IVar="7" Cut="1.4666746854782104e+00" cType="1" res="4.4653864460997283e-04" rms="3.8645195960998535e-01" purity="4.9851024150848389e-01" nType="0">
        <Node pos="l" depth="1" NCoef="0" IVar="9" Cut="1.4666736125946045e+00" cType="1" res="2.1077333949506283e-03" rms="3.9071720838546753e-01" purity="5.2486181259155273e-01" nType="0">
          <Node pos="l" depth="2" NCoef="0" IVar="7" Cut="8.5714519023895264e-01" cType="1" res="3.6693997681140900e-03" rms="3.9094427227973938e-01" purity="5.3921812772750854e-01" nType="0">
            <Node pos="l" depth="3" NCoef="0" IVar="-1" Cut="0.0000000000000000e+00" cType="1" res="3.4444502089172602e-03" rms="3.8966506719589233e-01" purity="5.4894363880157471e-01" nType="-99"/>
            <Node pos="r" depth="3" NCoef="0" IVar="-1" Cut="0.0000000000000000e+00" cType="1" res="-4.6779229305684566e-03" rms="3.9951300621032715e-01" purity="4.7184780240058899e-01" nType="-99"/>
          </Node>
          <Node pos="r" depth="2" NCoef="0" IVar="8" Cut="9.3279623985290527e-01" cType="1" res="-9.7802635282278061e-03" rms="3.8877880573272705e-01" purity="4.1557630896568298e-01" nType="0">
            <Node pos="l" depth="3" NCoef="0" IVar="-1" Cut="0.0000000000000000e+00" cType="1" res="-1.4687985181808472e-02" rms="3.8633790612220764e-01" purity="4.4825291633605957e-01" nType="-99"/>
            <Node pos="r" depth="3" NCoef="0" IVar="-1" Cut="0.0000000000000000e+00" cType="1" res="1.9061876460909843e-02" rms="3.9288440346717834e-01" purity="3.2708930969238281e-01" nType="-99"/>
          </Node>
        </Node>
        <Node pos="r" depth="1" NCoef="0" IVar="7" Cut="2.0381057262420654e+00" cType="1" res="-1.7261091619729996e-02" rms="3.3714640140533447e-01" purity="2.1761301159858704e-01" nType="0">
          <Node pos="l" depth="2" NCoef="0" IVar="9" Cut="4.0018370747566223e-01" cType="1" res="-2.4454161524772644e-02" rms="3.5305467247962952e-01" purity="2.4239215254783630e-01" nType="0">
            <Node pos="l" depth="3" NCoef="0" IVar="-1" Cut="0.0000000000000000e+00" cType="1" res="-1.9889093935489655e-02" rms="3.5782232880592346e-01" purity="2.5866219401359558e-01" nType="-99"/>
            <Node pos="r" depth="3" NCoef="0" IVar="-1" Cut="0.0000000000000000e+00" cType="1" res="-1.5724504366517067e-02" rms="3.4750020503997803e-01" purity="2.2384889423847198e-01" nType="-99"/>
          </Node>
          <Node pos="r" depth="2" NCoef="0" IVar="-1" Cut="0.0000000000000000e+00" cType="1" res="-4.6813841909170151e-03" rms="3.0784493684768677e-01" purity="1.7549762129783630e-01" nType="-99"/>
        </Node>
      </Node>
    </BinaryTree>
    <BinaryTree type="DecisionTree" boostWeight="1.0000000000000000e+00" itree="206">
      <Node pos="s" depth="0" NCoef="0" IVar="2" Cut="7.4182775878906250e+02" cType="1" res="5.6464056251570582e-04" rms="3.8942691683769226e-01" purity="4.9733358621597290e-01" nType="0">
        <Node pos="l" depth="1" NCoef="0" IVar="4" Cut="2.2405087280273438e+02" cType="1" res="1.5195357846096158e-03" rms="3.8862943649291992e-01" purity="4.9530217051506042e-01" nType="0">
          <Node pos="l" depth="2" NCoef="0" IVar="4" Cut="6.6688880920410156e+01" cType="1" res="2.9352558776736259e-03" rms="3.9277699589729309e-01" purity="4.6658492088317871e-01" nType="0">
            <Node pos="l" depth="3" NCoef="0" IVar="-1" Cut="0.0000000000000000e+00" cType="1" res="2.0437246188521385e-02" rms="3.4059369564056396e-01" purity="1.7247238755226135e-01" nType="-99"/>
            <Node pos="r" depth="3" NCoef="0" IVar="-1" Cut="0.0000000000000000e+00" cType="1" res="9.4713200815021992e-04" rms="3.9642935991287231e-01" purity="4.8895961046218872e-01" nType="-99"/>
          </Node>
          <Node pos="r" depth="2" NCoef="0" IVar="8" Cut="4.0085801482200623e-01" cType="1" res="-1.2742662802338600e-02" rms="3.4374359250068665e-01" purity="7.8460490703582764e-01" nType="0">
            <Node pos="l" depth="3" NCoef="0" IVar="-1" Cut="0.0000000000000000e+00" cType="1" res="-1.6180848469957709e-03" rms="3.3709937334060669e-01" purity="8.0486005544662476e-01" nType="-99"/>
            <Node pos="r" depth="3" NCoef="0" IVar="-1" Cut="0.0000000000000000e+00" cType="1" res="-3.1590957194566727e-02" rms="3.5770705342292786e-01" purity="7.3648613691329956e-01" nType="-99"/>
          </Node>
        </Node>
        <Node pos="r" depth="1" NCoef="0" IVar="-1" Cut="0.0000000000000000e+00" cType="1" res="-1.8641689792275429e-02" rms="4.1525644063949585e-01" purity="5.6922560930252075e-01" nType="-99"/>
      </Node>
    </BinaryTree>
    <BinaryTree type="DecisionTree" boostWeight="1.0000000000000000e+00" itree="207">
      <Node pos="s" depth="0" NCoef="0" IVar="6" Cut="-1.6887011528015137e+00" cType="1" res="3.6437646485865116e-03" rms="3.9025905728340149e-01" purity="5.0102251768112183e-01" nType="0">
        <Node pos="l" depth="1" NCoef="0" IVar="-1" Cut="0.0000000000000000e+00" cType="1" res="-1.7938742414116859e-02" rms="3.0994066596031189e-01" purity="1.5588733553886414e-01" nType="-99"/>
        <Node pos="r" depth="1" NCoef="0" IVar="9" Cut="1.9999972581863403e+00" cType="1" res="4.5985868200659752e-03" rms="3.9324483275413513e-01" purity="5.1551795005798340e-01" nType="0">
          <Node pos="l" depth="2" NCoef="0" IVar="7" Cut="1.1998165845870972e+00" cType="1" res="5.6161847896873951e-03" rms="3.9374646544456482e-01" purity="5.2519094944000244e-01" nType="0">
            <Node pos="l" depth="3" NCoef="0" IVar="-1" Cut="0.0000000000000000e+00" cType="1" res="2.3808199912309647e-03" rms="3.9534273743629456e-01" purity="5.5332309007644653e-01" nType="-99"/>
            <Node pos="r" depth="3" NCoef="0" IVar="-1" Cut="0.0000000000000000e+00" cType="1" res="1.2788545340299606e-02" rms="3.8277837634086609e-01" purity="3.3899205923080444e-01" nType="-99"/>
          </Node>
          <Node pos="r" depth="2" NCoef="0" IVar="6" Cut="2.3416940867900848e-01" cType="1" res="-1.3852322474122047e-02" rms="3.8356775045394897e-01" purity="3.4012833237648010e-01" nType="0">
            <Node pos="l" depth="3" NCoef="0" IVar="-1" Cut="0.0000000000000000e+00" cType="1" res="-2.0053699612617493e-02" rms="3.9577504992485046e-01" purity="3.5757589340209961e-01" nType="-99"/>
            <Node pos="r" depth="3" NCoef="0" IVar="-1" Cut="0.0000000000000000e+00" cType="1" res="2.3499059025198221e-03" rms="3.7012585997581482e-01" purity="3.2262560725212097e-01" nType="-99"/>
          </Node>
        </Node>
      </Node>
    </BinaryTree>
    <BinaryTree type="DecisionTree" boostWeight="1.0000000000000000e+00" itree="208">
      <Node pos="s" depth="0" NCoef="0" IVar="6" Cut="4.0467211604118347e-01" cType="1" res="5.9894528239965439e-03" rms="3.9224189519882202e-01" purity="5.0429135560989380e-01" nType="0">
        <Node pos="l" depth="1" NCoef="0" IVar="5" Cut="8.1792213439941406e+01" cType="1" res="1.2379236519336700e-02" rms="3.9696297049522400e-01" purity="5.4423159360885620e-01" nType="0">
          <Node pos="l" depth="2" NCoef="0" IVar="3" Cut="2.3230856323242188e+02" cType="1" res="2.1664464846253395e-02" rms="4.1152879595756531e-01" purity="3.8086813688278198e-01" nType="0">
            <Node pos="l" depth="3" NCoef="0" IVar="-1" Cut="0.0000000000000000e+00" cType="1" res="9.9328979849815369e-03" rms="4.0808463096618652e-01" purity="3.1975674629211426e-01" nType="-99"/>
            <Node pos="r" depth="3" NCoef="0" IVar="-1" Cut="0.0000000000000000e+00" cType="1" res="2.1778516471385956e-02" rms="4.2096990346908569e-01" purity="5.5972671508789062e-01" nType="-99"/>
          </Node>
          <Node pos="r" depth="2" NCoef="0" IVar="7" Cut="-9.3381446599960327e-01" cType="1" res="3.1643535476177931e-03" rms="3.8173547387123108e-01" purity="7.0635735988616943e-01" nType="0">
            <Node pos="l" depth="3" NCoef="0" IVar="-1" Cut="0.0000000000000000e+00" cType="1" res="1.2316643260419369e-02" rms="4.1736555099487305e-01" purity="6.0005474090576172e-01" nType="-99"/>
            <Node pos="r" depth="3" NCoef="0" IVar="-1" Cut="0.0000000000000000e+00" cType="1" res="-5.4261070908978581e-04" rms="3.7331587076187134e-01" purity="7.2977429628372192e-01" nType="-99"/>
          </Node>
        </Node>
        <Node pos="r" depth="1" NCoef="0" IVar="9" Cut="-1.4666249752044678e+00" cType="1" res="-7.2602173313498497e-03" rms="3.8192620873451233e-01" purity="4.2147246003150940e-01" nType="0">
          <Node pos="l" depth="2" NCoef="0" IVar="-1" Cut="0.0000000000000000e+00" cType="1" res="-2.7142329141497612e-02" rms="3.4506213665008545e-01" purity="2.9640159010887146e-01" nType="-99"/>
          <Node pos="r" depth="2" NCoef="0" IVar="8" Cut="1.4664169549942017e+00" cType="1" res="-3.7500006146728992e-03" rms="3.8582792878150940e-01" purity="4.3600475788116455e-01" nType="0">
            <Node pos="l" depth="3" NCoef="0" IVar="-1" Cut="0.0000000000000000e+00" cType="1" res="-4.3462519533932209e-03" rms="3.8968598842620850e-01" purity="4.5941507816314697e-01" nType="-99"/>
            <Node pos="r" depth="3" NCoef="0" IVar="-1" Cut="0.0000000000000000e+00" cType="1" res="1.2516245245933533e-02" rms="3.5745188593864441e-01" purity="2.7456319332122803e-01" nType="-99"/>
          </Node>
        </Node>
      </Node>
    </BinaryTree>
    <BinaryTree type="DecisionTree" boostWeight="1.0000000000000000e+00" itree="209">
      <Node pos="s" depth="0" NCoef="0" IVar="7" Cut="-1.4666731357574463e+00" cType="1" res="1.5463583404198289e-03" rms="3.8836631178855896e-01" purity="5.0165188312530518e-01" nType="0">
        <Node pos="l" depth="1" NCoef="0" IVar="3" Cut="2.0959057617187500e+02" cType="1" res="-1.5973415225744247e-02" rms="3.4976521134376526e-01" purity="2.3761391639709473e-01" nType="0">
          <Node pos="l" depth="2" NCoef="0" IVar="5" Cut="7.1593101501464844e+01" cType="1" res="-2.9132203198969364e-03" rms="3.3699315786361694e-01" purity="1.9294883310794830e-01" nType="0">
            <Node pos="l" depth="3" NCoef="0" IVar="-1" Cut="0.0000000000000000e+00" cType="1" res="-1.5258887782692909e-02" rms="2.7435740828514099e-01" purity="9.9435165524482727e-02" nType="-99"/>
            <Node pos="r" depth="3" NCoef="0" IVar="-1" Cut="0.0000000000000000e+00" cType="1" res="5.8088204823434353e-03" rms="3.9681559801101685e-01" purity="3.0077877640724182e-01" nType="-99"/>
          </Node>
          <Node pos="r" depth="2" NCoef="0" IVar="-1" Cut="0.0000000000000000e+00" cType="1" res="-2.8132211416959763e-02" rms="3.7458494305610657e-01" purity="3.3520656824111938e-01" nType="-99"/>
        </Node>
        <Node pos="r" depth="1" NCoef="0" IVar="3" Cut="1.4677491760253906e+02" cType="1" res="3.2679203432053328e-03" rms="3.9191207289695740e-01" purity="5.2759724855422974e-01" nType="0">
          <Node pos="l" depth="2" NCoef="0" IVar="4" Cut="7.2989418029785156e+01" cType="1" res="1.1863312683999538e-02" rms="3.8632139563560486e-01" purity="2.6465758681297302e-01" nType="0">
            <Node pos="l" depth="3" NCoef="0" IVar="-1" Cut="0.0000000000000000e+00" cType="1" res="-9.8925260826945305e-03" rms="3.1132879853248596e-01" purity="1.2057354301214218e-01" nType="-99"/>
            <Node pos="r" depth="3" NCoef="0" IVar="-1" Cut="0.0000000000000000e+00" cType="1" res="1.2141109444200993e-02" rms="4.0934258699417114e-01" purity="3.1574857234954834e-01" nType="-99"/>
          </Node>
          <Node pos="r" depth="2" NCoef="0" IVar="1" Cut="1.7602595214843750e+03" cType="1" res="5.5165064986795187e-04" rms="3.9362326264381409e-01" purity="6.1069005727767944e-01" nType="0">
            <Node pos="l" depth="3" NCoef="0" IVar="-1" Cut="0.0000000000000000e+00" cType="1" res="-1.0599079541862011e-03" rms="4.0425410866737366e-01" purity="5.6598168611526489e-01" nType="-99"/>
            <Node pos="r" depth="3" NCoef="0" IVar="-1" Cut="0.0000000000000000e+00" cType="1" res="9.4156134873628616e-03" rms="3.3982646465301514e-01" purity="8.1793260574340820e-01" nType="-99"/>
          </Node>
        </Node>
      </Node>
    </BinaryTree>
    <BinaryTree type="DecisionTree" boostWeight="1.0000000000000000e+00" itree="210">
      <Node pos="s" depth="0" NCoef="0" IVar="7" Cut="6.6648560762405396e-01" cType="1" res="-1.2859309790655971e-03" rms="3.8778215646743774e-01" purity="4.9895954132080078e-01" nType="0">
        <Node pos="l" depth="1" NCoef="0" IVar="7" Cut="-1.6444306373596191e+00" cType="1" res="4.5574274845421314e-03" rms="3.9090511202812195e-01" purity="5.3799194097518921e-01" nType="0">
          <Node pos="l" depth="2" NCoef="0" IVar="3" Cut="1.8392269897460938e+02" cType="1" res="2.3493386805057526e-02" rms="3.6394062638282776e-01" purity="2.4951982498168945e-01" nType="0">
            <Node pos="l" depth="3" NCoef="0" IVar="-1" Cut="0.0000000000000000e+00" cType="1" res="4.3851826339960098e-02" rms="3.5277104377746582e-01" purity="2.2006089985370636e-01" nType="-99"/>
            <Node pos="r" depth="3" NCoef="0" IVar="-1" Cut="0.0000000000000000e+00" cType="1" res="-8.9120483025908470e-03" rms="3.7691730260848999e-01" purity="2.9303380846977234e-01" nType="-99"/>
          </Node>
          <Node pos="r" depth="2" NCoef="0" IVar="9" Cut="1.9999741315841675e+00" cType="1" res="2.5277240201830864e-03" rms="3.9363175630569458e-01" purity="5.6891256570816040e-01" nType="0">
            <Node pos="l" depth="3" NCoef="0" IVar="-1" Cut="0.0000000000000000e+00" cType="1" res="2.5170089211314917e-03" rms="3.9366182684898376e-01" purity="5.7766753435134888e-01" nType="-99"/>
            <Node pos="r" depth="3" NCoef="0" IVar="-1" Cut="0.0000000000000000e+00" cType="1" res="-1.6852198168635368e-02" rms="3.9182561635971069e-01" purity="3.8273575901985168e-01" nType="-99"/>
          </Node>
        </Node>
        <Node pos="r" depth="1" NCoef="0" IVar="3" Cut="1.1293013000488281e+02" cType="1" res="-1.8026145175099373e-02" rms="3.7819337844848633e-01" purity="3.8713854551315308e-01" nType="0">
          <Node pos="l" depth="2" NCoef="0" IVar="-1" Cut="0.0000000000000000e+00" cType="1" res="9.4202505424618721e-03" rms="3.2546514272689819e-01" purity="1.5252555906772614e-01" nType="-99"/>
          <Node pos="r" depth="2" NCoef="0" IVar="6" Cut="-1.0267598181962967e-01" cType="1" res="-2.2409923374652863e-02" rms="3.8565492630004883e-01" purity="4.2407178878784180e-01" nType="0">
            <Node pos="l" depth="3" NCoef="0" IVar="-1" Cut="0.0000000000000000e+00" cType="1" res="-2.7651317417621613e-02" rms="3.7945577502250671e-01" purity="3.7603092193603516e-01" nType="-99"/>
            <Node pos="r" depth="3" NCoef="0" IVar="-1" Cut="0.0000000000000000e+00" cType="1" res="-5.4627214558422565e-03" rms="3.8925951719284058e-01" purity="4.5712885260581970e-01" nType="-99"/>
          </Node>
        </Node>
      </Node>
    </BinaryTree>
    <BinaryTree type="DecisionTree" boostWeight="1.0000000000000000e+00" itree="211">
      <Node pos="s" depth="0" NCoef="0" IVar="2" Cut="5.0379714965820312e+02" cType="1" res="-1.5277265338227153e-03" rms="3.8817346096038818e-01" purity="4.9921414256095886e-01" nType="0">
        <Node pos="l" depth="1" NCoef="0" IVar="8" Cut="-1.7333160638809204e+00" cType="1" res="1.0607197182253003e-03" rms="3.8744226098060608e-01" purity="4.9171698093414307e-01" nType="0">
          <Node pos="l" depth="2" NCoef="0" IVar="2" Cut="3.3020718383789062e+02" cType="1" res="-2.6795012876391411e-02" rms="3.3886885643005371e-01" purity="2.4840620160102844e-01" nType="0">
            <Node pos="l" depth="3" NCoef="0" IVar="-1" Cut="0.0000000000000000e+00" cType="1" res="-4.0567502379417419e-02" rms="3.2200193405151367e-01" purity="1.8294264376163483e-01" nType="-99"/>
            <Node pos="r" depth="3" NCoef="0" IVar="-1" Cut="0.0000000000000000e+00" cType="1" res="8.1532954936847091e-04" rms="3.5553213953971863e-01" purity="3.2481628656387329e-01" nType="-99"/>
          </Node>
          <Node pos="r" depth="2" NCoef="0" IVar="9" Cut="1.2001291513442993e+00" cType="1" res="3.1784393358975649e-03" rms="3.9080700278282166e-01" purity="5.1021456718444824e-01" nType="0">
            <Node pos="l" depth="3" NCoef="0" IVar="-1" Cut="0.0000000000000000e+00" cType="1" res="-2.4618429597467184e-04" rms="3.8997477293014526e-01" purity="5.2641475200653076e-01" nType="-99"/>
            <Node pos="r" depth="3" NCoef="0" IVar="-1" Cut="0.0000000000000000e+00" cType="1" res="1.2658949010074139e-02" rms="3.9416790008544922e-01" purity="4.3647798895835876e-01" nType="-99"/>
          </Node>
        </Node>
        <Node pos="r" depth="1" NCoef="0" IVar="2" Cut="6.4123046875000000e+02" cType="1" res="-1.5214866958558559e-02" rms="3.9173310995101929e-01" purity="5.3885734081268311e-01" nType="0">
          <Node pos="l" depth="2" NCoef="0" IVar="2" Cut="5.5615313720703125e+02" cType="1" res="-2.8049295768141747e-02" rms="3.8252997398376465e-01" purity="5.2090573310852051e-01" nType="0">
            <Node pos="l" depth="3" NCoef="0" IVar="-1" Cut="0.0000000000000000e+00" cType="1" res="-4.9989898689091206e-03" rms="3.9058968424797058e-01" purity="5.2741008996963501e-01" nType="-99"/>
            <Node pos="r" depth="3" NCoef="0" IVar="-1" Cut="0.0000000000000000e+00" cType="1" res="-3.4264747053384781e-02" rms="3.7247753143310547e-01" purity="5.1396924257278442e-01" nType="-99"/>
          </Node>
          <Node pos="r" depth="2" NCoef="0" IVar="8" Cut="-1.3339804112911224e-01" cType="1" res="6.5416982397437096e-03" rms="4.0593278408050537e-01" purity="5.6928825378417969e-01" nType="0">
            <Node pos="l" depth="3" NCoef="0" IVar="-1" Cut="0.0000000000000000e+00" cType="1" res="1.6124444082379341e-02" rms="4.1239136457443237e-01" purity="5.9466910362243652e-01" nType="-99"/>
            <Node pos="r" depth="3" NCoef="0" IVar="-1" Cut="0.0000000000000000e+00" cType="1" res="-7.8069334849715233e-03" rms="3.9871051907539368e-01" purity="5.4536348581314087e-01" nType="-99"/>
          </Node>
        </Node>
      </Node>
    </BinaryTree>
    <BinaryTree type="DecisionTree" boostWeight="1.0000000000000000e+00" itree="212">
      <Node pos="s" depth="0" NCoef="0" IVar="2" Cut="5.8667224121093750e+02" cType="1" res="-2.7421215781942010e-04" rms="3.8736161589622498e-01" purity="5.0141185522079468e-01" nType="0">
        <Node pos="l" depth="1" NCoef="0" IVar="6" Cut="-1.2745065987110138e-01" cType="1" res="-2.1914392709732056e-03" rms="3.8651496171951294e-01" purity="4.9288669228553772e-01" nType="0">
          <Node pos="l" depth="2" NCoef="0" IVar="9" Cut="-6.6664421558380127e-01" cType="1" res="4.6328348107635975e-03" rms="3.8747388124465942e-01" purity="4.8854243755340576e-01" nType="0">
            <Node pos="l" depth="3" NCoef="0" IVar="-1" Cut="0.0000000000000000e+00" cType="1" res="-6.2438813038170338e-03" rms="3.8458874821662903e-01" purity="4.2194956541061401e-01" nType="-99"/>
            <Node pos="r" depth="3" NCoef="0" IVar="-1" Cut="0.0000000000000000e+00" cType="1" res="7.4497209861874580e-03" rms="3.8871264457702637e-01" purity="5.2157473564147949e-01" nType="-99"/>
          </Node>
          <Node pos="r" depth="2" NCoef="0" IVar="6" Cut="1.8240675926208496e+00" cType="1" res="-7.9025235027074814e-03" rms="3.8561782240867615e-01" purity="4.9652233719825745e-01" nType="0">
            <Node pos="l" depth="3" NCoef="0" IVar="-1" Cut="0.0000000000000000e+00" cType="1" res="-4.0081348270177841e-03" rms="3.9163520932197571e-01" purity="5.2196586132049561e-01" nType="-99"/>
            <Node pos="r" depth="3" NCoef="0" IVar="-1" Cut="0.0000000000000000e+00" cType="1" res="-3.3166576176881790e-02" rms="2.8445142507553101e-01" purity="1.3147319853305817e-01" nType="-99"/>
          </Node>
        </Node>
        <Node pos="r" depth="1" NCoef="0" IVar="3" Cut="2.1996377563476562e+02" cType="1" res="1.8486728891730309e-02" rms="3.9506036043167114e-01" purity="5.8483427762985229e-01" nType="0">
          <Node pos="l" depth="2" NCoef="0" IVar="-1" Cut="0.0000000000000000e+00" cType="1" res="-5.4456270299851894e-03" rms="4.1301563382148743e-01" purity="4.4309484958648682e-01" nType="-99"/>
          <Node pos="r" depth="2" NCoef="0" IVar="2" Cut="6.9273400878906250e+02" cType="1" res="2.9078420251607895e-02" rms="3.8751488924026489e-01" purity="6.3853001594543457e-01" nType="0">
            <Node pos="l" depth="3" NCoef="0" IVar="-1" Cut="0.0000000000000000e+00" cType="1" res="3.1071450561285019e-02" rms="3.8445863127708435e-01" purity="6.4639991521835327e-01" nType="-99"/>
            <Node pos="r" depth="3" NCoef="0" IVar="-1" Cut="0.0000000000000000e+00" cType="1" res="3.6167653743177652e-03" rms="3.8973516225814819e-01" purity="6.2953603267669678e-01" nType="-99"/>
          </Node>
        </Node>
      </Node>
    </BinaryTree>
    <BinaryTree type="DecisionTree" boostWeight="1.0000000000000000e+00" itree="213">
      <Node pos="s" depth="0" NCoef="0" IVar="5" Cut="7.8846519470214844e+01" cType="1" res="-2.3186220787465572e-03" rms="3.8851615786552429e-01" purity="4.9696046113967896e-01" nType="0">
        <Node pos="l" depth="1" NCoef="0" IVar="7" Cut="9.3331384658813477e-01" cType="1" res="4.3753506615757942e-03" rms="3.9294180274009705e-01" purity="3.2609072327613831e-01" nType="0">
          <Node pos="l" depth="2" NCoef="0" IVar="6" Cut="-1.4475208520889282e+00" cType="1" res="1.0284554213285446e-02" rms="4.0619438886642456e-01" purity="3.6239933967590332e-01" nType="0">
            <Node pos="l" depth="3" NCoef="0" IVar="-1" Cut="0.0000000000000000e+00" cType="1" res="4.7904793173074722e-02" rms="3.6692869663238525e-01" purity="1.7673791944980621e-01" nType="-99"/>
            <Node pos="r" depth="3" NCoef="0" IVar="-1" Cut="0.0000000000000000e+00" cType="1" res="4.1102962568402290e-03" rms="4.0953609347343445e-01" purity="3.7989398837089539e-01" nType="-99"/>
          </Node>
          <Node pos="r" depth="2" NCoef="0" IVar="9" Cut="6.6659504175186157e-01" cType="1" res="-1.7879143357276917e-02" rms="3.3747816085815430e-01" purity="1.8934981524944305e-01" nType="0">
            <Node pos="l" depth="3" NCoef="0" IVar="-1" Cut="0.0000000000000000e+00" cType="1" res="-2.0190238952636719e-02" rms="3.3966752886772156e-01" purity="1.9706168770790100e-01" nType="-99"/>
            <Node pos="r" depth="3" NCoef="0" IVar="-1" Cut="0.0000000000000000e+00" cType="1" res="-4.4173039495944977e-03" rms="3.3384549617767334e-01" purity="1.7811821401119232e-01" nType="-99"/>
          </Node>
        </Node>
        <Node pos="r" depth="1" NCoef="0" IVar="4" Cut="1.2327905273437500e+02" cType="1" res="-8.4534613415598869e-03" rms="3.8431307673454285e-01" purity="6.5355777740478516e-01" nType="0">
          <Node pos="l" depth="2" NCoef="0" IVar="5" Cut="8.9386085510253906e+01" cType="1" res="-2.5849724188446999e-02" rms="4.2023134231567383e-01" purity="4.4630625844001770e-01" nType="0">
            <Node pos="l" depth="3" NCoef="0" IVar="-1" Cut="0.0000000000000000e+00" cType="1" res="-6.1404206790030003e-03" rms="4.1645210981369019e-01" purity="4.0601772069931030e-01" nType="-99"/>
            <Node pos="r" depth="3" NCoef="0" IVar="-1" Cut="0.0000000000000000e+00" cType="1" res="-2.1734790876507759e-02" rms="4.2321318387985229e-01" purity="4.8325091600418091e-01" nType="-99"/>
          </Node>
          <Node pos="r" depth="2" NCoef="0" IVar="0" Cut="4.5300027465820312e+02" cType="1" res="-2.7005497831851244e-03" rms="3.7149280309677124e-01" purity="7.2209548950195312e-01" nType="0">
            <Node pos="l" depth="3" NCoef="0" IVar="-1" Cut="0.0000000000000000e+00" cType="1" res="-5.9777074493467808e-03" rms="4.1711202263832092e-01" purity="5.8696901798248291e-01" nType="-99"/>
            <Node pos="r" depth="3" NCoef="0" IVar="-1" Cut="0.0000000000000000e+00" cType="1" res="4.7369403764605522e-03" rms="3.2066044211387634e-01" purity="8.5379528999328613e-01" nType="-99"/>
          </Node>
        </Node>
      </Node>
    </BinaryTree>
    <BinaryTree type="DecisionTree" boostWeight="1.0000000000000000e+00" itree="214">
      <Node pos="s" depth="0" NCoef="0" IVar="6" Cut="9.3691831827163696e-01" cType="1" res="1.1438202345743775e-03" rms="3.9079347252845764e-01" purity="4.9896478652954102e-01" nType="0">
        <Node pos="l" depth="1" NCoef="0" IVar="8" Cut="-1.4666682481765747e+00" cType="1" res="-1.4275367138907313e-03" rms="3.9487496018409729e-01" purity="5.3385633230209351e-01" nType="0">
          <Node pos="l" depth="2" NCoef="0" IVar="6" Cut="-4.4130650162696838e-01" cType="1" res="1.5218462795019150e-02" rms="3.8846999406814575e-01" purity="3.6283946037292480e-01" nType="0">
            <Node pos="l" depth="3" NCoef="0" IVar="-1" Cut="0.0000000000000000e+00" cType="1" res="2.2759396582841873e-02" rms="3.7804147601127625e-01" purity="2.8749909996986389e-01" nType="-99"/>
            <Node pos="r" depth="3" NCoef="0" IVar="-1" Cut="0.0000000000000000e+00" cType="1" res="1.4387465780600905e-03" rms="3.9701178669929504e-01" purity="4.2942348122596741e-01" nType="-99"/>
          </Node>
          <Node pos="r" depth="2" NCoef="0" IVar="9" Cut="-3.9997324347496033e-01" cType="1" res="-3.4204302355647087e-03" rms="3.9558789134025574e-01" purity="5.5433082580566406e-01" nType="0">
            <Node pos="l" depth="3" NCoef="0" IVar="-1" Cut="0.0000000000000000e+00" cType="1" res="-6.9235549308359623e-03" rms="3.9494442939758301e-01" purity="5.2979487180709839e-01" nType="-99"/>
            <Node pos="r" depth="3" NCoef="0" IVar="-1" Cut="0.0000000000000000e+00" cType="1" res="7.4496993329375982e-04" rms="3.9591589570045471e-01" purity="5.6951522827148438e-01" nType="-99"/>
          </Node>
        </Node>
        <Node pos="r" depth="1" NCoef="0" IVar="7" Cut="-6.6594648361206055e-01" cType="1" res="1.3978836126625538e-02" rms="3.6947983503341675e-01" purity="3.2480257749557495e-01" nType="0">
          <Node pos="l" depth="2" NCoef="0" IVar="-1" Cut="0.0000000000000000e+00" cType="1" res="-6.1159012839198112e-03" rms="3.2568988204002380e-01" purity="2.3513704538345337e-01" nType="-99"/>
          <Node pos="r" depth="2" NCoef="0" IVar="9" Cut="1.1994321346282959e+00" cType="1" res="2.1433942019939423e-02" rms="3.8339614868164062e-01" purity="3.5629326105117798e-01" nType="0">
            <Node pos="l" depth="3" NCoef="0" IVar="-1" Cut="0.0000000000000000e+00" cType="1" res="2.0465826615691185e-02" rms="3.9699277281761169e-01" purity="3.8869842886924744e-01" nType="-99"/>
            <Node pos="r" depth="3" NCoef="0" IVar="-1" Cut="0.0000000000000000e+00" cType="1" res="-4.9957572482526302e-03" rms="3.3534353971481323e-01" purity="2.5384849309921265e-01" nType="-99"/>
          </Node>
        </Node>
      </Node>
    </BinaryTree>
    <BinaryTree type="DecisionTree" boostWeight="1.0000000000000000e+00" itree="215">
      <Node pos="s" depth="0" NCoef="0" IVar="6" Cut="-1.4577178955078125e+00" cType="1" res="1.8772144103422761e-03" rms="3.8842698931694031e-01" purity="5.0073027610778809e-01" nType="0">
        <Node pos="l" depth="1" NCoef="0" IVar="2" Cut="3.4884759521484375e+02" cType="1" res="-1.5637665987014771e-02" rms="3.3371686935424805e-01" purity="1.8417187035083771e-01" nType="0">
          <Node pos="l" depth="2" NCoef="0" IVar="-1" Cut="0.0000000000000000e+00" cType="1" res="-2.4392191320657730e-02" rms="3.2050937414169312e-01" purity="1.7224887013435364e-01" nType="-99"/>
          <Node pos="r" depth="2" NCoef="0" IVar="-1" Cut="0.0000000000000000e+00" cType="1" res="5.0197923555970192e-03" rms="3.5150894522666931e-01" purity="2.0204016566276550e-01" nType="-99"/>
        </Node>
        <Node pos="r" depth="1" NCoef="0" IVar="9" Cut="1.9999911785125732e+00" cType="1" res="3.0893681105226278e-03" rms="3.9190191030502319e-01" purity="5.2263838052749634e-01" nType="0">
          <Node pos="l" depth="2" NCoef="0" IVar="6" Cut="1.7861223220825195e+00" cType="1" res="4.2775385081768036e-03" rms="3.9282256364822388e-01" purity="5.3206592798233032e-01" nType="0">
            <Node pos="l" depth="3" NCoef="0" IVar="-1" Cut="0.0000000000000000e+00" cType="1" res="3.2917647622525692e-03" rms="3.9599776268005371e-01" purity="5.4642134904861450e-01" nType="-99"/>
            <Node pos="r" depth="3" NCoef="0" IVar="-1" Cut="0.0000000000000000e+00" cType="1" res="-1.7561268061399460e-02" rms="2.9804629087448120e-01" purity="1.5992231667041779e-01" nType="-99"/>
          </Node>
          <Node pos="r" depth="2" NCoef="0" IVar="-1" Cut="0.0000000000000000e+00" cType="1" res="-1.1667409911751747e-02" rms="3.7455880641937256e-01" purity="3.5531118512153625e-01" nType="-99"/>
        </Node>
      </Node>
    </BinaryTree>
    <BinaryTree type="DecisionTree" boostWeight="1.0000000000000000e+00" itree="216">
      <Node pos="s" depth="0" NCoef="0" IVar="3" Cut="2.4120411682128906e+02" cType="1" res="4.2276484891772270e-03" rms="3.9167270064353943e-01" purity="5.0274401903152466e-01" nType="0">
        <Node pos="l" depth="1" NCoef="0" IVar="7" Cut="1.1999148130416870e+00" cType="1" res="8.0421548336744308e-03" rms="3.9862418174743652e-01" purity="4.2600667476654053e-01" nType="0">
          <Node pos="l" depth="2" NCoef="0" IVar="8" Cut="-9.3331390619277954e-01" cType="1" res="5.1184301264584064e-03" rms="4.0390142798423767e-01" purity="4.5076534152030945e-01" nType="0">
            <Node pos="l" depth="3" NCoef="0" IVar="-1" Cut="0.0000000000000000e+00" cType="1" res="1.2693955563008785e-02" rms="3.9061960577964783e-01" purity="3.7158405780792236e-01" nType="-99"/>
            <Node pos="r" depth="3" NCoef="0" IVar="-1" Cut="0.0000000000000000e+00" cType="1" res="4.9945455975830555e-04" rms="4.0781348943710327e-01" purity="4.7517955303192139e-01" nType="-99"/>
          </Node>
          <Node pos="r" depth="2" NCoef="0" IVar="0" Cut="4.1389471435546875e+02" cType="1" res="2.3871295154094696e-02" rms="3.6834120750427246e-01" purity="2.9196247458457947e-01" nType="0">
            <Node pos="l" depth="3" NCoef="0" IVar="-1" Cut="0.0000000000000000e+00" cType="1" res="5.3886715322732925e-03" rms="3.3655387163162231e-01" purity="1.7428141832351685e-01" nType="-99"/>
            <Node pos="r" depth="3" NCoef="0" IVar="-1" Cut="0.0000000000000000e+00" cType="1" res="3.0219946056604385e-02" rms="4.0856757760047913e-01" purity="4.6199524402618408e-01" nType="-99"/>
          </Node>
        </Node>
        <Node pos="r" depth="1" NCoef="0" IVar="6" Cut="-1.1414352655410767e+00" cType="1" res="-4.0940055623650551e-03" rms="3.7592744827270508e-01" purity="6.7015254497528076e-01" nType="0">
          <Node pos="l" depth="2" NCoef="0" IVar="-1" Cut="0.0000000000000000e+00" cType="1" res="-2.3570159450173378e-02" rms="3.8087186217308044e-01" purity="3.8210442662239075e-01" nType="-99"/>
          <Node pos="r" depth="2" NCoef="0" IVar="8" Cut="-6.6669589281082153e-01" cType="1" res="-1.0379406157881021e-03" rms="3.7532502412796021e-01" purity="6.9637447595596313e-01" nType="0">
            <Node pos="l" depth="3" NCoef="0" IVar="-1" Cut="0.0000000000000000e+00" cType="1" res="-1.2022940441966057e-02" rms="3.9938312768936157e-01" purity="6.2302935123443604e-01" nType="-99"/>
            <Node pos="r" depth="3" NCoef="0" IVar="-1" Cut="0.0000000000000000e+00" cType="1" res="3.2830387353897095e-03" rms="3.6711627244949341e-01" purity="7.1985155344009399e-01" nType="-99"/>
          </Node>
        </Node>
      </Node>
    </BinaryTree>
    <BinaryTree type="DecisionTree" boostWeight="1.0000000000000000e+00" itree="217">
      <Node pos="s" depth="0" NCoef="0" IVar="8" Cut="1.1999341249465942e+00" cType="1" res="-1.1074368376284838e-03" rms="3.9043918251991272e-01" purity="4.9868747591972351e-01" nType="0">
        <Node pos="l" depth="1" NCoef="0" IVar="9" Cut="9.3332934379577637e-01" cType="1" res="8.4531074389815331e-04" rms="3.9270192384719849e-01" purity="5.2609193325042725e-01" nType="0">
          <Node pos="l" depth="2" NCoef="0" IVar="3" Cut="1.4658134460449219e+02" cType="1" res="-2.5277156382799149e-03" rms="3.9183887839317322e-01" purity="5.3558158874511719e-01" nType="0">
            <Node pos="l" depth="3" NCoef="0" IVar="-1" Cut="0.0000000000000000e+00" cType="1" res="6.6759642213582993e-03" rms="3.8965418934822083e-01" purity="2.7248778939247131e-01" nType="-99"/>
            <Node pos="r" depth="3" NCoef="0" IVar="-1" Cut="0.0000000000000000e+00" cType="1" res="-4.1483608074486256e-03" rms="3.9242643117904663e-01" purity="6.1624562740325928e-01" nType="-99"/>
          </Node>
          <Node pos="r" depth="2" NCoef="0" IVar="7" Cut="9.3325400352478027e-01" cType="1" res="1.2521828524768353e-02" rms="3.9545285701751709e-01" purity="4.9324148893356323e-01" nType="0">
            <Node pos="l" depth="3" NCoef="0" IVar="-1" Cut="0.0000000000000000e+00" cType="1" res="1.2759069912135601e-02" rms="4.0053957700729370e-01" purity="5.4679304361343384e-01" nType="-99"/>
            <Node pos="r" depth="3" NCoef="0" IVar="-1" Cut="0.0000000000000000e+00" cType="1" res="-1.0329417884349823e-02" rms="3.7560200691223145e-01" purity="3.0348184704780579e-01" nType="-99"/>
          </Node>
        </Node>
        <Node pos="r" depth="1" NCoef="0" IVar="8" Cut="1.3523343801498413e+00" cType="1" res="-1.2239098548889160e-02" rms="3.7708839774131775e-01" purity="3.4246787428855896e-01" nType="0">
          <Node pos="l" depth="2" NCoef="0" IVar="-1" Cut="0.0000000000000000e+00" cType="1" res="-2.8951968997716904e-02" rms="3.7725153565406799e-01" purity="4.0618285536766052e-01" nType="-99"/>
          <Node pos="r" depth="2" NCoef="0" IVar="4" Cut="1.4082910156250000e+02" cType="1" res="-5.4178079590201378e-03" rms="3.7669688463211060e-01" purity="3.2916802167892456e-01" nType="0">
            <Node pos="l" depth="3" NCoef="0" IVar="-1" Cut="0.0000000000000000e+00" cType="1" res="2.8237334918230772e-03" rms="3.6204764246940613e-01" purity="2.6710441708564758e-01" nType="-99"/>
            <Node pos="r" depth="3" NCoef="0" IVar="-1" Cut="0.0000000000000000e+00" cType="1" res="-1.8189795315265656e-02" rms="4.1153547167778015e-01" purity="4.9141258001327515e-01" nType="-99"/>
          </Node>
        </Node>
      </Node>
    </BinaryTree>
    <BinaryTree type="DecisionTree" boostWeight="1.0000000000000000e+00" itree="218">
      <Node pos="s" depth="0" NCoef="0" IVar="9" Cut="-1.9999594688415527e+00" cType="1" res="-6.8486348027363420e-04" rms="3.8791126012802124e-01" purity="4.9901828169822693e-01" nType="0">
        <Node pos="l" depth="1" NCoef="0" IVar="9" Cut="-2.3428387641906738e+00" cType="1" res="2.8060751035809517e-02" rms="3.8715946674346924e-01" purity="3.8745090365409851e-01" nType="0">
          <Node pos="l" depth="2" NCoef="0" IVar="-1" Cut="0.0000000000000000e+00" cType="1" res="1.1286248452961445e-02" rms="3.7087941169738770e-01" purity="3.5053393244743347e-01" nType="-99"/>
          <Node pos="r" depth="2" NCoef="0" IVar="-1" Cut="0.0000000000000000e+00" cType="1" res="2.4613218382000923e-02" rms="4.0057119727134705e-01" purity="4.1978484392166138e-01" nType="-99"/>
        </Node>
        <Node pos="r" depth="1" NCoef="0" IVar="7" Cut="-1.7332695722579956e+00" cType="1" res="-2.3663488682359457e-03" rms="3.8788923621177673e-01" purity="5.0554448366165161e-01" nType="0">
          <Node pos="l" depth="2" NCoef="0" IVar="6" Cut="-1.0569208860397339e-01" cType="1" res="-2.0088905468583107e-02" rms="3.2769909501075745e-01" purity="2.1156127750873566e-01" nType="0">
            <Node pos="l" depth="3" NCoef="0" IVar="-1" Cut="0.0000000000000000e+00" cType="1" res="-1.9024975597858429e-02" rms="3.2123562693595886e-01" purity="2.1550180017948151e-01" nType="-99"/>
            <Node pos="r" depth="3" NCoef="0" IVar="-1" Cut="0.0000000000000000e+00" cType="1" res="-1.3320809230208397e-02" rms="3.3346769213676453e-01" purity="2.0795047283172607e-01" nType="-99"/>
          </Node>
          <Node pos="r" depth="2" NCoef="0" IVar="0" Cut="4.3640017700195312e+02" cType="1" res="-1.3201390393078327e-03" rms="3.9112791419029236e-01" purity="5.2289909124374390e-01" nType="0">
            <Node pos="l" depth="3" NCoef="0" IVar="-1" Cut="0.0000000000000000e+00" cType="1" res="1.6892921412363648e-03" rms="4.0338876843452454e-01" purity="3.7815174460411072e-01" nType="-99"/>
            <Node pos="r" depth="3" NCoef="0" IVar="-1" Cut="0.0000000000000000e+00" cType="1" res="-4.5881946571171284e-03" rms="3.7496125698089600e-01" purity="7.0621776580810547e-01" nType="-99"/>
          </Node>
        </Node>
      </Node>
    </BinaryTree>
    <BinaryTree type="DecisionTree" boostWeight="1.0000000000000000e+00" itree="219">
      <Node pos="s" depth="0" NCoef="0" IVar="7" Cut="1.4666236639022827e+00" cType="1" res="2.3014051839709282e-03" rms="3.8809156417846680e-01" purity="5.0367844104766846e-01" nType="0">
        <Node pos="l" depth="1" NCoef="0" IVar="9" Cut="-1.7331635951995850e+00" cType="1" res="4.2451207991689444e-04" rms="3.9127460122108459e-01" purity="5.2703499794006348e-01" nType="0">
          <Node pos="l" depth="2" NCoef="0" IVar="6" Cut="-3.8824471831321716e-01" cType="1" res="1.6710383817553520e-02" rms="3.8647729158401489e-01" purity="4.1100522875785828e-01" nType="0">
            <Node pos="l" depth="3" NCoef="0" IVar="-1" Cut="0.0000000000000000e+00" cType="1" res="-1.9786460325121880e-03" rms="3.6570611596107483e-01" purity="3.5464420914649963e-01" nType="-99"/>
            <Node pos="r" depth="3" NCoef="0" IVar="-1" Cut="0.0000000000000000e+00" cType="1" res="1.9069822505116463e-02" rms="3.9933389425277710e-01" purity="4.4900986552238464e-01" nType="-99"/>
          </Node>
          <Node pos="r" depth="2" NCoef="0" IVar="7" Cut="-1.1744287014007568e+00" cType="1" res="-1.1391951702535152e-03" rms="3.9169648289680481e-01" purity="5.3817570209503174e-01" nType="0">
            <Node pos="l" depth="3" NCoef="0" IVar="-1" Cut="0.0000000000000000e+00" cType="1" res="7.5360056944191456e-03" rms="3.7593516707420349e-01" purity="3.4775403141975403e-01" nType="-99"/>
            <Node pos="r" depth="3" NCoef="0" IVar="-1" Cut="0.0000000000000000e+00" cType="1" res="-2.0784649532288313e-03" rms="3.9438745379447937e-01" purity="5.7194232940673828e-01" nType="-99"/>
          </Node>
        </Node>
        <Node pos="r" depth="1" NCoef="0" IVar="1" Cut="1.0679001464843750e+03" cType="1" res="2.0792808383703232e-02" rms="3.5467970371246338e-01" purity="2.7356708049774170e-01" nType="0">
          <Node pos="l" depth="2" NCoef="0" IVar="-1" Cut="0.0000000000000000e+00" cType="1" res="-1.1667290702462196e-02" rms="2.7318397164344788e-01" purity="9.6882000565528870e-02" nType="-99"/>
          <Node pos="r" depth="2" NCoef="0" IVar="3" Cut="2.1006715393066406e+02" cType="1" res="3.9781983941793442e-02" rms="3.9537525177001953e-01" purity="3.8223636150360107e-01" nType="0">
            <Node pos="l" depth="3" NCoef="0" IVar="-1" Cut="0.0000000000000000e+00" cType="1" res="4.4586680829524994e-02" rms="4.0779912471771240e-01" purity="3.7803098559379578e-01" nType="-99"/>
            <Node pos="r" depth="3" NCoef="0" IVar="-1" Cut="0.0000000000000000e+00" cType="1" res="5.0887404941022396e-03" rms="3.7874051928520203e-01" purity="3.8684535026550293e-01" nType="-99"/>
          </Node>
        </Node>
      </Node>
    </BinaryTree>
    <BinaryTree type="DecisionTree" boostWeight="1.0000000000000000e+00" itree="220">
      <Node pos="s" depth="0" NCoef="0" IVar="1" Cut="1.1200286865234375e+03" cType="1" res="-1.5954381087794900e-03" rms="3.8457071781158447e-01" purity="5.0317841768264771e-01" nType="0">
        <Node pos="l" depth="1" NCoef="0" IVar="3" Cut="1.8254858398437500e+02" cType="1" res="-1.4019802212715149e-02" rms="3.7737354636192322e-01" purity="2.3927791416645050e-01" nType="0">
          <Node pos="l" depth="2" NCoef="0" IVar="3" Cut="1.5121952819824219e+02" cType="1" res="-2.0499231293797493e-02" rms="3.6257168650627136e-01" purity="2.0979791879653931e-01" nType="0">
            <Node pos="l" depth="3" NCoef="0" IVar="-1" Cut="0.0000000000000000e+00" cType="1" res="-8.8775865733623505e-03" rms="3.5144945979118347e-01" purity="1.8981774151325226e-01" nType="-99"/>
            <Node pos="r" depth="3" NCoef="0" IVar="-1" Cut="0.0000000000000000e+00" cType="1" res="-2.6562387123703957e-02" rms="3.9154490828514099e-01" purity="2.6684659719467163e-01" nType="-99"/>
          </Node>
          <Node pos="r" depth="2" NCoef="0" IVar="-1" Cut="0.0000000000000000e+00" cType="1" res="4.8756673932075500e-03" rms="4.2423120141029358e-01" purity="3.4214854240417480e-01" nType="-99"/>
        </Node>
        <Node pos="r" depth="1" NCoef="0" IVar="4" Cut="9.5699546813964844e+01" cType="1" res="4.7105499543249607e-03" rms="3.8802042603492737e-01" purity="6.3712108135223389e-01" nType="0">
          <Node pos="l" depth="2" NCoef="0" IVar="9" Cut="-3.9976578950881958e-01" cType="1" res="-1.1461825110018253e-02" rms="4.1329503059387207e-01" purity="3.5754811763763428e-01" nType="0">
            <Node pos="l" depth="3" NCoef="0" IVar="-1" Cut="0.0000000000000000e+00" cType="1" res="-1.9027160480618477e-02" rms="3.9682886004447937e-01" purity="3.2791200280189514e-01" nType="-99"/>
            <Node pos="r" depth="3" NCoef="0" IVar="-1" Cut="0.0000000000000000e+00" cType="1" res="4.8560186405666173e-04" rms="4.2227950692176819e-01" purity="3.7513306736946106e-01" nType="-99"/>
          </Node>
          <Node pos="r" depth="2" NCoef="0" IVar="4" Cut="1.3916374206542969e+02" cType="1" res="7.3816808871924877e-03" rms="3.8362014293670654e-01" purity="6.8329715728759766e-01" nType="0">
            <Node pos="l" depth="3" NCoef="0" IVar="-1" Cut="0.0000000000000000e+00" cType="1" res="1.1446595191955566e-02" rms="4.1414868831634521e-01" purity="5.8074223995208740e-01" nType="-99"/>
            <Node pos="r" depth="3" NCoef="0" IVar="-1" Cut="0.0000000000000000e+00" cType="1" res="8.0716446973383427e-04" rms="3.6775016784667969e-01" purity="7.3300206661224365e-01" nType="-99"/>
          </Node>
        </Node>
      </Node>
    </BinaryTree>
    <BinaryTree type="DecisionTree" boostWeight="1.0000000000000000e+00" itree="221">
      <Node pos="s" depth="0" NCoef="0" IVar="2" Cut="4.9193713378906250e+02" cType="1" res="1.0727456538006663e-03" rms="3.8834938406944275e-01" purity="5.0373888015747070e-01" nType="0">
        <Node pos="l" depth="1" NCoef="0" IVar="6" Cut="-1.1821110248565674e+00" cType="1" res="-2.2966526448726654e-03" rms="3.8806915283203125e-01" purity="4.8668178915977478e-01" nType="0">
          <Node pos="l" depth="2" NCoef="0" IVar="4" Cut="1.2772648620605469e+02" cType="1" res="-2.2730233147740364e-02" rms="3.4635552763938904e-01" purity="2.2817355394363403e-01" nType="0">
            <Node pos="l" depth="3" NCoef="0" IVar="-1" Cut="0.0000000000000000e+00" cType="1" res="-1.1778675019741058e-02" rms="3.1245464086532593e-01" purity="1.4830152690410614e-01" nType="-99"/>
            <Node pos="r" depth="3" NCoef="0" IVar="-1" Cut="0.0000000000000000e+00" cType="1" res="-2.4203855544328690e-02" rms="4.0044298768043518e-01" purity="3.7444797158241272e-01" nType="-99"/>
          </Node>
          <Node pos="r" depth="2" NCoef="0" IVar="1" Cut="1.1882868652343750e+03" cType="1" res="3.0543736647814512e-04" rms="3.9298725128173828e-01" purity="5.1960122585296631e-01" nType="0">
            <Node pos="l" depth="3" NCoef="0" IVar="-1" Cut="0.0000000000000000e+00" cType="1" res="-4.2832470498979092e-03" rms="4.0542426705360413e-01" purity="3.0525577068328857e-01" nType="-99"/>
            <Node pos="r" depth="3" NCoef="0" IVar="-1" Cut="0.0000000000000000e+00" cType="1" res="5.1910048350691795e-03" rms="3.8030990958213806e-01" purity="7.2895795106887817e-01" nType="-99"/>
          </Node>
        </Node>
        <Node pos="r" depth="1" NCoef="0" IVar="8" Cut="-9.3340748548507690e-01" cType="1" res="1.5850329771637917e-02" rms="3.8923174142837524e-01" purity="5.7854849100112915e-01" nType="0">
          <Node pos="l" depth="2" NCoef="0" IVar="-1" Cut="0.0000000000000000e+00" cType="1" res="-6.7459074780344963e-03" rms="4.0554973483085632e-01" purity="4.5316436886787415e-01" nType="-99"/>
          <Node pos="r" depth="2" NCoef="0" IVar="6" Cut="7.2055292129516602e-01" cType="1" res="2.1790428087115288e-02" rms="3.8519877195358276e-01" purity="6.0689359903335571e-01" nType="0">
            <Node pos="l" depth="3" NCoef="0" IVar="-1" Cut="0.0000000000000000e+00" cType="1" res="1.7465675249695778e-02" rms="3.8742813467979431e-01" purity="6.4323586225509644e-01" nType="-99"/>
            <Node pos="r" depth="3" NCoef="0" IVar="-1" Cut="0.0000000000000000e+00" cType="1" res="-2.4096583947539330e-03" rms="3.7352332472801208e-01" purity="4.3652993440628052e-01" nType="-99"/>
          </Node>
        </Node>
      </Node>
    </BinaryTree>
    <BinaryTree type="DecisionTree" boostWeight="1.0000000000000000e+00" itree="222">
      <Node pos="s" depth="0" NCoef="0" IVar="6" Cut="6.7089605331420898e-01" cType="1" res="-1.6794579569250345e-03" rms="3.8970631361007690e-01" purity="4.9764147400856018e-01" nType="0">
        <Node pos="l" depth="1" NCoef="0" IVar="8" Cut="-1.4666076898574829e+00" cType="1" res="-4.6723177656531334e-03" rms="3.9218953251838684e-01" purity="5.3452843427658081e-01" nType="0">
          <Node pos="l" depth="2" NCoef="0" IVar="9" Cut="4.0008810162544250e-01" cType="1" res="1.5744201838970184e-02" rms="3.9322841167449951e-01" purity="3.6474123597145081e-01" nType="0">
            <Node pos="l" depth="3" NCoef="0" IVar="-1" Cut="0.0000000000000000e+00" cType="1" res="2.2510972339659929e-03" rms="3.8538280129432678e-01" purity="3.3868324756622314e-01" nType="-99"/>
            <Node pos="r" depth="3" NCoef="0" IVar="-1" Cut="0.0000000000000000e+00" cType="1" res="2.6641868054866791e-02" rms="4.0805473923683167e-01" purity="4.1982021927833557e-01" nType="-99"/>
          </Node>
          <Node pos="r" depth="2" NCoef="0" IVar="9" Cut="1.9999692440032959e+00" cType="1" res="-7.1401796303689480e-03" rms="3.9199173450469971e-01" purity="5.5505156517028809e-01" nType="0">
            <Node pos="l" depth="3" NCoef="0" IVar="-1" Cut="0.0000000000000000e+00" cType="1" res="-5.5866483598947525e-03" rms="3.9095371961593628e-01" purity="5.6141537427902222e-01" nType="-99"/>
            <Node pos="r" depth="3" NCoef="0" IVar="-1" Cut="0.0000000000000000e+00" cType="1" res="1.3579755090177059e-02" rms="4.1003730893135071e-01" purity="4.3500718474388123e-01" nType="-99"/>
          </Node>
        </Node>
        <Node pos="r" depth="1" NCoef="0" IVar="6" Cut="8.7365156412124634e-01" cType="1" res="7.8393928706645966e-03" rms="3.8154488801956177e-01" purity="3.8032183051109314e-01" nType="0">
          <Node pos="l" depth="2" NCoef="0" IVar="6" Cut="7.5778526067733765e-01" cType="1" res="3.1864229589700699e-02" rms="4.1151276230812073e-01" purity="5.4247403144836426e-01" nType="0">
            <Node pos="l" depth="3" NCoef="0" IVar="-1" Cut="0.0000000000000000e+00" cType="1" res="3.1982217915356159e-03" rms="3.9479550719261169e-01" purity="5.3820687532424927e-01" nType="-99"/>
            <Node pos="r" depth="3" NCoef="0" IVar="-1" Cut="0.0000000000000000e+00" cType="1" res="3.1981274485588074e-02" rms="4.2338296771049500e-01" purity="5.4594063758850098e-01" nType="-99"/>
          </Node>
          <Node pos="r" depth="2" NCoef="0" IVar="9" Cut="6.6640740633010864e-01" cType="1" res="-1.8226650718133897e-04" rms="3.7065359950065613e-01" purity="3.2618078589439392e-01" nType="0">
            <Node pos="l" depth="3" NCoef="0" IVar="-1" Cut="0.0000000000000000e+00" cType="1" res="8.2916831597685814e-03" rms="3.8321474194526672e-01" purity="3.6025464534759521e-01" nType="-99"/>
            <Node pos="r" depth="3" NCoef="0" IVar="-1" Cut="0.0000000000000000e+00" cType="1" res="-1.5978364273905754e-02" rms="3.4717065095901489e-01" purity="2.6789012551307678e-01" nType="-99"/>
          </Node>
        </Node>
      </Node>
    </BinaryTree>
    <BinaryTree type="DecisionTree" boostWeight="1.0000000000000000e+00" itree="223">
      <Node pos="s" depth="0" NCoef="0" IVar="8" Cut="-6.6666549444198608e-01" cType="1" res="1.2754365343425889e-05" rms="3.8838383555412292e-01" purity="4.9926194548606873e-01" nType="0">
        <Node pos="l" depth="1" NCoef="0" IVar="0" Cut="5.5563238525390625e+02" cType="1" res="-8.6900917813181877e-03" rms="3.8354185223579407e-01" purity="4.2627549171447754e-01" nType="0">
          <Node pos="l" depth="2" NCoef="0" IVar="4" Cut="1.0203961944580078e+02" cType="1" res="-5.4301633499562740e-03" rms="3.8544252514839172e-01" purity="3.6345401406288147e-01" nType="0">
            <Node pos="l" depth="3" NCoef="0" IVar="-1" Cut="0.0000000000000000e+00" cType="1" res="4.1824267245829105e-03" rms="3.5830259323120117e-01" purity="1.9574502110481262e-01" nType="-99"/>
            <Node pos="r" depth="3" NCoef="0" IVar="-1" Cut="0.0000000000000000e+00" cType="1" res="-7.5374133884906769e-03" rms="4.0289831161499023e-01" purity="4.7889065742492676e-01" nType="-99"/>
          </Node>
          <Node pos="r" depth="2" NCoef="0" IVar="-1" Cut="0.0000000000000000e+00" cType="1" res="-1.7693718895316124e-02" rms="3.7388804554939270e-01" purity="7.2784388065338135e-01" nType="-99"/>
        </Node>
        <Node pos="r" depth="1" NCoef="0" IVar="6" Cut="1.4690916538238525e+00" cType="1" res="3.4403875470161438e-03" rms="3.9022108912467957e-01" purity="5.2800780534744263e-01" nType="0">
          <Node pos="l" depth="2" NCoef="0" IVar="6" Cut="-3.5564699769020081e-01" cType="1" res="1.5854750527068973e-03" rms="3.9326983690261841e-01" purity="5.5044376850128174e-01" nType="0">
            <Node pos="l" depth="3" NCoef="0" IVar="-1" Cut="0.0000000000000000e+00" cType="1" res="6.2536392360925674e-03" rms="3.9207130670547485e-01" purity="4.9480521678924561e-01" nType="-99"/>
            <Node pos="r" depth="3" NCoef="0" IVar="-1" Cut="0.0000000000000000e+00" cType="1" res="-1.8799366662278771e-03" rms="3.9386212825775146e-01" purity="5.8141273260116577e-01" nType="-99"/>
          </Node>
          <Node pos="r" depth="2" NCoef="0" IVar="8" Cut="6.5384173393249512e-01" cType="1" res="2.7277551591396332e-02" rms="3.4779855608940125e-01" purity="2.3968683183193207e-01" nType="0">
            <Node pos="l" depth="3" NCoef="0" IVar="-1" Cut="0.0000000000000000e+00" cType="1" res="3.4748934209346771e-02" rms="3.8327172398567200e-01" purity="3.3400824666023254e-01" nType="-99"/>
            <Node pos="r" depth="3" NCoef="0" IVar="-1" Cut="0.0000000000000000e+00" cType="1" res="5.8558727614581585e-03" rms="3.0757489800453186e-01" purity="1.4734292030334473e-01" nType="-99"/>
          </Node>
        </Node>
      </Node>
    </BinaryTree>
    <BinaryTree type="DecisionTree" boostWeight="1.0000000000000000e+00" itree="224">
      <Node pos="s" depth="0" NCoef="0" IVar="1" Cut="1.1200330810546875e+03" cType="1" res="2.0371592836454511e-04" rms="3.8538289070129395e-01" purity="5.0342983007431030e-01" nType="0">
        <Node pos="l" depth="1" NCoef="0" IVar="0" Cut="3.4947650146484375e+02" cType="1" res="-8.1722456961870193e-03" rms="3.7948322296142578e-01" purity="2.3600769042968750e-01" nType="0">
          <Node pos="l" depth="2" NCoef="0" IVar="2" Cut="2.7358972167968750e+02" cType="1" res="7.8518986701965332e-03" rms="3.6395561695098877e-01" purity="2.0982967317104340e-01" nType="0">
            <Node pos="l" depth="3" NCoef="0" IVar="-1" Cut="0.0000000000000000e+00" cType="1" res="1.8217971548438072e-02" rms="3.9941614866256714e-01" purity="2.7037754654884338e-01" nType="-99"/>
            <Node pos="r" depth="3" NCoef="0" IVar="-1" Cut="0.0000000000000000e+00" cType="1" res="-1.0140554979443550e-02" rms="3.2369792461395264e-01" purity="1.4959888160228729e-01" nType="-99"/>
          </Node>
          <Node pos="r" depth="2" NCoef="0" IVar="7" Cut="1.3305693864822388e-01" cType="1" res="-2.2853363305330276e-02" rms="3.9259776473045349e-01" purity="2.5999170541763306e-01" nType="0">
            <Node pos="l" depth="3" NCoef="0" IVar="-1" Cut="0.0000000000000000e+00" cType="1" res="-2.2557590156793594e-02" rms="3.8830107450485229e-01" purity="2.5553297996520996e-01" nType="-99"/>
            <Node pos="r" depth="3" NCoef="0" IVar="-1" Cut="0.0000000000000000e+00" cType="1" res="-3.9136288687586784e-03" rms="3.9688149094581604e-01" purity="2.6517140865325928e-01" nType="-99"/>
          </Node>
        </Node>
        <Node pos="r" depth="1" NCoef="0" IVar="7" Cut="-6.6664850711822510e-01" cType="1" res="4.3943291530013084e-03" rms="3.8823315501213074e-01" purity="6.3722497224807739e-01" nType="0">
          <Node pos="l" depth="2" NCoef="0" IVar="9" Cut="9.3310767412185669e-01" cType="1" res="-5.8756852522492409e-03" rms="3.9410984516143799e-01" purity="5.4756140708923340e-01" nType="0">
            <Node pos="l" depth="3" NCoef="0" IVar="-1" Cut="0.0000000000000000e+00" cType="1" res="6.1622448265552521e-04" rms="3.9405301213264465e-01" purity="5.6487852334976196e-01" nType="-99"/>
            <Node pos="r" depth="3" NCoef="0" IVar="-1" Cut="0.0000000000000000e+00" cType="1" res="-2.1565504372119904e-02" rms="3.9300683140754700e-01" purity="4.7379571199417114e-01" nType="-99"/>
          </Node>
          <Node pos="r" depth="2" NCoef="0" IVar="5" Cut="1.1358440399169922e+02" cType="1" res="7.7166147530078888e-03" rms="3.8625448942184448e-01" purity="6.6623055934906006e-01" nType="0">
            <Node pos="l" depth="3" NCoef="0" IVar="-1" Cut="0.0000000000000000e+00" cType="1" res="7.8837582841515541e-03" rms="4.1096243262290955e-01" purity="5.8629757165908813e-01" nType="-99"/>
            <Node pos="r" depth="3" NCoef="0" IVar="-1" Cut="0.0000000000000000e+00" cType="1" res="-2.1718537900596857e-03" rms="3.3772066235542297e-01" purity="8.0815118551254272e-01" nType="-99"/>
          </Node>
        </Node>
      </Node>
    </BinaryTree>
    <BinaryTree type="DecisionTree" boostWeight="1.0000000000000000e+00" itree="225">
      <Node pos="s" depth="0" NCoef="0" IVar="8" Cut="-4.0004497766494751e-01" cType="1" res="1.3230190379545093e-03" rms="3.8788521289825439e-01" purity="5.0113034248352051e-01" nType="0">
        <Node pos="l" depth="1" NCoef="0" IVar="3" Cut="2.4087036132812500e+02" cType="1" res="7.0651862770318985e-03" rms="3.8844510912895203e-01" purity="4.7726282477378845e-01" nType="0">
          <Node pos="l" depth="2" NCoef="0" IVar="5" Cut="1.1125820159912109e+02" cType="1" res="9.5436011906713247e-04" rms="3.8953608274459839e-01" purity="3.9299082756042480e-01" nType="0">
            <Node pos="l" depth="3" NCoef="0" IVar="-1" Cut="0.0000000000000000e+00" cType="1" res="-2.3029823787510395e-03" rms="3.9237770438194275e-01" purity="3.2159402966499329e-01" nType="-99"/>
            <Node pos="r" depth="3" NCoef="0" IVar="-1" Cut="0.0000000000000000e+00" cType="1" res="1.4446127228438854e-02" rms="3.7539717555046082e-01" purity="7.2366589307785034e-01" nType="-99"/>
          </Node>
          <Node pos="r" depth="2" NCoef="0" IVar="4" Cut="1.8704862976074219e+02" cType="1" res="2.0551417022943497e-02" rms="3.8568404316902161e-01" purity="6.6324627399444580e-01" nType="0">
            <Node pos="l" depth="3" NCoef="0" IVar="-1" Cut="0.0000000000000000e+00" cType="1" res="2.4175971746444702e-02" rms="4.0273517370223999e-01" purity="5.9921479225158691e-01" nType="-99"/>
            <Node pos="r" depth="3" NCoef="0" IVar="-1" Cut="0.0000000000000000e+00" cType="1" res="-3.8226796314120293e-03" rms="3.6026698350906372e-01" purity="7.4812388420104980e-01" nType="-99"/>
          </Node>
        </Node>
        <Node pos="r" depth="1" NCoef="0" IVar="8" Cut="2.1903827190399170e+00" cType="1" res="-2.0258862059563398e-03" rms="3.8751900196075439e-01" purity="5.1505017280578613e-01" nType="0">
          <Node pos="l" depth="2" NCoef="0" IVar="8" Cut="1.3269033432006836e+00" cType="1" res="-6.7145755747333169e-04" rms="3.8945189118385315e-01" purity="5.2911674976348877e-01" nType="0">
            <Node pos="l" depth="3" NCoef="0" IVar="-1" Cut="0.0000000000000000e+00" cType="1" res="-2.6742597110569477e-03" rms="3.8879579305648804e-01" purity="5.5699324607849121e-01" nType="-99"/>
            <Node pos="r" depth="3" NCoef="0" IVar="-1" Cut="0.0000000000000000e+00" cType="1" res="1.0491731576621532e-02" rms="3.9222592115402222e-01" purity="3.9210793375968933e-01" nType="-99"/>
          </Node>
          <Node pos="r" depth="2" NCoef="0" IVar="-1" Cut="0.0000000000000000e+00" cType="1" res="-2.5305008515715599e-02" rms="3.3975514769554138e-01" purity="1.9875378906726837e-01" nType="-99"/>
        </Node>
      </Node>
    </BinaryTree>
    <BinaryTree type="DecisionTree" boostWeight="1.0000000000000000e+00" itree="226">
      <Node pos="s" depth="0" NCoef="0" IVar="3" Cut="4.3143447875976562e+02" cType="1" res="-1.1746010568458587e-04" rms="3.9082884788513184e-01" purity="4.9745592474937439e-01" nType="0">
        <Node pos="l" depth="1" NCoef="0" IVar="1" Cut="1.0998944091796875e+03" cType="1" res="9.1786362463608384e-04" rms="3.9058676362037659e-01" purity="4.9386370182037354e-01" nType="0">
          <Node pos="l" depth="2" NCoef="0" IVar="1" Cut="1.0427677001953125e+03" cType="1" res="9.5298280939459801e-03" rms="3.8634896278381348e-01" purity="2.4293100833892822e-01" nType="0">
            <Node pos="l" depth="3" NCoef="0" IVar="-1" Cut="0.0000000000000000e+00" cType="1" res="9.5569645054638386e-04" rms="3.7092307209968567e-01" purity="2.0230115950107574e-01" nType="-99"/>
            <Node pos="r" depth="3" NCoef="0" IVar="-1" Cut="0.0000000000000000e+00" cType="1" res="2.0080480724573135e-02" rms="4.3046924471855164e-01" purity="3.7137994170188904e-01" nType="-99"/>
          </Node>
          <Node pos="r" depth="2" NCoef="0" IVar="7" Cut="-9.3326526880264282e-01" cType="1" res="-3.2677811104804277e-03" rms="3.9256173372268677e-01" purity="6.1582368612289429e-01" nType="0">
            <Node pos="l" depth="3" NCoef="0" IVar="-1" Cut="0.0000000000000000e+00" cType="1" res="6.5141040831804276e-03" rms="4.0351635217666626e-01" purity="5.0086122751235962e-01" nType="-99"/>
            <Node pos="r" depth="3" NCoef="0" IVar="-1" Cut="0.0000000000000000e+00" cType="1" res="-4.1747265495359898e-03" rms="3.8999220728874207e-01" purity="6.4162606000900269e-01" nType="-99"/>
          </Node>
        </Node>
        <Node pos="r" depth="1" NCoef="0" IVar="-1" Cut="0.0000000000000000e+00" cType="1" res="-2.3743307217955589e-02" rms="3.9764729142189026e-01" purity="6.2658077478408813e-01" nType="-99"/>
      </Node>
    </BinaryTree>
    <BinaryTree type="DecisionTree" boostWeight="1.0000000000000000e+00" itree="227">
      <Node pos="s" depth="0" NCoef="0" IVar="8" Cut="9.3331617116928101e-01" cType="1" res="-1.6338771674782038e-03" rms="3.8647097349166870e-01" purity="5.0051867961883545e-01" nType="0">
        <Node pos="l" depth="1" NCoef="0" IVar="6" Cut="1.4688652753829956e+00" cType="1" res="1.1058527743443847e-03" rms="3.8740220665931702e-01" purity="5.3033727407455444e-01" nType="0">
          <Node pos="l" depth="2" NCoef="0" IVar="6" Cut="-5.5854976177215576e-01" cType="1" res="-1.4688209921587259e-04" rms="3.8871234655380249e-01" purity="5.4813557863235474e-01" nType="0">
            <Node pos="l" depth="3" NCoef="0" IVar="-1" Cut="0.0000000000000000e+00" cType="1" res="-5.1881517283618450e-03" rms="3.8287734985351562e-01" purity="4.2394918203353882e-01" nType="-99"/>
            <Node pos="r" depth="3" NCoef="0" IVar="-1" Cut="0.0000000000000000e+00" cType="1" res="2.0357905887067318e-03" rms="3.9112913608551025e-01" purity="6.0114055871963501e-01" nType="-99"/>
          </Node>
          <Node pos="r" depth="2" NCoef="0" IVar="-1" Cut="0.0000000000000000e+00" cType="1" res="1.6029326245188713e-02" rms="3.6616033315658569e-01" purity="2.5704991817474365e-01" nType="-99"/>
        </Node>
        <Node pos="r" depth="1" NCoef="0" IVar="8" Cut="1.7333223819732666e+00" cType="1" res="-1.2156764045357704e-02" rms="3.8269087672233582e-01" purity="3.8598978519439697e-01" nType="0">
          <Node pos="l" depth="2" NCoef="0" IVar="2" Cut="4.4953979492187500e+02" cType="1" res="-2.2541800513863564e-02" rms="3.8702851533889771e-01" purity="4.3300530314445496e-01" nType="0">
            <Node pos="l" depth="3" NCoef="0" IVar="-1" Cut="0.0000000000000000e+00" cType="1" res="-7.9601239413022995e-03" rms="3.8778898119926453e-01" purity="4.3774047493934631e-01" nType="-99"/>
            <Node pos="r" depth="3" NCoef="0" IVar="-1" Cut="0.0000000000000000e+00" cType="1" res="-3.9576120674610138e-02" rms="3.8167232275009155e-01" purity="4.1514942049980164e-01" nType="-99"/>
          </Node>
          <Node pos="r" depth="2" NCoef="0" IVar="8" Cut="2.1396737098693848e+00" cType="1" res="8.0538867041468620e-03" rms="3.7327775359153748e-01" purity="2.9449141025543213e-01" nType="0">
            <Node pos="l" depth="3" NCoef="0" IVar="-1" Cut="0.0000000000000000e+00" cType="1" res="-9.4836176140233874e-04" rms="3.8301119208335876e-01" purity="3.2372158765792847e-01" nType="-99"/>
            <Node pos="r" depth="3" NCoef="0" IVar="-1" Cut="0.0000000000000000e+00" cType="1" res="1.4481037855148315e-02" rms="3.6193940043449402e-01" purity="2.6220962405204773e-01" nType="-99"/>
          </Node>
        </Node>
      </Node>
    </BinaryTree>
    <BinaryTree type="DecisionTree" boostWeight="1.0000000000000000e+00" itree="228">
      <Node pos="s" depth="0" NCoef="0" IVar="6" Cut="-6.5112400054931641e-01" cType="1" res="4.4467188417911530e-03" rms="3.9126911759376526e-01" purity="5.0224751234054565e-01" nType="0">
        <Node pos="l" depth="1" NCoef="0" IVar="3" Cut="2.0888430786132812e+02" cType="1" res="1.4043780043721199e-02" rms="3.9490857720375061e-01" purity="3.9680793881416321e-01" nType="0">
          <Node pos="l" depth="2" NCoef="0" IVar="4" Cut="9.5393974304199219e+01" cType="1" res="2.3467896506190300e-02" rms="3.8954859972000122e-01" purity="3.0695378780364990e-01" nType="0">
            <Node pos="l" depth="3" NCoef="0" IVar="-1" Cut="0.0000000000000000e+00" cType="1" res="1.5319292433559895e-03" rms="3.2701197266578674e-01" purity="1.4798365533351898e-01" nType="-99"/>
            <Node pos="r" depth="3" NCoef="0" IVar="-1" Cut="0.0000000000000000e+00" cType="1" res="2.3266514763236046e-02" rms="4.2876479029655457e-01" purity="4.2293459177017212e-01" nType="-99"/>
          </Node>
          <Node pos="r" depth="2" NCoef="0" IVar="5" Cut="7.7676177978515625e+01" cType="1" res="-2.1732827008236200e-04" rms="4.0246456861495972e-01" purity="5.3278017044067383e-01" nType="0">
            <Node pos="l" depth="3" NCoef="0" IVar="-1" Cut="0.0000000000000000e+00" cType="1" res="1.4361394569277763e-02" rms="4.2508864402770996e-01" purity="3.7666487693786621e-01" nType="-99"/>
            <Node pos="r" depth="3" NCoef="0" IVar="-1" Cut="0.0000000000000000e+00" cType="1" res="-8.3460994064807892e-03" rms="3.8917702436447144e-01" purity="6.1646562814712524e-01" nType="-99"/>
          </Node>
        </Node>
        <Node pos="r" depth="1" NCoef="0" IVar="2" Cut="4.9193753051757812e+02" cType="1" res="1.2780454708263278e-03" rms="3.9000815153121948e-01" purity="5.3706055879592896e-01" nType="0">
          <Node pos="l" depth="2" NCoef="0" IVar="4" Cut="1.0875440979003906e+02" cType="1" res="-1.4739672187715769e-03" rms="3.8838300108909607e-01" purity="5.2320194244384766e-01" nType="0">
            <Node pos="l" depth="3" NCoef="0" IVar="-1" Cut="0.0000000000000000e+00" cType="1" res="-6.4651700668036938e-03" rms="3.9069843292236328e-01" purity="2.8070271015167236e-01" nType="-99"/>
            <Node pos="r" depth="3" NCoef="0" IVar="-1" Cut="0.0000000000000000e+00" cType="1" res="2.4018129333853722e-03" rms="3.8687789440155029e-01" purity="6.7069357633590698e-01" nType="-99"/>
          </Node>
          <Node pos="r" depth="2" NCoef="0" IVar="5" Cut="8.0216316223144531e+01" cType="1" res="1.3095745816826820e-02" rms="3.9669430255889893e-01" purity="5.9657245874404907e-01" nType="0">
            <Node pos="l" depth="3" NCoef="0" IVar="-1" Cut="0.0000000000000000e+00" cType="1" res="2.0115260034799576e-02" rms="4.1562831401824951e-01" purity="4.5542082190513611e-01" nType="-99"/>
            <Node pos="r" depth="3" NCoef="0" IVar="-1" Cut="0.0000000000000000e+00" cType="1" res="-2.8971286956220865e-03" rms="3.7956380844116211e-01" purity="7.1252399682998657e-01" nType="-99"/>
          </Node>
        </Node>
      </Node>
    </BinaryTree>
    <BinaryTree type="DecisionTree" boostWeight="1.0000000000000000e+00" itree="229">
      <Node pos="s" depth="0" NCoef="0" IVar="4" Cut="9.6874839782714844e+01" cType="1" res="-4.8024181160144508e-04" rms="3.8650032877922058e-01" purity="5.0019526481628418e-01" nType="0">
        <Node pos="l" depth="1" NCoef="0" IVar="1" Cut="1.3997968750000000e+03" cType="1" res="-9.2705776914954185e-03" rms="3.6490246653556824e-01" purity="2.3039872944355011e-01" nType="0">
          <Node pos="l" depth="2" NCoef="0" IVar="1" Cut="9.4281066894531250e+02" cType="1" res="-5.0730621442198753e-03" rms="3.5897424817085266e-01" purity="2.0775213837623596e-01" nType="0">
            <Node pos="l" depth="3" NCoef="0" IVar="-1" Cut="0.0000000000000000e+00" cType="1" res="-2.0252319052815437e-02" rms="2.9577684402465820e-01" purity="1.0614527761936188e-01" nType="-99"/>
            <Node pos="r" depth="3" NCoef="0" IVar="-1" Cut="0.0000000000000000e+00" cType="1" res="2.0161871798336506e-03" rms="3.8799041509628296e-01" purity="2.6144725084304810e-01" nType="-99"/>
          </Node>
          <Node pos="r" depth="2" NCoef="0" IVar="-1" Cut="0.0000000000000000e+00" cType="1" res="-2.5099605321884155e-02" rms="4.1214752197265625e-01" purity="4.3236294388771057e-01" nType="-99"/>
        </Node>
        <Node pos="r" depth="1" NCoef="0" IVar="6" Cut="-1.1919130086898804e+00" cType="1" res="3.1056182924658060e-03" rms="3.9491561055183411e-01" purity="6.1025393009185791e-01" nType="0">
          <Node pos="l" depth="2" NCoef="0" IVar="5" Cut="8.7931625366210938e+01" cType="1" res="2.6187136769294739e-02" rms="4.0424078702926636e-01" purity="3.6273339390754700e-01" nType="0">
            <Node pos="l" depth="3" NCoef="0" IVar="-1" Cut="0.0000000000000000e+00" cType="1" res="6.9708889350295067e-03" rms="3.8534864783287048e-01" purity="2.5817745923995972e-01" nType="-99"/>
            <Node pos="r" depth="3" NCoef="0" IVar="-1" Cut="0.0000000000000000e+00" cType="1" res="2.3125268518924713e-02" rms="4.1961470246315002e-01" purity="4.5450273156166077e-01" nType="-99"/>
          </Node>
          <Node pos="r" depth="2" NCoef="0" IVar="7" Cut="-4.0003255009651184e-01" cType="1" res="6.0899730306118727e-04" rms="3.9381262660026550e-01" purity="6.3702702522277832e-01" nType="0">
            <Node pos="l" depth="3" NCoef="0" IVar="-1" Cut="0.0000000000000000e+00" cType="1" res="-6.8826973438262939e-03" rms="3.9843237400054932e-01" purity="5.9028244018554688e-01" nType="-99"/>
            <Node pos="r" depth="3" NCoef="0" IVar="-1" Cut="0.0000000000000000e+00" cType="1" res="4.1559226810932159e-03" rms="3.9134922623634338e-01" purity="6.6040712594985962e-01" nType="-99"/>
          </Node>
        </Node>
      </Node>
    </BinaryTree>
    <BinaryTree type="DecisionTree" boostWeight="1.0000000000000000e+00" itree="230">
      <Node pos="s" depth="0" NCoef="0" IVar="7" Cut="9.3331384658813477e-01" cType="1" res="-1.3783007161691785e-03" rms="3.8839009404182434e-01" purity="4.9729797244071960e-01" nType="0">
        <Node pos="l" depth="1" NCoef="0" IVar="7" Cut="-6.6668850183486938e-01" cType="1" res="7.5103982817381620e-04" rms="3.9146396517753601e-01" purity="5.3349494934082031e-01" nType="0">
          <Node pos="l" depth="2" NCoef="0" IVar="1" Cut="1.5277580566406250e+03" cType="1" res="-8.3615360781550407e-03" rms="3.8016456365585327e-01" purity="4.0341749787330627e-01" nType="0">
            <Node pos="l" depth="3" NCoef="0" IVar="-1" Cut="0.0000000000000000e+00" cType="1" res="-8.5410624742507935e-03" rms="3.8423681259155273e-01" purity="3.1400221586227417e-01" nType="-99"/>
            <Node pos="r" depth="3" NCoef="0" IVar="-1" Cut="0.0000000000000000e+00" cType="1" res="4.9172653816640377e-03" rms="3.6520794034004211e-01" purity="7.1482610702514648e-01" nType="-99"/>
          </Node>
          <Node pos="r" depth="2" NCoef="0" IVar="6" Cut="6.7089605331420898e-01" cType="1" res="5.2310288883745670e-03" rms="3.9682441949844360e-01" purity="5.9744453430175781e-01" nType="0">
            <Node pos="l" depth="3" NCoef="0" IVar="-1" Cut="0.0000000000000000e+00" cType="1" res="1.1956541566178203e-03" rms="3.9556145668029785e-01" purity="6.3173907995223999e-01" nType="-99"/>
            <Node pos="r" depth="3" NCoef="0" IVar="-1" Cut="0.0000000000000000e+00" cType="1" res="1.0300859808921814e-02" rms="4.0079987049102783e-01" purity="4.8314860463142395e-01" nType="-99"/>
          </Node>
        </Node>
        <Node pos="r" depth="1" NCoef="0" IVar="7" Cut="1.4666624069213867e+00" cType="1" res="-1.0587871074676514e-02" rms="3.7466576695442200e-01" purity="3.4074297547340393e-01" nType="0">
          <Node pos="l" depth="2" NCoef="0" IVar="5" Cut="1.0444394683837891e+02" cType="1" res="-2.0492063835263252e-02" rms="3.9236932992935181e-01" purity="4.2570725083351135e-01" nType="0">
            <Node pos="l" depth="3" NCoef="0" IVar="-1" Cut="0.0000000000000000e+00" cType="1" res="-2.1216006949543953e-02" rms="3.9228254556655884e-01" purity="3.0211797356605530e-01" nType="-99"/>
            <Node pos="r" depth="3" NCoef="0" IVar="-1" Cut="0.0000000000000000e+00" cType="1" res="8.6860759183764458e-03" rms="3.9053711295127869e-01" purity="7.2829270362854004e-01" nType="-99"/>
          </Node>
          <Node pos="r" depth="2" NCoef="0" IVar="8" Cut="6.6634017229080200e-01" cType="1" res="6.9967511808499694e-04" rms="3.5307124257087708e-01" purity="2.4391144514083862e-01" nType="0">
            <Node pos="l" depth="3" NCoef="0" IVar="-1" Cut="0.0000000000000000e+00" cType="1" res="-8.5184313356876373e-03" rms="3.5626515746116638e-01" purity="2.5666931271553040e-01" nType="-99"/>
            <Node pos="r" depth="3" NCoef="0" IVar="-1" Cut="0.0000000000000000e+00" cType="1" res="1.8912894651293755e-02" rms="3.4677544236183167e-01" purity="2.2281348705291748e-01" nType="-99"/>
          </Node>
        </Node>
      </Node>
    </BinaryTree>
    <BinaryTree type="DecisionTree" boostWeight="1.0000000000000000e+00" itree="231">
      <Node pos="s" depth="0" NCoef="0" IVar="2" Cut="7.4716052246093750e+02" cType="1" res="-1.0171921458095312e-03" rms="3.8945785164833069e-01" purity="4.9630522727966309e-01" nType="0">
        <Node pos="l" depth="1" NCoef="0" IVar="9" Cut="1.4664901494979858e+00" cType="1" res="-1.9834055565297604e-03" rms="3.8867396116256714e-01" purity="4.9220412969589233e-01" nType="0">
          <Node pos="l" depth="2" NCoef="0" IVar="9" Cut="-1.9873288869857788e+00" cType="1" res="1.2036177213303745e-04" rms="3.9051243662834167e-01" purity="5.0862765312194824e-01" nType="0">
            <Node pos="l" depth="3" NCoef="0" IVar="-1" Cut="0.0000000000000000e+00" cType="1" res="-1.7352188006043434e-02" rms="3.6920821666717529e-01" purity="3.2765436172485352e-01" nType="-99"/>
            <Node pos="r" depth="3" NCoef="0" IVar="-1" Cut="0.0000000000000000e+00" cType="1" res="1.1287715751677752e-03" rms="3.9177420735359192e-01" purity="5.2014470100402832e-01" nType="-99"/>
          </Node>
          <Node pos="r" depth="2" NCoef="0" IVar="9" Cut="1.9109262228012085e+00" cType="1" res="-1.6949972137808800e-02" rms="3.7499439716339111e-01" purity="3.7536454200744629e-01" nType="0">
            <Node pos="l" depth="3" NCoef="0" IVar="-1" Cut="0.0000000000000000e+00" cType="1" res="-2.7944412082433701e-02" rms="3.6967337131500244e-01" purity="3.8852086663246155e-01" nType="-99"/>
            <Node pos="r" depth="3" NCoef="0" IVar="-1" Cut="0.0000000000000000e+00" cType="1" res="3.2482575625181198e-03" rms="3.7831178307533264e-01" purity="3.6373460292816162e-01" nType="-99"/>
          </Node>
        </Node>
        <Node pos="r" depth="1" NCoef="0" IVar="-1" Cut="0.0000000000000000e+00" cType="1" res="1.6956375911831856e-02" rms="4.1348540782928467e-01" purity="6.3322389125823975e-01" nType="-99"/>
      </Node>
    </BinaryTree>
    <BinaryTree type="DecisionTree" boostWeight="1.0000000000000000e+00" itree="232">
      <Node pos="s" depth="0" NCoef="0" IVar="9" Cut="-1.4666125774383545e+00" cType="1" res="-2.3503308184444904e-03" rms="3.8949117064476013e-01" purity="4.9430286884307861e-01" nType="0">
        <Node pos="l" depth="1" NCoef="0" IVar="3" Cut="1.4429158020019531e+02" cType="1" res="1.5307415276765823e-02" rms="3.8568979501724243e-01" purity="4.1078522801399231e-01" nType="0">
          <Node pos="l" depth="2" NCoef="0" IVar="-1" Cut="0.0000000000000000e+00" cType="1" res="-7.4635841883718967e-03" rms="3.3401474356651306e-01" purity="1.6291886568069458e-01" nType="-99"/>
          <Node pos="r" depth="2" NCoef="0" IVar="6" Cut="-3.6642259359359741e-01" cType="1" res="2.4130651727318764e-02" rms="4.0275245904922485e-01" purity="5.0236850976943970e-01" nType="0">
            <Node pos="l" depth="3" NCoef="0" IVar="-1" Cut="0.0000000000000000e+00" cType="1" res="3.3061377704143524e-02" rms="4.0268203616142273e-01" purity="4.7518989443778992e-01" nType="-99"/>
            <Node pos="r" depth="3" NCoef="0" IVar="-1" Cut="0.0000000000000000e+00" cType="1" res="2.5575798936188221e-03" rms="4.0160804986953735e-01" purity="5.2176862955093384e-01" nType="-99"/>
          </Node>
        </Node>
        <Node pos="r" depth="1" NCoef="0" IVar="8" Cut="-1.4665834903717041e+00" cType="1" res="-4.9383328296244144e-03" rms="3.8997805118560791e-01" purity="5.0654363632202148e-01" nType="0">
          <Node pos="l" depth="2" NCoef="0" IVar="4" Cut="1.3450631713867188e+02" cType="1" res="-2.6586009189486504e-02" rms="3.7004068493843079e-01" purity="3.1673848628997803e-01" nType="0">
            <Node pos="l" depth="3" NCoef="0" IVar="-1" Cut="0.0000000000000000e+00" cType="1" res="-1.3727190904319286e-02" rms="3.5189175605773926e-01" purity="2.2275033593177795e-01" nType="-99"/>
            <Node pos="r" depth="3" NCoef="0" IVar="-1" Cut="0.0000000000000000e+00" cType="1" res="-2.6276964694261551e-02" rms="4.0403297543525696e-01" purity="5.0850492715835571e-01" nType="-99"/>
          </Node>
          <Node pos="r" depth="2" NCoef="0" IVar="2" Cut="7.1824768066406250e+02" cType="1" res="-2.5756235700100660e-03" rms="3.9202037453651428e-01" purity="5.2725964784622192e-01" nType="0">
            <Node pos="l" depth="3" NCoef="0" IVar="-1" Cut="0.0000000000000000e+00" cType="1" res="-1.0000540642067790e-03" rms="3.9163812994956970e-01" purity="5.2447986602783203e-01" nType="-99"/>
            <Node pos="r" depth="3" NCoef="0" IVar="-1" Cut="0.0000000000000000e+00" cType="1" res="-1.8808860331773758e-02" rms="4.0166923403739929e-01" purity="6.0705369710922241e-01" nType="-99"/>
          </Node>
        </Node>
      </Node>
    </BinaryTree>
    <BinaryTree type="DecisionTree" boostWeight="1.0000000000000000e+00" itree="233">
      <Node pos="s" depth="0" NCoef="0" IVar="3" Cut="1.4631277465820312e+02" cType="1" res="3.4132502041757107e-03" rms="3.9014258980751038e-01" purity="5.0373488664627075e-01" nType="0">
        <Node pos="l" depth="1" NCoef="0" IVar="6" Cut="-9.1672700643539429e-01" cType="1" res="1.3000533916056156e-02" rms="3.7821260094642639e-01" purity="2.5424554944038391e-01" nType="0">
          <Node pos="l" depth="2" NCoef="0" IVar="-1" Cut="0.0000000000000000e+00" cType="1" res="-1.8142880871891975e-02" rms="2.9511392116546631e-01" purity="1.3189508020877838e-01" nType="-99"/>
          <Node pos="r" depth="2" NCoef="0" IVar="3" Cut="1.3730688476562500e+02" cType="1" res="2.0951136946678162e-02" rms="3.9590477943420410e-01" purity="2.8488412499427795e-01" nType="0">
            <Node pos="l" depth="3" NCoef="0" IVar="-1" Cut="0.0000000000000000e+00" cType="1" res="1.0067843832075596e-02" rms="3.8621884584426880e-01" purity="2.5689461827278137e-01" nType="-99"/>
            <Node pos="r" depth="3" NCoef="0" IVar="-1" Cut="0.0000000000000000e+00" cType="1" res="2.9584979638457298e-02" rms="4.3884971737861633e-01" purity="4.2162743210792542e-01" nType="-99"/>
          </Node>
        </Node>
        <Node pos="r" depth="1" NCoef="0" IVar="2" Cut="6.3790716552734375e+02" cType="1" res="2.6850812719203532e-04" rms="3.9392629265785217e-01" purity="5.8557033538818359e-01" nType="0">
          <Node pos="l" depth="2" NCoef="0" IVar="4" Cut="1.0462741088867188e+02" cType="1" res="2.0972080528736115e-03" rms="3.9337265491485596e-01" purity="5.8705180883407593e-01" nType="0">
            <Node pos="l" depth="3" NCoef="0" IVar="-1" Cut="0.0000000000000000e+00" cType="1" res="1.3767667114734650e-02" rms="4.1611880064010620e-01" purity="3.6120232939720154e-01" nType="-99"/>
            <Node pos="r" depth="3" NCoef="0" IVar="-1" Cut="0.0000000000000000e+00" cType="1" res="-2.5558897759765387e-03" rms="3.8636928796768188e-01" purity="6.5208703279495239e-01" nType="-99"/>
          </Node>
          <Node pos="r" depth="2" NCoef="0" IVar="6" Cut="-2.7774641290307045e-02" cType="1" res="-2.4797273799777031e-02" rms="4.0059721469879150e-01" purity="5.6526428461074829e-01" nType="0">
            <Node pos="l" depth="3" NCoef="0" IVar="-1" Cut="0.0000000000000000e+00" cType="1" res="-1.4260165393352509e-02" rms="3.9995431900024414e-01" purity="5.7349067926406860e-01" nType="-99"/>
            <Node pos="r" depth="3" NCoef="0" IVar="-1" Cut="0.0000000000000000e+00" cType="1" res="-1.5000991523265839e-02" rms="4.0123501420021057e-01" purity="5.5705636739730835e-01" nType="-99"/>
          </Node>
        </Node>
      </Node>
    </BinaryTree>
    <BinaryTree type="DecisionTree" boostWeight="1.0000000000000000e+00" itree="234">
      <Node pos="s" depth="0" NCoef="0" IVar="7" Cut="-3.9998465776443481e-01" cType="1" res="-1.9192219479009509e-03" rms="3.8838967680931091e-01" purity="4.9934762716293335e-01" nType="0">
        <Node pos="l" depth="1" NCoef="0" IVar="0" Cut="4.2850430297851562e+02" cType="1" res="5.0225360319018364e-03" rms="3.8946190476417542e-01" purity="4.6289470791816711e-01" nType="0">
          <Node pos="l" depth="2" NCoef="0" IVar="1" Cut="1.1557584228515625e+03" cType="1" res="1.3872716575860977e-02" rms="3.8961842656135559e-01" purity="3.2907733321189880e-01" nType="0">
            <Node pos="l" depth="3" NCoef="0" IVar="-1" Cut="0.0000000000000000e+00" cType="1" res="3.0484010931104422e-03" rms="3.7234354019165039e-01" purity="2.2526782751083374e-01" nType="-99"/>
            <Node pos="r" depth="3" NCoef="0" IVar="-1" Cut="0.0000000000000000e+00" cType="1" res="1.6694804653525352e-02" rms="4.1419896483421326e-01" purity="4.8778519034385681e-01" nType="-99"/>
          </Node>
          <Node pos="r" depth="2" NCoef="0" IVar="8" Cut="9.3307620286941528e-01" cType="1" res="-6.6691860556602478e-03" rms="3.8894638419151306e-01" purity="6.3967710733413696e-01" nType="0">
            <Node pos="l" depth="3" NCoef="0" IVar="-1" Cut="0.0000000000000000e+00" cType="1" res="-8.4486193954944611e-03" rms="3.8309234380722046e-01" purity="6.5687763690948486e-01" nType="-99"/>
            <Node pos="r" depth="3" NCoef="0" IVar="-1" Cut="0.0000000000000000e+00" cType="1" res="1.1874170973896980e-02" rms="4.1373762488365173e-01" purity="5.6050509214401245e-01" nType="-99"/>
          </Node>
        </Node>
        <Node pos="r" depth="1" NCoef="0" IVar="7" Cut="1.2761436700820923e+00" cType="1" res="-5.7778866030275822e-03" rms="3.8773867487907410e-01" purity="5.1961046457290649e-01" nType="0">
          <Node pos="l" depth="2" NCoef="0" IVar="6" Cut="1.2064682245254517e+00" cType="1" res="-3.6115362308919430e-03" rms="3.9556980133056641e-01" purity="5.7643157243728638e-01" nType="0">
            <Node pos="l" depth="3" NCoef="0" IVar="-1" Cut="0.0000000000000000e+00" cType="1" res="-3.7438708823174238e-03" rms="3.9569646120071411e-01" purity="6.0447001457214355e-01" nType="-99"/>
            <Node pos="r" depth="3" NCoef="0" IVar="-1" Cut="0.0000000000000000e+00" cType="1" res="1.1386714875698090e-02" rms="3.9388129115104675e-01" purity="3.2894828915596008e-01" nType="-99"/>
          </Node>
          <Node pos="r" depth="2" NCoef="0" IVar="6" Cut="-1.0321866720914841e-01" cType="1" res="-1.5245122835040092e-02" rms="3.5131743550300598e-01" purity="2.7129471302032471e-01" nType="0">
            <Node pos="l" depth="3" NCoef="0" IVar="-1" Cut="0.0000000000000000e+00" cType="1" res="2.6527366135269403e-03" rms="3.5721856355667114e-01" purity="2.6624542474746704e-01" nType="-99"/>
            <Node pos="r" depth="3" NCoef="0" IVar="-1" Cut="0.0000000000000000e+00" cType="1" res="-2.2354489192366600e-02" rms="3.4579458832740784e-01" purity="2.7533504366874695e-01" nType="-99"/>
          </Node>
        </Node>
      </Node>
    </BinaryTree>
    <BinaryTree type="DecisionTree" boostWeight="1.0000000000000000e+00" itree="235">
      <Node pos="s" depth="0" NCoef="0" IVar="6" Cut="1.4779706001281738e+00" cType="1" res="2.9885203111916780e-03" rms="3.8550713658332825e-01" purity="5.0528359413146973e-01" nType="0">
        <Node pos="l" depth="1" NCoef="0" IVar="6" Cut="-1.1388262510299683e+00" cType="1" res="4.3570403940975666e-03" rms="3.8978299498558044e-01" purity="5.2776205539703369e-01" nType="0">
          <Node pos="l" depth="2" NCoef="0" IVar="4" Cut="1.6115397644042969e+02" cType="1" res="-1.0825839824974537e-02" rms="3.5072249174118042e-01" purity="2.5315433740615845e-01" nType="0">
            <Node pos="l" depth="3" NCoef="0" IVar="-1" Cut="0.0000000000000000e+00" cType="1" res="-1.4196407981216908e-02" rms="3.3315262198448181e-01" purity="1.7841984331607819e-01" nType="-99"/>
            <Node pos="r" depth="3" NCoef="0" IVar="-1" Cut="0.0000000000000000e+00" cType="1" res="5.3948867134749889e-03" rms="4.0322014689445496e-01" purity="5.0263744592666626e-01" nType="-99"/>
          </Node>
          <Node pos="r" depth="2" NCoef="0" IVar="9" Cut="6.6666281223297119e-01" cType="1" res="6.5003978088498116e-03" rms="3.9493909478187561e-01" purity="5.6652826070785522e-01" nType="0">
            <Node pos="l" depth="3" NCoef="0" IVar="-1" Cut="0.0000000000000000e+00" cType="1" res="1.0906495153903961e-03" rms="3.9289298653602600e-01" purity="5.7877385616302490e-01" nType="-99"/>
            <Node pos="r" depth="3" NCoef="0" IVar="-1" Cut="0.0000000000000000e+00" cType="1" res="1.0761142708361149e-02" rms="3.9933961629867554e-01" purity="5.3868752717971802e-01" nType="-99"/>
          </Node>
        </Node>
        <Node pos="r" depth="1" NCoef="0" IVar="7" Cut="-1.3136209547519684e-01" cType="1" res="-1.6390463337302208e-02" rms="3.1823107600212097e-01" purity="1.8697656691074371e-01" nType="0">
          <Node pos="l" depth="2" NCoef="0" IVar="-1" Cut="0.0000000000000000e+00" cType="1" res="-3.6091364920139313e-02" rms="2.9304087162017822e-01" purity="1.5367530286312103e-01" nType="-99"/>
          <Node pos="r" depth="2" NCoef="0" IVar="-1" Cut="0.0000000000000000e+00" cType="1" res="1.1656064307317138e-03" rms="3.3490312099456787e-01" purity="2.1210716664791107e-01" nType="-99"/>
        </Node>
      </Node>
    </BinaryTree>
    <BinaryTree type="DecisionTree" boostWeight="1.0000000000000000e+00" itree="236">
      <Node pos="s" depth="0" NCoef="0" IVar="2" Cut="4.9193713378906250e+02" cType="1" res="6.8395427661016583e-05" rms="3.8814720511436462e-01" purity="4.9995195865631104e-01" nType="0">
        <Node pos="l" depth="1" NCoef="0" IVar="1" Cut="1.2150871582031250e+03" cType="1" res="2.3437170311808586e-03" rms="3.8689973950386047e-01" purity="4.9176552891731262e-01" nType="0">
          <Node pos="l" depth="2" NCoef="0" IVar="5" Cut="6.4645835876464844e+01" cType="1" res="-3.5751007962971926e-03" rms="3.9751368761062622e-01" purity="2.9827344417572021e-01" nType="0">
            <Node pos="l" depth="3" NCoef="0" IVar="-1" Cut="0.0000000000000000e+00" cType="1" res="7.0613981224596500e-03" rms="3.6585149168968201e-01" purity="2.0606926083564758e-01" nType="-99"/>
            <Node pos="r" depth="3" NCoef="0" IVar="-1" Cut="0.0000000000000000e+00" cType="1" res="-7.1883848868310452e-03" rms="4.1912853717803955e-01" purity="3.6639797687530518e-01" nType="-99"/>
          </Node>
          <Node pos="r" depth="2" NCoef="0" IVar="5" Cut="6.7443351745605469e+01" cType="1" res="9.4551853835582733e-03" rms="3.7362468242645264e-01" purity="7.2424656152725220e-01" nType="0">
            <Node pos="l" depth="3" NCoef="0" IVar="-1" Cut="0.0000000000000000e+00" cType="1" res="-9.5762507990002632e-03" rms="4.2836853861808777e-01" purity="5.1178097724914551e-01" nType="-99"/>
            <Node pos="r" depth="3" NCoef="0" IVar="-1" Cut="0.0000000000000000e+00" cType="1" res="9.7330817952752113e-03" rms="3.6431458592414856e-01" purity="7.5686830282211304e-01" nType="-99"/>
          </Node>
        </Node>
        <Node pos="r" depth="1" NCoef="0" IVar="6" Cut="-8.3836746215820312e-01" cType="1" res="-1.0793990455567837e-02" rms="3.9386701583862305e-01" purity="5.3903400897979736e-01" nType="0">
          <Node pos="l" depth="2" NCoef="0" IVar="-1" Cut="0.0000000000000000e+00" cType="1" res="1.1686963960528374e-02" rms="3.9615136384963989e-01" purity="4.0837505459785461e-01" nType="-99"/>
          <Node pos="r" depth="2" NCoef="0" IVar="7" Cut="4.0001550316810608e-01" cType="1" res="-1.6398137435317039e-02" rms="3.9317214488983154e-01" purity="5.6484413146972656e-01" nType="0">
            <Node pos="l" depth="3" NCoef="0" IVar="-1" Cut="0.0000000000000000e+00" cType="1" res="-4.1585694998502731e-03" rms="3.9105302095413208e-01" purity="6.0896927118301392e-01" nType="-99"/>
            <Node pos="r" depth="3" NCoef="0" IVar="-1" Cut="0.0000000000000000e+00" cType="1" res="-2.4042513221502304e-02" rms="3.9699366688728333e-01" purity="4.6565327048301697e-01" nType="-99"/>
          </Node>
        </Node>
      </Node>
    </BinaryTree>
    <BinaryTree type="DecisionTree" boostWeight="1.0000000000000000e+00" itree="237">
      <Node pos="s" depth="0" NCoef="0" IVar="9" Cut="-1.3330975174903870e-01" cType="1" res="5.4106791503727436e-04" rms="3.8959369063377380e-01" purity="4.9904814362525940e-01" nType="0">
        <Node pos="l" depth="1" NCoef="0" IVar="8" Cut="6.6661751270294189e-01" cType="1" res="7.7407751232385635e-03" rms="3.9448860287666321e-01" purity="5.0276750326156616e-01" nType="0">
          <Node pos="l" depth="2" NCoef="0" IVar="9" Cut="-2.0380535125732422e+00" cType="1" res="1.2487233616411686e-03" rms="3.9137941598892212e-01" purity="5.0917649269104004e-01" nType="0">
            <Node pos="l" depth="3" NCoef="0" IVar="-1" Cut="0.0000000000000000e+00" cType="1" res="-1.6933090984821320e-02" rms="3.8235408067703247e-01" purity="3.3211511373519897e-01" nType="-99"/>
            <Node pos="r" depth="3" NCoef="0" IVar="-1" Cut="0.0000000000000000e+00" cType="1" res="2.7709743008017540e-03" rms="3.9228558540344238e-01" purity="5.2931350469589233e-01" nType="-99"/>
          </Node>
          <Node pos="r" depth="2" NCoef="0" IVar="4" Cut="8.6126617431640625e+01" cType="1" res="2.7228074148297310e-02" rms="4.0305006504058838e-01" purity="4.8352947831153870e-01" nType="0">
            <Node pos="l" depth="3" NCoef="0" IVar="-1" Cut="0.0000000000000000e+00" cType="1" res="5.2989978343248367e-02" rms="4.0303498506546021e-01" purity="2.6812449097633362e-01" nType="-99"/>
            <Node pos="r" depth="3" NCoef="0" IVar="-1" Cut="0.0000000000000000e+00" cType="1" res="8.7976846843957901e-03" rms="4.0219885110855103e-01" purity="5.5218929052352905e-01" nType="-99"/>
          </Node>
        </Node>
        <Node pos="r" depth="1" NCoef="0" IVar="6" Cut="-1.1923118829727173e+00" cType="1" res="-5.7132472284138203e-03" rms="3.8518187403678894e-01" purity="4.9581721425056458e-01" nType="0">
          <Node pos="l" depth="2" NCoef="0" IVar="9" Cut="8.4390705823898315e-01" cType="1" res="2.9700074344873428e-02" rms="3.7303954362869263e-01" purity="3.0693706870079041e-01" nType="0">
            <Node pos="l" depth="3" NCoef="0" IVar="-1" Cut="0.0000000000000000e+00" cType="1" res="9.6483957022428513e-03" rms="3.8052916526794434e-01" purity="3.4492000937461853e-01" nType="-99"/>
            <Node pos="r" depth="3" NCoef="0" IVar="-1" Cut="0.0000000000000000e+00" cType="1" res="3.6887895315885544e-02" rms="3.6438325047492981e-01" purity="2.6740825176239014e-01" nType="-99"/>
          </Node>
          <Node pos="r" depth="2" NCoef="0" IVar="6" Cut="1.2781531810760498e+00" cType="1" res="-9.5712877810001373e-03" rms="3.8628560304641724e-01" purity="5.1639437675476074e-01" nType="0">
            <Node pos="l" depth="3" NCoef="0" IVar="-1" Cut="0.0000000000000000e+00" cType="1" res="-4.2209150269627571e-03" rms="3.9447438716888428e-01" purity="5.5852335691452026e-01" nType="-99"/>
            <Node pos="r" depth="3" NCoef="0" IVar="-1" Cut="0.0000000000000000e+00" cType="1" res="-2.8035106137394905e-02" rms="3.1456995010375977e-01" purity="1.8898451328277588e-01" nType="-99"/>
          </Node>
        </Node>
      </Node>
    </BinaryTree>
    <BinaryTree type="DecisionTree" boostWeight="1.0000000000000000e+00" itree="238">
      <Node pos="s" depth="0" NCoef="0" IVar="9" Cut="-1.9999936819076538e+00" cType="1" res="5.3234945517033339e-04" rms="3.8710922002792358e-01" purity="5.0078916549682617e-01" nType="0">
        <Node pos="l" depth="1" NCoef="0" IVar="7" Cut="-1.3436512649059296e-01" cType="1" res="-2.2119630128145218e-02" rms="3.6587870121002197e-01" purity="3.3132997155189514e-01" nType="0">
          <Node pos="l" depth="2" NCoef="0" IVar="-1" Cut="0.0000000000000000e+00" cType="1" res="-1.0801348835229874e-02" rms="3.5386720299720764e-01" purity="3.3562871813774109e-01" nType="-99"/>
          <Node pos="r" depth="2" NCoef="0" IVar="-1" Cut="0.0000000000000000e+00" cType="1" res="-1.9924085587263107e-02" rms="3.7834581732749939e-01" purity="3.2666480541229248e-01" nType="-99"/>
        </Node>
        <Node pos="r" depth="1" NCoef="0" IVar="5" Cut="1.9036352539062500e+02" cType="1" res="1.7829809803515673e-03" rms="3.8820904493331909e-01" purity="5.1014512777328491e-01" nType="0">
          <Node pos="l" depth="2" NCoef="0" IVar="3" Cut="3.3658288574218750e+02" cType="1" res="7.2889146395027637e-04" rms="3.9162585139274597e-01" purity="4.9423414468765259e-01" nType="0">
            <Node pos="l" depth="3" NCoef="0" IVar="-1" Cut="0.0000000000000000e+00" cType="1" res="1.3823104090988636e-03" rms="3.9282625913619995e-01" purity="4.7931784391403198e-01" nType="-99"/>
            <Node pos="r" depth="3" NCoef="0" IVar="-1" Cut="0.0000000000000000e+00" cType="1" res="-9.0224323794245720e-03" rms="3.7890404462814331e-01" purity="6.4595049619674683e-01" nType="-99"/>
          </Node>
          <Node pos="r" depth="2" NCoef="0" IVar="-1" Cut="0.0000000000000000e+00" cType="1" res="2.8021570295095444e-02" rms="2.9370936751365662e-01" purity="8.9098763465881348e-01" nType="-99"/>
        </Node>
      </Node>
    </BinaryTree>
    <BinaryTree type="DecisionTree" boostWeight="1.0000000000000000e+00" itree="239">
      <Node pos="s" depth="0" NCoef="0" IVar="9" Cut="9.3332934379577637e-01" cType="1" res="2.1741690579801798e-03" rms="3.8573342561721802e-01" purity="5.0373709201812744e-01" nType="0">
        <Node pos="l" depth="1" NCoef="0" IVar="8" Cut="-1.2000063657760620e+00" cType="1" res="6.0177347622811794e-03" rms="3.8921019434928894e-01" purity="5.2412819862365723e-01" nType="0">
          <Node pos="l" depth="2" NCoef="0" IVar="9" Cut="-8.4434604644775391e-01" cType="1" res="2.2254373878240585e-02" rms="3.9063364267349243e-01" purity="3.9079976081848145e-01" nType="0">
            <Node pos="l" depth="3" NCoef="0" IVar="-1" Cut="0.0000000000000000e+00" cType="1" res="1.6267138998955488e-03" rms="3.6213764548301697e-01" purity="2.9749202728271484e-01" nType="-99"/>
            <Node pos="r" depth="3" NCoef="0" IVar="-1" Cut="0.0000000000000000e+00" cType="1" res="2.2530000656843185e-02" rms="4.0738818049430847e-01" purity="4.5081540942192078e-01" nType="-99"/>
          </Node>
          <Node pos="r" depth="2" NCoef="0" IVar="7" Cut="1.7333078384399414e+00" cType="1" res="2.9327396769076586e-03" rms="3.8886249065399170e-01" purity="5.4946088790893555e-01" nType="0">
            <Node pos="l" depth="3" NCoef="0" IVar="-1" Cut="0.0000000000000000e+00" cType="1" res="6.5398222068324685e-04" rms="3.9008489251136780e-01" purity="5.6382077932357788e-01" nType="-99"/>
            <Node pos="r" depth="3" NCoef="0" IVar="-1" Cut="0.0000000000000000e+00" cType="1" res="2.9966797679662704e-02" rms="3.6421674489974976e-01" purity="2.8884574770927429e-01" nType="-99"/>
          </Node>
        </Node>
        <Node pos="r" depth="1" NCoef="0" IVar="8" Cut="9.3326848745346069e-01" cType="1" res="-1.0595183819532394e-02" rms="3.7366697192192078e-01" purity="4.3599244952201843e-01" nType="0">
          <Node pos="l" depth="2" NCoef="0" IVar="5" Cut="7.2336608886718750e+01" cType="1" res="-3.4209473524242640e-03" rms="3.8282692432403564e-01" purity="4.9006092548370361e-01" nType="0">
            <Node pos="l" depth="3" NCoef="0" IVar="-1" Cut="0.0000000000000000e+00" cType="1" res="8.0568250268697739e-03" rms="3.8298660516738892e-01" purity="3.1207257509231567e-01" nType="-99"/>
            <Node pos="r" depth="3" NCoef="0" IVar="-1" Cut="0.0000000000000000e+00" cType="1" res="-9.2233112081885338e-03" rms="3.8233152031898499e-01" purity="6.1677223443984985e-01" nType="-99"/>
          </Node>
          <Node pos="r" depth="2" NCoef="0" IVar="9" Cut="1.5555223226547241e+00" cType="1" res="-3.2759398221969604e-02" rms="3.4288311004638672e-01" purity="2.6895242929458618e-01" nType="0">
            <Node pos="l" depth="3" NCoef="0" IVar="-1" Cut="0.0000000000000000e+00" cType="1" res="-3.5632956773042679e-02" rms="3.3914479613304138e-01" purity="2.8432244062423706e-01" nType="-99"/>
            <Node pos="r" depth="3" NCoef="0" IVar="-1" Cut="0.0000000000000000e+00" cType="1" res="-1.1757768690586090e-02" rms="3.4559953212738037e-01" purity="2.5400200486183167e-01" nType="-99"/>
          </Node>
        </Node>
      </Node>
    </BinaryTree>
    <BinaryTree type="DecisionTree" boostWeight="1.0000000000000000e+00" itree="240">
      <Node pos="s" depth="0" NCoef="0" IVar="9" Cut="-2.2666587829589844e+00" cType="1" res="8.2304060924798250e-04" rms="3.8733357191085815e-01" purity="5.0098747014999390e-01" nType="0">
        <Node pos="l" depth="1" NCoef="0" IVar="-1" Cut="0.0000000000000000e+00" cType="1" res="2.1172549575567245e-02" rms="3.8400745391845703e-01" purity="3.4235146641731262e-01" nType="-99"/>
        <Node pos="r" depth="1" NCoef="0" IVar="7" Cut="-6.6664165258407593e-01" cType="1" res="-1.0006371303461492e-04" rms="3.8740363717079163e-01" purity="5.0604856014251709e-01" nType="0">
          <Node pos="l" depth="2" NCoef="0" IVar="5" Cut="7.5174827575683594e+01" cType="1" res="-8.8907573372125626e-03" rms="3.8214692473411560e-01" purity="4.0730291604995728e-01" nType="0">
            <Node pos="l" depth="3" NCoef="0" IVar="-1" Cut="0.0000000000000000e+00" cType="1" res="3.8244251627475023e-03" rms="3.6559519171714783e-01" purity="2.5681033730506897e-01" nType="-99"/>
            <Node pos="r" depth="3" NCoef="0" IVar="-1" Cut="0.0000000000000000e+00" cType="1" res="-1.3020046055316925e-02" rms="3.9562100172042847e-01" purity="5.3871464729309082e-01" nType="-99"/>
          </Node>
          <Node pos="r" depth="2" NCoef="0" IVar="8" Cut="1.9999827146530151e+00" cType="1" res="2.9940500389784575e-03" rms="3.8918974995613098e-01" purity="5.4080462455749512e-01" nType="0">
            <Node pos="l" depth="3" NCoef="0" IVar="-1" Cut="0.0000000000000000e+00" cType="1" res="2.9008653946220875e-03" rms="3.9092966914176941e-01" purity="5.5439209938049316e-01" nType="-99"/>
            <Node pos="r" depth="3" NCoef="0" IVar="-1" Cut="0.0000000000000000e+00" cType="1" res="-2.3147786036133766e-02" rms="3.4425529837608337e-01" purity="2.2301752865314484e-01" nType="-99"/>
          </Node>
        </Node>
      </Node>
    </BinaryTree>
    <BinaryTree type="DecisionTree" boostWeight="1.0000000000000000e+00" itree="241">
      <Node pos="s" depth="0" NCoef="0" IVar="3" Cut="2.3760939025878906e+02" cType="1" res="-3.4402587334625423e-04" rms="3.8843661546707153e-01" purity="4.9897024035453796e-01" nType="0">
        <Node pos="l" depth="1" NCoef="0" IVar="8" Cut="1.9999760389328003e+00" cType="1" res="3.4909283276647329e-03" rms="3.9587894082069397e-01" purity="4.1914343833923340e-01" nType="0">
          <Node pos="l" depth="2" NCoef="0" IVar="1" Cut="1.3006258544921875e+03" cType="1" res="1.6147971618920565e-03" rms="3.9699056744575500e-01" purity="4.2891553044319153e-01" nType="0">
            <Node pos="l" depth="3" NCoef="0" IVar="-1" Cut="0.0000000000000000e+00" cType="1" res="-1.8489869544282556e-03" rms="4.0235814452171326e-01" purity="3.3043855428695679e-01" nType="-99"/>
            <Node pos="r" depth="3" NCoef="0" IVar="-1" Cut="0.0000000000000000e+00" cType="1" res="9.5300097018480301e-03" rms="3.8154786825180054e-01" purity="6.9989395141601562e-01" nType="-99"/>
          </Node>
          <Node pos="r" depth="2" NCoef="0" IVar="-1" Cut="0.0000000000000000e+00" cType="1" res="3.0848927795886993e-02" rms="3.7325033545494080e-01" purity="2.4000382423400879e-01" nType="-99"/>
        </Node>
        <Node pos="r" depth="1" NCoef="0" IVar="8" Cut="1.4664000272750854e+00" cType="1" res="-8.2440199330449104e-03" rms="3.7251287698745728e-01" purity="6.6341328620910645e-01" nType="0">
          <Node pos="l" depth="2" NCoef="0" IVar="6" Cut="4.3491479754447937e-01" cType="1" res="-5.6788916699588299e-03" rms="3.7062758207321167e-01" purity="6.8203902244567871e-01" nType="0">
            <Node pos="l" depth="3" NCoef="0" IVar="-1" Cut="0.0000000000000000e+00" cType="1" res="-2.7314422186464071e-04" rms="3.6824908852577209e-01" purity="7.1284592151641846e-01" nType="-99"/>
            <Node pos="r" depth="3" NCoef="0" IVar="-1" Cut="0.0000000000000000e+00" cType="1" res="-1.2797134928405285e-02" rms="3.7618348002433777e-01" purity="6.0499888658523560e-01" nType="-99"/>
          </Node>
          <Node pos="r" depth="2" NCoef="0" IVar="-1" Cut="0.0000000000000000e+00" cType="1" res="-2.4083565920591354e-02" rms="3.9312952756881714e-01" purity="4.3991786241531372e-01" nType="-99"/>
        </Node>
      </Node>
    </BinaryTree>
    <BinaryTree type="DecisionTree" boostWeight="1.0000000000000000e+00" itree="242">
      <Node pos="s" depth="0" NCoef="0" IVar="9" Cut="-1.3333073258399963e-01" cType="1" res="7.6510285725817084e-04" rms="3.8834300637245178e-01" purity="5.0429660081863403e-01" nType="0">
        <Node pos="l" depth="1" NCoef="0" IVar="6" Cut="9.4139456748962402e-01" cType="1" res="-5.8838934637606144e-03" rms="3.8805466890335083e-01" purity="4.9391108751296997e-01" nType="0">
          <Node pos="l" depth="2" NCoef="0" IVar="9" Cut="-1.2761884927749634e+00" cType="1" res="-1.0977415367960930e-03" rms="3.9390200376510620e-01" purity="5.2760434150695801e-01" nType="0">
            <Node pos="l" depth="3" NCoef="0" IVar="-1" Cut="0.0000000000000000e+00" cType="1" res="7.1683302521705627e-03" rms="3.9329540729522705e-01" purity="4.6195295453071594e-01" nType="-99"/>
            <Node pos="r" depth="3" NCoef="0" IVar="-1" Cut="0.0000000000000000e+00" cType="1" res="-4.8793838359415531e-03" rms="3.9407169818878174e-01" purity="5.6234163045883179e-01" nType="-99"/>
          </Node>
          <Node pos="r" depth="2" NCoef="0" IVar="5" Cut="7.2215217590332031e+01" cType="1" res="-3.7134148180484772e-02" rms="3.4584081172943115e-01" purity="2.7391752600669861e-01" nType="0">
            <Node pos="l" depth="3" NCoef="0" IVar="-1" Cut="0.0000000000000000e+00" cType="1" res="-1.7146842554211617e-02" rms="3.1687107682228088e-01" purity="1.4102151989936829e-01" nType="-99"/>
            <Node pos="r" depth="3" NCoef="0" IVar="-1" Cut="0.0000000000000000e+00" cType="1" res="-3.3339146524667740e-02" rms="3.6691147089004517e-01" purity="3.8148272037506104e-01" nType="-99"/>
          </Node>
        </Node>
        <Node pos="r" depth="1" NCoef="0" IVar="7" Cut="9.3336862325668335e-01" cType="1" res="6.2974831089377403e-03" rms="3.8849604129791260e-01" purity="5.1293790340423584e-01" nType="0">
          <Node pos="l" depth="2" NCoef="0" IVar="7" Cut="4.0004709362983704e-01" cType="1" res="2.3291027173399925e-03" rms="3.8990920782089233e-01" purity="5.5246275663375854e-01" nType="0">
            <Node pos="l" depth="3" NCoef="0" IVar="-1" Cut="0.0000000000000000e+00" cType="1" res="3.9175236597657204e-03" rms="3.8976222276687622e-01" purity="5.5217081308364868e-01" nType="-99"/>
            <Node pos="r" depth="3" NCoef="0" IVar="-1" Cut="0.0000000000000000e+00" cType="1" res="-7.2067393921315670e-03" rms="3.9014884829521179e-01" purity="5.5353790521621704e-01" nType="-99"/>
          </Node>
          <Node pos="r" depth="2" NCoef="0" IVar="6" Cut="-3.6869210004806519e-01" cType="1" res="2.0665634423494339e-02" rms="3.8299199938774109e-01" purity="3.6983218789100647e-01" nType="0">
            <Node pos="l" depth="3" NCoef="0" IVar="-1" Cut="0.0000000000000000e+00" cType="1" res="-7.4961995705962181e-03" rms="3.6419424414634705e-01" purity="2.8960928320884705e-01" nType="-99"/>
            <Node pos="r" depth="3" NCoef="0" IVar="-1" Cut="0.0000000000000000e+00" cType="1" res="2.2295538336038589e-02" rms="3.8942137360572815e-01" purity="4.0116733312606812e-01" nType="-99"/>
          </Node>
        </Node>
      </Node>
    </BinaryTree>
    <BinaryTree type="DecisionTree" boostWeight="1.0000000000000000e+00" itree="243">
      <Node pos="s" depth="0" NCoef="0" IVar="7" Cut="6.6664916276931763e-01" cType="1" res="-6.8317615659907460e-04" rms="3.8755208253860474e-01" purity="5.0062948465347290e-01" nType="0">
        <Node pos="l" depth="1" NCoef="0" IVar="1" Cut="1.4400653076171875e+03" cType="1" res="2.8972327709197998e-03" rms="3.8909035921096802e-01" purity="5.3779327869415283e-01" nType="0">
          <Node pos="l" depth="2" NCoef="0" IVar="2" Cut="3.9887927246093750e+02" cType="1" res="-2.0138060208410025e-03" rms="4.0756237506866455e-01" purity="4.1079890727996826e-01" nType="0">
            <Node pos="l" depth="3" NCoef="0" IVar="-1" Cut="0.0000000000000000e+00" cType="1" res="1.2949145166203380e-03" rms="4.1144806146621704e-01" purity="4.3539193272590637e-01" nType="-99"/>
            <Node pos="r" depth="3" NCoef="0" IVar="-1" Cut="0.0000000000000000e+00" cType="1" res="-1.2773928232491016e-02" rms="3.8935413956642151e-01" purity="3.0192103981971741e-01" nType="-99"/>
          </Node>
          <Node pos="r" depth="2" NCoef="0" IVar="6" Cut="-8.8550347089767456e-01" cType="1" res="1.2292223982512951e-02" rms="3.5086342692375183e-01" purity="7.8073805570602417e-01" nType="0">
            <Node pos="l" depth="3" NCoef="0" IVar="-1" Cut="0.0000000000000000e+00" cType="1" res="1.8458766862750053e-02" rms="3.8930490612983704e-01" purity="6.8032801151275635e-01" nType="-99"/>
            <Node pos="r" depth="3" NCoef="0" IVar="-1" Cut="0.0000000000000000e+00" cType="1" res="7.7378442510962486e-03" rms="3.4422993659973145e-01" purity="7.9681444168090820e-01" nType="-99"/>
          </Node>
        </Node>
        <Node pos="r" depth="1" NCoef="0" IVar="6" Cut="6.8910062313079834e-01" cType="1" res="-1.0902165435254574e-02" rms="3.8294354081153870e-01" purity="3.9455866813659668e-01" nType="0">
          <Node pos="l" depth="2" NCoef="0" IVar="6" Cut="1.9908884167671204e-01" cType="1" res="-1.9280904904007912e-02" rms="3.8864991068840027e-01" purity="4.2762574553489685e-01" nType="0">
            <Node pos="l" depth="3" NCoef="0" IVar="-1" Cut="0.0000000000000000e+00" cType="1" res="-8.4924111142754555e-03" rms="3.8215678930282593e-01" purity="4.1330233216285706e-01" nType="-99"/>
            <Node pos="r" depth="3" NCoef="0" IVar="-1" Cut="0.0000000000000000e+00" cType="1" res="-2.3341456428170204e-02" rms="4.0700733661651611e-01" purity="4.7087642550468445e-01" nType="-99"/>
          </Node>
          <Node pos="r" depth="2" NCoef="0" IVar="6" Cut="9.9065327644348145e-01" cType="1" res="9.1817546635866165e-03" rms="3.6813053488731384e-01" purity="3.1529659032821655e-01" nType="0">
            <Node pos="l" depth="3" NCoef="0" IVar="-1" Cut="0.0000000000000000e+00" cType="1" res="2.6761634275317192e-02" rms="4.1092926263809204e-01" purity="4.8334753513336182e-01" nType="-99"/>
            <Node pos="r" depth="3" NCoef="0" IVar="-1" Cut="0.0000000000000000e+00" cType="1" res="-7.1358261629939079e-03" rms="3.4218335151672363e-01" purity="2.2678650915622711e-01" nType="-99"/>
          </Node>
        </Node>
      </Node>
    </BinaryTree>
    <BinaryTree type="DecisionTree" boostWeight="1.0000000000000000e+00" itree="244">
      <Node pos="s" depth="0" NCoef="0" IVar="3" Cut="1.4498309326171875e+02" cType="1" res="-3.1844377517700195e-03" rms="3.9064466953277588e-01" purity="4.9729564785957336e-01" nType="0">
        <Node pos="l" depth="1" NCoef="0" IVar="5" Cut="5.4367122650146484e+01" cType="1" res="6.8844538182020187e-03" rms="3.7495458126068115e-01" purity="2.4829652905464172e-01" nType="0">
          <Node pos="l" depth="2" NCoef="0" IVar="-1" Cut="0.0000000000000000e+00" cType="1" res="-1.7643867060542107e-02" rms="2.9927319288253784e-01" purity="1.1864661425352097e-01" nType="-99"/>
          <Node pos="r" depth="2" NCoef="0" IVar="8" Cut="-9.3333506584167480e-01" cType="1" res="1.2011374346911907e-02" rms="3.8844338059425354e-01" purity="2.7485319972038269e-01" nType="0">
            <Node pos="l" depth="3" NCoef="0" IVar="-1" Cut="0.0000000000000000e+00" cType="1" res="-9.6269091591238976e-03" rms="3.3403778076171875e-01" purity="1.8570707738399506e-01" nType="-99"/>
            <Node pos="r" depth="3" NCoef="0" IVar="-1" Cut="0.0000000000000000e+00" cType="1" res="1.2483736500144005e-02" rms="4.0371209383010864e-01" purity="3.0282029509544373e-01" nType="-99"/>
          </Node>
        </Node>
        <Node pos="r" depth="1" NCoef="0" IVar="6" Cut="1.7353227138519287e+00" cType="1" res="-6.3599538989365101e-03" rms="3.9541071653366089e-01" purity="5.7582479715347290e-01" nType="0">
          <Node pos="l" depth="2" NCoef="0" IVar="9" Cut="9.3339818716049194e-01" cType="1" res="-5.1541086286306381e-03" rms="3.9846956729888916e-01" purity="5.8970779180526733e-01" nType="0">
            <Node pos="l" depth="3" NCoef="0" IVar="-1" Cut="0.0000000000000000e+00" cType="1" res="-5.1558124832808971e-03" rms="3.9830213785171509e-01" purity="6.0220199823379517e-01" nType="-99"/>
            <Node pos="r" depth="3" NCoef="0" IVar="-1" Cut="0.0000000000000000e+00" cType="1" res="3.0630386900156736e-03" rms="3.9888030290603638e-01" purity="5.4688310623168945e-01" nType="-99"/>
          </Node>
          <Node pos="r" depth="2" NCoef="0" IVar="-1" Cut="0.0000000000000000e+00" cType="1" res="-3.3635344356298447e-02" rms="2.9526090621948242e-01" purity="1.8712319433689117e-01" nType="-99"/>
        </Node>
      </Node>
    </BinaryTree>
    <BinaryTree type="DecisionTree" boostWeight="1.0000000000000000e+00" itree="245">
      <Node pos="s" depth="0" NCoef="0" IVar="3" Cut="1.4638182067871094e+02" cType="1" res="2.5552765000611544e-03" rms="3.9011725783348083e-01" purity="5.0044256448745728e-01" nType="0">
        <Node pos="l" depth="1" NCoef="0" IVar="3" Cut="1.3732342529296875e+02" cType="1" res="1.1444991454482079e-02" rms="3.7966677546501160e-01" purity="2.5631433725357056e-01" nType="0">
          <Node pos="l" depth="2" NCoef="0" IVar="3" Cut="1.1273964691162109e+02" cType="1" res="7.3268366977572441e-03" rms="3.7206935882568359e-01" purity="2.2959716618061066e-01" nType="0">
            <Node pos="l" depth="3" NCoef="0" IVar="-1" Cut="0.0000000000000000e+00" cType="1" res="1.7279088497161865e-02" rms="3.5152941942214966e-01" purity="1.8527200818061829e-01" nType="-99"/>
            <Node pos="r" depth="3" NCoef="0" IVar="-1" Cut="0.0000000000000000e+00" cType="1" res="-4.6279933303594589e-03" rms="3.9365771412849426e-01" purity="2.8007936477661133e-01" nType="-99"/>
          </Node>
          <Node pos="r" depth="2" NCoef="0" IVar="-1" Cut="0.0000000000000000e+00" cType="1" res="1.8496377393603325e-02" rms="4.1466963291168213e-01" purity="3.8872274756431580e-01" nType="-99"/>
        </Node>
        <Node pos="r" depth="1" NCoef="0" IVar="5" Cut="1.9036352539062500e+02" cType="1" res="-4.0330036426894367e-04" rms="3.9348918199539185e-01" purity="5.8169066905975342e-01" nType="0">
          <Node pos="l" depth="2" NCoef="0" IVar="5" Cut="5.6683998107910156e+01" cType="1" res="-1.6919141635298729e-03" rms="3.9777931571006775e-01" purity="5.6564235687255859e-01" nType="0">
            <Node pos="l" depth="3" NCoef="0" IVar="-1" Cut="0.0000000000000000e+00" cType="1" res="8.0208051949739456e-03" rms="4.0793851017951965e-01" purity="3.4648326039314270e-01" nType="-99"/>
            <Node pos="r" depth="3" NCoef="0" IVar="-1" Cut="0.0000000000000000e+00" cType="1" res="-2.1981035824865103e-03" rms="3.9646771550178528e-01" purity="5.9274935722351074e-01" nType="-99"/>
          </Node>
          <Node pos="r" depth="2" NCoef="0" IVar="-1" Cut="0.0000000000000000e+00" cType="1" res="2.4618795141577721e-02" rms="3.0041459202766418e-01" purity="8.8408195972442627e-01" nType="-99"/>
        </Node>
      </Node>
    </BinaryTree>
    <BinaryTree type="DecisionTree" boostWeight="1.0000000000000000e+00" itree="246">
      <Node pos="s" depth="0" NCoef="0" IVar="7" Cut="-1.2000304460525513e+00" cType="1" res="-1.1913777561858296e-03" rms="3.8789302110671997e-01" purity="4.9883893132209778e-01" nType="0">
        <Node pos="l" depth="1" NCoef="0" IVar="0" Cut="5.1173785400390625e+02" cType="1" res="1.2285829521715641e-02" rms="3.7417137622833252e-01" purity="3.1523966789245605e-01" nType="0">
          <Node pos="l" depth="2" NCoef="0" IVar="4" Cut="1.3602990722656250e+02" cType="1" res="2.1053880918771029e-03" rms="3.6411419510841370e-01" purity="2.2976613044738770e-01" nType="0">
            <Node pos="l" depth="3" NCoef="0" IVar="-1" Cut="0.0000000000000000e+00" cType="1" res="1.3173935934901237e-02" rms="3.4032756090164185e-01" purity="1.8775761127471924e-01" nType="-99"/>
            <Node pos="r" depth="3" NCoef="0" IVar="-1" Cut="0.0000000000000000e+00" cType="1" res="-1.8696833401918411e-02" rms="4.1767463088035583e-01" purity="3.3866822719573975e-01" nType="-99"/>
          </Node>
          <Node pos="r" depth="2" NCoef="0" IVar="-1" Cut="0.0000000000000000e+00" cType="1" res="2.9589718207716942e-02" rms="4.0793383121490479e-01" purity="6.4109921455383301e-01" nType="-99"/>
        </Node>
        <Node pos="r" depth="1" NCoef="0" IVar="7" Cut="-4.3812522292137146e-01" cType="1" res="-3.3025792799890041e-03" rms="3.8995659351348877e-01" purity="5.2759975194931030e-01" nType="0">
          <Node pos="l" depth="2" NCoef="0" IVar="8" Cut="4.0001472830772400e-01" cType="1" res="-1.2315555475652218e-02" rms="3.9582648873329163e-01" purity="5.2875834703445435e-01" nType="0">
            <Node pos="l" depth="3" NCoef="0" IVar="-1" Cut="0.0000000000000000e+00" cType="1" res="-1.3798010535538197e-02" rms="3.8874685764312744e-01" purity="5.2988338470458984e-01" nType="-99"/>
            <Node pos="r" depth="3" NCoef="0" IVar="-1" Cut="0.0000000000000000e+00" cType="1" res="4.3224147520959377e-03" rms="4.0975928306579590e-01" purity="5.2637368440628052e-01" nType="-99"/>
          </Node>
          <Node pos="r" depth="2" NCoef="0" IVar="8" Cut="1.9999856948852539e+00" cType="1" res="-5.1674584392458200e-04" rms="3.8808193802833557e-01" purity="5.2724158763885498e-01" nType="0">
            <Node pos="l" depth="3" NCoef="0" IVar="-1" Cut="0.0000000000000000e+00" cType="1" res="5.9530342696234584e-04" rms="3.8968849182128906e-01" purity="5.4074460268020630e-01" nType="-99"/>
            <Node pos="r" depth="3" NCoef="0" IVar="-1" Cut="0.0000000000000000e+00" cType="1" res="-2.4084581062197685e-02" rms="3.4868592023849487e-01" purity="2.2507885098457336e-01" nType="-99"/>
          </Node>
        </Node>
      </Node>
    </BinaryTree>
    <BinaryTree type="DecisionTree" boostWeight="1.0000000000000000e+00" itree="247">
      <Node pos="s" depth="0" NCoef="0" IVar="8" Cut="1.4666552543640137e+00" cType="1" res="4.1801449842751026e-03" rms="3.8925167918205261e-01" purity="5.0422567129135132e-01" nType="0">
        <Node pos="l" depth="1" NCoef="0" IVar="8" Cut="4.5077979564666748e-01" cType="1" res="5.7075428776443005e-03" rms="3.9127677679061890e-01" purity="5.2539938688278198e-01" nType="0">
          <Node pos="l" depth="2" NCoef="0" IVar="7" Cut="6.6648030281066895e-01" cType="1" res="1.0281947907060385e-03" rms="3.9028516411781311e-01" purity="5.2217113971710205e-01" nType="0">
            <Node pos="l" depth="3" NCoef="0" IVar="-1" Cut="0.0000000000000000e+00" cType="1" res="-1.0796731803566217e-03" rms="3.9091658592224121e-01" purity="5.4691964387893677e-01" nType="-99"/>
            <Node pos="r" depth="3" NCoef="0" IVar="-1" Cut="0.0000000000000000e+00" cType="1" res="6.0778148472309113e-03" rms="3.8819962739944458e-01" purity="4.4526565074920654e-01" nType="-99"/>
          </Node>
          <Node pos="r" depth="2" NCoef="0" IVar="9" Cut="-1.4667305946350098e+00" cType="1" res="1.8057938665151596e-02" rms="3.9361491799354553e-01" purity="5.3391975164413452e-01" nType="0">
            <Node pos="l" depth="3" NCoef="0" IVar="-1" Cut="0.0000000000000000e+00" cType="1" res="-8.0351252108812332e-03" rms="3.8325878977775574e-01" purity="4.4255477190017700e-01" nType="-99"/>
            <Node pos="r" depth="3" NCoef="0" IVar="-1" Cut="0.0000000000000000e+00" cType="1" res="1.3918722979724407e-02" rms="3.9463105797767639e-01" purity="5.4436707496643066e-01" nType="-99"/>
          </Node>
        </Node>
        <Node pos="r" depth="1" NCoef="0" IVar="5" Cut="9.2584594726562500e+01" cType="1" res="-9.3192942440509796e-03" rms="3.7059956789016724e-01" purity="3.1708851456642151e-01" nType="0">
          <Node pos="l" depth="2" NCoef="0" IVar="8" Cut="1.7841238975524902e+00" cType="1" res="-2.1340670064091682e-02" rms="3.5308912396430969e-01" purity="2.1705238521099091e-01" nType="0">
            <Node pos="l" depth="3" NCoef="0" IVar="-1" Cut="0.0000000000000000e+00" cType="1" res="-2.8230391442775726e-02" rms="3.6789542436599731e-01" purity="2.4912980198860168e-01" nType="-99"/>
            <Node pos="r" depth="3" NCoef="0" IVar="-1" Cut="0.0000000000000000e+00" cType="1" res="-7.6436325907707214e-03" rms="3.4385049343109131e-01" purity="1.9884739816188812e-01" nType="-99"/>
          </Node>
          <Node pos="r" depth="2" NCoef="0" IVar="-1" Cut="0.0000000000000000e+00" cType="1" res="1.0829270817339420e-02" rms="4.0712299942970276e-01" purity="5.5017548799514771e-01" nType="-99"/>
        </Node>
      </Node>
    </BinaryTree>
    <BinaryTree type="DecisionTree" boostWeight="1.0000000000000000e+00" itree="248">
      <Node pos="s" depth="0" NCoef="0" IVar="6" Cut="1.2025326490402222e+00" cType="1" res="-4.4264784082770348e-03" rms="3.8586777448654175e-01" purity="4.9904218316078186e-01" nType="0">
        <Node pos="l" depth="1" NCoef="0" IVar="4" Cut="9.5694229125976562e+01" cType="1" res="-6.9231740199029446e-03" rms="3.8832372426986694e-01" purity="5.2869886159896851e-01" nType="0">
          <Node pos="l" depth="2" NCoef="0" IVar="5" Cut="5.6516399383544922e+01" cType="1" res="-2.0556628704071045e-02" rms="3.7517964839935303e-01" purity="2.3498964309692383e-01" nType="0">
            <Node pos="l" depth="3" NCoef="0" IVar="-1" Cut="0.0000000000000000e+00" cType="1" res="-1.9450070103630424e-03" rms="3.5571733117103577e-01" purity="1.8783554434776306e-01" nType="-99"/>
            <Node pos="r" depth="3" NCoef="0" IVar="-1" Cut="0.0000000000000000e+00" cType="1" res="-1.8184436485171318e-02" rms="3.8349458575248718e-01" purity="2.5662511587142944e-01" nType="-99"/>
          </Node>
          <Node pos="r" depth="2" NCoef="0" IVar="7" Cut="9.3316882848739624e-01" cType="1" res="-1.9558293279260397e-03" rms="3.9288592338562012e-01" purity="6.3571172952651978e-01" nType="0">
            <Node pos="l" depth="3" NCoef="0" IVar="-1" Cut="0.0000000000000000e+00" cType="1" res="9.7401905804872513e-04" rms="3.9178991317749023e-01" purity="6.6703420877456665e-01" nType="-99"/>
            <Node pos="r" depth="3" NCoef="0" IVar="-1" Cut="0.0000000000000000e+00" cType="1" res="-1.1997231282293797e-02" rms="3.9797991514205933e-01" purity="4.7528180480003357e-01" nType="-99"/>
          </Node>
        </Node>
        <Node pos="r" depth="1" NCoef="0" IVar="2" Cut="3.0579000854492188e+02" cType="1" res="1.6108756884932518e-02" rms="3.6439317464828491e-01" purity="2.5511682033538818e-01" nType="0">
          <Node pos="l" depth="2" NCoef="0" IVar="-1" Cut="0.0000000000000000e+00" cType="1" res="2.4031437933444977e-02" rms="3.7899005413055420e-01" purity="2.5806897878646851e-01" nType="-99"/>
          <Node pos="r" depth="2" NCoef="0" IVar="9" Cut="4.0023091435432434e-01" cType="1" res="4.1956035420298576e-03" rms="3.5124814510345459e-01" purity="2.5264221429824829e-01" nType="0">
            <Node pos="l" depth="3" NCoef="0" IVar="-1" Cut="0.0000000000000000e+00" cType="1" res="1.2563562951982021e-02" rms="3.6492884159088135e-01" purity="2.8233939409255981e-01" nType="-99"/>
            <Node pos="r" depth="3" NCoef="0" IVar="-1" Cut="0.0000000000000000e+00" cType="1" res="-1.0480104945600033e-02" rms="3.3187252283096313e-01" purity="2.1382343769073486e-01" nType="-99"/>
          </Node>
        </Node>
      </Node>
    </BinaryTree>
    <BinaryTree type="DecisionTree" boostWeight="1.0000000000000000e+00" itree="249">
      <Node pos="s" depth="0" NCoef="0" IVar="6" Cut="-1.2745065987110138e-01" cType="1" res="-3.8414257578551769e-03" rms="3.8684523105621338e-01" purity="4.9638313055038452e-01" nType="0">
        <Node pos="l" depth="1" NCoef="0" IVar="5" Cut="7.8846488952636719e+01" cType="1" res="-1.1405556462705135e-02" rms="3.8417732715606689e-01" purity="4.7724995017051697e-01" nType="0">
          <Node pos="l" depth="2" NCoef="0" IVar="6" Cut="-1.0143897533416748e+00" cType="1" res="-1.9475564360618591e-02" rms="3.8141456246376038e-01" purity="2.8825324773788452e-01" nType="0">
            <Node pos="l" depth="3" NCoef="0" IVar="-1" Cut="0.0000000000000000e+00" cType="1" res="-3.0634072609245777e-03" rms="3.3645126223564148e-01" purity="1.7716898024082184e-01" nType="-99"/>
            <Node pos="r" depth="3" NCoef="0" IVar="-1" Cut="0.0000000000000000e+00" cType="1" res="-1.6973935067653656e-02" rms="4.0680384635925293e-01" purity="3.5802739858627319e-01" nType="-99"/>
          </Node>
          <Node pos="r" depth="2" NCoef="0" IVar="2" Cut="4.4972412109375000e+02" cType="1" res="-4.1630752384662628e-03" rms="3.8649654388427734e-01" purity="6.4686626195907593e-01" nType="0">
            <Node pos="l" depth="3" NCoef="0" IVar="-1" Cut="0.0000000000000000e+00" cType="1" res="2.0478062797337770e-03" rms="3.8952252268791199e-01" purity="6.4214849472045898e-01" nType="-99"/>
            <Node pos="r" depth="3" NCoef="0" IVar="-1" Cut="0.0000000000000000e+00" cType="1" res="-1.7608838155865669e-02" rms="3.7658712267875671e-01" purity="6.6080707311630249e-01" nType="-99"/>
          </Node>
        </Node>
        <Node pos="r" depth="1" NCoef="0" IVar="4" Cut="9.4417716979980469e+01" cType="1" res="2.1798999514430761e-03" rms="3.8885074853897095e-01" purity="5.1161384582519531e-01" nType="0">
          <Node pos="l" depth="2" NCoef="0" IVar="3" Cut="2.1444999694824219e+02" cType="1" res="1.3317935168743134e-02" rms="3.8347148895263672e-01" purity="2.5052288174629211e-01" nType="0">
            <Node pos="l" depth="3" NCoef="0" IVar="-1" Cut="0.0000000000000000e+00" cType="1" res="1.6756866127252579e-02" rms="3.7964013218879700e-01" purity="2.3167641460895538e-01" nType="-99"/>
            <Node pos="r" depth="3" NCoef="0" IVar="-1" Cut="0.0000000000000000e+00" cType="1" res="-1.8548423424363136e-02" rms="3.9867708086967468e-01" purity="3.4299185872077942e-01" nType="-99"/>
          </Node>
          <Node pos="r" depth="2" NCoef="0" IVar="6" Cut="1.5452761650085449e+00" cType="1" res="-1.9259344553574920e-03" rms="3.9073494076728821e-01" purity="6.0786026716232300e-01" nType="0">
            <Node pos="l" depth="3" NCoef="0" IVar="-1" Cut="0.0000000000000000e+00" cType="1" res="5.4466893197968602e-04" rms="3.9497622847557068e-01" purity="6.4623999595642090e-01" nType="-99"/>
            <Node pos="r" depth="3" NCoef="0" IVar="-1" Cut="0.0000000000000000e+00" cType="1" res="-2.3351060226559639e-02" rms="3.4264636039733887e-01" purity="2.1204924583435059e-01" nType="-99"/>
          </Node>
        </Node>
      </Node>
    </BinaryTree>
    <BinaryTree type="DecisionTree" boostWeight="1.0000000000000000e+00" itree="250">
      <Node pos="s" depth="0" NCoef="0" IVar="7" Cut="-9.3331074714660645e-01" cType="1" res="1.4468150911852717e-03" rms="3.8788899779319763e-01" purity="5.0147503614425659e-01" nType="0">
        <Node pos="l" depth="1" NCoef="0" IVar="5" Cut="7.5174827575683594e+01" cType="1" res="1.2088644318282604e-02" rms="3.8531205058097839e-01" purity="3.7551149725914001e-01" nType="0">
          <Node pos="l" depth="2" NCoef="0" IVar="6" Cut="-8.3786182105541229e-02" cType="1" res="-6.7326362477615476e-04" rms="3.4836632013320923e-01" purity="2.0849436521530151e-01" nType="0">
            <Node pos="l" depth="3" NCoef="0" IVar="-1" Cut="0.0000000000000000e+00" cType="1" res="-1.1240089312195778e-02" rms="3.4178957343101501e-01" purity="1.9590912759304047e-01" nType="-99"/>
            <Node pos="r" depth="3" NCoef="0" IVar="-1" Cut="0.0000000000000000e+00" cType="1" res="1.0720741935074329e-02" rms="3.5443961620330811e-01" purity="2.2143410146236420e-01" nType="-99"/>
          </Node>
          <Node pos="r" depth="2" NCoef="0" IVar="5" Cut="9.9150978088378906e+01" cType="1" res="2.3827256634831429e-02" rms="4.1606560349464417e-01" purity="5.2913659811019897e-01" nType="0">
            <Node pos="l" depth="3" NCoef="0" IVar="-1" Cut="0.0000000000000000e+00" cType="1" res="2.7155907824635506e-02" rms="4.2631256580352783e-01" purity="4.3680372834205627e-01" nType="-99"/>
            <Node pos="r" depth="3" NCoef="0" IVar="-1" Cut="0.0000000000000000e+00" cType="1" res="2.6786273811012506e-03" rms="4.0588539838790894e-01" purity="6.0997551679611206e-01" nType="-99"/>
          </Node>
        </Node>
        <Node pos="r" depth="1" NCoef="0" IVar="7" Cut="8.4437793493270874e-01" cType="1" res="-1.1432882165536284e-03" rms="3.8846951723098755e-01" purity="5.3213310241699219e-01" nType="0">
          <Node pos="l" depth="2" NCoef="0" IVar="3" Cut="1.4697593688964844e+02" cType="1" res="-5.9244483709335327e-03" rms="3.9073526859283447e-01" purity="5.8702903985977173e-01" nType="0">
            <Node pos="l" depth="3" NCoef="0" IVar="-1" Cut="0.0000000000000000e+00" cType="1" res="-1.4608630910515785e-02" rms="3.9485317468643188e-01" purity="2.7050653100013733e-01" nType="-99"/>
            <Node pos="r" depth="3" NCoef="0" IVar="-1" Cut="0.0000000000000000e+00" cType="1" res="-8.2181754987686872e-04" rms="3.8951456546783447e-01" purity="6.6996294260025024e-01" nType="-99"/>
          </Node>
          <Node pos="r" depth="2" NCoef="0" IVar="1" Cut="1.3357877197265625e+03" cType="1" res="1.1695704422891140e-02" rms="3.8202279806137085e-01" purity="3.8471949100494385e-01" nType="0">
            <Node pos="l" depth="3" NCoef="0" IVar="-1" Cut="0.0000000000000000e+00" cType="1" res="1.2955635320395231e-03" rms="3.7280508875846863e-01" purity="2.5537094473838806e-01" nType="-99"/>
            <Node pos="r" depth="3" NCoef="0" IVar="-1" Cut="0.0000000000000000e+00" cType="1" res="1.8773809075355530e-02" rms="3.9770615100860596e-01" purity="6.2143921852111816e-01" nType="-99"/>
          </Node>
        </Node>
      </Node>
    </BinaryTree>
    <BinaryTree type="DecisionTree" boostWeight="1.0000000000000000e+00" itree="251">
      <Node pos="s" depth="0" NCoef="0" IVar="9" Cut="2.2666449546813965e+00" cType="1" res="-1.5739809023216367e-03" rms="3.8834139704704285e-01" purity="4.9855312705039978e-01" nType="0">
        <Node pos="l" depth="1" NCoef="0" IVar="8" Cut="-1.9999984502792358e+00" cType="1" res="-2.6784406509250402e-03" rms="3.8839897513389587e-01" purity="5.0295400619506836e-01" nType="0">
          <Node pos="l" depth="2" NCoef="0" IVar="-1" Cut="0.0000000000000000e+00" cType="1" res="-2.4181105196475983e-02" rms="3.3593112230300903e-01" purity="2.0655393600463867e-01" nType="-99"/>
          <Node pos="r" depth="2" NCoef="0" IVar="8" Cut="-1.5428544282913208e+00" cType="1" res="-1.5860626008361578e-03" rms="3.9034819602966309e-01" purity="5.1503050327301025e-01" nType="0">
            <Node pos="l" depth="3" NCoef="0" IVar="-1" Cut="0.0000000000000000e+00" cType="1" res="1.2680390849709511e-02" rms="3.9520293474197388e-01" purity="3.8524270057678223e-01" nType="-99"/>
            <Node pos="r" depth="3" NCoef="0" IVar="-1" Cut="0.0000000000000000e+00" cType="1" res="-1.8376953667029738e-03" rms="3.9002287387847900e-01" purity="5.2276772260665894e-01" nType="-99"/>
          </Node>
        </Node>
        <Node pos="r" depth="1" NCoef="0" IVar="-1" Cut="0.0000000000000000e+00" cType="1" res="2.1084785461425781e-02" rms="3.8526025414466858e-01" purity="3.6995083093643188e-01" nType="-99"/>
      </Node>
    </BinaryTree>
    <BinaryTree type="DecisionTree" boostWeight="1.0000000000000000e+00" itree="252">
      <Node pos="s" depth="0" NCoef="0" IVar="9" Cut="-1.1999696493148804e+00" cType="1" res="-1.4550811611115932e-03" rms="3.8672038912773132e-01" purity="4.9494859576225281e-01" nType="0">
        <Node pos="l" depth="1" NCoef="0" IVar="6" Cut="-1.1827945709228516e+00" cType="1" res="-1.2136058881878853e-02" rms="3.7551170587539673e-01" purity="4.0490102767944336e-01" nType="0">
          <Node pos="l" depth="2" NCoef="0" IVar="-1" Cut="0.0000000000000000e+00" cType="1" res="-3.6365147680044174e-02" rms="2.9486772418022156e-01" purity="1.4953970909118652e-01" nType="-99"/>
          <Node pos="r" depth="2" NCoef="0" IVar="9" Cut="-1.6571274995803833e+00" cType="1" res="-7.2359470650553703e-03" rms="3.8777753710746765e-01" purity="4.4988134503364563e-01" nType="0">
            <Node pos="l" depth="3" NCoef="0" IVar="-1" Cut="0.0000000000000000e+00" cType="1" res="3.2017845660448074e-03" rms="3.8667839765548706e-01" purity="4.1825321316719055e-01" nType="-99"/>
            <Node pos="r" depth="3" NCoef="0" IVar="-1" Cut="0.0000000000000000e+00" cType="1" res="-1.4004169031977654e-02" rms="3.8859388232231140e-01" purity="4.8851948976516724e-01" nType="-99"/>
          </Node>
        </Node>
        <Node pos="r" depth="1" NCoef="0" IVar="6" Cut="-1.1917487382888794e+00" cType="1" res="7.3762401007115841e-04" rms="3.8894519209861755e-01" purity="5.1343452930450439e-01" nType="0">
          <Node pos="l" depth="2" NCoef="0" IVar="1" Cut="1.2414799804687500e+03" cType="1" res="1.7846044152975082e-02" rms="3.7240859866142273e-01" purity="3.0465507507324219e-01" nType="0">
            <Node pos="l" depth="3" NCoef="0" IVar="-1" Cut="0.0000000000000000e+00" cType="1" res="2.8324060142040253e-02" rms="3.5874077677726746e-01" purity="2.0945778489112854e-01" nType="-99"/>
            <Node pos="r" depth="3" NCoef="0" IVar="-1" Cut="0.0000000000000000e+00" cType="1" res="-4.2812605388462543e-03" rms="3.9182692766189575e-01" purity="4.5579710602760315e-01" nType="-99"/>
          </Node>
          <Node pos="r" depth="2" NCoef="0" IVar="9" Cut="2.2285726070404053e+00" cType="1" res="-1.2505950871855021e-03" rms="3.9077299833297729e-01" purity="5.3769743442535400e-01" nType="0">
            <Node pos="l" depth="3" NCoef="0" IVar="-1" Cut="0.0000000000000000e+00" cType="1" res="-4.6396733523579314e-05" rms="3.9144700765609741e-01" purity="5.4635131359100342e-01" nType="-99"/>
            <Node pos="r" depth="3" NCoef="0" IVar="-1" Cut="0.0000000000000000e+00" cType="1" res="-1.9232762977480888e-02" rms="3.7361821532249451e-01" purity="3.3544808626174927e-01" nType="-99"/>
          </Node>
        </Node>
      </Node>
    </BinaryTree>
    <BinaryTree type="DecisionTree" boostWeight="1.0000000000000000e+00" itree="253">
      <Node pos="s" depth="0" NCoef="0" IVar="8" Cut="-1.4666684865951538e+00" cType="1" res="3.2418898772448301e-03" rms="3.8985884189605713e-01" purity="4.9931898713111877e-01" nType="0">
        <Node pos="l" depth="1" NCoef="0" IVar="7" Cut="1.3264761865139008e-01" cType="1" res="2.0736554637551308e-02" rms="3.8029205799102783e-01" purity="3.4161400794982910e-01" nType="0">
          <Node pos="l" depth="2" NCoef="0" IVar="7" Cut="-9.8454910516738892e-01" cType="1" res="2.7008987963199615e-03" rms="3.6648115515708923e-01" purity="3.1613433361053467e-01" nType="0">
            <Node pos="l" depth="3" NCoef="0" IVar="-1" Cut="0.0000000000000000e+00" cType="1" res="-1.8398523330688477e-02" rms="3.1453883647918701e-01" purity="1.7407967150211334e-01" nType="-99"/>
            <Node pos="r" depth="3" NCoef="0" IVar="-1" Cut="0.0000000000000000e+00" cType="1" res="1.1893796734511852e-02" rms="3.9858031272888184e-01" purity="4.1725906729698181e-01" nType="-99"/>
          </Node>
          <Node pos="r" depth="2" NCoef="0" IVar="-1" Cut="0.0000000000000000e+00" cType="1" res="3.2676640897989273e-02" rms="3.9797541499137878e-01" purity="3.7845593690872192e-01" nType="-99"/>
        </Node>
        <Node pos="r" depth="1" NCoef="0" IVar="8" Cut="-1.0602871179580688e+00" cType="1" res="1.1371735017746687e-03" rms="3.9094126224517822e-01" purity="5.1829195022583008e-01" nType="0">
          <Node pos="l" depth="2" NCoef="0" IVar="8" Cut="-1.2344375848770142e+00" cType="1" res="-1.3505543582141399e-02" rms="3.8894715905189514e-01" purity="4.5417988300323486e-01" nType="0">
            <Node pos="l" depth="3" NCoef="0" IVar="-1" Cut="0.0000000000000000e+00" cType="1" res="-1.0294575477018952e-03" rms="4.0350854396820068e-01" purity="4.3530508875846863e-01" nType="-99"/>
            <Node pos="r" depth="3" NCoef="0" IVar="-1" Cut="0.0000000000000000e+00" cType="1" res="-1.7061127349734306e-02" rms="3.7299585342407227e-01" purity="4.7357714176177979e-01" nType="-99"/>
          </Node>
          <Node pos="r" depth="2" NCoef="0" IVar="9" Cut="-1.4666579961776733e+00" cType="1" res="2.5539158377796412e-03" rms="3.9110457897186279e-01" purity="5.2449500560760498e-01" nType="0">
            <Node pos="l" depth="3" NCoef="0" IVar="-1" Cut="0.0000000000000000e+00" cType="1" res="-7.1767643094062805e-03" rms="3.8974148035049438e-01" purity="4.2084929347038269e-01" nType="-99"/>
            <Node pos="r" depth="3" NCoef="0" IVar="-1" Cut="0.0000000000000000e+00" cType="1" res="2.7889737393707037e-03" rms="3.9124178886413574e-01" purity="5.3747862577438354e-01" nType="-99"/>
          </Node>
        </Node>
      </Node>
    </BinaryTree>
    <BinaryTree type="DecisionTree" boostWeight="1.0000000000000000e+00" itree="254">
      <Node pos="s" depth="0" NCoef="0" IVar="7" Cut="1.7331974506378174e+00" cType="1" res="-2.5404808111488819e-03" rms="3.8489711284637451e-01" purity="4.9840468168258667e-01" nType="0">
        <Node pos="l" depth="1" NCoef="0" IVar="2" Cut="6.0637084960937500e+02" cType="1" res="-8.1970926839858294e-04" rms="3.8851079344749451e-01" purity="5.1801568269729614e-01" nType="0">
          <Node pos="l" depth="2" NCoef="0" IVar="9" Cut="6.6676723957061768e-01" cType="1" res="-2.6812362484633923e-03" rms="3.8735496997833252e-01" purity="5.1137387752532959e-01" nType="0">
            <Node pos="l" depth="3" NCoef="0" IVar="-1" Cut="0.0000000000000000e+00" cType="1" res="-4.9507655203342438e-03" rms="3.8498866558074951e-01" purity="5.2003240585327148e-01" nType="-99"/>
            <Node pos="r" depth="3" NCoef="0" IVar="-1" Cut="0.0000000000000000e+00" cType="1" res="5.5711069144308567e-03" rms="3.9261215925216675e-01" purity="4.9108597636222839e-01" nType="-99"/>
          </Node>
          <Node pos="r" depth="2" NCoef="0" IVar="7" Cut="-2.0930419862270355e-01" cType="1" res="2.0465582609176636e-02" rms="4.0087628364562988e-01" purity="5.9395980834960938e-01" nType="0">
            <Node pos="l" depth="3" NCoef="0" IVar="-1" Cut="0.0000000000000000e+00" cType="1" res="-9.4925882294774055e-03" rms="3.9852696657180786e-01" purity="5.2140659093856812e-01" nType="-99"/>
            <Node pos="r" depth="3" NCoef="0" IVar="-1" Cut="0.0000000000000000e+00" cType="1" res="2.6625208556652069e-02" rms="4.0057328343391418e-01" purity="6.4363873004913330e-01" nType="-99"/>
          </Node>
        </Node>
        <Node pos="r" depth="1" NCoef="0" IVar="9" Cut="1.3331982493400574e-01" cType="1" res="-3.0880887061357498e-02" rms="3.1821972131729126e-01" purity="1.7541953921318054e-01" nType="0">
          <Node pos="l" depth="2" NCoef="0" IVar="-1" Cut="0.0000000000000000e+00" cType="1" res="-6.5774237737059593e-04" rms="3.4590914845466614e-01" purity="2.2164581716060638e-01" nType="-99"/>
          <Node pos="r" depth="2" NCoef="0" IVar="-1" Cut="0.0000000000000000e+00" cType="1" res="-5.1685579121112823e-02" rms="2.8795737028121948e-01" purity="1.3327069580554962e-01" nType="-99"/>
        </Node>
      </Node>
    </BinaryTree>
    <BinaryTree type="DecisionTree" boostWeight="1.0000000000000000e+00" itree="255">
      <Node pos="s" depth="0" NCoef="0" IVar="6" Cut="-6.3663411140441895e-01" cType="1" res="2.6433637831360102e-03" rms="3.8877850770950317e-01" purity="5.0198650360107422e-01" nType="0">
        <Node pos="l" depth="1" NCoef="0" IVar="1" Cut="1.0503260498046875e+03" cType="1" res="1.6875838860869408e-02" rms="3.8814106583595276e-01" purity="4.1020509600639343e-01" nType="0">
          <Node pos="l" depth="2" NCoef="0" IVar="6" Cut="-1.2408329248428345e+00" cType="1" res="2.8541864594444633e-04" rms="3.2851794362068176e-01" purity="1.5455102920532227e-01" nType="0">
            <Node pos="l" depth="3" NCoef="0" IVar="-1" Cut="0.0000000000000000e+00" cType="1" res="-1.4938037842512131e-02" rms="2.6975426077842712e-01" purity="8.4610641002655029e-02" nType="-99"/>
            <Node pos="r" depth="3" NCoef="0" IVar="-1" Cut="0.0000000000000000e+00" cType="1" res="8.0230124294757843e-03" rms="3.7404996156692505e-01" purity="2.1870049834251404e-01" nType="-99"/>
          </Node>
          <Node pos="r" depth="2" NCoef="0" IVar="4" Cut="1.0576609039306641e+02" cType="1" res="2.3474836722016335e-02" rms="4.0926337242126465e-01" purity="5.1189392805099487e-01" nType="0">
            <Node pos="l" depth="3" NCoef="0" IVar="-1" Cut="0.0000000000000000e+00" cType="1" res="2.8003089129924774e-02" rms="4.1081726551055908e-01" purity="3.3089438080787659e-01" nType="-99"/>
            <Node pos="r" depth="3" NCoef="0" IVar="-1" Cut="0.0000000000000000e+00" cType="1" res="9.6112769097089767e-03" rms="4.0845361351966858e-01" purity="5.7762157917022705e-01" nType="-99"/>
          </Node>
        </Node>
        <Node pos="r" depth="1" NCoef="0" IVar="9" Cut="4.0000125765800476e-01" cType="1" res="-2.2555456962436438e-03" rms="3.8887718319892883e-01" purity="5.3357827663421631e-01" nType="0">
          <Node pos="l" depth="2" NCoef="0" IVar="6" Cut="1.6542556285858154e+00" cType="1" res="2.9895578045397997e-03" rms="3.9069300889968872e-01" purity="5.5607968568801880e-01" nType="0">
            <Node pos="l" depth="3" NCoef="0" IVar="-1" Cut="0.0000000000000000e+00" cType="1" res="6.7849608603864908e-04" rms="3.9276576042175293e-01" purity="5.7631915807723999e-01" nType="-99"/>
            <Node pos="r" depth="3" NCoef="0" IVar="-1" Cut="0.0000000000000000e+00" cType="1" res="2.7383249253034592e-02" rms="3.5570773482322693e-01" purity="2.4258393049240112e-01" nType="-99"/>
          </Node>
          <Node pos="r" depth="2" NCoef="0" IVar="6" Cut="1.7860582098364830e-02" cType="1" res="-1.0229840874671936e-02" rms="3.8596364855766296e-01" purity="4.9936857819557190e-01" nType="0">
            <Node pos="l" depth="3" NCoef="0" IVar="-1" Cut="0.0000000000000000e+00" cType="1" res="4.0055541321635246e-03" rms="4.0055799484252930e-01" purity="6.0338568687438965e-01" nType="-99"/>
            <Node pos="r" depth="3" NCoef="0" IVar="-1" Cut="0.0000000000000000e+00" cType="1" res="-1.1569248512387276e-02" rms="3.7946903705596924e-01" purity="4.5580282807350159e-01" nType="-99"/>
          </Node>
        </Node>
      </Node>
    </BinaryTree>
    <BinaryTree type="DecisionTree" boostWeight="1.0000000000000000e+00" itree="256">
      <Node pos="s" depth="0" NCoef="0" IVar="2" Cut="3.3999197387695312e+02" cType="1" res="-2.2465740330517292e-03" rms="3.8890215754508972e-01" purity="4.9424499273300171e-01" nType="0">
        <Node pos="l" depth="1" NCoef="0" IVar="2" Cut="2.2666552734375000e+02" cType="1" res="4.3413410894572735e-03" rms="3.9744400978088379e-01" purity="4.5990177989006042e-01" nType="0">
          <Node pos="l" depth="2" NCoef="0" IVar="8" Cut="1.3350033760070801e-01" cType="1" res="-1.4012842439115047e-02" rms="4.0747824311256409e-01" purity="3.7321129441261292e-01" nType="0">
            <Node pos="l" depth="3" NCoef="0" IVar="-1" Cut="0.0000000000000000e+00" cType="1" res="-1.7472713952884078e-03" rms="4.0680193901062012e-01" purity="3.9907619357109070e-01" nType="-99"/>
            <Node pos="r" depth="3" NCoef="0" IVar="-1" Cut="0.0000000000000000e+00" cType="1" res="-1.6235725954174995e-02" rms="4.0788346529006958e-01" purity="3.4264922142028809e-01" nType="-99"/>
          </Node>
          <Node pos="r" depth="2" NCoef="0" IVar="9" Cut="1.7333378791809082e+00" cType="1" res="7.9369628801941872e-03" rms="3.9534866809844971e-01" purity="4.7688466310501099e-01" nType="0">
            <Node pos="l" depth="3" NCoef="0" IVar="-1" Cut="0.0000000000000000e+00" cType="1" res="3.3685113303363323e-03" rms="3.9469173550605774e-01" purity="4.8603284358978271e-01" nType="-99"/>
            <Node pos="r" depth="3" NCoef="0" IVar="-1" Cut="0.0000000000000000e+00" cType="1" res="2.2425955161452293e-02" rms="4.0070939064025879e-01" purity="3.8843551278114319e-01" nType="-99"/>
          </Node>
        </Node>
        <Node pos="r" depth="1" NCoef="0" IVar="6" Cut="-5.9515833854675293e-01" cType="1" res="-8.6327316239476204e-03" rms="3.8032996654510498e-01" purity="5.2753651142120361e-01" nType="0">
          <Node pos="l" depth="2" NCoef="0" IVar="7" Cut="-3.9950963854789734e-01" cType="1" res="-2.3457678034901619e-02" rms="3.7526482343673706e-01" purity="4.0369629859924316e-01" nType="0">
            <Node pos="l" depth="3" NCoef="0" IVar="-1" Cut="0.0000000000000000e+00" cType="1" res="-4.4254455715417862e-03" rms="3.7111139297485352e-01" purity="3.9825171232223511e-01" nType="-99"/>
            <Node pos="r" depth="3" NCoef="0" IVar="-1" Cut="0.0000000000000000e+00" cType="1" res="-2.3538714274764061e-02" rms="3.7742543220520020e-01" purity="4.0704300999641418e-01" nType="-99"/>
          </Node>
          <Node pos="r" depth="2" NCoef="0" IVar="6" Cut="6.9774651527404785e-01" cType="1" res="-3.7736739031970501e-03" rms="3.8185030221939087e-01" purity="5.6812661886215210e-01" nType="0">
            <Node pos="l" depth="3" NCoef="0" IVar="-1" Cut="0.0000000000000000e+00" cType="1" res="6.1553547857329249e-04" rms="3.8873410224914551e-01" purity="6.4307337999343872e-01" nType="-99"/>
            <Node pos="r" depth="3" NCoef="0" IVar="-1" Cut="0.0000000000000000e+00" cType="1" res="-1.1738979257643223e-02" rms="3.6299917101860046e-01" purity="3.7267059087753296e-01" nType="-99"/>
          </Node>
        </Node>
      </Node>
    </BinaryTree>
    <BinaryTree type="DecisionTree" boostWeight="1.0000000000000000e+00" itree="257">
      <Node pos="s" depth="0" NCoef="0" IVar="6" Cut="1.4693398475646973e+00" cType="1" res="2.2182760294526815e-03" rms="3.9005142450332642e-01" purity="4.9834191799163818e-01" nType="0">
        <Node pos="l" depth="1" NCoef="0" IVar="8" Cut="1.4666540622711182e+00" cType="1" res="7.3391542537137866e-04" rms="3.9312842488288879e-01" purity="5.1925945281982422e-01" nType="0">
          <Node pos="l" depth="2" NCoef="0" IVar="1" Cut="1.7600855712890625e+03" cType="1" res="-1.0268088662996888e-03" rms="3.9309653639793396e-01" purity="5.3689062595367432e-01" nType="0">
            <Node pos="l" depth="3" NCoef="0" IVar="-1" Cut="0.0000000000000000e+00" cType="1" res="-1.8398249521851540e-03" rms="4.0075978636741638e-01" purity="4.9201926589012146e-01" nType="-99"/>
            <Node pos="r" depth="3" NCoef="0" IVar="-1" Cut="0.0000000000000000e+00" cType="1" res="9.1965990141034126e-03" rms="3.4144097566604614e-01" purity="8.1552094221115112e-01" nType="-99"/>
          </Node>
          <Node pos="r" depth="2" NCoef="0" IVar="0" Cut="4.2253424072265625e+02" cType="1" res="1.6304451972246170e-02" rms="3.9306706190109253e-01" purity="3.6334267258644104e-01" nType="0">
            <Node pos="l" depth="3" NCoef="0" IVar="-1" Cut="0.0000000000000000e+00" cType="1" res="1.9770927727222443e-02" rms="3.8390073180198669e-01" purity="2.4468170106410980e-01" nType="-99"/>
            <Node pos="r" depth="3" NCoef="0" IVar="-1" Cut="0.0000000000000000e+00" cType="1" res="1.3310392387211323e-03" rms="4.0499171614646912e-01" purity="5.2744114398956299e-01" nType="-99"/>
          </Node>
        </Node>
        <Node pos="r" depth="1" NCoef="0" IVar="9" Cut="1.3340279459953308e-01" cType="1" res="2.1882139146327972e-02" rms="3.4612169861793518e-01" purity="2.2123956680297852e-01" nType="0">
          <Node pos="l" depth="2" NCoef="0" IVar="-1" Cut="0.0000000000000000e+00" cType="1" res="4.2749810963869095e-02" rms="3.8197496533393860e-01" purity="2.7024030685424805e-01" nType="-99"/>
          <Node pos="r" depth="2" NCoef="0" IVar="-1" Cut="0.0000000000000000e+00" cType="1" res="-6.3259918242692947e-03" rms="3.0651369690895081e-01" purity="1.7584387958049774e-01" nType="-99"/>
        </Node>
      </Node>
    </BinaryTree>
    <BinaryTree type="DecisionTree" boostWeight="1.0000000000000000e+00" itree="258">
      <Node pos="s" depth="0" NCoef="0" IVar="8" Cut="-1.9999928474426270e+00" cType="1" res="1.2968870578333735e-03" rms="3.8802018761634827e-01" purity="5.0120872259140015e-01" nType="0">
        <Node pos="l" depth="1" NCoef="0" IVar="-1" Cut="0.0000000000000000e+00" cType="1" res="2.9525909572839737e-02" rms="3.7283027172088623e-01" purity="2.6849412918090820e-01" nType="-99"/>
        <Node pos="r" depth="1" NCoef="0" IVar="6" Cut="1.2031019926071167e+00" cType="1" res="-2.7187442174181342e-04" rms="3.8861218094825745e-01" purity="5.1162320375442505e-01" nType="0">
          <Node pos="l" depth="2" NCoef="0" IVar="9" Cut="6.6675674915313721e-01" cType="1" res="1.6832095570862293e-03" rms="3.9395239949226379e-01" purity="5.4480832815170288e-01" nType="0">
            <Node pos="l" depth="3" NCoef="0" IVar="-1" Cut="0.0000000000000000e+00" cType="1" res="3.0075625982135534e-03" rms="3.9439591765403748e-01" purity="5.5941939353942871e-01" nType="-99"/>
            <Node pos="r" depth="3" NCoef="0" IVar="-1" Cut="0.0000000000000000e+00" cType="1" res="-3.5437329206615686e-03" rms="3.9276933670043945e-01" purity="5.0904709100723267e-01" nType="-99"/>
          </Node>
          <Node pos="r" depth="2" NCoef="0" IVar="1" Cut="1.0224607543945312e+03" cType="1" res="-1.6992483288049698e-02" rms="3.3906653523445129e-01" purity="2.2781209647655487e-01" nType="0">
            <Node pos="l" depth="3" NCoef="0" IVar="-1" Cut="0.0000000000000000e+00" cType="1" res="7.3904637247323990e-03" rms="2.8478226065635681e-01" purity="1.0826040804386139e-01" nType="-99"/>
            <Node pos="r" depth="3" NCoef="0" IVar="-1" Cut="0.0000000000000000e+00" cType="1" res="-1.9630266353487968e-02" rms="3.6199137568473816e-01" purity="2.8591439127922058e-01" nType="-99"/>
          </Node>
        </Node>
      </Node>
    </BinaryTree>
    <BinaryTree type="DecisionTree" boostWeight="1.0000000000000000e+00" itree="259">
      <Node pos="s" depth="0" NCoef="0" IVar="7" Cut="1.1999464035034180e+00" cType="1" res="3.1461073085665703e-03" rms="3.8677543401718140e-01" purity="5.0532895326614380e-01" nType="0">
        <Node pos="l" depth="1" NCoef="0" IVar="6" Cut="1.2031272649765015e+00" cType="1" res="4.9858205020427704e-03" rms="3.9053761959075928e-01" purity="5.3806704282760620e-01" nType="0">
          <Node pos="l" depth="2" NCoef="0" IVar="6" Cut="-8.8778418302536011e-01" cType="1" res="3.2729650847613811e-03" rms="3.9301949739456177e-01" purity="5.6565588712692261e-01" nType="0">
            <Node pos="l" depth="3" NCoef="0" IVar="-1" Cut="0.0000000000000000e+00" cType="1" res="-4.6081640757620335e-03" rms="3.8327372074127197e-01" purity="3.5186576843261719e-01" nType="-99"/>
            <Node pos="r" depth="3" NCoef="0" IVar="-1" Cut="0.0000000000000000e+00" cType="1" res="3.5940266679972410e-03" rms="3.9527601003646851e-01" purity="6.1678022146224976e-01" nType="-99"/>
          </Node>
          <Node pos="r" depth="2" NCoef="0" IVar="7" Cut="2.4762254953384399e-01" cType="1" res="1.9606025889515877e-02" rms="3.6835005879402161e-01" purity="3.0258056521415710e-01" nType="0">
            <Node pos="l" depth="3" NCoef="0" IVar="-1" Cut="0.0000000000000000e+00" cType="1" res="2.1383142098784447e-02" rms="3.7223318219184875e-01" purity="2.9304540157318115e-01" nType="-99"/>
            <Node pos="r" depth="3" NCoef="0" IVar="-1" Cut="0.0000000000000000e+00" cType="1" res="2.1421404089778662e-03" rms="3.5992822051048279e-01" purity="3.2154724001884460e-01" nType="-99"/>
          </Node>
        </Node>
        <Node pos="r" depth="1" NCoef="0" IVar="9" Cut="-3.9997974038124084e-01" cType="1" res="-9.1424267739057541e-03" rms="3.6039963364601135e-01" purity="2.8665158152580261e-01" nType="0">
          <Node pos="l" depth="2" NCoef="0" IVar="-1" Cut="0.0000000000000000e+00" cType="1" res="-3.0903648585081100e-02" rms="3.4630233049392700e-01" purity="2.3689039051532745e-01" nType="-99"/>
          <Node pos="r" depth="2" NCoef="0" IVar="6" Cut="7.2048079967498779e-01" cType="1" res="4.1186553426086903e-03" rms="3.6544615030288696e-01" purity="3.0788436532020569e-01" nType="0">
            <Node pos="l" depth="3" NCoef="0" IVar="-1" Cut="0.0000000000000000e+00" cType="1" res="1.3043606653809547e-02" rms="3.8898572325706482e-01" purity="3.7042042613029480e-01" nType="-99"/>
            <Node pos="r" depth="3" NCoef="0" IVar="-1" Cut="0.0000000000000000e+00" cType="1" res="-2.9877685010433197e-02" rms="3.0048796534538269e-01" purity="1.6189505159854889e-01" nType="-99"/>
          </Node>
        </Node>
      </Node>
    </BinaryTree>
    <BinaryTree type="DecisionTree" boostWeight="1.0000000000000000e+00" itree="260">
      <Node pos="s" depth="0" NCoef="0" IVar="6" Cut="-1.2025877088308334e-01" cType="1" res="3.6959836725145578e-03" rms="3.8950365781784058e-01" purity="5.0617289543151855e-01" nType="0">
        <Node pos="l" depth="1" NCoef="0" IVar="9" Cut="-1.4666359424591064e+00" cType="1" res="9.3998657539486885e-03" rms="3.9173549413681030e-01" purity="4.9996167421340942e-01" nType="0">
          <Node pos="l" depth="2" NCoef="0" IVar="9" Cut="-1.9745789766311646e+00" cType="1" res="2.7743143960833549e-02" rms="3.8442689180374146e-01" purity="4.0668141841888428e-01" nType="0">
            <Node pos="l" depth="3" NCoef="0" IVar="-1" Cut="0.0000000000000000e+00" cType="1" res="4.6021356247365475e-03" rms="3.8483417034149170e-01" purity="3.3618521690368652e-01" nType="-99"/>
            <Node pos="r" depth="3" NCoef="0" IVar="-1" Cut="0.0000000000000000e+00" cType="1" res="2.9564242810010910e-02" rms="3.8331329822540283e-01" purity="4.6113422513008118e-01" nType="-99"/>
          </Node>
          <Node pos="r" depth="2" NCoef="0" IVar="7" Cut="-1.3342478871345520e-01" cType="1" res="6.3679693266749382e-03" rms="3.9284795522689819e-01" purity="5.1537966728210449e-01" nType="0">
            <Node pos="l" depth="3" NCoef="0" IVar="-1" Cut="0.0000000000000000e+00" cType="1" res="-1.3385321944952011e-03" rms="3.9231547713279724e-01" purity="4.9778133630752563e-01" nType="-99"/>
            <Node pos="r" depth="3" NCoef="0" IVar="-1" Cut="0.0000000000000000e+00" cType="1" res="9.2052193358540535e-03" rms="3.9316800236701965e-01" purity="5.3097218275070190e-01" nType="-99"/>
          </Node>
        </Node>
        <Node pos="r" depth="1" NCoef="0" IVar="8" Cut="1.1997413635253906e+00" cType="1" res="-1.0659139370545745e-03" rms="3.8756626844406128e-01" purity="5.1135832071304321e-01" nType="0">
          <Node pos="l" depth="2" NCoef="0" IVar="6" Cut="1.8261656761169434e+00" cType="1" res="-5.8395499363541603e-03" rms="3.8738083839416504e-01" purity="5.3719377517700195e-01" nType="0">
            <Node pos="l" depth="3" NCoef="0" IVar="-1" Cut="0.0000000000000000e+00" cType="1" res="-4.9965027719736099e-03" rms="3.8946965336799622e-01" purity="5.5654615163803101e-01" nType="-99"/>
            <Node pos="r" depth="3" NCoef="0" IVar="-1" Cut="0.0000000000000000e+00" cType="1" res="1.9679313525557518e-02" rms="3.5127517580986023e-01" purity="2.2958664596080780e-01" nType="-99"/>
          </Node>
          <Node pos="r" depth="2" NCoef="0" IVar="5" Cut="9.2585365295410156e+01" cType="1" res="2.2603617981076241e-02" rms="3.8761696219444275e-01" purity="3.8325655460357666e-01" nType="0">
            <Node pos="l" depth="3" NCoef="0" IVar="-1" Cut="0.0000000000000000e+00" cType="1" res="4.7061587683856487e-03" rms="3.7301442027091980e-01" purity="2.6368424296379089e-01" nType="-99"/>
            <Node pos="r" depth="3" NCoef="0" IVar="-1" Cut="0.0000000000000000e+00" cType="1" res="3.4504812210798264e-02" rms="4.1515198349952698e-01" purity="6.4007037878036499e-01" nType="-99"/>
          </Node>
        </Node>
      </Node>
    </BinaryTree>
    <BinaryTree type="DecisionTree" boostWeight="1.0000000000000000e+00" itree="261">
      <Node pos="s" depth="0" NCoef="0" IVar="8" Cut="-1.2000237703323364e+00" cType="1" res="-4.8976298421621323e-03" rms="3.8453543186187744e-01" purity="4.9545329809188843e-01" nType="0">
        <Node pos="l" depth="1" NCoef="0" IVar="5" Cut="1.1558551788330078e+02" cType="1" res="-1.7887547612190247e-02" rms="3.6986193060874939e-01" purity="3.4775531291961670e-01" nType="0">
          <Node pos="l" depth="2" NCoef="0" IVar="5" Cut="7.1861053466796875e+01" cType="1" res="-2.2426608949899673e-02" rms="3.6280578374862671e-01" purity="2.7600947022438049e-01" nType="0">
            <Node pos="l" depth="3" NCoef="0" IVar="-1" Cut="0.0000000000000000e+00" cType="1" res="-6.2170070596039295e-03" rms="3.4134462475776672e-01" purity="2.0588247478008270e-01" nType="-99"/>
            <Node pos="r" depth="3" NCoef="0" IVar="-1" Cut="0.0000000000000000e+00" cType="1" res="-2.5257067754864693e-02" rms="3.8734641671180725e-01" purity="3.6430254578590393e-01" nType="-99"/>
          </Node>
          <Node pos="r" depth="2" NCoef="0" IVar="-1" Cut="0.0000000000000000e+00" cType="1" res="1.7034946940839291e-03" rms="3.9968141913414001e-01" purity="6.7340433597564697e-01" nType="-99"/>
        </Node>
        <Node pos="r" depth="1" NCoef="0" IVar="4" Cut="1.6115397644042969e+02" cType="1" res="-2.6010246947407722e-03" rms="3.8702645897865295e-01" purity="5.2156615257263184e-01" nType="0">
          <Node pos="l" depth="2" NCoef="0" IVar="5" Cut="5.5257171630859375e+01" cType="1" res="-6.3377781771123409e-03" rms="3.9861348271369934e-01" purity="4.1309896111488342e-01" nType="0">
            <Node pos="l" depth="3" NCoef="0" IVar="-1" Cut="0.0000000000000000e+00" cType="1" res="-2.1412650123238564e-02" rms="3.4614145755767822e-01" purity="2.0233795046806335e-01" nType="-99"/>
            <Node pos="r" depth="3" NCoef="0" IVar="-1" Cut="0.0000000000000000e+00" cType="1" res="-1.6472490970045328e-03" rms="4.0610620379447937e-01" purity="4.4613301753997803e-01" nType="-99"/>
          </Node>
          <Node pos="r" depth="2" NCoef="0" IVar="8" Cut="7.0466011762619019e-01" cType="1" res="5.5063022300601006e-03" rms="3.6047604680061340e-01" purity="7.5689840316772461e-01" nType="0">
            <Node pos="l" depth="3" NCoef="0" IVar="-1" Cut="0.0000000000000000e+00" cType="1" res="5.7473525885143317e-06" rms="3.5551121830940247e-01" purity="7.7949136495590210e-01" nType="-99"/>
            <Node pos="r" depth="3" NCoef="0" IVar="-1" Cut="0.0000000000000000e+00" cType="1" res="1.3771584257483482e-02" rms="3.7322637438774109e-01" purity="6.9549936056137085e-01" nType="-99"/>
          </Node>
        </Node>
      </Node>
    </BinaryTree>
    <BinaryTree type="DecisionTree" boostWeight="1.0000000000000000e+00" itree="262">
      <Node pos="s" depth="0" NCoef="0" IVar="8" Cut="1.4665557146072388e+00" cType="1" res="1.8982008332386613e-03" rms="3.9003813266754150e-01" purity="4.9730595946311951e-01" nType="0">
        <Node pos="l" depth="1" NCoef="0" IVar="0" Cut="5.5563165283203125e+02" cType="1" res="3.9181811735033989e-03" rms="3.9205101132392883e-01" purity="5.1954144239425659e-01" nType="0">
          <Node pos="l" depth="2" NCoef="0" IVar="5" Cut="8.5853385925292969e+01" cType="1" res="6.4858719706535339e-03" rms="4.0096586942672729e-01" purity="4.5182228088378906e-01" nType="0">
            <Node pos="l" depth="3" NCoef="0" IVar="-1" Cut="0.0000000000000000e+00" cType="1" res="7.6583088375627995e-03" rms="3.9715486764907837e-01" purity="3.1504032015800476e-01" nType="-99"/>
            <Node pos="r" depth="3" NCoef="0" IVar="-1" Cut="0.0000000000000000e+00" cType="1" res="-6.7820062395185232e-04" rms="4.0599629282951355e-01" purity="6.3886296749114990e-01" nType="-99"/>
          </Node>
          <Node pos="r" depth="2" NCoef="0" IVar="5" Cut="8.5090972900390625e+01" cType="1" res="-6.4392792992293835e-03" rms="3.5362809896469116e-01" purity="7.9270458221435547e-01" nType="0">
            <Node pos="l" depth="3" NCoef="0" IVar="-1" Cut="0.0000000000000000e+00" cType="1" res="-1.5192162245512009e-02" rms="4.2726290225982666e-01" purity="6.3206207752227783e-01" nType="-99"/>
            <Node pos="r" depth="3" NCoef="0" IVar="-1" Cut="0.0000000000000000e+00" cType="1" res="5.3719300776720047e-03" rms="3.0411365628242493e-01" purity="8.8268673419952393e-01" nType="-99"/>
          </Node>
        </Node>
        <Node pos="r" depth="1" NCoef="0" IVar="7" Cut="-1.3279348611831665e-01" cType="1" res="-1.5390321612358093e-02" rms="3.7191709876060486e-01" purity="3.0699798464775085e-01" nType="0">
          <Node pos="l" depth="2" NCoef="0" IVar="-1" Cut="0.0000000000000000e+00" cType="1" res="-2.7794541791081429e-02" rms="3.6541137099266052e-01" purity="2.7202993631362915e-01" nType="-99"/>
          <Node pos="r" depth="2" NCoef="0" IVar="1" Cut="1.2341121826171875e+03" cType="1" res="-5.6317431153729558e-04" rms="3.7506088614463806e-01" purity="3.2834473252296448e-01" nType="0">
            <Node pos="l" depth="3" NCoef="0" IVar="-1" Cut="0.0000000000000000e+00" cType="1" res="-1.0642087087035179e-02" rms="3.5227027535438538e-01" purity="1.8272385001182556e-01" nType="-99"/>
            <Node pos="r" depth="3" NCoef="0" IVar="-1" Cut="0.0000000000000000e+00" cType="1" res="1.0429247282445431e-02" rms="4.0481352806091309e-01" purity="5.3720909357070923e-01" nType="-99"/>
          </Node>
        </Node>
      </Node>
    </BinaryTree>
    <BinaryTree type="DecisionTree" boostWeight="1.0000000000000000e+00" itree="263">
      <Node pos="s" depth="0" NCoef="0" IVar="8" Cut="-1.3333518803119659e-01" cType="1" res="3.9319475181400776e-03" rms="3.8911098241806030e-01" purity="5.0224143266677856e-01" nType="0">
        <Node pos="l" depth="1" NCoef="0" IVar="3" Cut="2.4120411682128906e+02" cType="1" res="-2.2979318164288998e-03" rms="3.8835847377777100e-01" purity="4.8744159936904907e-01" nType="0">
          <Node pos="l" depth="2" NCoef="0" IVar="8" Cut="-6.4128649234771729e-01" cType="1" res="-9.5802508294582367e-03" rms="3.9036503434181213e-01" purity="4.0000399947166443e-01" nType="0">
            <Node pos="l" depth="3" NCoef="0" IVar="-1" Cut="0.0000000000000000e+00" cType="1" res="-1.7462228424847126e-03" rms="3.8190209865570068e-01" purity="3.6484470963478088e-01" nType="-99"/>
            <Node pos="r" depth="3" NCoef="0" IVar="-1" Cut="0.0000000000000000e+00" cType="1" res="-1.4313714578747749e-02" rms="4.0640908479690552e-01" purity="4.7035023570060730e-01" nType="-99"/>
          </Node>
          <Node pos="r" depth="2" NCoef="0" IVar="9" Cut="1.3351261615753174e-01" cType="1" res="1.2781661935150623e-02" rms="3.8373097777366638e-01" purity="6.6849982738494873e-01" nType="0">
            <Node pos="l" depth="3" NCoef="0" IVar="-1" Cut="0.0000000000000000e+00" cType="1" res="8.3420309238135815e-04" rms="3.8866817951202393e-01" purity="6.4761894941329956e-01" nType="-99"/>
            <Node pos="r" depth="3" NCoef="0" IVar="-1" Cut="0.0000000000000000e+00" cType="1" res="1.8702801316976547e-02" rms="3.7660276889801025e-01" purity="6.9595539569854736e-01" nType="-99"/>
          </Node>
        </Node>
        <Node pos="r" depth="1" NCoef="0" IVar="5" Cut="1.1358450317382812e+02" cType="1" res="9.0412925928831100e-03" rms="3.8965272903442383e-01" purity="5.1437926292419434e-01" nType="0">
          <Node pos="l" depth="2" NCoef="0" IVar="2" Cut="3.3679177856445312e+02" cType="1" res="1.3780441135168076e-02" rms="3.9979854226112366e-01" purity="4.3079909682273865e-01" nType="0">
            <Node pos="l" depth="3" NCoef="0" IVar="-1" Cut="0.0000000000000000e+00" cType="1" res="2.9411702416837215e-03" rms="4.0447601675987244e-01" purity="3.9290353655815125e-01" nType="-99"/>
            <Node pos="r" depth="3" NCoef="0" IVar="-1" Cut="0.0000000000000000e+00" cType="1" res="1.4341264031827450e-02" rms="3.9493313431739807e-01" purity="4.6816575527191162e-01" nType="-99"/>
          </Node>
          <Node pos="r" depth="2" NCoef="0" IVar="6" Cut="4.7337868809700012e-01" cType="1" res="-5.9346701018512249e-03" rms="3.5527896881103516e-01" purity="7.7849709987640381e-01" nType="0">
            <Node pos="l" depth="3" NCoef="0" IVar="-1" Cut="0.0000000000000000e+00" cType="1" res="1.1677562724798918e-03" rms="3.4259590506553650e-01" purity="8.0817496776580811e-01" nType="-99"/>
            <Node pos="r" depth="3" NCoef="0" IVar="-1" Cut="0.0000000000000000e+00" cType="1" res="-1.7354313284158707e-02" rms="3.8421911001205444e-01" purity="7.0520657300949097e-01" nType="-99"/>
          </Node>
        </Node>
      </Node>
    </BinaryTree>
    <BinaryTree type="DecisionTree" boostWeight="1.0000000000000000e+00" itree="264">
      <Node pos="s" depth="0" NCoef="0" IVar="8" Cut="-1.4666872024536133e+00" cType="1" res="-1.5835579251870513e-03" rms="3.8510432839393616e-01" purity="4.9930927157402039e-01" nType="0">
        <Node pos="l" depth="1" NCoef="0" IVar="3" Cut="2.0742761230468750e+02" cType="1" res="-1.9656673073768616e-02" rms="3.6031183600425720e-01" purity="3.0209356546401978e-01" nType="0">
          <Node pos="l" depth="2" NCoef="0" IVar="8" Cut="-2.0381197929382324e+00" cType="1" res="-8.6150150746107101e-03" rms="3.4057727456092834e-01" purity="2.2908563911914825e-01" nType="0">
            <Node pos="l" depth="3" NCoef="0" IVar="-1" Cut="0.0000000000000000e+00" cType="1" res="-2.5616029277443886e-02" rms="2.9788029193878174e-01" purity="1.3812297582626343e-01" nType="-99"/>
            <Node pos="r" depth="3" NCoef="0" IVar="-1" Cut="0.0000000000000000e+00" cType="1" res="2.0182584412395954e-03" rms="3.6464887857437134e-01" purity="2.8685468435287476e-01" nType="-99"/>
          </Node>
          <Node pos="r" depth="2" NCoef="0" IVar="-1" Cut="0.0000000000000000e+00" cType="1" res="-2.4481432512402534e-02" rms="3.9164838194847107e-01" purity="4.2955523729324341e-01" nType="-99"/>
        </Node>
        <Node pos="r" depth="1" NCoef="0" IVar="7" Cut="-1.3315115869045258e-01" cType="1" res="4.7667464241385460e-04" rms="3.8777643442153931e-01" purity="5.2179074287414551e-01" nType="0">
          <Node pos="l" depth="2" NCoef="0" IVar="0" Cut="4.1981866455078125e+02" cType="1" res="-5.7537686079740524e-03" rms="3.8862866163253784e-01" purity="5.0998401641845703e-01" nType="0">
            <Node pos="l" depth="3" NCoef="0" IVar="-1" Cut="0.0000000000000000e+00" cType="1" res="-8.9486259967088699e-03" rms="3.9511120319366455e-01" purity="3.3910757303237915e-01" nType="-99"/>
            <Node pos="r" depth="3" NCoef="0" IVar="-1" Cut="0.0000000000000000e+00" cType="1" res="2.0985309965908527e-03" rms="3.8157883286476135e-01" purity="6.8741142749786377e-01" nType="-99"/>
          </Node>
          <Node pos="r" depth="2" NCoef="0" IVar="9" Cut="-6.6666269302368164e-01" cType="1" res="5.4946215823292732e-03" rms="3.8701578974723816e-01" purity="5.3129976987838745e-01" nType="0">
            <Node pos="l" depth="3" NCoef="0" IVar="-1" Cut="0.0000000000000000e+00" cType="1" res="9.5670884475111961e-03" rms="3.8908210396766663e-01" purity="5.3334885835647583e-01" nType="-99"/>
            <Node pos="r" depth="3" NCoef="0" IVar="-1" Cut="0.0000000000000000e+00" cType="1" res="1.3778520515188575e-03" rms="3.8620534539222717e-01" purity="5.3055483102798462e-01" nType="-99"/>
          </Node>
        </Node>
      </Node>
    </BinaryTree>
    <BinaryTree type="DecisionTree" boostWeight="1.0000000000000000e+00" itree="265">
      <Node pos="s" depth="0" NCoef="0" IVar="8" Cut="1.7333188056945801e+00" cType="1" res="5.6797126308083534e-04" rms="3.8638526201248169e-01" purity="5.0026512145996094e-01" nType="0">
        <Node pos="l" depth="1" NCoef="0" IVar="9" Cut="1.3333126902580261e-01" cType="1" res="2.4757334031164646e-03" rms="3.8883817195892334e-01" purity="5.1787543296813965e-01" nType="0">
          <Node pos="l" depth="2" NCoef="0" IVar="9" Cut="-1.4031755924224854e+00" cType="1" res="7.8562423586845398e-03" rms="3.8918623328208923e-01" purity="5.2599900960922241e-01" nType="0">
            <Node pos="l" depth="3" NCoef="0" IVar="-1" Cut="0.0000000000000000e+00" cType="1" res="-2.5339582934975624e-03" rms="3.8812589645385742e-01" purity="3.9903065562248230e-01" nType="-99"/>
            <Node pos="r" depth="3" NCoef="0" IVar="-1" Cut="0.0000000000000000e+00" cType="1" res="7.5516537763178349e-03" rms="3.8944432139396667e-01" purity="5.6548535823822021e-01" nType="-99"/>
          </Node>
          <Node pos="r" depth="2" NCoef="0" IVar="7" Cut="9.3330597877502441e-01" cType="1" res="-4.1775810532271862e-03" rms="3.8830423355102539e-01" purity="5.0783014297485352e-01" nType="0">
            <Node pos="l" depth="3" NCoef="0" IVar="-1" Cut="0.0000000000000000e+00" cType="1" res="-5.4827728308737278e-03" rms="3.8757529854774475e-01" purity="5.4680126905441284e-01" nType="-99"/>
            <Node pos="r" depth="3" NCoef="0" IVar="-1" Cut="0.0000000000000000e+00" cType="1" res="7.5281714089214802e-03" rms="3.9050057530403137e-01" purity="3.6966356635093689e-01" nType="-99"/>
          </Node>
        </Node>
        <Node pos="r" depth="1" NCoef="0" IVar="7" Cut="4.0037727355957031e-01" cType="1" res="-2.5221396237611771e-02" rms="3.5053369402885437e-01" purity="2.6220673322677612e-01" nType="0">
          <Node pos="l" depth="2" NCoef="0" IVar="-1" Cut="0.0000000000000000e+00" cType="1" res="-2.5844631716609001e-02" rms="3.5184210538864136e-01" purity="2.7583530545234680e-01" nType="-99"/>
          <Node pos="r" depth="2" NCoef="0" IVar="-1" Cut="0.0000000000000000e+00" cType="1" res="-7.3363240808248520e-03" rms="3.4818911552429199e-01" purity="2.4464187026023865e-01" nType="-99"/>
        </Node>
      </Node>
    </BinaryTree>
    <BinaryTree type="DecisionTree" boostWeight="1.0000000000000000e+00" itree="266">
      <Node pos="s" depth="0" NCoef="0" IVar="8" Cut="-1.4666719436645508e+00" cType="1" res="6.9679121952503920e-04" rms="3.9043527841567993e-01" purity="4.9731597304344177e-01" nType="0">
        <Node pos="l" depth="1" NCoef="0" IVar="2" Cut="3.1429354858398438e+02" cType="1" res="2.0127354189753532e-02" rms="3.8040155172348022e-01" purity="3.4384864568710327e-01" nType="0">
          <Node pos="l" depth="2" NCoef="0" IVar="-1" Cut="0.0000000000000000e+00" cType="1" res="6.6858832724392414e-04" rms="3.6478075385093689e-01" purity="2.7763214707374573e-01" nType="-99"/>
          <Node pos="r" depth="2" NCoef="0" IVar="3" Cut="2.0689929199218750e+02" cType="1" res="3.4648276865482330e-02" rms="3.9117002487182617e-01" purity="3.9389902353286743e-01" nType="0">
            <Node pos="l" depth="3" NCoef="0" IVar="-1" Cut="0.0000000000000000e+00" cType="1" res="7.3012388311326504e-03" rms="3.4864157438278198e-01" purity="2.6466199755668640e-01" nType="-99"/>
            <Node pos="r" depth="3" NCoef="0" IVar="-1" Cut="0.0000000000000000e+00" cType="1" res="3.7280805408954620e-02" rms="4.2746749520301819e-01" purity="5.2120321989059448e-01" nType="-99"/>
          </Node>
        </Node>
        <Node pos="r" depth="1" NCoef="0" IVar="6" Cut="-1.1820021867752075e+00" cType="1" res="-1.6784796025604010e-03" rms="3.9157810807228088e-01" purity="5.1607650518417358e-01" nType="0">
          <Node pos="l" depth="2" NCoef="0" IVar="8" Cut="7.6797664165496826e-01" cType="1" res="1.5804192051291466e-02" rms="3.8132926821708679e-01" purity="2.9759195446968079e-01" nType="0">
            <Node pos="l" depth="3" NCoef="0" IVar="-1" Cut="0.0000000000000000e+00" cType="1" res="2.1350352093577385e-02" rms="4.0164831280708313e-01" purity="3.3866137266159058e-01" nType="-99"/>
            <Node pos="r" depth="3" NCoef="0" IVar="-1" Cut="0.0000000000000000e+00" cType="1" res="-2.1826185286045074e-02" rms="3.1621086597442627e-01" purity="1.8637104332447052e-01" nType="-99"/>
          </Node>
          <Node pos="r" depth="2" NCoef="0" IVar="9" Cut="-1.9999660253524780e+00" cType="1" res="-3.7376165855675936e-03" rms="3.9271637797355652e-01" purity="5.4180991649627686e-01" nType="0">
            <Node pos="l" depth="3" NCoef="0" IVar="-1" Cut="0.0000000000000000e+00" cType="1" res="1.0473859496414661e-02" rms="3.9578071236610413e-01" purity="4.3521648645401001e-01" nType="-99"/>
            <Node pos="r" depth="3" NCoef="0" IVar="-1" Cut="0.0000000000000000e+00" cType="1" res="-3.1306981109082699e-03" rms="3.9252388477325439e-01" purity="5.4742139577865601e-01" nType="-99"/>
          </Node>
        </Node>
      </Node>
    </BinaryTree>
    <BinaryTree type="DecisionTree" boostWeight="1.0000000000000000e+00" itree="267">
      <Node pos="s" depth="0" NCoef="0" IVar="9" Cut="1.3333696126937866e-01" cType="1" res="1.3280349085107446e-03" rms="3.8958305120468140e-01" purity="5.0251668691635132e-01" nType="0">
        <Node pos="l" depth="1" NCoef="0" IVar="1" Cut="1.4296374511718750e+03" cType="1" res="7.9086562618613243e-03" rms="3.9397472143173218e-01" purity="5.1288908720016479e-01" nType="0">
          <Node pos="l" depth="2" NCoef="0" IVar="1" Cut="1.3396890869140625e+03" cType="1" res="1.3196005485951900e-02" rms="4.0851482748985291e-01" purity="3.9562636613845825e-01" nType="0">
            <Node pos="l" depth="3" NCoef="0" IVar="-1" Cut="0.0000000000000000e+00" cType="1" res="5.0374469719827175e-03" rms="4.0852180123329163e-01" purity="3.5603308677673340e-01" nType="-99"/>
            <Node pos="r" depth="3" NCoef="0" IVar="-1" Cut="0.0000000000000000e+00" cType="1" res="2.7392862364649773e-02" rms="4.0694466233253479e-01" purity="6.5095847845077515e-01" nType="-99"/>
          </Node>
          <Node pos="r" depth="2" NCoef="0" IVar="9" Cut="-5.6508690118789673e-01" cType="1" res="-2.7105086483061314e-03" rms="3.6278438568115234e-01" purity="7.4840062856674194e-01" nType="0">
            <Node pos="l" depth="3" NCoef="0" IVar="-1" Cut="0.0000000000000000e+00" cType="1" res="-1.2855158187448978e-02" rms="3.7628358602523804e-01" purity="7.0339149236679077e-01" nType="-99"/>
            <Node pos="r" depth="3" NCoef="0" IVar="-1" Cut="0.0000000000000000e+00" cType="1" res="1.2107754126191139e-02" rms="3.4532389044761658e-01" purity="8.0163055658340454e-01" nType="-99"/>
          </Node>
        </Node>
        <Node pos="r" depth="1" NCoef="0" IVar="3" Cut="3.3542797851562500e+02" cType="1" res="-6.5203681588172913e-03" rms="3.8413226604461670e-01" purity="4.9014601111412048e-01" nType="0">
          <Node pos="l" depth="2" NCoef="0" IVar="3" Cut="1.1929619598388672e+02" cType="1" res="-4.5344284735620022e-03" rms="3.8502642512321472e-01" purity="4.7527688741683960e-01" nType="0">
            <Node pos="l" depth="3" NCoef="0" IVar="-1" Cut="0.0000000000000000e+00" cType="1" res="-1.9903497770428658e-02" rms="3.2688352465629578e-01" purity="1.4548914134502411e-01" nType="-99"/>
            <Node pos="r" depth="3" NCoef="0" IVar="-1" Cut="0.0000000000000000e+00" cType="1" res="-8.2883995492011309e-04" rms="3.9402502775192261e-01" purity="5.3170156478881836e-01" nType="-99"/>
          </Node>
          <Node pos="r" depth="2" NCoef="0" IVar="-1" Cut="0.0000000000000000e+00" cType="1" res="-1.7515135928988457e-02" rms="3.7471869587898254e-01" purity="6.3559478521347046e-01" nType="-99"/>
        </Node>
      </Node>
    </BinaryTree>
    <BinaryTree type="DecisionTree" boostWeight="1.0000000000000000e+00" itree="268">
      <Node pos="s" depth="0" NCoef="0" IVar="8" Cut="9.3326848745346069e-01" cType="1" res="-4.7233235090970993e-04" rms="3.8638585805892944e-01" purity="5.0130271911621094e-01" nType="0">
        <Node pos="l" depth="1" NCoef="0" IVar="8" Cut="-1.0222535133361816e+00" cType="1" res="-3.3295182511210442e-03" rms="3.8715618848800659e-01" purity="5.2470153570175171e-01" nType="0">
          <Node pos="l" depth="2" NCoef="0" IVar="3" Cut="1.2795084381103516e+02" cType="1" res="8.8448124006390572e-03" rms="3.7935739755630493e-01" purity="4.0366068482398987e-01" nType="0">
            <Node pos="l" depth="3" NCoef="0" IVar="-1" Cut="0.0000000000000000e+00" cType="1" res="-1.5181330963969231e-02" rms="3.0989524722099304e-01" purity="1.3562583923339844e-01" nType="-99"/>
            <Node pos="r" depth="3" NCoef="0" IVar="-1" Cut="0.0000000000000000e+00" cType="1" res="9.5300748944282532e-03" rms="3.9440676569938660e-01" purity="4.6991714835166931e-01" nType="-99"/>
          </Node>
          <Node pos="r" depth="2" NCoef="0" IVar="4" Cut="1.9051112365722656e+02" cType="1" res="-7.3514203540980816e-03" rms="3.8961473107337952e-01" purity="5.6468856334686279e-01" nType="0">
            <Node pos="l" depth="3" NCoef="0" IVar="-1" Cut="0.0000000000000000e+00" cType="1" res="-7.1487813256680965e-03" rms="4.0307354927062988e-01" purity="4.9423676729202271e-01" nType="-99"/>
            <Node pos="r" depth="3" NCoef="0" IVar="-1" Cut="0.0000000000000000e+00" cType="1" res="7.0972540415823460e-03" rms="3.3621558547019958e-01" purity="8.1857591867446899e-01" nType="-99"/>
          </Node>
        </Node>
        <Node pos="r" depth="1" NCoef="0" IVar="9" Cut="9.3333321809768677e-01" cType="1" res="9.8020546138286591e-03" rms="3.8342705368995667e-01" purity="4.1716089844703674e-01" nType="0">
          <Node pos="l" depth="2" NCoef="0" IVar="8" Cut="1.2888168096542358e+00" cType="1" res="1.8056236207485199e-02" rms="3.8940697908401489e-01" purity="4.6681314706802368e-01" nType="0">
            <Node pos="l" depth="3" NCoef="0" IVar="-1" Cut="0.0000000000000000e+00" cType="1" res="3.9367955178022385e-03" rms="3.9056819677352905e-01" purity="5.4153388738632202e-01" nType="-99"/>
            <Node pos="r" depth="3" NCoef="0" IVar="-1" Cut="0.0000000000000000e+00" cType="1" res="1.6287881880998611e-02" rms="3.8854697346687317e-01" purity="4.2277854681015015e-01" nType="-99"/>
          </Node>
          <Node pos="r" depth="2" NCoef="0" IVar="5" Cut="7.3935920715332031e+01" cType="1" res="-1.2356607243418694e-02" rms="3.6597251892089844e-01" purity="2.8386753797531128e-01" nType="0">
            <Node pos="l" depth="3" NCoef="0" IVar="-1" Cut="0.0000000000000000e+00" cType="1" res="3.9333552122116089e-03" rms="3.2534638047218323e-01" purity="1.8471004068851471e-01" nType="-99"/>
            <Node pos="r" depth="3" NCoef="0" IVar="-1" Cut="0.0000000000000000e+00" cType="1" res="-1.8827987834811211e-02" rms="4.0382727980613708e-01" purity="3.8888648152351379e-01" nType="-99"/>
          </Node>
        </Node>
      </Node>
    </BinaryTree>
    <BinaryTree type="DecisionTree" boostWeight="1.0000000000000000e+00" itree="269">
      <Node pos="s" depth="0" NCoef="0" IVar="0" Cut="4.5299456787109375e+02" cType="1" res="-1.2180946068838239e-03" rms="3.8557755947113037e-01" purity="5.0121730566024780e-01" nType="0">
        <Node pos="l" depth="1" NCoef="0" IVar="5" Cut="8.1059432983398438e+01" cType="1" res="-5.2026403136551380e-03" rms="3.9170297980308533e-01" purity="3.6191394925117493e-01" nType="0">
          <Node pos="l" depth="2" NCoef="0" IVar="0" Cut="3.8742495727539062e+02" cType="1" res="-1.2595910578966141e-02" rms="3.6645856499671936e-01" purity="2.1930150687694550e-01" nType="0">
            <Node pos="l" depth="3" NCoef="0" IVar="-1" Cut="0.0000000000000000e+00" cType="1" res="-4.7656567767262459e-03" rms="3.5413554310798645e-01" purity="1.9282646477222443e-01" nType="-99"/>
            <Node pos="r" depth="3" NCoef="0" IVar="-1" Cut="0.0000000000000000e+00" cType="1" res="-1.6862027347087860e-02" rms="3.9387834072113037e-01" purity="2.8245118260383606e-01" nType="-99"/>
          </Node>
          <Node pos="r" depth="2" NCoef="0" IVar="7" Cut="-4.0009585022926331e-01" cType="1" res="4.0672621689736843e-03" rms="4.2103949189186096e-01" purity="5.4072564840316772e-01" nType="0">
            <Node pos="l" depth="3" NCoef="0" IVar="-1" Cut="0.0000000000000000e+00" cType="1" res="1.1998395435512066e-02" rms="4.2417091131210327e-01" purity="5.1204168796539307e-01" nType="-99"/>
            <Node pos="r" depth="3" NCoef="0" IVar="-1" Cut="0.0000000000000000e+00" cType="1" res="-3.1700562685728073e-03" rms="4.1897508502006531e-01" purity="5.5667692422866821e-01" nType="-99"/>
          </Node>
        </Node>
        <Node pos="r" depth="1" NCoef="0" IVar="4" Cut="1.4121765136718750e+02" cType="1" res="4.9140164628624916e-03" rms="3.7587323784828186e-01" purity="7.1560150384902954e-01" nType="0">
          <Node pos="l" depth="2" NCoef="0" IVar="0" Cut="5.7421374511718750e+02" cType="1" res="1.3496422208845615e-02" rms="4.2554298043251038e-01" purity="5.7825303077697754e-01" nType="0">
            <Node pos="l" depth="3" NCoef="0" IVar="-1" Cut="0.0000000000000000e+00" cType="1" res="1.2869106605648994e-02" rms="4.3316876888275146e-01" purity="5.2514272928237915e-01" nType="-99"/>
            <Node pos="r" depth="3" NCoef="0" IVar="-1" Cut="0.0000000000000000e+00" cType="1" res="-2.3182951845228672e-03" rms="4.1185519099235535e-01" purity="6.6727298498153687e-01" nType="-99"/>
          </Node>
          <Node pos="r" depth="2" NCoef="0" IVar="9" Cut="-1.1997294425964355e+00" cType="1" res="-2.9055539052933455e-03" rms="3.2385861873626709e-01" purity="8.4074205160140991e-01" nType="0">
            <Node pos="l" depth="3" NCoef="0" IVar="-1" Cut="0.0000000000000000e+00" cType="1" res="-2.1769309416413307e-02" rms="3.7191522121429443e-01" purity="7.6408469676971436e-01" nType="-99"/>
            <Node pos="r" depth="3" NCoef="0" IVar="-1" Cut="0.0000000000000000e+00" cType="1" res="5.9908459661528468e-04" rms="3.1638163328170776e-01" purity="8.5148531198501587e-01" nType="-99"/>
          </Node>
        </Node>
      </Node>
    </BinaryTree>
    <BinaryTree type="DecisionTree" boostWeight="1.0000000000000000e+00" itree="270">
      <Node pos="s" depth="0" NCoef="0" IVar="0" Cut="7.1713220214843750e+02" cType="1" res="4.3748566531576216e-04" rms="3.8841700553894043e-01" purity="5.0110441446304321e-01" nType="0">
        <Node pos="l" depth="1" NCoef="0" IVar="2" Cut="6.5281152343750000e+02" cType="1" res="1.7899597296491265e-03" rms="3.9129483699798584e-01" purity="4.8192507028579712e-01" nType="0">
          <Node pos="l" depth="2" NCoef="0" IVar="5" Cut="1.2911395263671875e+02" cType="1" res="2.6988720055669546e-03" rms="3.9101454615592957e-01" purity="4.8169428110122681e-01" nType="0">
            <Node pos="l" depth="3" NCoef="0" IVar="-1" Cut="0.0000000000000000e+00" cType="1" res="3.2221453730016947e-03" rms="3.9885944128036499e-01" purity="4.2365586757659912e-01" nType="-99"/>
            <Node pos="r" depth="3" NCoef="0" IVar="-1" Cut="0.0000000000000000e+00" cType="1" res="-8.5221510380506516e-03" rms="3.4590208530426025e-01" purity="7.9123657941818237e-01" nType="-99"/>
          </Node>
          <Node pos="r" depth="2" NCoef="0" IVar="-1" Cut="0.0000000000000000e+00" cType="1" res="-1.2732549570500851e-02" rms="3.9788156747817993e-01" purity="4.8802611231803894e-01" nType="-99"/>
        </Node>
        <Node pos="r" depth="1" NCoef="0" IVar="5" Cut="1.2018196105957031e+02" cType="1" res="-2.0593473687767982e-02" rms="3.3985984325408936e-01" purity="7.9934304952621460e-01" nType="0">
          <Node pos="l" depth="2" NCoef="0" IVar="-1" Cut="0.0000000000000000e+00" cType="1" res="-2.9883205890655518e-02" rms="3.8989469408988953e-01" purity="7.0879477262496948e-01" nType="-99"/>
          <Node pos="r" depth="2" NCoef="0" IVar="-1" Cut="0.0000000000000000e+00" cType="1" res="1.3968605548143387e-02" rms="2.5340369343757629e-01" purity="9.2251199483871460e-01" nType="-99"/>
        </Node>
      </Node>
    </BinaryTree>
    <BinaryTree type="DecisionTree" boostWeight="1.0000000000000000e+00" itree="271">
      <Node pos="s" depth="0" NCoef="0" IVar="4" Cut="1.0560948944091797e+02" cType="1" res="1.1965469457209110e-03" rms="3.8886046409606934e-01" purity="5.0076162815093994e-01" nType="0">
        <Node pos="l" depth="1" NCoef="0" IVar="8" Cut="1.7332577705383301e+00" cType="1" res="7.5674951076507568e-03" rms="3.8553273677825928e-01" purity="2.7100059390068054e-01" nType="0">
          <Node pos="l" depth="2" NCoef="0" IVar="7" Cut="-9.3313366174697876e-01" cType="1" res="1.0818660259246826e-02" rms="3.9260452985763550e-01" purity="2.8405985236167908e-01" nType="0">
            <Node pos="l" depth="3" NCoef="0" IVar="-1" Cut="0.0000000000000000e+00" cType="1" res="-7.7323932200670242e-03" rms="3.4664800763130188e-01" purity="1.7936012148857117e-01" nType="-99"/>
            <Node pos="r" depth="3" NCoef="0" IVar="-1" Cut="0.0000000000000000e+00" cType="1" res="1.0535955429077148e-02" rms="4.0480455756187439e-01" purity="3.1451752781867981e-01" nType="-99"/>
          </Node>
          <Node pos="r" depth="2" NCoef="0" IVar="-1" Cut="0.0000000000000000e+00" cType="1" res="-1.9969595596194267e-02" rms="3.1133031845092773e-01" purity="1.5064689517021179e-01" nType="-99"/>
        </Node>
        <Node pos="r" depth="1" NCoef="0" IVar="6" Cut="6.7089605331420898e-01" cType="1" res="-2.3875134065747261e-03" rms="3.9067441225051880e-01" purity="6.3001668453216553e-01" nType="0">
          <Node pos="l" depth="2" NCoef="0" IVar="6" Cut="-4.8230993747711182e-01" cType="1" res="-5.4339938797056675e-03" rms="3.8890296220779419e-01" purity="6.6475456953048706e-01" nType="0">
            <Node pos="l" depth="3" NCoef="0" IVar="-1" Cut="0.0000000000000000e+00" cType="1" res="-7.2972006164491177e-03" rms="3.9614289999008179e-01" purity="5.5295819044113159e-01" nType="-99"/>
            <Node pos="r" depth="3" NCoef="0" IVar="-1" Cut="0.0000000000000000e+00" cType="1" res="-1.0683827567845583e-03" rms="3.8442030549049377e-01" purity="7.3215532302856445e-01" nType="-99"/>
          </Node>
          <Node pos="r" depth="2" NCoef="0" IVar="7" Cut="4.0037700533866882e-01" cType="1" res="7.9987980425357819e-03" rms="3.9647838473320007e-01" purity="5.1158547401428223e-01" nType="0">
            <Node pos="l" depth="3" NCoef="0" IVar="-1" Cut="0.0000000000000000e+00" cType="1" res="1.0955196805298328e-02" rms="3.9654141664505005e-01" purity="5.3595966100692749e-01" nType="-99"/>
            <Node pos="r" depth="3" NCoef="0" IVar="-1" Cut="0.0000000000000000e+00" cType="1" res="-4.9397498369216919e-03" rms="3.9586541056632996e-01" purity="4.7154930233955383e-01" nType="-99"/>
          </Node>
        </Node>
      </Node>
    </BinaryTree>
    <BinaryTree type="DecisionTree" boostWeight="1.0000000000000000e+00" itree="272">
      <Node pos="s" depth="0" NCoef="0" IVar="8" Cut="-1.4666690826416016e+00" cType="1" res="2.7673135045915842e-03" rms="3.8732481002807617e-01" purity="5.0462520122528076e-01" nType="0">
        <Node pos="l" depth="1" NCoef="0" IVar="0" Cut="4.1629519653320312e+02" cType="1" res="-1.4314337633550167e-02" rms="3.6295840144157410e-01" purity="3.1473210453987122e-01" nType="0">
          <Node pos="l" depth="2" NCoef="0" IVar="0" Cut="3.4430511474609375e+02" cType="1" res="-5.5610933341085911e-03" rms="3.3567914366722107e-01" purity="1.9057123363018036e-01" nType="0">
            <Node pos="l" depth="3" NCoef="0" IVar="-1" Cut="0.0000000000000000e+00" cType="1" res="-1.8419448286294937e-02" rms="2.9558229446411133e-01" purity="1.4184895157814026e-01" nType="-99"/>
            <Node pos="r" depth="3" NCoef="0" IVar="-1" Cut="0.0000000000000000e+00" cType="1" res="5.4327826946973801e-03" rms="3.6811035871505737e-01" purity="2.3515696823596954e-01" nType="-99"/>
          </Node>
          <Node pos="r" depth="2" NCoef="0" IVar="-1" Cut="0.0000000000000000e+00" cType="1" res="-1.5894239768385887e-02" rms="3.9773750305175781e-01" purity="4.8876962065696716e-01" nType="-99"/>
        </Node>
        <Node pos="r" depth="1" NCoef="0" IVar="8" Cut="1.5809450149536133e+00" cType="1" res="4.7359210439026356e-03" rms="3.8998705148696899e-01" purity="5.2650982141494751e-01" nType="0">
          <Node pos="l" depth="2" NCoef="0" IVar="6" Cut="-1.7242467403411865e+00" cType="1" res="2.5101604405790567e-03" rms="3.9025303721427917e-01" purity="5.4828900098800659e-01" nType="0">
            <Node pos="l" depth="3" NCoef="0" IVar="-1" Cut="0.0000000000000000e+00" cType="1" res="2.5339817628264427e-02" rms="3.7564176321029663e-01" purity="2.3040370643138885e-01" nType="-99"/>
            <Node pos="r" depth="3" NCoef="0" IVar="-1" Cut="0.0000000000000000e+00" cType="1" res="9.4365724362432957e-04" rms="3.9073851704597473e-01" purity="5.5994850397109985e-01" nType="-99"/>
          </Node>
          <Node pos="r" depth="2" NCoef="0" IVar="7" Cut="1.3340565562248230e-01" cType="1" res="2.4874538183212280e-02" rms="3.8699075579643250e-01" purity="3.2945176959037781e-01" nType="0">
            <Node pos="l" depth="3" NCoef="0" IVar="-1" Cut="0.0000000000000000e+00" cType="1" res="2.8843652456998825e-02" rms="3.9944058656692505e-01" purity="3.6464494466781616e-01" nType="-99"/>
            <Node pos="r" depth="3" NCoef="0" IVar="-1" Cut="0.0000000000000000e+00" cType="1" res="4.8950109630823135e-03" rms="3.7338757514953613e-01" purity="2.9469129443168640e-01" nType="-99"/>
          </Node>
        </Node>
      </Node>
    </BinaryTree>
    <BinaryTree type="DecisionTree" boostWeight="1.0000000000000000e+00" itree="273">
      <Node pos="s" depth="0" NCoef="0" IVar="5" Cut="8.0216247558593750e+01" cType="1" res="-1.8603773787617683e-03" rms="3.8548812270164490e-01" purity="5.0069081783294678e-01" nType="0">
        <Node pos="l" depth="1" NCoef="0" IVar="9" Cut="-3.9999672770500183e-01" cType="1" res="-1.0562090203166008e-02" rms="3.8448596000671387e-01" purity="3.1762498617172241e-01" nType="0">
          <Node pos="l" depth="2" NCoef="0" IVar="8" Cut="-1.2000356912612915e+00" cType="1" res="-2.0398557186126709e-02" rms="3.7446069717407227e-01" purity="3.0084308981895447e-01" nType="0">
            <Node pos="l" depth="3" NCoef="0" IVar="-1" Cut="0.0000000000000000e+00" cType="1" res="7.0918090641498566e-03" rms="3.3106532692909241e-01" purity="2.2414381802082062e-01" nType="-99"/>
            <Node pos="r" depth="3" NCoef="0" IVar="-1" Cut="0.0000000000000000e+00" cType="1" res="-1.7859114333987236e-02" rms="3.8519206643104553e-01" purity="3.2200723886489868e-01" nType="-99"/>
          </Node>
          <Node pos="r" depth="2" NCoef="0" IVar="7" Cut="9.3337827920913696e-01" cType="1" res="-4.4507319107651711e-03" rms="3.9046025276184082e-01" purity="3.2805150747299194e-01" nType="0">
            <Node pos="l" depth="3" NCoef="0" IVar="-1" Cut="0.0000000000000000e+00" cType="1" res="-5.8721993118524551e-03" rms="3.9879778027534485e-01" purity="3.5738140344619751e-01" nType="-99"/>
            <Node pos="r" depth="3" NCoef="0" IVar="-1" Cut="0.0000000000000000e+00" cType="1" res="8.9604379609227180e-03" rms="3.6274877190589905e-01" purity="2.3654806613922119e-01" nType="-99"/>
          </Node>
        </Node>
        <Node pos="r" depth="1" NCoef="0" IVar="2" Cut="3.3999740600585938e+02" cType="1" res="6.2613743357360363e-03" rms="3.8624429702758789e-01" purity="6.7155545949935913e-01" nType="0">
          <Node pos="l" depth="2" NCoef="0" IVar="4" Cut="1.5193331909179688e+02" cType="1" res="1.4903167262673378e-02" rms="4.0041285753250122e-01" purity="6.4379245042800903e-01" nType="0">
            <Node pos="l" depth="3" NCoef="0" IVar="-1" Cut="0.0000000000000000e+00" cType="1" res="1.4811061322689056e-02" rms="4.2791974544525146e-01" purity="5.5179095268249512e-01" nType="-99"/>
            <Node pos="r" depth="3" NCoef="0" IVar="-1" Cut="0.0000000000000000e+00" cType="1" res="1.5217365580610931e-04" rms="3.6299908161163330e-01" purity="7.5754290819168091e-01" nType="-99"/>
          </Node>
          <Node pos="r" depth="2" NCoef="0" IVar="8" Cut="-4.0003994107246399e-01" cType="1" res="-1.3528818963095546e-03" rms="3.7314924597740173e-01" purity="6.9601732492446899e-01" nType="0">
            <Node pos="l" depth="3" NCoef="0" IVar="-1" Cut="0.0000000000000000e+00" cType="1" res="6.2134820036590099e-03" rms="3.7281534075737000e-01" purity="6.8854457139968872e-01" nType="-99"/>
            <Node pos="r" depth="3" NCoef="0" IVar="-1" Cut="0.0000000000000000e+00" cType="1" res="-5.2496120333671570e-03" rms="3.7320989370346069e-01" purity="7.0026981830596924e-01" nType="-99"/>
          </Node>
        </Node>
      </Node>
    </BinaryTree>
    <BinaryTree type="DecisionTree" boostWeight="1.0000000000000000e+00" itree="274">
      <Node pos="s" depth="0" NCoef="0" IVar="4" Cut="1.5986909484863281e+02" cType="1" res="-3.2921922393143177e-03" rms="3.8356912136077881e-01" purity="5.0040239095687866e-01" nType="0">
        <Node pos="l" depth="1" NCoef="0" IVar="2" Cut="3.3545700073242188e+02" cType="1" res="-7.3351073078811169e-03" rms="3.9231386780738831e-01" purity="3.8918989896774292e-01" nType="0">
          <Node pos="l" depth="2" NCoef="0" IVar="3" Cut="1.0477330017089844e+02" cType="1" res="-1.3602450489997864e-02" rms="3.9859265089035034e-01" purity="3.6315292119979858e-01" nType="0">
            <Node pos="l" depth="3" NCoef="0" IVar="-1" Cut="0.0000000000000000e+00" cType="1" res="2.0810684189200401e-02" rms="3.4636667370796204e-01" purity="1.5692766010761261e-01" nType="-99"/>
            <Node pos="r" depth="3" NCoef="0" IVar="-1" Cut="0.0000000000000000e+00" cType="1" res="-1.1068999767303467e-02" rms="4.0531867742538452e-01" purity="3.9291024208068848e-01" nType="-99"/>
          </Node>
          <Node pos="r" depth="2" NCoef="0" IVar="8" Cut="-4.0000647306442261e-01" cType="1" res="-5.2084610797464848e-04" rms="3.8525542616844177e-01" purity="4.1749906539916992e-01" nType="0">
            <Node pos="l" depth="3" NCoef="0" IVar="-1" Cut="0.0000000000000000e+00" cType="1" res="-9.5687685534358025e-03" rms="3.7153735756874084e-01" purity="3.8521674275398254e-01" nType="-99"/>
            <Node pos="r" depth="3" NCoef="0" IVar="-1" Cut="0.0000000000000000e+00" cType="1" res="4.9191727302968502e-03" rms="3.9290922880172729e-01" purity="4.3659156560897827e-01" nType="-99"/>
          </Node>
        </Node>
        <Node pos="r" depth="1" NCoef="0" IVar="6" Cut="9.5189803838729858e-01" cType="1" res="5.5085346102714539e-03" rms="3.6365190148353577e-01" purity="7.4249267578125000e-01" nType="0">
          <Node pos="l" depth="2" NCoef="0" IVar="9" Cut="1.3380348682403564e-01" cType="1" res="1.0915505699813366e-03" rms="3.6024340987205505e-01" purity="7.6523602008819580e-01" nType="0">
            <Node pos="l" depth="3" NCoef="0" IVar="-1" Cut="0.0000000000000000e+00" cType="1" res="-5.6454050354659557e-03" rms="3.5953968763351440e-01" purity="7.5939428806304932e-01" nType="-99"/>
            <Node pos="r" depth="3" NCoef="0" IVar="-1" Cut="0.0000000000000000e+00" cType="1" res="8.2892104983329773e-03" rms="3.6083528399467468e-01" purity="7.7225339412689209e-01" nType="-99"/>
          </Node>
          <Node pos="r" depth="2" NCoef="0" IVar="-1" Cut="0.0000000000000000e+00" cType="1" res="2.1006507799029350e-02" rms="3.8379976153373718e-01" purity="5.9494411945343018e-01" nType="-99"/>
        </Node>
      </Node>
    </BinaryTree>
    <BinaryTree type="DecisionTree" boostWeight="1.0000000000000000e+00" itree="275">
      <Node pos="s" depth="0" NCoef="0" IVar="6" Cut="-6.5950500965118408e-01" cType="1" res="-3.9293998852372169e-03" rms="3.8669815659523010e-01" purity="4.9545907974243164e-01" nType="0">
        <Node pos="l" depth="1" NCoef="0" IVar="3" Cut="2.0888430786132812e+02" cType="1" res="-1.9067034125328064e-02" rms="3.7555888295173645e-01" purity="3.6740171909332275e-01" nType="0">
          <Node pos="l" depth="2" NCoef="0" IVar="2" Cut="3.2441058349609375e+02" cType="1" res="-7.7855037525296211e-03" rms="3.6508151888847351e-01" purity="2.8428170084953308e-01" nType="0">
            <Node pos="l" depth="3" NCoef="0" IVar="-1" Cut="0.0000000000000000e+00" cType="1" res="6.4917006529867649e-03" rms="3.8042044639587402e-01" purity="3.0706235766410828e-01" nType="-99"/>
            <Node pos="r" depth="3" NCoef="0" IVar="-1" Cut="0.0000000000000000e+00" cType="1" res="-2.5302898138761520e-02" rms="3.3927330374717712e-01" purity="2.5027927756309509e-01" nType="-99"/>
          </Node>
          <Node pos="r" depth="2" NCoef="0" IVar="4" Cut="1.7349876403808594e+02" cType="1" res="-3.6349885165691376e-02" rms="3.9043402671813965e-01" purity="4.9473822116851807e-01" nType="0">
            <Node pos="l" depth="3" NCoef="0" IVar="-1" Cut="0.0000000000000000e+00" cType="1" res="-3.2215062528848648e-02" rms="3.9416638016700745e-01" purity="3.8167586922645569e-01" nType="-99"/>
            <Node pos="r" depth="3" NCoef="0" IVar="-1" Cut="0.0000000000000000e+00" cType="1" res="-1.0874630883336067e-02" rms="3.8510513305664062e-01" purity="6.2608700990676880e-01" nType="-99"/>
          </Node>
        </Node>
        <Node pos="r" depth="1" NCoef="0" IVar="4" Cut="9.5694229125976562e+01" cType="1" res="7.6899700798094273e-04" rms="3.8997140526771545e-01" purity="5.3520536422729492e-01" nType="0">
          <Node pos="l" depth="2" NCoef="0" IVar="4" Cut="6.9615509033203125e+01" cType="1" res="1.0046627372503281e-02" rms="3.8857322931289673e-01" purity="2.6774299144744873e-01" nType="0">
            <Node pos="l" depth="3" NCoef="0" IVar="-1" Cut="0.0000000000000000e+00" cType="1" res="2.7363104745745659e-02" rms="3.7194916605949402e-01" purity="2.1479046344757080e-01" nType="-99"/>
            <Node pos="r" depth="3" NCoef="0" IVar="-1" Cut="0.0000000000000000e+00" cType="1" res="4.9240381486015394e-05" rms="3.9499321579933167e-01" purity="2.9020923376083374e-01" nType="-99"/>
          </Node>
          <Node pos="r" depth="2" NCoef="0" IVar="2" Cut="4.7998324584960938e+02" cType="1" res="-2.6705751661211252e-03" rms="3.9043247699737549e-01" purity="6.3436377048492432e-01" nType="0">
            <Node pos="l" depth="3" NCoef="0" IVar="-1" Cut="0.0000000000000000e+00" cType="1" res="-3.8811410777270794e-03" rms="3.9091983437538147e-01" purity="6.2722676992416382e-01" nType="-99"/>
            <Node pos="r" depth="3" NCoef="0" IVar="-1" Cut="0.0000000000000000e+00" cType="1" res="5.7082148268818855e-03" rms="3.8849976658821106e-01" purity="6.5941298007965088e-01" nType="-99"/>
          </Node>
        </Node>
      </Node>
    </BinaryTree>
    <BinaryTree type="DecisionTree" boostWeight="1.0000000000000000e+00" itree="276">
      <Node pos="s" depth="0" NCoef="0" IVar="6" Cut="1.7352753877639771e+00" cType="1" res="1.8221992067992687e-03" rms="3.8901323080062866e-01" purity="4.9756833910942078e-01" nType="0">
        <Node pos="l" depth="1" NCoef="0" IVar="9" Cut="2.0000021457672119e+00" cType="1" res="2.9389485716819763e-03" rms="3.9238059520721436e-01" purity="5.1256811618804932e-01" nType="0">
          <Node pos="l" depth="2" NCoef="0" IVar="9" Cut="-5.7134252041578293e-02" cType="1" res="4.1363639757037163e-03" rms="3.9308670163154602e-01" purity="5.2152669429779053e-01" nType="0">
            <Node pos="l" depth="3" NCoef="0" IVar="-1" Cut="0.0000000000000000e+00" cType="1" res="-1.1957393726333976e-03" rms="3.9234191179275513e-01" purity="5.0202530622482300e-01" nType="-99"/>
            <Node pos="r" depth="3" NCoef="0" IVar="-1" Cut="0.0000000000000000e+00" cType="1" res="6.5743876621127129e-03" rms="3.9375114440917969e-01" purity="5.4138785600662231e-01" nType="-99"/>
          </Node>
          <Node pos="r" depth="2" NCoef="0" IVar="-1" Cut="0.0000000000000000e+00" cType="1" res="-1.2735652737319469e-02" rms="3.7838172912597656e-01" purity="3.4665405750274658e-01" nType="-99"/>
        </Node>
        <Node pos="r" depth="1" NCoef="0" IVar="-1" Cut="0.0000000000000000e+00" cType="1" res="-2.3510601371526718e-02" rms="2.9878738522529602e-01" purity="1.4783252775669098e-01" nType="-99"/>
      </Node>
    </BinaryTree>
    <BinaryTree type="DecisionTree" boostWeight="1.0000000000000000e+00" itree="277">
      <Node pos="s" depth="0" NCoef="0" IVar="6" Cut="-1.6928347349166870e+00" cType="1" res="3.0418849200941622e-04" rms="3.8681504130363464e-01" purity="4.9759864807128906e-01" nType="0">
        <Node pos="l" depth="1" NCoef="0" IVar="-1" Cut="0.0000000000000000e+00" cType="1" res="-2.4405332282185555e-02" rms="3.0363577604293823e-01" purity="1.3947324454784393e-01" nType="-99"/>
        <Node pos="r" depth="1" NCoef="0" IVar="7" Cut="1.7332608699798584e+00" cType="1" res="1.3590351445600390e-03" rms="3.8982102274894714e-01" purity="5.1233184337615967e-01" nType="0">
          <Node pos="l" depth="2" NCoef="0" IVar="9" Cut="-1.4666635990142822e+00" cType="1" res="2.7114024851471186e-03" rms="3.9280155301094055e-01" purity="5.3157991170883179e-01" nType="0">
            <Node pos="l" depth="3" NCoef="0" IVar="-1" Cut="0.0000000000000000e+00" cType="1" res="1.1220169253647327e-02" rms="3.9421245455741882e-01" purity="4.4102442264556885e-01" nType="-99"/>
            <Node pos="r" depth="3" NCoef="0" IVar="-1" Cut="0.0000000000000000e+00" cType="1" res="4.3976790038868785e-04" rms="3.9256241917610168e-01" purity="5.4413235187530518e-01" nType="-99"/>
          </Node>
          <Node pos="r" depth="2" NCoef="0" IVar="6" Cut="1.8543776124715805e-02" cType="1" res="-2.1419866010546684e-02" rms="3.3484423160552979e-01" purity="1.8812294304370880e-01" nType="0">
            <Node pos="l" depth="3" NCoef="0" IVar="-1" Cut="0.0000000000000000e+00" cType="1" res="-2.6756852865219116e-02" rms="3.2602405548095703e-01" purity="1.8890817463397980e-01" nType="-99"/>
            <Node pos="r" depth="3" NCoef="0" IVar="-1" Cut="0.0000000000000000e+00" cType="1" res="-9.9951680749654770e-03" rms="3.4205844998359680e-01" purity="1.8743701279163361e-01" nType="-99"/>
          </Node>
        </Node>
      </Node>
    </BinaryTree>
    <BinaryTree type="DecisionTree" boostWeight="1.0000000000000000e+00" itree="278">
      <Node pos="s" depth="0" NCoef="0" IVar="9" Cut="-3.9999467134475708e-01" cType="1" res="-8.9047703659161925e-04" rms="3.8633432984352112e-01" purity="4.9976795911788940e-01" nType="0">
        <Node pos="l" depth="1" NCoef="0" IVar="4" Cut="1.3644062805175781e+02" cType="1" res="4.3321819975972176e-03" rms="3.9036160707473755e-01" purity="4.8116829991340637e-01" nType="0">
          <Node pos="l" depth="2" NCoef="0" IVar="8" Cut="1.3317738473415375e-01" cType="1" res="1.2696548365056515e-02" rms="3.9866286516189575e-01" purity="3.4720438718795776e-01" nType="0">
            <Node pos="l" depth="3" NCoef="0" IVar="-1" Cut="0.0000000000000000e+00" cType="1" res="1.5340564772486687e-02" rms="3.9668759703636169e-01" purity="3.4570428729057312e-01" nType="-99"/>
            <Node pos="r" depth="3" NCoef="0" IVar="-1" Cut="0.0000000000000000e+00" cType="1" res="-2.0305418875068426e-03" rms="4.0107038617134094e-01" purity="3.4944435954093933e-01" nType="-99"/>
          </Node>
          <Node pos="r" depth="2" NCoef="0" IVar="9" Cut="-1.4283647537231445e+00" cType="1" res="-7.8048864379525185e-03" rms="3.7766271829605103e-01" purity="6.7555582523345947e-01" nType="0">
            <Node pos="l" depth="3" NCoef="0" IVar="-1" Cut="0.0000000000000000e+00" cType="1" res="-1.3498657383024693e-02" rms="3.9764970541000366e-01" purity="5.8189129829406738e-01" nType="-99"/>
            <Node pos="r" depth="3" NCoef="0" IVar="-1" Cut="0.0000000000000000e+00" cType="1" res="-1.6347133787348866e-03" rms="3.6923962831497192e-01" purity="7.1293866634368896e-01" nType="-99"/>
          </Node>
        </Node>
        <Node pos="r" depth="1" NCoef="0" IVar="7" Cut="1.7330256700515747e+00" cType="1" res="-4.0429602377116680e-03" rms="3.8384857773780823e-01" purity="5.1099503040313721e-01" nType="0">
          <Node pos="l" depth="2" NCoef="0" IVar="7" Cut="1.0854481458663940e+00" cType="1" res="-6.0825087130069733e-03" rms="3.8602873682975769e-01" purity="5.2904391288757324e-01" nType="0">
            <Node pos="l" depth="3" NCoef="0" IVar="-1" Cut="0.0000000000000000e+00" cType="1" res="-1.8623967189341784e-03" rms="3.8713228702545166e-01" purity="5.5040585994720459e-01" nType="-99"/>
            <Node pos="r" depth="3" NCoef="0" IVar="-1" Cut="0.0000000000000000e+00" cType="1" res="-2.0530810579657555e-02" rms="3.7608259916305542e-01" purity="3.5791099071502686e-01" nType="-99"/>
          </Node>
          <Node pos="r" depth="2" NCoef="0" IVar="-1" Cut="0.0000000000000000e+00" cType="1" res="2.3120628669857979e-02" rms="3.4823226928710938e-01" purity="2.4127370119094849e-01" nType="-99"/>
        </Node>
      </Node>
    </BinaryTree>
    <BinaryTree type="DecisionTree" boostWeight="1.0000000000000000e+00" itree="279">
      <Node pos="s" depth="0" NCoef="0" IVar="8" Cut="-9.3336319923400879e-01" cType="1" res="2.4472605437040329e-03" rms="3.9022508263587952e-01" purity="4.9864587187767029e-01" nType="0">
        <Node pos="l" depth="1" NCoef="0" IVar="9" Cut="-1.7332998514175415e+00" cType="1" res="1.2956148013472557e-02" rms="3.8853007555007935e-01" purity="4.0790256857872009e-01" nType="0">
          <Node pos="l" depth="2" NCoef="0" IVar="-1" Cut="0.0000000000000000e+00" cType="1" res="3.3648185431957245e-02" rms="3.6561340093612671e-01" purity="2.7637711167335510e-01" nType="-99"/>
          <Node pos="r" depth="2" NCoef="0" IVar="7" Cut="-1.3349238038063049e-01" cType="1" res="8.9542558416724205e-03" rms="3.9137518405914307e-01" purity="4.2580664157867432e-01" nType="0">
            <Node pos="l" depth="3" NCoef="0" IVar="-1" Cut="0.0000000000000000e+00" cType="1" res="1.2851012870669365e-02" rms="3.8481596112251282e-01" purity="4.2473351955413818e-01" nType="-99"/>
            <Node pos="r" depth="3" NCoef="0" IVar="-1" Cut="0.0000000000000000e+00" cType="1" res="-1.5226382529363036e-03" rms="3.9811947941780090e-01" purity="4.2698010802268982e-01" nType="-99"/>
          </Node>
        </Node>
        <Node pos="r" depth="1" NCoef="0" IVar="2" Cut="6.5569555664062500e+02" cType="1" res="-4.0751724736765027e-04" rms="3.9063543081283569e-01" purity="5.2329665422439575e-01" nType="0">
          <Node pos="l" depth="2" NCoef="0" IVar="9" Cut="1.7333214282989502e+00" cType="1" res="-2.1604888606816530e-03" rms="3.8916528224945068e-01" purity="5.1825731992721558e-01" nType="0">
            <Node pos="l" depth="3" NCoef="0" IVar="-1" Cut="0.0000000000000000e+00" cType="1" res="-2.5187355931848288e-03" rms="3.9010748267173767e-01" purity="5.2967017889022827e-01" nType="-99"/>
            <Node pos="r" depth="3" NCoef="0" IVar="-1" Cut="0.0000000000000000e+00" cType="1" res="1.0016214102506638e-02" rms="3.7920844554901123e-01" purity="4.0408423542976379e-01" nType="-99"/>
          </Node>
          <Node pos="r" depth="2" NCoef="0" IVar="-1" Cut="0.0000000000000000e+00" cType="1" res="1.6313197091221809e-02" rms="4.1309425234794617e-01" purity="6.0655260086059570e-01" nType="-99"/>
        </Node>
      </Node>
    </BinaryTree>
    <BinaryTree type="DecisionTree" boostWeight="1.0000000000000000e+00" itree="280">
      <Node pos="s" depth="0" NCoef="0" IVar="6" Cut="-9.2559170722961426e-01" cType="1" res="1.1813804740086198e-03" rms="3.8655847311019897e-01" purity="5.0365555286407471e-01" nType="0">
        <Node pos="l" depth="1" NCoef="0" IVar="7" Cut="9.3319559097290039e-01" cType="1" res="1.2957182712852955e-02" rms="3.7370160222053528e-01" purity="3.3567398786544800e-01" nType="0">
          <Node pos="l" depth="2" NCoef="0" IVar="7" Cut="-4.8886075615882874e-01" cType="1" res="2.1601887419819832e-02" rms="3.8549944758415222e-01" purity="3.7603369355201721e-01" nType="0">
            <Node pos="l" depth="3" NCoef="0" IVar="-1" Cut="0.0000000000000000e+00" cType="1" res="2.6310281828045845e-03" rms="3.4876403212547302e-01" purity="2.9227685928344727e-01" nType="-99"/>
            <Node pos="r" depth="3" NCoef="0" IVar="-1" Cut="0.0000000000000000e+00" cType="1" res="2.3406153544783592e-02" rms="4.1555139422416687e-01" purity="4.5256373286247253e-01" nType="-99"/>
          </Node>
          <Node pos="r" depth="2" NCoef="0" IVar="-1" Cut="0.0000000000000000e+00" cType="1" res="-2.3675242438912392e-02" rms="3.1291553378105164e-01" purity="1.5579862892627716e-01" nType="-99"/>
        </Node>
        <Node pos="r" depth="1" NCoef="0" IVar="8" Cut="1.4666540622711182e+00" cType="1" res="-1.1844270629808307e-03" rms="3.8904723525047302e-01" purity="5.3740370273590088e-01" nType="0">
          <Node pos="l" depth="2" NCoef="0" IVar="8" Cut="-5.6508487462997437e-01" cType="1" res="6.3593330560252070e-04" rms="3.9052852988243103e-01" purity="5.6039905548095703e-01" nType="0">
            <Node pos="l" depth="3" NCoef="0" IVar="-1" Cut="0.0000000000000000e+00" cType="1" res="-4.5858798548579216e-03" rms="3.9055880904197693e-01" purity="4.9240645766258240e-01" nType="-99"/>
            <Node pos="r" depth="3" NCoef="0" IVar="-1" Cut="0.0000000000000000e+00" cType="1" res="2.8992062434554100e-03" rms="3.9045673608779907e-01" purity="5.9409832954406738e-01" nType="-99"/>
          </Node>
          <Node pos="r" depth="2" NCoef="0" IVar="7" Cut="6.6671782732009888e-01" cType="1" res="-1.7306525260210037e-02" rms="3.7528795003890991e-01" purity="3.3374506235122681e-01" nType="0">
            <Node pos="l" depth="3" NCoef="0" IVar="-1" Cut="0.0000000000000000e+00" cType="1" res="-2.9861489310860634e-03" rms="3.8778701424598694e-01" purity="3.9792698621749878e-01" nType="-99"/>
            <Node pos="r" depth="3" NCoef="0" IVar="-1" Cut="0.0000000000000000e+00" cType="1" res="-3.1515784561634064e-02" rms="3.4869113564491272e-01" purity="2.1007828414440155e-01" nType="-99"/>
          </Node>
        </Node>
      </Node>
    </BinaryTree>
    <BinaryTree type="DecisionTree" boostWeight="1.0000000000000000e+00" itree="281">
      <Node pos="s" depth="0" NCoef="0" IVar="4" Cut="9.5686653137207031e+01" cType="1" res="3.3330710139125586e-03" rms="3.8893061876296997e-01" purity="5.0300270318984985e-01" nType="0">
        <Node pos="l" depth="1" NCoef="0" IVar="5" Cut="6.9549102783203125e+01" cType="1" res="-8.7142726406455040e-03" rms="3.6704143881797791e-01" purity="2.2293309867382050e-01" nType="0">
          <Node pos="l" depth="2" NCoef="0" IVar="4" Cut="7.3950607299804688e+01" cType="1" res="2.7178987511433661e-04" rms="3.5505464673042297e-01" purity="1.9851519167423248e-01" nType="0">
            <Node pos="l" depth="3" NCoef="0" IVar="-1" Cut="0.0000000000000000e+00" cType="1" res="-6.9779464974999428e-03" rms="3.2928833365440369e-01" purity="1.6478510200977325e-01" nType="-99"/>
            <Node pos="r" depth="3" NCoef="0" IVar="-1" Cut="0.0000000000000000e+00" cType="1" res="7.0397448725998402e-03" rms="3.8211169838905334e-01" purity="2.3699741065502167e-01" nType="-99"/>
          </Node>
          <Node pos="r" depth="2" NCoef="0" IVar="9" Cut="-1.3333760201931000e-01" cType="1" res="-3.4157015383243561e-02" rms="3.9793288707733154e-01" purity="2.9206880927085876e-01" nType="0">
            <Node pos="l" depth="3" NCoef="0" IVar="-1" Cut="0.0000000000000000e+00" cType="1" res="-9.4326809048652649e-03" rms="3.9720883965492249e-01" purity="3.0745938420295715e-01" nType="-99"/>
            <Node pos="r" depth="3" NCoef="0" IVar="-1" Cut="0.0000000000000000e+00" cType="1" res="-2.9704509302973747e-02" rms="3.9783760905265808e-01" purity="2.7807566523551941e-01" nType="-99"/>
          </Node>
        </Node>
        <Node pos="r" depth="1" NCoef="0" IVar="0" Cut="4.3640008544921875e+02" cType="1" res="7.9466355964541435e-03" rms="3.9689686894416809e-01" purity="6.1025619506835938e-01" nType="0">
          <Node pos="l" depth="2" NCoef="0" IVar="2" Cut="5.2024981689453125e+02" cType="1" res="1.3992190361022949e-02" rms="4.2153441905975342e-01" purity="4.6810469031333923e-01" nType="0">
            <Node pos="l" depth="3" NCoef="0" IVar="-1" Cut="0.0000000000000000e+00" cType="1" res="1.0223648510873318e-02" rms="4.2270734906196594e-01" purity="4.7827196121215820e-01" nType="-99"/>
            <Node pos="r" depth="3" NCoef="0" IVar="-1" Cut="0.0000000000000000e+00" cType="1" res="-2.0155178382992744e-02" rms="4.0495541691780090e-01" purity="3.5330650210380554e-01" nType="-99"/>
          </Node>
          <Node pos="r" depth="2" NCoef="0" IVar="6" Cut="1.2143189907073975e+00" cType="1" res="1.2992855627089739e-03" rms="3.6779257655143738e-01" purity="7.6655799150466919e-01" nType="0">
            <Node pos="l" depth="3" NCoef="0" IVar="-1" Cut="0.0000000000000000e+00" cType="1" res="-1.1093805078417063e-03" rms="3.6324077844619751e-01" purity="7.8317594528198242e-01" nType="-99"/>
            <Node pos="r" depth="3" NCoef="0" IVar="-1" Cut="0.0000000000000000e+00" cType="1" res="2.0033977925777435e-02" rms="4.1947522759437561e-01" purity="5.5689114332199097e-01" nType="-99"/>
          </Node>
        </Node>
      </Node>
    </BinaryTree>
    <BinaryTree type="DecisionTree" boostWeight="1.0000000000000000e+00" itree="282">
      <Node pos="s" depth="0" NCoef="0" IVar="7" Cut="9.3335789442062378e-01" cType="1" res="-1.1326447129249573e-03" rms="3.8672548532485962e-01" purity="5.0029188394546509e-01" nType="0">
        <Node pos="l" depth="1" NCoef="0" IVar="7" Cut="-1.7332278490066528e+00" cType="1" res="-4.1119344532489777e-03" rms="3.8909453153610229e-01" purity="5.3265118598937988e-01" nType="0">
          <Node pos="l" depth="2" NCoef="0" IVar="8" Cut="-4.0095472335815430e-01" cType="1" res="1.5757657587528229e-02" rms="3.5601171851158142e-01" purity="2.3629215359687805e-01" nType="0">
            <Node pos="l" depth="3" NCoef="0" IVar="-1" Cut="0.0000000000000000e+00" cType="1" res="3.5413671284914017e-02" rms="3.6327221989631653e-01" purity="2.2040759027004242e-01" nType="-99"/>
            <Node pos="r" depth="3" NCoef="0" IVar="-1" Cut="0.0000000000000000e+00" cType="1" res="-3.3975369296967983e-03" rms="3.4844410419464111e-01" purity="2.4982906877994537e-01" nType="-99"/>
          </Node>
          <Node pos="r" depth="2" NCoef="0" IVar="9" Cut="6.6666722297668457e-01" cType="1" res="-5.6662322022020817e-03" rms="3.9152204990386963e-01" purity="5.5583381652832031e-01" nType="0">
            <Node pos="l" depth="3" NCoef="0" IVar="-1" Cut="0.0000000000000000e+00" cType="1" res="-6.5354537218809128e-03" rms="3.9077961444854736e-01" purity="5.6328201293945312e-01" nType="-99"/>
            <Node pos="r" depth="3" NCoef="0" IVar="-1" Cut="0.0000000000000000e+00" cType="1" res="3.3918377012014389e-03" rms="3.9312621951103210e-01" purity="5.3752177953720093e-01" nType="-99"/>
          </Node>
        </Node>
        <Node pos="r" depth="1" NCoef="0" IVar="8" Cut="1.4666634798049927e+00" cType="1" res="1.0987418703734875e-02" rms="3.7669169902801514e-01" purity="3.6865091323852539e-01" nType="0">
          <Node pos="l" depth="2" NCoef="0" IVar="7" Cut="1.8220585584640503e+00" cType="1" res="1.7888491973280907e-02" rms="3.8565471768379211e-01" purity="4.0186697244644165e-01" nType="0">
            <Node pos="l" depth="3" NCoef="0" IVar="-1" Cut="0.0000000000000000e+00" cType="1" res="1.7156012356281281e-02" rms="4.0060257911682129e-01" purity="4.6722757816314697e-01" nType="-99"/>
            <Node pos="r" depth="3" NCoef="0" IVar="-1" Cut="0.0000000000000000e+00" cType="1" res="-8.8917482644319534e-03" rms="3.3433604240417480e-01" purity="2.0231293141841888e-01" nType="-99"/>
          </Node>
          <Node pos="r" depth="2" NCoef="0" IVar="-1" Cut="0.0000000000000000e+00" cType="1" res="-2.8185693547129631e-02" rms="3.1409987807273865e-01" purity="1.6828432679176331e-01" nType="-99"/>
        </Node>
      </Node>
    </BinaryTree>
    <BinaryTree type="DecisionTree" boostWeight="1.0000000000000000e+00" itree="283">
      <Node pos="s" depth="0" NCoef="0" IVar="3" Cut="1.4220231628417969e+02" cType="1" res="7.6978038123343140e-05" rms="3.8723507523536682e-01" purity="4.9867925047874451e-01" nType="0">
        <Node pos="l" depth="1" NCoef="0" IVar="9" Cut="-1.3329979777336121e-01" cType="1" res="7.5808344408869743e-03" rms="3.7312513589859009e-01" purity="2.3980195820331573e-01" nType="0">
          <Node pos="l" depth="2" NCoef="0" IVar="6" Cut="4.2938777804374695e-01" cType="1" res="2.2530015558004379e-02" rms="3.8268956542015076e-01" purity="2.5854378938674927e-01" nType="0">
            <Node pos="l" depth="3" NCoef="0" IVar="-1" Cut="0.0000000000000000e+00" cType="1" res="2.5129729881882668e-02" rms="3.9367029070854187e-01" purity="2.8991341590881348e-01" nType="-99"/>
            <Node pos="r" depth="3" NCoef="0" IVar="-1" Cut="0.0000000000000000e+00" cType="1" res="-9.2584099620580673e-03" rms="3.5196840763092041e-01" purity="1.8145005404949188e-01" nType="-99"/>
          </Node>
          <Node pos="r" depth="2" NCoef="0" IVar="1" Cut="1.0998989257812500e+03" cType="1" res="-6.0153794474899769e-03" rms="3.6367508769035339e-01" purity="2.2275635600090027e-01" nType="0">
            <Node pos="l" depth="3" NCoef="0" IVar="-1" Cut="0.0000000000000000e+00" cType="1" res="1.4717935118824244e-03" rms="3.4815791249275208e-01" purity="1.8008415400981903e-01" nType="-99"/>
            <Node pos="r" depth="3" NCoef="0" IVar="-1" Cut="0.0000000000000000e+00" cType="1" res="-1.5662590041756630e-02" rms="4.0210458636283875e-01" purity="3.3885037899017334e-01" nType="-99"/>
          </Node>
        </Node>
        <Node pos="r" depth="1" NCoef="0" IVar="7" Cut="-4.0001854300498962e-01" cType="1" res="-2.1487060002982616e-03" rms="3.9129468798637390e-01" purity="5.7546365261077881e-01" nType="0">
          <Node pos="l" depth="2" NCoef="0" IVar="0" Cut="4.5299685668945312e+02" cType="1" res="-1.0088847018778324e-02" rms="3.9469394087791443e-01" purity="5.1783567667007446e-01" nType="0">
            <Node pos="l" depth="3" NCoef="0" IVar="-1" Cut="0.0000000000000000e+00" cType="1" res="-1.1371857486665249e-02" rms="4.0252754092216492e-01" purity="3.7372004985809326e-01" nType="-99"/>
            <Node pos="r" depth="3" NCoef="0" IVar="-1" Cut="0.0000000000000000e+00" cType="1" res="1.4946078881621361e-03" rms="3.8297742605209351e-01" purity="7.2215509414672852e-01" nType="-99"/>
          </Node>
          <Node pos="r" depth="2" NCoef="0" IVar="6" Cut="-6.3566219806671143e-01" cType="1" res="1.9002455519512296e-03" rms="3.8948756456375122e-01" purity="6.0485011339187622e-01" nType="0">
            <Node pos="l" depth="3" NCoef="0" IVar="-1" Cut="0.0000000000000000e+00" cType="1" res="-6.3796970061957836e-03" rms="3.9807081222534180e-01" purity="4.7499802708625793e-01" nType="-99"/>
            <Node pos="r" depth="3" NCoef="0" IVar="-1" Cut="0.0000000000000000e+00" cType="1" res="3.5110043827444315e-03" rms="3.8693723082542419e-01" purity="6.4184975624084473e-01" nType="-99"/>
          </Node>
        </Node>
      </Node>
    </BinaryTree>
    <BinaryTree type="DecisionTree" boostWeight="1.0000000000000000e+00" itree="284">
      <Node pos="s" depth="0" NCoef="0" IVar="5" Cut="8.5090904235839844e+01" cType="1" res="-8.8927277829498053e-04" rms="3.8787105679512024e-01" purity="5.0132751464843750e-01" nType="0">
        <Node pos="l" depth="1" NCoef="0" IVar="2" Cut="3.2889074707031250e+02" cType="1" res="3.1858673319220543e-03" rms="3.9496523141860962e-01" purity="3.4225139021873474e-01" nType="0">
          <Node pos="l" depth="2" NCoef="0" IVar="2" Cut="2.9820062255859375e+02" cType="1" res="1.2038034386932850e-02" rms="4.0283212065696716e-01" purity="3.1984016299247742e-01" nType="0">
            <Node pos="l" depth="3" NCoef="0" IVar="-1" Cut="0.0000000000000000e+00" cType="1" res="1.2293489649891853e-02" rms="4.0504994988441467e-01" purity="3.1845179200172424e-01" nType="-99"/>
            <Node pos="r" depth="3" NCoef="0" IVar="-1" Cut="0.0000000000000000e+00" cType="1" res="-9.5754014328122139e-03" rms="3.9353555440902710e-01" purity="3.2487219572067261e-01" nType="-99"/>
          </Node>
          <Node pos="r" depth="2" NCoef="0" IVar="1" Cut="1.0603498535156250e+03" cType="1" res="-5.0657633692026138e-03" rms="3.8730609416961670e-01" purity="3.6314228177070618e-01" nType="0">
            <Node pos="l" depth="3" NCoef="0" IVar="-1" Cut="0.0000000000000000e+00" cType="1" res="-4.6644736081361771e-02" rms="2.4135510623455048e-01" purity="6.7848652601242065e-02" nType="-99"/>
            <Node pos="r" depth="3" NCoef="0" IVar="-1" Cut="0.0000000000000000e+00" cType="1" res="9.5118139870464802e-04" rms="4.0830734372138977e-01" purity="4.1783210635185242e-01" nType="-99"/>
          </Node>
        </Node>
        <Node pos="r" depth="1" NCoef="0" IVar="9" Cut="4.0002712607383728e-01" cType="1" res="-5.6538474746048450e-03" rms="3.7935301661491394e-01" purity="6.8731617927551270e-01" nType="0">
          <Node pos="l" depth="2" NCoef="0" IVar="5" Cut="1.1226759338378906e+02" cType="1" res="-1.2560374103486538e-02" rms="3.7913113832473755e-01" purity="6.9013768434524536e-01" nType="0">
            <Node pos="l" depth="3" NCoef="0" IVar="-1" Cut="0.0000000000000000e+00" cType="1" res="-1.5169725753366947e-02" rms="4.1124919056892395e-01" purity="5.6511074304580688e-01" nType="-99"/>
            <Node pos="r" depth="3" NCoef="0" IVar="-1" Cut="0.0000000000000000e+00" cType="1" res="-2.2949061822146177e-03" rms="3.5289436578750610e-01" purity="7.8364205360412598e-01" nType="-99"/>
          </Node>
          <Node pos="r" depth="2" NCoef="0" IVar="9" Cut="1.0857424736022949e+00" cType="1" res="5.8197458274662495e-03" rms="3.7944355607032776e-01" purity="6.8262892961502075e-01" nType="0">
            <Node pos="l" depth="3" NCoef="0" IVar="-1" Cut="0.0000000000000000e+00" cType="1" res="1.5159021131694317e-02" rms="3.7034857273101807e-01" purity="7.4766212701797485e-01" nType="-99"/>
            <Node pos="r" depth="3" NCoef="0" IVar="-1" Cut="0.0000000000000000e+00" cType="1" res="-7.9066008329391479e-03" rms="3.8907951116561890e-01" purity="6.0620003938674927e-01" nType="-99"/>
          </Node>
        </Node>
      </Node>
    </BinaryTree>
    <BinaryTree type="DecisionTree" boostWeight="1.0000000000000000e+00" itree="285">
      <Node pos="s" depth="0" NCoef="0" IVar="8" Cut="-1.2000490427017212e+00" cType="1" res="1.2947733048349619e-03" rms="3.8757219910621643e-01" purity="5.0088006258010864e-01" nType="0">
        <Node pos="l" depth="1" NCoef="0" IVar="8" Cut="-1.7333661317825317e+00" cType="1" res="-1.4096275903284550e-02" rms="3.7464746832847595e-01" purity="3.3908110857009888e-01" nType="0">
          <Node pos="l" depth="2" NCoef="0" IVar="8" Cut="-2.1904990673065186e+00" cType="1" res="-3.8990669418126345e-03" rms="3.6420530080795288e-01" purity="2.7112337946891785e-01" nType="0">
            <Node pos="l" depth="3" NCoef="0" IVar="-1" Cut="0.0000000000000000e+00" cType="1" res="-2.0454205572605133e-02" rms="3.2496228814125061e-01" purity="1.9597117602825165e-01" nType="-99"/>
            <Node pos="r" depth="3" NCoef="0" IVar="-1" Cut="0.0000000000000000e+00" cType="1" res="7.0665506646037102e-03" rms="3.8741824030876160e-01" purity="3.2089528441429138e-01" nType="-99"/>
          </Node>
          <Node pos="r" depth="2" NCoef="0" IVar="0" Cut="4.0493856811523438e+02" cType="1" res="-2.2888785228133202e-02" rms="3.8320517539978027e-01" purity="3.9767745137214661e-01" nType="0">
            <Node pos="l" depth="3" NCoef="0" IVar="-1" Cut="0.0000000000000000e+00" cType="1" res="-6.2639848329126835e-03" rms="3.6159992218017578e-01" purity="2.5658339262008667e-01" nType="-99"/>
            <Node pos="r" depth="3" NCoef="0" IVar="-1" Cut="0.0000000000000000e+00" cType="1" res="-2.2651536390185356e-02" rms="4.0434306859970093e-01" purity="5.4731881618499756e-01" nType="-99"/>
          </Node>
        </Node>
        <Node pos="r" depth="1" NCoef="0" IVar="6" Cut="-1.7241441011428833e+00" cType="1" res="3.9322800002992153e-03" rms="3.8968303799629211e-01" purity="5.2860695123672485e-01" nType="0">
          <Node pos="l" depth="2" NCoef="0" IVar="-1" Cut="0.0000000000000000e+00" cType="1" res="2.8736840933561325e-02" rms="3.7014997005462646e-01" purity="2.2361688315868378e-01" nType="-99"/>
          <Node pos="r" depth="2" NCoef="0" IVar="4" Cut="1.0495019531250000e+02" cType="1" res="2.8758533298969269e-03" rms="3.9032325148582458e-01" purity="5.3953176736831665e-01" nType="0">
            <Node pos="l" depth="3" NCoef="0" IVar="-1" Cut="0.0000000000000000e+00" cType="1" res="-3.1550875864923000e-03" rms="3.9422640204429626e-01" purity="2.7966642379760742e-01" nType="-99"/>
            <Node pos="r" depth="3" NCoef="0" IVar="-1" Cut="0.0000000000000000e+00" cType="1" res="4.3895225971937180e-03" rms="3.8831722736358643e-01" purity="6.6829180717468262e-01" nType="-99"/>
          </Node>
        </Node>
      </Node>
    </BinaryTree>
    <BinaryTree type="DecisionTree" boostWeight="1.0000000000000000e+00" itree="286">
      <Node pos="s" depth="0" NCoef="0" IVar="7" Cut="-3.9997225999832153e-01" cType="1" res="-1.2718806974589825e-03" rms="3.8651543855667114e-01" purity="5.0077140331268311e-01" nType="0">
        <Node pos="l" depth="1" NCoef="0" IVar="6" Cut="-1.2023095786571503e-01" cType="1" res="6.1065717600286007e-03" rms="3.8713371753692627e-01" purity="4.6216678619384766e-01" nType="0">
          <Node pos="l" depth="2" NCoef="0" IVar="8" Cut="-9.3342870473861694e-01" cType="1" res="-4.4506574049592018e-03" rms="3.8719531893730164e-01" purity="4.3675175309181213e-01" nType="0">
            <Node pos="l" depth="3" NCoef="0" IVar="-1" Cut="0.0000000000000000e+00" cType="1" res="1.5136990696191788e-02" rms="3.6988997459411621e-01" purity="3.6313518881797791e-01" nType="-99"/>
            <Node pos="r" depth="3" NCoef="0" IVar="-1" Cut="0.0000000000000000e+00" cType="1" res="-9.8362760618329048e-03" rms="3.9374747872352600e-01" purity="4.6774026751518250e-01" nType="-99"/>
          </Node>
          <Node pos="r" depth="2" NCoef="0" IVar="8" Cut="-1.2001018524169922e+00" cType="1" res="1.5972953289747238e-02" rms="3.8681575655937195e-01" purity="4.8591867089271545e-01" nType="0">
            <Node pos="l" depth="3" NCoef="0" IVar="-1" Cut="0.0000000000000000e+00" cType="1" res="-8.8403448462486267e-03" rms="3.5320818424224854e-01" purity="3.2312396168708801e-01" nType="-99"/>
            <Node pos="r" depth="3" NCoef="0" IVar="-1" Cut="0.0000000000000000e+00" cType="1" res="1.3750787824392319e-02" rms="3.9227801561355591e-01" purity="5.1485216617584229e-01" nType="-99"/>
          </Node>
        </Node>
        <Node pos="r" depth="1" NCoef="0" IVar="9" Cut="9.3338084220886230e-01" cType="1" res="-5.3642764687538147e-03" rms="3.8611128926277161e-01" purity="5.2218317985534668e-01" nType="0">
          <Node pos="l" depth="2" NCoef="0" IVar="8" Cut="1.7333674430847168e+00" cType="1" res="-8.5534900426864624e-03" rms="3.8747215270996094e-01" purity="5.4256200790405273e-01" nType="0">
            <Node pos="l" depth="3" NCoef="0" IVar="-1" Cut="0.0000000000000000e+00" cType="1" res="-6.9378656335175037e-03" rms="3.8631150126457214e-01" purity="5.5610686540603638e-01" nType="-99"/>
            <Node pos="r" depth="3" NCoef="0" IVar="-1" Cut="0.0000000000000000e+00" cType="1" res="1.3244771398603916e-02" rms="4.0276917815208435e-01" purity="3.4759524464607239e-01" nType="-99"/>
          </Node>
          <Node pos="r" depth="2" NCoef="0" IVar="7" Cut="6.6657036542892456e-01" cType="1" res="4.0438631549477577e-03" rms="3.8191342353820801e-01" purity="4.6206575632095337e-01" nType="0">
            <Node pos="l" depth="3" NCoef="0" IVar="-1" Cut="0.0000000000000000e+00" cType="1" res="1.0233378037810326e-02" rms="3.8941001892089844e-01" purity="5.8388125896453857e-01" nType="-99"/>
            <Node pos="r" depth="3" NCoef="0" IVar="-1" Cut="0.0000000000000000e+00" cType="1" res="-7.6952306553721428e-03" rms="3.7204909324645996e-01" purity="3.1373414397239685e-01" nType="-99"/>
          </Node>
        </Node>
      </Node>
    </BinaryTree>
    <BinaryTree type="DecisionTree" boostWeight="1.0000000000000000e+00" itree="287">
      <Node pos="s" depth="0" NCoef="0" IVar="6" Cut="1.3885906338691711e-01" cType="1" res="1.0486567625775933e-03" rms="3.8676276803016663e-01" purity="5.0084757804870605e-01" nType="0">
        <Node pos="l" depth="1" NCoef="0" IVar="6" Cut="-1.2549798488616943e+00" cType="1" res="4.8481170088052750e-03" rms="3.8904628157615662e-01" purity="5.2011400461196899e-01" nType="0">
          <Node pos="l" depth="2" NCoef="0" IVar="9" Cut="4.0032836794853210e-01" cType="1" res="-1.3750506564974785e-02" rms="3.4856206178665161e-01" purity="2.3126189410686493e-01" nType="0">
            <Node pos="l" depth="3" NCoef="0" IVar="-1" Cut="0.0000000000000000e+00" cType="1" res="-2.2040894255042076e-03" rms="3.5787361860275269e-01" purity="2.4301752448081970e-01" nType="-99"/>
            <Node pos="r" depth="3" NCoef="0" IVar="-1" Cut="0.0000000000000000e+00" cType="1" res="-2.8490345925092697e-02" rms="3.2700729370117188e-01" purity="2.0662184059619904e-01" nType="-99"/>
          </Node>
          <Node pos="r" depth="2" NCoef="0" IVar="5" Cut="8.5091033935546875e+01" cType="1" res="8.7309414520859718e-03" rms="3.9686760306358337e-01" purity="5.8041757345199585e-01" nType="0">
            <Node pos="l" depth="3" NCoef="0" IVar="-1" Cut="0.0000000000000000e+00" cType="1" res="9.0592857450246811e-03" rms="4.1800010204315186e-01" purity="4.2355781793594360e-01" nType="-99"/>
            <Node pos="r" depth="3" NCoef="0" IVar="-1" Cut="0.0000000000000000e+00" cType="1" res="7.7950360719114542e-04" rms="3.7260016798973083e-01" purity="7.4949032068252563e-01" nType="-99"/>
          </Node>
        </Node>
        <Node pos="r" depth="1" NCoef="0" IVar="9" Cut="1.9998772144317627e+00" cType="1" res="-3.9149709045886993e-03" rms="3.8370239734649658e-01" purity="4.7567778825759888e-01" nType="0">
          <Node pos="l" depth="2" NCoef="0" IVar="9" Cut="1.3141778707504272e+00" cType="1" res="-2.0349249243736267e-03" rms="3.8527625799179077e-01" purity="4.8717445135116577e-01" nType="0">
            <Node pos="l" depth="3" NCoef="0" IVar="-1" Cut="0.0000000000000000e+00" cType="1" res="-3.7380766589194536e-03" rms="3.8474193215370178e-01" purity="4.9421361088752747e-01" nType="-99"/>
            <Node pos="r" depth="3" NCoef="0" IVar="-1" Cut="0.0000000000000000e+00" cType="1" res="1.5813888981938362e-02" rms="3.8804653286933899e-01" purity="4.3823847174644470e-01" nType="-99"/>
          </Node>
          <Node pos="r" depth="2" NCoef="0" IVar="-1" Cut="0.0000000000000000e+00" cType="1" res="-2.5024499744176865e-02" rms="3.5560068488121033e-01" purity="2.8783378005027771e-01" nType="-99"/>
        </Node>
      </Node>
    </BinaryTree>
    <BinaryTree type="DecisionTree" boostWeight="1.0000000000000000e+00" itree="288">
      <Node pos="s" depth="0" NCoef="0" IVar="9" Cut="-6.6660988330841064e-01" cType="1" res="2.0595919340848923e-04" rms="3.8788545131683350e-01" purity="5.0063467025756836e-01" nType="0">
        <Node pos="l" depth="1" NCoef="0" IVar="7" Cut="-1.4664140939712524e+00" cType="1" res="7.7532418072223663e-03" rms="3.8896581530570984e-01" purity="4.6843430399894714e-01" nType="0">
          <Node pos="l" depth="2" NCoef="0" IVar="-1" Cut="0.0000000000000000e+00" cType="1" res="-2.1315472200512886e-02" rms="3.1208214163780212e-01" purity="1.8317233026027679e-01" nType="-99"/>
          <Node pos="r" depth="2" NCoef="0" IVar="6" Cut="-6.1187970638275146e-01" cType="1" res="1.1842655017971992e-02" rms="3.9761546254158020e-01" purity="5.0521755218505859e-01" nType="0">
            <Node pos="l" depth="3" NCoef="0" IVar="-1" Cut="0.0000000000000000e+00" cType="1" res="-1.4196098782122135e-03" rms="3.8242748379707336e-01" purity="3.6826905608177185e-01" nType="-99"/>
            <Node pos="r" depth="3" NCoef="0" IVar="-1" Cut="0.0000000000000000e+00" cType="1" res="1.0953881777822971e-02" rms="4.0339800715446472e-01" purity="5.6001842021942139e-01" nType="-99"/>
          </Node>
        </Node>
        <Node pos="r" depth="1" NCoef="0" IVar="4" Cut="1.8709393310546875e+02" cType="1" res="-3.1159908976405859e-03" rms="3.8736236095428467e-01" purity="5.1480776071548462e-01" nType="0">
          <Node pos="l" depth="2" NCoef="0" IVar="4" Cut="1.0233999633789062e+02" cType="1" res="-5.8226916007697582e-03" rms="3.9811173081398010e-01" purity="4.4292694330215454e-01" nType="0">
            <Node pos="l" depth="3" NCoef="0" IVar="-1" Cut="0.0000000000000000e+00" cType="1" res="2.1149355452507734e-03" rms="3.8313221931457520e-01" purity="2.6874703168869019e-01" nType="-99"/>
            <Node pos="r" depth="3" NCoef="0" IVar="-1" Cut="0.0000000000000000e+00" cType="1" res="-7.2194729000329971e-03" rms="4.0815147757530212e-01" purity="5.6482607126235962e-01" nType="-99"/>
          </Node>
          <Node pos="r" depth="2" NCoef="0" IVar="7" Cut="4.0065795183181763e-01" cType="1" res="7.1750897914171219e-03" rms="3.4323984384536743e-01" purity="7.8810381889343262e-01" nType="0">
            <Node pos="l" depth="3" NCoef="0" IVar="-1" Cut="0.0000000000000000e+00" cType="1" res="-1.2214704183861613e-03" rms="3.3914718031883240e-01" purity="8.0031740665435791e-01" nType="-99"/>
            <Node pos="r" depth="3" NCoef="0" IVar="-1" Cut="0.0000000000000000e+00" cType="1" res="1.7097266390919685e-02" rms="3.5017597675323486e-01" purity="7.6533770561218262e-01" nType="-99"/>
          </Node>
        </Node>
      </Node>
    </BinaryTree>
    <BinaryTree type="DecisionTree" boostWeight="1.0000000000000000e+00" itree="289">
      <Node pos="s" depth="0" NCoef="0" IVar="8" Cut="-1.9999780654907227e+00" cType="1" res="-1.2906283373013139e-03" rms="3.8754814863204956e-01" purity="4.9640741944313049e-01" nType="0">
        <Node pos="l" depth="1" NCoef="0" IVar="-1" Cut="0.0000000000000000e+00" cType="1" res="1.6565099358558655e-02" rms="3.6041608452796936e-01" purity="2.5248140096664429e-01" nType="-99"/>
        <Node pos="r" depth="1" NCoef="0" IVar="8" Cut="-1.5428344011306763e+00" cType="1" res="-2.2484380751848221e-03" rms="3.8870501518249512e-01" purity="5.0745576620101929e-01" nType="0">
          <Node pos="l" depth="2" NCoef="0" IVar="7" Cut="-1.3555639982223511e-01" cType="1" res="-1.9254658371210098e-02" rms="3.7393906712532043e-01" purity="3.6525571346282959e-01" nType="0">
            <Node pos="l" depth="3" NCoef="0" IVar="-1" Cut="0.0000000000000000e+00" cType="1" res="-8.9601334184408188e-03" rms="3.5991734266281128e-01" purity="3.3083036541938782e-01" nType="-99"/>
            <Node pos="r" depth="3" NCoef="0" IVar="-1" Cut="0.0000000000000000e+00" cType="1" res="-1.7355570569634438e-02" rms="3.8747102022171021e-01" purity="3.9998388290405273e-01" nType="-99"/>
          </Node>
          <Node pos="r" depth="2" NCoef="0" IVar="8" Cut="3.1834083795547485e-01" cType="1" res="-1.2779202079400420e-03" rms="3.8950839638710022e-01" purity="5.1557093858718872e-01" nType="0">
            <Node pos="l" depth="3" NCoef="0" IVar="-1" Cut="0.0000000000000000e+00" cType="1" res="1.6980690415948629e-03" rms="3.9351278543472290e-01" purity="5.5233252048492432e-01" nType="-99"/>
            <Node pos="r" depth="3" NCoef="0" IVar="-1" Cut="0.0000000000000000e+00" cType="1" res="-4.2727547697722912e-03" rms="3.8410046696662903e-01" purity="4.6706560254096985e-01" nType="-99"/>
          </Node>
        </Node>
      </Node>
    </BinaryTree>
    <BinaryTree type="DecisionTree" boostWeight="1.0000000000000000e+00" itree="290">
      <Node pos="s" depth="0" NCoef="0" IVar="9" Cut="-4.0000030398368835e-01" cType="1" res="-2.0476910285651684e-03" rms="3.8527789711952209e-01" purity="4.9961748719215393e-01" nType="0">
        <Node pos="l" depth="1" NCoef="0" IVar="2" Cut="3.3679592895507812e+02" cType="1" res="4.3977559544146061e-03" rms="3.8606333732604980e-01" purity="4.8496878147125244e-01" nType="0">
          <Node pos="l" depth="2" NCoef="0" IVar="5" Cut="8.6637168884277344e+01" cType="1" res="1.3907260261476040e-02" rms="4.0045714378356934e-01" purity="4.4554141163825989e-01" nType="0">
            <Node pos="l" depth="3" NCoef="0" IVar="-1" Cut="0.0000000000000000e+00" cType="1" res="1.5505857765674591e-02" rms="4.0147984027862549e-01" purity="3.2909968495368958e-01" nType="-99"/>
            <Node pos="r" depth="3" NCoef="0" IVar="-1" Cut="0.0000000000000000e+00" cType="1" res="-1.4296731678768992e-03" rms="3.9828413724899292e-01" purity="6.3147109746932983e-01" nType="-99"/>
          </Node>
          <Node pos="r" depth="2" NCoef="0" IVar="8" Cut="9.3311518430709839e-01" cType="1" res="-4.4915559701621532e-03" rms="3.7188526988029480e-01" purity="5.2182483673095703e-01" nType="0">
            <Node pos="l" depth="3" NCoef="0" IVar="-1" Cut="0.0000000000000000e+00" cType="1" res="1.4564154844265431e-04" rms="3.7364408373832703e-01" purity="5.4213076829910278e-01" nType="-99"/>
            <Node pos="r" depth="3" NCoef="0" IVar="-1" Cut="0.0000000000000000e+00" cType="1" res="-1.8708748742938042e-02" rms="3.6222448945045471e-01" purity="4.2196521162986755e-01" nType="-99"/>
          </Node>
        </Node>
        <Node pos="r" depth="1" NCoef="0" IVar="6" Cut="9.5145744085311890e-01" cType="1" res="-6.0247527435421944e-03" rms="3.8473859429359436e-01" purity="5.0865620374679565e-01" nType="0">
          <Node pos="l" depth="2" NCoef="0" IVar="6" Cut="7.1502126753330231e-02" cType="1" res="-8.9093931019306183e-03" rms="3.8863250613212585e-01" purity="5.5062270164489746e-01" nType="0">
            <Node pos="l" depth="3" NCoef="0" IVar="-1" Cut="0.0000000000000000e+00" cType="1" res="-1.6326198820024729e-03" rms="3.8574147224426270e-01" purity="5.3506410121917725e-01" nType="-99"/>
            <Node pos="r" depth="3" NCoef="0" IVar="-1" Cut="0.0000000000000000e+00" cType="1" res="-1.1931471526622772e-02" rms="3.9283266663551331e-01" purity="5.7455575466156006e-01" nType="-99"/>
          </Node>
          <Node pos="r" depth="2" NCoef="0" IVar="6" Cut="1.5674180984497070e+00" cType="1" res="7.2292899712920189e-03" rms="3.6602342128753662e-01" purity="3.1583282351493835e-01" nType="0">
            <Node pos="l" depth="3" NCoef="0" IVar="-1" Cut="0.0000000000000000e+00" cType="1" res="1.3773594051599503e-02" rms="3.9174970984458923e-01" purity="3.9684379100799561e-01" nType="-99"/>
            <Node pos="r" depth="3" NCoef="0" IVar="-1" Cut="0.0000000000000000e+00" cType="1" res="-1.7670644447207451e-02" rms="3.0742514133453369e-01" purity="1.5585309267044067e-01" nType="-99"/>
          </Node>
        </Node>
      </Node>
    </BinaryTree>
    <BinaryTree type="DecisionTree" boostWeight="1.0000000000000000e+00" itree="291">
      <Node pos="s" depth="0" NCoef="0" IVar="2" Cut="4.7091433715820312e+02" cType="1" res="1.9820923916995525e-03" rms="3.8867884874343872e-01" purity="4.9752590060234070e-01" nType="0">
        <Node pos="l" depth="1" NCoef="0" IVar="8" Cut="-1.4666841030120850e+00" cType="1" res="-6.3432427123188972e-04" rms="3.8799649477005005e-01" purity="4.8124235868453979e-01" nType="0">
          <Node pos="l" depth="2" NCoef="0" IVar="1" Cut="1.2196834716796875e+03" cType="1" res="-2.0916031673550606e-02" rms="3.5089102387428284e-01" purity="2.9499399662017822e-01" nType="0">
            <Node pos="l" depth="3" NCoef="0" IVar="-1" Cut="0.0000000000000000e+00" cType="1" res="-2.6934342458844185e-02" rms="3.2343095541000366e-01" purity="1.4841744303703308e-01" nType="-99"/>
            <Node pos="r" depth="3" NCoef="0" IVar="-1" Cut="0.0000000000000000e+00" cType="1" res="5.4326676763594151e-04" rms="3.9803352952003479e-01" purity="5.8019101619720459e-01" nType="-99"/>
          </Node>
          <Node pos="r" depth="2" NCoef="0" IVar="3" Cut="3.2999200439453125e+02" cType="1" res="1.7791051650419831e-03" rms="3.9210838079452515e-01" purity="5.0340503454208374e-01" nType="0">
            <Node pos="l" depth="3" NCoef="0" IVar="-1" Cut="0.0000000000000000e+00" cType="1" res="2.1780233364552259e-03" rms="3.9404019713401794e-01" purity="4.9166873097419739e-01" nType="-99"/>
            <Node pos="r" depth="3" NCoef="0" IVar="-1" Cut="0.0000000000000000e+00" cType="1" res="-2.2110484540462494e-02" rms="3.5290658473968506e-01" purity="7.2191917896270752e-01" nType="-99"/>
          </Node>
        </Node>
        <Node pos="r" depth="1" NCoef="0" IVar="7" Cut="-1.3328734040260315e-01" cType="1" res="1.1544940061867237e-02" rms="3.9101371169090271e-01" purity="5.5704134702682495e-01" nType="0">
          <Node pos="l" depth="2" NCoef="0" IVar="7" Cut="-1.0220725536346436e+00" cType="1" res="2.0459339022636414e-02" rms="3.9030635356903076e-01" purity="5.5787813663482666e-01" nType="0">
            <Node pos="l" depth="3" NCoef="0" IVar="-1" Cut="0.0000000000000000e+00" cType="1" res="-8.3097349852323532e-03" rms="3.7332591414451599e-01" purity="3.6572465300559998e-01" nType="-99"/>
            <Node pos="r" depth="3" NCoef="0" IVar="-1" Cut="0.0000000000000000e+00" cType="1" res="2.2013204172253609e-02" rms="3.9680406451225281e-01" purity="6.4383941888809204e-01" nType="-99"/>
          </Node>
          <Node pos="r" depth="2" NCoef="0" IVar="7" Cut="7.0472097396850586e-01" cType="1" res="3.7320996634662151e-03" rms="3.9146572351455688e-01" purity="5.5630797147750854e-01" nType="0">
            <Node pos="l" depth="3" NCoef="0" IVar="-1" Cut="0.0000000000000000e+00" cType="1" res="-3.3451565541327000e-03" rms="3.8577705621719360e-01" purity="6.4584445953369141e-01" nType="-99"/>
            <Node pos="r" depth="3" NCoef="0" IVar="-1" Cut="0.0000000000000000e+00" cType="1" res="1.0478423908352852e-02" rms="3.9904928207397461e-01" purity="4.2943286895751953e-01" nType="-99"/>
          </Node>
        </Node>
      </Node>
    </BinaryTree>
    <BinaryTree type="DecisionTree" boostWeight="1.0000000000000000e+00" itree="292">
      <Node pos="s" depth="0" NCoef="0" IVar="7" Cut="6.6659104824066162e-01" cType="1" res="2.8788077179342508e-03" rms="3.8880529999732971e-01" purity="5.0187951326370239e-01" nType="0">
        <Node pos="l" depth="1" NCoef="0" IVar="6" Cut="-1.7130496501922607e+00" cType="1" res="-2.0455615594983101e-03" rms="3.9015695452690125e-01" purity="5.3075653314590454e-01" nType="0">
          <Node pos="l" depth="2" NCoef="0" IVar="-1" Cut="0.0000000000000000e+00" cType="1" res="-2.7261013165116310e-02" rms="3.1119000911712646e-01" purity="1.5747791528701782e-01" nType="-99"/>
          <Node pos="r" depth="2" NCoef="0" IVar="7" Cut="-4.8894491791725159e-01" cType="1" res="-9.2333619249984622e-04" rms="3.9282515645027161e-01" purity="5.4506707191467285e-01" nType="0">
            <Node pos="l" depth="3" NCoef="0" IVar="-1" Cut="0.0000000000000000e+00" cType="1" res="2.7461778372526169e-03" rms="3.9024662971496582e-01" purity="4.5804476737976074e-01" nType="-99"/>
            <Node pos="r" depth="3" NCoef="0" IVar="-1" Cut="0.0000000000000000e+00" cType="1" res="-3.1629088334739208e-03" rms="3.9477497339248657e-01" purity="6.1283212900161743e-01" nType="-99"/>
          </Node>
        </Node>
        <Node pos="r" depth="1" NCoef="0" IVar="2" Cut="3.2215563964843750e+02" cType="1" res="1.6145057976245880e-02" rms="3.8482695817947388e-01" purity="4.2408484220504761e-01" nType="0">
          <Node pos="l" depth="2" NCoef="0" IVar="1" Cut="9.9045269775390625e+02" cType="1" res="2.4900274351239204e-02" rms="3.8970446586608887e-01" purity="4.0707710385322571e-01" nType="0">
            <Node pos="l" depth="3" NCoef="0" IVar="-1" Cut="0.0000000000000000e+00" cType="1" res="4.9634166061878204e-03" rms="3.3364063501358032e-01" purity="1.4742919802665710e-01" nType="-99"/>
            <Node pos="r" depth="3" NCoef="0" IVar="-1" Cut="0.0000000000000000e+00" cType="1" res="2.0780310034751892e-02" rms="4.1883853077888489e-01" purity="5.6018143892288208e-01" nType="-99"/>
          </Node>
          <Node pos="r" depth="2" NCoef="0" IVar="8" Cut="-1.3360394537448883e-01" cType="1" res="8.5138157010078430e-03" rms="3.8036030530929565e-01" purity="4.3890914320945740e-01" nType="0">
            <Node pos="l" depth="3" NCoef="0" IVar="-1" Cut="0.0000000000000000e+00" cType="1" res="1.6055578365921974e-02" rms="3.9798063039779663e-01" purity="4.5153793692588806e-01" nType="-99"/>
            <Node pos="r" depth="3" NCoef="0" IVar="-1" Cut="0.0000000000000000e+00" cType="1" res="-1.7267963849008083e-03" rms="3.6714032292366028e-01" purity="4.3007743358612061e-01" nType="-99"/>
          </Node>
        </Node>
      </Node>
    </BinaryTree>
    <BinaryTree type="DecisionTree" boostWeight="1.0000000000000000e+00" itree="293">
      <Node pos="s" depth="0" NCoef="0" IVar="8" Cut="-1.4666994810104370e+00" cType="1" res="-1.8145963549613953e-03" rms="3.8898092508316040e-01" purity="4.9418568611145020e-01" nType="0">
        <Node pos="l" depth="1" NCoef="0" IVar="3" Cut="1.6776463317871094e+02" cType="1" res="2.1888758987188339e-02" rms="3.7837377190589905e-01" purity="3.4598678350448608e-01" nType="0">
          <Node pos="l" depth="2" NCoef="0" IVar="-1" Cut="0.0000000000000000e+00" cType="1" res="7.4492697604000568e-03" rms="3.3242437243461609e-01" purity="1.8646997213363647e-01" nType="-99"/>
          <Node pos="r" depth="2" NCoef="0" IVar="7" Cut="-4.0034294128417969e-01" cType="1" res="3.1708877533674240e-02" rms="4.0795046091079712e-01" purity="4.6070042252540588e-01" nType="0">
            <Node pos="l" depth="3" NCoef="0" IVar="-1" Cut="0.0000000000000000e+00" cType="1" res="3.4283291548490524e-02" rms="3.9663407206535339e-01" purity="4.4633173942565918e-01" nType="-99"/>
            <Node pos="r" depth="3" NCoef="0" IVar="-1" Cut="0.0000000000000000e+00" cType="1" res="1.0341239161789417e-02" rms="4.1523936390876770e-01" purity="4.7099444270133972e-01" nType="-99"/>
          </Node>
        </Node>
        <Node pos="r" depth="1" NCoef="0" IVar="7" Cut="1.4665392637252808e+00" cType="1" res="-4.6843523159623146e-03" rms="3.9014786481857300e-01" purity="5.1212805509567261e-01" nType="0">
          <Node pos="l" depth="2" NCoef="0" IVar="7" Cut="-7.6831567287445068e-01" cType="1" res="-7.0980256423354149e-03" rms="3.9258050918579102e-01" purity="5.3688788414001465e-01" nType="0">
            <Node pos="l" depth="3" NCoef="0" IVar="-1" Cut="0.0000000000000000e+00" cType="1" res="2.7287548873573542e-03" rms="3.9030626416206360e-01" purity="4.2220333218574524e-01" nType="-99"/>
            <Node pos="r" depth="3" NCoef="0" IVar="-1" Cut="0.0000000000000000e+00" cType="1" res="-7.0634610019624233e-03" rms="3.9328894019126892e-01" purity="5.7658654451370239e-01" nType="-99"/>
          </Node>
          <Node pos="r" depth="2" NCoef="0" IVar="7" Cut="1.8475242853164673e+00" cType="1" res="1.8793433904647827e-02" rms="3.6480993032455444e-01" purity="2.7128994464874268e-01" nType="0">
            <Node pos="l" depth="3" NCoef="0" IVar="-1" Cut="0.0000000000000000e+00" cType="1" res="2.6694701984524727e-02" rms="3.9408063888549805e-01" purity="3.5059225559234619e-01" nType="-99"/>
            <Node pos="r" depth="3" NCoef="0" IVar="-1" Cut="0.0000000000000000e+00" cType="1" res="6.0895399656146765e-04" rms="3.3445212244987488e-01" purity="1.9794097542762756e-01" nType="-99"/>
          </Node>
        </Node>
      </Node>
    </BinaryTree>
    <BinaryTree type="DecisionTree" boostWeight="1.0000000000000000e+00" itree="294">
      <Node pos="s" depth="0" NCoef="0" IVar="7" Cut="-1.9998568296432495e+00" cType="1" res="3.5869996645487845e-04" rms="3.8669922947883606e-01" purity="5.0140130519866943e-01" nType="0">
        <Node pos="l" depth="1" NCoef="0" IVar="-1" Cut="0.0000000000000000e+00" cType="1" res="-2.9739944264292717e-02" rms="2.9650053381919861e-01" purity="1.7428141832351685e-01" nType="-99"/>
        <Node pos="r" depth="1" NCoef="0" IVar="8" Cut="1.4666798114776611e+00" cType="1" res="1.5516417333856225e-03" rms="3.8944318890571594e-01" purity="5.1292848587036133e-01" nType="0">
          <Node pos="l" depth="2" NCoef="0" IVar="3" Cut="1.4619770812988281e+02" cType="1" res="3.2924967817962170e-03" rms="3.9157670736312866e-01" purity="5.3639012575149536e-01" nType="0">
            <Node pos="l" depth="3" NCoef="0" IVar="-1" Cut="0.0000000000000000e+00" cType="1" res="9.7313495352864265e-03" rms="3.9319601655006409e-01" purity="2.7621972560882568e-01" nType="-99"/>
            <Node pos="r" depth="3" NCoef="0" IVar="-1" Cut="0.0000000000000000e+00" cType="1" res="-9.2095397121738642e-06" rms="3.9103725552558899e-01" purity="6.1298674345016479e-01" nType="-99"/>
          </Node>
          <Node pos="r" depth="2" NCoef="0" IVar="1" Cut="1.3004284667968750e+03" cType="1" res="-1.4122064225375652e-02" rms="3.6931058764457703e-01" purity="3.0169245600700378e-01" nType="0">
            <Node pos="l" depth="3" NCoef="0" IVar="-1" Cut="0.0000000000000000e+00" cType="1" res="-1.7250938341021538e-02" rms="3.4046420454978943e-01" purity="1.9087311625480652e-01" nType="-99"/>
            <Node pos="r" depth="3" NCoef="0" IVar="-1" Cut="0.0000000000000000e+00" cType="1" res="8.2973681855946779e-04" rms="4.1869232058525085e-01" purity="5.1430219411849976e-01" nType="-99"/>
          </Node>
        </Node>
      </Node>
    </BinaryTree>
    <BinaryTree type="DecisionTree" boostWeight="1.0000000000000000e+00" itree="295">
      <Node pos="s" depth="0" NCoef="0" IVar="9" Cut="-1.4666607379913330e+00" cType="1" res="1.2021930888295174e-03" rms="3.8743302226066589e-01" purity="5.0227808952331543e-01" nType="0">
        <Node pos="l" depth="1" NCoef="0" IVar="8" Cut="-9.3336051702499390e-01" cType="1" res="-1.1852055788040161e-02" rms="3.7986719608306885e-01" purity="3.8229420781135559e-01" nType="0">
          <Node pos="l" depth="2" NCoef="0" IVar="-1" Cut="0.0000000000000000e+00" cType="1" res="-3.0954990535974503e-02" rms="3.3712470531463623e-01" purity="2.3583506047725677e-01" nType="-99"/>
          <Node pos="r" depth="2" NCoef="0" IVar="8" Cut="-4.4394753873348236e-02" cType="1" res="-1.9383835606276989e-03" rms="3.9380413293838501e-01" purity="4.3558534979820251e-01" nType="0">
            <Node pos="l" depth="3" NCoef="0" IVar="-1" Cut="0.0000000000000000e+00" cType="1" res="9.7920335829257965e-03" rms="4.0544000267982483e-01" purity="4.8055064678192139e-01" nType="-99"/>
            <Node pos="r" depth="3" NCoef="0" IVar="-1" Cut="0.0000000000000000e+00" cType="1" res="-8.1267077475786209e-03" rms="3.8653671741485596e-01" purity="4.0960863232612610e-01" nType="-99"/>
          </Node>
        </Node>
        <Node pos="r" depth="1" NCoef="0" IVar="9" Cut="-2.4758340418338776e-01" cType="1" res="2.9732328839600086e-03" rms="3.8841432332992554e-01" purity="5.1855605840682983e-01" nType="0">
          <Node pos="l" depth="2" NCoef="0" IVar="9" Cut="-3.6368384957313538e-01" cType="1" res="1.0842632502317429e-02" rms="3.9383485913276672e-01" purity="5.3899705410003662e-01" nType="0">
            <Node pos="l" depth="3" NCoef="0" IVar="-1" Cut="0.0000000000000000e+00" cType="1" res="5.1952381618320942e-03" rms="3.9269319176673889e-01" purity="5.3306370973587036e-01" nType="-99"/>
            <Node pos="r" depth="3" NCoef="0" IVar="-1" Cut="0.0000000000000000e+00" cType="1" res="2.0370727404952049e-02" rms="4.0135756134986877e-01" purity="5.8174282312393188e-01" nType="-99"/>
          </Node>
          <Node pos="r" depth="2" NCoef="0" IVar="1" Cut="1.1200330810546875e+03" cType="1" res="-1.1856673518195748e-03" rms="3.8545396924018860e-01" purity="5.0775313377380371e-01" nType="0">
            <Node pos="l" depth="3" NCoef="0" IVar="-1" Cut="0.0000000000000000e+00" cType="1" res="-9.9398624151945114e-03" rms="3.7940296530723572e-01" purity="2.3293907940387726e-01" nType="-99"/>
            <Node pos="r" depth="3" NCoef="0" IVar="-1" Cut="0.0000000000000000e+00" cType="1" res="3.6217086017131805e-03" rms="3.8823035359382629e-01" purity="6.4343309402465820e-01" nType="-99"/>
          </Node>
        </Node>
      </Node>
    </BinaryTree>
    <BinaryTree type="DecisionTree" boostWeight="1.0000000000000000e+00" itree="296">
      <Node pos="s" depth="0" NCoef="0" IVar="8" Cut="1.4665887355804443e+00" cType="1" res="1.5211467398330569e-03" rms="3.8627091050148010e-01" purity="5.0129556655883789e-01" nType="0">
        <Node pos="l" depth="1" NCoef="0" IVar="7" Cut="3.9990657567977905e-01" cType="1" res="4.4338725274428725e-05" rms="3.8732135295867920e-01" purity="5.2138978242874146e-01" nType="0">
          <Node pos="l" depth="2" NCoef="0" IVar="6" Cut="-9.2584401369094849e-01" cType="1" res="3.5310259554535151e-03" rms="3.8833579421043396e-01" purity="5.4767090082168579e-01" nType="0">
            <Node pos="l" depth="3" NCoef="0" IVar="-1" Cut="0.0000000000000000e+00" cType="1" res="1.2378878891468048e-02" rms="3.7874364852905273e-01" purity="3.8598605990409851e-01" nType="-99"/>
            <Node pos="r" depth="3" NCoef="0" IVar="-1" Cut="0.0000000000000000e+00" cType="1" res="2.1487253252416849e-04" rms="3.9029157161712646e-01" purity="5.8240520954132080e-01" nType="-99"/>
          </Node>
          <Node pos="r" depth="2" NCoef="0" IVar="9" Cut="-1.4666132926940918e+00" cType="1" res="-6.7357271909713745e-03" rms="3.8525077700614929e-01" purity="4.7028473019599915e-01" nType="0">
            <Node pos="l" depth="3" NCoef="0" IVar="-1" Cut="0.0000000000000000e+00" cType="1" res="-1.7837055027484894e-02" rms="3.5720685124397278e-01" purity="3.6012983322143555e-01" nType="-99"/>
            <Node pos="r" depth="3" NCoef="0" IVar="-1" Cut="0.0000000000000000e+00" cType="1" res="-2.9495290946215391e-03" rms="3.8840803503990173e-01" purity="4.8345446586608887e-01" nType="-99"/>
          </Node>
        </Node>
        <Node pos="r" depth="1" NCoef="0" IVar="7" Cut="-3.9994475245475769e-01" cType="1" res="1.4157410711050034e-02" rms="3.7692677974700928e-01" purity="3.2935962080955505e-01" nType="0">
          <Node pos="l" depth="2" NCoef="0" IVar="-1" Cut="0.0000000000000000e+00" cType="1" res="-1.1953576467931271e-02" rms="3.5590660572052002e-01" purity="2.6452302932739258e-01" nType="-99"/>
          <Node pos="r" depth="2" NCoef="0" IVar="1" Cut="1.3005458984375000e+03" cType="1" res="2.6629647240042686e-02" rms="3.8463434576988220e-01" purity="3.5629627108573914e-01" nType="0">
            <Node pos="l" depth="3" NCoef="0" IVar="-1" Cut="0.0000000000000000e+00" cType="1" res="2.8822636231780052e-02" rms="3.8124302029609680e-01" purity="2.5391280651092529e-01" nType="-99"/>
            <Node pos="r" depth="3" NCoef="0" IVar="-1" Cut="0.0000000000000000e+00" cType="1" res="3.4836418926715851e-03" rms="3.9034292101860046e-01" purity="5.5673414468765259e-01" nType="-99"/>
          </Node>
        </Node>
      </Node>
    </BinaryTree>
    <BinaryTree type="DecisionTree" boostWeight="1.0000000000000000e+00" itree="297">
      <Node pos="s" depth="0" NCoef="0" IVar="7" Cut="-9.3326067924499512e-01" cType="1" res="9.0381683548912406e-05" rms="3.8652157783508301e-01" purity="5.0091135501861572e-01" nType="0">
        <Node pos="l" depth="1" NCoef="0" IVar="3" Cut="1.2069145965576172e+02" cType="1" res="-9.1583365574479103e-03" rms="3.7493470311164856e-01" purity="3.5541066527366638e-01" nType="0">
          <Node pos="l" depth="2" NCoef="0" IVar="-1" Cut="0.0000000000000000e+00" cType="1" res="2.3304067552089691e-02" rms="3.3726477622985840e-01" purity="1.6664387285709381e-01" nType="-99"/>
          <Node pos="r" depth="2" NCoef="0" IVar="4" Cut="1.6730853271484375e+02" cType="1" res="-1.6228551045060158e-02" rms="3.8215628266334534e-01" purity="3.9587211608886719e-01" nType="0">
            <Node pos="l" depth="3" NCoef="0" IVar="-1" Cut="0.0000000000000000e+00" cType="1" res="-1.8760483711957932e-02" rms="3.7641113996505737e-01" purity="3.0861970782279968e-01" nType="-99"/>
            <Node pos="r" depth="3" NCoef="0" IVar="-1" Cut="0.0000000000000000e+00" cType="1" res="1.1248638853430748e-02" rms="3.9560544490814209e-01" purity="6.3610255718231201e-01" nType="-99"/>
          </Node>
        </Node>
        <Node pos="r" depth="1" NCoef="0" IVar="6" Cut="1.4470426738262177e-01" cType="1" res="2.3047323338687420e-03" rms="3.8921195268630981e-01" purity="5.3574746847152710e-01" nType="0">
          <Node pos="l" depth="2" NCoef="0" IVar="7" Cut="-5.7772737741470337e-01" cType="1" res="-2.9054656624794006e-03" rms="3.9049100875854492e-01" purity="5.4791736602783203e-01" nType="0">
            <Node pos="l" depth="3" NCoef="0" IVar="-1" Cut="0.0000000000000000e+00" cType="1" res="-1.2655759230256081e-02" rms="4.0029367804527283e-01" purity="5.2687829732894897e-01" nType="-99"/>
            <Node pos="r" depth="3" NCoef="0" IVar="-1" Cut="0.0000000000000000e+00" cType="1" res="-2.2444171190727502e-04" rms="3.8893952965736389e-01" purity="5.5106234550476074e-01" nType="-99"/>
          </Node>
          <Node pos="r" depth="2" NCoef="0" IVar="5" Cut="1.2278981781005859e+02" cType="1" res="8.5513647645711899e-03" rms="3.8758057355880737e-01" purity="5.2115666866302490e-01" nType="0">
            <Node pos="l" depth="3" NCoef="0" IVar="-1" Cut="0.0000000000000000e+00" cType="1" res="7.6994136907160282e-03" rms="3.9847624301910400e-01" purity="4.4970375299453735e-01" nType="-99"/>
            <Node pos="r" depth="3" NCoef="0" IVar="-1" Cut="0.0000000000000000e+00" cType="1" res="-5.6262677535414696e-03" rms="3.4079253673553467e-01" purity="8.0305653810501099e-01" nType="-99"/>
          </Node>
        </Node>
      </Node>
    </BinaryTree>
    <BinaryTree type="DecisionTree" boostWeight="1.0000000000000000e+00" itree="298">
      <Node pos="s" depth="0" NCoef="0" IVar="2" Cut="7.4182794189453125e+02" cType="1" res="6.6458183573558927e-04" rms="3.8765567541122437e-01" purity="4.9926859140396118e-01" nType="0">
        <Node pos="l" depth="1" NCoef="0" IVar="9" Cut="1.3333089649677277e-01" cType="1" res="1.7547797178849578e-03" rms="3.8702696561813354e-01" purity="4.9709835648536682e-01" nType="0">
          <Node pos="l" depth="2" NCoef="0" IVar="1" Cut="1.5907929687500000e+03" cType="1" res="-2.8755115345120430e-03" rms="3.8483470678329468e-01" purity="5.0164651870727539e-01" nType="0">
            <Node pos="l" depth="3" NCoef="0" IVar="-1" Cut="0.0000000000000000e+00" cType="1" res="-4.0757372044026852e-03" rms="3.9640200138092041e-01" purity="4.2333570122718811e-01" nType="-99"/>
            <Node pos="r" depth="3" NCoef="0" IVar="-1" Cut="0.0000000000000000e+00" cType="1" res="1.0003629140555859e-02" rms="3.3417248725891113e-01" purity="8.1501644849777222e-01" nType="-99"/>
          </Node>
          <Node pos="r" depth="2" NCoef="0" IVar="5" Cut="1.2053728485107422e+02" cType="1" res="7.2487057186663151e-03" rms="3.8954076170921326e-01" purity="4.9170190095901489e-01" nType="0">
            <Node pos="l" depth="3" NCoef="0" IVar="-1" Cut="0.0000000000000000e+00" cType="1" res="7.7235815115272999e-03" rms="3.9778521656990051e-01" purity="4.2498576641082764e-01" nType="-99"/>
            <Node pos="r" depth="3" NCoef="0" IVar="-1" Cut="0.0000000000000000e+00" cType="1" res="-1.1084211990237236e-02" rms="3.5203006863594055e-01" purity="7.7209204435348511e-01" nType="-99"/>
          </Node>
        </Node>
        <Node pos="r" depth="1" NCoef="0" IVar="-1" Cut="0.0000000000000000e+00" cType="1" res="-2.1532891318202019e-02" rms="4.0745893120765686e-01" purity="5.7629036903381348e-01" nType="-99"/>
      </Node>
    </BinaryTree>
    <BinaryTree type="DecisionTree" boostWeight="1.0000000000000000e+00" itree="299">
      <Node pos="s" depth="0" NCoef="0" IVar="6" Cut="1.2030272483825684e+00" cType="1" res="1.5885581960901618e-03" rms="3.8973084092140198e-01" purity="4.9821743369102478e-01" nType="0">
        <Node pos="l" depth="1" NCoef="0" IVar="9" Cut="1.7333312034606934e+00" cType="1" res="4.0366346947848797e-03" rms="3.9592501521110535e-01" purity="5.3147107362747192e-01" nType="0">
          <Node pos="l" depth="2" NCoef="0" IVar="7" Cut="-1.2000035047531128e+00" cType="1" res="1.9403726328164339e-03" rms="3.9464336633682251e-01" purity="5.3960096836090088e-01" nType="0">
            <Node pos="l" depth="3" NCoef="0" IVar="-1" Cut="0.0000000000000000e+00" cType="1" res="1.2059107422828674e-02" rms="3.8517647981643677e-01" purity="3.5520571470260620e-01" nType="-99"/>
            <Node pos="r" depth="3" NCoef="0" IVar="-1" Cut="0.0000000000000000e+00" cType="1" res="-3.1543133081868291e-04" rms="3.9603906869888306e-01" purity="5.6826460361480713e-01" nType="-99"/>
          </Node>
          <Node pos="r" depth="2" NCoef="0" IVar="8" Cut="1.3290768861770630e-01" cType="1" res="2.6848651468753815e-02" rms="4.0891897678375244e-01" purity="4.4300013780593872e-01" nType="0">
            <Node pos="l" depth="3" NCoef="0" IVar="-1" Cut="0.0000000000000000e+00" cType="1" res="7.6667321845889091e-03" rms="4.0971598029136658e-01" purity="4.6238663792610168e-01" nType="-99"/>
            <Node pos="r" depth="3" NCoef="0" IVar="-1" Cut="0.0000000000000000e+00" cType="1" res="2.6998709887266159e-02" rms="4.0758502483367920e-01" purity="4.2352053523063660e-01" nType="-99"/>
          </Node>
        </Node>
        <Node pos="r" depth="1" NCoef="0" IVar="8" Cut="1.3311332464218140e-01" cType="1" res="-1.8644457682967186e-02" rms="3.3348226547241211e-01" purity="2.2338034212589264e-01" nType="0">
          <Node pos="l" depth="2" NCoef="0" IVar="5" Cut="7.2911430358886719e+01" cType="1" res="-3.1976535916328430e-02" rms="3.2773628830909729e-01" purity="2.3836994171142578e-01" nType="0">
            <Node pos="l" depth="3" NCoef="0" IVar="-1" Cut="0.0000000000000000e+00" cType="1" res="-1.8074452877044678e-02" rms="3.0384349822998047e-01" purity="1.2529791891574860e-01" nType="-99"/>
            <Node pos="r" depth="3" NCoef="0" IVar="-1" Cut="0.0000000000000000e+00" cType="1" res="-2.9551463201642036e-02" rms="3.4845414757728577e-01" purity="3.4598788619041443e-01" nType="-99"/>
          </Node>
          <Node pos="r" depth="2" NCoef="0" IVar="6" Cut="1.5831139087677002e+00" cType="1" res="-6.5565300174057484e-03" rms="3.3815374970436096e-01" purity="2.0978957414627075e-01" nType="0">
            <Node pos="l" depth="3" NCoef="0" IVar="-1" Cut="0.0000000000000000e+00" cType="1" res="-1.6630951315164566e-02" rms="3.4876298904418945e-01" purity="2.6212617754936218e-01" nType="-99"/>
            <Node pos="r" depth="3" NCoef="0" IVar="-1" Cut="0.0000000000000000e+00" cType="1" res="8.7660392746329308e-03" rms="3.2677984237670898e-01" purity="1.5884396433830261e-01" nType="-99"/>
          </Node>
        </Node>
      </Node>
    </BinaryTree>
    <BinaryTree type="DecisionTree" boostWeight="1.0000000000000000e+00" itree="300">
      <Node pos="s" depth="0" NCoef="0" IVar="5" Cut="1.1043251800537109e+02" cType="1" res="-1.6796166310086846e-03" rms="3.8629588484764099e-01" purity="5.0281202793121338e-01" nType="0">
        <Node pos="l" depth="1" NCoef="0" IVar="5" Cut="5.5755527496337891e+01" cType="1" res="-4.2727342806756496e-03" rms="3.9784386754035950e-01" purity="4.0009713172912598e-01" nType="0">
          <Node pos="l" depth="2" NCoef="0" IVar="5" Cut="5.2192623138427734e+01" cType="1" res="7.2101983241736889e-03" rms="3.7476855516433716e-01" purity="2.5021013617515564e-01" nType="0">
            <Node pos="l" depth="3" NCoef="0" IVar="-1" Cut="0.0000000000000000e+00" cType="1" res="-1.1933447793126106e-02" rms="3.4972172975540161e-01" purity="2.1759574115276337e-01" nType="-99"/>
            <Node pos="r" depth="3" NCoef="0" IVar="-1" Cut="0.0000000000000000e+00" cType="1" res="1.5992898494005203e-02" rms="3.8949769735336304e-01" purity="2.7143770456314087e-01" nType="-99"/>
          </Node>
          <Node pos="r" depth="2" NCoef="0" IVar="5" Cut="7.1377479553222656e+01" cType="1" res="-6.5297582186758518e-03" rms="4.0218523144721985e-01" purity="4.2955812811851501e-01" nType="0">
            <Node pos="l" depth="3" NCoef="0" IVar="-1" Cut="0.0000000000000000e+00" cType="1" res="-1.0505215264856815e-02" rms="3.8344302773475647e-01" purity="3.0474755167961121e-01" nType="-99"/>
            <Node pos="r" depth="3" NCoef="0" IVar="-1" Cut="0.0000000000000000e+00" cType="1" res="1.2089977099094540e-04" rms="4.1471236944198608e-01" purity="5.1723337173461914e-01" nType="-99"/>
          </Node>
        </Node>
        <Node pos="r" depth="1" NCoef="0" IVar="8" Cut="6.6643661260604858e-01" cType="1" res="5.2787014283239841e-03" rms="3.5335457324981689e-01" purity="7.7843511104583740e-01" nType="0">
          <Node pos="l" depth="2" NCoef="0" IVar="5" Cut="1.6511065673828125e+02" cType="1" res="-1.4172765986586455e-05" rms="3.4748473763465881e-01" purity="7.9167437553405762e-01" nType="0">
            <Node pos="l" depth="3" NCoef="0" IVar="-1" Cut="0.0000000000000000e+00" cType="1" res="2.8599556535482407e-03" rms="3.6060553789138794e-01" purity="7.6688832044601440e-01" nType="-99"/>
            <Node pos="r" depth="3" NCoef="0" IVar="-1" Cut="0.0000000000000000e+00" cType="1" res="-1.1783544905483723e-02" rms="3.0792194604873657e-01" purity="8.6042732000350952e-01" nType="-99"/>
          </Node>
          <Node pos="r" depth="2" NCoef="0" IVar="9" Cut="3.9987787604331970e-01" cType="1" res="2.1143175661563873e-02" rms="3.6993819475173950e-01" purity="7.3875254392623901e-01" nType="0">
            <Node pos="l" depth="3" NCoef="0" IVar="-1" Cut="0.0000000000000000e+00" cType="1" res="2.1885721012949944e-02" rms="3.5587587952613831e-01" purity="7.7452605962753296e-01" nType="-99"/>
            <Node pos="r" depth="3" NCoef="0" IVar="-1" Cut="0.0000000000000000e+00" cType="1" res="2.9319366440176964e-03" rms="3.9249044656753540e-01" purity="6.7692595720291138e-01" nType="-99"/>
          </Node>
        </Node>
      </Node>
    </BinaryTree>
    <BinaryTree type="DecisionTree" boostWeight="1.0000000000000000e+00" itree="301">
      <Node pos="s" depth="0" NCoef="0" IVar="6" Cut="-3.9339324831962585e-01" cType="1" res="-4.6766498126089573e-03" rms="3.8714057207107544e-01" purity="4.9379158020019531e-01" nType="0">
        <Node pos="l" depth="1" NCoef="0" IVar="8" Cut="-1.3330359756946564e-01" cType="1" res="1.8114246195182204e-03" rms="3.8731724023818970e-01" purity="4.4404226541519165e-01" nType="0">
          <Node pos="l" depth="2" NCoef="0" IVar="9" Cut="-6.6651213169097900e-01" cType="1" res="-7.5513273477554321e-03" rms="3.8172608613967896e-01" purity="4.1657212376594543e-01" nType="0">
            <Node pos="l" depth="3" NCoef="0" IVar="-1" Cut="0.0000000000000000e+00" cType="1" res="-2.0594881847500801e-02" rms="3.5886096954345703e-01" purity="3.3904817700386047e-01" nType="-99"/>
            <Node pos="r" depth="3" NCoef="0" IVar="-1" Cut="0.0000000000000000e+00" cType="1" res="3.5762975458055735e-03" rms="3.9442205429077148e-01" purity="4.6380850672721863e-01" nType="-99"/>
          </Node>
          <Node pos="r" depth="2" NCoef="0" IVar="4" Cut="1.3640673828125000e+02" cType="1" res="1.1325518600642681e-02" rms="3.9268866181373596e-01" purity="4.7195646166801453e-01" nType="0">
            <Node pos="l" depth="3" NCoef="0" IVar="-1" Cut="0.0000000000000000e+00" cType="1" res="1.4777289703488350e-02" rms="3.9216035604476929e-01" purity="3.5028129816055298e-01" nType="-99"/>
            <Node pos="r" depth="3" NCoef="0" IVar="-1" Cut="0.0000000000000000e+00" cType="1" res="-3.0734969768673182e-03" rms="3.9288392663002014e-01" purity="6.4498555660247803e-01" nType="-99"/>
          </Node>
        </Node>
        <Node pos="r" depth="1" NCoef="0" IVar="7" Cut="-1.7333704233169556e+00" cType="1" res="-8.0145802348852158e-03" rms="3.8700729608535767e-01" purity="5.1938623189926147e-01" nType="0">
          <Node pos="l" depth="2" NCoef="0" IVar="-1" Cut="0.0000000000000000e+00" cType="1" res="-2.8205916285514832e-02" rms="3.2569444179534912e-01" purity="1.9139517843723297e-01" nType="-99"/>
          <Node pos="r" depth="2" NCoef="0" IVar="6" Cut="1.4312278032302856e+00" cType="1" res="-6.5944180823862553e-03" rms="3.8998678326606750e-01" purity="5.3705877065658569e-01" nType="0">
            <Node pos="l" depth="3" NCoef="0" IVar="-1" Cut="0.0000000000000000e+00" cType="1" res="-5.3798477165400982e-03" rms="3.9577284455299377e-01" purity="5.7576733827590942e-01" nType="-99"/>
            <Node pos="r" depth="3" NCoef="0" IVar="-1" Cut="0.0000000000000000e+00" cType="1" res="7.4294055812060833e-03" rms="3.3901607990264893e-01" purity="2.2292944788932800e-01" nType="-99"/>
          </Node>
        </Node>
      </Node>
    </BinaryTree>
    <BinaryTree type="DecisionTree" boostWeight="1.0000000000000000e+00" itree="302">
      <Node pos="s" depth="0" NCoef="0" IVar="6" Cut="9.3687939643859863e-01" cType="1" res="2.0291197870392352e-04" rms="3.8701418042182922e-01" purity="4.9675199389457703e-01" nType="0">
        <Node pos="l" depth="1" NCoef="0" IVar="9" Cut="-1.4664777517318726e+00" cType="1" res="3.2103701960295439e-03" rms="3.9265909790992737e-01" purity="5.3709942102432251e-01" nType="0">
          <Node pos="l" depth="2" NCoef="0" IVar="6" Cut="-6.3929408788681030e-01" cType="1" res="1.6914991661906242e-02" rms="3.9116841554641724e-01" purity="4.3306776881217957e-01" nType="0">
            <Node pos="l" depth="3" NCoef="0" IVar="-1" Cut="0.0000000000000000e+00" cType="1" res="2.7439478784799576e-02" rms="3.6811462044715881e-01" purity="3.4735101461410522e-01" nType="-99"/>
            <Node pos="r" depth="3" NCoef="0" IVar="-1" Cut="0.0000000000000000e+00" cType="1" res="2.2835207637399435e-03" rms="4.0483492612838745e-01" purity="4.8848634958267212e-01" nType="-99"/>
          </Node>
          <Node pos="r" depth="2" NCoef="0" IVar="9" Cut="5.6517881155014038e-01" cType="1" res="1.1973299551755190e-03" rms="3.9283731579780579e-01" purity="5.5238038301467896e-01" nType="0">
            <Node pos="l" depth="3" NCoef="0" IVar="-1" Cut="0.0000000000000000e+00" cType="1" res="-2.3105589207261801e-03" rms="3.9123272895812988e-01" purity="5.6618529558181763e-01" nType="-99"/>
            <Node pos="r" depth="3" NCoef="0" IVar="-1" Cut="0.0000000000000000e+00" cType="1" res="6.0560414567589760e-03" rms="3.9547944068908691e-01" purity="5.2834212779998779e-01" nType="-99"/>
          </Node>
        </Node>
        <Node pos="r" depth="1" NCoef="0" IVar="9" Cut="-9.3309873342514038e-01" cType="1" res="-1.5176679007709026e-02" rms="3.5635700821876526e-01" purity="2.9042264819145203e-01" nType="0">
          <Node pos="l" depth="2" NCoef="0" IVar="-1" Cut="0.0000000000000000e+00" cType="1" res="3.5055410116910934e-03" rms="3.6043578386306763e-01" purity="2.6799812912940979e-01" nType="-99"/>
          <Node pos="r" depth="2" NCoef="0" IVar="6" Cut="1.1142731904983521e+00" cType="1" res="-2.0274305716156960e-02" rms="3.5511904954910278e-01" purity="2.9620611667633057e-01" nType="0">
            <Node pos="l" depth="3" NCoef="0" IVar="-1" Cut="0.0000000000000000e+00" cType="1" res="-2.8003081679344177e-02" rms="3.7927964329719543e-01" purity="4.3180930614471436e-01" nType="-99"/>
            <Node pos="r" depth="3" NCoef="0" IVar="-1" Cut="0.0000000000000000e+00" cType="1" res="-1.0701261460781097e-02" rms="3.4704059362411499e-01" purity="2.5446501374244690e-01" nType="-99"/>
          </Node>
        </Node>
      </Node>
    </BinaryTree>
    <BinaryTree type="DecisionTree" boostWeight="1.0000000000000000e+00" itree="303">
      <Node pos="s" depth="0" NCoef="0" IVar="8" Cut="-4.0004262328147888e-01" cType="1" res="1.9018817692995071e-03" rms="3.8712188601493835e-01" purity="5.0056886672973633e-01" nType="0">
        <Node pos="l" depth="1" NCoef="0" IVar="5" Cut="7.7955513000488281e+01" cType="1" res="9.4676725566387177e-03" rms="3.8749617338180542e-01" purity="4.7903269529342651e-01" nType="0">
          <Node pos="l" depth="2" NCoef="0" IVar="6" Cut="-1.2765263020992279e-01" cType="1" res="2.3416697978973389e-02" rms="3.8746136426925659e-01" purity="3.2414546608924866e-01" nType="0">
            <Node pos="l" depth="3" NCoef="0" IVar="-1" Cut="0.0000000000000000e+00" cType="1" res="5.3695598617196083e-03" rms="3.7617588043212891e-01" purity="2.9369902610778809e-01" nType="-99"/>
            <Node pos="r" depth="3" NCoef="0" IVar="-1" Cut="0.0000000000000000e+00" cType="1" res="2.6142463088035583e-02" rms="3.9806210994720459e-01" purity="3.5535666346549988e-01" nType="-99"/>
          </Node>
          <Node pos="r" depth="2" NCoef="0" IVar="8" Cut="-1.4285941123962402e+00" cType="1" res="-3.5885020624846220e-03" rms="3.8707357645034790e-01" purity="6.2400591373443604e-01" nType="0">
            <Node pos="l" depth="3" NCoef="0" IVar="-1" Cut="0.0000000000000000e+00" cType="1" res="-1.3653201982378960e-02" rms="3.9650455117225647e-01" purity="4.5838874578475952e-01" nType="-99"/>
            <Node pos="r" depth="3" NCoef="0" IVar="-1" Cut="0.0000000000000000e+00" cType="1" res="1.5633924631401896e-03" rms="3.8371267914772034e-01" purity="6.7884796857833862e-01" nType="-99"/>
          </Node>
        </Node>
        <Node pos="r" depth="1" NCoef="0" IVar="7" Cut="-6.6672617197036743e-01" cType="1" res="-2.5476519949734211e-03" rms="3.8683247566223145e-01" purity="5.1323461532592773e-01" nType="0">
          <Node pos="l" depth="2" NCoef="0" IVar="7" Cut="-1.5809884071350098e+00" cType="1" res="1.1385301128029823e-02" rms="3.9376884698867798e-01" purity="4.4362279772758484e-01" nType="0">
            <Node pos="l" depth="3" NCoef="0" IVar="-1" Cut="0.0000000000000000e+00" cType="1" res="-1.2021289207041264e-02" rms="3.4637892246246338e-01" purity="2.3865631222724915e-01" nType="-99"/>
            <Node pos="r" depth="3" NCoef="0" IVar="-1" Cut="0.0000000000000000e+00" cType="1" res="1.3064612634480000e-02" rms="4.0920037031173706e-01" purity="5.1814317703247070e-01" nType="-99"/>
          </Node>
          <Node pos="r" depth="2" NCoef="0" IVar="9" Cut="-1.3340485095977783e-01" cType="1" res="-7.0492434315383434e-03" rms="3.8445675373077393e-01" purity="5.3572547435760498e-01" nType="0">
            <Node pos="l" depth="3" NCoef="0" IVar="-1" Cut="0.0000000000000000e+00" cType="1" res="-1.1331849731504917e-02" rms="3.8599917292594910e-01" purity="5.4778516292572021e-01" nType="-99"/>
            <Node pos="r" depth="3" NCoef="0" IVar="-1" Cut="0.0000000000000000e+00" cType="1" res="8.6100211774464697e-05" rms="3.8322603702545166e-01" purity="5.2741914987564087e-01" nType="-99"/>
          </Node>
        </Node>
      </Node>
    </BinaryTree>
    <BinaryTree type="DecisionTree" boostWeight="1.0000000000000000e+00" itree="304">
      <Node pos="s" depth="0" NCoef="0" IVar="8" Cut="1.9999766349792480e+00" cType="1" res="1.8372009508311749e-03" rms="3.8856902718544006e-01" purity="5.0077056884765625e-01" nType="0">
        <Node pos="l" depth="1" NCoef="0" IVar="7" Cut="1.2000100612640381e+00" cType="1" res="7.1700313128530979e-04" rms="3.8965407013893127e-01" purity="5.1160800457000732e-01" nType="0">
          <Node pos="l" depth="2" NCoef="0" IVar="7" Cut="-3.2376712560653687e-01" cType="1" res="2.7938822750002146e-03" rms="3.9319324493408203e-01" purity="5.4242777824401855e-01" nType="0">
            <Node pos="l" depth="3" NCoef="0" IVar="-1" Cut="0.0000000000000000e+00" cType="1" res="-2.5048635434359312e-03" rms="3.8642010092735291e-01" purity="4.7355884313583374e-01" nType="-99"/>
            <Node pos="r" depth="3" NCoef="0" IVar="-1" Cut="0.0000000000000000e+00" cType="1" res="5.0164777785539627e-03" rms="3.9833647012710571e-01" purity="5.9631085395812988e-01" nType="-99"/>
          </Node>
          <Node pos="r" depth="2" NCoef="0" IVar="2" Cut="3.0491088867187500e+02" cType="1" res="-1.3443280011415482e-02" rms="3.6429381370544434e-01" purity="3.0147662758827209e-01" nType="0">
            <Node pos="l" depth="3" NCoef="0" IVar="-1" Cut="0.0000000000000000e+00" cType="1" res="3.7991041317582130e-03" rms="3.7203282117843628e-01" purity="3.0772551894187927e-01" nType="-99"/>
            <Node pos="r" depth="3" NCoef="0" IVar="-1" Cut="0.0000000000000000e+00" cType="1" res="-1.9799599424004555e-02" rms="3.5788249969482422e-01" purity="2.9689332842826843e-01" nType="-99"/>
          </Node>
        </Node>
        <Node pos="r" depth="1" NCoef="0" IVar="-1" Cut="0.0000000000000000e+00" cType="1" res="1.9953196868300438e-02" rms="3.6386385560035706e-01" purity="2.6985010504722595e-01" nType="-99"/>
      </Node>
    </BinaryTree>
    <BinaryTree type="DecisionTree" boostWeight="1.0000000000000000e+00" itree="305">
      <Node pos="s" depth="0" NCoef="0" IVar="8" Cut="6.6665613651275635e-01" cType="1" res="2.2204017732292414e-03" rms="3.8976863026618958e-01" purity="4.9832841753959656e-01" nType="0">
        <Node pos="l" depth="1" NCoef="0" IVar="8" Cut="-6.5397554636001587e-01" cType="1" res="6.8508242256939411e-03" rms="3.9181131124496460e-01" purity="5.2728408575057983e-01" nType="0">
          <Node pos="l" depth="2" NCoef="0" IVar="9" Cut="1.1994031667709351e+00" cType="1" res="-2.5063233915716410e-03" rms="3.8594371080398560e-01" purity="4.3166363239288330e-01" nType="0">
            <Node pos="l" depth="3" NCoef="0" IVar="-1" Cut="0.0000000000000000e+00" cType="1" res="1.6634551575407386e-03" rms="3.8882610201835632e-01" purity="4.4743350148200989e-01" nType="-99"/>
            <Node pos="r" depth="3" NCoef="0" IVar="-1" Cut="0.0000000000000000e+00" cType="1" res="-2.1917006000876427e-02" rms="3.6758559942245483e-01" purity="3.4087392687797546e-01" nType="-99"/>
          </Node>
          <Node pos="r" depth="2" NCoef="0" IVar="6" Cut="6.8564897775650024e-01" cType="1" res="1.2907483614981174e-02" rms="3.9544484019279480e-01" purity="5.8917689323425293e-01" nType="0">
            <Node pos="l" depth="3" NCoef="0" IVar="-1" Cut="0.0000000000000000e+00" cType="1" res="5.6769633665680885e-03" rms="3.9347371459007263e-01" purity="6.2013202905654907e-01" nType="-99"/>
            <Node pos="r" depth="3" NCoef="0" IVar="-1" Cut="0.0000000000000000e+00" cType="1" res="1.7896672710776329e-02" rms="4.0204018354415894e-01" purity="4.7885420918464661e-01" nType="-99"/>
          </Node>
        </Node>
        <Node pos="r" depth="1" NCoef="0" IVar="4" Cut="1.0559147644042969e+02" cType="1" res="-9.8165497183799744e-03" rms="3.8414683938026428e-01" purity="4.2305716872215271e-01" nType="0">
          <Node pos="l" depth="2" NCoef="0" IVar="9" Cut="-1.3335195183753967e-01" cType="1" res="-2.0204409956932068e-02" rms="3.5208579897880554e-01" purity="2.2015798091888428e-01" nType="0">
            <Node pos="l" depth="3" NCoef="0" IVar="-1" Cut="0.0000000000000000e+00" cType="1" res="1.8910228973254561e-03" rms="3.7712034583091736e-01" purity="2.7375450730323792e-01" nType="-99"/>
            <Node pos="r" depth="3" NCoef="0" IVar="-1" Cut="0.0000000000000000e+00" cType="1" res="-2.8654519468545914e-02" rms="3.3248257637023926e-01" purity="1.8260602653026581e-01" nType="-99"/>
          </Node>
          <Node pos="r" depth="2" NCoef="0" IVar="2" Cut="4.7359085083007812e+02" cType="1" res="-2.9689432121813297e-03" rms="4.0374571084976196e-01" purity="5.5680692195892334e-01" nType="0">
            <Node pos="l" depth="3" NCoef="0" IVar="-1" Cut="0.0000000000000000e+00" cType="1" res="1.7031206516548991e-03" rms="4.0720358490943909e-01" purity="5.6063145399093628e-01" nType="-99"/>
            <Node pos="r" depth="3" NCoef="0" IVar="-1" Cut="0.0000000000000000e+00" cType="1" res="-1.6070870682597160e-02" rms="3.8923791050910950e-01" purity="5.4196095466613770e-01" nType="-99"/>
          </Node>
        </Node>
      </Node>
    </BinaryTree>
    <BinaryTree type="DecisionTree" boostWeight="1.0000000000000000e+00" itree="306">
      <Node pos="s" depth="0" NCoef="0" IVar="5" Cut="1.0769292449951172e+02" cType="1" res="1.3165280688554049e-03" rms="3.9084833860397339e-01" purity="4.9870085716247559e-01" nType="0">
        <Node pos="l" depth="1" NCoef="0" IVar="5" Cut="6.3736194610595703e+01" cType="1" res="4.0333308279514313e-03" rms="4.0143948793411255e-01" purity="4.0062764286994934e-01" nType="0">
          <Node pos="l" depth="2" NCoef="0" IVar="3" Cut="2.3165689086914062e+02" cType="1" res="1.2964166700839996e-02" rms="3.8284349441528320e-01" purity="2.8054052591323853e-01" nType="0">
            <Node pos="l" depth="3" NCoef="0" IVar="-1" Cut="0.0000000000000000e+00" cType="1" res="2.9978652019053698e-03" rms="3.6884045600891113e-01" purity="2.2538034617900848e-01" nType="-99"/>
            <Node pos="r" depth="3" NCoef="0" IVar="-1" Cut="0.0000000000000000e+00" cType="1" res="2.6336280629038811e-02" rms="4.2719069123268127e-01" purity="4.7557565569877625e-01" nType="-99"/>
          </Node>
          <Node pos="r" depth="2" NCoef="0" IVar="5" Cut="8.0481353759765625e+01" cType="1" res="-1.1657002614811063e-03" rms="4.1178938746452332e-01" purity="4.7053563594818115e-01" nType="0">
            <Node pos="l" depth="3" NCoef="0" IVar="-1" Cut="0.0000000000000000e+00" cType="1" res="-5.9516015462577343e-03" rms="4.0691983699798584e-01" purity="3.8220065832138062e-01" nType="-99"/>
            <Node pos="r" depth="3" NCoef="0" IVar="-1" Cut="0.0000000000000000e+00" cType="1" res="4.3081953190267086e-03" rms="4.1625547409057617e-01" purity="5.5575400590896606e-01" nType="-99"/>
          </Node>
        </Node>
        <Node pos="r" depth="1" NCoef="0" IVar="1" Cut="1.6802177734375000e+03" cType="1" res="-5.8129681274294853e-03" rms="3.6148545145988464e-01" purity="7.5606673955917358e-01" nType="0">
          <Node pos="l" depth="2" NCoef="0" IVar="2" Cut="3.4977471923828125e+02" cType="1" res="-1.1360529810190201e-02" rms="3.9050173759460449e-01" purity="6.9422829151153564e-01" nType="0">
            <Node pos="l" depth="3" NCoef="0" IVar="-1" Cut="0.0000000000000000e+00" cType="1" res="-2.7551311068236828e-03" rms="3.8595357537269592e-01" purity="7.1902197599411011e-01" nType="-99"/>
            <Node pos="r" depth="3" NCoef="0" IVar="-1" Cut="0.0000000000000000e+00" cType="1" res="-1.5872919932007790e-02" rms="3.9839911460876465e-01" purity="6.4852333068847656e-01" nType="-99"/>
          </Node>
          <Node pos="r" depth="2" NCoef="0" IVar="9" Cut="1.3379882276058197e-01" cType="1" res="3.8243737071752548e-03" rms="3.0433440208435059e-01" purity="8.6349391937255859e-01" nType="0">
            <Node pos="l" depth="3" NCoef="0" IVar="-1" Cut="0.0000000000000000e+00" cType="1" res="9.9737765267491341e-03" rms="2.9968875646591187e-01" purity="8.7458550930023193e-01" nType="-99"/>
            <Node pos="r" depth="3" NCoef="0" IVar="-1" Cut="0.0000000000000000e+00" cType="1" res="-3.8885062094777822e-03" rms="3.1038346886634827e-01" purity="8.4840631484985352e-01" nType="-99"/>
          </Node>
        </Node>
      </Node>
    </BinaryTree>
    <BinaryTree type="DecisionTree" boostWeight="1.0000000000000000e+00" itree="307">
      <Node pos="s" depth="0" NCoef="0" IVar="9" Cut="-2.2666575908660889e+00" cType="1" res="1.8651507562026381e-03" rms="3.9001199603080750e-01" purity="5.0086736679077148e-01" nType="0">
        <Node pos="l" depth="1" NCoef="0" IVar="-1" Cut="0.0000000000000000e+00" cType="1" res="-1.9471503794193268e-02" rms="3.6260867118835449e-01" purity="2.8158292174339294e-01" nType="-99"/>
        <Node pos="r" depth="1" NCoef="0" IVar="0" Cut="4.5299465942382812e+02" cType="1" res="2.7379635721445084e-03" rms="3.9077055454254150e-01" purity="5.0744259357452393e-01" nType="0">
          <Node pos="l" depth="2" NCoef="0" IVar="3" Cut="3.6291619873046875e+02" cType="1" res="6.1009209603071213e-03" rms="3.9954686164855957e-01" purity="3.7786236405372620e-01" nType="0">
            <Node pos="l" depth="3" NCoef="0" IVar="-1" Cut="0.0000000000000000e+00" cType="1" res="2.2772888187319040e-03" rms="3.9894467592239380e-01" purity="3.6731687188148499e-01" nType="-99"/>
            <Node pos="r" depth="3" NCoef="0" IVar="-1" Cut="0.0000000000000000e+00" cType="1" res="3.0541285872459412e-02" rms="4.0779706835746765e-01" purity="5.7466953992843628e-01" nType="-99"/>
          </Node>
          <Node pos="r" depth="2" NCoef="0" IVar="1" Cut="2.1292333984375000e+03" cType="1" res="-2.5983797386288643e-03" rms="3.7636286020278931e-01" purity="7.1306061744689941e-01" nType="0">
            <Node pos="l" depth="3" NCoef="0" IVar="-1" Cut="0.0000000000000000e+00" cType="1" res="-3.5398472100496292e-03" rms="3.7963697314262390e-01" purity="7.0125740766525269e-01" nType="-99"/>
            <Node pos="r" depth="3" NCoef="0" IVar="-1" Cut="0.0000000000000000e+00" cType="1" res="1.4894068241119385e-02" rms="3.4568655490875244e-01" purity="8.1623476743698120e-01" nType="-99"/>
          </Node>
        </Node>
      </Node>
    </BinaryTree>
    <BinaryTree type="DecisionTree" boostWeight="1.0000000000000000e+00" itree="308">
      <Node pos="s" depth="0" NCoef="0" IVar="7" Cut="1.2000100612640381e+00" cType="1" res="1.3871587580069900e-03" rms="3.9060226082801819e-01" purity="4.9928078055381775e-01" nType="0">
        <Node pos="l" depth="1" NCoef="0" IVar="8" Cut="1.7333102226257324e+00" cType="1" res="-8.0427451757714152e-04" rms="3.9297056198120117e-01" purity="5.2890604734420776e-01" nType="0">
          <Node pos="l" depth="2" NCoef="0" IVar="7" Cut="-1.4665900468826294e+00" cType="1" res="-2.6175917591899633e-03" rms="3.9322891831398010e-01" purity="5.4156535863876343e-01" nType="0">
            <Node pos="l" depth="3" NCoef="0" IVar="-1" Cut="0.0000000000000000e+00" cType="1" res="1.0774159803986549e-02" rms="3.6382579803466797e-01" purity="2.8377926349639893e-01" nType="-99"/>
            <Node pos="r" depth="3" NCoef="0" IVar="-1" Cut="0.0000000000000000e+00" cType="1" res="-2.9288900550454855e-03" rms="3.9651703834533691e-01" purity="5.7207107543945312e-01" nType="-99"/>
          </Node>
          <Node pos="r" depth="2" NCoef="0" IVar="9" Cut="1.3393209874629974e-01" cType="1" res="2.5643613189458847e-02" rms="3.8822150230407715e-01" purity="3.4426632523536682e-01" nType="0">
            <Node pos="l" depth="3" NCoef="0" IVar="-1" Cut="0.0000000000000000e+00" cType="1" res="3.4172858577221632e-03" rms="3.7962383031845093e-01" purity="3.5131925344467163e-01" nType="-99"/>
            <Node pos="r" depth="3" NCoef="0" IVar="-1" Cut="0.0000000000000000e+00" cType="1" res="3.1107341870665550e-02" rms="3.9476147294044495e-01" purity="3.3805251121520996e-01" nType="-99"/>
          </Node>
        </Node>
        <Node pos="r" depth="1" NCoef="0" IVar="7" Cut="1.3523924350738525e+00" cType="1" res="1.5607535839080811e-02" rms="3.7455925345420837e-01" purity="3.0704015493392944e-01" nType="0">
          <Node pos="l" depth="2" NCoef="0" IVar="-1" Cut="0.0000000000000000e+00" cType="1" res="3.3071786165237427e-02" rms="4.1333577036857605e-01" purity="4.6277368068695068e-01" nType="-99"/>
          <Node pos="r" depth="2" NCoef="0" IVar="6" Cut="7.2113770246505737e-01" cType="1" res="5.6156376376748085e-03" rms="3.6272117495536804e-01" purity="2.6494207978248596e-01" nType="0">
            <Node pos="l" depth="3" NCoef="0" IVar="-1" Cut="0.0000000000000000e+00" cType="1" res="9.6860090270638466e-03" rms="3.8078448176383972e-01" purity="3.0799195170402527e-01" nType="-99"/>
            <Node pos="r" depth="3" NCoef="0" IVar="-1" Cut="0.0000000000000000e+00" cType="1" res="-1.4318790286779404e-02" rms="3.1180477142333984e-01" purity="1.5663775801658630e-01" nType="-99"/>
          </Node>
        </Node>
      </Node>
    </BinaryTree>
    <BinaryTree type="DecisionTree" boostWeight="1.0000000000000000e+00" itree="309">
      <Node pos="s" depth="0" NCoef="0" IVar="9" Cut="1.1999943256378174e+00" cType="1" res="3.5108742304146290e-04" rms="3.8935324549674988e-01" purity="4.9772465229034424e-01" nType="0">
        <Node pos="l" depth="1" NCoef="0" IVar="6" Cut="-1.1821110248565674e+00" cType="1" res="-2.2765456233173609e-03" rms="3.8970601558685303e-01" purity="5.1317638158798218e-01" nType="0">
          <Node pos="l" depth="2" NCoef="0" IVar="6" Cut="-1.4854835271835327e+00" cType="1" res="1.4130293391644955e-02" rms="3.6581927537918091e-01" purity="2.8750419616699219e-01" nType="0">
            <Node pos="l" depth="3" NCoef="0" IVar="-1" Cut="0.0000000000000000e+00" cType="1" res="-4.5643112389370799e-04" rms="3.3737072348594666e-01" purity="2.0419663190841675e-01" nType="-99"/>
            <Node pos="r" depth="3" NCoef="0" IVar="-1" Cut="0.0000000000000000e+00" cType="1" res="2.1594889461994171e-02" rms="3.9886686205863953e-01" purity="3.9540496468544006e-01" nType="-99"/>
          </Node>
          <Node pos="r" depth="2" NCoef="0" IVar="9" Cut="-8.9523601531982422e-01" cType="1" res="-4.4188904576003551e-03" rms="3.9266723394393921e-01" purity="5.4264378547668457e-01" nType="0">
            <Node pos="l" depth="3" NCoef="0" IVar="-1" Cut="0.0000000000000000e+00" cType="1" res="4.2738798074424267e-03" rms="3.9684122800827026e-01" purity="4.8923632502555847e-01" nType="-99"/>
            <Node pos="r" depth="3" NCoef="0" IVar="-1" Cut="0.0000000000000000e+00" cType="1" res="-5.8562005870044231e-03" rms="3.9087831974029541e-01" purity="5.6420242786407471e-01" nType="-99"/>
          </Node>
        </Node>
        <Node pos="r" depth="1" NCoef="0" IVar="7" Cut="1.2000414133071899e+00" cType="1" res="1.2494149617850780e-02" rms="3.8748741149902344e-01" purity="4.2631769180297852e-01" nType="0">
          <Node pos="l" depth="2" NCoef="0" IVar="6" Cut="-6.0862667858600616e-02" cType="1" res="1.8211783841252327e-02" rms="3.9858034253120422e-01" purity="4.7678214311599731e-01" nType="0">
            <Node pos="l" depth="3" NCoef="0" IVar="-1" Cut="0.0000000000000000e+00" cType="1" res="3.8355774449883029e-05" rms="3.9900979399681091e-01" purity="4.6318292617797852e-01" nType="-99"/>
            <Node pos="r" depth="3" NCoef="0" IVar="-1" Cut="0.0000000000000000e+00" cType="1" res="2.0217005163431168e-02" rms="3.9776495099067688e-01" purity="4.8651143908500671e-01" nType="-99"/>
          </Node>
          <Node pos="r" depth="2" NCoef="0" IVar="-1" Cut="0.0000000000000000e+00" cType="1" res="-1.1982114985585213e-02" rms="3.3034053444862366e-01" purity="1.9379922747612000e-01" nType="-99"/>
        </Node>
      </Node>
    </BinaryTree>
    <BinaryTree type="DecisionTree" boostWeight="1.0000000000000000e+00" itree="310">
      <Node pos="s" depth="0" NCoef="0" IVar="9" Cut="1.4665534496307373e+00" cType="1" res="-2.2272686474025249e-03" rms="3.8564491271972656e-01" purity="4.9687281250953674e-01" nType="0">
        <Node pos="l" depth="1" NCoef="0" IVar="3" Cut="3.9922897338867188e+02" cType="1" res="-1.7248727090191096e-04" rms="3.8753497600555420e-01" purity="5.1265835762023926e-01" nType="0">
          <Node pos="l" depth="2" NCoef="0" IVar="1" Cut="1.5509350585937500e+03" cType="1" res="1.1861616512760520e-03" rms="3.8761931657791138e-01" purity="5.0661462545394897e-01" nType="0">
            <Node pos="l" depth="3" NCoef="0" IVar="-1" Cut="0.0000000000000000e+00" cType="1" res="-1.6700860578566790e-03" rms="4.0005764365196228e-01" purity="4.2466691136360168e-01" nType="-99"/>
            <Node pos="r" depth="3" NCoef="0" IVar="-1" Cut="0.0000000000000000e+00" cType="1" res="1.2658034451305866e-02" rms="3.3846980333328247e-01" purity="8.0300188064575195e-01" nType="-99"/>
          </Node>
          <Node pos="r" depth="2" NCoef="0" IVar="-1" Cut="0.0000000000000000e+00" cType="1" res="-2.0976021885871887e-02" rms="3.8429009914398193e-01" purity="6.5095442533493042e-01" nType="-99"/>
        </Node>
        <Node pos="r" depth="1" NCoef="0" IVar="4" Cut="1.3409791564941406e+02" cType="1" res="-1.7013575881719589e-02" rms="3.7142539024353027e-01" purity="3.8327932357788086e-01" nType="0">
          <Node pos="l" depth="2" NCoef="0" IVar="4" Cut="9.0074424743652344e+01" cType="1" res="-2.8053948655724525e-02" rms="3.5861057043075562e-01" purity="2.5222724676132202e-01" nType="0">
            <Node pos="l" depth="3" NCoef="0" IVar="-1" Cut="0.0000000000000000e+00" cType="1" res="-1.2149184010922909e-02" rms="3.3379068970680237e-01" purity="1.6001345217227936e-01" nType="-99"/>
            <Node pos="r" depth="3" NCoef="0" IVar="-1" Cut="0.0000000000000000e+00" cType="1" res="-2.4748278781771660e-02" rms="3.7836837768554688e-01" purity="3.3208435773849487e-01" nType="-99"/>
          </Node>
          <Node pos="r" depth="2" NCoef="0" IVar="-1" Cut="0.0000000000000000e+00" cType="1" res="1.0175249772146344e-03" rms="3.9139026403427124e-01" purity="6.0435950756072998e-01" nType="-99"/>
        </Node>
      </Node>
    </BinaryTree>
    <BinaryTree type="DecisionTree" boostWeight="1.0000000000000000e+00" itree="311">
      <Node pos="s" depth="0" NCoef="0" IVar="7" Cut="-1.2000035047531128e+00" cType="1" res="-2.2128405980765820e-03" rms="3.8505190610885620e-01" purity="5.0124895572662354e-01" nType="0">
        <Node pos="l" depth="1" NCoef="0" IVar="4" Cut="1.2837522888183594e+02" cType="1" res="7.2909765876829624e-03" rms="3.6986067891120911e-01" purity="3.1645259261131287e-01" nType="0">
          <Node pos="l" depth="2" NCoef="0" IVar="8" Cut="-1.3348628580570221e-01" cType="1" res="-6.1916204867884517e-04" rms="3.4160664677619934e-01" purity="1.9956080615520477e-01" nType="0">
            <Node pos="l" depth="3" NCoef="0" IVar="-1" Cut="0.0000000000000000e+00" cType="1" res="-1.5381089411675930e-02" rms="3.1633239984512329e-01" purity="1.7328521609306335e-01" nType="-99"/>
            <Node pos="r" depth="3" NCoef="0" IVar="-1" Cut="0.0000000000000000e+00" cType="1" res="1.4321331866085529e-02" rms="3.6636778712272644e-01" purity="2.2831037640571594e-01" nType="-99"/>
          </Node>
          <Node pos="r" depth="2" NCoef="0" IVar="4" Cut="1.6372819519042969e+02" cType="1" res="1.9868029281497002e-02" rms="4.1048872470855713e-01" purity="5.0230950117111206e-01" nType="0">
            <Node pos="l" depth="3" NCoef="0" IVar="-1" Cut="0.0000000000000000e+00" cType="1" res="1.8942467868328094e-02" rms="4.1115048527717590e-01" purity="4.4057351350784302e-01" nType="-99"/>
            <Node pos="r" depth="3" NCoef="0" IVar="-1" Cut="0.0000000000000000e+00" cType="1" res="6.2263337895274162e-03" rms="4.0962049365043640e-01" purity="5.5883949995040894e-01" nType="-99"/>
          </Node>
        </Node>
        <Node pos="r" depth="1" NCoef="0" IVar="3" Cut="1.4012852478027344e+02" cType="1" res="-3.7113111466169357e-03" rms="3.8737145066261292e-01" purity="5.3038585186004639e-01" nType="0">
          <Node pos="l" depth="2" NCoef="0" IVar="7" Cut="-2.4754518270492554e-01" cType="1" res="-1.3313040137290955e-02" rms="3.6783120036125183e-01" purity="2.3247270286083221e-01" nType="0">
            <Node pos="l" depth="3" NCoef="0" IVar="-1" Cut="0.0000000000000000e+00" cType="1" res="-1.9300535321235657e-02" rms="3.6964520812034607e-01" purity="2.4186958372592926e-01" nType="-99"/>
            <Node pos="r" depth="3" NCoef="0" IVar="-1" Cut="0.0000000000000000e+00" cType="1" res="-4.6732248738408089e-03" rms="3.6686086654663086e-01" purity="2.2856402397155762e-01" nType="-99"/>
          </Node>
          <Node pos="r" depth="2" NCoef="0" IVar="8" Cut="9.3326848745346069e-01" cType="1" res="-1.2705910485237837e-03" rms="3.9214587211608887e-01" purity="6.0611414909362793e-01" nType="0">
            <Node pos="l" depth="3" NCoef="0" IVar="-1" Cut="0.0000000000000000e+00" cType="1" res="-2.8160391375422478e-03" rms="3.9123114943504333e-01" purity="6.2973141670227051e-01" nType="-99"/>
            <Node pos="r" depth="3" NCoef="0" IVar="-1" Cut="0.0000000000000000e+00" cType="1" res="6.6773337312042713e-03" rms="3.9546409249305725e-01" purity="5.1404362916946411e-01" nType="-99"/>
          </Node>
        </Node>
      </Node>
    </BinaryTree>
    <BinaryTree type="DecisionTree" boostWeight="1.0000000000000000e+00" itree="312">
      <Node pos="s" depth="0" NCoef="0" IVar="8" Cut="1.1999243497848511e+00" cType="1" res="-3.1406597699970007e-03" rms="3.8290029764175415e-01" purity="4.9717757105827332e-01" nType="0">
        <Node pos="l" depth="1" NCoef="0" IVar="9" Cut="1.9999915361404419e+00" cType="1" res="-4.9173354636877775e-04" rms="3.8476783037185669e-01" purity="5.2525097131729126e-01" nType="0">
          <Node pos="l" depth="2" NCoef="0" IVar="9" Cut="1.7142219841480255e-01" cType="1" res="6.3772138673812151e-04" rms="3.8525649905204773e-01" purity="5.3334259986877441e-01" nType="0">
            <Node pos="l" depth="3" NCoef="0" IVar="-1" Cut="0.0000000000000000e+00" cType="1" res="-2.2952284198254347e-03" rms="3.8333746790885925e-01" purity="5.2071696519851685e-01" nType="-99"/>
            <Node pos="r" depth="3" NCoef="0" IVar="-1" Cut="0.0000000000000000e+00" cType="1" res="4.2771962471306324e-03" rms="3.8792419433593750e-01" purity="5.5150616168975830e-01" nType="-99"/>
          </Node>
          <Node pos="r" depth="2" NCoef="0" IVar="-1" Cut="0.0000000000000000e+00" cType="1" res="-1.5603765845298767e-02" rms="3.7421473860740662e-01" purity="3.6439633369445801e-01" nType="-99"/>
        </Node>
        <Node pos="r" depth="1" NCoef="0" IVar="3" Cut="2.0974014282226562e+02" cType="1" res="-1.8436664715409279e-02" rms="3.7156370282173157e-01" purity="3.3507022261619568e-01" nType="0">
          <Node pos="l" depth="2" NCoef="0" IVar="6" Cut="-3.8563767075538635e-01" cType="1" res="-5.6523797102272511e-03" rms="3.6995086073875427e-01" purity="2.5302737951278687e-01" nType="0">
            <Node pos="l" depth="3" NCoef="0" IVar="-1" Cut="0.0000000000000000e+00" cType="1" res="1.4896825887262821e-02" rms="3.7246289849281311e-01" purity="2.7294149994850159e-01" nType="-99"/>
            <Node pos="r" depth="3" NCoef="0" IVar="-1" Cut="0.0000000000000000e+00" cType="1" res="-1.3195522129535675e-02" rms="3.6808583140373230e-01" purity="2.4335075914859772e-01" nType="-99"/>
          </Node>
          <Node pos="r" depth="2" NCoef="0" IVar="8" Cut="1.6570609807968140e+00" cType="1" res="-3.9839457720518112e-02" rms="3.7326946854591370e-01" purity="4.7242215275764465e-01" nType="0">
            <Node pos="l" depth="3" NCoef="0" IVar="-1" Cut="0.0000000000000000e+00" cType="1" res="-2.1536126732826233e-02" rms="3.7246742844581604e-01" purity="5.3580898046493530e-01" nType="-99"/>
            <Node pos="r" depth="3" NCoef="0" IVar="-1" Cut="0.0000000000000000e+00" cType="1" res="-2.8672689571976662e-02" rms="3.7406945228576660e-01" purity="4.0145546197891235e-01" nType="-99"/>
          </Node>
        </Node>
      </Node>
    </BinaryTree>
    <BinaryTree type="DecisionTree" boostWeight="1.0000000000000000e+00" itree="313">
      <Node pos="s" depth="0" NCoef="0" IVar="6" Cut="9.3714755773544312e-01" cType="1" res="-2.5438279844820499e-03" rms="3.8779112696647644e-01" purity="4.9692320823669434e-01" nType="0">
        <Node pos="l" depth="1" NCoef="0" IVar="7" Cut="1.1999464035034180e+00" cType="1" res="-4.9457773566246033e-03" rms="3.9139798283576965e-01" purity="5.3378391265869141e-01" nType="0">
          <Node pos="l" depth="2" NCoef="0" IVar="3" Cut="2.2991146850585938e+02" cType="1" res="-6.9178999401628971e-03" rms="3.9279076457023621e-01" purity="5.6038463115692139e-01" nType="0">
            <Node pos="l" depth="3" NCoef="0" IVar="-1" Cut="0.0000000000000000e+00" cType="1" res="-7.5790272094309330e-03" rms="4.0585985779762268e-01" purity="4.5532709360122681e-01" nType="-99"/>
            <Node pos="r" depth="3" NCoef="0" IVar="-1" Cut="0.0000000000000000e+00" cType="1" res="1.3131579617038369e-03" rms="3.7136828899383545e-01" purity="7.2388100624084473e-01" nType="-99"/>
          </Node>
          <Node pos="r" depth="2" NCoef="0" IVar="8" Cut="-6.6533267498016357e-01" cType="1" res="8.5699670016765594e-03" rms="3.8144180178642273e-01" purity="3.5147866606712341e-01" nType="0">
            <Node pos="l" depth="3" NCoef="0" IVar="-1" Cut="0.0000000000000000e+00" cType="1" res="-2.7777830138802528e-02" rms="3.4879210591316223e-01" purity="2.4039165675640106e-01" nType="-99"/>
            <Node pos="r" depth="3" NCoef="0" IVar="-1" Cut="0.0000000000000000e+00" cType="1" res="1.6394644975662231e-02" rms="3.9037144184112549e-01" purity="3.8817811012268066e-01" nType="-99"/>
          </Node>
        </Node>
        <Node pos="r" depth="1" NCoef="0" IVar="4" Cut="1.7418589782714844e+02" cType="1" res="9.4363838434219360e-03" rms="3.6904203891754150e-01" purity="3.1307297945022583e-01" nType="0">
          <Node pos="l" depth="2" NCoef="0" IVar="7" Cut="4.0041536092758179e-01" cType="1" res="1.6683265566825867e-02" rms="3.6451378464698792e-01" purity="2.5914177298545837e-01" nType="0">
            <Node pos="l" depth="3" NCoef="0" IVar="-1" Cut="0.0000000000000000e+00" cType="1" res="2.2747324779629707e-02" rms="3.8334625959396362e-01" purity="2.9137903451919556e-01" nType="-99"/>
            <Node pos="r" depth="3" NCoef="0" IVar="-1" Cut="0.0000000000000000e+00" cType="1" res="-2.4667512625455856e-03" rms="3.3537104725837708e-01" purity="2.1395844221115112e-01" nType="-99"/>
          </Node>
          <Node pos="r" depth="2" NCoef="0" IVar="-1" Cut="0.0000000000000000e+00" cType="1" res="-1.5175147913396358e-02" rms="3.8761991262435913e-01" purity="5.6367623805999756e-01" nType="-99"/>
        </Node>
      </Node>
    </BinaryTree>
    <BinaryTree type="DecisionTree" boostWeight="1.0000000000000000e+00" itree="314">
      <Node pos="s" depth="0" NCoef="0" IVar="8" Cut="-9.3335872888565063e-01" cType="1" res="3.8542577531188726e-03" rms="3.8962218165397644e-01" purity="5.0083011388778687e-01" nType="0">
        <Node pos="l" depth="1" NCoef="0" IVar="1" Cut="1.0729152832031250e+03" cType="1" res="1.4365653507411480e-02" rms="3.8104844093322754e-01" purity="4.2072427272796631e-01" nType="0">
          <Node pos="l" depth="2" NCoef="0" IVar="-1" Cut="0.0000000000000000e+00" cType="1" res="-1.1774360202252865e-02" rms="3.2202073931694031e-01" purity="1.4247298240661621e-01" nType="-99"/>
          <Node pos="r" depth="2" NCoef="0" IVar="7" Cut="-4.0014407038688660e-01" cType="1" res="2.6784151792526245e-02" rms="4.0433853864669800e-01" purity="5.4668414592742920e-01" nType="0">
            <Node pos="l" depth="3" NCoef="0" IVar="-1" Cut="0.0000000000000000e+00" cType="1" res="2.7183396741747856e-02" rms="4.0479841828346252e-01" purity="5.2082288265228271e-01" nType="-99"/>
            <Node pos="r" depth="3" NCoef="0" IVar="-1" Cut="0.0000000000000000e+00" cType="1" res="8.5081486031413078e-03" rms="4.0351542830467224e-01" purity="5.6529414653778076e-01" nType="-99"/>
          </Node>
        </Node>
        <Node pos="r" depth="1" NCoef="0" IVar="3" Cut="1.4645880126953125e+02" cType="1" res="9.1366993729025126e-04" rms="3.9193665981292725e-01" purity="5.2323991060256958e-01" nType="0">
          <Node pos="l" depth="2" NCoef="0" IVar="6" Cut="9.4164842367172241e-01" cType="1" res="1.0849630460143089e-02" rms="3.9256864786148071e-01" purity="2.7309218049049377e-01" nType="0">
            <Node pos="l" depth="3" NCoef="0" IVar="-1" Cut="0.0000000000000000e+00" cType="1" res="1.1190144345164299e-02" rms="4.1128179430961609e-01" purity="3.1040546298027039e-01" nType="-99"/>
            <Node pos="r" depth="3" NCoef="0" IVar="-1" Cut="0.0000000000000000e+00" cType="1" res="-1.6241533681750298e-02" rms="3.0808076262474060e-01" purity="1.2863112986087799e-01" nType="-99"/>
          </Node>
          <Node pos="r" depth="2" NCoef="0" IVar="3" Cut="4.1660400390625000e+02" cType="1" res="-2.2119036875665188e-03" rms="3.9168554544448853e-01" purity="6.0192936658859253e-01" nType="0">
            <Node pos="l" depth="3" NCoef="0" IVar="-1" Cut="0.0000000000000000e+00" cType="1" res="-2.3930100724101067e-03" rms="3.9272594451904297e-01" purity="5.9557169675827026e-01" nType="-99"/>
            <Node pos="r" depth="3" NCoef="0" IVar="-1" Cut="0.0000000000000000e+00" cType="1" res="1.5359269455075264e-02" rms="3.7223064899444580e-01" purity="7.1228337287902832e-01" nType="-99"/>
          </Node>
        </Node>
      </Node>
    </BinaryTree>
    <BinaryTree type="DecisionTree" boostWeight="1.0000000000000000e+00" itree="315">
      <Node pos="s" depth="0" NCoef="0" IVar="6" Cut="1.7423530817031860e+00" cType="1" res="5.3621423430740833e-03" rms="3.8492888212203979e-01" purity="5.0728356838226318e-01" nType="0">
        <Node pos="l" depth="1" NCoef="0" IVar="2" Cut="5.0379696655273438e+02" cType="1" res="6.7249261774122715e-03" rms="3.8876980543136597e-01" purity="5.2203100919723511e-01" nType="0">
          <Node pos="l" depth="2" NCoef="0" IVar="2" Cut="2.2893281555175781e+02" cType="1" res="9.2505244538187981e-03" rms="3.8923799991607666e-01" purity="5.1455396413803101e-01" nType="0">
            <Node pos="l" depth="3" NCoef="0" IVar="-1" Cut="0.0000000000000000e+00" cType="1" res="1.8157387152314186e-02" rms="4.2116311192512512e-01" purity="4.4268822669982910e-01" nType="-99"/>
            <Node pos="r" depth="3" NCoef="0" IVar="-1" Cut="0.0000000000000000e+00" cType="1" res="4.3126642704010010e-03" rms="3.8495686650276184e-01" purity="5.2356809377670288e-01" nType="-99"/>
          </Node>
          <Node pos="r" depth="2" NCoef="0" IVar="9" Cut="6.6664516925811768e-01" cType="1" res="-6.0287481173872948e-03" rms="3.8614460825920105e-01" purity="5.5978834629058838e-01" nType="0">
            <Node pos="l" depth="3" NCoef="0" IVar="-1" Cut="0.0000000000000000e+00" cType="1" res="7.7160424552857876e-04" rms="3.8564917445182800e-01" purity="5.9063559770584106e-01" nType="-99"/>
            <Node pos="r" depth="3" NCoef="0" IVar="-1" Cut="0.0000000000000000e+00" cType="1" res="-1.5730552375316620e-02" rms="3.8680130243301392e-01" purity="4.7860321402549744e-01" nType="-99"/>
          </Node>
        </Node>
        <Node pos="r" depth="1" NCoef="0" IVar="-1" Cut="0.0000000000000000e+00" cType="1" res="-2.6771999895572662e-02" rms="2.7407994866371155e-01" purity="1.5038403868675232e-01" nType="-99"/>
      </Node>
    </BinaryTree>
    <BinaryTree type="DecisionTree" boostWeight="1.0000000000000000e+00" itree="316">
      <Node pos="s" depth="0" NCoef="0" IVar="8" Cut="-1.7333260774612427e+00" cType="1" res="-7.0039962884038687e-04" rms="3.8825657963752747e-01" purity="4.9636489152908325e-01" nType="0">
        <Node pos="l" depth="1" NCoef="0" IVar="0" Cut="4.1509368896484375e+02" cType="1" res="-1.7460811883211136e-02" rms="3.5191312432289124e-01" purity="2.7108412981033325e-01" nType="0">
          <Node pos="l" depth="2" NCoef="0" IVar="-1" Cut="0.0000000000000000e+00" cType="1" res="-3.9083859883248806e-03" rms="3.1880176067352295e-01" purity="1.6806267201900482e-01" nType="-99"/>
          <Node pos="r" depth="2" NCoef="0" IVar="-1" Cut="0.0000000000000000e+00" cType="1" res="-2.2383980453014374e-02" rms="3.9402383565902710e-01" purity="4.1963642835617065e-01" nType="-99"/>
        </Node>
        <Node pos="r" depth="1" NCoef="0" IVar="3" Cut="4.3218844604492188e+02" cType="1" res="5.4665625793859363e-04" rms="3.9079692959785461e-01" purity="5.1312685012817383e-01" nType="0">
          <Node pos="l" depth="2" NCoef="0" IVar="1" Cut="1.3004863281250000e+03" cType="1" res="1.3479082845151424e-03" rms="3.9076048135757446e-01" purity="5.0951069593429565e-01" nType="0">
            <Node pos="l" depth="3" NCoef="0" IVar="-1" Cut="0.0000000000000000e+00" cType="1" res="-1.7788102850317955e-03" rms="4.0412077307701111e-01" purity="3.4481275081634521e-01" nType="-99"/>
            <Node pos="r" depth="3" NCoef="0" IVar="-1" Cut="0.0000000000000000e+00" cType="1" res="4.8544886521995068e-03" rms="3.7293350696563721e-01" purity="7.1982890367507935e-01" nType="-99"/>
          </Node>
          <Node pos="r" depth="2" NCoef="0" IVar="-1" Cut="0.0000000000000000e+00" cType="1" res="-1.7335617914795876e-02" rms="3.9103585481643677e-01" purity="6.3982945680618286e-01" nType="-99"/>
        </Node>
      </Node>
    </BinaryTree>
    <BinaryTree type="DecisionTree" boostWeight="1.0000000000000000e+00" itree="317">
      <Node pos="s" depth="0" NCoef="0" IVar="4" Cut="1.5991847229003906e+02" cType="1" res="-2.0251162350177765e-03" rms="3.8416680693626404e-01" purity="4.9967914819717407e-01" nType="0">
        <Node pos="l" depth="1" NCoef="0" IVar="1" Cut="1.6309180908203125e+03" cType="1" res="1.1548245092853904e-03" rms="3.9494630694389343e-01" purity="3.9733883738517761e-01" nType="0">
          <Node pos="l" depth="2" NCoef="0" IVar="2" Cut="3.8450741577148438e+02" cType="1" res="-6.7661626962944865e-04" rms="3.9542904496192932e-01" purity="3.6857736110687256e-01" nType="0">
            <Node pos="l" depth="3" NCoef="0" IVar="-1" Cut="0.0000000000000000e+00" cType="1" res="2.8367126360535622e-03" rms="3.9910918474197388e-01" purity="3.8125538825988770e-01" nType="-99"/>
            <Node pos="r" depth="3" NCoef="0" IVar="-1" Cut="0.0000000000000000e+00" cType="1" res="-9.3207452446222305e-03" rms="3.8536015152931213e-01" purity="3.3559608459472656e-01" nType="-99"/>
          </Node>
          <Node pos="r" depth="2" NCoef="0" IVar="0" Cut="6.8356115722656250e+02" cType="1" res="2.0133737474679947e-02" rms="3.8940197229385376e-01" purity="6.9538927078247070e-01" nType="0">
            <Node pos="l" depth="3" NCoef="0" IVar="-1" Cut="0.0000000000000000e+00" cType="1" res="2.0640347152948380e-02" rms="3.8537824153900146e-01" purity="6.6218852996826172e-01" nType="-99"/>
            <Node pos="r" depth="3" NCoef="0" IVar="-1" Cut="0.0000000000000000e+00" cType="1" res="3.1146341934800148e-03" rms="3.9318680763244629e-01" purity="7.3179203271865845e-01" nType="-99"/>
          </Node>
        </Node>
        <Node pos="r" depth="1" NCoef="0" IVar="8" Cut="-1.2000916004180908e+00" cType="1" res="-9.2862984165549278e-03" rms="3.5823312401771545e-01" purity="7.3336642980575562e-01" nType="0">
          <Node pos="l" depth="2" NCoef="0" IVar="-1" Cut="0.0000000000000000e+00" cType="1" res="-2.3569608107209206e-02" rms="3.8984104990959167e-01" purity="5.6739687919616699e-01" nType="-99"/>
          <Node pos="r" depth="2" NCoef="0" IVar="7" Cut="-9.3334621191024780e-01" cType="1" res="-6.0174181126058102e-03" rms="3.5411489009857178e-01" purity="7.5325721502304077e-01" nType="0">
            <Node pos="l" depth="3" NCoef="0" IVar="-1" Cut="0.0000000000000000e+00" cType="1" res="-1.7820337787270546e-02" rms="3.8792395591735840e-01" purity="6.1698549985885620e-01" nType="-99"/>
            <Node pos="r" depth="3" NCoef="0" IVar="-1" Cut="0.0000000000000000e+00" cType="1" res="-1.9698615651577711e-03" rms="3.4796288609504700e-01" purity="7.7624565362930298e-01" nType="-99"/>
          </Node>
        </Node>
      </Node>
    </BinaryTree>
    <BinaryTree type="DecisionTree" boostWeight="1.0000000000000000e+00" itree="318">
      <Node pos="s" depth="0" NCoef="0" IVar="9" Cut="-1.9999907016754150e+00" cType="1" res="-5.4851436289027333e-04" rms="3.8802355527877808e-01" purity="4.9673619866371155e-01" nType="0">
        <Node pos="l" depth="1" NCoef="0" IVar="9" Cut="-2.3047773838043213e+00" cType="1" res="2.4210315197706223e-02" rms="3.8281649351119995e-01" purity="3.9001297950744629e-01" nType="0">
          <Node pos="l" depth="2" NCoef="0" IVar="-1" Cut="0.0000000000000000e+00" cType="1" res="-5.2706445567309856e-03" rms="3.5451456904411316e-01" purity="3.2953888177871704e-01" nType="-99"/>
          <Node pos="r" depth="2" NCoef="0" IVar="-1" Cut="0.0000000000000000e+00" cType="1" res="3.3669702708721161e-02" rms="4.0487790107727051e-01" purity="4.4548472762107849e-01" nType="-99"/>
        </Node>
        <Node pos="r" depth="1" NCoef="0" IVar="8" Cut="1.1999939680099487e+00" cType="1" res="-2.0259544253349304e-03" rms="3.8828217983245850e-01" purity="5.0310474634170532e-01" nType="0">
          <Node pos="l" depth="2" NCoef="0" IVar="8" Cut="-1.0857049226760864e+00" cType="1" res="-4.2110509239137173e-03" rms="3.8919916749000549e-01" purity="5.2745550870895386e-01" nType="0">
            <Node pos="l" depth="3" NCoef="0" IVar="-1" Cut="0.0000000000000000e+00" cType="1" res="5.7070637121796608e-03" rms="3.8412687182426453e-01" purity="3.9535859227180481e-01" nType="-99"/>
            <Node pos="r" depth="3" NCoef="0" IVar="-1" Cut="0.0000000000000000e+00" cType="1" res="-4.8874211497604847e-03" rms="3.9045694470405579e-01" purity="5.6224280595779419e-01" nType="-99"/>
          </Node>
          <Node pos="r" depth="2" NCoef="0" IVar="0" Cut="5.4505944824218750e+02" cType="1" res="9.9640479311347008e-03" rms="3.8298952579498291e-01" purity="3.6948803067207336e-01" nType="0">
            <Node pos="l" depth="3" NCoef="0" IVar="-1" Cut="0.0000000000000000e+00" cType="1" res="2.9157029930502176e-03" rms="3.7879502773284912e-01" purity="3.0116140842437744e-01" nType="-99"/>
            <Node pos="r" depth="3" NCoef="0" IVar="-1" Cut="0.0000000000000000e+00" cType="1" res="2.2045928984880447e-02" rms="4.0077188611030579e-01" purity="6.8623954057693481e-01" nType="-99"/>
          </Node>
        </Node>
      </Node>
    </BinaryTree>
    <BinaryTree type="DecisionTree" boostWeight="1.0000000000000000e+00" itree="319">
      <Node pos="s" depth="0" NCoef="0" IVar="7" Cut="-1.7332962751388550e+00" cType="1" res="-4.8987282207235694e-04" rms="3.8493373990058899e-01" purity="5.0056731700897217e-01" nType="0">
        <Node pos="l" depth="1" NCoef="0" IVar="8" Cut="1.3229608535766602e-01" cType="1" res="2.2831337526440620e-02" rms="3.4699910879135132e-01" purity="2.4768137931823730e-01" nType="0">
          <Node pos="l" depth="2" NCoef="0" IVar="-1" Cut="0.0000000000000000e+00" cType="1" res="7.3089729994535446e-03" rms="3.3885252475738525e-01" purity="2.3424331843852997e-01" nType="-99"/>
          <Node pos="r" depth="2" NCoef="0" IVar="-1" Cut="0.0000000000000000e+00" cType="1" res="3.5031013190746307e-02" rms="3.5715949535369873e-01" purity="2.6650866866111755e-01" nType="-99"/>
        </Node>
        <Node pos="r" depth="1" NCoef="0" IVar="5" Cut="1.0769292449951172e+02" cType="1" res="-1.9772846717387438e-03" rms="3.8717949390411377e-01" purity="5.1669621467590332e-01" nType="0">
          <Node pos="l" depth="2" NCoef="0" IVar="7" Cut="1.2887024879455566e+00" cType="1" res="-5.6087942793965340e-03" rms="3.9963287115097046e-01" purity="4.0889674425125122e-01" nType="0">
            <Node pos="l" depth="3" NCoef="0" IVar="-1" Cut="0.0000000000000000e+00" cType="1" res="-4.6711503528058529e-03" rms="4.0741887688636780e-01" purity="4.3948128819465637e-01" nType="-99"/>
            <Node pos="r" depth="3" NCoef="0" IVar="-1" Cut="0.0000000000000000e+00" cType="1" res="6.8408502265810966e-03" rms="3.4843516349792480e-01" purity="2.2359324991703033e-01" nType="-99"/>
          </Node>
          <Node pos="r" depth="2" NCoef="0" IVar="9" Cut="1.1997889280319214e+00" cType="1" res="6.8459953181445599e-03" rms="3.5495242476463318e-01" purity="7.7861064672470093e-01" nType="0">
            <Node pos="l" depth="3" NCoef="0" IVar="-1" Cut="0.0000000000000000e+00" cType="1" res="3.6366034764796495e-03" rms="3.4995168447494507e-01" purity="7.8932988643646240e-01" nType="-99"/>
            <Node pos="r" depth="3" NCoef="0" IVar="-1" Cut="0.0000000000000000e+00" cType="1" res="1.4136033132672310e-02" rms="3.8366582989692688e-01" purity="7.1345490217208862e-01" nType="-99"/>
          </Node>
        </Node>
      </Node>
    </BinaryTree>
    <BinaryTree type="DecisionTree" boostWeight="1.0000000000000000e+00" itree="320">
      <Node pos="s" depth="0" NCoef="0" IVar="7" Cut="-1.2000290155410767e+00" cType="1" res="-1.4896454522386193e-03" rms="3.8702189922332764e-01" purity="4.9529933929443359e-01" nType="0">
        <Node pos="l" depth="1" NCoef="0" IVar="7" Cut="-2.1142940521240234e+00" cType="1" res="-2.2314265370368958e-02" rms="3.5481083393096924e-01" purity="2.8438201546669006e-01" nType="0">
          <Node pos="l" depth="2" NCoef="0" IVar="-1" Cut="0.0000000000000000e+00" cType="1" res="-4.4468790292739868e-02" rms="2.7801892161369324e-01" purity="1.4123958349227905e-01" nType="-99"/>
          <Node pos="r" depth="2" NCoef="0" IVar="2" Cut="3.2520458984375000e+02" cType="1" res="-1.5909953042864799e-02" rms="3.7174364924430847e-01" purity="3.2121035456657410e-01" nType="0">
            <Node pos="l" depth="3" NCoef="0" IVar="-1" Cut="0.0000000000000000e+00" cType="1" res="-1.9266532734036446e-02" rms="3.6929264664649963e-01" purity="2.8541895747184753e-01" nType="-99"/>
            <Node pos="r" depth="3" NCoef="0" IVar="-1" Cut="0.0000000000000000e+00" cType="1" res="-3.8464423269033432e-03" rms="3.7362474203109741e-01" purity="3.5338550806045532e-01" nType="-99"/>
          </Node>
        </Node>
        <Node pos="r" depth="1" NCoef="0" IVar="0" Cut="5.5700848388671875e+02" cType="1" res="1.7229948425665498e-03" rms="3.9165684580802917e-01" purity="5.2783781290054321e-01" nType="0">
          <Node pos="l" depth="2" NCoef="0" IVar="2" Cut="4.3359930419921875e+02" cType="1" res="4.1735204868018627e-03" rms="4.0038612484931946e-01" purity="4.6192631125450134e-01" nType="0">
            <Node pos="l" depth="3" NCoef="0" IVar="-1" Cut="0.0000000000000000e+00" cType="1" res="3.3483258448541164e-04" rms="4.0062114596366882e-01" purity="4.5933067798614502e-01" nType="-99"/>
            <Node pos="r" depth="3" NCoef="0" IVar="-1" Cut="0.0000000000000000e+00" cType="1" res="1.0632677935063839e-02" rms="3.9928478002548218e-01" purity="4.7113636136054993e-01" nType="-99"/>
          </Node>
          <Node pos="r" depth="2" NCoef="0" IVar="5" Cut="1.2018196105957031e+02" cType="1" res="-8.1696528941392899e-03" rms="3.5406449437141418e-01" purity="7.9391926527023315e-01" nType="0">
            <Node pos="l" depth="3" NCoef="0" IVar="-1" Cut="0.0000000000000000e+00" cType="1" res="-1.0767091996967793e-02" rms="3.9523074030876160e-01" purity="7.2427153587341309e-01" nType="-99"/>
            <Node pos="r" depth="3" NCoef="0" IVar="-1" Cut="0.0000000000000000e+00" cType="1" res="8.0165117979049683e-03" rms="2.6402720808982849e-01" purity="9.1890943050384521e-01" nType="-99"/>
          </Node>
        </Node>
      </Node>
    </BinaryTree>
    <BinaryTree type="DecisionTree" boostWeight="1.0000000000000000e+00" itree="321">
      <Node pos="s" depth="0" NCoef="0" IVar="6" Cut="1.3875515758991241e-01" cType="1" res="2.1357252262532711e-04" rms="3.8734290003776550e-01" purity="4.9856802821159363e-01" nType="0">
        <Node pos="l" depth="1" NCoef="0" IVar="4" Cut="9.4826416015625000e+01" cType="1" res="-3.9503043517470360e-03" rms="3.8872754573822021e-01" purity="5.1149207353591919e-01" nType="0">
          <Node pos="l" depth="2" NCoef="0" IVar="7" Cut="-9.3274331092834473e-01" cType="1" res="-1.3218290172517300e-02" rms="3.6638033390045166e-01" purity="2.2557461261749268e-01" nType="0">
            <Node pos="l" depth="3" NCoef="0" IVar="-1" Cut="0.0000000000000000e+00" cType="1" res="-3.0973529443144798e-02" rms="2.9718923568725586e-01" purity="1.2126985937356949e-01" nType="-99"/>
            <Node pos="r" depth="3" NCoef="0" IVar="-1" Cut="0.0000000000000000e+00" cType="1" res="-4.3427380733191967e-03" rms="3.8594317436218262e-01" purity="2.5941181182861328e-01" nType="-99"/>
          </Node>
          <Node pos="r" depth="2" NCoef="0" IVar="6" Cut="-2.7939304709434509e-01" cType="1" res="-6.1258394271135330e-04" rms="3.9641410112380981e-01" purity="6.1446076631546021e-01" nType="0">
            <Node pos="l" depth="3" NCoef="0" IVar="-1" Cut="0.0000000000000000e+00" cType="1" res="3.3062826842069626e-03" rms="4.0186297893524170e-01" purity="5.7127702236175537e-01" nType="-99"/>
            <Node pos="r" depth="3" NCoef="0" IVar="-1" Cut="0.0000000000000000e+00" cType="1" res="-8.6905406787991524e-03" rms="3.8451319932937622e-01" purity="7.0448088645935059e-01" nType="-99"/>
          </Node>
        </Node>
        <Node pos="r" depth="1" NCoef="0" IVar="6" Cut="3.9217150211334229e-01" cType="1" res="5.4588653147220612e-03" rms="3.8552758097648621e-01" purity="4.8228743672370911e-01" nType="0">
          <Node pos="l" depth="2" NCoef="0" IVar="9" Cut="1.3345071673393250e-01" cType="1" res="1.8675463274121284e-02" rms="3.9440515637397766e-01" purity="6.4513397216796875e-01" nType="0">
            <Node pos="l" depth="3" NCoef="0" IVar="-1" Cut="0.0000000000000000e+00" cType="1" res="2.3034613579511642e-02" rms="3.9790636301040649e-01" purity="6.6319817304611206e-01" nType="-99"/>
            <Node pos="r" depth="3" NCoef="0" IVar="-1" Cut="0.0000000000000000e+00" cType="1" res="-6.8127101985737681e-04" rms="3.8942256569862366e-01" purity="6.2445420026779175e-01" nType="-99"/>
          </Node>
          <Node pos="r" depth="2" NCoef="0" IVar="6" Cut="7.3609447479248047e-01" cType="1" res="1.1682255426421762e-03" rms="3.8250312209129333e-01" purity="4.2942085862159729e-01" nType="0">
            <Node pos="l" depth="3" NCoef="0" IVar="-1" Cut="0.0000000000000000e+00" cType="1" res="-5.3493930026888847e-03" rms="3.9253327250480652e-01" purity="5.5939185619354248e-01" nType="-99"/>
            <Node pos="r" depth="3" NCoef="0" IVar="-1" Cut="0.0000000000000000e+00" cType="1" res="4.5837522484362125e-03" rms="3.7695384025573730e-01" purity="3.6026546359062195e-01" nType="-99"/>
          </Node>
        </Node>
      </Node>
    </BinaryTree>
    <BinaryTree type="DecisionTree" boostWeight="1.0000000000000000e+00" itree="322">
      <Node pos="s" depth="0" NCoef="0" IVar="8" Cut="-1.4666659832000732e+00" cType="1" res="3.8378007593564689e-04" rms="3.8902851939201355e-01" purity="4.9603211879730225e-01" nType="0">
        <Node pos="l" depth="1" NCoef="0" IVar="9" Cut="-6.6637539863586426e-01" cType="1" res="2.7326239272952080e-02" rms="3.8592609763145447e-01" purity="3.4725078940391541e-01" nType="0">
          <Node pos="l" depth="2" NCoef="0" IVar="-1" Cut="0.0000000000000000e+00" cType="1" res="3.9267051964998245e-02" rms="3.8891097903251648e-01" purity="3.1423115730285645e-01" nType="-99"/>
          <Node pos="r" depth="2" NCoef="0" IVar="9" Cut="3.2392546534538269e-01" cType="1" res="1.2735070660710335e-02" rms="3.8332110643386841e-01" purity="3.6797872185707092e-01" nType="0">
            <Node pos="l" depth="3" NCoef="0" IVar="-1" Cut="0.0000000000000000e+00" cType="1" res="-1.3116026530042291e-03" rms="3.7423190474510193e-01" purity="3.8505718111991882e-01" nType="-99"/>
            <Node pos="r" depth="3" NCoef="0" IVar="-1" Cut="0.0000000000000000e+00" cType="1" res="1.6900753602385521e-02" rms="3.8967376947402954e-01" purity="3.5509148240089417e-01" nType="-99"/>
          </Node>
        </Node>
        <Node pos="r" depth="1" NCoef="0" IVar="8" Cut="-1.0602804422378540e+00" cType="1" res="-2.9163176659494638e-03" rms="3.8927865028381348e-01" purity="5.1425588130950928e-01" nType="0">
          <Node pos="l" depth="2" NCoef="0" IVar="4" Cut="1.1908017730712891e+02" cType="1" res="-2.3434219881892204e-02" rms="3.7936836481094360e-01" purity="4.4789344072341919e-01" nType="0">
            <Node pos="l" depth="3" NCoef="0" IVar="-1" Cut="0.0000000000000000e+00" cType="1" res="-2.6397669687867165e-02" rms="3.5501775145530701e-01" purity="2.5162804126739502e-01" nType="-99"/>
            <Node pos="r" depth="3" NCoef="0" IVar="-1" Cut="0.0000000000000000e+00" cType="1" res="-6.3936980441212654e-03" rms="3.9901322126388550e-01" purity="6.1994910240173340e-01" nType="-99"/>
          </Node>
          <Node pos="r" depth="2" NCoef="0" IVar="9" Cut="1.7333388328552246e+00" cType="1" res="-9.5814914675429463e-04" rms="3.9015489816665649e-01" purity="5.2058929204940796e-01" nType="0">
            <Node pos="l" depth="3" NCoef="0" IVar="-1" Cut="0.0000000000000000e+00" cType="1" res="-2.0753825083374977e-03" rms="3.9057281613349915e-01" purity="5.3122556209564209e-01" nType="-99"/>
            <Node pos="r" depth="3" NCoef="0" IVar="-1" Cut="0.0000000000000000e+00" cType="1" res="1.4177670702338219e-02" rms="3.8523897528648376e-01" purity="4.1395482420921326e-01" nType="-99"/>
          </Node>
        </Node>
      </Node>
    </BinaryTree>
    <BinaryTree type="DecisionTree" boostWeight="1.0000000000000000e+00" itree="323">
      <Node pos="s" depth="0" NCoef="0" IVar="9" Cut="1.7333378791809082e+00" cType="1" res="-1.4403944369405508e-03" rms="3.8571536540985107e-01" purity="4.9595382809638977e-01" nType="0">
        <Node pos="l" depth="1" NCoef="0" IVar="9" Cut="-1.7206034660339355e+00" cType="1" res="3.4350770874880254e-04" rms="3.8664743304252625e-01" purity="5.0888448953628540e-01" nType="0">
          <Node pos="l" depth="2" NCoef="0" IVar="7" Cut="-6.6621387004852295e-01" cType="1" res="-1.8618378788232803e-02" rms="3.6754706501960754e-01" purity="3.5211011767387390e-01" nType="0">
            <Node pos="l" depth="3" NCoef="0" IVar="-1" Cut="0.0000000000000000e+00" cType="1" res="-3.1165234744548798e-02" rms="3.2864829897880554e-01" purity="2.4302569031715393e-01" nType="-99"/>
            <Node pos="r" depth="3" NCoef="0" IVar="-1" Cut="0.0000000000000000e+00" cType="1" res="-4.9337907694280148e-03" rms="3.8493794202804565e-01" purity="4.0627890825271606e-01" nType="-99"/>
          </Node>
          <Node pos="r" depth="2" NCoef="0" IVar="9" Cut="-2.4030648171901703e-01" cType="1" res="2.2666233126074076e-03" rms="3.8848045468330383e-01" purity="5.2478456497192383e-01" nType="0">
            <Node pos="l" depth="3" NCoef="0" IVar="-1" Cut="0.0000000000000000e+00" cType="1" res="6.3057383522391319e-03" rms="3.9309981465339661e-01" purity="5.2525305747985840e-01" nType="-99"/>
            <Node pos="r" depth="3" NCoef="0" IVar="-1" Cut="0.0000000000000000e+00" cType="1" res="-2.0554736256599426e-03" rms="3.8502904772758484e-01" purity="5.2444708347320557e-01" nType="-99"/>
          </Node>
        </Node>
        <Node pos="r" depth="1" NCoef="0" IVar="6" Cut="2.0107059180736542e-01" cType="1" res="-2.0862251520156860e-02" rms="3.7486889958381653e-01" purity="3.5517382621765137e-01" nType="0">
          <Node pos="l" depth="2" NCoef="0" IVar="-1" Cut="0.0000000000000000e+00" cType="1" res="-2.7578549459576607e-02" rms="3.7775582075119019e-01" purity="3.5602986812591553e-01" nType="-99"/>
          <Node pos="r" depth="2" NCoef="0" IVar="-1" Cut="0.0000000000000000e+00" cType="1" res="1.0103192180395126e-03" rms="3.7050631642341614e-01" purity="3.5427415370941162e-01" nType="-99"/>
        </Node>
      </Node>
    </BinaryTree>
    <BinaryTree type="DecisionTree" boostWeight="1.0000000000000000e+00" itree="324">
      <Node pos="s" depth="0" NCoef="0" IVar="2" Cut="5.0379714965820312e+02" cType="1" res="-1.8906444311141968e-03" rms="3.8636660575866699e-01" purity="4.9614661931991577e-01" nType="0">
        <Node pos="l" depth="1" NCoef="0" IVar="9" Cut="1.7334170341491699e+00" cType="1" res="-3.8369516842067242e-03" rms="3.8497492671012878e-01" purity="4.8345160484313965e-01" nType="0">
          <Node pos="l" depth="2" NCoef="0" IVar="7" Cut="-1.4666682481765747e+00" cType="1" res="-5.5268346332013607e-03" rms="3.8552901148796082e-01" purity="4.9335986375808716e-01" nType="0">
            <Node pos="l" depth="3" NCoef="0" IVar="-1" Cut="0.0000000000000000e+00" cType="1" res="-2.1203694865107536e-02" rms="3.3723106980323792e-01" purity="2.1939413249492645e-01" nType="-99"/>
            <Node pos="r" depth="3" NCoef="0" IVar="-1" Cut="0.0000000000000000e+00" cType="1" res="-2.2194280754774809e-03" rms="3.9003562927246094e-01" purity="5.2117824554443359e-01" nType="-99"/>
          </Node>
          <Node pos="r" depth="2" NCoef="0" IVar="6" Cut="4.9088627099990845e-01" cType="1" res="1.3057759962975979e-02" rms="3.7897697091102600e-01" purity="3.8439333438873291e-01" nType="0">
            <Node pos="l" depth="3" NCoef="0" IVar="-1" Cut="0.0000000000000000e+00" cType="1" res="-4.5775976032018661e-03" rms="3.8500234484672546e-01" purity="4.0269458293914795e-01" nType="-99"/>
            <Node pos="r" depth="3" NCoef="0" IVar="-1" Cut="0.0000000000000000e+00" cType="1" res="3.4042663872241974e-02" rms="3.6705654859542847e-01" purity="3.5553944110870361e-01" nType="-99"/>
          </Node>
        </Node>
        <Node pos="r" depth="1" NCoef="0" IVar="7" Cut="1.3339349627494812e-01" cType="1" res="7.8842006623744965e-03" rms="3.9313584566116333e-01" purity="5.5990421772003174e-01" nType="0">
          <Node pos="l" depth="2" NCoef="0" IVar="8" Cut="-4.0015411376953125e-01" cType="1" res="2.6826184242963791e-02" rms="3.9984521269798279e-01" purity="5.9017956256866455e-01" nType="0">
            <Node pos="l" depth="3" NCoef="0" IVar="-1" Cut="0.0000000000000000e+00" cType="1" res="3.2548833638429642e-02" rms="4.1376668214797974e-01" purity="5.7944726943969727e-01" nType="-99"/>
            <Node pos="r" depth="3" NCoef="0" IVar="-1" Cut="0.0000000000000000e+00" cType="1" res="6.5104905515909195e-03" rms="3.8935360312461853e-01" purity="5.9736692905426025e-01" nType="-99"/>
          </Node>
          <Node pos="r" depth="2" NCoef="0" IVar="1" Cut="1.7642760009765625e+03" cType="1" res="-1.7922323197126389e-02" rms="3.8229891657829285e-01" purity="5.1865726709365845e-01" nType="0">
            <Node pos="l" depth="3" NCoef="0" IVar="-1" Cut="0.0000000000000000e+00" cType="1" res="-2.3964354768395424e-02" rms="3.7520086765289307e-01" purity="3.3028703927993774e-01" nType="-99"/>
            <Node pos="r" depth="3" NCoef="0" IVar="-1" Cut="0.0000000000000000e+00" cType="1" res="1.9126060651615262e-03" rms="3.8841515779495239e-01" purity="7.1361273527145386e-01" nType="-99"/>
          </Node>
        </Node>
      </Node>
    </BinaryTree>
    <BinaryTree type="DecisionTree" boostWeight="1.0000000000000000e+00" itree="325">
      <Node pos="s" depth="0" NCoef="0" IVar="8" Cut="-1.4665623903274536e+00" cType="1" res="-1.0074090678244829e-03" rms="3.8307708501815796e-01" purity="4.9789455533027649e-01" nType="0">
        <Node pos="l" depth="1" NCoef="0" IVar="3" Cut="2.0689929199218750e+02" cType="1" res="-2.3523308336734772e-02" rms="3.6177796125411987e-01" purity="2.8931254148483276e-01" nType="0">
          <Node pos="l" depth="2" NCoef="0" IVar="7" Cut="-1.3427779078483582e-01" cType="1" res="-8.0670705065131187e-03" rms="3.3919787406921387e-01" purity="2.2244065999984741e-01" nType="0">
            <Node pos="l" depth="3" NCoef="0" IVar="-1" Cut="0.0000000000000000e+00" cType="1" res="1.1064600199460983e-02" rms="3.3976477384567261e-01" purity="2.3247140645980835e-01" nType="-99"/>
            <Node pos="r" depth="3" NCoef="0" IVar="-1" Cut="0.0000000000000000e+00" cType="1" res="-2.4440199136734009e-02" rms="3.3697804808616638e-01" purity="2.1119193732738495e-01" nType="-99"/>
          </Node>
          <Node pos="r" depth="2" NCoef="0" IVar="-1" Cut="0.0000000000000000e+00" cType="1" res="-3.2786071300506592e-02" rms="3.9790084958076477e-01" purity="4.1038694977760315e-01" nType="-99"/>
        </Node>
        <Node pos="r" depth="1" NCoef="0" IVar="7" Cut="1.3332568109035492e-01" cType="1" res="1.5275476034730673e-03" rms="3.8531893491744995e-01" purity="5.2137774229049683e-01" nType="0">
          <Node pos="l" depth="2" NCoef="0" IVar="8" Cut="1.5878604352474213e-01" cType="1" res="-2.2715737577527761e-03" rms="3.8418659567832947e-01" purity="5.3325128555297852e-01" nType="0">
            <Node pos="l" depth="3" NCoef="0" IVar="-1" Cut="0.0000000000000000e+00" cType="1" res="3.0758520588278770e-03" rms="3.8493701815605164e-01" purity="5.6527721881866455e-01" nType="-99"/>
            <Node pos="r" depth="3" NCoef="0" IVar="-1" Cut="0.0000000000000000e+00" cType="1" res="-7.1083446964621544e-03" rms="3.8308098912239075e-01" purity="4.9361470341682434e-01" nType="-99"/>
          </Node>
          <Node pos="r" depth="2" NCoef="0" IVar="9" Cut="1.9998052120208740e+00" cType="1" res="6.1172884888947010e-03" rms="3.8663274049758911e-01" purity="5.0703328847885132e-01" nType="0">
            <Node pos="l" depth="3" NCoef="0" IVar="-1" Cut="0.0000000000000000e+00" cType="1" res="2.7761061210185289e-03" rms="3.8619619607925415e-01" purity="5.1466691493988037e-01" nType="-99"/>
            <Node pos="r" depth="3" NCoef="0" IVar="-1" Cut="0.0000000000000000e+00" cType="1" res="2.3559948429465294e-02" rms="3.9186716079711914e-01" purity="3.9608183503150940e-01" nType="-99"/>
          </Node>
        </Node>
      </Node>
    </BinaryTree>
    <BinaryTree type="DecisionTree" boostWeight="1.0000000000000000e+00" itree="326">
      <Node pos="s" depth="0" NCoef="0" IVar="8" Cut="-2.0000004768371582e+00" cType="1" res="2.4987659417092800e-03" rms="3.8782116770744324e-01" purity="4.9724119901657104e-01" nType="0">
        <Node pos="l" depth="1" NCoef="0" IVar="-1" Cut="0.0000000000000000e+00" cType="1" res="2.4311872199177742e-02" rms="3.7499845027923584e-01" purity="2.6379728317260742e-01" nType="-99"/>
        <Node pos="r" depth="1" NCoef="0" IVar="7" Cut="1.4666014909744263e+00" cType="1" res="1.2528774095699191e-03" rms="3.8834747672080994e-01" purity="5.0784349441528320e-01" nType="0">
          <Node pos="l" depth="2" NCoef="0" IVar="8" Cut="1.4285504817962646e+00" cType="1" res="2.8403883334249258e-03" rms="3.9226394891738892e-01" purity="5.3460329771041870e-01" nType="0">
            <Node pos="l" depth="3" NCoef="0" IVar="-1" Cut="0.0000000000000000e+00" cType="1" res="5.7290488621219993e-04" rms="3.9174330234527588e-01" purity="5.5432832241058350e-01" nType="-99"/>
            <Node pos="r" depth="3" NCoef="0" IVar="-1" Cut="0.0000000000000000e+00" cType="1" res="1.2209632433950901e-02" rms="3.9607036113739014e-01" purity="3.7626984715461731e-01" nType="-99"/>
          </Node>
          <Node pos="r" depth="2" NCoef="0" IVar="7" Cut="1.7205609083175659e+00" cType="1" res="-1.4967769384384155e-02" rms="3.4537956118583679e-01" purity="2.3442061245441437e-01" nType="0">
            <Node pos="l" depth="3" NCoef="0" IVar="-1" Cut="0.0000000000000000e+00" cType="1" res="-2.6421040296554565e-02" rms="3.6293357610702515e-01" purity="2.7927327156066895e-01" nType="-99"/>
            <Node pos="r" depth="3" NCoef="0" IVar="-1" Cut="0.0000000000000000e+00" cType="1" res="-3.2116665970534086e-03" rms="3.3584785461425781e-01" purity="2.1236911416053772e-01" nType="-99"/>
          </Node>
        </Node>
      </Node>
    </BinaryTree>
    <BinaryTree type="DecisionTree" boostWeight="1.0000000000000000e+00" itree="327">
      <Node pos="s" depth="0" NCoef="0" IVar="2" Cut="6.1997485351562500e+02" cType="1" res="5.4765278473496437e-03" rms="3.8865032792091370e-01" purity="5.0178611278533936e-01" nType="0">
        <Node pos="l" depth="1" NCoef="0" IVar="5" Cut="8.9991195678710938e+01" cType="1" res="7.9182442277669907e-03" rms="3.8797330856323242e-01" purity="4.9977889657020569e-01" nType="0">
          <Node pos="l" depth="2" NCoef="0" IVar="2" Cut="5.3997955322265625e+02" cType="1" res="1.4471387490630150e-02" rms="3.9696946740150452e-01" purity="3.6145830154418945e-01" nType="0">
            <Node pos="l" depth="3" NCoef="0" IVar="-1" Cut="0.0000000000000000e+00" cType="1" res="8.1125423312187195e-03" rms="3.9570024609565735e-01" purity="3.5615581274032593e-01" nType="-99"/>
            <Node pos="r" depth="3" NCoef="0" IVar="-1" Cut="0.0000000000000000e+00" cType="1" res="2.7968727052211761e-02" rms="4.1562741994857788e-01" purity="4.4653376936912537e-01" nType="-99"/>
          </Node>
          <Node pos="r" depth="2" NCoef="0" IVar="9" Cut="6.6664355993270874e-01" cType="1" res="-1.8875390524044633e-03" rms="3.7389364838600159e-01" purity="7.0675462484359741e-01" nType="0">
            <Node pos="l" depth="3" NCoef="0" IVar="-1" Cut="0.0000000000000000e+00" cType="1" res="3.5781385377049446e-03" rms="3.6993142962455750e-01" purity="7.2552883625030518e-01" nType="-99"/>
            <Node pos="r" depth="3" NCoef="0" IVar="-1" Cut="0.0000000000000000e+00" cType="1" res="-1.4403931796550751e-02" rms="3.8394537568092346e-01" purity="6.5511870384216309e-01" nType="-99"/>
          </Node>
        </Node>
        <Node pos="r" depth="1" NCoef="0" IVar="0" Cut="6.0602410888671875e+02" cType="1" res="-3.0030639842152596e-02" rms="3.9667081832885742e-01" purity="5.3097540140151978e-01" nType="0">
          <Node pos="l" depth="2" NCoef="0" IVar="-1" Cut="0.0000000000000000e+00" cType="1" res="-3.0780885368585587e-02" rms="3.7406101822853088e-01" purity="3.8226479291915894e-01" nType="-99"/>
          <Node pos="r" depth="2" NCoef="0" IVar="-1" Cut="0.0000000000000000e+00" cType="1" res="-5.1722056232392788e-03" rms="4.1698655486106873e-01" purity="6.7993462085723877e-01" nType="-99"/>
        </Node>
      </Node>
    </BinaryTree>
    <BinaryTree type="DecisionTree" boostWeight="1.0000000000000000e+00" itree="328">
      <Node pos="s" depth="0" NCoef="0" IVar="7" Cut="-1.4664542675018311e+00" cType="1" res="2.1963990293443203e-03" rms="3.8839545845985413e-01" purity="5.0322747230529785e-01" nType="0">
        <Node pos="l" depth="1" NCoef="0" IVar="8" Cut="-4.0013930201530457e-01" cType="1" res="1.8543859943747520e-02" rms="3.6247572302818298e-01" purity="2.7117872238159180e-01" nType="0">
          <Node pos="l" depth="2" NCoef="0" IVar="-1" Cut="0.0000000000000000e+00" cType="1" res="4.2977128177881241e-02" rms="3.7369975447654724e-01" purity="2.8001663088798523e-01" nType="-99"/>
          <Node pos="r" depth="2" NCoef="0" IVar="-1" Cut="0.0000000000000000e+00" cType="1" res="-7.6547944918274879e-03" rms="3.4999704360961914e-01" purity="2.6356431841850281e-01" nType="-99"/>
        </Node>
        <Node pos="r" depth="1" NCoef="0" IVar="6" Cut="-3.9379715919494629e-01" cType="1" res="5.3709273925051093e-04" rms="3.9089211821556091e-01" purity="5.2678096294403076e-01" nType="0">
          <Node pos="l" depth="2" NCoef="0" IVar="5" Cut="1.3386585998535156e+02" cType="1" res="-8.1454170867800713e-03" rms="3.9078599214553833e-01" purity="4.6002048254013062e-01" nType="0">
            <Node pos="l" depth="3" NCoef="0" IVar="-1" Cut="0.0000000000000000e+00" cType="1" res="-8.3875134587287903e-03" rms="3.9901420474052429e-01" purity="3.9442127943038940e-01" nType="-99"/>
            <Node pos="r" depth="3" NCoef="0" IVar="-1" Cut="0.0000000000000000e+00" cType="1" res="1.4667226001620293e-02" rms="3.4339877963066101e-01" purity="8.0249255895614624e-01" nType="-99"/>
          </Node>
          <Node pos="r" depth="2" NCoef="0" IVar="9" Cut="1.2000092267990112e+00" cType="1" res="4.7367643564939499e-03" rms="3.9087423682212830e-01" purity="5.5907261371612549e-01" nType="0">
            <Node pos="l" depth="3" NCoef="0" IVar="-1" Cut="0.0000000000000000e+00" cType="1" res="1.3575542252510786e-03" rms="3.8843825459480286e-01" purity="5.7824504375457764e-01" nType="-99"/>
            <Node pos="r" depth="3" NCoef="0" IVar="-1" Cut="0.0000000000000000e+00" cType="1" res="1.0548510588705540e-02" rms="4.0109339356422424e-01" purity="4.7568079829216003e-01" nType="-99"/>
          </Node>
        </Node>
      </Node>
    </BinaryTree>
    <BinaryTree type="DecisionTree" boostWeight="1.0000000000000000e+00" itree="329">
      <Node pos="s" depth="0" NCoef="0" IVar="9" Cut="-1.4666597843170166e+00" cType="1" res="4.7622537240386009e-03" rms="3.8745990395545959e-01" purity="5.0604075193405151e-01" nType="0">
        <Node pos="l" depth="1" NCoef="0" IVar="9" Cut="-2.2285623550415039e+00" cType="1" res="-1.0354218073189259e-02" rms="3.7814983725547791e-01" purity="3.7293970584869385e-01" nType="0">
          <Node pos="l" depth="2" NCoef="0" IVar="-1" Cut="0.0000000000000000e+00" cType="1" res="1.6177833080291748e-02" rms="3.7404185533523560e-01" purity="3.4560120105743408e-01" nType="-99"/>
          <Node pos="r" depth="2" NCoef="0" IVar="7" Cut="-1.3362574577331543e-01" cType="1" res="-2.3450875654816628e-02" rms="3.7895596027374268e-01" purity="3.8370934128761292e-01" nType="0">
            <Node pos="l" depth="3" NCoef="0" IVar="-1" Cut="0.0000000000000000e+00" cType="1" res="-5.8141765184700489e-03" rms="3.8832926750183105e-01" purity="3.6665877699851990e-01" nType="-99"/>
            <Node pos="r" depth="3" NCoef="0" IVar="-1" Cut="0.0000000000000000e+00" cType="1" res="-2.5975199416279793e-02" rms="3.6798313260078430e-01" purity="4.0197110176086426e-01" nType="-99"/>
          </Node>
        </Node>
        <Node pos="r" depth="1" NCoef="0" IVar="6" Cut="1.2030272483825684e+00" cType="1" res="6.7754979245364666e-03" rms="3.8863864541053772e-01" purity="5.2376747131347656e-01" nType="0">
          <Node pos="l" depth="2" NCoef="0" IVar="0" Cut="4.2762612915039062e+02" cType="1" res="4.7085625119507313e-03" rms="3.9203947782516479e-01" purity="5.5386257171630859e-01" nType="0">
            <Node pos="l" depth="3" NCoef="0" IVar="-1" Cut="0.0000000000000000e+00" cType="1" res="5.4636914283037186e-03" rms="4.0570676326751709e-01" purity="4.0361613035202026e-01" nType="-99"/>
            <Node pos="r" depth="3" NCoef="0" IVar="-1" Cut="0.0000000000000000e+00" cType="1" res="-4.7661516873631626e-05" rms="3.7662521004676819e-01" purity="7.1653133630752563e-01" nType="-99"/>
          </Node>
          <Node pos="r" depth="2" NCoef="0" IVar="8" Cut="-4.0021449327468872e-01" cType="1" res="2.3300329223275185e-02" rms="3.5987055301666260e-01" purity="2.8316178917884827e-01" nType="0">
            <Node pos="l" depth="3" NCoef="0" IVar="-1" Cut="0.0000000000000000e+00" cType="1" res="3.3235494047403336e-02" rms="3.6918523907661438e-01" purity="2.9137098789215088e-01" nType="-99"/>
            <Node pos="r" depth="3" NCoef="0" IVar="-1" Cut="0.0000000000000000e+00" cType="1" res="1.1491600424051285e-02" rms="3.5497832298278809e-01" purity="2.7924877405166626e-01" nType="-99"/>
          </Node>
        </Node>
      </Node>
    </BinaryTree>
    <BinaryTree type="DecisionTree" boostWeight="1.0000000000000000e+00" itree="330">
      <Node pos="s" depth="0" NCoef="0" IVar="9" Cut="1.9999972581863403e+00" cType="1" res="-1.0271751089021564e-03" rms="3.8682374358177185e-01" purity="4.9809953570365906e-01" nType="0">
        <Node pos="l" depth="1" NCoef="0" IVar="0" Cut="5.7808770751953125e+02" cType="1" res="-2.1677673794329166e-03" rms="3.8610702753067017e-01" purity="5.0582534074783325e-01" nType="0">
          <Node pos="l" depth="2" NCoef="0" IVar="2" Cut="5.5039752197265625e+02" cType="1" res="-4.8228474333882332e-03" rms="3.9383211731910706e-01" purity="4.3973684310913086e-01" nType="0">
            <Node pos="l" depth="3" NCoef="0" IVar="-1" Cut="0.0000000000000000e+00" cType="1" res="-1.9679612014442682e-03" rms="3.9419567584991455e-01" purity="4.4242808222770691e-01" nType="-99"/>
            <Node pos="r" depth="3" NCoef="0" IVar="-1" Cut="0.0000000000000000e+00" cType="1" res="-1.6248691827058792e-02" rms="3.8851121068000793e-01" purity="4.0549147129058838e-01" nType="-99"/>
          </Node>
          <Node pos="r" depth="2" NCoef="0" IVar="4" Cut="1.0495019531250000e+02" cType="1" res="9.9212042987346649e-03" rms="3.4852150082588196e-01" purity="8.0673593282699585e-01" nType="0">
            <Node pos="l" depth="3" NCoef="0" IVar="-1" Cut="0.0000000000000000e+00" cType="1" res="1.4035978354513645e-02" rms="4.5171707868576050e-01" purity="5.8778119087219238e-01" nType="-99"/>
            <Node pos="r" depth="3" NCoef="0" IVar="-1" Cut="0.0000000000000000e+00" cType="1" res="5.6471633724868298e-03" rms="3.1952103972434998e-01" purity="8.5787636041641235e-01" nType="-99"/>
          </Node>
        </Node>
        <Node pos="r" depth="1" NCoef="0" IVar="6" Cut="2.2756297886371613e-01" cType="1" res="1.8380245193839073e-02" rms="3.9832124114036560e-01" purity="3.6664369702339172e-01" nType="0">
          <Node pos="l" depth="2" NCoef="0" IVar="-1" Cut="0.0000000000000000e+00" cType="1" res="3.3679436892271042e-02" rms="4.2309632897377014e-01" purity="4.2110785841941833e-01" nType="-99"/>
          <Node pos="r" depth="2" NCoef="0" IVar="-1" Cut="0.0000000000000000e+00" cType="1" res="-1.5554950572550297e-02" rms="3.6241275072097778e-01" purity="3.0125701427459717e-01" nType="-99"/>
        </Node>
      </Node>
    </BinaryTree>
    <BinaryTree type="DecisionTree" boostWeight="1.0000000000000000e+00" itree="331">
      <Node pos="s" depth="0" NCoef="0" IVar="6" Cut="6.7080944776535034e-01" cType="1" res="-1.0593082988634706e-03" rms="3.8511583209037781e-01" purity="5.0100821256637573e-01" nType="0">
        <Node pos="l" depth="1" NCoef="0" IVar="2" Cut="4.7358032226562500e+02" cType="1" res="2.6175880338996649e-03" rms="3.8891994953155518e-01" purity="5.4529148340225220e-01" nType="0">
          <Node pos="l" depth="2" NCoef="0" IVar="7" Cut="-1.7332259416580200e+00" cType="1" res="5.7230833917856216e-03" rms="3.9074572920799255e-01" purity="5.3339606523513794e-01" nType="0">
            <Node pos="l" depth="3" NCoef="0" IVar="-1" Cut="0.0000000000000000e+00" cType="1" res="-2.4357486516237259e-02" rms="3.2839959859848022e-01" purity="2.0143905282020569e-01" nType="-99"/>
            <Node pos="r" depth="3" NCoef="0" IVar="-1" Cut="0.0000000000000000e+00" cType="1" res="5.1205875352025032e-03" rms="3.9419528841972351e-01" purity="5.5408376455307007e-01" nType="-99"/>
          </Node>
          <Node pos="r" depth="2" NCoef="0" IVar="6" Cut="3.7093348801136017e-02" cType="1" res="-8.9301867410540581e-03" rms="3.8183268904685974e-01" purity="5.8952462673187256e-01" nType="0">
            <Node pos="l" depth="3" NCoef="0" IVar="-1" Cut="0.0000000000000000e+00" cType="1" res="-1.5046622604131699e-02" rms="3.7812849879264832e-01" purity="5.4363554716110229e-01" nType="-99"/>
            <Node pos="r" depth="3" NCoef="0" IVar="-1" Cut="0.0000000000000000e+00" cType="1" res="9.5358071848750114e-03" rms="3.8713383674621582e-01" purity="6.7054289579391479e-01" nType="-99"/>
          </Node>
        </Node>
        <Node pos="r" depth="1" NCoef="0" IVar="0" Cut="5.4553308105468750e+02" cType="1" res="-1.3030787929892540e-02" rms="3.7220948934555054e-01" purity="3.5682788491249084e-01" nType="0">
          <Node pos="l" depth="2" NCoef="0" IVar="1" Cut="1.1085780029296875e+03" cType="1" res="-1.7486780881881714e-02" rms="3.6709621548652649e-01" purity="2.8381726145744324e-01" nType="0">
            <Node pos="l" depth="3" NCoef="0" IVar="-1" Cut="0.0000000000000000e+00" cType="1" res="-1.3818164588883519e-03" rms="3.4272059798240662e-01" purity="1.6789050400257111e-01" nType="-99"/>
            <Node pos="r" depth="3" NCoef="0" IVar="-1" Cut="0.0000000000000000e+00" cType="1" res="-1.9675744697451591e-02" rms="3.8750365376472473e-01" purity="3.8995364308357239e-01" nType="-99"/>
          </Node>
          <Node pos="r" depth="2" NCoef="0" IVar="-1" Cut="0.0000000000000000e+00" cType="1" res="5.4556755349040031e-03" rms="3.9488399028778076e-01" purity="7.0320963859558105e-01" nType="-99"/>
        </Node>
      </Node>
    </BinaryTree>
    <BinaryTree type="DecisionTree" boostWeight="1.0000000000000000e+00" itree="332">
      <Node pos="s" depth="0" NCoef="0" IVar="3" Cut="1.4556855773925781e+02" cType="1" res="-2.7912508230656385e-03" rms="3.8351270556449890e-01" purity="4.9865451455116272e-01" nType="0">
        <Node pos="l" depth="1" NCoef="0" IVar="7" Cut="3.9987182617187500e-01" cType="1" res="-1.3229975476861000e-02" rms="3.6009860038757324e-01" purity="2.2648133337497711e-01" nType="0">
          <Node pos="l" depth="2" NCoef="0" IVar="7" Cut="-5.1444423198699951e-01" cType="1" res="-2.4176578968763351e-02" rms="3.6114695668220520e-01" purity="2.2639384865760803e-01" nType="0">
            <Node pos="l" depth="3" NCoef="0" IVar="-1" Cut="0.0000000000000000e+00" cType="1" res="-1.2048440985381603e-03" rms="3.5170117020606995e-01" purity="2.1637393534183502e-01" nType="-99"/>
            <Node pos="r" depth="3" NCoef="0" IVar="-1" Cut="0.0000000000000000e+00" cType="1" res="-3.4757915884256363e-02" rms="3.7179759144783020e-01" purity="2.4062961339950562e-01" nType="-99"/>
          </Node>
          <Node pos="r" depth="2" NCoef="0" IVar="6" Cut="-9.7050368785858154e-02" cType="1" res="3.9275698363780975e-03" rms="3.5777598619461060e-01" purity="2.2661848366260529e-01" nType="0">
            <Node pos="l" depth="3" NCoef="0" IVar="-1" Cut="0.0000000000000000e+00" cType="1" res="2.2599130868911743e-02" rms="3.6888396739959717e-01" purity="2.5672569870948792e-01" nType="-99"/>
            <Node pos="r" depth="3" NCoef="0" IVar="-1" Cut="0.0000000000000000e+00" cType="1" res="-1.1736910790205002e-02" rms="3.4816303849220276e-01" purity="2.0458078384399414e-01" nType="-99"/>
          </Node>
        </Node>
        <Node pos="r" depth="1" NCoef="0" IVar="6" Cut="-3.9362621307373047e-01" cType="1" res="4.5737077016383410e-04" rms="3.9045614004135132e-01" purity="5.8335715532302856e-01" nType="0">
          <Node pos="l" depth="2" NCoef="0" IVar="7" Cut="-4.0007638931274414e-01" cType="1" res="9.2503540217876434e-03" rms="3.9475992321968079e-01" purity="5.3633934259414673e-01" nType="0">
            <Node pos="l" depth="3" NCoef="0" IVar="-1" Cut="0.0000000000000000e+00" cType="1" res="1.5152910724282265e-02" rms="4.0246909856796265e-01" purity="5.1809960603713989e-01" nType="-99"/>
            <Node pos="r" depth="3" NCoef="0" IVar="-1" Cut="0.0000000000000000e+00" cType="1" res="-1.7143768491223454e-04" rms="3.8956496119499207e-01" purity="5.4773187637329102e-01" nType="-99"/>
          </Node>
          <Node pos="r" depth="2" NCoef="0" IVar="6" Cut="-8.9496567845344543e-02" cType="1" res="-3.9853574708104134e-03" rms="3.8818773627281189e-01" purity="6.0711330175399780e-01" nType="0">
            <Node pos="l" depth="3" NCoef="0" IVar="-1" Cut="0.0000000000000000e+00" cType="1" res="-1.1372094042599201e-02" rms="3.8355812430381775e-01" purity="6.8210399150848389e-01" nType="-99"/>
            <Node pos="r" depth="3" NCoef="0" IVar="-1" Cut="0.0000000000000000e+00" cType="1" res="-6.3528295140713453e-04" rms="3.8919728994369507e-01" purity="5.8962959051132202e-01" nType="-99"/>
          </Node>
        </Node>
      </Node>
    </BinaryTree>
    <BinaryTree type="DecisionTree" boostWeight="1.0000000000000000e+00" itree="333">
      <Node pos="s" depth="0" NCoef="0" IVar="8" Cut="6.6662853956222534e-01" cType="1" res="-5.5421906290575862e-04" rms="3.8883391022682190e-01" purity="4.9868172407150269e-01" nType="0">
        <Node pos="l" depth="1" NCoef="0" IVar="9" Cut="-1.1998234987258911e+00" cType="1" res="-4.5461771078407764e-03" rms="3.8796779513359070e-01" purity="5.2092278003692627e-01" nType="0">
          <Node pos="l" depth="2" NCoef="0" IVar="8" Cut="-1.3142613172531128e+00" cType="1" res="7.1765822358429432e-03" rms="3.8033512234687805e-01" purity="4.4208163022994995e-01" nType="0">
            <Node pos="l" depth="3" NCoef="0" IVar="-1" Cut="0.0000000000000000e+00" cType="1" res="-1.2522079981863499e-02" rms="3.3742502331733704e-01" purity="2.2787168622016907e-01" nType="-99"/>
            <Node pos="r" depth="3" NCoef="0" IVar="-1" Cut="0.0000000000000000e+00" cType="1" res="8.5947616025805473e-03" rms="3.9162963628768921e-01" purity="5.0407224893569946e-01" nType="-99"/>
          </Node>
          <Node pos="r" depth="2" NCoef="0" IVar="2" Cut="3.5190039062500000e+02" cType="1" res="-7.1663414128124714e-03" rms="3.8960513472557068e-01" purity="5.3854459524154663e-01" nType="0">
            <Node pos="l" depth="3" NCoef="0" IVar="-1" Cut="0.0000000000000000e+00" cType="1" res="-9.0454025194048882e-03" rms="3.9731153845787048e-01" purity="4.9509057402610779e-01" nType="-99"/>
            <Node pos="r" depth="3" NCoef="0" IVar="-1" Cut="0.0000000000000000e+00" cType="1" res="1.7211880185641348e-04" rms="3.8122108578681946e-01" purity="5.8408230543136597e-01" nType="-99"/>
          </Node>
        </Node>
        <Node pos="r" depth="1" NCoef="0" IVar="7" Cut="9.3337488174438477e-01" cType="1" res="9.4409789890050888e-03" rms="3.9081522822380066e-01" purity="4.4299393892288208e-01" nType="0">
          <Node pos="l" depth="2" NCoef="0" IVar="2" Cut="4.4429238891601562e+02" cType="1" res="1.5055627562105656e-02" rms="4.0132647752761841e-01" purity="4.9221086502075195e-01" nType="0">
            <Node pos="l" depth="3" NCoef="0" IVar="-1" Cut="0.0000000000000000e+00" cType="1" res="5.8914348483085632e-03" rms="3.9912378787994385e-01" purity="4.7651147842407227e-01" nType="-99"/>
            <Node pos="r" depth="3" NCoef="0" IVar="-1" Cut="0.0000000000000000e+00" cType="1" res="2.0390350371599197e-02" rms="4.0736219286918640e-01" purity="5.3937947750091553e-01" nType="-99"/>
          </Node>
          <Node pos="r" depth="2" NCoef="0" IVar="9" Cut="4.0026655793190002e-01" cType="1" res="-8.7893893942236900e-03" rms="3.5393026471138000e-01" purity="2.8318992257118225e-01" nType="0">
            <Node pos="l" depth="3" NCoef="0" IVar="-1" Cut="0.0000000000000000e+00" cType="1" res="6.9325608201324940e-03" rms="3.7515482306480408e-01" purity="3.4666252136230469e-01" nType="-99"/>
            <Node pos="r" depth="3" NCoef="0" IVar="-1" Cut="0.0000000000000000e+00" cType="1" res="-2.3295542225241661e-02" rms="3.2976973056793213e-01" purity="2.1836127340793610e-01" nType="-99"/>
          </Node>
        </Node>
      </Node>
    </BinaryTree>
    <BinaryTree type="DecisionTree" boostWeight="1.0000000000000000e+00" itree="334">
      <Node pos="s" depth="0" NCoef="0" IVar="2" Cut="7.3174279785156250e+02" cType="1" res="3.7937259767204523e-03" rms="3.8622519373893738e-01" purity="5.0266456604003906e-01" nType="0">
        <Node pos="l" depth="1" NCoef="0" IVar="1" Cut="9.6142218017578125e+02" cType="1" res="2.8123673982918262e-03" rms="3.8525968790054321e-01" purity="4.9862730503082275e-01" nType="0">
          <Node pos="l" depth="2" NCoef="0" IVar="8" Cut="-4.0003684163093567e-01" cType="1" res="-1.1371931061148643e-02" rms="3.2958960533142090e-01" purity="1.4390076696872711e-01" nType="0">
            <Node pos="l" depth="3" NCoef="0" IVar="-1" Cut="0.0000000000000000e+00" cType="1" res="1.1084872297942638e-02" rms="3.3036968111991882e-01" purity="1.5385966002941132e-01" nType="-99"/>
            <Node pos="r" depth="3" NCoef="0" IVar="-1" Cut="0.0000000000000000e+00" cType="1" res="-2.2101549431681633e-02" rms="3.2816901803016663e-01" purity="1.3730429112911224e-01" nType="-99"/>
          </Node>
          <Node pos="r" depth="2" NCoef="0" IVar="4" Cut="1.6719578552246094e+02" cType="1" res="5.1282942295074463e-03" rms="3.9355358481407166e-01" purity="5.5654489994049072e-01" nType="0">
            <Node pos="l" depth="3" NCoef="0" IVar="-1" Cut="0.0000000000000000e+00" cType="1" res="5.4138433188199997e-03" rms="4.0810135006904602e-01" purity="4.7099798917770386e-01" nType="-99"/>
            <Node pos="r" depth="3" NCoef="0" IVar="-1" Cut="0.0000000000000000e+00" cType="1" res="-2.8127853292971849e-03" rms="3.5886228084564209e-01" purity="7.4720054864883423e-01" nType="-99"/>
          </Node>
        </Node>
        <Node pos="r" depth="1" NCoef="0" IVar="-1" Cut="0.0000000000000000e+00" cType="1" res="1.8144946545362473e-02" rms="4.1296029090881348e-01" purity="6.2328618764877319e-01" nType="-99"/>
      </Node>
    </BinaryTree>
    <BinaryTree type="DecisionTree" boostWeight="1.0000000000000000e+00" itree="335">
      <Node pos="s" depth="0" NCoef="0" IVar="8" Cut="6.6665613651275635e-01" cType="1" res="-3.1979552004486322e-03" rms="3.8501957058906555e-01" purity="4.9737358093261719e-01" nType="0">
        <Node pos="l" depth="1" NCoef="0" IVar="7" Cut="-1.7332695722579956e+00" cType="1" res="-3.6600689054466784e-04" rms="3.8766637444496155e-01" purity="5.2523207664489746e-01" nType="0">
          <Node pos="l" depth="2" NCoef="0" IVar="-1" Cut="0.0000000000000000e+00" cType="1" res="1.6466788947582245e-02" rms="3.4717273712158203e-01" purity="2.4792614579200745e-01" nType="-99"/>
          <Node pos="r" depth="2" NCoef="0" IVar="9" Cut="6.6667616367340088e-01" cType="1" res="-1.7043655971065164e-03" rms="3.9017271995544434e-01" purity="5.4366797208786011e-01" nType="0">
            <Node pos="l" depth="3" NCoef="0" IVar="-1" Cut="0.0000000000000000e+00" cType="1" res="-3.1692942138761282e-03" rms="3.8865527510643005e-01" purity="5.4915791749954224e-01" nType="-99"/>
            <Node pos="r" depth="3" NCoef="0" IVar="-1" Cut="0.0000000000000000e+00" cType="1" res="3.8757922593504190e-03" rms="3.9372661709785461e-01" purity="5.3034341335296631e-01" nType="-99"/>
          </Node>
        </Node>
        <Node pos="r" depth="1" NCoef="0" IVar="7" Cut="-1.1998691558837891e+00" cType="1" res="-1.0446690022945404e-02" rms="3.7806379795074463e-01" purity="4.2606621980667114e-01" nType="0">
          <Node pos="l" depth="2" NCoef="0" IVar="-1" Cut="0.0000000000000000e+00" cType="1" res="-3.3698089420795441e-02" rms="3.1694892048835754e-01" purity="2.1412867307662964e-01" nType="-99"/>
          <Node pos="r" depth="2" NCoef="0" IVar="7" Cut="3.2388052344322205e-01" cType="1" res="-6.4187948592007160e-03" rms="3.8506984710693359e-01" purity="4.5345106720924377e-01" nType="0">
            <Node pos="l" depth="3" NCoef="0" IVar="-1" Cut="0.0000000000000000e+00" cType="1" res="3.9205402135848999e-03" rms="3.9727172255516052e-01" purity="5.3461152315139771e-01" nType="-99"/>
            <Node pos="r" depth="3" NCoef="0" IVar="-1" Cut="0.0000000000000000e+00" cType="1" res="-1.3520587235689163e-02" rms="3.7169605493545532e-01" purity="3.7022665143013000e-01" nType="-99"/>
          </Node>
        </Node>
      </Node>
    </BinaryTree>
    <BinaryTree type="DecisionTree" boostWeight="1.0000000000000000e+00" itree="336">
      <Node pos="s" depth="0" NCoef="0" IVar="6" Cut="1.2069498300552368e+00" cType="1" res="5.1603862084448338e-04" rms="3.8588392734527588e-01" purity="5.0090873241424561e-01" nType="0">
        <Node pos="l" depth="1" NCoef="0" IVar="2" Cut="7.4716015625000000e+02" cType="1" res="-1.5262929955497384e-03" rms="3.8867241144180298e-01" purity="5.3066080808639526e-01" nType="0">
          <Node pos="l" depth="2" NCoef="0" IVar="3" Cut="2.4837561035156250e+02" cType="1" res="-6.7602528724819422e-04" rms="3.8775128126144409e-01" purity="5.2898758649826050e-01" nType="0">
            <Node pos="l" depth="3" NCoef="0" IVar="-1" Cut="0.0000000000000000e+00" cType="1" res="-2.6746932417154312e-03" rms="3.9645963907241821e-01" purity="4.4948187470436096e-01" nType="-99"/>
            <Node pos="r" depth="3" NCoef="0" IVar="-1" Cut="0.0000000000000000e+00" cType="1" res="5.5754277855157852e-03" rms="3.6642417311668396e-01" purity="7.1507567167282104e-01" nType="-99"/>
          </Node>
          <Node pos="r" depth="2" NCoef="0" IVar="-1" Cut="0.0000000000000000e+00" cType="1" res="-1.7293892800807953e-02" rms="4.1798931360244751e-01" purity="5.8803826570510864e-01" nType="-99"/>
        </Node>
        <Node pos="r" depth="1" NCoef="0" IVar="8" Cut="-4.0018835663795471e-01" cType="1" res="1.7334518954157829e-02" rms="3.6166724562644958e-01" purity="2.5590214133262634e-01" nType="0">
          <Node pos="l" depth="2" NCoef="0" IVar="-1" Cut="0.0000000000000000e+00" cType="1" res="3.4970130771398544e-02" rms="3.8119599223136902e-01" purity="2.9020592570304871e-01" nType="-99"/>
          <Node pos="r" depth="2" NCoef="0" IVar="3" Cut="1.8362315368652344e+02" cType="1" res="2.6230232324451208e-03" rms="3.4967780113220215e-01" purity="2.3718497157096863e-01" nType="0">
            <Node pos="l" depth="3" NCoef="0" IVar="-1" Cut="0.0000000000000000e+00" cType="1" res="2.4504564702510834e-02" rms="3.3273720741271973e-01" purity="1.6117081046104431e-01" nType="-99"/>
            <Node pos="r" depth="3" NCoef="0" IVar="-1" Cut="0.0000000000000000e+00" cType="1" res="-1.4598695561289787e-02" rms="3.6689522862434387e-01" purity="3.2550406455993652e-01" nType="-99"/>
          </Node>
        </Node>
      </Node>
    </BinaryTree>
    <BinaryTree type="DecisionTree" boostWeight="1.0000000000000000e+00" itree="337">
      <Node pos="s" depth="0" NCoef="0" IVar="3" Cut="1.4131532287597656e+02" cType="1" res="2.7811257168650627e-03" rms="3.8930538296699524e-01" purity="5.0111573934555054e-01" nType="0">
        <Node pos="l" depth="1" NCoef="0" IVar="6" Cut="-1.2041871994733810e-01" cType="1" res="1.5135484747588634e-02" rms="3.7723565101623535e-01" purity="2.4284277856349945e-01" nType="0">
          <Node pos="l" depth="2" NCoef="0" IVar="8" Cut="-9.3284314870834351e-01" cType="1" res="2.9723048210144043e-02" rms="3.7837728857994080e-01" purity="2.5236335396766663e-01" nType="0">
            <Node pos="l" depth="3" NCoef="0" IVar="-1" Cut="0.0000000000000000e+00" cType="1" res="3.8423163350671530e-03" rms="3.2154411077499390e-01" purity="1.7026640474796295e-01" nType="-99"/>
            <Node pos="r" depth="3" NCoef="0" IVar="-1" Cut="0.0000000000000000e+00" cType="1" res="2.7461187914013863e-02" rms="3.9763677120208740e-01" purity="2.8392237424850464e-01" nType="-99"/>
          </Node>
          <Node pos="r" depth="2" NCoef="0" IVar="6" Cut="4.3575292825698853e-01" cType="1" res="2.3878980427980423e-03" rms="3.7577179074287415e-01" purity="2.3452304303646088e-01" nType="0">
            <Node pos="l" depth="3" NCoef="0" IVar="-1" Cut="0.0000000000000000e+00" cType="1" res="-1.0110060684382915e-02" rms="4.1032749414443970e-01" purity="3.0251264572143555e-01" nType="-99"/>
            <Node pos="r" depth="3" NCoef="0" IVar="-1" Cut="0.0000000000000000e+00" cType="1" res="1.1093676090240479e-02" rms="3.5488963127136230e-01" purity="1.9717723131179810e-01" nType="-99"/>
          </Node>
        </Node>
        <Node pos="r" depth="1" NCoef="0" IVar="4" Cut="2.6971652221679688e+02" cType="1" res="-8.3166436525061727e-04" rms="3.9269143342971802e-01" purity="5.7664269208908081e-01" nType="0">
          <Node pos="l" depth="2" NCoef="0" IVar="3" Cut="3.1339553833007812e+02" cType="1" res="3.7303176941350102e-04" rms="3.9396235346794128e-01" purity="5.6743180751800537e-01" nType="0">
            <Node pos="l" depth="3" NCoef="0" IVar="-1" Cut="0.0000000000000000e+00" cType="1" res="-1.0357209248468280e-03" rms="3.9570528268814087e-01" purity="5.5287480354309082e-01" nType="-99"/>
            <Node pos="r" depth="3" NCoef="0" IVar="-1" Cut="0.0000000000000000e+00" cType="1" res="8.2760667428374290e-03" rms="3.8297146558761597e-01" purity="6.5591442584991455e-01" nType="-99"/>
          </Node>
          <Node pos="r" depth="2" NCoef="0" IVar="-1" Cut="0.0000000000000000e+00" cType="1" res="-2.2732289507985115e-02" rms="3.6331585049629211e-01" purity="7.7476972341537476e-01" nType="-99"/>
        </Node>
      </Node>
    </BinaryTree>
    <BinaryTree type="DecisionTree" boostWeight="1.0000000000000000e+00" itree="338">
      <Node pos="s" depth="0" NCoef="0" IVar="9" Cut="-1.4666358232498169e+00" cType="1" res="-2.0323679782450199e-03" rms="3.8429704308509827e-01" purity="5.0122141838073730e-01" nType="0">
        <Node pos="l" depth="1" NCoef="0" IVar="7" Cut="6.6667145490646362e-01" cType="1" res="-1.7047535628080368e-02" rms="3.6869856715202332e-01" purity="3.7836948037147522e-01" nType="0">
          <Node pos="l" depth="2" NCoef="0" IVar="7" Cut="-1.5870361030101776e-01" cType="1" res="-1.0869064368307590e-02" rms="3.7831518054008484e-01" purity="4.0940806269645691e-01" nType="0">
            <Node pos="l" depth="3" NCoef="0" IVar="-1" Cut="0.0000000000000000e+00" cType="1" res="-1.4590657316148281e-02" rms="3.6339139938354492e-01" purity="3.5028952360153198e-01" nType="-99"/>
            <Node pos="r" depth="3" NCoef="0" IVar="-1" Cut="0.0000000000000000e+00" cType="1" res="4.3413257226347923e-03" rms="4.0439772605895996e-01" purity="5.2114129066467285e-01" nType="-99"/>
          </Node>
          <Node pos="r" depth="2" NCoef="0" IVar="-1" Cut="0.0000000000000000e+00" cType="1" res="-2.8474014252424240e-02" rms="3.3431780338287354e-01" purity="2.7626523375511169e-01" nType="-99"/>
        </Node>
        <Node pos="r" depth="1" NCoef="0" IVar="6" Cut="1.3885906338691711e-01" cType="1" res="1.9922543287975714e-05" rms="3.8633480668067932e-01" purity="5.1801300048828125e-01" nType="0">
          <Node pos="l" depth="2" NCoef="0" IVar="8" Cut="1.2000273466110229e+00" cType="1" res="4.8746815882623196e-03" rms="3.8734239339828491e-01" purity="5.4310470819473267e-01" nType="0">
            <Node pos="l" depth="3" NCoef="0" IVar="-1" Cut="0.0000000000000000e+00" cType="1" res="4.8151896335184574e-03" rms="3.8717666268348694e-01" purity="5.6785321235656738e-01" nType="-99"/>
            <Node pos="r" depth="3" NCoef="0" IVar="-1" Cut="0.0000000000000000e+00" cType="1" res="-7.6045328751206398e-03" rms="3.8803461194038391e-01" purity="3.7863159179687500e-01" nType="-99"/>
          </Node>
          <Node pos="r" depth="2" NCoef="0" IVar="5" Cut="1.5821957397460938e+02" cType="1" res="-6.1855101957917213e-03" rms="3.8495391607284546e-01" purity="4.8594030737876892e-01" nType="0">
            <Node pos="l" depth="3" NCoef="0" IVar="-1" Cut="0.0000000000000000e+00" cType="1" res="-5.4084421135485172e-03" rms="3.9208054542541504e-01" purity="4.4967046380043030e-01" nType="-99"/>
            <Node pos="r" depth="3" NCoef="0" IVar="-1" Cut="0.0000000000000000e+00" cType="1" res="1.4981483109295368e-02" rms="3.0035057663917542e-01" purity="8.6229139566421509e-01" nType="-99"/>
          </Node>
        </Node>
      </Node>
    </BinaryTree>
    <BinaryTree type="DecisionTree" boostWeight="1.0000000000000000e+00" itree="339">
      <Node pos="s" depth="0" NCoef="0" IVar="9" Cut="-1.9999936819076538e+00" cType="1" res="2.2246025037020445e-03" rms="3.8844162225723267e-01" purity="5.0343716144561768e-01" nType="0">
        <Node pos="l" depth="1" NCoef="0" IVar="8" Cut="-1.3335566222667694e-01" cType="1" res="3.3199895173311234e-02" rms="3.9022526144981384e-01" purity="3.9960744976997375e-01" nType="0">
          <Node pos="l" depth="2" NCoef="0" IVar="-1" Cut="0.0000000000000000e+00" cType="1" res="3.1861376017332077e-02" rms="3.8226529955863953e-01" purity="3.8528826832771301e-01" nType="-99"/>
          <Node pos="r" depth="2" NCoef="0" IVar="-1" Cut="0.0000000000000000e+00" cType="1" res="1.2036413885653019e-02" rms="3.9803189039230347e-01" purity="4.1488146781921387e-01" nType="-99"/>
        </Node>
        <Node pos="r" depth="1" NCoef="0" IVar="3" Cut="2.4044160461425781e+02" cType="1" res="4.0433343383483589e-04" rms="3.8825967907905579e-01" purity="5.0953876972198486e-01" nType="0">
          <Node pos="l" depth="2" NCoef="0" IVar="6" Cut="9.4131809473037720e-01" cType="1" res="4.0438617579638958e-03" rms="3.9598631858825684e-01" purity="4.3190896511077881e-01" nType="0">
            <Node pos="l" depth="3" NCoef="0" IVar="-1" Cut="0.0000000000000000e+00" cType="1" res="5.1583646563813090e-04" rms="4.0192204713821411e-01" purity="4.6704098582267761e-01" nType="-99"/>
            <Node pos="r" depth="3" NCoef="0" IVar="-1" Cut="0.0000000000000000e+00" cType="1" res="1.4561531133949757e-02" rms="3.6725795269012451e-01" purity="2.7120193839073181e-01" nType="-99"/>
          </Node>
          <Node pos="r" depth="2" NCoef="0" IVar="2" Cut="6.7304010009765625e+02" cType="1" res="-7.2955344803631306e-03" rms="3.7126600742340088e-01" purity="6.7377418279647827e-01" nType="0">
            <Node pos="l" depth="3" NCoef="0" IVar="-1" Cut="0.0000000000000000e+00" cType="1" res="-7.6237139292061329e-03" rms="3.6879220604896545e-01" purity="6.7777514457702637e-01" nType="-99"/>
            <Node pos="r" depth="3" NCoef="0" IVar="-1" Cut="0.0000000000000000e+00" cType="1" res="1.2143464758992195e-02" rms="3.9102339744567871e-01" purity="6.3899880647659302e-01" nType="-99"/>
          </Node>
        </Node>
      </Node>
    </BinaryTree>
    <BinaryTree type="DecisionTree" boostWeight="1.0000000000000000e+00" itree="340">
      <Node pos="s" depth="0" NCoef="0" IVar="6" Cut="-3.7165609002113342e-01" cType="1" res="2.6905667618848383e-04" rms="3.8867634534835815e-01" purity="4.9754589796066284e-01" nType="0">
        <Node pos="l" depth="1" NCoef="0" IVar="8" Cut="-1.3334284722805023e-01" cType="1" res="-8.1851854920387268e-03" rms="3.8586112856864929e-01" purity="4.3541181087493896e-01" nType="0">
          <Node pos="l" depth="2" NCoef="0" IVar="8" Cut="-1.7840732336044312e+00" cType="1" res="-1.8657833337783813e-02" rms="3.7720894813537598e-01" purity="4.1210970282554626e-01" nType="0">
            <Node pos="l" depth="3" NCoef="0" IVar="-1" Cut="0.0000000000000000e+00" cType="1" res="6.5622082911431789e-03" rms="3.5802304744720459e-01" purity="2.3453499376773834e-01" nType="-99"/>
            <Node pos="r" depth="3" NCoef="0" IVar="-1" Cut="0.0000000000000000e+00" cType="1" res="-1.5236507169902325e-02" rms="3.8031286001205444e-01" purity="4.4354131817817688e-01" nType="-99"/>
          </Node>
          <Node pos="r" depth="2" NCoef="0" IVar="5" Cut="8.5090904235839844e+01" cType="1" res="2.8084965888410807e-03" rms="3.9444077014923096e-01" purity="4.5987322926521301e-01" nType="0">
            <Node pos="l" depth="3" NCoef="0" IVar="-1" Cut="0.0000000000000000e+00" cType="1" res="8.2973400130867958e-03" rms="3.9356857538223267e-01" purity="3.2671493291854858e-01" nType="-99"/>
            <Node pos="r" depth="3" NCoef="0" IVar="-1" Cut="0.0000000000000000e+00" cType="1" res="-6.1958343721926212e-03" rms="3.9519026875495911e-01" purity="6.2836152315139771e-01" nType="-99"/>
          </Node>
        </Node>
        <Node pos="r" depth="1" NCoef="0" IVar="9" Cut="1.7333260774612427e+00" cType="1" res="4.6510845422744751e-03" rms="3.9005544781684875e-01" purity="5.2975142002105713e-01" nType="0">
          <Node pos="l" depth="2" NCoef="0" IVar="7" Cut="-1.4666682481765747e+00" cType="1" res="6.8295658566057682e-03" rms="3.9040166139602661e-01" purity="5.4440152645111084e-01" nType="0">
            <Node pos="l" depth="3" NCoef="0" IVar="-1" Cut="0.0000000000000000e+00" cType="1" res="2.4061396718025208e-02" rms="3.7186017632484436e-01" purity="3.2187709212303162e-01" nType="-99"/>
            <Node pos="r" depth="3" NCoef="0" IVar="-1" Cut="0.0000000000000000e+00" cType="1" res="2.8648166917264462e-03" rms="3.9203611016273499e-01" purity="5.6558799743652344e-01" nType="-99"/>
          </Node>
          <Node pos="r" depth="2" NCoef="0" IVar="7" Cut="1.3414321839809418e-01" cType="1" res="-1.7688874155282974e-02" rms="3.8577789068222046e-01" purity="3.7951734662055969e-01" nType="0">
            <Node pos="l" depth="3" NCoef="0" IVar="-1" Cut="0.0000000000000000e+00" cType="1" res="-2.2970775142312050e-02" rms="3.8797464966773987e-01" purity="3.7219348549842834e-01" nType="-99"/>
            <Node pos="r" depth="3" NCoef="0" IVar="-1" Cut="0.0000000000000000e+00" cType="1" res="-1.6991926822811365e-03" rms="3.8317173719406128e-01" purity="3.8602590560913086e-01" nType="-99"/>
          </Node>
        </Node>
      </Node>
    </BinaryTree>
    <BinaryTree type="DecisionTree" boostWeight="1.0000000000000000e+00" itree="341">
      <Node pos="s" depth="0" NCoef="0" IVar="7" Cut="-3.9993786811828613e-01" cType="1" res="2.2080901544541121e-04" rms="3.8769778609275818e-01" purity="4.9672102928161621e-01" nType="0">
        <Node pos="l" depth="1" NCoef="0" IVar="8" Cut="-9.3340748548507690e-01" cType="1" res="-6.1213406734168530e-03" rms="3.8529011607170105e-01" purity="4.4534981250762939e-01" nType="0">
          <Node pos="l" depth="2" NCoef="0" IVar="7" Cut="-1.4283926486968994e+00" cType="1" res="-2.1954033523797989e-02" rms="3.6172962188720703e-01" purity="3.3446121215820312e-01" nType="0">
            <Node pos="l" depth="3" NCoef="0" IVar="-1" Cut="0.0000000000000000e+00" cType="1" res="-4.5727141201496124e-02" rms="2.8108537197113037e-01" purity="1.3664138317108154e-01" nType="-99"/>
            <Node pos="r" depth="3" NCoef="0" IVar="-1" Cut="0.0000000000000000e+00" cType="1" res="-6.6851079463958740e-03" rms="3.9184045791625977e-01" purity="4.2273694276809692e-01" nType="-99"/>
          </Node>
          <Node pos="r" depth="2" NCoef="0" IVar="3" Cut="2.8785937500000000e+02" cType="1" res="-7.1828812360763550e-04" rms="3.9286124706268311e-01" purity="4.8319154977798462e-01" nType="0">
            <Node pos="l" depth="3" NCoef="0" IVar="-1" Cut="0.0000000000000000e+00" cType="1" res="2.1043939050287008e-03" rms="3.9684489369392395e-01" purity="4.4825950264930725e-01" nType="-99"/>
            <Node pos="r" depth="3" NCoef="0" IVar="-1" Cut="0.0000000000000000e+00" cType="1" res="-1.4012516476213932e-02" rms="3.7253752350807190e-01" purity="6.5099328756332397e-01" nType="-99"/>
          </Node>
        </Node>
        <Node pos="r" depth="1" NCoef="0" IVar="8" Cut="2.0000271797180176e+00" cType="1" res="3.7018568255007267e-03" rms="3.8896900415420532e-01" purity="5.2491748332977295e-01" nType="0">
          <Node pos="l" depth="2" NCoef="0" IVar="3" Cut="1.4608894348144531e+02" cType="1" res="2.2966256365180016e-03" rms="3.8925090432167053e-01" purity="5.3609490394592285e-01" nType="0">
            <Node pos="l" depth="3" NCoef="0" IVar="-1" Cut="0.0000000000000000e+00" cType="1" res="8.5623031482100487e-03" rms="3.9083093404769897e-01" purity="2.7353754639625549e-01" nType="-99"/>
            <Node pos="r" depth="3" NCoef="0" IVar="-1" Cut="0.0000000000000000e+00" cType="1" res="-5.2457593847066164e-04" rms="3.8872191309928894e-01" purity="6.1487263441085815e-01" nType="-99"/>
          </Node>
          <Node pos="r" depth="2" NCoef="0" IVar="-1" Cut="0.0000000000000000e+00" cType="1" res="2.3919157683849335e-02" rms="3.8200655579566956e-01" purity="2.9576814174652100e-01" nType="-99"/>
        </Node>
      </Node>
    </BinaryTree>
    <BinaryTree type="DecisionTree" boostWeight="1.0000000000000000e+00" itree="342">
      <Node pos="s" depth="0" NCoef="0" IVar="9" Cut="-1.7333238124847412e+00" cType="1" res="-1.7965325387194753e-03" rms="3.8530340790748596e-01" purity="4.9961945414543152e-01" nType="0">
        <Node pos="l" depth="1" NCoef="0" IVar="7" Cut="-6.6756719350814819e-01" cType="1" res="-2.1808443590998650e-02" rms="3.6420044302940369e-01" purity="3.4437033534049988e-01" nType="0">
          <Node pos="l" depth="2" NCoef="0" IVar="-1" Cut="0.0000000000000000e+00" cType="1" res="-3.1773719936609268e-02" rms="3.2617747783660889e-01" purity="2.2126293182373047e-01" nType="-99"/>
          <Node pos="r" depth="2" NCoef="0" IVar="0" Cut="4.1904791259765625e+02" cType="1" res="-1.3640624471008778e-02" rms="3.8127884268760681e-01" purity="4.0502643585205078e-01" nType="0">
            <Node pos="l" depth="3" NCoef="0" IVar="-1" Cut="0.0000000000000000e+00" cType="1" res="-1.8235543742775917e-02" rms="3.6057528853416443e-01" purity="2.5579887628555298e-01" nType="-99"/>
            <Node pos="r" depth="3" NCoef="0" IVar="-1" Cut="0.0000000000000000e+00" cType="1" res="1.4441488310694695e-03" rms="4.0438660979270935e-01" purity="5.8598810434341431e-01" nType="-99"/>
          </Node>
        </Node>
        <Node pos="r" depth="1" NCoef="0" IVar="6" Cut="6.7062079906463623e-01" cType="1" res="1.1484777132864110e-05" rms="3.8710236549377441e-01" purity="5.1364576816558838e-01" nType="0">
          <Node pos="l" depth="2" NCoef="0" IVar="8" Cut="-6.6664433479309082e-01" cType="1" res="2.8327074833214283e-03" rms="3.9071479439735413e-01" purity="5.5645835399627686e-01" nType="0">
            <Node pos="l" depth="3" NCoef="0" IVar="-1" Cut="0.0000000000000000e+00" cType="1" res="9.2574618756771088e-03" rms="3.9904865622520447e-01" purity="4.9914431571960449e-01" nType="-99"/>
            <Node pos="r" depth="3" NCoef="0" IVar="-1" Cut="0.0000000000000000e+00" cType="1" res="-1.2423101579770446e-03" rms="3.8716760277748108e-01" purity="5.7981169223785400e-01" nType="-99"/>
          </Node>
          <Node pos="r" depth="2" NCoef="0" IVar="3" Cut="2.0511508178710938e+02" cType="1" res="-9.2050665989518166e-03" rms="3.7491077184677124e-01" purity="3.7378278374671936e-01" nType="0">
            <Node pos="l" depth="3" NCoef="0" IVar="-1" Cut="0.0000000000000000e+00" cType="1" res="7.6956773409619927e-04" rms="3.6912935972213745e-01" purity="2.7866911888122559e-01" nType="-99"/>
            <Node pos="r" depth="3" NCoef="0" IVar="-1" Cut="0.0000000000000000e+00" cType="1" res="-1.5287855640053749e-02" rms="3.8244464993476868e-01" purity="5.0784975290298462e-01" nType="-99"/>
          </Node>
        </Node>
      </Node>
    </BinaryTree>
    <BinaryTree type="DecisionTree" boostWeight="1.0000000000000000e+00" itree="343">
      <Node pos="s" depth="0" NCoef="0" IVar="7" Cut="-1.9999976158142090e+00" cType="1" res="-1.2500209268182516e-03" rms="3.8422802090644836e-01" purity="5.0297981500625610e-01" nType="0">
        <Node pos="l" depth="1" NCoef="0" IVar="-1" Cut="0.0000000000000000e+00" cType="1" res="2.7194289490580559e-02" rms="3.3574402332305908e-01" purity="2.2312013804912567e-01" nType="-99"/>
        <Node pos="r" depth="1" NCoef="0" IVar="9" Cut="6.6666722297668457e-01" cType="1" res="-2.4472265504300594e-03" rms="3.8594681024551392e-01" purity="5.1389867067337036e-01" nType="0">
          <Node pos="l" depth="2" NCoef="0" IVar="8" Cut="1.7332569360733032e+00" cType="1" res="9.6304173348471522e-04" rms="3.8802820444107056e-01" purity="5.3326201438903809e-01" nType="0">
            <Node pos="l" depth="3" NCoef="0" IVar="-1" Cut="0.0000000000000000e+00" cType="1" res="1.4168728375807405e-03" rms="3.8833102583885193e-01" purity="5.4751831293106079e-01" nType="-99"/>
            <Node pos="r" depth="3" NCoef="0" IVar="-1" Cut="0.0000000000000000e+00" cType="1" res="-1.1797119863331318e-02" rms="3.8281881809234619e-01" purity="3.1230017542839050e-01" nType="-99"/>
          </Node>
          <Node pos="r" depth="2" NCoef="0" IVar="5" Cut="8.5091186523437500e+01" cType="1" res="-1.0398939251899719e-02" rms="3.8093087077140808e-01" purity="4.6874928474426270e-01" nType="0">
            <Node pos="l" depth="3" NCoef="0" IVar="-1" Cut="0.0000000000000000e+00" cType="1" res="-1.2225789017975330e-02" rms="3.7917360663414001e-01" purity="3.1228458881378174e-01" nType="-99"/>
            <Node pos="r" depth="3" NCoef="0" IVar="-1" Cut="0.0000000000000000e+00" cType="1" res="-3.6814781196881086e-05" rms="3.8293114304542542e-01" purity="6.7001014947891235e-01" nType="-99"/>
          </Node>
        </Node>
      </Node>
    </BinaryTree>
    <BinaryTree type="DecisionTree" boostWeight="1.0000000000000000e+00" itree="344">
      <Node pos="s" depth="0" NCoef="0" IVar="9" Cut="-1.7332942485809326e+00" cType="1" res="1.6887596575543284e-03" rms="3.8365456461906433e-01" purity="5.0357365608215332e-01" nType="0">
        <Node pos="l" depth="1" NCoef="0" IVar="6" Cut="4.2362561821937561e-01" cType="1" res="2.4113664403557777e-02" rms="3.8324552774429321e-01" purity="3.9070487022399902e-01" nType="0">
          <Node pos="l" depth="2" NCoef="0" IVar="6" Cut="-4.8053604364395142e-01" cType="1" res="3.6498881876468658e-02" rms="3.9374372363090515e-01" purity="4.2689117789268494e-01" nType="0">
            <Node pos="l" depth="3" NCoef="0" IVar="-1" Cut="0.0000000000000000e+00" cType="1" res="1.3834746554493904e-02" rms="3.6914253234863281e-01" purity="3.1162658333778381e-01" nType="-99"/>
            <Node pos="r" depth="3" NCoef="0" IVar="-1" Cut="0.0000000000000000e+00" cType="1" res="3.2307360321283340e-02" rms="4.1642516851425171e-01" purity="5.4386872053146362e-01" nType="-99"/>
          </Node>
          <Node pos="r" depth="2" NCoef="0" IVar="-1" Cut="0.0000000000000000e+00" cType="1" res="-4.4135833159089088e-03" rms="3.5459741950035095e-01" purity="3.0262106657028198e-01" nType="-99"/>
        </Node>
        <Node pos="r" depth="1" NCoef="0" IVar="6" Cut="1.2067738771438599e+00" cType="1" res="-4.2189442319795489e-04" rms="3.8362556695938110e-01" purity="5.1419699192047119e-01" nType="0">
          <Node pos="l" depth="2" NCoef="0" IVar="8" Cut="-1.9999073743820190e+00" cType="1" res="1.7548745963722467e-03" rms="3.8896963000297546e-01" purity="5.4722678661346436e-01" nType="0">
            <Node pos="l" depth="3" NCoef="0" IVar="-1" Cut="0.0000000000000000e+00" cType="1" res="-2.2589674219489098e-02" rms="3.4540572762489319e-01" purity="2.5601723790168762e-01" nType="-99"/>
            <Node pos="r" depth="3" NCoef="0" IVar="-1" Cut="0.0000000000000000e+00" cType="1" res="1.9660606049001217e-03" rms="3.9054155349731445e-01" purity="5.5878186225891113e-01" nType="-99"/>
          </Node>
          <Node pos="r" depth="2" NCoef="0" IVar="9" Cut="8.5672008991241455e-01" cType="1" res="-1.8890978768467903e-02" rms="3.3429917693138123e-01" purity="2.3395107686519623e-01" nType="0">
            <Node pos="l" depth="3" NCoef="0" IVar="-1" Cut="0.0000000000000000e+00" cType="1" res="-1.8832871690392494e-02" rms="3.4665054082870483e-01" purity="2.6388064026832581e-01" nType="-99"/>
            <Node pos="r" depth="3" NCoef="0" IVar="-1" Cut="0.0000000000000000e+00" cType="1" res="-7.4369898065924644e-03" rms="3.1212905049324036e-01" purity="1.8366716802120209e-01" nType="-99"/>
          </Node>
        </Node>
      </Node>
    </BinaryTree>
    <BinaryTree type="DecisionTree" boostWeight="1.0000000000000000e+00" itree="345">
      <Node pos="s" depth="0" NCoef="0" IVar="8" Cut="1.1999329328536987e+00" cType="1" res="9.5409882487729192e-04" rms="3.8660618662834167e-01" purity="5.0140976905822754e-01" nType="0">
        <Node pos="l" depth="1" NCoef="0" IVar="6" Cut="-8.9629191160202026e-01" cType="1" res="2.8691638726741076e-03" rms="3.8848578929901123e-01" purity="5.2837342023849487e-01" nType="0">
          <Node pos="l" depth="2" NCoef="0" IVar="3" Cut="1.2210665893554688e+02" cType="1" res="-8.1211365759372711e-03" rms="3.7338596582412720e-01" purity="3.3958038687705994e-01" nType="0">
            <Node pos="l" depth="3" NCoef="0" IVar="-1" Cut="0.0000000000000000e+00" cType="1" res="3.2932899892330170e-02" rms="3.2954248785972595e-01" purity="1.6120326519012451e-01" nType="-99"/>
            <Node pos="r" depth="3" NCoef="0" IVar="-1" Cut="0.0000000000000000e+00" cType="1" res="-1.0936353355646133e-02" rms="3.8182300329208374e-01" purity="3.7878742814064026e-01" nType="-99"/>
          </Node>
          <Node pos="r" depth="2" NCoef="0" IVar="0" Cut="4.3904470825195312e+02" cType="1" res="5.1156957633793354e-03" rms="3.9146268367767334e-01" purity="5.6696474552154541e-01" nType="0">
            <Node pos="l" depth="3" NCoef="0" IVar="-1" Cut="0.0000000000000000e+00" cType="1" res="6.5802442841231823e-03" rms="4.1092455387115479e-01" purity="4.2623132467269897e-01" nType="-99"/>
            <Node pos="r" depth="3" NCoef="0" IVar="-1" Cut="0.0000000000000000e+00" cType="1" res="-1.7454597400501370e-03" rms="3.6566638946533203e-01" purity="7.4207407236099243e-01" nType="-99"/>
          </Node>
        </Node>
        <Node pos="r" depth="1" NCoef="0" IVar="6" Cut="4.1061356663703918e-01" cType="1" res="-1.0400899685919285e-02" rms="3.7506738305091858e-01" purity="3.4153395891189575e-01" nType="0">
          <Node pos="l" depth="2" NCoef="0" IVar="4" Cut="9.0853408813476562e+01" cType="1" res="-2.0482853055000305e-02" rms="3.8948914408683777e-01" purity="3.7522891163825989e-01" nType="0">
            <Node pos="l" depth="3" NCoef="0" IVar="-1" Cut="0.0000000000000000e+00" cType="1" res="1.8239938654005527e-03" rms="3.6076760292053223e-01" purity="1.9556641578674316e-01" nType="-99"/>
            <Node pos="r" depth="3" NCoef="0" IVar="-1" Cut="0.0000000000000000e+00" cType="1" res="-1.8389351665973663e-02" rms="4.0102922916412354e-01" purity="4.5401835441589355e-01" nType="-99"/>
          </Node>
          <Node pos="r" depth="2" NCoef="0" IVar="4" Cut="1.1040035247802734e+02" cType="1" res="4.1567166335880756e-03" rms="3.5269781947135925e-01" purity="2.9288092255592346e-01" nType="0">
            <Node pos="l" depth="3" NCoef="0" IVar="-1" Cut="0.0000000000000000e+00" cType="1" res="-8.6138229817152023e-03" rms="2.9698148369789124e-01" purity="1.6728183627128601e-01" nType="-99"/>
            <Node pos="r" depth="3" NCoef="0" IVar="-1" Cut="0.0000000000000000e+00" cType="1" res="1.2070112861692905e-02" rms="4.0569156408309937e-01" purity="4.3374729156494141e-01" nType="-99"/>
          </Node>
        </Node>
      </Node>
    </BinaryTree>
    <BinaryTree type="DecisionTree" boostWeight="1.0000000000000000e+00" itree="346">
      <Node pos="s" depth="0" NCoef="0" IVar="1" Cut="1.1200330810546875e+03" cType="1" res="-4.6118930185912177e-06" rms="3.8496983051300049e-01" purity="4.9854370951652527e-01" nType="0">
        <Node pos="l" depth="1" NCoef="0" IVar="9" Cut="1.7333413362503052e+00" cType="1" res="-9.5560820773243904e-03" rms="3.7663012742996216e-01" purity="2.3350517451763153e-01" nType="0">
          <Node pos="l" depth="2" NCoef="0" IVar="0" Cut="4.2648974609375000e+02" cType="1" res="-6.7238425835967064e-03" rms="3.8177976012229919e-01" purity="2.4255071580410004e-01" nType="0">
            <Node pos="l" depth="3" NCoef="0" IVar="-1" Cut="0.0000000000000000e+00" cType="1" res="-2.2784916218370199e-03" rms="3.7416303157806396e-01" purity="2.3168458044528961e-01" nType="-99"/>
            <Node pos="r" depth="3" NCoef="0" IVar="-1" Cut="0.0000000000000000e+00" cType="1" res="-1.6373926773667336e-02" rms="4.2869833111763000e-01" purity="3.1546419858932495e-01" nType="-99"/>
          </Node>
          <Node pos="r" depth="2" NCoef="0" IVar="-1" Cut="0.0000000000000000e+00" cType="1" res="-2.7506794780492783e-02" rms="3.2760950922966003e-01" purity="1.5510548651218414e-01" nType="-99"/>
        </Node>
        <Node pos="r" depth="1" NCoef="0" IVar="8" Cut="1.3332903385162354e-01" cType="1" res="4.8352545127272606e-03" rms="3.8903793692588806e-01" purity="6.3284254074096680e-01" nType="0">
          <Node pos="l" depth="2" NCoef="0" IVar="9" Cut="-1.4666478633880615e+00" cType="1" res="-2.0301905460655689e-03" rms="3.8768666982650757e-01" purity="6.3527905941009521e-01" nType="0">
            <Node pos="l" depth="3" NCoef="0" IVar="-1" Cut="0.0000000000000000e+00" cType="1" res="1.2800951488316059e-02" rms="3.9442458748817444e-01" purity="5.3697621822357178e-01" nType="-99"/>
            <Node pos="r" depth="3" NCoef="0" IVar="-1" Cut="0.0000000000000000e+00" cType="1" res="-3.5148456227034330e-03" rms="3.8658076524734497e-01" purity="6.4966660737991333e-01" nType="-99"/>
          </Node>
          <Node pos="r" depth="2" NCoef="0" IVar="9" Cut="-1.1993807554244995e+00" cType="1" res="1.2910427525639534e-02" rms="3.9046683907508850e-01" purity="6.2997668981552124e-01" nType="0">
            <Node pos="l" depth="3" NCoef="0" IVar="-1" Cut="0.0000000000000000e+00" cType="1" res="-1.0634768754243851e-02" rms="4.0204060077667236e-01" purity="5.3788834810256958e-01" nType="-99"/>
            <Node pos="r" depth="3" NCoef="0" IVar="-1" Cut="0.0000000000000000e+00" cType="1" res="1.1529721319675446e-02" rms="3.8844224810600281e-01" purity="6.4416760206222534e-01" nType="-99"/>
          </Node>
        </Node>
      </Node>
    </BinaryTree>
    <BinaryTree type="DecisionTree" boostWeight="1.0000000000000000e+00" itree="347">
      <Node pos="s" depth="0" NCoef="0" IVar="1" Cut="1.1148148193359375e+03" cType="1" res="-7.9756544437259436e-04" rms="3.8801249861717224e-01" purity="4.9764692783355713e-01" nType="0">
        <Node pos="l" depth="1" NCoef="0" IVar="9" Cut="-6.6661262512207031e-01" cType="1" res="6.2212194316089153e-03" rms="3.8495826721191406e-01" purity="2.4881395697593689e-01" nType="0">
          <Node pos="l" depth="2" NCoef="0" IVar="0" Cut="3.6371496582031250e+02" cType="1" res="-8.9879985898733139e-03" rms="3.7129020690917969e-01" purity="2.1894542872905731e-01" nType="0">
            <Node pos="l" depth="3" NCoef="0" IVar="-1" Cut="0.0000000000000000e+00" cType="1" res="4.7316942363977432e-03" rms="3.6316749453544617e-01" purity="2.0174492895603180e-01" nType="-99"/>
            <Node pos="r" depth="3" NCoef="0" IVar="-1" Cut="0.0000000000000000e+00" cType="1" res="-2.0386019721627235e-02" rms="3.8214874267578125e-01" purity="2.4502560496330261e-01" nType="-99"/>
          </Node>
          <Node pos="r" depth="2" NCoef="0" IVar="7" Cut="9.3325120210647583e-01" cType="1" res="1.3223297894001007e-02" rms="3.9089137315750122e-01" purity="2.6256492733955383e-01" nType="0">
            <Node pos="l" depth="3" NCoef="0" IVar="-1" Cut="0.0000000000000000e+00" cType="1" res="1.2016713619232178e-02" rms="4.0764838457107544e-01" purity="2.9452058672904968e-01" nType="-99"/>
            <Node pos="r" depth="3" NCoef="0" IVar="-1" Cut="0.0000000000000000e+00" cType="1" res="-4.0818522684276104e-03" rms="3.3601522445678711e-01" purity="1.6833910346031189e-01" nType="-99"/>
          </Node>
        </Node>
        <Node pos="r" depth="1" NCoef="0" IVar="5" Cut="8.5090957641601562e+01" cType="1" res="-4.3885526247322559e-03" rms="3.8951694965362549e-01" purity="6.2495613098144531e-01" nType="0">
          <Node pos="l" depth="2" NCoef="0" IVar="5" Cut="8.0077598571777344e+01" cType="1" res="-1.0632758028805256e-02" rms="4.1853958368301392e-01" purity="4.5936736464500427e-01" nType="0">
            <Node pos="l" depth="3" NCoef="0" IVar="-1" Cut="0.0000000000000000e+00" cType="1" res="-9.0412376448512077e-03" rms="4.1740322113037109e-01" purity="4.3986865878105164e-01" nType="-99"/>
            <Node pos="r" depth="3" NCoef="0" IVar="-1" Cut="0.0000000000000000e+00" cType="1" res="1.3232892379164696e-02" rms="4.2438253760337830e-01" purity="5.8835268020629883e-01" nType="-99"/>
          </Node>
          <Node pos="r" depth="2" NCoef="0" IVar="6" Cut="1.2028095722198486e+00" cType="1" res="-3.1674551428295672e-04" rms="3.6930826306343079e-01" purity="7.3293560743331909e-01" nType="0">
            <Node pos="l" depth="3" NCoef="0" IVar="-1" Cut="0.0000000000000000e+00" cType="1" res="-1.6694100340828300e-03" rms="3.6544662714004517e-01" purity="7.5384998321533203e-01" nType="-99"/>
            <Node pos="r" depth="3" NCoef="0" IVar="-1" Cut="0.0000000000000000e+00" cType="1" res="1.2844556011259556e-02" rms="4.1031339764595032e-01" purity="4.9333110451698303e-01" nType="-99"/>
          </Node>
        </Node>
      </Node>
    </BinaryTree>
    <BinaryTree type="DecisionTree" boostWeight="1.0000000000000000e+00" itree="348">
      <Node pos="s" depth="0" NCoef="0" IVar="8" Cut="-1.7333431243896484e+00" cType="1" res="4.7201491543091834e-04" rms="3.8722598552703857e-01" purity="4.9826103448867798e-01" nType="0">
        <Node pos="l" depth="1" NCoef="0" IVar="6" Cut="1.5992185473442078e-01" cType="1" res="-2.0989470183849335e-02" rms="3.5489687323570251e-01" purity="2.5608310103416443e-01" nType="0">
          <Node pos="l" depth="2" NCoef="0" IVar="-1" Cut="0.0000000000000000e+00" cType="1" res="-4.6091335825622082e-03" rms="3.6854237318038940e-01" purity="2.9289752244949341e-01" nType="-99"/>
          <Node pos="r" depth="2" NCoef="0" IVar="-1" Cut="0.0000000000000000e+00" cType="1" res="-3.6026727408170700e-02" rms="3.3006054162979126e-01" purity="1.9610159099102020e-01" nType="-99"/>
        </Node>
        <Node pos="r" depth="1" NCoef="0" IVar="6" Cut="-1.4581191539764404e+00" cType="1" res="1.9981020595878363e-03" rms="3.8937762379646301e-01" purity="5.1548188924789429e-01" nType="0">
          <Node pos="l" depth="2" NCoef="0" IVar="0" Cut="3.8652047729492188e+02" cType="1" res="2.2820409387350082e-02" rms="3.6146184802055359e-01" purity="2.4673582613468170e-01" nType="0">
            <Node pos="l" depth="3" NCoef="0" IVar="-1" Cut="0.0000000000000000e+00" cType="1" res="1.7728840466588736e-03" rms="3.0041354894638062e-01" purity="1.2402909994125366e-01" nType="-99"/>
            <Node pos="r" depth="3" NCoef="0" IVar="-1" Cut="0.0000000000000000e+00" cType="1" res="2.8224756941199303e-02" rms="4.1439509391784668e-01" purity="3.7434837222099304e-01" nType="-99"/>
          </Node>
          <Node pos="r" depth="2" NCoef="0" IVar="6" Cut="-1.0526081323623657e+00" cType="1" res="5.7981722056865692e-04" rms="3.9116629958152771e-01" purity="5.3378719091415405e-01" nType="0">
            <Node pos="l" depth="3" NCoef="0" IVar="-1" Cut="0.0000000000000000e+00" cType="1" res="-1.6358099877834320e-02" rms="3.8394427299499512e-01" purity="3.5787621140480042e-01" nType="-99"/>
            <Node pos="r" depth="3" NCoef="0" IVar="-1" Cut="0.0000000000000000e+00" cType="1" res="1.6802478348836303e-03" rms="3.9163976907730103e-01" purity="5.4722821712493896e-01" nType="-99"/>
          </Node>
        </Node>
      </Node>
    </BinaryTree>
    <BinaryTree type="DecisionTree" boostWeight="1.0000000000000000e+00" itree="349">
      <Node pos="s" depth="0" NCoef="0" IVar="6" Cut="-1.1820021867752075e+00" cType="1" res="-4.4822270865552127e-04" rms="3.8601586222648621e-01" purity="4.9999395012855530e-01" nType="0">
        <Node pos="l" depth="1" NCoef="0" IVar="8" Cut="-6.6654551029205322e-01" cType="1" res="-1.5798138454556465e-02" rms="3.5001432895660400e-01" purity="2.5049939751625061e-01" nType="0">
          <Node pos="l" depth="2" NCoef="0" IVar="-1" Cut="0.0000000000000000e+00" cType="1" res="-1.5974139387253672e-04" rms="3.3583930134773254e-01" purity="2.2254037857055664e-01" nType="-99"/>
          <Node pos="r" depth="2" NCoef="0" IVar="7" Cut="-3.9963522553443909e-01" cType="1" res="-2.5443298742175102e-02" rms="3.5815244913101196e-01" purity="2.6777386665344238e-01" nType="0">
            <Node pos="l" depth="3" NCoef="0" IVar="-1" Cut="0.0000000000000000e+00" cType="1" res="-5.9644542634487152e-03" rms="3.6864611506462097e-01" purity="2.6054477691650391e-01" nType="-99"/>
            <Node pos="r" depth="3" NCoef="0" IVar="-1" Cut="0.0000000000000000e+00" cType="1" res="-2.6656221598386765e-02" rms="3.5056966543197632e-01" purity="2.7254730463027954e-01" nType="-99"/>
          </Node>
        </Node>
        <Node pos="r" depth="1" NCoef="0" IVar="8" Cut="1.9999843835830688e+00" cType="1" res="1.4366831164807081e-03" rms="3.9016616344451904e-01" purity="5.3063082695007324e-01" nType="0">
          <Node pos="l" depth="2" NCoef="0" IVar="7" Cut="-1.9998900890350342e+00" cType="1" res="2.4719990324229002e-03" rms="3.9185768365859985e-01" purity="5.4296690225601196e-01" nType="0">
            <Node pos="l" depth="3" NCoef="0" IVar="-1" Cut="0.0000000000000000e+00" cType="1" res="2.0036650821566582e-02" rms="3.6256429553031921e-01" purity="2.4526792764663696e-01" nType="-99"/>
            <Node pos="r" depth="3" NCoef="0" IVar="-1" Cut="0.0000000000000000e+00" cType="1" res="1.0724223684519529e-03" rms="3.9286211133003235e-01" purity="5.5383002758026123e-01" nType="-99"/>
          </Node>
          <Node pos="r" depth="2" NCoef="0" IVar="-1" Cut="0.0000000000000000e+00" cType="1" res="-1.6038672998547554e-02" rms="3.4927245974540710e-01" purity="2.5389668345451355e-01" nType="-99"/>
        </Node>
      </Node>
    </BinaryTree>
    <BinaryTree type="DecisionTree" boostWeight="1.0000000000000000e+00" itree="350">
      <Node pos="s" depth="0" NCoef="0" IVar="9" Cut="-1.9996660947799683e+00" cType="1" res="-8.6236959759844467e-06" rms="3.8672786951065063e-01" purity="4.9912956357002258e-01" nType="0">
        <Node pos="l" depth="1" NCoef="0" IVar="7" Cut="-1.3271853327751160e-01" cType="1" res="-2.8186889365315437e-02" rms="3.7320452928543091e-01" purity="3.2604005932807922e-01" nType="0">
          <Node pos="l" depth="2" NCoef="0" IVar="-1" Cut="0.0000000000000000e+00" cType="1" res="-3.0795497819781303e-02" rms="3.6290091276168823e-01" purity="3.0115821957588196e-01" nType="-99"/>
          <Node pos="r" depth="2" NCoef="0" IVar="-1" Cut="0.0000000000000000e+00" cType="1" res="-9.3536144122481346e-03" rms="3.8295906782150269e-01" purity="3.5156476497650146e-01" nType="-99"/>
        </Node>
        <Node pos="r" depth="1" NCoef="0" IVar="9" Cut="5.1445394754409790e-01" cType="1" res="1.5670619904994965e-03" rms="3.8740962743759155e-01" purity="5.0880843400955200e-01" nType="0">
          <Node pos="l" depth="2" NCoef="0" IVar="7" Cut="-1.1999247074127197e+00" cType="1" res="6.6471043974161148e-03" rms="3.8999223709106445e-01" purity="5.3412926197052002e-01" nType="0">
            <Node pos="l" depth="3" NCoef="0" IVar="-1" Cut="0.0000000000000000e+00" cType="1" res="1.8043218180537224e-02" rms="3.7791332602500916e-01" purity="3.5950037837028503e-01" nType="-99"/>
            <Node pos="r" depth="3" NCoef="0" IVar="-1" Cut="0.0000000000000000e+00" cType="1" res="2.1811027545481920e-03" rms="3.9196181297302246e-01" purity="5.6449288129806519e-01" nType="-99"/>
          </Node>
          <Node pos="r" depth="2" NCoef="0" IVar="3" Cut="1.3340339660644531e+02" cType="1" res="-7.3471688665449619e-03" rms="3.8267269730567932e-01" purity="4.6437674760818481e-01" nType="0">
            <Node pos="l" depth="3" NCoef="0" IVar="-1" Cut="0.0000000000000000e+00" cType="1" res="-1.9290775060653687e-02" rms="3.3790022134780884e-01" purity="1.7084941267967224e-01" nType="-99"/>
            <Node pos="r" depth="3" NCoef="0" IVar="-1" Cut="0.0000000000000000e+00" cType="1" res="-2.0068688318133354e-03" rms="3.9281788468360901e-01" purity="5.3678137063980103e-01" nType="-99"/>
          </Node>
        </Node>
      </Node>
    </BinaryTree>
    <BinaryTree type="DecisionTree" boostWeight="1.0000000000000000e+00" itree="351">
      <Node pos="s" depth="0" NCoef="0" IVar="8" Cut="1.3328255712985992e-01" cType="1" res="1.8764655105769634e-03" rms="3.8600429892539978e-01" purity="5.0047671794891357e-01" nType="0">
        <Node pos="l" depth="1" NCoef="0" IVar="6" Cut="4.2071828246116638e-01" cType="1" res="6.6887382417917252e-03" rms="3.8849487900733948e-01" purity="5.1269620656967163e-01" nType="0">
          <Node pos="l" depth="2" NCoef="0" IVar="7" Cut="1.3314805924892426e-01" cType="1" res="8.8062742725014687e-04" rms="3.8946387171745300e-01" purity="5.2952766418457031e-01" nType="0">
            <Node pos="l" depth="3" NCoef="0" IVar="-1" Cut="0.0000000000000000e+00" cType="1" res="-4.5045455917716026e-03" rms="3.8812917470932007e-01" purity="5.1848268508911133e-01" nType="-99"/>
            <Node pos="r" depth="3" NCoef="0" IVar="-1" Cut="0.0000000000000000e+00" cType="1" res="7.9155554994940758e-03" rms="3.9113000035285950e-01" purity="5.4565304517745972e-01" nType="-99"/>
          </Node>
          <Node pos="r" depth="2" NCoef="0" IVar="6" Cut="8.7367951869964600e-01" cType="1" res="2.0021948963403702e-02" rms="3.8593074679374695e-01" purity="4.7405779361724854e-01" nType="0">
            <Node pos="l" depth="3" NCoef="0" IVar="-1" Cut="0.0000000000000000e+00" cType="1" res="2.0551167428493500e-02" rms="3.9491647481918335e-01" purity="6.1016154289245605e-01" nType="-99"/>
            <Node pos="r" depth="3" NCoef="0" IVar="-1" Cut="0.0000000000000000e+00" cType="1" res="6.1629004776477814e-03" rms="3.7712523341178894e-01" purity="3.4887453913688660e-01" nType="-99"/>
          </Node>
        </Node>
        <Node pos="r" depth="1" NCoef="0" IVar="8" Cut="3.8727086782455444e-01" cType="1" res="-3.9718174375593662e-03" rms="3.8287433981895447e-01" purity="4.8562648892402649e-01" nType="0">
          <Node pos="l" depth="2" NCoef="0" IVar="6" Cut="4.5752224326133728e-01" cType="1" res="-2.2269789129495621e-02" rms="3.8122943043708801e-01" purity="5.6502819061279297e-01" nType="0">
            <Node pos="l" depth="3" NCoef="0" IVar="-1" Cut="0.0000000000000000e+00" cType="1" res="-5.8328723534941673e-03" rms="3.7817385792732239e-01" purity="6.1103832721710205e-01" nType="-99"/>
            <Node pos="r" depth="3" NCoef="0" IVar="-1" Cut="0.0000000000000000e+00" cType="1" res="-3.3152341842651367e-02" rms="3.8610681891441345e-01" purity="4.6621143817901611e-01" nType="-99"/>
          </Node>
          <Node pos="r" depth="2" NCoef="0" IVar="8" Cut="2.2254624366760254e+00" cType="1" res="3.5584180295700207e-05" rms="3.8311702013015747e-01" purity="4.6823686361312866e-01" nType="0">
            <Node pos="l" depth="3" NCoef="0" IVar="-1" Cut="0.0000000000000000e+00" cType="1" res="1.7444238765165210e-03" rms="3.8676831126213074e-01" purity="4.8981115221977234e-01" nType="-99"/>
            <Node pos="r" depth="3" NCoef="0" IVar="-1" Cut="0.0000000000000000e+00" cType="1" res="-2.8858913108706474e-02" rms="3.2842937111854553e-01" purity="1.7951920628547668e-01" nType="-99"/>
          </Node>
        </Node>
      </Node>
    </BinaryTree>
    <BinaryTree type="DecisionTree" boostWeight="1.0000000000000000e+00" itree="352">
      <Node pos="s" depth="0" NCoef="0" IVar="7" Cut="9.3325442075729370e-01" cType="1" res="3.0360729433596134e-03" rms="3.8711377978324890e-01" purity="5.0114506483078003e-01" nType="0">
        <Node pos="l" depth="1" NCoef="0" IVar="5" Cut="1.2018182373046875e+02" cType="1" res="6.4023421145975590e-03" rms="3.9233240485191345e-01" purity="5.3778380155563354e-01" nType="0">
          <Node pos="l" depth="2" NCoef="0" IVar="9" Cut="-9.3332868814468384e-01" cType="1" res="9.5416950061917305e-03" rms="4.0589842200279236e-01" purity="4.6255585551261902e-01" nType="0">
            <Node pos="l" depth="3" NCoef="0" IVar="-1" Cut="0.0000000000000000e+00" cType="1" res="1.2265839613974094e-02" rms="3.9780887961387634e-01" purity="4.2085471749305725e-01" nType="-99"/>
            <Node pos="r" depth="3" NCoef="0" IVar="-1" Cut="0.0000000000000000e+00" cType="1" res="3.6349147558212280e-03" rms="4.0858364105224609e-01" purity="4.7688442468643188e-01" nType="-99"/>
          </Node>
          <Node pos="r" depth="2" NCoef="0" IVar="9" Cut="9.3334251642227173e-01" cType="1" res="-4.9477578140795231e-03" rms="3.3854028582572937e-01" purity="8.0976492166519165e-01" nType="0">
            <Node pos="l" depth="3" NCoef="0" IVar="-1" Cut="0.0000000000000000e+00" cType="1" res="-7.6183321652933955e-04" rms="3.3467751741409302e-01" purity="8.2287615537643433e-01" nType="-99"/>
            <Node pos="r" depth="3" NCoef="0" IVar="-1" Cut="0.0000000000000000e+00" cType="1" res="-1.9384637475013733e-02" rms="3.5573795437812805e-01" purity="7.4725198745727539e-01" nType="-99"/>
          </Node>
        </Node>
        <Node pos="r" depth="1" NCoef="0" IVar="5" Cut="7.6869842529296875e+01" cType="1" res="-1.1269317008554935e-02" rms="3.6375579237937927e-01" purity="3.4544384479522705e-01" nType="0">
          <Node pos="l" depth="2" NCoef="0" IVar="5" Cut="5.8956615447998047e+01" cType="1" res="-2.4554932489991188e-02" rms="3.2713106274604797e-01" purity="1.7846971750259399e-01" nType="0">
            <Node pos="l" depth="3" NCoef="0" IVar="-1" Cut="0.0000000000000000e+00" cType="1" res="-4.7370057553052902e-02" rms="2.6794058084487915e-01" purity="1.1197023838758469e-01" nType="-99"/>
            <Node pos="r" depth="3" NCoef="0" IVar="-1" Cut="0.0000000000000000e+00" cType="1" res="-5.4374802857637405e-03" rms="3.6221632361412048e-01" purity="2.2549550235271454e-01" nType="-99"/>
          </Node>
          <Node pos="r" depth="2" NCoef="0" IVar="9" Cut="6.6666269302368164e-01" cType="1" res="2.0612434018403292e-03" rms="3.9667698740959167e-01" purity="5.1298284530639648e-01" nType="0">
            <Node pos="l" depth="3" NCoef="0" IVar="-1" Cut="0.0000000000000000e+00" cType="1" res="-1.1407876387238503e-02" rms="3.9398065209388733e-01" purity="5.1993799209594727e-01" nType="-99"/>
            <Node pos="r" depth="3" NCoef="0" IVar="-1" Cut="0.0000000000000000e+00" cType="1" res="2.2615144029259682e-02" rms="3.9886239171028137e-01" purity="5.0131922960281372e-01" nType="-99"/>
          </Node>
        </Node>
      </Node>
    </BinaryTree>
    <BinaryTree type="DecisionTree" boostWeight="1.0000000000000000e+00" itree="353">
      <Node pos="s" depth="0" NCoef="0" IVar="6" Cut="-1.4581568241119385e+00" cType="1" res="-2.4103214964270592e-03" rms="3.8611915707588196e-01" purity="4.9672082066535950e-01" nType="0">
        <Node pos="l" depth="1" NCoef="0" IVar="8" Cut="-3.9909106492996216e-01" cType="1" res="1.4377071522176266e-02" rms="3.4444606304168701e-01" purity="2.2617380321025848e-01" nType="0">
          <Node pos="l" depth="2" NCoef="0" IVar="-1" Cut="0.0000000000000000e+00" cType="1" res="-7.8262910246849060e-03" rms="3.0586457252502441e-01" purity="1.7832452058792114e-01" nType="-99"/>
          <Node pos="r" depth="2" NCoef="0" IVar="-1" Cut="0.0000000000000000e+00" cType="1" res="2.4433406069874763e-02" rms="3.6978161334991455e-01" purity="2.6196545362472534e-01" nType="-99"/>
        </Node>
        <Node pos="r" depth="1" NCoef="0" IVar="8" Cut="1.3331934809684753e-01" cType="1" res="-3.6475572269409895e-03" rms="3.8898521661758423e-01" purity="5.1666021347045898e-01" nType="0">
          <Node pos="l" depth="2" NCoef="0" IVar="6" Cut="9.7466820478439331e-01" cType="1" res="-7.4753775261342525e-03" rms="3.9074543118476868e-01" purity="5.2368348836898804e-01" nType="0">
            <Node pos="l" depth="3" NCoef="0" IVar="-1" Cut="0.0000000000000000e+00" cType="1" res="-2.8126575052738190e-03" rms="3.9501810073852539e-01" purity="5.6402236223220825e-01" nType="-99"/>
            <Node pos="r" depth="3" NCoef="0" IVar="-1" Cut="0.0000000000000000e+00" cType="1" res="-1.9106991589069366e-02" rms="3.6347571015357971e-01" purity="2.8139820694923401e-01" nType="-99"/>
          </Node>
          <Node pos="r" depth="2" NCoef="0" IVar="6" Cut="-2.4178721010684967e-01" cType="1" res="8.4170553600415587e-04" rms="3.8686236739158630e-01" purity="5.0842338800430298e-01" nType="0">
            <Node pos="l" depth="3" NCoef="0" IVar="-1" Cut="0.0000000000000000e+00" cType="1" res="8.0256871879100800e-03" rms="3.9751982688903809e-01" purity="5.3364211320877075e-01" nType="-99"/>
            <Node pos="r" depth="3" NCoef="0" IVar="-1" Cut="0.0000000000000000e+00" cType="1" res="-3.1258065719157457e-03" rms="3.8173884153366089e-01" purity="4.9683082103729248e-01" nType="-99"/>
          </Node>
        </Node>
      </Node>
    </BinaryTree>
    <BinaryTree type="DecisionTree" boostWeight="1.0000000000000000e+00" itree="354">
      <Node pos="s" depth="0" NCoef="0" IVar="6" Cut="9.4163662195205688e-01" cType="1" res="3.6903336877003312e-04" rms="3.8907232880592346e-01" purity="4.9760121107101440e-01" nType="0">
        <Node pos="l" depth="1" NCoef="0" IVar="6" Cut="-4.7412332892417908e-01" cType="1" res="-1.8478394486010075e-03" rms="3.9239156246185303e-01" purity="5.3300136327743530e-01" nType="0">
          <Node pos="l" depth="2" NCoef="0" IVar="8" Cut="-1.4666591882705688e+00" cType="1" res="4.5285802334547043e-03" rms="3.8715124130249023e-01" purity="4.2902681231498718e-01" nType="0">
            <Node pos="l" depth="3" NCoef="0" IVar="-1" Cut="0.0000000000000000e+00" cType="1" res="2.1726377308368683e-02" rms="3.7115556001663208e-01" purity="2.8253483772277832e-01" nType="-99"/>
            <Node pos="r" depth="3" NCoef="0" IVar="-1" Cut="0.0000000000000000e+00" cType="1" res="7.1315764216706157e-04" rms="3.8937512040138245e-01" purity="4.5097526907920837e-01" nType="-99"/>
          </Node>
          <Node pos="r" depth="2" NCoef="0" IVar="4" Cut="9.5599784851074219e+01" cType="1" res="-5.6032962165772915e-03" rms="3.9539727568626404e-01" purity="5.9423822164535522e-01" nType="0">
            <Node pos="l" depth="3" NCoef="0" IVar="-1" Cut="0.0000000000000000e+00" cType="1" res="2.9876076150685549e-03" rms="4.1178154945373535e-01" purity="3.1292843818664551e-01" nType="-99"/>
            <Node pos="r" depth="3" NCoef="0" IVar="-1" Cut="0.0000000000000000e+00" cType="1" res="-6.0159377753734589e-03" rms="3.8968870043754578e-01" purity="6.8849319219589233e-01" nType="-99"/>
          </Node>
        </Node>
        <Node pos="r" depth="1" NCoef="0" IVar="6" Cut="1.3840656280517578e+00" cType="1" res="1.1753146536648273e-02" rms="3.7135213613510132e-01" purity="3.1581372022628784e-01" nType="0">
          <Node pos="l" depth="2" NCoef="0" IVar="8" Cut="-1.3387720286846161e-01" cType="1" res="1.9964141771197319e-02" rms="3.9783203601837158e-01" purity="4.0994459390640259e-01" nType="0">
            <Node pos="l" depth="3" NCoef="0" IVar="-1" Cut="0.0000000000000000e+00" cType="1" res="-4.0961150079965591e-03" rms="3.9290699362754822e-01" purity="3.6027130484580994e-01" nType="-99"/>
            <Node pos="r" depth="3" NCoef="0" IVar="-1" Cut="0.0000000000000000e+00" cType="1" res="2.2734902799129486e-02" rms="3.9977809786796570e-01" purity="4.3701636791229248e-01" nType="-99"/>
          </Node>
          <Node pos="r" depth="2" NCoef="0" IVar="7" Cut="1.3334694504737854e-01" cType="1" res="2.7768809814006090e-03" rms="3.3982634544372559e-01" purity="2.1290980279445648e-01" nType="0">
            <Node pos="l" depth="3" NCoef="0" IVar="-1" Cut="0.0000000000000000e+00" cType="1" res="1.6990095376968384e-02" rms="3.6682438850402832e-01" purity="2.4481301009654999e-01" nType="-99"/>
            <Node pos="r" depth="3" NCoef="0" IVar="-1" Cut="0.0000000000000000e+00" cType="1" res="-1.6210148110985756e-02" rms="3.0586415529251099e-01" purity="1.7750467360019684e-01" nType="-99"/>
          </Node>
        </Node>
      </Node>
    </BinaryTree>
    <BinaryTree type="DecisionTree" boostWeight="1.0000000000000000e+00" itree="355">
      <Node pos="s" depth="0" NCoef="0" IVar="7" Cut="9.3335562944412231e-01" cType="1" res="-9.5444894395768642e-04" rms="3.8679704070091248e-01" purity="4.9744114279747009e-01" nType="0">
        <Node pos="l" depth="1" NCoef="0" IVar="9" Cut="1.3351294398307800e-01" cType="1" res="-3.2377182506024837e-03" rms="3.9053583145141602e-01" purity="5.2822840213775635e-01" nType="0">
          <Node pos="l" depth="2" NCoef="0" IVar="8" Cut="1.1999329328536987e+00" cType="1" res="-8.7365256622433662e-03" rms="3.9122223854064941e-01" purity="5.2011579275131226e-01" nType="0">
            <Node pos="l" depth="3" NCoef="0" IVar="-1" Cut="0.0000000000000000e+00" cType="1" res="-7.7133532613515854e-03" rms="3.8862842321395874e-01" purity="5.3230267763137817e-01" nType="-99"/>
            <Node pos="r" depth="3" NCoef="0" IVar="-1" Cut="0.0000000000000000e+00" cType="1" res="7.9798195511102676e-03" rms="4.0856805443763733e-01" purity="4.3340879678726196e-01" nType="-99"/>
          </Node>
          <Node pos="r" depth="2" NCoef="0" IVar="7" Cut="4.4549793004989624e-02" cType="1" res="3.6172093823552132e-03" rms="3.8956975936889648e-01" purity="5.3834182024002075e-01" nType="0">
            <Node pos="l" depth="3" NCoef="0" IVar="-1" Cut="0.0000000000000000e+00" cType="1" res="6.7264819517731667e-03" rms="3.9130598306655884e-01" purity="5.2070826292037964e-01" nType="-99"/>
            <Node pos="r" depth="3" NCoef="0" IVar="-1" Cut="0.0000000000000000e+00" cType="1" res="-4.5714755542576313e-03" rms="3.8650482892990112e-01" purity="5.6689137220382690e-01" nType="-99"/>
          </Node>
        </Node>
        <Node pos="r" depth="1" NCoef="0" IVar="7" Cut="1.1111308336257935e+00" cType="1" res="8.5086235776543617e-03" rms="3.7075015902519226e-01" purity="3.6984235048294067e-01" nType="0">
          <Node pos="l" depth="2" NCoef="0" IVar="-1" Cut="0.0000000000000000e+00" cType="1" res="2.6648612692952156e-02" rms="4.0715819597244263e-01" purity="5.4729652404785156e-01" nType="-99"/>
          <Node pos="r" depth="2" NCoef="0" IVar="8" Cut="-9.3329137563705444e-01" cType="1" res="-1.5022732550278306e-03" rms="3.5889977216720581e-01" purity="3.1846296787261963e-01" nType="0">
            <Node pos="l" depth="3" NCoef="0" IVar="-1" Cut="0.0000000000000000e+00" cType="1" res="-2.5350103154778481e-02" rms="3.2911825180053711e-01" purity="1.9868595898151398e-01" nType="-99"/>
            <Node pos="r" depth="3" NCoef="0" IVar="-1" Cut="0.0000000000000000e+00" cType="1" res="3.5134849604219198e-03" rms="3.6487698554992676e-01" purity="3.4506550431251526e-01" nType="-99"/>
          </Node>
        </Node>
      </Node>
    </BinaryTree>
    <BinaryTree type="DecisionTree" boostWeight="1.0000000000000000e+00" itree="356">
      <Node pos="s" depth="0" NCoef="0" IVar="8" Cut="-1.3334080576896667e-01" cType="1" res="2.9799498151987791e-03" rms="3.8861477375030518e-01" purity="5.0109279155731201e-01" nType="0">
        <Node pos="l" depth="1" NCoef="0" IVar="7" Cut="3.9996317028999329e-01" cType="1" res="1.0257707908749580e-02" rms="3.9013031125068665e-01" purity="5.0263530015945435e-01" nType="0">
          <Node pos="l" depth="2" NCoef="0" IVar="6" Cut="4.0359213948249817e-01" cType="1" res="9.1962289297953248e-04" rms="3.8538852334022522e-01" purity="5.1231306791305542e-01" nType="0">
            <Node pos="l" depth="3" NCoef="0" IVar="-1" Cut="0.0000000000000000e+00" cType="1" res="-3.6582106258720160e-03" rms="3.8594591617584229e-01" purity="5.2627187967300415e-01" nType="-99"/>
            <Node pos="r" depth="3" NCoef="0" IVar="-1" Cut="0.0000000000000000e+00" cType="1" res="1.1124935001134872e-02" rms="3.8353201746940613e-01" purity="4.7770982980728149e-01" nType="-99"/>
          </Node>
          <Node pos="r" depth="2" NCoef="0" IVar="2" Cut="3.2308435058593750e+02" cType="1" res="3.0763654038310051e-02" rms="3.9958095550537109e-01" purity="4.8138353228569031e-01" nType="0">
            <Node pos="l" depth="3" NCoef="0" IVar="-1" Cut="0.0000000000000000e+00" cType="1" res="9.5866629853844643e-03" rms="3.9572846889495850e-01" purity="4.2888498306274414e-01" nType="-99"/>
            <Node pos="r" depth="3" NCoef="0" IVar="-1" Cut="0.0000000000000000e+00" cType="1" res="2.8493497520685196e-02" rms="4.0205508470535278e-01" purity="5.2113497257232666e-01" nType="-99"/>
          </Node>
        </Node>
        <Node pos="r" depth="1" NCoef="0" IVar="7" Cut="-1.7332375049591064e+00" cType="1" res="-3.2288588117808104e-03" rms="3.8720902800559998e-01" purity="4.9977684020996094e-01" nType="0">
          <Node pos="l" depth="2" NCoef="0" IVar="-1" Cut="0.0000000000000000e+00" cType="1" res="2.0040625706315041e-02" rms="3.6310312151908875e-01" purity="2.5433230400085449e-01" nType="-99"/>
          <Node pos="r" depth="2" NCoef="0" IVar="5" Cut="1.3116468811035156e+02" cType="1" res="-4.8081027343869209e-03" rms="3.8846302032470703e-01" purity="5.1361072063446045e-01" nType="0">
            <Node pos="l" depth="3" NCoef="0" IVar="-1" Cut="0.0000000000000000e+00" cType="1" res="-4.6892538666725159e-03" rms="4.0061536431312561e-01" purity="4.4481936097145081e-01" nType="-99"/>
            <Node pos="r" depth="3" NCoef="0" IVar="-1" Cut="0.0000000000000000e+00" cType="1" res="7.2308997623622417e-03" rms="3.2623332738876343e-01" purity="8.3125072717666626e-01" nType="-99"/>
          </Node>
        </Node>
      </Node>
    </BinaryTree>
    <BinaryTree type="DecisionTree" boostWeight="1.0000000000000000e+00" itree="357">
      <Node pos="s" depth="0" NCoef="0" IVar="8" Cut="1.9997264146804810e+00" cType="1" res="4.4424366205930710e-03" rms="3.8624000549316406e-01" purity="5.0505977869033813e-01" nType="0">
        <Node pos="l" depth="1" NCoef="0" IVar="7" Cut="-1.9999029636383057e+00" cType="1" res="2.8009128291159868e-03" rms="3.8666066527366638e-01" purity="5.1514917612075806e-01" nType="0">
          <Node pos="l" depth="2" NCoef="0" IVar="-1" Cut="0.0000000000000000e+00" cType="1" res="-2.4213124066591263e-02" rms="3.0279839038848877e-01" purity="1.7524349689483643e-01" nType="-99"/>
          <Node pos="r" depth="2" NCoef="0" IVar="7" Cut="-6.2850171327590942e-01" cType="1" res="3.8697626441717148e-03" rms="3.8920006155967712e-01" purity="5.2693200111389160e-01" nType="0">
            <Node pos="l" depth="3" NCoef="0" IVar="-1" Cut="0.0000000000000000e+00" cType="1" res="8.1317499279975891e-03" rms="3.9518839120864868e-01" purity="4.7350546717643738e-01" nType="-99"/>
            <Node pos="r" depth="3" NCoef="0" IVar="-1" Cut="0.0000000000000000e+00" cType="1" res="5.3223333088681102e-04" rms="3.8703832030296326e-01" purity="5.4560744762420654e-01" nType="-99"/>
          </Node>
        </Node>
        <Node pos="r" depth="1" NCoef="0" IVar="-1" Cut="0.0000000000000000e+00" cType="1" res="3.0478483065962791e-02" rms="3.7553381919860840e-01" purity="2.9128998517990112e-01" nType="-99"/>
      </Node>
    </BinaryTree>
    <BinaryTree type="DecisionTree" boostWeight="1.0000000000000000e+00" itree="358">
      <Node pos="s" depth="0" NCoef="0" IVar="0" Cut="6.0413568115234375e+02" cType="1" res="1.0168107692152262e-03" rms="3.8690447807312012e-01" purity="5.0217336416244507e-01" nType="0">
        <Node pos="l" depth="1" NCoef="0" IVar="6" Cut="-1.1919130086898804e+00" cType="1" res="3.1288941390812397e-03" rms="3.9303290843963623e-01" purity="4.5391261577606201e-01" nType="0">
          <Node pos="l" depth="2" NCoef="0" IVar="9" Cut="-6.6653990745544434e-01" cType="1" res="1.5901666134595871e-02" rms="3.6604860424995422e-01" purity="2.4200429022312164e-01" nType="0">
            <Node pos="l" depth="3" NCoef="0" IVar="-1" Cut="0.0000000000000000e+00" cType="1" res="-9.8551586270332336e-03" rms="3.2439237833023071e-01" purity="1.5964671969413757e-01" nType="-99"/>
            <Node pos="r" depth="3" NCoef="0" IVar="-1" Cut="0.0000000000000000e+00" cType="1" res="2.2567288950085640e-02" rms="3.8762423396110535e-01" purity="2.9045781493186951e-01" nType="-99"/>
          </Node>
          <Node pos="r" depth="2" NCoef="0" IVar="0" Cut="3.1448364257812500e+02" cType="1" res="1.4040954411029816e-03" rms="3.9650458097457886e-01" purity="4.8252809047698975e-01" nType="0">
            <Node pos="l" depth="3" NCoef="0" IVar="-1" Cut="0.0000000000000000e+00" cType="1" res="1.2526376172900200e-02" rms="3.9015620946884155e-01" purity="3.0339667201042175e-01" nType="-99"/>
            <Node pos="r" depth="3" NCoef="0" IVar="-1" Cut="0.0000000000000000e+00" cType="1" res="-2.7081009466201067e-04" rms="3.9712220430374146e-01" purity="5.0138121843338013e-01" nType="-99"/>
          </Node>
        </Node>
        <Node pos="r" depth="1" NCoef="0" IVar="7" Cut="-3.9980027079582214e-01" cType="1" res="-1.1867816559970379e-02" rms="3.4690487384796143e-01" purity="7.9658514261245728e-01" nType="0">
          <Node pos="l" depth="2" NCoef="0" IVar="-1" Cut="0.0000000000000000e+00" cType="1" res="-2.5411291047930717e-02" rms="3.5525617003440857e-01" purity="7.5799471139907837e-01" nType="-99"/>
          <Node pos="r" depth="2" NCoef="0" IVar="8" Cut="1.3332903385162354e-01" cType="1" res="-2.9023101087659597e-03" rms="3.4266677498817444e-01" purity="8.1412500143051147e-01" nType="0">
            <Node pos="l" depth="3" NCoef="0" IVar="-1" Cut="0.0000000000000000e+00" cType="1" res="7.8850826248526573e-03" rms="3.3592456579208374e-01" purity="8.3267796039581299e-01" nType="-99"/>
            <Node pos="r" depth="3" NCoef="0" IVar="-1" Cut="0.0000000000000000e+00" cType="1" res="-1.5773197636008263e-02" rms="3.5070019960403442e-01" purity="7.8982549905776978e-01" nType="-99"/>
          </Node>
        </Node>
      </Node>
    </BinaryTree>
    <BinaryTree type="DecisionTree" boostWeight="1.0000000000000000e+00" itree="359">
      <Node pos="s" depth="0" NCoef="0" IVar="8" Cut="-1.2000035047531128e+00" cType="1" res="-5.9570226585492492e-04" rms="3.8544741272926331e-01" purity="5.0185930728912354e-01" nType="0">
        <Node pos="l" depth="1" NCoef="0" IVar="6" Cut="-1.1659625768661499e+00" cType="1" res="-1.3159545138478279e-02" rms="3.6746194958686829e-01" purity="3.4527206420898438e-01" nType="0">
          <Node pos="l" depth="2" NCoef="0" IVar="-1" Cut="0.0000000000000000e+00" cType="1" res="-3.8062840700149536e-02" rms="2.8483867645263672e-01" purity="1.3255062699317932e-01" nType="-99"/>
          <Node pos="r" depth="2" NCoef="0" IVar="5" Cut="7.1862007141113281e+01" cType="1" res="-7.9734623432159424e-03" rms="3.8178786635398865e-01" purity="3.8826867938041687e-01" nType="0">
            <Node pos="l" depth="3" NCoef="0" IVar="-1" Cut="0.0000000000000000e+00" cType="1" res="-1.8424812704324722e-02" rms="3.4919613599777222e-01" purity="2.0547847449779510e-01" nType="-99"/>
            <Node pos="r" depth="3" NCoef="0" IVar="-1" Cut="0.0000000000000000e+00" cType="1" res="2.5294353254139423e-03" rms="4.0388810634613037e-01" purity="5.2414995431900024e-01" nType="-99"/>
          </Node>
        </Node>
        <Node pos="r" depth="1" NCoef="0" IVar="6" Cut="-6.5975737571716309e-01" cType="1" res="1.6011514235287905e-03" rms="3.8846501708030701e-01" purity="5.2923947572708130e-01" nType="0">
          <Node pos="l" depth="2" NCoef="0" IVar="7" Cut="3.9962211251258850e-01" cType="1" res="1.1075307615101337e-02" rms="3.9465534687042236e-01" purity="4.2835283279418945e-01" nType="0">
            <Node pos="l" depth="3" NCoef="0" IVar="-1" Cut="0.0000000000000000e+00" cType="1" res="1.2471158988773823e-02" rms="4.0237820148468018e-01" purity="4.6260589361190796e-01" nType="-99"/>
            <Node pos="r" depth="3" NCoef="0" IVar="-1" Cut="0.0000000000000000e+00" cType="1" res="-4.8818145878612995e-03" rms="3.7773561477661133e-01" purity="3.5836979746818542e-01" nType="-99"/>
          </Node>
          <Node pos="r" depth="2" NCoef="0" IVar="1" Cut="1.1200382080078125e+03" cType="1" res="-1.2111688265576959e-03" rms="3.8656371831893921e-01" purity="5.5918669700622559e-01" nType="0">
            <Node pos="l" depth="3" NCoef="0" IVar="-1" Cut="0.0000000000000000e+00" cType="1" res="-5.9458357281982899e-03" rms="3.9949265122413635e-01" purity="2.7161812782287598e-01" nType="-99"/>
            <Node pos="r" depth="3" NCoef="0" IVar="-1" Cut="0.0000000000000000e+00" cType="1" res="1.7086811130866408e-03" rms="3.8065209984779358e-01" purity="6.8623918294906616e-01" nType="-99"/>
          </Node>
        </Node>
      </Node>
    </BinaryTree>
    <BinaryTree type="DecisionTree" boostWeight="1.0000000000000000e+00" itree="360">
      <Node pos="s" depth="0" NCoef="0" IVar="9" Cut="-1.7333339452743530e+00" cType="1" res="1.3882784405723214e-03" rms="3.8691005110740662e-01" purity="5.0245440006256104e-01" nType="0">
        <Node pos="l" depth="1" NCoef="0" IVar="7" Cut="-3.9930835366249084e-01" cType="1" res="1.4983880333602428e-02" rms="3.7849074602127075e-01" purity="3.8906762003898621e-01" nType="0">
          <Node pos="l" depth="2" NCoef="0" IVar="-1" Cut="0.0000000000000000e+00" cType="1" res="2.6503641158342361e-02" rms="3.8328602910041809e-01" purity="3.4856027364730835e-01" nType="-99"/>
          <Node pos="r" depth="2" NCoef="0" IVar="8" Cut="-1.3348415493965149e-01" cType="1" res="-4.9139111069962382e-05" rms="3.7424728274345398e-01" purity="4.1853764653205872e-01" nType="0">
            <Node pos="l" depth="3" NCoef="0" IVar="-1" Cut="0.0000000000000000e+00" cType="1" res="5.8458764106035233e-03" rms="3.6662667989730835e-01" purity="4.1165038943290710e-01" nType="-99"/>
            <Node pos="r" depth="3" NCoef="0" IVar="-1" Cut="0.0000000000000000e+00" cType="1" res="-5.7364576496183872e-03" rms="3.8155177235603333e-01" purity="4.2545440793037415e-01" nType="-99"/>
          </Node>
        </Node>
        <Node pos="r" depth="1" NCoef="0" IVar="6" Cut="-1.7241708040237427e+00" cType="1" res="8.4615712694358081e-05" rms="3.8768270611763000e-01" purity="5.1332688331604004e-01" nType="0">
          <Node pos="l" depth="2" NCoef="0" IVar="-1" Cut="0.0000000000000000e+00" cType="1" res="-1.9460069015622139e-02" rms="3.2364895939826965e-01" purity="1.5398229658603668e-01" nType="-99"/>
          <Node pos="r" depth="2" NCoef="0" IVar="7" Cut="1.1999629735946655e+00" cType="1" res="8.6125708185136318e-04" rms="3.8980320096015930e-01" purity="5.2646821737289429e-01" nType="0">
            <Node pos="l" depth="3" NCoef="0" IVar="-1" Cut="0.0000000000000000e+00" cType="1" res="1.6225639265030622e-03" rms="3.9284834265708923e-01" purity="5.5883824825286865e-01" nType="-99"/>
            <Node pos="r" depth="3" NCoef="0" IVar="-1" Cut="0.0000000000000000e+00" cType="1" res="-7.7037396840751171e-03" rms="3.6809480190277100e-01" purity="3.0503216385841370e-01" nType="-99"/>
          </Node>
        </Node>
      </Node>
    </BinaryTree>
    <BinaryTree type="DecisionTree" boostWeight="1.0000000000000000e+00" itree="361">
      <Node pos="s" depth="0" NCoef="0" IVar="8" Cut="-1.1999957561492920e+00" cType="1" res="-1.3325396867003292e-04" rms="3.8788670301437378e-01" purity="4.9921303987503052e-01" nType="0">
        <Node pos="l" depth="1" NCoef="0" IVar="7" Cut="-1.3390292227268219e-01" cType="1" res="1.3937180861830711e-02" rms="3.7976896762847900e-01" purity="3.7626978754997253e-01" nType="0">
          <Node pos="l" depth="2" NCoef="0" IVar="7" Cut="-7.6861637830734253e-01" cType="1" res="2.7217052876949310e-02" rms="3.8139006495475769e-01" purity="3.7267512083053589e-01" nType="0">
            <Node pos="l" depth="3" NCoef="0" IVar="-1" Cut="0.0000000000000000e+00" cType="1" res="2.1558674052357674e-03" rms="3.4649112820625305e-01" purity="2.7004599571228027e-01" nType="-99"/>
            <Node pos="r" depth="3" NCoef="0" IVar="-1" Cut="0.0000000000000000e+00" cType="1" res="3.7141527980566025e-02" rms="4.2271718382835388e-01" purity="5.1497358083724976e-01" nType="-99"/>
          </Node>
          <Node pos="r" depth="2" NCoef="0" IVar="7" Cut="4.2473259568214417e-01" cType="1" res="-9.1678841272369027e-04" rms="3.7739419937133789e-01" purity="3.8029056787490845e-01" nType="0">
            <Node pos="l" depth="3" NCoef="0" IVar="-1" Cut="0.0000000000000000e+00" cType="1" res="-1.9084671512246132e-02" rms="3.8027703762054443e-01" purity="4.6200516819953918e-01" nType="-99"/>
            <Node pos="r" depth="3" NCoef="0" IVar="-1" Cut="0.0000000000000000e+00" cType="1" res="1.0877744294703007e-02" rms="3.7487006187438965e-01" purity="3.3564668893814087e-01" nType="-99"/>
          </Node>
        </Node>
        <Node pos="r" depth="1" NCoef="0" IVar="6" Cut="1.3840197026729584e-01" cType="1" res="-2.7063591405749321e-03" rms="3.8929790258407593e-01" purity="5.2169603109359741e-01" nType="0">
          <Node pos="l" depth="2" NCoef="0" IVar="6" Cut="-9.6272001974284649e-04" cType="1" res="-8.0100977793335915e-03" rms="3.8885548710823059e-01" purity="5.3401738405227661e-01" nType="0">
            <Node pos="l" depth="3" NCoef="0" IVar="-1" Cut="0.0000000000000000e+00" cType="1" res="-7.0143197663128376e-03" rms="3.8907131552696228e-01" purity="5.1863998174667358e-01" nType="-99"/>
            <Node pos="r" depth="3" NCoef="0" IVar="-1" Cut="0.0000000000000000e+00" cType="1" res="9.0783219784498215e-03" rms="3.8642293214797974e-01" purity="6.5461689233779907e-01" nType="-99"/>
          </Node>
          <Node pos="r" depth="2" NCoef="0" IVar="1" Cut="1.1148233642578125e+03" cType="1" res="3.6969108041375875e-03" rms="3.8973522186279297e-01" purity="5.0682032108306885e-01" nType="0">
            <Node pos="l" depth="3" NCoef="0" IVar="-1" Cut="0.0000000000000000e+00" cType="1" res="9.4026029109954834e-03" rms="3.9839768409729004e-01" purity="2.5553849339485168e-01" nType="-99"/>
            <Node pos="r" depth="3" NCoef="0" IVar="-1" Cut="0.0000000000000000e+00" cType="1" res="-8.7285664631053805e-04" rms="3.8528901338577271e-01" purity="6.3083356618881226e-01" nType="-99"/>
          </Node>
        </Node>
      </Node>
    </BinaryTree>
    <BinaryTree type="DecisionTree" boostWeight="1.0000000000000000e+00" itree="362">
      <Node pos="s" depth="0" NCoef="0" IVar="7" Cut="-1.4665726423263550e+00" cType="1" res="2.3455608170479536e-03" rms="3.8650986552238464e-01" purity="5.0189501047134399e-01" nType="0">
        <Node pos="l" depth="1" NCoef="0" IVar="6" Cut="1.6925291717052460e-01" cType="1" res="-1.8879761919379234e-02" rms="3.4760269522666931e-01" purity="2.3903845250606537e-01" nType="0">
          <Node pos="l" depth="2" NCoef="0" IVar="9" Cut="-3.9820930361747742e-01" cType="1" res="-9.3599911779165268e-03" rms="3.5602691769599915e-01" purity="2.7121824026107788e-01" nType="0">
            <Node pos="l" depth="3" NCoef="0" IVar="-1" Cut="0.0000000000000000e+00" cType="1" res="-5.8372030034661293e-03" rms="3.3233878016471863e-01" purity="2.3945169150829315e-01" nType="-99"/>
            <Node pos="r" depth="3" NCoef="0" IVar="-1" Cut="0.0000000000000000e+00" cType="1" res="-7.8964242711663246e-03" rms="3.7861916422843933e-01" purity="3.0357217788696289e-01" nType="-99"/>
          </Node>
          <Node pos="r" depth="2" NCoef="0" IVar="-1" Cut="0.0000000000000000e+00" cType="1" res="-2.7534442022442818e-02" rms="3.3442115783691406e-01" purity="1.9200265407562256e-01" nType="-99"/>
        </Node>
        <Node pos="r" depth="1" NCoef="0" IVar="9" Cut="-1.9999960660934448e+00" cType="1" res="4.3776649981737137e-03" rms="3.8997069001197815e-01" purity="5.2706080675125122e-01" nType="0">
          <Node pos="l" depth="2" NCoef="0" IVar="-1" Cut="0.0000000000000000e+00" cType="1" res="1.7203839495778084e-02" rms="3.9984792470932007e-01" purity="4.0955799818038940e-01" nType="-99"/>
          <Node pos="r" depth="2" NCoef="0" IVar="1" Cut="1.7600894775390625e+03" cType="1" res="3.1340664718300104e-03" rms="3.8937297463417053e-01" purity="5.3363800048828125e-01" nType="0">
            <Node pos="l" depth="3" NCoef="0" IVar="-1" Cut="0.0000000000000000e+00" cType="1" res="6.4629828557372093e-04" rms="3.9802443981170654e-01" purity="4.8546245694160461e-01" nType="-99"/>
            <Node pos="r" depth="3" NCoef="0" IVar="-1" Cut="0.0000000000000000e+00" cType="1" res="1.3359677977859974e-02" rms="3.3266353607177734e-01" purity="8.2190132141113281e-01" nType="-99"/>
          </Node>
        </Node>
      </Node>
    </BinaryTree>
    <BinaryTree type="DecisionTree" boostWeight="1.0000000000000000e+00" itree="363">
      <Node pos="s" depth="0" NCoef="0" IVar="9" Cut="-6.6667497158050537e-01" cType="1" res="-1.0577270295470953e-03" rms="3.8834828138351440e-01" purity="4.9974101781845093e-01" nType="0">
        <Node pos="l" depth="1" NCoef="0" IVar="9" Cut="-8.6984950304031372e-01" cType="1" res="-1.6454728320240974e-02" rms="3.8547208905220032e-01" purity="4.4225832819938660e-01" nType="0">
          <Node pos="l" depth="2" NCoef="0" IVar="5" Cut="7.1875167846679688e+01" cType="1" res="-2.0569901913404465e-02" rms="3.8238355517387390e-01" purity="4.2245686054229736e-01" nType="0">
            <Node pos="l" depth="3" NCoef="0" IVar="-1" Cut="0.0000000000000000e+00" cType="1" res="-7.2747645899653435e-03" rms="3.6838349699974060e-01" purity="2.6039534807205200e-01" nType="-99"/>
            <Node pos="r" depth="3" NCoef="0" IVar="-1" Cut="0.0000000000000000e+00" cType="1" res="-1.8185855820775032e-02" rms="3.9247289299964905e-01" purity="5.4524987936019897e-01" nType="-99"/>
          </Node>
          <Node pos="r" depth="2" NCoef="0" IVar="-1" Cut="0.0000000000000000e+00" cType="1" res="1.7911656759679317e-03" rms="3.9897486567497253e-01" purity="5.3442001342773438e-01" nType="-99"/>
        </Node>
        <Node pos="r" depth="1" NCoef="0" IVar="7" Cut="-1.2001031637191772e+00" cType="1" res="5.2713281475007534e-03" rms="3.8934785127639771e-01" purity="5.2336972951889038e-01" nType="0">
          <Node pos="l" depth="2" NCoef="0" IVar="7" Cut="-1.4286695718765259e+00" cType="1" res="2.4095674976706505e-02" rms="3.8789391517639160e-01" purity="3.6897215247154236e-01" nType="0">
            <Node pos="l" depth="3" NCoef="0" IVar="-1" Cut="0.0000000000000000e+00" cType="1" res="2.2996556013822556e-02" rms="3.8426470756530762e-01" purity="3.2637095451354980e-01" nType="-99"/>
            <Node pos="r" depth="3" NCoef="0" IVar="-1" Cut="0.0000000000000000e+00" cType="1" res="1.8299520015716553e-03" rms="3.9565962553024292e-01" purity="4.7114261984825134e-01" nType="-99"/>
          </Node>
          <Node pos="r" depth="2" NCoef="0" IVar="7" Cut="1.0854712724685669e+00" cType="1" res="2.6254244148731232e-03" rms="3.8947886228561401e-01" purity="5.4507148265838623e-01" nType="0">
            <Node pos="l" depth="3" NCoef="0" IVar="-1" Cut="0.0000000000000000e+00" cType="1" res="3.4842989407479763e-05" rms="3.9270505309104919e-01" purity="5.9208601713180542e-01" nType="-99"/>
            <Node pos="r" depth="3" NCoef="0" IVar="-1" Cut="0.0000000000000000e+00" cType="1" res="9.7006093710660934e-03" rms="3.7545064091682434e-01" purity="3.4783506393432617e-01" nType="-99"/>
          </Node>
        </Node>
      </Node>
    </BinaryTree>
    <BinaryTree type="DecisionTree" boostWeight="1.0000000000000000e+00" itree="364">
      <Node pos="s" depth="0" NCoef="0" IVar="8" Cut="3.9998826384544373e-01" cType="1" res="-4.4351140968501568e-04" rms="3.8540691137313843e-01" purity="5.0232267379760742e-01" nType="0">
        <Node pos="l" depth="1" NCoef="0" IVar="9" Cut="1.2000647783279419e+00" cType="1" res="3.9203166961669922e-03" rms="3.8730341196060181e-01" purity="5.2836275100708008e-01" nType="0">
          <Node pos="l" depth="2" NCoef="0" IVar="9" Cut="-1.0855656862258911e+00" cType="1" res="1.3182437978684902e-03" rms="3.8634359836578369e-01" purity="5.3649353981018066e-01" nType="0">
            <Node pos="l" depth="3" NCoef="0" IVar="-1" Cut="0.0000000000000000e+00" cType="1" res="8.9990049600601196e-03" rms="3.8332042098045349e-01" purity="4.4966083765029907e-01" nType="-99"/>
            <Node pos="r" depth="3" NCoef="0" IVar="-1" Cut="0.0000000000000000e+00" cType="1" res="-1.7746466910466552e-03" rms="3.8725903630256653e-01" purity="5.6534457206726074e-01" nType="-99"/>
          </Node>
          <Node pos="r" depth="2" NCoef="0" IVar="5" Cut="7.0356986999511719e+01" cType="1" res="1.7711685970425606e-02" rms="3.9206314086914062e-01" purity="4.8526814579963684e-01" nType="0">
            <Node pos="l" depth="3" NCoef="0" IVar="-1" Cut="0.0000000000000000e+00" cType="1" res="2.7157874777913094e-02" rms="3.8811907172203064e-01" purity="3.3286449313163757e-01" nType="-99"/>
            <Node pos="r" depth="3" NCoef="0" IVar="-1" Cut="0.0000000000000000e+00" cType="1" res="1.5142263146117330e-03" rms="3.9419949054718018e-01" purity="5.9606093168258667e-01" nType="-99"/>
          </Node>
        </Node>
        <Node pos="r" depth="1" NCoef="0" IVar="7" Cut="1.4666181802749634e+00" cType="1" res="-8.1986477598547935e-03" rms="3.8189029693603516e-01" purity="4.5604574680328369e-01" nType="0">
          <Node pos="l" depth="2" NCoef="0" IVar="6" Cut="6.7066037654876709e-01" cType="1" res="-1.2380339205265045e-02" rms="3.8627776503562927e-01" purity="4.8450717329978943e-01" nType="0">
            <Node pos="l" depth="3" NCoef="0" IVar="-1" Cut="0.0000000000000000e+00" cType="1" res="-4.4043227098882198e-03" rms="3.9319628477096558e-01" purity="5.4241394996643066e-01" nType="-99"/>
            <Node pos="r" depth="3" NCoef="0" IVar="-1" Cut="0.0000000000000000e+00" cType="1" res="-1.9679605960845947e-02" rms="3.6615118384361267e-01" purity="3.2518205046653748e-01" nType="-99"/>
          </Node>
          <Node pos="r" depth="2" NCoef="0" IVar="-1" Cut="0.0000000000000000e+00" cType="1" res="2.1543806418776512e-02" rms="3.4436282515525818e-01" purity="2.3586818575859070e-01" nType="-99"/>
        </Node>
      </Node>
    </BinaryTree>
    <BinaryTree type="DecisionTree" boostWeight="1.0000000000000000e+00" itree="365">
      <Node pos="s" depth="0" NCoef="0" IVar="6" Cut="-1.1916617155075073e+00" cType="1" res="-1.0265394812449813e-03" rms="3.8680511713027954e-01" purity="5.0128978490829468e-01" nType="0">
        <Node pos="l" depth="1" NCoef="0" IVar="6" Cut="-1.5717946290969849e+00" cType="1" res="2.3159451782703400e-02" rms="3.7054875493049622e-01" purity="2.9030042886734009e-01" nType="0">
          <Node pos="l" depth="2" NCoef="0" IVar="4" Cut="1.0547933197021484e+02" cType="1" res="-3.4963237121701241e-03" rms="3.3274856209754944e-01" purity="1.8766322731971741e-01" nType="0">
            <Node pos="l" depth="3" NCoef="0" IVar="-1" Cut="0.0000000000000000e+00" cType="1" res="3.3186908811330795e-02" rms="2.9834571480751038e-01" purity="1.1347045749425888e-01" nType="-99"/>
            <Node pos="r" depth="3" NCoef="0" IVar="-1" Cut="0.0000000000000000e+00" cType="1" res="-2.0488554611802101e-02" rms="3.6107218265533447e-01" purity="2.5969713926315308e-01" nType="-99"/>
          </Node>
          <Node pos="r" depth="2" NCoef="0" IVar="7" Cut="-1.3384467363357544e-01" cType="1" res="4.6618320047855377e-02" rms="3.9940845966339111e-01" purity="3.8062801957130432e-01" nType="0">
            <Node pos="l" depth="3" NCoef="0" IVar="-1" Cut="0.0000000000000000e+00" cType="1" res="4.1566222906112671e-02" rms="4.0708443522453308e-01" purity="3.9747545123100281e-01" nType="-99"/>
            <Node pos="r" depth="3" NCoef="0" IVar="-1" Cut="0.0000000000000000e+00" cType="1" res="1.9887590780854225e-02" rms="3.8991871476173401e-01" purity="3.6177372932434082e-01" nType="-99"/>
          </Node>
        </Node>
        <Node pos="r" depth="1" NCoef="0" IVar="6" Cut="1.8493641614913940e+00" cType="1" res="-4.1185179725289345e-03" rms="3.8872590661048889e-01" purity="5.2826309204101562e-01" nType="0">
          <Node pos="l" depth="2" NCoef="0" IVar="7" Cut="-1.7332695722579956e+00" cType="1" res="-3.2380253542214632e-03" rms="3.9238703250885010e-01" purity="5.4256957769393921e-01" nType="0">
            <Node pos="l" depth="3" NCoef="0" IVar="-1" Cut="0.0000000000000000e+00" cType="1" res="-1.5561961568892002e-02" rms="3.4179827570915222e-01" purity="2.3335117101669312e-01" nType="-99"/>
            <Node pos="r" depth="3" NCoef="0" IVar="-1" Cut="0.0000000000000000e+00" cType="1" res="-1.4568391488865018e-03" rms="3.9497506618499756e-01" purity="5.5967819690704346e-01" nType="-99"/>
          </Node>
          <Node pos="r" depth="2" NCoef="0" IVar="-1" Cut="0.0000000000000000e+00" cType="1" res="-2.8499642387032509e-02" rms="2.6768919825553894e-01" purity="1.3385215401649475e-01" nType="-99"/>
        </Node>
      </Node>
    </BinaryTree>
    <BinaryTree type="DecisionTree" boostWeight="1.0000000000000000e+00" itree="366">
      <Node pos="s" depth="0" NCoef="0" IVar="8" Cut="-1.9999918937683105e+00" cType="1" res="-8.0445862840861082e-04" rms="3.8565248250961304e-01" purity="4.9989205598831177e-01" nType="0">
        <Node pos="l" depth="1" NCoef="0" IVar="-1" Cut="0.0000000000000000e+00" cType="1" res="2.3512955754995346e-02" rms="3.6517131328582764e-01" purity="2.7205291390419006e-01" nType="-99"/>
        <Node pos="r" depth="1" NCoef="0" IVar="9" Cut="1.7333254814147949e+00" cType="1" res="-2.2272183559834957e-03" rms="3.8651582598686218e-01" purity="5.1044672727584839e-01" nType="0">
          <Node pos="l" depth="2" NCoef="0" IVar="8" Cut="-1.3142392635345459e+00" cType="1" res="-7.8634177043568343e-05" rms="3.8760960102081299e-01" purity="5.2393531799316406e-01" nType="0">
            <Node pos="l" depth="3" NCoef="0" IVar="-1" Cut="0.0000000000000000e+00" cType="1" res="-1.2697636149823666e-02" rms="3.8350024819374084e-01" purity="3.7736007571220398e-01" nType="-99"/>
            <Node pos="r" depth="3" NCoef="0" IVar="-1" Cut="0.0000000000000000e+00" cType="1" res="1.1959375115111470e-03" rms="3.8796421885490417e-01" purity="5.3851282596588135e-01" nType="-99"/>
          </Node>
          <Node pos="r" depth="2" NCoef="0" IVar="5" Cut="6.8545715332031250e+01" cType="1" res="-2.5872837752103806e-02" rms="3.7345191836357117e-01" purity="3.6200246214866638e-01" nType="0">
            <Node pos="l" depth="3" NCoef="0" IVar="-1" Cut="0.0000000000000000e+00" cType="1" res="-1.4072529738768935e-03" rms="3.5537686944007874e-01" purity="2.2852005064487457e-01" nType="-99"/>
            <Node pos="r" depth="3" NCoef="0" IVar="-1" Cut="0.0000000000000000e+00" cType="1" res="-2.8543340042233467e-02" rms="3.8577666878700256e-01" purity="4.6482989192008972e-01" nType="-99"/>
          </Node>
        </Node>
      </Node>
    </BinaryTree>
    <BinaryTree type="DecisionTree" boostWeight="1.0000000000000000e+00" itree="367">
      <Node pos="s" depth="0" NCoef="0" IVar="7" Cut="-1.3338731229305267e-01" cType="1" res="-3.5843364894390106e-03" rms="3.8453722000122070e-01" purity="4.9611246585845947e-01" nType="0">
        <Node pos="l" depth="1" NCoef="0" IVar="4" Cut="1.4369802856445312e+02" cType="1" res="-1.2742307968437672e-02" rms="3.8181903958320618e-01" purity="4.7684273123741150e-01" nType="0">
          <Node pos="l" depth="2" NCoef="0" IVar="1" Cut="1.0691832275390625e+03" cType="1" res="-1.8370307981967926e-02" rms="3.8585531711578369e-01" purity="3.4070816636085510e-01" nType="0">
            <Node pos="l" depth="3" NCoef="0" IVar="-1" Cut="0.0000000000000000e+00" cType="1" res="-5.1074856892228127e-03" rms="3.5838720202445984e-01" purity="1.9835099577903748e-01" nType="-99"/>
            <Node pos="r" depth="3" NCoef="0" IVar="-1" Cut="0.0000000000000000e+00" cType="1" res="-1.5564711764454842e-02" rms="4.0536561608314514e-01" purity="4.4943222403526306e-01" nType="-99"/>
          </Node>
          <Node pos="r" depth="2" NCoef="0" IVar="8" Cut="-9.3292808532714844e-01" cType="1" res="-3.6588255316019058e-03" rms="3.7503486871719360e-01" purity="6.9656139612197876e-01" nType="0">
            <Node pos="l" depth="3" NCoef="0" IVar="-1" Cut="0.0000000000000000e+00" cType="1" res="1.0562655515968800e-02" rms="3.8214650750160217e-01" purity="6.3519048690795898e-01" nType="-99"/>
            <Node pos="r" depth="3" NCoef="0" IVar="-1" Cut="0.0000000000000000e+00" cType="1" res="-6.7798388190567493e-03" rms="3.7283381819725037e-01" purity="7.1360152959823608e-01" nType="-99"/>
          </Node>
        </Node>
        <Node pos="r" depth="1" NCoef="0" IVar="7" Cut="9.8404824733734131e-01" cType="1" res="3.7774208467453718e-03" rms="3.8655111193656921e-01" purity="5.1160264015197754e-01" nType="0">
          <Node pos="l" depth="2" NCoef="0" IVar="8" Cut="1.1997338533401489e+00" cType="1" res="1.0038793087005615e-02" rms="3.9569181203842163e-01" purity="5.9553015232086182e-01" nType="0">
            <Node pos="l" depth="3" NCoef="0" IVar="-1" Cut="0.0000000000000000e+00" cType="1" res="3.7109197583049536e-03" rms="3.9165943861007690e-01" purity="6.1610096693038940e-01" nType="-99"/>
            <Node pos="r" depth="3" NCoef="0" IVar="-1" Cut="0.0000000000000000e+00" cType="1" res="2.0537775009870529e-02" rms="4.1720917820930481e-01" purity="4.7761720418930054e-01" nType="-99"/>
          </Node>
          <Node pos="r" depth="2" NCoef="0" IVar="6" Cut="-5.7441167533397675e-02" cType="1" res="-9.4432178884744644e-03" rms="3.6615124344825745e-01" purity="3.3439293503761292e-01" nType="0">
            <Node pos="l" depth="3" NCoef="0" IVar="-1" Cut="0.0000000000000000e+00" cType="1" res="2.9333415441215038e-03" rms="3.6914435029029846e-01" purity="3.4394598007202148e-01" nType="-99"/>
            <Node pos="r" depth="3" NCoef="0" IVar="-1" Cut="0.0000000000000000e+00" cType="1" res="-1.5212421305477619e-02" rms="3.6325135827064514e-01" purity="3.2643294334411621e-01" nType="-99"/>
          </Node>
        </Node>
      </Node>
    </BinaryTree>
    <BinaryTree type="DecisionTree" boostWeight="1.0000000000000000e+00" itree="368">
      <Node pos="s" depth="0" NCoef="0" IVar="7" Cut="-1.9998363256454468e+00" cType="1" res="3.4686776343733072e-03" rms="3.8592994213104248e-01" purity="5.0575983524322510e-01" nType="0">
        <Node pos="l" depth="1" NCoef="0" IVar="-1" Cut="0.0000000000000000e+00" cType="1" res="2.8066968545317650e-02" rms="3.4850686788558960e-01" purity="2.2425861656665802e-01" nType="-99"/>
        <Node pos="r" depth="1" NCoef="0" IVar="8" Cut="1.1999825239181519e+00" cType="1" res="2.4126658681780100e-03" rms="3.8723674416542053e-01" purity="5.1642113924026489e-01" nType="0">
          <Node pos="l" depth="2" NCoef="0" IVar="9" Cut="-1.1999943256378174e+00" cType="1" res="4.6408548951148987e-03" rms="3.8962957262992859e-01" purity="5.4308438301086426e-01" nType="0">
            <Node pos="l" depth="3" NCoef="0" IVar="-1" Cut="0.0000000000000000e+00" cType="1" res="-4.3077669106423855e-03" rms="3.8428273797035217e-01" purity="4.4622480869293213e-01" nType="-99"/>
            <Node pos="r" depth="3" NCoef="0" IVar="-1" Cut="0.0000000000000000e+00" cType="1" res="4.5359567739069462e-03" rms="3.9065283536911011e-01" purity="5.6249958276748657e-01" nType="-99"/>
          </Node>
          <Node pos="r" depth="2" NCoef="0" IVar="8" Cut="1.3523672819137573e+00" cType="1" res="-1.0284320451319218e-02" rms="3.7305501103401184e-01" purity="3.6448472738265991e-01" nType="0">
            <Node pos="l" depth="3" NCoef="0" IVar="-1" Cut="0.0000000000000000e+00" cType="1" res="-2.0658325403928757e-02" rms="3.8128346204757690e-01" purity="4.1237559914588928e-01" nType="-99"/>
            <Node pos="r" depth="3" NCoef="0" IVar="-1" Cut="0.0000000000000000e+00" cType="1" res="-3.9000187534838915e-03" rms="3.7111625075340271e-01" purity="3.5428363084793091e-01" nType="-99"/>
          </Node>
        </Node>
      </Node>
    </BinaryTree>
    <BinaryTree type="DecisionTree" boostWeight="1.0000000000000000e+00" itree="369">
      <Node pos="s" depth="0" NCoef="0" IVar="2" Cut="3.3999197387695312e+02" cType="1" res="-4.9355305964127183e-04" rms="3.8888666033744812e-01" purity="4.9775162339210510e-01" nType="0">
        <Node pos="l" depth="1" NCoef="0" IVar="7" Cut="-4.0012162923812866e-01" cType="1" res="5.7942611165344715e-03" rms="3.9895910024642944e-01" purity="4.6629431843757629e-01" nType="0">
          <Node pos="l" depth="2" NCoef="0" IVar="2" Cut="2.7333297729492188e+02" cType="1" res="1.6075881198048592e-02" rms="3.9691159129142761e-01" purity="4.3436273932456970e-01" nType="0">
            <Node pos="l" depth="3" NCoef="0" IVar="-1" Cut="0.0000000000000000e+00" cType="1" res="2.0474391058087349e-03" rms="3.9866712689399719e-01" purity="3.8879346847534180e-01" nType="-99"/>
            <Node pos="r" depth="3" NCoef="0" IVar="-1" Cut="0.0000000000000000e+00" cType="1" res="1.9170466810464859e-02" rms="3.9465487003326416e-01" purity="4.8144805431365967e-01" nType="-99"/>
          </Node>
          <Node pos="r" depth="2" NCoef="0" IVar="8" Cut="-4.0001517534255981e-01" cType="1" res="-1.9904309010598809e-04" rms="4.0002590417861938e-01" purity="4.8490765690803528e-01" nType="0">
            <Node pos="l" depth="3" NCoef="0" IVar="-1" Cut="0.0000000000000000e+00" cType="1" res="8.7066311389207840e-03" rms="4.0063390135765076e-01" purity="4.7567865252494812e-01" nType="-99"/>
            <Node pos="r" depth="3" NCoef="0" IVar="-1" Cut="0.0000000000000000e+00" cType="1" res="-4.7288131900131702e-03" rms="3.9951813220977783e-01" purity="4.8966932296752930e-01" nType="-99"/>
          </Node>
        </Node>
        <Node pos="r" depth="1" NCoef="0" IVar="6" Cut="-6.2163293361663818e-01" cType="1" res="-6.6833402961492538e-03" rms="3.7860766053199768e-01" purity="5.2871853113174438e-01" nType="0">
          <Node pos="l" depth="2" NCoef="0" IVar="8" Cut="-9.3306666612625122e-01" cType="1" res="-1.9726615399122238e-02" rms="3.7208768725395203e-01" purity="4.0115571022033691e-01" nType="0">
            <Node pos="l" depth="3" NCoef="0" IVar="-1" Cut="0.0000000000000000e+00" cType="1" res="2.2657467052340508e-03" rms="3.7389165163040161e-01" purity="3.2954797148704529e-01" nType="-99"/>
            <Node pos="r" depth="3" NCoef="0" IVar="-1" Cut="0.0000000000000000e+00" cType="1" res="-1.8861357122659683e-02" rms="3.7111181020736694e-01" purity="4.2647948861122131e-01" nType="-99"/>
          </Node>
          <Node pos="r" depth="2" NCoef="0" IVar="0" Cut="7.0920245361328125e+02" cType="1" res="-2.7030026540160179e-03" rms="3.8048604130744934e-01" purity="5.6764608621597290e-01" nType="0">
            <Node pos="l" depth="3" NCoef="0" IVar="-1" Cut="0.0000000000000000e+00" cType="1" res="-1.8284568795934319e-04" rms="3.8358607888221741e-01" purity="5.3947615623474121e-01" nType="-99"/>
            <Node pos="r" depth="3" NCoef="0" IVar="-1" Cut="0.0000000000000000e+00" cType="1" res="-1.8603799864649773e-02" rms="3.5436102747917175e-01" purity="7.9099160432815552e-01" nType="-99"/>
          </Node>
        </Node>
      </Node>
    </BinaryTree>
    <BinaryTree type="DecisionTree" boostWeight="1.0000000000000000e+00" itree="370">
      <Node pos="s" depth="0" NCoef="0" IVar="7" Cut="1.4665821790695190e+00" cType="1" res="-4.7182692214846611e-03" rms="3.8602149486541748e-01" purity="4.9765211343765259e-01" nType="0">
        <Node pos="l" depth="1" NCoef="0" IVar="9" Cut="-1.1999716758728027e+00" cType="1" res="-6.7541971802711487e-03" rms="3.8900011777877808e-01" purity="5.2065151929855347e-01" nType="0">
          <Node pos="l" depth="2" NCoef="0" IVar="5" Cut="9.3011833190917969e+01" cType="1" res="5.6105689145624638e-03" rms="3.9403674006462097e-01" purity="4.3476185202598572e-01" nType="0">
            <Node pos="l" depth="3" NCoef="0" IVar="-1" Cut="0.0000000000000000e+00" cType="1" res="9.8477881401777267e-03" rms="3.9029777050018311e-01" purity="3.4439486265182495e-01" nType="-99"/>
            <Node pos="r" depth="3" NCoef="0" IVar="-1" Cut="0.0000000000000000e+00" cType="1" res="-9.3276780098676682e-03" rms="4.0117233991622925e-01" purity="6.2818348407745361e-01" nType="-99"/>
          </Node>
          <Node pos="r" depth="2" NCoef="0" IVar="4" Cut="2.3259602355957031e+02" cType="1" res="-9.3995817005634308e-03" rms="3.8786289095878601e-01" purity="5.3902721405029297e-01" nType="0">
            <Node pos="l" depth="3" NCoef="0" IVar="-1" Cut="0.0000000000000000e+00" cType="1" res="-7.1130217984318733e-03" rms="3.9227977395057678e-01" purity="5.1182371377944946e-01" nType="-99"/>
            <Node pos="r" depth="3" NCoef="0" IVar="-1" Cut="0.0000000000000000e+00" cType="1" res="7.0536290295422077e-03" rms="3.3930945396423340e-01" purity="8.1506133079528809e-01" nType="-99"/>
          </Node>
        </Node>
        <Node pos="r" depth="1" NCoef="0" IVar="4" Cut="1.1566223144531250e+02" cType="1" res="1.5713017433881760e-02" rms="3.5409998893737793e-01" purity="2.6684480905532837e-01" nType="0">
          <Node pos="l" depth="2" NCoef="0" IVar="9" Cut="3.9937910437583923e-01" cType="1" res="3.0483668670058250e-02" rms="3.3625000715255737e-01" purity="1.7111191153526306e-01" nType="0">
            <Node pos="l" depth="3" NCoef="0" IVar="-1" Cut="0.0000000000000000e+00" cType="1" res="6.7413239739835262e-03" rms="3.3399409055709839e-01" purity="1.6292338073253632e-01" nType="-99"/>
            <Node pos="r" depth="3" NCoef="0" IVar="-1" Cut="0.0000000000000000e+00" cType="1" res="6.2565654516220093e-02" rms="3.3687925338745117e-01" purity="1.7941562831401825e-01" nType="-99"/>
          </Node>
          <Node pos="r" depth="2" NCoef="0" IVar="-1" Cut="0.0000000000000000e+00" cType="1" res="-2.1658665500581264e-03" rms="3.7496635317802429e-01" purity="3.9001807570457458e-01" nType="-99"/>
        </Node>
      </Node>
    </BinaryTree>
    <BinaryTree type="DecisionTree" boostWeight="1.0000000000000000e+00" itree="371">
      <Node pos="s" depth="0" NCoef="0" IVar="8" Cut="-4.0003916621208191e-01" cType="1" res="5.0411382690072060e-03" rms="3.8851553201675415e-01" purity="5.0343012809753418e-01" nType="0">
        <Node pos="l" depth="1" NCoef="0" IVar="8" Cut="-5.1433169841766357e-01" cType="1" res="-2.9100996907800436e-03" rms="3.8992336392402649e-01" purity="4.6322122216224670e-01" nType="0">
          <Node pos="l" depth="2" NCoef="0" IVar="4" Cut="1.9064941406250000e+02" cType="1" res="3.5482921521179378e-04" rms="3.8968303799629211e-01" purity="4.5624268054962158e-01" nType="0">
            <Node pos="l" depth="3" NCoef="0" IVar="-1" Cut="0.0000000000000000e+00" cType="1" res="2.8005531057715416e-03" rms="3.9281547069549561e-01" purity="4.0945109724998474e-01" nType="-99"/>
            <Node pos="r" depth="3" NCoef="0" IVar="-1" Cut="0.0000000000000000e+00" cType="1" res="-1.5449584461748600e-02" rms="3.7152087688446045e-01" purity="7.0966988801956177e-01" nType="-99"/>
          </Node>
          <Node pos="r" depth="2" NCoef="0" IVar="-1" Cut="0.0000000000000000e+00" cType="1" res="-2.2619210183620453e-02" rms="3.9082142710685730e-01" purity="5.3298836946487427e-01" nType="-99"/>
        </Node>
        <Node pos="r" depth="1" NCoef="0" IVar="3" Cut="3.6853784179687500e+02" cType="1" res="9.5429318025708199e-03" rms="3.8764387369155884e-01" purity="5.2619534730911255e-01" nType="0">
          <Node pos="l" depth="2" NCoef="0" IVar="8" Cut="5.1423788070678711e-01" cType="1" res="1.1312833987176418e-02" rms="3.8847920298576355e-01" purity="5.1649802923202515e-01" nType="0">
            <Node pos="l" depth="3" NCoef="0" IVar="-1" Cut="0.0000000000000000e+00" cType="1" res="1.1504618450999260e-02" rms="3.9289572834968567e-01" purity="5.8867794275283813e-01" nType="-99"/>
            <Node pos="r" depth="3" NCoef="0" IVar="-1" Cut="0.0000000000000000e+00" cType="1" res="3.3193735871464014e-03" rms="3.8416722416877747e-01" purity="4.4856837391853333e-01" nType="-99"/>
          </Node>
          <Node pos="r" depth="2" NCoef="0" IVar="-1" Cut="0.0000000000000000e+00" cType="1" res="-1.0955947451293468e-02" rms="3.7444689869880676e-01" purity="6.6618639230728149e-01" nType="-99"/>
        </Node>
      </Node>
    </BinaryTree>
    <BinaryTree type="DecisionTree" boostWeight="1.0000000000000000e+00" itree="372">
      <Node pos="s" depth="0" NCoef="0" IVar="9" Cut="9.3341130018234253e-01" cType="1" res="-9.8745920695364475e-04" rms="3.8618072867393494e-01" purity="4.9894356727600098e-01" nType="0">
        <Node pos="l" depth="1" NCoef="0" IVar="7" Cut="1.3331982493400574e-01" cType="1" res="-4.9009094946086407e-03" rms="3.8722923398017883e-01" purity="5.1226752996444702e-01" nType="0">
          <Node pos="l" depth="2" NCoef="0" IVar="8" Cut="-1.4666872024536133e+00" cType="1" res="-1.0087571106851101e-02" rms="3.8694846630096436e-01" purity="5.1192510128021240e-01" nType="0">
            <Node pos="l" depth="3" NCoef="0" IVar="-1" Cut="0.0000000000000000e+00" cType="1" res="-2.0245699211955070e-02" rms="3.5610261559486389e-01" purity="2.9098027944564819e-01" nType="-99"/>
            <Node pos="r" depth="3" NCoef="0" IVar="-1" Cut="0.0000000000000000e+00" cType="1" res="-5.0234482623636723e-03" rms="3.9063954353332520e-01" purity="5.4003942012786865e-01" nType="-99"/>
          </Node>
          <Node pos="r" depth="2" NCoef="0" IVar="0" Cut="4.3904470825195312e+02" cType="1" res="1.8963213078677654e-03" rms="3.8749179244041443e-01" purity="5.1271629333496094e-01" nType="0">
            <Node pos="l" depth="3" NCoef="0" IVar="-1" Cut="0.0000000000000000e+00" cType="1" res="-2.8074551373720169e-03" rms="3.9224210381507874e-01" purity="3.5748562216758728e-01" nType="-99"/>
            <Node pos="r" depth="3" NCoef="0" IVar="-1" Cut="0.0000000000000000e+00" cType="1" res="6.9688800722360611e-03" rms="3.8115429878234863e-01" purity="7.1191543340682983e-01" nType="-99"/>
          </Node>
        </Node>
        <Node pos="r" depth="1" NCoef="0" IVar="4" Cut="1.6729231262207031e+02" cType="1" res="1.1242563836276531e-02" rms="3.8262754678726196e-01" purity="4.5730453729629517e-01" nType="0">
          <Node pos="l" depth="2" NCoef="0" IVar="7" Cut="-1.3304726779460907e-01" cType="1" res="4.5370212756097317e-03" rms="3.8234412670135498e-01" purity="3.7461006641387939e-01" nType="0">
            <Node pos="l" depth="3" NCoef="0" IVar="-1" Cut="0.0000000000000000e+00" cType="1" res="1.3200844638049603e-02" rms="3.8725543022155762e-01" purity="3.9503219723701477e-01" nType="-99"/>
            <Node pos="r" depth="3" NCoef="0" IVar="-1" Cut="0.0000000000000000e+00" cType="1" res="-3.8388276007026434e-03" rms="3.7879404425621033e-01" purity="3.6145773530006409e-01" nType="-99"/>
          </Node>
          <Node pos="r" depth="2" NCoef="0" IVar="6" Cut="1.9714802503585815e-01" cType="1" res="3.2150141894817352e-02" rms="3.8275647163391113e-01" purity="7.1514225006103516e-01" nType="0">
            <Node pos="l" depth="3" NCoef="0" IVar="-1" Cut="0.0000000000000000e+00" cType="1" res="4.1615455411374569e-03" rms="3.8308107852935791e-01" purity="7.1635884046554565e-01" nType="-99"/>
            <Node pos="r" depth="3" NCoef="0" IVar="-1" Cut="0.0000000000000000e+00" cType="1" res="3.9423067122697830e-02" rms="3.8059827685356140e-01" purity="7.1391052007675171e-01" nType="-99"/>
          </Node>
        </Node>
      </Node>
    </BinaryTree>
    <BinaryTree type="DecisionTree" boostWeight="1.0000000000000000e+00" itree="373">
      <Node pos="s" depth="0" NCoef="0" IVar="8" Cut="3.9994603395462036e-01" cType="1" res="9.5113203860819340e-04" rms="3.8760685920715332e-01" purity="4.9803957343101501e-01" nType="0">
        <Node pos="l" depth="1" NCoef="0" IVar="6" Cut="-1.4298043251037598e+00" cType="1" res="-3.3225899096578360e-03" rms="3.8770383596420288e-01" purity="5.1449483633041382e-01" nType="0">
          <Node pos="l" depth="2" NCoef="0" IVar="-1" Cut="0.0000000000000000e+00" cType="1" res="1.9618904218077660e-02" rms="3.7132447957992554e-01" purity="2.3103247582912445e-01" nType="-99"/>
          <Node pos="r" depth="2" NCoef="0" IVar="7" Cut="1.1998152732849121e+00" cType="1" res="-5.5205067619681358e-03" rms="3.8892486691474915e-01" purity="5.3757858276367188e-01" nType="0">
            <Node pos="l" depth="3" NCoef="0" IVar="-1" Cut="0.0000000000000000e+00" cType="1" res="-1.9556668121367693e-03" rms="3.9044049382209778e-01" purity="5.6623405218124390e-01" nType="-99"/>
            <Node pos="r" depth="3" NCoef="0" IVar="-1" Cut="0.0000000000000000e+00" cType="1" res="-1.7728868871927261e-02" rms="3.7563177943229675e-01" purity="3.0243560671806335e-01" nType="-99"/>
          </Node>
        </Node>
        <Node pos="r" depth="1" NCoef="0" IVar="9" Cut="3.9986991882324219e-01" cType="1" res="8.2589937373995781e-03" rms="3.8733175396919250e-01" purity="4.6990185976028442e-01" nType="0">
          <Node pos="l" depth="2" NCoef="0" IVar="8" Cut="1.5427392721176147e+00" cType="1" res="1.7309108749032021e-02" rms="3.9106112718582153e-01" purity="5.1525652408599854e-01" nType="0">
            <Node pos="l" depth="3" NCoef="0" IVar="-1" Cut="0.0000000000000000e+00" cType="1" res="1.8550997599959373e-02" rms="3.9685517549514771e-01" purity="5.7256877422332764e-01" nType="-99"/>
            <Node pos="r" depth="3" NCoef="0" IVar="-1" Cut="0.0000000000000000e+00" cType="1" res="-1.4235782437026501e-02" rms="3.6872065067291260e-01" purity="3.2590222358703613e-01" nType="-99"/>
          </Node>
          <Node pos="r" depth="2" NCoef="0" IVar="6" Cut="6.7003160715103149e-01" cType="1" res="-4.5741479843854904e-03" rms="3.8161328434944153e-01" purity="4.0558862686157227e-01" nType="0">
            <Node pos="l" depth="3" NCoef="0" IVar="-1" Cut="0.0000000000000000e+00" cType="1" res="-8.1841563805937767e-03" rms="3.9057314395904541e-01" purity="4.5987558364868164e-01" nType="-99"/>
            <Node pos="r" depth="3" NCoef="0" IVar="-1" Cut="0.0000000000000000e+00" cType="1" res="8.9373374357819557e-03" rms="3.6316594481468201e-01" purity="3.0075338482856750e-01" nType="-99"/>
          </Node>
        </Node>
      </Node>
    </BinaryTree>
    <BinaryTree type="DecisionTree" boostWeight="1.0000000000000000e+00" itree="374">
      <Node pos="s" depth="0" NCoef="0" IVar="8" Cut="-2.0000004768371582e+00" cType="1" res="-2.2832404356449842e-03" rms="3.8631594181060791e-01" purity="4.9830657243728638e-01" nType="0">
        <Node pos="l" depth="1" NCoef="0" IVar="-1" Cut="0.0000000000000000e+00" cType="1" res="-2.5727724656462669e-02" rms="3.3114302158355713e-01" purity="2.0065745711326599e-01" nType="-99"/>
        <Node pos="r" depth="1" NCoef="0" IVar="7" Cut="-1.2000304460525513e+00" cType="1" res="-1.0094456374645233e-03" rms="3.8847580552101135e-01" purity="5.1118403673171997e-01" nType="0">
          <Node pos="l" depth="2" NCoef="0" IVar="7" Cut="-1.4285963773727417e+00" cType="1" res="-1.5067601576447487e-02" rms="3.6515015363693237e-01" purity="3.0223101377487183e-01" nType="0">
            <Node pos="l" depth="3" NCoef="0" IVar="-1" Cut="0.0000000000000000e+00" cType="1" res="-4.4784802012145519e-03" rms="3.5698449611663818e-01" purity="2.6659086346626282e-01" nType="-99"/>
            <Node pos="r" depth="3" NCoef="0" IVar="-1" Cut="0.0000000000000000e+00" cType="1" res="-2.3595081642270088e-02" rms="3.8373309373855591e-01" purity="3.9058065414428711e-01" nType="-99"/>
          </Node>
          <Node pos="r" depth="2" NCoef="0" IVar="7" Cut="-6.2858831882476807e-01" cType="1" res="1.0891199344769120e-03" rms="3.9179542660713196e-01" purity="5.4237604141235352e-01" nType="0">
            <Node pos="l" depth="3" NCoef="0" IVar="-1" Cut="0.0000000000000000e+00" cType="1" res="9.4142742455005646e-03" rms="4.0218573808670044e-01" purity="5.5052572488784790e-01" nType="-99"/>
            <Node pos="r" depth="3" NCoef="0" IVar="-1" Cut="0.0000000000000000e+00" cType="1" res="-1.1782782385125756e-03" rms="3.8959226012229919e-01" purity="5.4072403907775879e-01" nType="-99"/>
          </Node>
        </Node>
      </Node>
    </BinaryTree>
    <BinaryTree type="DecisionTree" boostWeight="1.0000000000000000e+00" itree="375">
      <Node pos="s" depth="0" NCoef="0" IVar="0" Cut="4.2762579345703125e+02" cType="1" res="2.4166731163859367e-03" rms="3.8670292496681213e-01" purity="5.0173264741897583e-01" nType="0">
        <Node pos="l" depth="1" NCoef="0" IVar="9" Cut="-1.4666839838027954e+00" cType="1" res="7.0526115596294403e-03" rms="3.9251333475112915e-01" purity="3.5474097728729248e-01" nType="0">
          <Node pos="l" depth="2" NCoef="0" IVar="4" Cut="1.2431351470947266e+02" cType="1" res="-1.5360190533101559e-02" rms="3.5827401280403137e-01" purity="2.4620343744754791e-01" nType="0">
            <Node pos="l" depth="3" NCoef="0" IVar="-1" Cut="0.0000000000000000e+00" cType="1" res="-2.6758078485727310e-02" rms="3.1740313768386841e-01" purity="1.4009222388267517e-01" nType="-99"/>
            <Node pos="r" depth="3" NCoef="0" IVar="-1" Cut="0.0000000000000000e+00" cType="1" res="5.7390038855373859e-03" rms="4.1643187403678894e-01" purity="4.2333546280860901e-01" nType="-99"/>
          </Node>
          <Node pos="r" depth="2" NCoef="0" IVar="3" Cut="3.4208596801757812e+02" cType="1" res="1.0427646338939667e-02" rms="3.9730426669120789e-01" purity="3.7108513712882996e-01" nType="0">
            <Node pos="l" depth="3" NCoef="0" IVar="-1" Cut="0.0000000000000000e+00" cType="1" res="5.0549530424177647e-03" rms="3.9570382237434387e-01" purity="3.5942542552947998e-01" nType="-99"/>
            <Node pos="r" depth="3" NCoef="0" IVar="-1" Cut="0.0000000000000000e+00" cType="1" res="2.6933424174785614e-02" rms="4.1885936260223389e-01" purity="5.4613065719604492e-01" nType="-99"/>
          </Node>
        </Node>
        <Node pos="r" depth="1" NCoef="0" IVar="2" Cut="3.4597247314453125e+02" cType="1" res="-3.1874487176537514e-03" rms="3.7948474287986755e-01" purity="6.7942249774932861e-01" nType="0">
          <Node pos="l" depth="2" NCoef="0" IVar="9" Cut="4.0031978487968445e-01" cType="1" res="-1.2843415141105652e-02" rms="3.8272538781166077e-01" purity="6.7067605257034302e-01" nType="0">
            <Node pos="l" depth="3" NCoef="0" IVar="-1" Cut="0.0000000000000000e+00" cType="1" res="-1.0117104975506663e-03" rms="3.7955260276794434e-01" purity="6.9260150194168091e-01" nType="-99"/>
            <Node pos="r" depth="3" NCoef="0" IVar="-1" Cut="0.0000000000000000e+00" cType="1" res="-2.2002490237355232e-02" rms="3.8736918568611145e-01" purity="6.3271731138229370e-01" nType="-99"/>
          </Node>
          <Node pos="r" depth="2" NCoef="0" IVar="8" Cut="-9.3333411216735840e-01" cType="1" res="2.7203748468309641e-03" rms="3.7736645340919495e-01" purity="6.8477386236190796e-01" nType="0">
            <Node pos="l" depth="3" NCoef="0" IVar="-1" Cut="0.0000000000000000e+00" cType="1" res="-8.6308009922504425e-03" rms="3.9096683263778687e-01" purity="5.8617264032363892e-01" nType="-99"/>
            <Node pos="r" depth="3" NCoef="0" IVar="-1" Cut="0.0000000000000000e+00" cType="1" res="4.6193106099963188e-03" rms="3.7397629022598267e-01" purity="7.0808786153793335e-01" nType="-99"/>
          </Node>
        </Node>
      </Node>
    </BinaryTree>
    <BinaryTree type="DecisionTree" boostWeight="1.0000000000000000e+00" itree="376">
      <Node pos="s" depth="0" NCoef="0" IVar="9" Cut="1.9999742507934570e+00" cType="1" res="2.2825384512543678e-03" rms="3.8624811172485352e-01" purity="5.0103360414505005e-01" nType="0">
        <Node pos="l" depth="1" NCoef="0" IVar="9" Cut="-1.1999877691268921e+00" cType="1" res="8.9505029609426856e-04" rms="3.8608881831169128e-01" purity="5.0822854042053223e-01" nType="0">
          <Node pos="l" depth="2" NCoef="0" IVar="9" Cut="-2.1142699718475342e+00" cType="1" res="1.3955950736999512e-02" rms="3.8820582628250122e-01" purity="4.2429608106613159e-01" nType="0">
            <Node pos="l" depth="3" NCoef="0" IVar="-1" Cut="0.0000000000000000e+00" cType="1" res="-1.0200411081314087e-02" rms="3.7057760357856750e-01" purity="3.1598636507987976e-01" nType="-99"/>
            <Node pos="r" depth="3" NCoef="0" IVar="-1" Cut="0.0000000000000000e+00" cType="1" res="1.5279661864042282e-02" rms="3.9337700605392456e-01" purity="4.5986050367355347e-01" nType="-99"/>
          </Node>
          <Node pos="r" depth="2" NCoef="0" IVar="6" Cut="1.7353227138519287e+00" cType="1" res="-2.0453021861612797e-03" rms="3.8554963469505310e-01" purity="5.2712386846542358e-01" nType="0">
            <Node pos="l" depth="3" NCoef="0" IVar="-1" Cut="0.0000000000000000e+00" cType="1" res="-2.0020871888846159e-03" rms="3.8722312450408936e-01" purity="5.4107326269149780e-01" nType="-99"/>
            <Node pos="r" depth="3" NCoef="0" IVar="-1" Cut="0.0000000000000000e+00" cType="1" res="2.2420583292841911e-02" rms="3.4160417318344116e-01" purity="1.8964146077632904e-01" nType="-99"/>
          </Node>
        </Node>
        <Node pos="r" depth="1" NCoef="0" IVar="6" Cut="-4.0738310664892197e-02" cType="1" res="2.5026900693774223e-02" rms="3.8814362883567810e-01" purity="3.8309124112129211e-01" nType="0">
          <Node pos="l" depth="2" NCoef="0" IVar="-1" Cut="0.0000000000000000e+00" cType="1" res="3.2236542552709579e-02" rms="3.9418008923530579e-01" purity="4.3029457330703735e-01" nType="-99"/>
          <Node pos="r" depth="2" NCoef="0" IVar="-1" Cut="0.0000000000000000e+00" cType="1" res="2.0000056829303503e-03" rms="3.8127666711807251e-01" purity="3.4068879485130310e-01" nType="-99"/>
        </Node>
      </Node>
    </BinaryTree>
    <BinaryTree type="DecisionTree" boostWeight="1.0000000000000000e+00" itree="377">
      <Node pos="s" depth="0" NCoef="0" IVar="9" Cut="-1.9999939203262329e+00" cType="1" res="-6.5148313296958804e-04" rms="3.8619351387023926e-01" purity="4.9729040265083313e-01" nType="0">
        <Node pos="l" depth="1" NCoef="0" IVar="8" Cut="-1.3337151706218719e-01" cType="1" res="2.2172002121806145e-02" rms="3.8298743963241577e-01" purity="3.7504059076309204e-01" nType="0">
          <Node pos="l" depth="2" NCoef="0" IVar="-1" Cut="0.0000000000000000e+00" cType="1" res="9.8959598690271378e-03" rms="3.6695998907089233e-01" purity="3.3733835816383362e-01" nType="-99"/>
          <Node pos="r" depth="2" NCoef="0" IVar="-1" Cut="0.0000000000000000e+00" cType="1" res="2.0578995347023010e-02" rms="3.9916381239891052e-01" purity="4.1519591212272644e-01" nType="-99"/>
        </Node>
        <Node pos="r" depth="1" NCoef="0" IVar="6" Cut="6.7609512805938721e-01" cType="1" res="-1.9941355567425489e-03" rms="3.8633930683135986e-01" purity="5.0448209047317505e-01" nType="0">
          <Node pos="l" depth="2" NCoef="0" IVar="7" Cut="-1.9999042749404907e+00" cType="1" res="-4.7297631390392780e-03" rms="3.8985124230384827e-01" purity="5.4262822866439819e-01" nType="0">
            <Node pos="l" depth="3" NCoef="0" IVar="-1" Cut="0.0000000000000000e+00" cType="1" res="2.2617353126406670e-02" rms="3.6026534438133240e-01" purity="2.7424362301826477e-01" nType="-99"/>
            <Node pos="r" depth="3" NCoef="0" IVar="-1" Cut="0.0000000000000000e+00" cType="1" res="-3.8803836796432734e-03" rms="3.9084577560424805e-01" purity="5.5256909132003784e-01" nType="-99"/>
          </Node>
          <Node pos="r" depth="2" NCoef="0" IVar="9" Cut="-3.9995828270912170e-01" cType="1" res="6.6046495921909809e-03" rms="3.7495642900466919e-01" purity="3.8457879424095154e-01" nType="0">
            <Node pos="l" depth="3" NCoef="0" IVar="-1" Cut="0.0000000000000000e+00" cType="1" res="-6.8262820132076740e-03" rms="3.7711718678474426e-01" purity="3.6952334642410278e-01" nType="-99"/>
            <Node pos="r" depth="3" NCoef="0" IVar="-1" Cut="0.0000000000000000e+00" cType="1" res="9.3256654217839241e-03" rms="3.7393793463706970e-01" purity="3.9029622077941895e-01" nType="-99"/>
          </Node>
        </Node>
      </Node>
    </BinaryTree>
    <BinaryTree type="DecisionTree" boostWeight="1.0000000000000000e+00" itree="378">
      <Node pos="s" depth="0" NCoef="0" IVar="7" Cut="-1.3331812620162964e-01" cType="1" res="2.4433536455035210e-03" rms="3.8969793915748596e-01" purity="4.9967992305755615e-01" nType="0">
        <Node pos="l" depth="1" NCoef="0" IVar="6" Cut="-1.4041029214859009e+00" cType="1" res="-1.6879928298294544e-03" rms="3.8799697160720825e-01" purity="4.8205435276031494e-01" nType="0">
          <Node pos="l" depth="2" NCoef="0" IVar="-1" Cut="0.0000000000000000e+00" cType="1" res="-2.1031159907579422e-02" rms="3.0844762921333313e-01" purity="1.9364979863166809e-01" nType="-99"/>
          <Node pos="r" depth="2" NCoef="0" IVar="6" Cut="1.1982426643371582e+00" cType="1" res="3.1769086490385234e-04" rms="3.9418420195579529e-01" purity="5.0750583410263062e-01" nType="0">
            <Node pos="l" depth="3" NCoef="0" IVar="-1" Cut="0.0000000000000000e+00" cType="1" res="1.6218763776123524e-03" rms="4.0031087398529053e-01" purity="5.4262608289718628e-01" nType="-99"/>
            <Node pos="r" depth="3" NCoef="0" IVar="-1" Cut="0.0000000000000000e+00" cType="1" res="-1.4964048750698566e-02" rms="3.3854112029075623e-01" purity="2.1624660491943359e-01" nType="-99"/>
          </Node>
        </Node>
        <Node pos="r" depth="1" NCoef="0" IVar="0" Cut="4.2728213500976562e+02" cType="1" res="5.7978555560112000e-03" rms="3.9104154706001282e-01" purity="5.1399123668670654e-01" nType="0">
          <Node pos="l" depth="2" NCoef="0" IVar="8" Cut="9.3271738290786743e-01" cType="1" res="1.1952800676226616e-02" rms="3.9975386857986450e-01" purity="3.6787167191505432e-01" nType="0">
            <Node pos="l" depth="3" NCoef="0" IVar="-1" Cut="0.0000000000000000e+00" cType="1" res="4.0325303561985493e-03" rms="4.0437677502632141e-01" purity="3.9442387223243713e-01" nType="-99"/>
            <Node pos="r" depth="3" NCoef="0" IVar="-1" Cut="0.0000000000000000e+00" cType="1" res="1.9444167613983154e-02" rms="3.8597238063812256e-01" purity="2.9272654652595520e-01" nType="-99"/>
          </Node>
          <Node pos="r" depth="2" NCoef="0" IVar="7" Cut="1.5428003072738647e+00" cType="1" res="-1.5088322106748819e-03" rms="3.8031071424484253e-01" purity="6.8745338916778564e-01" nType="0">
            <Node pos="l" depth="3" NCoef="0" IVar="-1" Cut="0.0000000000000000e+00" cType="1" res="1.5527574578300118e-03" rms="3.8144740462303162e-01" purity="7.2331076860427856e-01" nType="-99"/>
            <Node pos="r" depth="3" NCoef="0" IVar="-1" Cut="0.0000000000000000e+00" cType="1" res="-2.0370405167341232e-02" rms="3.6920759081840515e-01" purity="3.8712590932846069e-01" nType="-99"/>
          </Node>
        </Node>
      </Node>
    </BinaryTree>
    <BinaryTree type="DecisionTree" boostWeight="1.0000000000000000e+00" itree="379">
      <Node pos="s" depth="0" NCoef="0" IVar="7" Cut="1.1999784708023071e+00" cType="1" res="-2.1945869084447622e-03" rms="3.8484674692153931e-01" purity="4.9950328469276428e-01" nType="0">
        <Node pos="l" depth="1" NCoef="0" IVar="1" Cut="1.4002539062500000e+03" cType="1" res="-4.3056625872850418e-03" rms="3.8742214441299438e-01" purity="5.2946716547012329e-01" nType="0">
          <Node pos="l" depth="2" NCoef="0" IVar="1" Cut="9.1433319091796875e+02" cType="1" res="-1.0359057225286961e-02" rms="4.0577304363250732e-01" purity="3.8504606485366821e-01" nType="0">
            <Node pos="l" depth="3" NCoef="0" IVar="-1" Cut="0.0000000000000000e+00" cType="1" res="-2.6700343936681747e-02" rms="3.0761745572090149e-01" purity="1.2152077257633209e-01" nType="-99"/>
            <Node pos="r" depth="3" NCoef="0" IVar="-1" Cut="0.0000000000000000e+00" cType="1" res="-4.1234893724322319e-03" rms="4.1822561621665955e-01" purity="4.2394319176673889e-01" nType="-99"/>
          </Node>
          <Node pos="r" depth="2" NCoef="0" IVar="8" Cut="-1.2000916004180908e+00" cType="1" res="5.5171428248286247e-03" rms="3.5541564226150513e-01" purity="7.6381838321685791e-01" nType="0">
            <Node pos="l" depth="3" NCoef="0" IVar="-1" Cut="0.0000000000000000e+00" cType="1" res="-8.9449239894747734e-03" rms="3.8529741764068604e-01" purity="6.3095515966415405e-01" nType="-99"/>
            <Node pos="r" depth="3" NCoef="0" IVar="-1" Cut="0.0000000000000000e+00" cType="1" res="6.4510107040405273e-03" rms="3.5118913650512695e-01" purity="7.8140211105346680e-01" nType="-99"/>
          </Node>
        </Node>
        <Node pos="r" depth="1" NCoef="0" IVar="6" Cut="-6.3073885440826416e-01" cType="1" res="1.1162005364894867e-02" rms="3.6785429716110229e-01" purity="3.0992418527603149e-01" nType="0">
          <Node pos="l" depth="2" NCoef="0" IVar="-1" Cut="0.0000000000000000e+00" cType="1" res="-1.5500039793550968e-02" rms="3.2095241546630859e-01" purity="1.6768127679824829e-01" nType="-99"/>
          <Node pos="r" depth="2" NCoef="0" IVar="8" Cut="-1.3329286873340607e-01" cType="1" res="2.0553773269057274e-02" rms="3.8157442212104797e-01" purity="3.5676407814025879e-01" nType="0">
            <Node pos="l" depth="3" NCoef="0" IVar="-1" Cut="0.0000000000000000e+00" cType="1" res="3.1242443248629570e-02" rms="4.1185823082923889e-01" purity="3.8607805967330933e-01" nType="-99"/>
            <Node pos="r" depth="3" NCoef="0" IVar="-1" Cut="0.0000000000000000e+00" cType="1" res="3.2097396906465292e-03" rms="3.6018091440200806e-01" purity="3.3823305368423462e-01" nType="-99"/>
          </Node>
        </Node>
      </Node>
    </BinaryTree>
    <BinaryTree type="DecisionTree" boostWeight="1.0000000000000000e+00" itree="380">
      <Node pos="s" depth="0" NCoef="0" IVar="8" Cut="1.2000378370285034e+00" cType="1" res="-3.2540620304644108e-03" rms="3.8368543982505798e-01" purity="4.9779507517814636e-01" nType="0">
        <Node pos="l" depth="1" NCoef="0" IVar="9" Cut="1.3333322107791901e-01" cType="1" res="-5.3171496838331223e-03" rms="3.8395324349403381e-01" purity="5.2162015438079834e-01" nType="0">
          <Node pos="l" depth="2" NCoef="0" IVar="3" Cut="1.4706251525878906e+02" cType="1" res="-9.8719978705048561e-03" rms="3.8046205043792725e-01" purity="5.1353704929351807e-01" nType="0">
            <Node pos="l" depth="3" NCoef="0" IVar="-1" Cut="0.0000000000000000e+00" cType="1" res="-1.5456108376383781e-02" rms="3.6668774485588074e-01" purity="2.3250229656696320e-01" nType="-99"/>
            <Node pos="r" depth="3" NCoef="0" IVar="-1" Cut="0.0000000000000000e+00" cType="1" res="-4.0361341089010239e-03" rms="3.8445299863815308e-01" purity="5.9853285551071167e-01" nType="-99"/>
          </Node>
          <Node pos="r" depth="2" NCoef="0" IVar="6" Cut="6.7035275697708130e-01" cType="1" res="1.6750690701883286e-04" rms="3.8804447650909424e-01" purity="5.3135317564010620e-01" nType="0">
            <Node pos="l" depth="3" NCoef="0" IVar="-1" Cut="0.0000000000000000e+00" cType="1" res="3.6091145593672991e-03" rms="3.9298969507217407e-01" purity="5.8083027601242065e-01" nType="-99"/>
            <Node pos="r" depth="3" NCoef="0" IVar="-1" Cut="0.0000000000000000e+00" cType="1" res="-1.0966715402901173e-02" rms="3.7271416187286377e-01" purity="3.8633936643600464e-01" nType="-99"/>
          </Node>
        </Node>
        <Node pos="r" depth="1" NCoef="0" IVar="1" Cut="1.0502071533203125e+03" cType="1" res="8.1033380702137947e-03" rms="3.8200828433036804e-01" purity="3.6663687229156494e-01" nType="0">
          <Node pos="l" depth="2" NCoef="0" IVar="-1" Cut="0.0000000000000000e+00" cType="1" res="2.6015779003500938e-02" rms="3.5177257657051086e-01" purity="1.7301017045974731e-01" nType="-99"/>
          <Node pos="r" depth="2" NCoef="0" IVar="9" Cut="1.3340064883232117e-01" cType="1" res="-1.2736244825646281e-03" rms="3.9519974589347839e-01" purity="4.5849826931953430e-01" nType="0">
            <Node pos="l" depth="3" NCoef="0" IVar="-1" Cut="0.0000000000000000e+00" cType="1" res="6.6377846524119377e-03" rms="4.0798801183700562e-01" purity="5.0649273395538330e-01" nType="-99"/>
            <Node pos="r" depth="3" NCoef="0" IVar="-1" Cut="0.0000000000000000e+00" cType="1" res="-8.4019470959901810e-03" rms="3.8133570551872253e-01" purity="4.0958392620086670e-01" nType="-99"/>
          </Node>
        </Node>
      </Node>
    </BinaryTree>
    <BinaryTree type="DecisionTree" boostWeight="1.0000000000000000e+00" itree="381">
      <Node pos="s" depth="0" NCoef="0" IVar="8" Cut="9.3326687812805176e-01" cType="1" res="6.0590468347072601e-03" rms="3.8675254583358765e-01" purity="5.0688815116882324e-01" nType="0">
        <Node pos="l" depth="1" NCoef="0" IVar="7" Cut="-1.3335196673870087e-01" cType="1" res="9.0365149080753326e-03" rms="3.8868451118469238e-01" purity="5.3528219461441040e-01" nType="0">
          <Node pos="l" depth="2" NCoef="0" IVar="8" Cut="4.4361490756273270e-02" cType="1" res="1.5792680904269218e-02" rms="3.8969764113426208e-01" purity="5.2378636598587036e-01" nType="0">
            <Node pos="l" depth="3" NCoef="0" IVar="-1" Cut="0.0000000000000000e+00" cType="1" res="5.9739206917583942e-03" rms="3.8540145754814148e-01" purity="4.9127990007400513e-01" nType="-99"/>
            <Node pos="r" depth="3" NCoef="0" IVar="-1" Cut="0.0000000000000000e+00" cType="1" res="1.9514912739396095e-02" rms="3.9850047230720520e-01" purity="5.9463894367218018e-01" nType="-99"/>
          </Node>
          <Node pos="r" depth="2" NCoef="0" IVar="7" Cut="4.2536464333534241e-01" cType="1" res="2.9609068296849728e-03" rms="3.8767063617706299e-01" purity="5.4562002420425415e-01" nType="0">
            <Node pos="l" depth="3" NCoef="0" IVar="-1" Cut="0.0000000000000000e+00" cType="1" res="-3.2800151966512203e-03" rms="3.8765227794647217e-01" purity="6.2939608097076416e-01" nType="-99"/>
            <Node pos="r" depth="3" NCoef="0" IVar="-1" Cut="0.0000000000000000e+00" cType="1" res="5.1864860579371452e-03" rms="3.8759994506835938e-01" purity="4.9340459704399109e-01" nType="-99"/>
          </Node>
        </Node>
        <Node pos="r" depth="1" NCoef="0" IVar="8" Cut="1.7332595586776733e+00" cType="1" res="-5.3144092671573162e-03" rms="3.7906691431999207e-01" purity="3.9842742681503296e-01" nType="0">
          <Node pos="l" depth="2" NCoef="0" IVar="3" Cut="1.3264897155761719e+02" cType="1" res="-1.4064607210457325e-02" rms="3.8167303800582886e-01" purity="4.5096731185913086e-01" nType="0">
            <Node pos="l" depth="3" NCoef="0" IVar="-1" Cut="0.0000000000000000e+00" cType="1" res="-3.8975980132818222e-02" rms="3.1469732522964478e-01" purity="1.5067878365516663e-01" nType="-99"/>
            <Node pos="r" depth="3" NCoef="0" IVar="-1" Cut="0.0000000000000000e+00" cType="1" res="-3.6548508796840906e-03" rms="3.9513561129570007e-01" purity="5.2064621448516846e-01" nType="-99"/>
          </Node>
          <Node pos="r" depth="2" NCoef="0" IVar="5" Cut="7.0710487365722656e+01" cType="1" res="1.1830672621726990e-02" rms="3.7331360578536987e-01" purity="2.9548108577728271e-01" nType="0">
            <Node pos="l" depth="3" NCoef="0" IVar="-1" Cut="0.0000000000000000e+00" cType="1" res="-1.3864159584045410e-02" rms="3.1479150056838989e-01" purity="1.3673244416713715e-01" nType="-99"/>
            <Node pos="r" depth="3" NCoef="0" IVar="-1" Cut="0.0000000000000000e+00" cType="1" res="2.1024692803621292e-02" rms="4.1608309745788574e-01" purity="4.3291622400283813e-01" nType="-99"/>
          </Node>
        </Node>
      </Node>
    </BinaryTree>
    <BinaryTree type="DecisionTree" boostWeight="1.0000000000000000e+00" itree="382">
      <Node pos="s" depth="0" NCoef="0" IVar="6" Cut="-6.5109252929687500e-01" cType="1" res="6.9595209788531065e-04" rms="3.8729819655418396e-01" purity="4.9696454405784607e-01" nType="0">
        <Node pos="l" depth="1" NCoef="0" IVar="2" Cut="4.4882705688476562e+02" cType="1" res="1.1231567710638046e-02" rms="3.8628077507019043e-01" purity="4.0209448337554932e-01" nType="0">
          <Node pos="l" depth="2" NCoef="0" IVar="6" Cut="-1.2578570842742920e+00" cType="1" res="6.4523038454353809e-03" rms="3.8331851363182068e-01" purity="3.9082750678062439e-01" nType="0">
            <Node pos="l" depth="3" NCoef="0" IVar="-1" Cut="0.0000000000000000e+00" cType="1" res="1.5741938725113869e-02" rms="3.7129798531532288e-01" purity="2.6539894938468933e-01" nType="-99"/>
            <Node pos="r" depth="3" NCoef="0" IVar="-1" Cut="0.0000000000000000e+00" cType="1" res="-2.4112039245665073e-03" rms="3.9155420660972595e-01" purity="4.8254105448722839e-01" nType="-99"/>
          </Node>
          <Node pos="r" depth="2" NCoef="0" IVar="6" Cut="-1.0242561101913452e+00" cType="1" res="2.7880456298589706e-02" rms="3.9597690105438232e-01" purity="4.4134363532066345e-01" nType="0">
            <Node pos="l" depth="3" NCoef="0" IVar="-1" Cut="0.0000000000000000e+00" cType="1" res="-1.4364500530064106e-03" rms="3.6194476485252380e-01" purity="3.2445603609085083e-01" nType="-99"/>
            <Node pos="r" depth="3" NCoef="0" IVar="-1" Cut="0.0000000000000000e+00" cType="1" res="3.4862782806158066e-02" rms="4.2636305093765259e-01" purity="5.6318497657775879e-01" nType="-99"/>
          </Node>
        </Node>
        <Node pos="r" depth="1" NCoef="0" IVar="9" Cut="-1.3335922360420227e-01" cType="1" res="-2.8600431978702545e-03" rms="3.8757637143135071e-01" purity="5.2898520231246948e-01" nType="0">
          <Node pos="l" depth="2" NCoef="0" IVar="7" Cut="-1.1999529600143433e+00" cType="1" res="4.5519568957388401e-03" rms="3.9164793491363525e-01" purity="5.4111236333847046e-01" nType="0">
            <Node pos="l" depth="3" NCoef="0" IVar="-1" Cut="0.0000000000000000e+00" cType="1" res="2.2614475339651108e-02" rms="3.8623294234275818e-01" purity="3.5099345445632935e-01" nType="-99"/>
            <Node pos="r" depth="3" NCoef="0" IVar="-1" Cut="0.0000000000000000e+00" cType="1" res="-1.4324305811896920e-04" rms="3.9241674542427063e-01" purity="5.7510656118392944e-01" nType="-99"/>
          </Node>
          <Node pos="r" depth="2" NCoef="0" IVar="8" Cut="1.7329274415969849e+00" cType="1" res="-8.8303294032812119e-03" rms="3.8416141271591187e-01" purity="5.1921695470809937e-01" nType="0">
            <Node pos="l" depth="3" NCoef="0" IVar="-1" Cut="0.0000000000000000e+00" cType="1" res="-7.2555891238152981e-03" rms="3.8466298580169678e-01" purity="5.3705728054046631e-01" nType="-99"/>
            <Node pos="r" depth="3" NCoef="0" IVar="-1" Cut="0.0000000000000000e+00" cType="1" res="1.1867745779454708e-02" rms="3.7755751609802246e-01" purity="3.1848424673080444e-01" nType="-99"/>
          </Node>
        </Node>
      </Node>
    </BinaryTree>
    <BinaryTree type="DecisionTree" boostWeight="1.0000000000000000e+00" itree="383">
      <Node pos="s" depth="0" NCoef="0" IVar="3" Cut="1.4556855773925781e+02" cType="1" res="1.6073435544967651e-03" rms="3.8753154873847961e-01" purity="5.0086784362792969e-01" nType="0">
        <Node pos="l" depth="1" NCoef="0" IVar="7" Cut="4.0017816424369812e-01" cType="1" res="1.3948021456599236e-02" rms="3.8260653614997864e-01" purity="2.5597366690635681e-01" nType="0">
          <Node pos="l" depth="2" NCoef="0" IVar="4" Cut="1.0443737030029297e+02" cType="1" res="3.5551174078136683e-03" rms="3.8211977481842041e-01" purity="2.5465279817581177e-01" nType="0">
            <Node pos="l" depth="3" NCoef="0" IVar="-1" Cut="0.0000000000000000e+00" cType="1" res="1.2704807333648205e-02" rms="3.7326559424400330e-01" purity="2.1698321402072906e-01" nType="-99"/>
            <Node pos="r" depth="3" NCoef="0" IVar="-1" Cut="0.0000000000000000e+00" cType="1" res="-2.1349709481000900e-02" rms="4.0653431415557861e-01" purity="3.7667924165725708e-01" nType="-99"/>
          </Node>
          <Node pos="r" depth="2" NCoef="0" IVar="3" Cut="1.1427577972412109e+02" cType="1" res="3.0245311558246613e-02" rms="3.8280087709426880e-01" purity="2.5804492831230164e-01" nType="0">
            <Node pos="l" depth="3" NCoef="0" IVar="-1" Cut="0.0000000000000000e+00" cType="1" res="3.6664810613729060e-04" rms="3.2881942391395569e-01" purity="1.6118931770324707e-01" nType="-99"/>
            <Node pos="r" depth="3" NCoef="0" IVar="-1" Cut="0.0000000000000000e+00" cType="1" res="3.6429461091756821e-02" rms="4.2154550552368164e-01" purity="3.4013465046882629e-01" nType="-99"/>
          </Node>
        </Node>
        <Node pos="r" depth="1" NCoef="0" IVar="8" Cut="-1.3342164456844330e-01" cType="1" res="-2.4985997006297112e-03" rms="3.8906958699226379e-01" purity="5.8234810829162598e-01" nType="0">
          <Node pos="l" depth="2" NCoef="0" IVar="6" Cut="9.3521475791931152e-01" cType="1" res="-9.8362034186720848e-03" rms="3.8978591561317444e-01" purity="5.6512182950973511e-01" nType="0">
            <Node pos="l" depth="3" NCoef="0" IVar="-1" Cut="0.0000000000000000e+00" cType="1" res="-3.8512200117111206e-03" rms="3.9169511198997498e-01" purity="5.9693491458892822e-01" nType="-99"/>
            <Node pos="r" depth="3" NCoef="0" IVar="-1" Cut="0.0000000000000000e+00" cType="1" res="-2.3571094498038292e-02" rms="3.7582737207412720e-01" purity="3.5305097699165344e-01" nType="-99"/>
          </Node>
          <Node pos="r" depth="2" NCoef="0" IVar="6" Cut="6.6985702514648438e-01" cType="1" res="3.4026443026959896e-03" rms="3.8839197158813477e-01" purity="5.9620231389999390e-01" nType="0">
            <Node pos="l" depth="3" NCoef="0" IVar="-1" Cut="0.0000000000000000e+00" cType="1" res="-5.6948937708511949e-04" rms="3.8812759518623352e-01" purity="6.3675653934478760e-01" nType="-99"/>
            <Node pos="r" depth="3" NCoef="0" IVar="-1" Cut="0.0000000000000000e+00" cType="1" res="1.0488942265510559e-02" rms="3.8889354467391968e-01" purity="4.7764629125595093e-01" nType="-99"/>
          </Node>
        </Node>
      </Node>
    </BinaryTree>
    <BinaryTree type="DecisionTree" boostWeight="1.0000000000000000e+00" itree="384">
      <Node pos="s" depth="0" NCoef="0" IVar="8" Cut="-1.2000252008438110e+00" cType="1" res="2.8543840162456036e-03" rms="3.8836410641670227e-01" purity="5.0125938653945923e-01" nType="0">
        <Node pos="l" depth="1" NCoef="0" IVar="9" Cut="-1.4664583206176758e+00" cType="1" res="1.4397013001143932e-02" rms="3.8031363487243652e-01" purity="3.7627854943275452e-01" nType="0">
          <Node pos="l" depth="2" NCoef="0" IVar="-1" Cut="0.0000000000000000e+00" cType="1" res="3.5961396992206573e-02" rms="3.6645877361297607e-01" purity="2.8561040759086609e-01" nType="-99"/>
          <Node pos="r" depth="2" NCoef="0" IVar="6" Cut="4.2069354653358459e-01" cType="1" res="8.0803893506526947e-03" rms="3.8278958201408386e-01" purity="3.9488899707794189e-01" nType="0">
            <Node pos="l" depth="3" NCoef="0" IVar="-1" Cut="0.0000000000000000e+00" cType="1" res="-1.1398177593946457e-03" rms="3.8569635152816772e-01" purity="4.2020457983016968e-01" nType="-99"/>
            <Node pos="r" depth="3" NCoef="0" IVar="-1" Cut="0.0000000000000000e+00" cType="1" res="2.3072643205523491e-02" rms="3.7476402521133423e-01" purity="3.3479979634284973e-01" nType="-99"/>
          </Node>
        </Node>
        <Node pos="r" depth="1" NCoef="0" IVar="2" Cut="5.0379696655273438e+02" cType="1" res="7.1581918746232986e-04" rms="3.8979989290237427e-01" purity="5.2441525459289551e-01" nType="0">
          <Node pos="l" depth="2" NCoef="0" IVar="9" Cut="9.3334490060806274e-01" cType="1" res="3.2093604095280170e-03" rms="3.9092230796813965e-01" purity="5.1569002866744995e-01" nType="0">
            <Node pos="l" depth="3" NCoef="0" IVar="-1" Cut="0.0000000000000000e+00" cType="1" res="-1.8456370162311941e-04" rms="3.9201161265373230e-01" purity="5.3279227018356323e-01" nType="-99"/>
            <Node pos="r" depth="3" NCoef="0" IVar="-1" Cut="0.0000000000000000e+00" cType="1" res="9.3273138627409935e-03" rms="3.8730317354202271e-01" purity="4.6235537528991699e-01" nType="-99"/>
          </Node>
          <Node pos="r" depth="2" NCoef="0" IVar="1" Cut="1.8927514648437500e+03" cType="1" res="-1.1891873553395271e-02" rms="3.8382667303085327e-01" purity="5.6853145360946655e-01" nType="0">
            <Node pos="l" depth="3" NCoef="0" IVar="-1" Cut="0.0000000000000000e+00" cType="1" res="-1.5840472653508186e-02" rms="3.9004361629486084e-01" purity="4.4818109273910522e-01" nType="-99"/>
            <Node pos="r" depth="3" NCoef="0" IVar="-1" Cut="0.0000000000000000e+00" cType="1" res="7.2218189015984535e-03" rms="3.7230369448661804e-01" purity="7.6678711175918579e-01" nType="-99"/>
          </Node>
        </Node>
      </Node>
    </BinaryTree>
    <BinaryTree type="DecisionTree" boostWeight="1.0000000000000000e+00" itree="385">
      <Node pos="s" depth="0" NCoef="0" IVar="8" Cut="-1.4666700363159180e+00" cType="1" res="-4.2274515144526958e-03" rms="3.8414677977561951e-01" purity="4.9848058819770813e-01" nType="0">
        <Node pos="l" depth="1" NCoef="0" IVar="6" Cut="-6.3663411140441895e-01" cType="1" res="1.2202240526676178e-02" rms="3.7249365448951721e-01" purity="3.3467176556587219e-01" nType="0">
          <Node pos="l" depth="2" NCoef="0" IVar="-1" Cut="0.0000000000000000e+00" cType="1" res="-1.3964245095849037e-02" rms="3.3962744474411011e-01" purity="2.1940752863883972e-01" nType="-99"/>
          <Node pos="r" depth="2" NCoef="0" IVar="8" Cut="-1.7841415405273438e+00" cType="1" res="2.5376310572028160e-02" rms="3.8576731085777283e-01" purity="3.8697791099548340e-01" nType="0">
            <Node pos="l" depth="3" NCoef="0" IVar="-1" Cut="0.0000000000000000e+00" cType="1" res="6.6153397783637047e-03" rms="3.7608489394187927e-01" purity="3.1121182441711426e-01" nType="-99"/>
            <Node pos="r" depth="3" NCoef="0" IVar="-1" Cut="0.0000000000000000e+00" cType="1" res="3.1888749450445175e-02" rms="3.9879029989242554e-01" purity="5.0205588340759277e-01" nType="-99"/>
          </Node>
        </Node>
        <Node pos="r" depth="1" NCoef="0" IVar="4" Cut="1.0496289062500000e+02" cType="1" res="-6.1711058951914310e-03" rms="3.8545572757720947e-01" purity="5.1785939931869507e-01" nType="0">
          <Node pos="l" depth="2" NCoef="0" IVar="0" Cut="5.4566619873046875e+02" cType="1" res="-1.2901968322694302e-02" rms="3.8073754310607910e-01" purity="2.6760423183441162e-01" nType="0">
            <Node pos="l" depth="3" NCoef="0" IVar="-1" Cut="0.0000000000000000e+00" cType="1" res="-6.3017993234097958e-03" rms="3.7173497676849365e-01" purity="2.3619769513607025e-01" nType="-99"/>
            <Node pos="r" depth="3" NCoef="0" IVar="-1" Cut="0.0000000000000000e+00" cType="1" res="-2.1193645894527435e-02" rms="4.4303327798843384e-01" purity="5.0972002744674683e-01" nType="-99"/>
          </Node>
          <Node pos="r" depth="2" NCoef="0" IVar="8" Cut="-4.5079648494720459e-01" cType="1" res="-2.7010110206902027e-03" rms="3.8782015442848206e-01" purity="6.4687836170196533e-01" nType="0">
            <Node pos="l" depth="3" NCoef="0" IVar="-1" Cut="0.0000000000000000e+00" cType="1" res="-9.8099540919065475e-03" rms="3.9322829246520996e-01" purity="6.3588875532150269e-01" nType="-99"/>
            <Node pos="r" depth="3" NCoef="0" IVar="-1" Cut="0.0000000000000000e+00" cType="1" res="1.2527704238891602e-03" rms="3.8570749759674072e-01" purity="6.5092444419860840e-01" nType="-99"/>
          </Node>
        </Node>
      </Node>
    </BinaryTree>
    <BinaryTree type="DecisionTree" boostWeight="1.0000000000000000e+00" itree="386">
      <Node pos="s" depth="0" NCoef="0" IVar="8" Cut="-4.0000143647193909e-01" cType="1" res="-1.3912633294239640e-03" rms="3.8622400164604187e-01" purity="4.9704626202583313e-01" nType="0">
        <Node pos="l" depth="1" NCoef="0" IVar="7" Cut="6.6664135456085205e-01" cType="1" res="8.0743702128529549e-03" rms="3.8943752646446228e-01" purity="4.7572901844978333e-01" nType="0">
          <Node pos="l" depth="2" NCoef="0" IVar="5" Cut="1.2430307006835938e+02" cType="1" res="1.2901984155178070e-02" rms="3.9219853281974792e-01" purity="5.0052154064178467e-01" nType="0">
            <Node pos="l" depth="3" NCoef="0" IVar="-1" Cut="0.0000000000000000e+00" cType="1" res="1.0519699193537235e-02" rms="4.0125522017478943e-01" purity="4.3796417117118835e-01" nType="-99"/>
            <Node pos="r" depth="3" NCoef="0" IVar="-1" Cut="0.0000000000000000e+00" cType="1" res="-4.0450613014400005e-03" rms="3.4659045934677124e-01" purity="7.9044151306152344e-01" nType="-99"/>
          </Node>
          <Node pos="r" depth="2" NCoef="0" IVar="8" Cut="-1.0857272148132324e+00" cType="1" res="-8.4767043590545654e-03" rms="3.7935331463813782e-01" purity="3.9072990417480469e-01" nType="0">
            <Node pos="l" depth="3" NCoef="0" IVar="-1" Cut="0.0000000000000000e+00" cType="1" res="1.9938100595027208e-03" rms="3.7225267291069031e-01" purity="3.1602552533149719e-01" nType="-99"/>
            <Node pos="r" depth="3" NCoef="0" IVar="-1" Cut="0.0000000000000000e+00" cType="1" res="-1.2540488503873348e-02" rms="3.8608574867248535e-01" purity="4.6648690104484558e-01" nType="-99"/>
          </Node>
        </Node>
        <Node pos="r" depth="1" NCoef="0" IVar="0" Cut="4.5299456787109375e+02" cType="1" res="-6.9161998108029366e-03" rms="3.8422811031341553e-01" purity="5.0948882102966309e-01" nType="0">
          <Node pos="l" depth="2" NCoef="0" IVar="8" Cut="2.0380129814147949e+00" cType="1" res="-1.4124152250587940e-02" rms="3.9246821403503418e-01" purity="3.6689662933349609e-01" nType="0">
            <Node pos="l" depth="3" NCoef="0" IVar="-1" Cut="0.0000000000000000e+00" cType="1" res="-7.1903369389474392e-03" rms="3.9910852909088135e-01" purity="3.8621076941490173e-01" nType="-99"/>
            <Node pos="r" depth="3" NCoef="0" IVar="-1" Cut="0.0000000000000000e+00" cType="1" res="-4.0176730602979660e-02" rms="2.9528149962425232e-01" purity="1.2484006583690643e-01" nType="-99"/>
          </Node>
          <Node pos="r" depth="2" NCoef="0" IVar="9" Cut="1.4668611288070679e+00" cType="1" res="3.8320212624967098e-03" rms="3.7134182453155518e-01" purity="7.2211676836013794e-01" nType="0">
            <Node pos="l" depth="3" NCoef="0" IVar="-1" Cut="0.0000000000000000e+00" cType="1" res="7.1121007204055786e-03" rms="3.6752334237098694e-01" purity="7.4089878797531128e-01" nType="-99"/>
            <Node pos="r" depth="3" NCoef="0" IVar="-1" Cut="0.0000000000000000e+00" cType="1" res="-2.9836403205990791e-02" rms="3.9876505732536316e-01" purity="5.6295680999755859e-01" nType="-99"/>
          </Node>
        </Node>
      </Node>
    </BinaryTree>
    <BinaryTree type="DecisionTree" boostWeight="1.0000000000000000e+00" itree="387">
      <Node pos="s" depth="0" NCoef="0" IVar="7" Cut="1.4666861295700073e+00" cType="1" res="5.6429430842399597e-03" rms="3.8876760005950928e-01" purity="5.0478780269622803e-01" nType="0">
        <Node pos="l" depth="1" NCoef="0" IVar="8" Cut="-6.6670119762420654e-01" cType="1" res="3.9471383206546307e-03" rms="3.9109262824058533e-01" purity="5.2904003858566284e-01" nType="0">
          <Node pos="l" depth="2" NCoef="0" IVar="7" Cut="-5.6492382287979126e-01" cType="1" res="1.2980035506188869e-02" rms="3.9294308423995972e-01" purity="4.7093003988265991e-01" nType="0">
            <Node pos="l" depth="3" NCoef="0" IVar="-1" Cut="0.0000000000000000e+00" cType="1" res="-2.0751147530972958e-03" rms="3.7372824549674988e-01" purity="3.6208510398864746e-01" nType="-99"/>
            <Node pos="r" depth="3" NCoef="0" IVar="-1" Cut="0.0000000000000000e+00" cType="1" res="1.3975866138935089e-02" rms="4.0399938821792603e-01" purity="5.3790801763534546e-01" nType="-99"/>
          </Node>
          <Node pos="r" depth="2" NCoef="0" IVar="8" Cut="2.1395993232727051e+00" cType="1" res="2.8450565878301859e-04" rms="3.9028024673461914e-01" purity="5.5260229110717773e-01" nType="0">
            <Node pos="l" depth="3" NCoef="0" IVar="-1" Cut="0.0000000000000000e+00" cType="1" res="9.9940970540046692e-04" rms="3.9208206534385681e-01" purity="5.6700974702835083e-01" nType="-99"/>
            <Node pos="r" depth="3" NCoef="0" IVar="-1" Cut="0.0000000000000000e+00" cType="1" res="-2.1673548966646194e-02" rms="3.4507510066032410e-01" purity="2.2175669670104980e-01" nType="-99"/>
          </Node>
        </Node>
        <Node pos="r" depth="1" NCoef="0" IVar="3" Cut="1.6519105529785156e+02" cType="1" res="2.2286800667643547e-02" rms="3.6474511027336121e-01" purity="2.6675873994827271e-01" nType="0">
          <Node pos="l" depth="2" NCoef="0" IVar="-1" Cut="0.0000000000000000e+00" cType="1" res="3.7023968994617462e-02" rms="3.5127612948417664e-01" purity="2.0978173613548279e-01" nType="-99"/>
          <Node pos="r" depth="2" NCoef="0" IVar="-1" Cut="0.0000000000000000e+00" cType="1" res="4.6712853945791721e-03" rms="3.7576529383659363e-01" purity="3.1804171204566956e-01" nType="-99"/>
        </Node>
      </Node>
    </BinaryTree>
    <BinaryTree type="DecisionTree" boostWeight="1.0000000000000000e+00" itree="388">
      <Node pos="s" depth="0" NCoef="0" IVar="6" Cut="-1.1916217803955078e+00" cType="1" res="-3.5154100041836500e-03" rms="3.8566988706588745e-01" purity="4.9659255146980286e-01" nType="0">
        <Node pos="l" depth="1" NCoef="0" IVar="9" Cut="6.6673380136489868e-01" cType="1" res="-2.1382568404078484e-02" rms="3.4658363461494446e-01" purity="2.4214963614940643e-01" nType="0">
          <Node pos="l" depth="2" NCoef="0" IVar="7" Cut="-1.3340270519256592e-01" cType="1" res="-1.2141123414039612e-02" rms="3.5575538873672485e-01" purity="2.6132166385650635e-01" nType="0">
            <Node pos="l" depth="3" NCoef="0" IVar="-1" Cut="0.0000000000000000e+00" cType="1" res="-2.1391639485955238e-02" rms="3.3764290809631348e-01" purity="2.2683939337730408e-01" nType="-99"/>
            <Node pos="r" depth="3" NCoef="0" IVar="-1" Cut="0.0000000000000000e+00" cType="1" res="2.7199995238333941e-03" rms="3.7402939796447754e-01" purity="2.9927760362625122e-01" nType="-99"/>
          </Node>
          <Node pos="r" depth="2" NCoef="0" IVar="-1" Cut="0.0000000000000000e+00" cType="1" res="-3.6652196198701859e-02" rms="3.1768849492073059e-01" purity="1.8778742849826813e-01" nType="-99"/>
        </Node>
        <Node pos="r" depth="1" NCoef="0" IVar="6" Cut="1.4693428277969360e+00" cType="1" res="-1.3864587526768446e-03" rms="3.9001154899597168e-01" purity="5.2691054344177246e-01" nType="0">
          <Node pos="l" depth="2" NCoef="0" IVar="6" Cut="9.6248787641525269e-01" cType="1" res="-4.2319510248489678e-04" rms="3.9519786834716797e-01" purity="5.5459600687026978e-01" nType="0">
            <Node pos="l" depth="3" NCoef="0" IVar="-1" Cut="0.0000000000000000e+00" cType="1" res="-1.0744387982413173e-03" rms="3.9557570219039917e-01" purity="5.7469576597213745e-01" nType="-99"/>
            <Node pos="r" depth="3" NCoef="0" IVar="-1" Cut="0.0000000000000000e+00" cType="1" res="6.4869192428886890e-03" rms="3.9210686087608337e-01" purity="3.9841750264167786e-01" nType="-99"/>
          </Node>
          <Node pos="r" depth="2" NCoef="0" IVar="9" Cut="6.6662102937698364e-01" cType="1" res="-1.3265516608953476e-02" rms="3.1896051764488220e-01" purity="1.8549108505249023e-01" nType="0">
            <Node pos="l" depth="3" NCoef="0" IVar="-1" Cut="0.0000000000000000e+00" cType="1" res="-2.2076996043324471e-02" rms="3.1748604774475098e-01" purity="1.9889667630195618e-01" nType="-99"/>
            <Node pos="r" depth="3" NCoef="0" IVar="-1" Cut="0.0000000000000000e+00" cType="1" res="7.0008714683353901e-03" rms="3.2016977667808533e-01" purity="1.6501988470554352e-01" nType="-99"/>
          </Node>
        </Node>
      </Node>
    </BinaryTree>
    <BinaryTree type="DecisionTree" boostWeight="1.0000000000000000e+00" itree="389">
      <Node pos="s" depth="0" NCoef="0" IVar="1" Cut="1.1148192138671875e+03" cType="1" res="2.1307263523340225e-03" rms="3.8766115903854370e-01" purity="5.0198155641555786e-01" nType="0">
        <Node pos="l" depth="1" NCoef="0" IVar="3" Cut="1.1776248168945312e+02" cType="1" res="9.2415576800704002e-03" rms="3.8556259870529175e-01" purity="2.5421407818794250e-01" nType="0">
          <Node pos="l" depth="2" NCoef="0" IVar="5" Cut="6.2374637603759766e+01" cType="1" res="-9.7949821501970291e-03" rms="3.1850549578666687e-01" purity="1.3638305664062500e-01" nType="0">
            <Node pos="l" depth="3" NCoef="0" IVar="-1" Cut="0.0000000000000000e+00" cType="1" res="1.2262308038771152e-02" rms="3.0786171555519104e-01" purity="1.2082950770854950e-01" nType="-99"/>
            <Node pos="r" depth="3" NCoef="0" IVar="-1" Cut="0.0000000000000000e+00" cType="1" res="-2.7923777699470520e-02" rms="3.3027598261833191e-01" purity="1.5739379823207855e-01" nType="-99"/>
          </Node>
          <Node pos="r" depth="2" NCoef="0" IVar="8" Cut="9.3340677022933960e-01" cType="1" res="1.7402473837137222e-02" rms="4.1070252656936646e-01" purity="3.0472794175148010e-01" nType="0">
            <Node pos="l" depth="3" NCoef="0" IVar="-1" Cut="0.0000000000000000e+00" cType="1" res="6.8774940446019173e-03" rms="4.1419148445129395e-01" purity="3.1873136758804321e-01" nType="-99"/>
            <Node pos="r" depth="3" NCoef="0" IVar="-1" Cut="0.0000000000000000e+00" cType="1" res="2.4325860664248466e-02" rms="3.9913818240165710e-01" purity="2.6112505793571472e-01" nType="-99"/>
          </Node>
        </Node>
        <Node pos="r" depth="1" NCoef="0" IVar="6" Cut="1.2207425832748413e+00" cType="1" res="-1.4720062026754022e-03" rms="3.8867044448852539e-01" purity="6.2751406431198120e-01" nType="0">
          <Node pos="l" depth="2" NCoef="0" IVar="9" Cut="1.3331040740013123e-01" cType="1" res="-3.9093568921089172e-03" rms="3.8834422826766968e-01" purity="6.5072363615036011e-01" nType="0">
            <Node pos="l" depth="3" NCoef="0" IVar="-1" Cut="0.0000000000000000e+00" cType="1" res="1.6829904634505510e-03" rms="3.8926374912261963e-01" purity="6.5976166725158691e-01" nType="-99"/>
            <Node pos="r" depth="3" NCoef="0" IVar="-1" Cut="0.0000000000000000e+00" cType="1" res="-7.8338077291846275e-03" rms="3.8702368736267090e-01" purity="6.3929033279418945e-01" nType="-99"/>
          </Node>
          <Node pos="r" depth="2" NCoef="0" IVar="8" Cut="1.3311332464218140e-01" cType="1" res="2.4505525827407837e-02" rms="3.9118802547454834e-01" purity="3.8014394044876099e-01" nType="0">
            <Node pos="l" depth="3" NCoef="0" IVar="-1" Cut="0.0000000000000000e+00" cType="1" res="2.9994541779160500e-02" rms="4.0494605898857117e-01" purity="4.2449179291725159e-01" nType="-99"/>
            <Node pos="r" depth="3" NCoef="0" IVar="-1" Cut="0.0000000000000000e+00" cType="1" res="-3.2384647056460381e-04" rms="3.7441673874855042e-01" purity="3.3306616544723511e-01" nType="-99"/>
          </Node>
        </Node>
      </Node>
    </BinaryTree>
    <BinaryTree type="DecisionTree" boostWeight="1.0000000000000000e+00" itree="390">
      <Node pos="s" depth="0" NCoef="0" IVar="1" Cut="1.3357766113281250e+03" cType="1" res="-2.1647848188877106e-03" rms="3.8456049561500549e-01" purity="5.0094854831695557e-01" nType="0">
        <Node pos="l" depth="1" NCoef="0" IVar="8" Cut="-3.9999800920486450e-01" cType="1" res="-7.5738378800451756e-03" rms="3.9713442325592041e-01" purity="3.3945968747138977e-01" nType="0">
          <Node pos="l" depth="2" NCoef="0" IVar="5" Cut="7.2750213623046875e+01" cType="1" res="-1.7644468694925308e-02" rms="3.8845342397689819e-01" purity="3.0622902512550354e-01" nType="0">
            <Node pos="l" depth="3" NCoef="0" IVar="-1" Cut="0.0000000000000000e+00" cType="1" res="-5.5270493030548096e-03" rms="3.6496365070343018e-01" purity="2.2295130789279938e-01" nType="-99"/>
            <Node pos="r" depth="3" NCoef="0" IVar="-1" Cut="0.0000000000000000e+00" cType="1" res="-1.6489043831825256e-02" rms="4.1491195559501648e-01" purity="4.0752831101417542e-01" nType="-99"/>
          </Node>
          <Node pos="r" depth="2" NCoef="0" IVar="7" Cut="-4.0000015497207642e-01" cType="1" res="-1.6004360513761640e-03" rms="4.0207585692405701e-01" purity="3.5917049646377563e-01" nType="0">
            <Node pos="l" depth="3" NCoef="0" IVar="-1" Cut="0.0000000000000000e+00" cType="1" res="8.2924701273441315e-03" rms="3.9974516630172729e-01" purity="3.5433918237686157e-01" nType="-99"/>
            <Node pos="r" depth="3" NCoef="0" IVar="-1" Cut="0.0000000000000000e+00" cType="1" res="-5.7979538105428219e-03" rms="4.0308934450149536e-01" purity="3.6176410317420959e-01" nType="-99"/>
          </Node>
        </Node>
        <Node pos="r" depth="1" NCoef="0" IVar="0" Cut="5.4809173583984375e+02" cType="1" res="5.2439323626458645e-03" rms="3.6650946736335754e-01" purity="7.2213786840438843e-01" nType="0">
          <Node pos="l" depth="2" NCoef="0" IVar="4" Cut="1.3043084716796875e+02" cType="1" res="1.1018425226211548e-02" rms="3.8743469119071960e-01" purity="6.5298396348953247e-01" nType="0">
            <Node pos="l" depth="3" NCoef="0" IVar="-1" Cut="0.0000000000000000e+00" cType="1" res="1.8981268629431725e-02" rms="4.0965178608894348e-01" purity="4.5834532380104065e-01" nType="-99"/>
            <Node pos="r" depth="3" NCoef="0" IVar="-1" Cut="0.0000000000000000e+00" cType="1" res="3.4496269654482603e-03" rms="3.8093385100364685e-01" purity="7.0607197284698486e-01" nType="-99"/>
          </Node>
          <Node pos="r" depth="2" NCoef="0" IVar="5" Cut="8.5091270446777344e+01" cType="1" res="-1.6260215779766440e-03" rms="3.3981314301490784e-01" purity="8.0441075563430786e-01" nType="0">
            <Node pos="l" depth="3" NCoef="0" IVar="-1" Cut="0.0000000000000000e+00" cType="1" res="-6.7542670294642448e-03" rms="4.1420519351959229e-01" purity="6.4843726158142090e-01" nType="-99"/>
            <Node pos="r" depth="3" NCoef="0" IVar="-1" Cut="0.0000000000000000e+00" cType="1" res="3.9177779108285904e-03" rms="2.9490908980369568e-01" purity="8.8344246149063110e-01" nType="-99"/>
          </Node>
        </Node>
      </Node>
    </BinaryTree>
    <BinaryTree type="DecisionTree" boostWeight="1.0000000000000000e+00" itree="391">
      <Node pos="s" depth="0" NCoef="0" IVar="3" Cut="1.4458445739746094e+02" cType="1" res="1.9471944542601705e-03" rms="3.8804796338081360e-01" purity="5.0066876411437988e-01" nType="0">
        <Node pos="l" depth="1" NCoef="0" IVar="1" Cut="1.0999007568359375e+03" cType="1" res="1.5341606922447681e-02" rms="3.7962371110916138e-01" purity="2.5437539815902710e-01" nType="0">
          <Node pos="l" depth="2" NCoef="0" IVar="1" Cut="9.4281146240234375e+02" cType="1" res="7.7961939387023449e-03" rms="3.5665762424468994e-01" purity="1.8897509574890137e-01" nType="0">
            <Node pos="l" depth="3" NCoef="0" IVar="-1" Cut="0.0000000000000000e+00" cType="1" res="-9.4354841858148575e-03" rms="3.1111726164817810e-01" purity="1.2556435167789459e-01" nType="-99"/>
            <Node pos="r" depth="3" NCoef="0" IVar="-1" Cut="0.0000000000000000e+00" cType="1" res="1.7877047881484032e-02" rms="3.9700177311897278e-01" purity="2.5374278426170349e-01" nType="-99"/>
          </Node>
          <Node pos="r" depth="2" NCoef="0" IVar="9" Cut="-3.9970803260803223e-01" cType="1" res="3.3723153173923492e-02" rms="4.2991992831230164e-01" purity="4.1369852423667908e-01" nType="0">
            <Node pos="l" depth="3" NCoef="0" IVar="-1" Cut="0.0000000000000000e+00" cType="1" res="4.2909048497676849e-03" rms="4.1959366202354431e-01" purity="3.8355886936187744e-01" nType="-99"/>
            <Node pos="r" depth="3" NCoef="0" IVar="-1" Cut="0.0000000000000000e+00" cType="1" res="2.7438102290034294e-02" rms="4.3520331382751465e-01" purity="4.3165528774261475e-01" nType="-99"/>
          </Node>
        </Node>
        <Node pos="r" depth="1" NCoef="0" IVar="6" Cut="1.5588331222534180e-01" cType="1" res="-2.3315313737839460e-03" rms="3.9060398936271667e-01" purity="5.7934498786926270e-01" nType="0">
          <Node pos="l" depth="2" NCoef="0" IVar="7" Cut="1.4663655757904053e+00" cType="1" res="3.0401502735912800e-03" rms="3.9242392778396606e-01" purity="6.0102546215057373e-01" nType="0">
            <Node pos="l" depth="3" NCoef="0" IVar="-1" Cut="0.0000000000000000e+00" cType="1" res="3.2056134659796953e-03" rms="3.9565625786781311e-01" purity="6.2525385618209839e-01" nType="-99"/>
            <Node pos="r" depth="3" NCoef="0" IVar="-1" Cut="0.0000000000000000e+00" cType="1" res="-1.5522020868957043e-02" rms="3.4778907895088196e-01" purity="2.9338374733924866e-01" nType="-99"/>
          </Node>
          <Node pos="r" depth="2" NCoef="0" IVar="9" Cut="1.4666565656661987e+00" cType="1" res="-9.7084343433380127e-03" rms="3.8796955347061157e-01" purity="5.4957133531570435e-01" nType="0">
            <Node pos="l" depth="3" NCoef="0" IVar="-1" Cut="0.0000000000000000e+00" cType="1" res="-8.2655949518084526e-03" rms="3.8858509063720703e-01" purity="5.6350821256637573e-01" nType="-99"/>
            <Node pos="r" depth="3" NCoef="0" IVar="-1" Cut="0.0000000000000000e+00" cType="1" res="5.4379813373088837e-03" rms="3.8373231887817383e-01" purity="4.6509811282157898e-01" nType="-99"/>
          </Node>
        </Node>
      </Node>
    </BinaryTree>
    <BinaryTree type="DecisionTree" boostWeight="1.0000000000000000e+00" itree="392">
      <Node pos="s" depth="0" NCoef="0" IVar="7" Cut="1.2000666856765747e+00" cType="1" res="-2.6930314488708973e-03" rms="3.8638076186180115e-01" purity="4.9723142385482788e-01" nType="0">
        <Node pos="l" depth="1" NCoef="0" IVar="9" Cut="-1.3334208726882935e-01" cType="1" res="-4.7435364685952663e-03" rms="3.8898426294326782e-01" purity="5.2586400508880615e-01" nType="0">
          <Node pos="l" depth="2" NCoef="0" IVar="1" Cut="1.4400817871093750e+03" cType="1" res="-1.1168005876243114e-02" rms="3.8988339900970459e-01" purity="5.0761377811431885e-01" nType="0">
            <Node pos="l" depth="3" NCoef="0" IVar="-1" Cut="0.0000000000000000e+00" cType="1" res="-1.1286700144410133e-02" rms="4.0275901556015015e-01" purity="3.7886664271354675e-01" nType="-99"/>
            <Node pos="r" depth="3" NCoef="0" IVar="-1" Cut="0.0000000000000000e+00" cType="1" res="2.8971768915653229e-03" rms="3.6263257265090942e-01" purity="7.6208329200744629e-01" nType="-99"/>
          </Node>
          <Node pos="r" depth="2" NCoef="0" IVar="6" Cut="6.7062079906463623e-01" cType="1" res="8.9639937505125999e-04" rms="3.8810554146766663e-01" purity="5.4188561439514160e-01" nType="0">
            <Node pos="l" depth="3" NCoef="0" IVar="-1" Cut="0.0000000000000000e+00" cType="1" res="4.5672240667045116e-03" rms="3.9189407229423523e-01" purity="5.9486705064773560e-01" nType="-99"/>
            <Node pos="r" depth="3" NCoef="0" IVar="-1" Cut="0.0000000000000000e+00" cType="1" res="-1.2122196145355701e-02" rms="3.7598937749862671e-01" purity="3.8422718644142151e-01" nType="-99"/>
          </Node>
        </Node>
        <Node pos="r" depth="1" NCoef="0" IVar="7" Cut="2.1143066883087158e+00" cType="1" res="1.0499350726604462e-02" rms="3.6891937255859375e-01" purity="3.1301710009574890e-01" nType="0">
          <Node pos="l" depth="2" NCoef="0" IVar="5" Cut="9.6211425781250000e+01" cType="1" res="1.6673499718308449e-02" rms="3.8397487998008728e-01" purity="3.5054004192352295e-01" nType="0">
            <Node pos="l" depth="3" NCoef="0" IVar="-1" Cut="0.0000000000000000e+00" cType="1" res="1.8398232758045197e-02" rms="3.7450841069221497e-01" purity="2.6006489992141724e-01" nType="-99"/>
            <Node pos="r" depth="3" NCoef="0" IVar="-1" Cut="0.0000000000000000e+00" cType="1" res="-2.0310021936893463e-03" rms="4.0587154030799866e-01" purity="5.7552117109298706e-01" nType="-99"/>
          </Node>
          <Node pos="r" depth="2" NCoef="0" IVar="-1" Cut="0.0000000000000000e+00" cType="1" res="-1.3600178994238377e-02" rms="2.9977044463157654e-01" purity="1.6248847544193268e-01" nType="-99"/>
        </Node>
      </Node>
    </BinaryTree>
    <BinaryTree type="DecisionTree" boostWeight="1.0000000000000000e+00" itree="393">
      <Node pos="s" depth="0" NCoef="0" IVar="8" Cut="1.4666451215744019e+00" cType="1" res="-2.4515323457308114e-04" rms="3.8765460252761841e-01" purity="4.9750629067420959e-01" nType="0">
        <Node pos="l" depth="1" NCoef="0" IVar="9" Cut="1.2000041007995605e+00" cType="1" res="1.5736455097794533e-03" rms="3.8935333490371704e-01" purity="5.2140820026397705e-01" nType="0">
          <Node pos="l" depth="2" NCoef="0" IVar="6" Cut="1.7352451086044312e+00" cType="1" res="4.4924831017851830e-03" rms="3.9000955224037170e-01" purity="5.3576916456222534e-01" nType="0">
            <Node pos="l" depth="3" NCoef="0" IVar="-1" Cut="0.0000000000000000e+00" cType="1" res="1.9746655598282814e-03" rms="3.9091983437538147e-01" purity="5.4684352874755859e-01" nType="-99"/>
            <Node pos="r" depth="3" NCoef="0" IVar="-1" Cut="0.0000000000000000e+00" cType="1" res="3.7472743541002274e-02" rms="3.6290326714515686e-01" purity="2.4181041121482849e-01" nType="-99"/>
          </Node>
          <Node pos="r" depth="2" NCoef="0" IVar="6" Cut="-5.8089077472686768e-01" cType="1" res="-1.3510324992239475e-02" rms="3.8559225201606750e-01" purity="4.4719344377517700e-01" nType="0">
            <Node pos="l" depth="3" NCoef="0" IVar="-1" Cut="0.0000000000000000e+00" cType="1" res="6.1891102232038975e-03" rms="3.8792300224304199e-01" purity="3.6700013279914856e-01" nType="-99"/>
            <Node pos="r" depth="3" NCoef="0" IVar="-1" Cut="0.0000000000000000e+00" cType="1" res="-1.3607625849545002e-02" rms="3.8454097509384155e-01" purity="4.7319602966308594e-01" nType="-99"/>
          </Node>
        </Node>
        <Node pos="r" depth="1" NCoef="0" IVar="9" Cut="1.2002474069595337e+00" cType="1" res="-1.6108816489577293e-02" rms="3.7213337421417236e-01" purity="2.8903251886367798e-01" nType="0">
          <Node pos="l" depth="2" NCoef="0" IVar="8" Cut="1.7841073274612427e+00" cType="1" res="-2.5763461366295815e-02" rms="3.7730789184570312e-01" purity="3.1071633100509644e-01" nType="0">
            <Node pos="l" depth="3" NCoef="0" IVar="-1" Cut="0.0000000000000000e+00" cType="1" res="-3.2478943467140198e-02" rms="3.8597160577774048e-01" purity="3.3756983280181885e-01" nType="-99"/>
            <Node pos="r" depth="3" NCoef="0" IVar="-1" Cut="0.0000000000000000e+00" cType="1" res="-7.3788329027593136e-03" rms="3.7098732590675354e-01" purity="2.9398992657661438e-01" nType="-99"/>
          </Node>
          <Node pos="r" depth="2" NCoef="0" IVar="-1" Cut="0.0000000000000000e+00" cType="1" res="1.0425856336951256e-02" rms="3.5474875569343567e-01" purity="2.2453655302524567e-01" nType="-99"/>
        </Node>
      </Node>
    </BinaryTree>
    <BinaryTree type="DecisionTree" boostWeight="1.0000000000000000e+00" itree="394">
      <Node pos="s" depth="0" NCoef="0" IVar="4" Cut="2.6967068481445312e+02" cType="1" res="-2.6116955559700727e-03" rms="3.8577958941459656e-01" purity="4.9628713726997375e-01" nType="0">
        <Node pos="l" depth="1" NCoef="0" IVar="7" Cut="-4.0009403228759766e-01" cType="1" res="-1.7197261331602931e-03" rms="3.8688990473747253e-01" purity="4.8612466454505920e-01" nType="0">
          <Node pos="l" depth="2" NCoef="0" IVar="5" Cut="1.4257095336914062e+02" cType="1" res="-7.8606968745589256e-03" rms="3.8049888610839844e-01" purity="4.3541926145553589e-01" nType="0">
            <Node pos="l" depth="3" NCoef="0" IVar="-1" Cut="0.0000000000000000e+00" cType="1" res="-7.0417583920061588e-03" rms="3.8581958413124084e-01" purity="3.9149761199951172e-01" nType="-99"/>
            <Node pos="r" depth="3" NCoef="0" IVar="-1" Cut="0.0000000000000000e+00" cType="1" res="1.4437282457947731e-02" rms="3.2990077137947083e-01" purity="8.1485170125961304e-01" nType="-99"/>
          </Node>
          <Node pos="r" depth="2" NCoef="0" IVar="8" Cut="-4.0000033378601074e-01" cType="1" res="1.6443802742287517e-03" rms="3.9030563831329346e-01" purity="5.1390177011489868e-01" nType="0">
            <Node pos="l" depth="3" NCoef="0" IVar="-1" Cut="0.0000000000000000e+00" cType="1" res="7.4923355132341385e-03" rms="3.9378631114959717e-01" purity="5.0980287790298462e-01" nType="-99"/>
            <Node pos="r" depth="3" NCoef="0" IVar="-1" Cut="0.0000000000000000e+00" cType="1" res="-2.4133624974638224e-03" rms="3.8833606243133545e-01" purity="5.1608282327651978e-01" nType="-99"/>
          </Node>
        </Node>
        <Node pos="r" depth="1" NCoef="0" IVar="-1" Cut="0.0000000000000000e+00" cType="1" res="-2.3257087916135788e-02" rms="3.5317787528038025e-01" purity="7.7435421943664551e-01" nType="-99"/>
      </Node>
    </BinaryTree>
    <BinaryTree type="DecisionTree" boostWeight="1.0000000000000000e+00" itree="395">
      <Node pos="s" depth="0" NCoef="0" IVar="6" Cut="-9.2584401369094849e-01" cType="1" res="-9.5739774405956268e-04" rms="3.8751804828643799e-01" purity="4.9741235375404358e-01" nType="0">
        <Node pos="l" depth="1" NCoef="0" IVar="8" Cut="-3.9999893307685852e-01" cType="1" res="-1.1750391684472561e-02" rms="3.6575117707252502e-01" purity="3.0415874719619751e-01" nType="0">
          <Node pos="l" depth="2" NCoef="0" IVar="8" Cut="-1.2000091075897217e+00" cType="1" res="6.9986883318051696e-04" rms="3.6521106958389282e-01" purity="2.8818368911743164e-01" nType="0">
            <Node pos="l" depth="3" NCoef="0" IVar="-1" Cut="0.0000000000000000e+00" cType="1" res="-2.4435121566057205e-02" rms="3.1446558237075806e-01" purity="1.6587556898593903e-01" nType="-99"/>
            <Node pos="r" depth="3" NCoef="0" IVar="-1" Cut="0.0000000000000000e+00" cType="1" res="1.4626380056142807e-02" rms="3.9979860186576843e-01" purity="3.8579255342483521e-01" nType="-99"/>
          </Node>
          <Node pos="r" depth="2" NCoef="0" IVar="7" Cut="-6.6670531034469604e-01" cType="1" res="-2.2139027714729309e-02" rms="3.6587715148925781e-01" purity="3.1748849153518677e-01" nType="0">
            <Node pos="l" depth="3" NCoef="0" IVar="-1" Cut="0.0000000000000000e+00" cType="1" res="-3.9479937404394150e-02" rms="3.3597117662429810e-01" purity="2.1846194565296173e-01" nType="-99"/>
            <Node pos="r" depth="3" NCoef="0" IVar="-1" Cut="0.0000000000000000e+00" cType="1" res="-6.3459808006882668e-03" rms="3.7679266929626465e-01" purity="3.5833799839019775e-01" nType="-99"/>
          </Node>
        </Node>
        <Node pos="r" depth="1" NCoef="0" IVar="9" Cut="2.2666757106781006e+00" cType="1" res="1.1585002066567540e-03" rms="3.9160862565040588e-01" purity="5.3529852628707886e-01" nType="0">
          <Node pos="l" depth="2" NCoef="0" IVar="8" Cut="-2.0000123977661133e+00" cType="1" res="6.3757135649211705e-05" rms="3.9123117923736572e-01" purity="5.4026138782501221e-01" nType="0">
            <Node pos="l" depth="3" NCoef="0" IVar="-1" Cut="0.0000000000000000e+00" cType="1" res="-2.0386047661304474e-02" rms="3.5091489553451538e-01" purity="2.3516476154327393e-01" nType="-99"/>
            <Node pos="r" depth="3" NCoef="0" IVar="-1" Cut="0.0000000000000000e+00" cType="1" res="7.3645438533276320e-04" rms="3.9269560575485229e-01" purity="5.5227935314178467e-01" nType="-99"/>
          </Node>
          <Node pos="r" depth="2" NCoef="0" IVar="-1" Cut="0.0000000000000000e+00" cType="1" res="2.2186446934938431e-02" rms="4.0135487914085388e-01" purity="3.8687857985496521e-01" nType="-99"/>
        </Node>
      </Node>
    </BinaryTree>
    <BinaryTree type="DecisionTree" boostWeight="1.0000000000000000e+00" itree="396">
      <Node pos="s" depth="0" NCoef="0" IVar="8" Cut="9.3331480026245117e-01" cType="1" res="3.8837797474116087e-03" rms="3.8724833726882935e-01" purity="4.9971044063568115e-01" nType="0">
        <Node pos="l" depth="1" NCoef="0" IVar="2" Cut="6.1997485351562500e+02" cType="1" res="9.3186186859384179e-04" rms="3.8757380843162537e-01" purity="5.2511638402938843e-01" nType="0">
          <Node pos="l" depth="2" NCoef="0" IVar="0" Cut="3.7125003051757812e+02" cType="1" res="-8.7875570170581341e-04" rms="3.8693708181381226e-01" purity="5.1794320344924927e-01" nType="0">
            <Node pos="l" depth="3" NCoef="0" IVar="-1" Cut="0.0000000000000000e+00" cType="1" res="-4.6814805828034878e-03" rms="3.8847696781158447e-01" purity="3.1989046931266785e-01" nType="-99"/>
            <Node pos="r" depth="3" NCoef="0" IVar="-1" Cut="0.0000000000000000e+00" cType="1" res="1.8732969183474779e-03" rms="3.8600769639015198e-01" purity="6.3094711303710938e-01" nType="-99"/>
          </Node>
          <Node pos="r" depth="2" NCoef="0" IVar="4" Cut="1.6131666564941406e+02" cType="1" res="2.3221321403980255e-02" rms="3.9464807510375977e-01" purity="6.1342138051986694e-01" nType="0">
            <Node pos="l" depth="3" NCoef="0" IVar="-1" Cut="0.0000000000000000e+00" cType="1" res="-2.2278478718362749e-04" rms="4.0769070386886597e-01" purity="4.8606088757514954e-01" nType="-99"/>
            <Node pos="r" depth="3" NCoef="0" IVar="-1" Cut="0.0000000000000000e+00" cType="1" res="3.0383311212062836e-02" rms="3.7844240665435791e-01" purity="7.5068902969360352e-01" nType="-99"/>
          </Node>
        </Node>
        <Node pos="r" depth="1" NCoef="0" IVar="7" Cut="3.9990356564521790e-01" cType="1" res="1.4733693562448025e-02" rms="3.8585570454597473e-01" purity="4.0632957220077515e-01" nType="0">
          <Node pos="l" depth="2" NCoef="0" IVar="8" Cut="1.3777757883071899e+00" cType="1" res="2.0693168044090271e-02" rms="3.9348909258842468e-01" purity="4.4825983047485352e-01" nType="0">
            <Node pos="l" depth="3" NCoef="0" IVar="-1" Cut="0.0000000000000000e+00" cType="1" res="1.4181252336129546e-03" rms="3.8612753152847290e-01" purity="5.2262967824935913e-01" nType="-99"/>
            <Node pos="r" depth="3" NCoef="0" IVar="-1" Cut="0.0000000000000000e+00" cType="1" res="2.3629391565918922e-02" rms="3.9872005581855774e-01" purity="3.8810256123542786e-01" nType="-99"/>
          </Node>
          <Node pos="r" depth="2" NCoef="0" IVar="8" Cut="1.3777598142623901e+00" cType="1" res="6.4325663261115551e-03" rms="3.7480616569519043e-01" purity="3.4792378544807434e-01" nType="0">
            <Node pos="l" depth="3" NCoef="0" IVar="-1" Cut="0.0000000000000000e+00" cType="1" res="1.5449092723429203e-02" rms="4.0051069855690002e-01" purity="4.4803729653358459e-01" nType="-99"/>
            <Node pos="r" depth="3" NCoef="0" IVar="-1" Cut="0.0000000000000000e+00" cType="1" res="-4.4718850404024124e-03" rms="3.5396945476531982e-01" purity="2.7342671155929565e-01" nType="-99"/>
          </Node>
        </Node>
      </Node>
    </BinaryTree>
    <BinaryTree type="DecisionTree" boostWeight="1.0000000000000000e+00" itree="397">
      <Node pos="s" depth="0" NCoef="0" IVar="8" Cut="1.1999899148941040e+00" cType="1" res="-1.1375372996553779e-03" rms="3.8629215955734253e-01" purity="4.9808332324028015e-01" nType="0">
        <Node pos="l" depth="1" NCoef="0" IVar="4" Cut="9.6877296447753906e+01" cType="1" res="-2.7990455273538828e-03" rms="3.8656777143478394e-01" purity="5.2139729261398315e-01" nType="0">
          <Node pos="l" depth="2" NCoef="0" IVar="7" Cut="4.0007755160331726e-01" cType="1" res="-1.0005579330027103e-02" rms="3.7081885337829590e-01" purity="2.3672875761985779e-01" nType="0">
            <Node pos="l" depth="3" NCoef="0" IVar="-1" Cut="0.0000000000000000e+00" cType="1" res="-2.0959302783012390e-03" rms="3.8039448857307434e-01" purity="2.5219583511352539e-01" nType="-99"/>
            <Node pos="r" depth="3" NCoef="0" IVar="-1" Cut="0.0000000000000000e+00" cType="1" res="-1.6135556623339653e-02" rms="3.5273808240890503e-01" purity="2.0910871028900146e-01" nType="-99"/>
          </Node>
          <Node pos="r" depth="2" NCoef="0" IVar="2" Cut="3.2486703491210938e+02" cType="1" res="-6.8221343099139631e-05" rms="3.9233592152595520e-01" purity="6.2926888465881348e-01" nType="0">
            <Node pos="l" depth="3" NCoef="0" IVar="-1" Cut="0.0000000000000000e+00" cType="1" res="3.2809658441692591e-03" rms="4.0641069412231445e-01" purity="5.9333598613739014e-01" nType="-99"/>
            <Node pos="r" depth="3" NCoef="0" IVar="-1" Cut="0.0000000000000000e+00" cType="1" res="-2.6875068433582783e-03" rms="3.8213670253753662e-01" purity="6.5439963340759277e-01" nType="-99"/>
          </Node>
        </Node>
        <Node pos="r" depth="1" NCoef="0" IVar="8" Cut="1.5047540664672852e+00" cType="1" res="8.0935815349221230e-03" rms="3.8462662696838379e-01" purity="3.6855369806289673e-01" nType="0">
          <Node pos="l" depth="2" NCoef="0" IVar="8" Cut="1.3451107740402222e+00" cType="1" res="3.2448157668113708e-02" rms="3.9998748898506165e-01" purity="4.7415626049041748e-01" nType="0">
            <Node pos="l" depth="3" NCoef="0" IVar="-1" Cut="0.0000000000000000e+00" cType="1" res="1.7703669145703316e-02" rms="3.9859768748283386e-01" purity="4.6777424216270447e-01" nType="-99"/>
            <Node pos="r" depth="3" NCoef="0" IVar="-1" Cut="0.0000000000000000e+00" cType="1" res="2.3335987702012062e-02" rms="4.0136033296585083e-01" purity="4.8083254694938660e-01" nType="-99"/>
          </Node>
          <Node pos="r" depth="2" NCoef="0" IVar="4" Cut="1.1813182830810547e+02" cType="1" res="-5.2843783050775528e-03" rms="3.7524992227554321e-01" purity="3.1054621934890747e-01" nType="0">
            <Node pos="l" depth="3" NCoef="0" IVar="-1" Cut="0.0000000000000000e+00" cType="1" res="7.2064511477947235e-03" rms="3.5657706856727600e-01" purity="2.2309145331382751e-01" nType="-99"/>
            <Node pos="r" depth="3" NCoef="0" IVar="-1" Cut="0.0000000000000000e+00" cType="1" res="-1.6200527548789978e-02" rms="4.0003538131713867e-01" purity="4.3824917078018188e-01" nType="-99"/>
          </Node>
        </Node>
      </Node>
    </BinaryTree>
    <BinaryTree type="DecisionTree" boostWeight="1.0000000000000000e+00" itree="398">
      <Node pos="s" depth="0" NCoef="0" IVar="4" Cut="1.0560417175292969e+02" cType="1" res="-2.3907239083200693e-03" rms="3.8769555091857910e-01" purity="4.9448531866073608e-01" nType="0">
        <Node pos="l" depth="1" NCoef="0" IVar="9" Cut="9.3332964181900024e-01" cType="1" res="6.4280731603503227e-03" rms="3.8170570135116577e-01" purity="2.7099612355232239e-01" nType="0">
          <Node pos="l" depth="2" NCoef="0" IVar="5" Cut="7.1097587585449219e+01" cType="1" res="1.2699227780103683e-02" rms="3.9074802398681641e-01" purity="2.8572595119476318e-01" nType="0">
            <Node pos="l" depth="3" NCoef="0" IVar="-1" Cut="0.0000000000000000e+00" cType="1" res="1.4379806816577911e-02" rms="3.7689611315727234e-01" purity="2.4481409788131714e-01" nType="-99"/>
            <Node pos="r" depth="3" NCoef="0" IVar="-1" Cut="0.0000000000000000e+00" cType="1" res="-1.6812860267236829e-03" rms="4.1941013932228088e-01" purity="3.7644276022911072e-01" nType="-99"/>
          </Node>
          <Node pos="r" depth="2" NCoef="0" IVar="8" Cut="4.0003862977027893e-01" cType="1" res="-1.1761326342821121e-02" rms="3.5354635119438171e-01" purity="2.2827258706092834e-01" nType="0">
            <Node pos="l" depth="3" NCoef="0" IVar="-1" Cut="0.0000000000000000e+00" cType="1" res="-1.5633665025234222e-02" rms="3.6396256089210510e-01" purity="2.5225675106048584e-01" nType="-99"/>
            <Node pos="r" depth="3" NCoef="0" IVar="-1" Cut="0.0000000000000000e+00" cType="1" res="2.4308362044394016e-03" rms="3.3887559175491333e-01" purity="1.9689397513866425e-01" nType="-99"/>
          </Node>
        </Node>
        <Node pos="r" depth="1" NCoef="0" IVar="5" Cut="8.1792243957519531e+01" cType="1" res="-7.4363341554999352e-03" rms="3.9099186658859253e-01" purity="6.2235295772552490e-01" nType="0">
          <Node pos="l" depth="2" NCoef="0" IVar="7" Cut="-1.1999644041061401e+00" cType="1" res="-1.5700113028287888e-02" rms="4.1644686460494995e-01" purity="4.5071119070053101e-01" nType="0">
            <Node pos="l" depth="3" NCoef="0" IVar="-1" Cut="0.0000000000000000e+00" cType="1" res="1.4842738397419453e-02" rms="3.8881593942642212e-01" purity="3.0418682098388672e-01" nType="-99"/>
            <Node pos="r" depth="3" NCoef="0" IVar="-1" Cut="0.0000000000000000e+00" cType="1" res="-1.2158507481217384e-02" rms="4.2046177387237549e-01" purity="4.7462514042854309e-01" nType="-99"/>
          </Node>
          <Node pos="r" depth="2" NCoef="0" IVar="9" Cut="-1.1998802423477173e+00" cType="1" res="-3.9204708300530910e-03" rms="3.7959021329879761e-01" purity="6.9537878036499023e-01" nType="0">
            <Node pos="l" depth="3" NCoef="0" IVar="-1" Cut="0.0000000000000000e+00" cType="1" res="-1.2236237525939941e-02" rms="3.9954027533531189e-01" purity="5.8645713329315186e-01" nType="-99"/>
            <Node pos="r" depth="3" NCoef="0" IVar="-1" Cut="0.0000000000000000e+00" cType="1" res="-9.7134523093700409e-04" rms="3.7614706158638000e-01" purity="7.1329057216644287e-01" nType="-99"/>
          </Node>
        </Node>
      </Node>
    </BinaryTree>
    <BinaryTree type="DecisionTree" boostWeight="1.0000000000000000e+00" itree="399">
      <Node pos="s" depth="0" NCoef="0" IVar="6" Cut="-9.1652387380599976e-01" cType="1" res="2.3082315456122160e-03" rms="3.8697120547294617e-01" purity="5.0061291456222534e-01" nType="0">
        <Node pos="l" depth="1" NCoef="0" IVar="4" Cut="8.8781486511230469e+01" cType="1" res="1.5181826427578926e-02" rms="3.7617319822311401e-01" purity="3.4809872508049011e-01" nType="0">
          <Node pos="l" depth="2" NCoef="0" IVar="-1" Cut="0.0000000000000000e+00" cType="1" res="-9.4459010288119316e-03" rms="2.9134011268615723e-01" purity="1.1730669438838959e-01" nType="-99"/>
          <Node pos="r" depth="2" NCoef="0" IVar="8" Cut="-1.1986833810806274e+00" cType="1" res="2.3887833580374718e-02" rms="4.0226706862449646e-01" purity="4.3204340338706970e-01" nType="0">
            <Node pos="l" depth="3" NCoef="0" IVar="-1" Cut="0.0000000000000000e+00" cType="1" res="3.4087616950273514e-02" rms="3.7935104966163635e-01" purity="3.4164783358573914e-01" nType="-99"/>
            <Node pos="r" depth="3" NCoef="0" IVar="-1" Cut="0.0000000000000000e+00" cType="1" res="1.1106624267995358e-02" rms="4.0757063031196594e-01" purity="4.5463094115257263e-01" nType="-99"/>
          </Node>
        </Node>
        <Node pos="r" depth="1" NCoef="0" IVar="8" Cut="1.9999843835830688e+00" cType="1" res="-3.6994996480643749e-04" rms="3.8912642002105713e-01" purity="5.3234153985977173e-01" nType="0">
          <Node pos="l" depth="2" NCoef="0" IVar="8" Cut="8.5703849792480469e-01" cType="1" res="-1.4898795634508133e-03" rms="3.8961452245712280e-01" purity="5.4363822937011719e-01" nType="0">
            <Node pos="l" depth="3" NCoef="0" IVar="-1" Cut="0.0000000000000000e+00" cType="1" res="6.7784549901261926e-04" rms="3.8836649060249329e-01" purity="5.6469315290451050e-01" nType="-99"/>
            <Node pos="r" depth="3" NCoef="0" IVar="-1" Cut="0.0000000000000000e+00" cType="1" res="-7.4744811281561852e-03" rms="3.9441761374473572e-01" purity="4.5918536186218262e-01" nType="-99"/>
          </Node>
          <Node pos="r" depth="2" NCoef="0" IVar="-1" Cut="0.0000000000000000e+00" cType="1" res="1.7079968005418777e-02" rms="3.7781837582588196e-01" purity="2.9221984744071960e-01" nType="-99"/>
        </Node>
      </Node>
    </BinaryTree>
    <BinaryTree type="DecisionTree" boostWeight="1.0000000000000000e+00" itree="400">
      <Node pos="s" depth="0" NCoef="0" IVar="2" Cut="3.4596902465820312e+02" cType="1" res="-2.1311403252184391e-03" rms="3.8467204570770264e-01" purity="4.9996972084045410e-01" nType="0">
        <Node pos="l" depth="1" NCoef="0" IVar="0" Cut="3.4668658447265625e+02" cType="1" res="2.9554215725511312e-03" rms="3.9380314946174622e-01" purity="4.6770736575126648e-01" nType="0">
          <Node pos="l" depth="2" NCoef="0" IVar="3" Cut="1.4949694824218750e+02" cType="1" res="1.5195432119071484e-02" rms="3.8470822572708130e-01" purity="3.1289461255073547e-01" nType="0">
            <Node pos="l" depth="3" NCoef="0" IVar="-1" Cut="0.0000000000000000e+00" cType="1" res="-8.2194283604621887e-03" rms="3.2755911350250244e-01" purity="1.5742832422256470e-01" nType="-99"/>
            <Node pos="r" depth="3" NCoef="0" IVar="-1" Cut="0.0000000000000000e+00" cType="1" res="1.7429379746317863e-02" rms="4.1386729478836060e-01" purity="4.0404719114303589e-01" nType="-99"/>
          </Node>
          <Node pos="r" depth="2" NCoef="0" IVar="7" Cut="1.4667247533798218e+00" cType="1" res="-2.7045491151511669e-03" rms="3.9781117439270020e-01" purity="5.3929519653320312e-01" nType="0">
            <Node pos="l" depth="3" NCoef="0" IVar="-1" Cut="0.0000000000000000e+00" cType="1" res="-3.5247895866632462e-03" rms="3.9926600456237793e-01" purity="5.6065154075622559e-01" nType="-99"/>
            <Node pos="r" depth="3" NCoef="0" IVar="-1" Cut="0.0000000000000000e+00" cType="1" res="1.7980827018618584e-02" rms="3.8254922628402710e-01" purity="3.3593979477882385e-01" nType="-99"/>
          </Node>
        </Node>
        <Node pos="r" depth="1" NCoef="0" IVar="8" Cut="-1.4666690826416016e+00" cType="1" res="-7.4631981551647186e-03" rms="3.7478742003440857e-01" purity="5.3378921747207642e-01" nType="0">
          <Node pos="l" depth="2" NCoef="0" IVar="-1" Cut="0.0000000000000000e+00" cType="1" res="1.0286029428243637e-02" rms="3.8002446293830872e-01" purity="3.8677567243576050e-01" nType="-99"/>
          <Node pos="r" depth="2" NCoef="0" IVar="6" Cut="7.0342022180557251e-01" cType="1" res="-9.8887020722031593e-03" rms="3.7413886189460754e-01" purity="5.4960000514984131e-01" nType="0">
            <Node pos="l" depth="3" NCoef="0" IVar="-1" Cut="0.0000000000000000e+00" cType="1" res="-4.1167177259922028e-03" rms="3.7723854184150696e-01" purity="5.9486556053161621e-01" nType="-99"/>
            <Node pos="r" depth="3" NCoef="0" IVar="-1" Cut="0.0000000000000000e+00" cType="1" res="-1.8191065639257431e-02" rms="3.6117270588874817e-01" purity="3.6990946531295776e-01" nType="-99"/>
          </Node>
        </Node>
      </Node>
    </BinaryTree>
    <BinaryTree type="DecisionTree" boostWeight="1.0000000000000000e+00" itree="401">
      <Node pos="s" depth="0" NCoef="0" IVar="8" Cut="-2.0000078678131104e+00" cType="1" res="3.4418483846820891e-04" rms="3.8688048720359802e-01" purity="4.9867799878120422e-01" nType="0">
        <Node pos="l" depth="1" NCoef="0" IVar="-1" Cut="0.0000000000000000e+00" cType="1" res="2.7760745957493782e-02" rms="3.7555703520774841e-01" purity="2.7080601453781128e-01" nType="-99"/>
        <Node pos="r" depth="1" NCoef="0" IVar="9" Cut="-2.2666561603546143e+00" cType="1" res="-1.2423592852428555e-03" rms="3.8731884956359863e-01" purity="5.0914806127548218e-01" nType="0">
          <Node pos="l" depth="2" NCoef="0" IVar="-1" Cut="0.0000000000000000e+00" cType="1" res="-2.2493345662951469e-02" rms="3.6378204822540283e-01" purity="2.8017586469650269e-01" nType="-99"/>
          <Node pos="r" depth="2" NCoef="0" IVar="7" Cut="-3.9996048808097839e-01" cType="1" res="-4.0611985605210066e-04" rms="3.8790109753608704e-01" purity="5.1533830165863037e-01" nType="0">
            <Node pos="l" depth="3" NCoef="0" IVar="-1" Cut="0.0000000000000000e+00" cType="1" res="3.8824044167995453e-03" rms="3.8826867938041687e-01" purity="4.8248177766799927e-01" nType="-99"/>
            <Node pos="r" depth="3" NCoef="0" IVar="-1" Cut="0.0000000000000000e+00" cType="1" res="-2.5555843021720648e-03" rms="3.8765555620193481e-01" purity="5.3333181142807007e-01" nType="-99"/>
          </Node>
        </Node>
      </Node>
    </BinaryTree>
    <BinaryTree type="DecisionTree" boostWeight="1.0000000000000000e+00" itree="402">
      <Node pos="s" depth="0" NCoef="0" IVar="3" Cut="4.2677429199218750e+02" cType="1" res="-3.9214905700646341e-04" rms="3.8572725653648376e-01" purity="4.9848717451095581e-01" nType="0">
        <Node pos="l" depth="1" NCoef="0" IVar="7" Cut="-1.4665840864181519e+00" cType="1" res="-1.6763752792030573e-03" rms="3.8548305630683899e-01" purity="4.9160906672477722e-01" nType="0">
          <Node pos="l" depth="2" NCoef="0" IVar="3" Cut="1.4122764587402344e+02" cType="1" res="-1.9824255257844925e-02" rms="3.4678858518600464e-01" purity="2.3439890146255493e-01" nType="0">
            <Node pos="l" depth="3" NCoef="0" IVar="-1" Cut="0.0000000000000000e+00" cType="1" res="7.4106301181018353e-03" rms="3.1658521294593811e-01" purity="1.5429027378559113e-01" nType="-99"/>
            <Node pos="r" depth="3" NCoef="0" IVar="-1" Cut="0.0000000000000000e+00" cType="1" res="-2.3706141859292984e-02" rms="3.6047181487083435e-01" purity="2.7541163563728333e-01" nType="-99"/>
          </Node>
          <Node pos="r" depth="2" NCoef="0" IVar="9" Cut="-1.9999942779541016e+00" cType="1" res="1.0810721141751856e-04" rms="3.8903442025184631e-01" purity="5.1690053939819336e-01" nType="0">
            <Node pos="l" depth="3" NCoef="0" IVar="-1" Cut="0.0000000000000000e+00" cType="1" res="1.6710761934518814e-02" rms="4.0641906857490540e-01" purity="4.0760481357574463e-01" nType="-99"/>
            <Node pos="r" depth="3" NCoef="0" IVar="-1" Cut="0.0000000000000000e+00" cType="1" res="-8.8577828137204051e-04" rms="3.8797023892402649e-01" purity="5.2312022447586060e-01" nType="-99"/>
          </Node>
        </Node>
        <Node pos="r" depth="1" NCoef="0" IVar="-1" Cut="0.0000000000000000e+00" cType="1" res="2.2345032542943954e-02" rms="3.9082336425781250e-01" purity="6.9275987148284912e-01" nType="-99"/>
      </Node>
    </BinaryTree>
    <BinaryTree type="DecisionTree" boostWeight="1.0000000000000000e+00" itree="403">
      <Node pos="s" depth="0" NCoef="0" IVar="6" Cut="1.7353227138519287e+00" cType="1" res="2.1496855188161135e-03" rms="3.8646051287651062e-01" purity="4.9984619021415710e-01" nType="0">
        <Node pos="l" depth="1" NCoef="0" IVar="7" Cut="1.9999904632568359e+00" cType="1" res="3.3407730516046286e-03" rms="3.9046904444694519e-01" purity="5.1490873098373413e-01" nType="0">
          <Node pos="l" depth="2" NCoef="0" IVar="0" Cut="4.5299533081054688e+02" cType="1" res="4.3798792175948620e-03" rms="3.9316263794898987e-01" purity="5.2723866701126099e-01" nType="0">
            <Node pos="l" depth="3" NCoef="0" IVar="-1" Cut="0.0000000000000000e+00" cType="1" res="5.3950385190546513e-03" rms="4.0575006604194641e-01" purity="3.9693215489387512e-01" nType="-99"/>
            <Node pos="r" depth="3" NCoef="0" IVar="-1" Cut="0.0000000000000000e+00" cType="1" res="-1.7449681181460619e-03" rms="3.7321355938911438e-01" purity="7.2433781623840332e-01" nType="-99"/>
          </Node>
          <Node pos="r" depth="2" NCoef="0" IVar="-1" Cut="0.0000000000000000e+00" cType="1" res="-2.6413483545184135e-02" rms="2.9748526215553284e-01" purity="1.4704608917236328e-01" nType="-99"/>
        </Node>
        <Node pos="r" depth="1" NCoef="0" IVar="-1" Cut="0.0000000000000000e+00" cType="1" res="-2.5442741811275482e-02" rms="2.7452895045280457e-01" purity="1.4596243202686310e-01" nType="-99"/>
      </Node>
    </BinaryTree>
    <BinaryTree type="DecisionTree" boostWeight="1.0000000000000000e+00" itree="404">
      <Node pos="s" depth="0" NCoef="0" IVar="8" Cut="-6.6670119762420654e-01" cType="1" res="2.1359187085181475e-03" rms="3.8590958714485168e-01" purity="5.0253951549530029e-01" nType="0">
        <Node pos="l" depth="1" NCoef="0" IVar="9" Cut="-1.1999359130859375e+00" cType="1" res="-9.5714796334505081e-03" rms="3.8168290257453918e-01" purity="4.2818894982337952e-01" nType="0">
          <Node pos="l" depth="2" NCoef="0" IVar="8" Cut="-1.3778141736984253e+00" cType="1" res="-2.7983998879790306e-02" rms="3.4983369708061218e-01" purity="3.0333974957466125e-01" nType="0">
            <Node pos="l" depth="3" NCoef="0" IVar="-1" Cut="0.0000000000000000e+00" cType="1" res="-3.3671759068965912e-02" rms="3.2456320524215698e-01" purity="1.9151212275028229e-01" nType="-99"/>
            <Node pos="r" depth="3" NCoef="0" IVar="-1" Cut="0.0000000000000000e+00" cType="1" res="-1.1932508088648319e-02" rms="3.6832320690155029e-01" purity="3.9192575216293335e-01" nType="-99"/>
          </Node>
          <Node pos="r" depth="2" NCoef="0" IVar="4" Cut="9.1134170532226562e+01" cType="1" res="-4.8225861974060535e-03" rms="3.8933387398719788e-01" purity="4.6038958430290222e-01" nType="0">
            <Node pos="l" depth="3" NCoef="0" IVar="-1" Cut="0.0000000000000000e+00" cType="1" res="1.0024744085967541e-02" rms="3.6943826079368591e-01" purity="2.2404167056083679e-01" nType="-99"/>
            <Node pos="r" depth="3" NCoef="0" IVar="-1" Cut="0.0000000000000000e+00" cType="1" res="-7.1678077802062035e-03" rms="3.9614662528038025e-01" purity="5.4669582843780518e-01" nType="-99"/>
          </Node>
        </Node>
        <Node pos="r" depth="1" NCoef="0" IVar="2" Cut="3.3293615722656250e+02" cType="1" res="6.6393320448696613e-03" rms="3.8742896914482117e-01" purity="5.3113949298858643e-01" nType="0">
          <Node pos="l" depth="2" NCoef="0" IVar="3" Cut="1.5836903381347656e+02" cType="1" res="-3.6981306038796902e-03" rms="3.9562076330184937e-01" purity="4.8060923814773560e-01" nType="0">
            <Node pos="l" depth="3" NCoef="0" IVar="-1" Cut="0.0000000000000000e+00" cType="1" res="-1.3100306503474712e-02" rms="3.8519677519798279e-01" purity="2.7160456776618958e-01" nType="-99"/>
            <Node pos="r" depth="3" NCoef="0" IVar="-1" Cut="0.0000000000000000e+00" cType="1" res="3.6119851283729076e-03" rms="4.0114629268646240e-01" purity="6.0011470317840576e-01" nType="-99"/>
          </Node>
          <Node pos="r" depth="2" NCoef="0" IVar="5" Cut="8.5090957641601562e+01" cType="1" res="1.5315991826355457e-02" rms="3.8020017743110657e-01" purity="5.7355165481567383e-01" nType="0">
            <Node pos="l" depth="3" NCoef="0" IVar="-1" Cut="0.0000000000000000e+00" cType="1" res="1.5905115753412247e-02" rms="3.9825055003166199e-01" purity="4.0910279750823975e-01" nType="-99"/>
            <Node pos="r" depth="3" NCoef="0" IVar="-1" Cut="0.0000000000000000e+00" cType="1" res="3.9482084102928638e-03" rms="3.6086544394493103e-01" purity="7.3886704444885254e-01" nType="-99"/>
          </Node>
        </Node>
      </Node>
    </BinaryTree>
    <BinaryTree type="DecisionTree" boostWeight="1.0000000000000000e+00" itree="405">
      <Node pos="s" depth="0" NCoef="0" IVar="9" Cut="-3.9999672770500183e-01" cType="1" res="2.7313218452036381e-03" rms="3.8529798388481140e-01" purity="5.0464564561843872e-01" nType="0">
        <Node pos="l" depth="1" NCoef="0" IVar="7" Cut="-1.3319799304008484e-01" cType="1" res="-3.7174294702708721e-03" rms="3.8108071684837341e-01" purity="4.7565689682960510e-01" nType="0">
          <Node pos="l" depth="2" NCoef="0" IVar="8" Cut="3.9979881048202515e-01" cType="1" res="4.0806336328387260e-03" rms="3.8450846076011658e-01" purity="4.5357421040534973e-01" nType="0">
            <Node pos="l" depth="3" NCoef="0" IVar="-1" Cut="0.0000000000000000e+00" cType="1" res="-1.9876379519701004e-03" rms="3.7728816270828247e-01" purity="4.4550064206123352e-01" nType="-99"/>
            <Node pos="r" depth="3" NCoef="0" IVar="-1" Cut="0.0000000000000000e+00" cType="1" res="1.3665940612554550e-02" rms="4.0068134665489197e-01" purity="4.7280308604240417e-01" nType="-99"/>
          </Node>
          <Node pos="r" depth="2" NCoef="0" IVar="6" Cut="-8.7493222951889038e-01" cType="1" res="-1.1722171679139137e-02" rms="3.7736219167709351e-01" purity="4.9832487106323242e-01" nType="0">
            <Node pos="l" depth="3" NCoef="0" IVar="-1" Cut="0.0000000000000000e+00" cType="1" res="-2.7312288060784340e-02" rms="3.4396967291831970e-01" purity="3.0925729870796204e-01" nType="-99"/>
            <Node pos="r" depth="3" NCoef="0" IVar="-1" Cut="0.0000000000000000e+00" cType="1" res="-3.6505870521068573e-03" rms="3.8476982712745667e-01" purity="5.4411590099334717e-01" nType="-99"/>
          </Node>
        </Node>
        <Node pos="r" depth="1" NCoef="0" IVar="7" Cut="1.4666014909744263e+00" cType="1" res="6.5478472970426083e-03" rms="3.8772171735763550e-01" purity="5.2180194854736328e-01" nType="0">
          <Node pos="l" depth="2" NCoef="0" IVar="9" Cut="1.8857172727584839e+00" cType="1" res="4.7532441094517708e-03" rms="3.8934683799743652e-01" purity="5.4876124858856201e-01" nType="0">
            <Node pos="l" depth="3" NCoef="0" IVar="-1" Cut="0.0000000000000000e+00" cType="1" res="4.6080104075372219e-03" rms="3.9004197716712952e-01" purity="5.6698685884475708e-01" nType="-99"/>
            <Node pos="r" depth="3" NCoef="0" IVar="-1" Cut="0.0000000000000000e+00" cType="1" res="-1.0770634748041630e-02" rms="3.8221487402915955e-01" purity="3.8072398304939270e-01" nType="-99"/>
          </Node>
          <Node pos="r" depth="2" NCoef="0" IVar="5" Cut="7.3818069458007812e+01" cType="1" res="2.3028835654258728e-02" rms="3.7206143140792847e-01" purity="2.7421718835830688e-01" nType="0">
            <Node pos="l" depth="3" NCoef="0" IVar="-1" Cut="0.0000000000000000e+00" cType="1" res="2.7457645046524704e-04" rms="3.1771329045295715e-01" purity="1.2997512519359589e-01" nType="-99"/>
            <Node pos="r" depth="3" NCoef="0" IVar="-1" Cut="0.0000000000000000e+00" cType="1" res="2.8606930747628212e-02" rms="4.1801670193672180e-01" purity="4.1788613796234131e-01" nType="-99"/>
          </Node>
        </Node>
      </Node>
    </BinaryTree>
    <BinaryTree type="DecisionTree" boostWeight="1.0000000000000000e+00" itree="406">
      <Node pos="s" depth="0" NCoef="0" IVar="7" Cut="-9.3329501152038574e-01" cType="1" res="3.1925353687256575e-04" rms="3.8496464490890503e-01" purity="5.0046628713607788e-01" nType="0">
        <Node pos="l" depth="1" NCoef="0" IVar="8" Cut="6.6661047935485840e-01" cType="1" res="-9.0826153755187988e-03" rms="3.7130516767501831e-01" purity="3.5435056686401367e-01" nType="0">
          <Node pos="l" depth="2" NCoef="0" IVar="7" Cut="-1.3777214288711548e+00" cType="1" res="-3.4757640678435564e-03" rms="3.7918180227279663e-01" purity="3.7641158699989319e-01" nType="0">
            <Node pos="l" depth="3" NCoef="0" IVar="-1" Cut="0.0000000000000000e+00" cType="1" res="5.7372660376131535e-03" rms="3.6932232975959778e-01" purity="2.9616281390190125e-01" nType="-99"/>
            <Node pos="r" depth="3" NCoef="0" IVar="-1" Cut="0.0000000000000000e+00" cType="1" res="-1.0413930751383305e-02" rms="3.8996151089668274e-01" purity="4.7004130482673645e-01" nType="-99"/>
          </Node>
          <Node pos="r" depth="2" NCoef="0" IVar="-1" Cut="0.0000000000000000e+00" cType="1" res="-1.9979169592261314e-02" rms="3.4473806619644165e-01" purity="2.8488850593566895e-01" nType="-99"/>
        </Node>
        <Node pos="r" depth="1" NCoef="0" IVar="2" Cut="6.0637084960937500e+02" cType="1" res="2.5591112207621336e-03" rms="3.8811433315277100e-01" purity="5.3527623414993286e-01" nType="0">
          <Node pos="l" depth="2" NCoef="0" IVar="3" Cut="1.8281657409667969e+02" cType="1" res="1.0806077625602484e-03" rms="3.8765406608581543e-01" purity="5.2720135450363159e-01" nType="0">
            <Node pos="l" depth="3" NCoef="0" IVar="-1" Cut="0.0000000000000000e+00" cType="1" res="-4.1007120162248611e-03" rms="3.9604258537292480e-01" purity="3.3125069737434387e-01" nType="-99"/>
            <Node pos="r" depth="3" NCoef="0" IVar="-1" Cut="0.0000000000000000e+00" cType="1" res="4.3738386593759060e-03" rms="3.8146352767944336e-01" purity="6.6705662012100220e-01" nType="-99"/>
          </Node>
          <Node pos="r" depth="2" NCoef="0" IVar="3" Cut="3.3182995605468750e+02" cType="1" res="1.8717462196946144e-02" rms="3.9274662733078003e-01" purity="6.2352514266967773e-01" nType="0">
            <Node pos="l" depth="3" NCoef="0" IVar="-1" Cut="0.0000000000000000e+00" cType="1" res="4.7102202661335468e-03" rms="3.9635029435157776e-01" purity="5.8464074134826660e-01" nType="-99"/>
            <Node pos="r" depth="3" NCoef="0" IVar="-1" Cut="0.0000000000000000e+00" cType="1" res="1.9795561209321022e-02" rms="3.8747042417526245e-01" purity="6.7480236291885376e-01" nType="-99"/>
          </Node>
        </Node>
      </Node>
    </BinaryTree>
    <BinaryTree type="DecisionTree" boostWeight="1.0000000000000000e+00" itree="407">
      <Node pos="s" depth="0" NCoef="0" IVar="2" Cut="4.5912387084960938e+02" cType="1" res="8.3385902689769864e-04" rms="3.8761293888092041e-01" purity="5.0003159046173096e-01" nType="0">
        <Node pos="l" depth="1" NCoef="0" IVar="2" Cut="3.1105267333984375e+02" cType="1" res="3.3279212657362223e-03" rms="3.8949880003929138e-01" purity="4.8477581143379211e-01" nType="0">
          <Node pos="l" depth="2" NCoef="0" IVar="3" Cut="1.1301089477539062e+02" cType="1" res="1.0357278399169445e-02" rms="4.0233007073402405e-01" purity="4.5439293980598450e-01" nType="0">
            <Node pos="l" depth="3" NCoef="0" IVar="-1" Cut="0.0000000000000000e+00" cType="1" res="3.1274214386940002e-02" rms="3.6887675523757935e-01" purity="2.0138132572174072e-01" nType="-99"/>
            <Node pos="r" depth="3" NCoef="0" IVar="-1" Cut="0.0000000000000000e+00" cType="1" res="3.7917210720479488e-03" rms="4.0701445937156677e-01" purity="4.9281114339828491e-01" nType="-99"/>
          </Node>
          <Node pos="r" depth="2" NCoef="0" IVar="2" Cut="3.3220651245117188e+02" cType="1" res="-4.0072146803140640e-03" rms="3.7550207972526550e-01" purity="5.1648032665252686e-01" nType="0">
            <Node pos="l" depth="3" NCoef="0" IVar="-1" Cut="0.0000000000000000e+00" cType="1" res="-1.7275439575314522e-02" rms="3.6516505479812622e-01" purity="5.0133091211318970e-01" nType="-99"/>
            <Node pos="r" depth="3" NCoef="0" IVar="-1" Cut="0.0000000000000000e+00" cType="1" res="6.4391532214358449e-04" rms="3.7770557403564453e-01" purity="5.2001816034317017e-01" nType="-99"/>
          </Node>
        </Node>
        <Node pos="r" depth="1" NCoef="0" IVar="9" Cut="-9.3333667516708374e-01" cType="1" res="-7.7166920527815819e-03" rms="3.8095283508300781e-01" purity="5.5233383178710938e-01" nType="0">
          <Node pos="l" depth="2" NCoef="0" IVar="-1" Cut="0.0000000000000000e+00" cType="1" res="-1.8757326528429985e-02" rms="3.8300111889839172e-01" purity="4.5558583736419678e-01" nType="-99"/>
          <Node pos="r" depth="2" NCoef="0" IVar="1" Cut="1.5044003906250000e+03" cType="1" res="-2.3767172824591398e-03" rms="3.8024461269378662e-01" purity="5.7698059082031250e-01" nType="0">
            <Node pos="l" depth="3" NCoef="0" IVar="-1" Cut="0.0000000000000000e+00" cType="1" res="-1.2646520510315895e-02" rms="3.8226678967475891e-01" purity="2.8124749660491943e-01" nType="-99"/>
            <Node pos="r" depth="3" NCoef="0" IVar="-1" Cut="0.0000000000000000e+00" cType="1" res="3.4060967154800892e-03" rms="3.7912932038307190e-01" purity="7.0499968528747559e-01" nType="-99"/>
          </Node>
        </Node>
      </Node>
    </BinaryTree>
    <BinaryTree type="DecisionTree" boostWeight="1.0000000000000000e+00" itree="408">
      <Node pos="s" depth="0" NCoef="0" IVar="8" Cut="1.4666540622711182e+00" cType="1" res="1.0715650860220194e-03" rms="3.8552820682525635e-01" purity="5.0283241271972656e-01" nType="0">
        <Node pos="l" depth="1" NCoef="0" IVar="8" Cut="1.0602973699569702e+00" cType="1" res="-7.8429555287584662e-04" rms="3.8560670614242554e-01" purity="5.2365916967391968e-01" nType="0">
          <Node pos="l" depth="2" NCoef="0" IVar="9" Cut="9.3335610628128052e-01" cType="1" res="1.4172117225825787e-03" rms="3.8586023449897766e-01" purity="5.3221476078033447e-01" nType="0">
            <Node pos="l" depth="3" NCoef="0" IVar="-1" Cut="0.0000000000000000e+00" cType="1" res="3.2134554348886013e-03" rms="3.8742759823799133e-01" purity="5.4637485742568970e-01" nType="-99"/>
            <Node pos="r" depth="3" NCoef="0" IVar="-1" Cut="0.0000000000000000e+00" cType="1" res="-6.8723829463124275e-03" rms="3.8010868430137634e-01" purity="4.8288980126380920e-01" nType="-99"/>
          </Node>
          <Node pos="r" depth="2" NCoef="0" IVar="6" Cut="4.3443199992179871e-01" cType="1" res="-2.6043696328997612e-02" rms="3.8177856802940369e-01" purity="4.2549511790275574e-01" nType="0">
            <Node pos="l" depth="3" NCoef="0" IVar="-1" Cut="0.0000000000000000e+00" cType="1" res="-5.7638571597635746e-03" rms="3.9624467492103577e-01" purity="4.9207928776741028e-01" nType="-99"/>
            <Node pos="r" depth="3" NCoef="0" IVar="-1" Cut="0.0000000000000000e+00" cType="1" res="-3.8038771599531174e-02" rms="3.5389089584350586e-01" purity="3.1173115968704224e-01" nType="-99"/>
          </Node>
        </Node>
        <Node pos="r" depth="1" NCoef="0" IVar="9" Cut="3.9998763799667358e-01" cType="1" res="1.6426675021648407e-02" rms="3.8453459739685059e-01" purity="3.3051520586013794e-01" nType="0">
          <Node pos="l" depth="2" NCoef="0" IVar="8" Cut="1.8476023674011230e+00" cType="1" res="-1.4808507403358817e-03" rms="3.8450562953948975e-01" purity="3.5768035054206848e-01" nType="0">
            <Node pos="l" depth="3" NCoef="0" IVar="-1" Cut="0.0000000000000000e+00" cType="1" res="1.4914668165147305e-02" rms="4.0652531385421753e-01" purity="4.3101957440376282e-01" nType="-99"/>
            <Node pos="r" depth="3" NCoef="0" IVar="-1" Cut="0.0000000000000000e+00" cType="1" res="-1.7150655388832092e-02" rms="3.6191326379776001e-01" purity="2.9124918580055237e-01" nType="-99"/>
          </Node>
          <Node pos="r" depth="2" NCoef="0" IVar="8" Cut="1.9111380577087402e+00" cType="1" res="3.6503020673990250e-02" rms="3.8357433676719666e-01" purity="3.0006000399589539e-01" nType="0">
            <Node pos="l" depth="3" NCoef="0" IVar="-1" Cut="0.0000000000000000e+00" cType="1" res="2.7987342327833176e-02" rms="3.9748162031173706e-01" purity="3.3962282538414001e-01" nType="-99"/>
            <Node pos="r" depth="3" NCoef="0" IVar="-1" Cut="0.0000000000000000e+00" cType="1" res="2.7022948488593102e-02" rms="3.6887380480766296e-01" purity="2.5983408093452454e-01" nType="-99"/>
          </Node>
        </Node>
      </Node>
    </BinaryTree>
    <BinaryTree type="DecisionTree" boostWeight="1.0000000000000000e+00" itree="409">
      <Node pos="s" depth="0" NCoef="0" IVar="9" Cut="-6.6666048765182495e-01" cType="1" res="-1.3316940749064088e-03" rms="3.8917922973632812e-01" purity="4.9665838479995728e-01" nType="0">
        <Node pos="l" depth="1" NCoef="0" IVar="8" Cut="-4.0003916621208191e-01" cType="1" res="7.0637585595250130e-03" rms="3.9210712909698486e-01" purity="4.6380388736724854e-01" nType="0">
          <Node pos="l" depth="2" NCoef="0" IVar="9" Cut="-1.7839889526367188e+00" cType="1" res="-5.8137429878115654e-03" rms="3.7765303254127502e-01" purity="3.9711195230484009e-01" nType="0">
            <Node pos="l" depth="3" NCoef="0" IVar="-1" Cut="0.0000000000000000e+00" cType="1" res="-2.2372186183929443e-02" rms="3.3165916800498962e-01" purity="2.8087371587753296e-01" nType="-99"/>
            <Node pos="r" depth="3" NCoef="0" IVar="-1" Cut="0.0000000000000000e+00" cType="1" res="1.8597150919958949e-03" rms="3.9270558953285217e-01" purity="4.3942466378211975e-01" nType="-99"/>
          </Node>
          <Node pos="r" depth="2" NCoef="0" IVar="0" Cut="4.1742626953125000e+02" cType="1" res="1.5863064676523209e-02" rms="4.0144726634025574e-01" purity="5.0937503576278687e-01" nType="0">
            <Node pos="l" depth="3" NCoef="0" IVar="-1" Cut="0.0000000000000000e+00" cType="1" res="2.1671688184142113e-02" rms="4.0939173102378845e-01" purity="3.7380304932594299e-01" nType="-99"/>
            <Node pos="r" depth="3" NCoef="0" IVar="-1" Cut="0.0000000000000000e+00" cType="1" res="-3.0523834284394979e-03" rms="3.9146649837493896e-01" purity="6.5929079055786133e-01" nType="-99"/>
          </Node>
        </Node>
        <Node pos="r" depth="1" NCoef="0" IVar="8" Cut="-1.7331746816635132e+00" cType="1" res="-4.9626426771283150e-03" rms="3.8784980773925781e-01" purity="5.1086759567260742e-01" nType="0">
          <Node pos="l" depth="2" NCoef="0" IVar="-1" Cut="0.0000000000000000e+00" cType="1" res="-2.0570261403918266e-02" rms="3.5780861973762512e-01" purity="2.8367245197296143e-01" nType="-99"/>
          <Node pos="r" depth="2" NCoef="0" IVar="7" Cut="-1.3338959217071533e-01" cType="1" res="-3.4172185696661472e-03" rms="3.8964989781379700e-01" purity="5.2546399831771851e-01" nType="0">
            <Node pos="l" depth="3" NCoef="0" IVar="-1" Cut="0.0000000000000000e+00" cType="1" res="-5.8478107675909996e-03" rms="3.9101967215538025e-01" purity="5.2081787586212158e-01" nType="-99"/>
            <Node pos="r" depth="3" NCoef="0" IVar="-1" Cut="0.0000000000000000e+00" cType="1" res="4.1246466571465135e-04" rms="3.8860577344894409e-01" purity="5.2882516384124756e-01" nType="-99"/>
          </Node>
        </Node>
      </Node>
    </BinaryTree>
    <BinaryTree type="DecisionTree" boostWeight="1.0000000000000000e+00" itree="410">
      <Node pos="s" depth="0" NCoef="0" IVar="9" Cut="-1.3331237435340881e-01" cType="1" res="-2.5292136706411839e-04" rms="3.8736233115196228e-01" purity="4.9835598468780518e-01" nType="0">
        <Node pos="l" depth="1" NCoef="0" IVar="6" Cut="1.2162363529205322e+00" cType="1" res="4.0490487590432167e-03" rms="3.8910275697708130e-01" purity="4.9947351217269897e-01" nType="0">
          <Node pos="l" depth="2" NCoef="0" IVar="5" Cut="7.3520050048828125e+01" cType="1" res="7.3031140491366386e-03" rms="3.9359435439109802e-01" purity="5.2548539638519287e-01" nType="0">
            <Node pos="l" depth="3" NCoef="0" IVar="-1" Cut="0.0000000000000000e+00" cType="1" res="9.8144374787807465e-03" rms="3.9870089292526245e-01" purity="3.4261769056320190e-01" nType="-99"/>
            <Node pos="r" depth="3" NCoef="0" IVar="-1" Cut="0.0000000000000000e+00" cType="1" res="1.1501992121338844e-03" rms="3.8993611931800842e-01" purity="6.5161871910095215e-01" nType="-99"/>
          </Node>
          <Node pos="r" depth="2" NCoef="0" IVar="-1" Cut="0.0000000000000000e+00" cType="1" res="-2.4664418771862984e-02" rms="3.3458891510963440e-01" purity="2.1761946380138397e-01" nType="-99"/>
        </Node>
        <Node pos="r" depth="1" NCoef="0" IVar="9" Cut="5.6509923934936523e-01" cType="1" res="-4.0090167894959450e-03" rms="3.8579711318016052e-01" purity="4.9738025665283203e-01" nType="0">
          <Node pos="l" depth="2" NCoef="0" IVar="1" Cut="1.0959105224609375e+03" cType="1" res="-1.6807084903120995e-02" rms="3.7942817807197571e-01" purity="5.4572349786758423e-01" nType="0">
            <Node pos="l" depth="3" NCoef="0" IVar="-1" Cut="0.0000000000000000e+00" cType="1" res="-2.1658606827259064e-02" rms="3.7427589297294617e-01" purity="2.2380153834819794e-01" nType="-99"/>
            <Node pos="r" depth="3" NCoef="0" IVar="-1" Cut="0.0000000000000000e+00" cType="1" res="-7.1477405726909637e-03" rms="3.8109666109085083e-01" purity="6.6261589527130127e-01" nType="-99"/>
          </Node>
          <Node pos="r" depth="2" NCoef="0" IVar="9" Cut="6.7153465747833252e-01" cType="1" res="4.0068998932838440e-03" rms="3.8951912522315979e-01" purity="4.6710103750228882e-01" nType="0">
            <Node pos="l" depth="3" NCoef="0" IVar="-1" Cut="0.0000000000000000e+00" cType="1" res="1.9346797838807106e-02" rms="4.1641598939895630e-01" purity="5.6077939271926880e-01" nType="-99"/>
            <Node pos="r" depth="3" NCoef="0" IVar="-1" Cut="0.0000000000000000e+00" cType="1" res="9.8604382947087288e-04" rms="3.8683134317398071e-01" purity="4.5840841531753540e-01" nType="-99"/>
          </Node>
        </Node>
      </Node>
    </BinaryTree>
    <BinaryTree type="DecisionTree" boostWeight="1.0000000000000000e+00" itree="411">
      <Node pos="s" depth="0" NCoef="0" IVar="5" Cut="8.1792259216308594e+01" cType="1" res="8.8344080722890794e-05" rms="3.8618868589401245e-01" purity="4.9724024534225464e-01" nType="0">
        <Node pos="l" depth="1" NCoef="0" IVar="9" Cut="1.2000179290771484e+00" cType="1" res="4.8784539103507996e-03" rms="3.9135426282882690e-01" purity="3.3325105905532837e-01" nType="0">
          <Node pos="l" depth="2" NCoef="0" IVar="4" Cut="1.4116825866699219e+02" cType="1" res="1.4865536941215396e-03" rms="3.9391750097274780e-01" purity="3.4023916721343994e-01" nType="0">
            <Node pos="l" depth="3" NCoef="0" IVar="-1" Cut="0.0000000000000000e+00" cType="1" res="-1.2146651279181242e-03" rms="3.8794630765914917e-01" purity="2.8854596614837646e-01" nType="-99"/>
            <Node pos="r" depth="3" NCoef="0" IVar="-1" Cut="0.0000000000000000e+00" cType="1" res="9.1619631275534630e-03" rms="4.1886171698570251e-01" purity="5.6767582893371582e-01" nType="-99"/>
          </Node>
          <Node pos="r" depth="2" NCoef="0" IVar="8" Cut="4.0014243125915527e-01" cType="1" res="1.8279945477843285e-02" rms="3.8076278567314148e-01" purity="3.0564075708389282e-01" nType="0">
            <Node pos="l" depth="3" NCoef="0" IVar="-1" Cut="0.0000000000000000e+00" cType="1" res="2.2210210561752319e-02" rms="4.0155890583992004e-01" purity="3.5691076517105103e-01" nType="-99"/>
            <Node pos="r" depth="3" NCoef="0" IVar="-1" Cut="0.0000000000000000e+00" cType="1" res="-1.2654341990128160e-03" rms="3.5126256942749023e-01" purity="2.3981362581253052e-01" nType="-99"/>
          </Node>
        </Node>
        <Node pos="r" depth="1" NCoef="0" IVar="8" Cut="1.4661442041397095e+00" cType="1" res="-4.9383542500436306e-03" rms="3.8062781095504761e-01" purity="6.6932910680770874e-01" nType="0">
          <Node pos="l" depth="2" NCoef="0" IVar="6" Cut="6.8828827142715454e-01" cType="1" res="-2.3791256826370955e-03" rms="3.7922063469886780e-01" purity="6.8701875209808350e-01" nType="0">
            <Node pos="l" depth="3" NCoef="0" IVar="-1" Cut="0.0000000000000000e+00" cType="1" res="-4.2294780723750591e-03" rms="3.7377029657363892e-01" purity="7.1621876955032349e-01" nType="-99"/>
            <Node pos="r" depth="3" NCoef="0" IVar="-1" Cut="0.0000000000000000e+00" cType="1" res="7.0173954591155052e-03" rms="3.9904493093490601e-01" purity="5.7553440332412720e-01" nType="-99"/>
          </Node>
          <Node pos="r" depth="2" NCoef="0" IVar="-1" Cut="0.0000000000000000e+00" cType="1" res="-2.0642416551709175e-02" rms="3.9537516236305237e-01" purity="4.6416684985160828e-01" nType="-99"/>
        </Node>
      </Node>
    </BinaryTree>
    <BinaryTree type="DecisionTree" boostWeight="1.0000000000000000e+00" itree="412">
      <Node pos="s" depth="0" NCoef="0" IVar="6" Cut="-1.1919130086898804e+00" cType="1" res="-1.4047641307115555e-03" rms="3.8340607285499573e-01" purity="5.0023871660232544e-01" nType="0">
        <Node pos="l" depth="1" NCoef="0" IVar="9" Cut="-9.3303090333938599e-01" cType="1" res="-2.5179255753755569e-02" rms="3.4412172436714172e-01" purity="2.3438386619091034e-01" nType="0">
          <Node pos="l" depth="2" NCoef="0" IVar="-1" Cut="0.0000000000000000e+00" cType="1" res="-8.3074690774083138e-03" rms="3.2304883003234863e-01" purity="1.8622817099094391e-01" nType="-99"/>
          <Node pos="r" depth="2" NCoef="0" IVar="3" Cut="1.9426190185546875e+02" cType="1" res="-3.2399576157331467e-02" rms="3.5306474566459656e-01" purity="2.5631061196327209e-01" nType="0">
            <Node pos="l" depth="3" NCoef="0" IVar="-1" Cut="0.0000000000000000e+00" cType="1" res="-1.1366499587893486e-02" rms="3.2877573370933533e-01" purity="1.9455260038375854e-01" nType="-99"/>
            <Node pos="r" depth="3" NCoef="0" IVar="-1" Cut="0.0000000000000000e+00" cType="1" res="-3.5981085151433945e-02" rms="3.8123810291290283e-01" purity="3.3738836646080017e-01" nType="-99"/>
          </Node>
        </Node>
        <Node pos="r" depth="1" NCoef="0" IVar="9" Cut="1.7333388328552246e+00" cType="1" res="1.3707653852179646e-03" rms="3.8763788342475891e-01" purity="5.3127574920654297e-01" nType="0">
          <Node pos="l" depth="2" NCoef="0" IVar="8" Cut="-9.3337923288345337e-01" cType="1" res="2.6329779066145420e-03" rms="3.8818091154098511e-01" purity="5.4421353340148926e-01" nType="0">
            <Node pos="l" depth="3" NCoef="0" IVar="-1" Cut="0.0000000000000000e+00" cType="1" res="7.6271006837487221e-03" rms="3.8802906870841980e-01" purity="4.6451914310455322e-01" nType="-99"/>
            <Node pos="r" depth="3" NCoef="0" IVar="-1" Cut="0.0000000000000000e+00" cType="1" res="1.3518278137780726e-04" rms="3.8818472623825073e-01" purity="5.6526052951812744e-01" nType="-99"/>
          </Node>
          <Node pos="r" depth="2" NCoef="0" IVar="7" Cut="1.3320623338222504e-01" cType="1" res="-1.2436918914318085e-02" rms="3.8137426972389221e-01" purity="3.8974529504776001e-01" nType="0">
            <Node pos="l" depth="3" NCoef="0" IVar="-1" Cut="0.0000000000000000e+00" cType="1" res="-1.7151575535535812e-02" rms="3.8631957769393921e-01" purity="3.8600394129753113e-01" nType="-99"/>
            <Node pos="r" depth="3" NCoef="0" IVar="-1" Cut="0.0000000000000000e+00" cType="1" res="2.0934154235874303e-05" rms="3.7654629349708557e-01" purity="3.9302334189414978e-01" nType="-99"/>
          </Node>
        </Node>
      </Node>
    </BinaryTree>
    <BinaryTree type="DecisionTree" boostWeight="1.0000000000000000e+00" itree="413">
      <Node pos="s" depth="0" NCoef="0" IVar="1" Cut="1.1200330810546875e+03" cType="1" res="-6.4667387050576508e-05" rms="3.8737207651138306e-01" purity="4.9951893091201782e-01" nType="0">
        <Node pos="l" depth="1" NCoef="0" IVar="6" Cut="9.3714755773544312e-01" cType="1" res="-1.0082442313432693e-02" rms="3.8110074400901794e-01" purity="2.3613259196281433e-01" nType="0">
          <Node pos="l" depth="2" NCoef="0" IVar="4" Cut="9.7097412109375000e+01" cType="1" res="-1.5831651166081429e-02" rms="3.9224633574485779e-01" purity="2.5859704613685608e-01" nType="0">
            <Node pos="l" depth="3" NCoef="0" IVar="-1" Cut="0.0000000000000000e+00" cType="1" res="-3.3169367816299200e-03" rms="3.5840043425559998e-01" purity="1.9228571653366089e-01" nType="-99"/>
            <Node pos="r" depth="3" NCoef="0" IVar="-1" Cut="0.0000000000000000e+00" cType="1" res="-1.5944274142384529e-02" rms="4.3204471468925476e-01" purity="3.4523171186447144e-01" nType="-99"/>
          </Node>
          <Node pos="r" depth="2" NCoef="0" IVar="1" Cut="9.6763281250000000e+02" cType="1" res="1.1132969520986080e-02" rms="3.3594465255737305e-01" purity="1.5323542058467865e-01" nType="0">
            <Node pos="l" depth="3" NCoef="0" IVar="-1" Cut="0.0000000000000000e+00" cType="1" res="3.1735643744468689e-02" rms="3.1704407930374146e-01" purity="1.2334558367729187e-01" nType="-99"/>
            <Node pos="r" depth="3" NCoef="0" IVar="-1" Cut="0.0000000000000000e+00" cType="1" res="-1.3717742403969169e-03" rms="3.5123851895332336e-01" purity="1.7953826487064362e-01" nType="-99"/>
          </Node>
        </Node>
        <Node pos="r" depth="1" NCoef="0" IVar="4" Cut="2.1478007507324219e+02" cType="1" res="4.9772853963077068e-03" rms="3.9039310812950134e-01" purity="6.3208144903182983e-01" nType="0">
          <Node pos="l" depth="2" NCoef="0" IVar="6" Cut="-6.6018080711364746e-01" cType="1" res="8.3506284281611443e-03" rms="4.0002256631851196e-01" purity="6.0017168521881104e-01" nType="0">
            <Node pos="l" depth="3" NCoef="0" IVar="-1" Cut="0.0000000000000000e+00" cType="1" res="1.3850672170519829e-02" rms="4.1031455993652344e-01" purity="5.0009810924530029e-01" nType="-99"/>
            <Node pos="r" depth="3" NCoef="0" IVar="-1" Cut="0.0000000000000000e+00" cType="1" res="2.4593712296336889e-03" rms="3.9673128724098206e-01" purity="6.3061845302581787e-01" nType="-99"/>
          </Node>
          <Node pos="r" depth="2" NCoef="0" IVar="7" Cut="3.9963957667350769e-01" cType="1" res="-1.0948661714792252e-02" rms="3.4083098173141479e-01" purity="7.8273099660873413e-01" nType="0">
            <Node pos="l" depth="3" NCoef="0" IVar="-1" Cut="0.0000000000000000e+00" cType="1" res="3.1037486041896045e-04" rms="3.3218264579772949e-01" purity="8.0916917324066162e-01" nType="-99"/>
            <Node pos="r" depth="3" NCoef="0" IVar="-1" Cut="0.0000000000000000e+00" cType="1" res="-3.0252300202846527e-02" rms="3.5932996869087219e-01" purity="7.1914672851562500e-01" nType="-99"/>
          </Node>
        </Node>
      </Node>
    </BinaryTree>
    <BinaryTree type="DecisionTree" boostWeight="1.0000000000000000e+00" itree="414">
      <Node pos="s" depth="0" NCoef="0" IVar="8" Cut="1.3332676887512207e-01" cType="1" res="-3.9202050538733602e-04" rms="3.8596570491790771e-01" purity="4.9856215715408325e-01" nType="0">
        <Node pos="l" depth="1" NCoef="0" IVar="1" Cut="1.1001314697265625e+03" cType="1" res="4.5170639641582966e-03" rms="3.8740861415863037e-01" purity="5.1349794864654541e-01" nType="0">
          <Node pos="l" depth="2" NCoef="0" IVar="2" Cut="3.0656460571289062e+02" cType="1" res="1.4130056835711002e-02" rms="3.8354861736297607e-01" purity="2.5282880663871765e-01" nType="0">
            <Node pos="l" depth="3" NCoef="0" IVar="-1" Cut="0.0000000000000000e+00" cType="1" res="1.4669549651443958e-02" rms="4.0439277887344360e-01" purity="2.9667547345161438e-01" nType="-99"/>
            <Node pos="r" depth="3" NCoef="0" IVar="-1" Cut="0.0000000000000000e+00" cType="1" res="-8.4638418629765511e-03" rms="3.2565757632255554e-01" purity="1.4531016349792480e-01" nType="-99"/>
          </Node>
          <Node pos="r" depth="2" NCoef="0" IVar="1" Cut="1.9576456298828125e+03" cType="1" res="2.1290472068358213e-04" rms="3.8904750347137451e-01" purity="6.3021099567413330e-01" nType="0">
            <Node pos="l" depth="3" NCoef="0" IVar="-1" Cut="0.0000000000000000e+00" cType="1" res="-1.4634827384725213e-03" rms="3.9482492208480835e-01" purity="6.0584682226181030e-01" nType="-99"/>
            <Node pos="r" depth="3" NCoef="0" IVar="-1" Cut="0.0000000000000000e+00" cType="1" res="1.7052043229341507e-02" rms="3.3769848942756653e-01" purity="8.2840049266815186e-01" nType="-99"/>
          </Node>
        </Node>
        <Node pos="r" depth="1" NCoef="0" IVar="8" Cut="6.4127254486083984e-01" cType="1" res="-6.4961411990225315e-03" rms="3.8407644629478455e-01" purity="4.7999048233032227e-01" nType="0">
          <Node pos="l" depth="2" NCoef="0" IVar="4" Cut="1.0513660430908203e+02" cType="1" res="-1.6929566860198975e-02" rms="3.8246041536331177e-01" purity="5.6585663557052612e-01" nType="0">
            <Node pos="l" depth="3" NCoef="0" IVar="-1" Cut="0.0000000000000000e+00" cType="1" res="-2.3843178525567055e-02" rms="3.7604531645774841e-01" purity="2.6649868488311768e-01" nType="-99"/>
            <Node pos="r" depth="3" NCoef="0" IVar="-1" Cut="0.0000000000000000e+00" cType="1" res="-5.3483964875340462e-03" rms="3.8472217321395874e-01" purity="6.8963384628295898e-01" nType="-99"/>
          </Node>
          <Node pos="r" depth="2" NCoef="0" IVar="3" Cut="1.2946704101562500e+02" cType="1" res="-7.2174723027274013e-04" rms="3.8484638929367065e-01" purity="4.3246772885322571e-01" nType="0">
            <Node pos="l" depth="3" NCoef="0" IVar="-1" Cut="0.0000000000000000e+00" cType="1" res="2.0447812974452972e-02" rms="3.5539752244949341e-01" purity="2.0603278279304504e-01" nType="-99"/>
            <Node pos="r" depth="3" NCoef="0" IVar="-1" Cut="0.0000000000000000e+00" cType="1" res="-4.4144364073872566e-03" rms="3.9163181185722351e-01" purity="4.8919680714607239e-01" nType="-99"/>
          </Node>
        </Node>
      </Node>
    </BinaryTree>
    <BinaryTree type="DecisionTree" boostWeight="1.0000000000000000e+00" itree="415">
      <Node pos="s" depth="0" NCoef="0" IVar="7" Cut="1.7332661151885986e+00" cType="1" res="7.5963436393067241e-04" rms="3.8466563820838928e-01" purity="5.0373530387878418e-01" nType="0">
        <Node pos="l" depth="1" NCoef="0" IVar="4" Cut="1.5986909484863281e+02" cType="1" res="2.1955799311399460e-03" rms="3.8830536603927612e-01" purity="5.2281254529953003e-01" nType="0">
          <Node pos="l" depth="2" NCoef="0" IVar="4" Cut="8.1431594848632812e+01" cType="1" res="6.1529339291155338e-03" rms="4.0029287338256836e-01" purity="4.2246291041374207e-01" nType="0">
            <Node pos="l" depth="3" NCoef="0" IVar="-1" Cut="0.0000000000000000e+00" cType="1" res="-6.5987561829388142e-03" rms="3.4937468171119690e-01" purity="1.9736570119857788e-01" nType="-99"/>
            <Node pos="r" depth="3" NCoef="0" IVar="-1" Cut="0.0000000000000000e+00" cType="1" res="6.1424220912158489e-03" rms="4.1429162025451660e-01" purity="4.9021708965301514e-01" nType="-99"/>
          </Node>
          <Node pos="r" depth="2" NCoef="0" IVar="0" Cut="4.5299490356445312e+02" cType="1" res="-6.5836785361170769e-03" rms="3.6013513803482056e-01" purity="7.4543499946594238e-01" nType="0">
            <Node pos="l" depth="3" NCoef="0" IVar="-1" Cut="0.0000000000000000e+00" cType="1" res="-8.5889892652630806e-03" rms="4.0939220786094666e-01" purity="6.1219084262847900e-01" nType="-99"/>
            <Node pos="r" depth="3" NCoef="0" IVar="-1" Cut="0.0000000000000000e+00" cType="1" res="3.7129240809008479e-04" rms="3.1075328588485718e-01" purity="8.6153030395507812e-01" nType="-99"/>
          </Node>
        </Node>
        <Node pos="r" depth="1" NCoef="0" IVar="7" Cut="2.1396033763885498e+00" cType="1" res="-2.3166205734014511e-02" rms="3.1699156761169434e-01" purity="1.8586802482604980e-01" nType="0">
          <Node pos="l" depth="2" NCoef="0" IVar="-1" Cut="0.0000000000000000e+00" cType="1" res="-3.2348483800888062e-02" rms="3.2731851935386658e-01" purity="2.0183300971984863e-01" nType="-99"/>
          <Node pos="r" depth="2" NCoef="0" IVar="-1" Cut="0.0000000000000000e+00" cType="1" res="-4.1077607311308384e-03" rms="3.0356088280677795e-01" purity="1.6748814284801483e-01" nType="-99"/>
        </Node>
      </Node>
    </BinaryTree>
    <BinaryTree type="DecisionTree" boostWeight="1.0000000000000000e+00" itree="416">
      <Node pos="s" depth="0" NCoef="0" IVar="3" Cut="2.4212902832031250e+02" cType="1" res="6.0967105673626065e-04" rms="3.8607344031333923e-01" purity="5.0128132104873657e-01" nType="0">
        <Node pos="l" depth="1" NCoef="0" IVar="4" Cut="1.6832791137695312e+02" cType="1" res="-2.8065023943781853e-03" rms="3.9263975620269775e-01" purity="4.1611331701278687e-01" nType="0">
          <Node pos="l" depth="2" NCoef="0" IVar="5" Cut="1.0620383453369141e+02" cType="1" res="-5.5920924060046673e-03" rms="3.9615660905838013e-01" purity="3.6792352795600891e-01" nType="0">
            <Node pos="l" depth="3" NCoef="0" IVar="-1" Cut="0.0000000000000000e+00" cType="1" res="-1.6858011949807405e-03" rms="3.9508315920829773e-01" purity="3.2407963275909424e-01" nType="-99"/>
            <Node pos="r" depth="3" NCoef="0" IVar="-1" Cut="0.0000000000000000e+00" cType="1" res="-1.4603681862354279e-02" rms="4.0219670534133911e-01" purity="6.3641071319580078e-01" nType="-99"/>
          </Node>
          <Node pos="r" depth="2" NCoef="0" IVar="0" Cut="4.0918728637695312e+02" cType="1" res="1.5151612460613251e-02" rms="3.6865907907485962e-01" purity="7.2678244113922119e-01" nType="0">
            <Node pos="l" depth="3" NCoef="0" IVar="-1" Cut="0.0000000000000000e+00" cType="1" res="1.5721015632152557e-02" rms="4.0952908992767334e-01" purity="5.9208601713180542e-01" nType="-99"/>
            <Node pos="r" depth="3" NCoef="0" IVar="-1" Cut="0.0000000000000000e+00" cType="1" res="4.8149311915040016e-03" rms="3.3521354198455811e-01" purity="8.2554155588150024e-01" nType="-99"/>
          </Node>
        </Node>
        <Node pos="r" depth="1" NCoef="0" IVar="3" Cut="4.1415472412109375e+02" cType="1" res="7.8498646616935730e-03" rms="3.7166994810104370e-01" purity="6.8178534507751465e-01" nType="0">
          <Node pos="l" depth="2" NCoef="0" IVar="4" Cut="2.2254804992675781e+02" cType="1" res="1.1250858195126057e-02" rms="3.6952960491180420e-01" purity="6.8574833869934082e-01" nType="0">
            <Node pos="l" depth="3" NCoef="0" IVar="-1" Cut="0.0000000000000000e+00" cType="1" res="1.1144535616040230e-02" rms="3.8063237071037292e-01" purity="6.4433073997497559e-01" nType="-99"/>
            <Node pos="r" depth="3" NCoef="0" IVar="-1" Cut="0.0000000000000000e+00" cType="1" res="-2.8551921714097261e-03" rms="3.3826124668121338e-01" purity="7.9435795545578003e-01" nType="-99"/>
          </Node>
          <Node pos="r" depth="2" NCoef="0" IVar="-1" Cut="0.0000000000000000e+00" cType="1" res="-1.2807115912437439e-02" rms="3.8752970099449158e-01" purity="6.4956235885620117e-01" nType="-99"/>
        </Node>
      </Node>
    </BinaryTree>
    <BinaryTree type="DecisionTree" boostWeight="1.0000000000000000e+00" itree="417">
      <Node pos="s" depth="0" NCoef="0" IVar="7" Cut="3.9998084306716919e-01" cType="1" res="1.2423687148839235e-03" rms="3.8571918010711670e-01" purity="5.0124794244766235e-01" nType="0">
        <Node pos="l" depth="1" NCoef="0" IVar="8" Cut="-1.7333486080169678e+00" cType="1" res="4.4623403809964657e-03" rms="3.8712421059608459e-01" purity="5.3154742717742920e-01" nType="0">
          <Node pos="l" depth="2" NCoef="0" IVar="-1" Cut="0.0000000000000000e+00" cType="1" res="2.0864857360720634e-02" rms="3.7344169616699219e-01" purity="3.1705710291862488e-01" nType="-99"/>
          <Node pos="r" depth="2" NCoef="0" IVar="8" Cut="-1.3016111850738525e+00" cType="1" res="2.6207638438791037e-03" rms="3.8812291622161865e-01" purity="5.4846185445785522e-01" nType="0">
            <Node pos="l" depth="3" NCoef="0" IVar="-1" Cut="0.0000000000000000e+00" cType="1" res="-1.8393866717815399e-02" rms="3.7245357036590576e-01" purity="4.1716161370277405e-01" nType="-99"/>
            <Node pos="r" depth="3" NCoef="0" IVar="-1" Cut="0.0000000000000000e+00" cType="1" res="3.1813667155802250e-03" rms="3.8917440176010132e-01" purity="5.5827343463897705e-01" nType="-99"/>
          </Node>
        </Node>
        <Node pos="r" depth="1" NCoef="0" IVar="9" Cut="-1.4664748907089233e+00" cType="1" res="-4.8611825332045555e-03" rms="3.8296744227409363e-01" purity="4.4381430745124817e-01" nType="0">
          <Node pos="l" depth="2" NCoef="0" IVar="-1" Cut="0.0000000000000000e+00" cType="1" res="1.2761684134602547e-02" rms="3.8462823629379272e-01" purity="3.5228210687637329e-01" nType="-99"/>
          <Node pos="r" depth="2" NCoef="0" IVar="6" Cut="-1.1654118299484253e+00" cType="1" res="-7.6486235484480858e-03" rms="3.8267117738723755e-01" purity="4.5496338605880737e-01" nType="0">
            <Node pos="l" depth="3" NCoef="0" IVar="-1" Cut="0.0000000000000000e+00" cType="1" res="-2.8746942058205605e-02" rms="3.3435666561126709e-01" purity="1.9462515413761139e-01" nType="-99"/>
            <Node pos="r" depth="3" NCoef="0" IVar="-1" Cut="0.0000000000000000e+00" cType="1" res="-2.9301817994564772e-03" rms="3.8753649592399597e-01" purity="4.8387461900711060e-01" nType="-99"/>
          </Node>
        </Node>
      </Node>
    </BinaryTree>
    <BinaryTree type="DecisionTree" boostWeight="1.0000000000000000e+00" itree="418">
      <Node pos="s" depth="0" NCoef="0" IVar="8" Cut="-1.4666824340820312e+00" cType="1" res="3.1122853979468346e-03" rms="3.8553899526596069e-01" purity="5.0414860248565674e-01" nType="0">
        <Node pos="l" depth="1" NCoef="0" IVar="4" Cut="1.2018761444091797e+02" cType="1" res="-1.5467848628759384e-02" rms="3.6484521627426147e-01" purity="3.0156692862510681e-01" nType="0">
          <Node pos="l" depth="2" NCoef="0" IVar="9" Cut="-3.9971104264259338e-01" cType="1" res="-1.2018495472148061e-03" rms="3.4564146399497986e-01" purity="2.0777842402458191e-01" nType="0">
            <Node pos="l" depth="3" NCoef="0" IVar="-1" Cut="0.0000000000000000e+00" cType="1" res="1.6462134197354317e-02" rms="3.4541663527488708e-01" purity="2.0591010153293610e-01" nType="-99"/>
            <Node pos="r" depth="3" NCoef="0" IVar="-1" Cut="0.0000000000000000e+00" cType="1" res="-1.4195355586707592e-02" rms="3.4489798545837402e-01" purity="2.0946148037910461e-01" nType="-99"/>
          </Node>
          <Node pos="r" depth="2" NCoef="0" IVar="-1" Cut="0.0000000000000000e+00" cType="1" res="-2.2872889414429665e-02" rms="3.9091283082962036e-01" purity="4.4223508238792419e-01" nType="-99"/>
        </Node>
        <Node pos="r" depth="1" NCoef="0" IVar="9" Cut="2.2666633129119873e+00" cType="1" res="5.2224425598978996e-03" rms="3.8776308298110962e-01" purity="5.2715599536895752e-01" nType="0">
          <Node pos="l" depth="2" NCoef="0" IVar="9" Cut="1.0603153705596924e+00" cType="1" res="6.3165398314595222e-03" rms="3.8854742050170898e-01" purity="5.3339308500289917e-01" nType="0">
            <Node pos="l" depth="3" NCoef="0" IVar="-1" Cut="0.0000000000000000e+00" cType="1" res="2.6261401362717152e-03" rms="3.8886198401451111e-01" purity="5.4685032367706299e-01" nType="-99"/>
            <Node pos="r" depth="3" NCoef="0" IVar="-1" Cut="0.0000000000000000e+00" cType="1" res="1.0913092643022537e-02" rms="3.8697808980941772e-01" purity="4.7347998619079590e-01" nType="-99"/>
          </Node>
          <Node pos="r" depth="2" NCoef="0" IVar="-1" Cut="0.0000000000000000e+00" cType="1" res="-2.0756229758262634e-02" rms="3.5941827297210693e-01" purity="3.2366609573364258e-01" nType="-99"/>
        </Node>
      </Node>
    </BinaryTree>
    <BinaryTree type="DecisionTree" boostWeight="1.0000000000000000e+00" itree="419">
      <Node pos="s" depth="0" NCoef="0" IVar="6" Cut="4.2055591940879822e-01" cType="1" res="8.0399296712130308e-04" rms="3.8442873954772949e-01" purity="5.0613975524902344e-01" nType="0">
        <Node pos="l" depth="1" NCoef="0" IVar="9" Cut="-1.7331317663192749e+00" cType="1" res="-3.9707133546471596e-03" rms="3.8711562752723694e-01" purity="5.3546506166458130e-01" nType="0">
          <Node pos="l" depth="2" NCoef="0" IVar="5" Cut="7.0940345764160156e+01" cType="1" res="-3.1757015734910965e-02" rms="3.6508801579475403e-01" purity="3.6577773094177246e-01" nType="0">
            <Node pos="l" depth="3" NCoef="0" IVar="-1" Cut="0.0000000000000000e+00" cType="1" res="-1.3344458304345608e-02" rms="3.5007965564727783e-01" purity="2.3534515500068665e-01" nType="-99"/>
            <Node pos="r" depth="3" NCoef="0" IVar="-1" Cut="0.0000000000000000e+00" cType="1" res="-2.7994930744171143e-02" rms="3.7747856974601746e-01" purity="4.8146972060203552e-01" nType="-99"/>
          </Node>
          <Node pos="r" depth="2" NCoef="0" IVar="7" Cut="-1.4666221141815186e+00" cType="1" res="-1.4209741493687034e-03" rms="3.8897508382797241e-01" purity="5.5103594064712524e-01" nType="0">
            <Node pos="l" depth="3" NCoef="0" IVar="-1" Cut="0.0000000000000000e+00" cType="1" res="1.5927674248814583e-02" rms="3.8046675920486450e-01" purity="3.4754478931427002e-01" nType="-99"/>
            <Node pos="r" depth="3" NCoef="0" IVar="-1" Cut="0.0000000000000000e+00" cType="1" res="-2.5086461100727320e-03" rms="3.8972267508506775e-01" purity="5.7118755578994751e-01" nType="-99"/>
          </Node>
        </Node>
        <Node pos="r" depth="1" NCoef="0" IVar="6" Cut="1.8931989669799805e+00" cType="1" res="1.0541227646172047e-02" rms="3.7870368361473083e-01" purity="4.4633552432060242e-01" nType="0">
          <Node pos="l" depth="2" NCoef="0" IVar="7" Cut="-1.2000304460525513e+00" cType="1" res="1.2878725305199623e-02" rms="3.8620403409004211e-01" purity="4.7497293353080750e-01" nType="0">
            <Node pos="l" depth="3" NCoef="0" IVar="-1" Cut="0.0000000000000000e+00" cType="1" res="-1.1391700245440006e-02" rms="3.4124848246574402e-01" purity="2.4082447588443756e-01" nType="-99"/>
            <Node pos="r" depth="3" NCoef="0" IVar="-1" Cut="0.0000000000000000e+00" cType="1" res="1.0613101534545422e-02" rms="3.9174717664718628e-01" purity="5.0666117668151855e-01" nType="-99"/>
          </Node>
          <Node pos="r" depth="2" NCoef="0" IVar="-1" Cut="0.0000000000000000e+00" cType="1" res="-1.5618324279785156e-02" rms="2.8383541107177734e-01" purity="1.3608655333518982e-01" nType="-99"/>
        </Node>
      </Node>
    </BinaryTree>
    <BinaryTree type="DecisionTree" boostWeight="1.0000000000000000e+00" itree="420">
      <Node pos="s" depth="0" NCoef="0" IVar="9" Cut="1.9999972581863403e+00" cType="1" res="-3.7965292576700449e-03" rms="3.8638448715209961e-01" purity="4.9329340457916260e-01" nType="0">
        <Node pos="l" depth="1" NCoef="0" IVar="7" Cut="-4.0000489354133606e-01" cType="1" res="-5.0858715549111366e-03" rms="3.8577136397361755e-01" purity="5.0107204914093018e-01" nType="0">
          <Node pos="l" depth="2" NCoef="0" IVar="2" Cut="4.9194268798828125e+02" cType="1" res="-1.2343398295342922e-02" rms="3.8293424248695374e-01" purity="4.5034837722778320e-01" nType="0">
            <Node pos="l" depth="3" NCoef="0" IVar="-1" Cut="0.0000000000000000e+00" cType="1" res="-5.8381608687341213e-03" rms="3.8116654753684998e-01" purity="4.4395425915718079e-01" nType="-99"/>
            <Node pos="r" depth="3" NCoef="0" IVar="-1" Cut="0.0000000000000000e+00" cType="1" res="-2.0052826032042503e-02" rms="3.9123442769050598e-01" purity="4.8268142342567444e-01" nType="-99"/>
          </Node>
          <Node pos="r" depth="2" NCoef="0" IVar="7" Cut="-9.5256052911281586e-02" cType="1" res="-1.0752662783488631e-03" rms="3.8727194070816040e-01" purity="5.2910256385803223e-01" nType="0">
            <Node pos="l" depth="3" NCoef="0" IVar="-1" Cut="0.0000000000000000e+00" cType="1" res="7.6833004131913185e-03" rms="3.9513972401618958e-01" purity="6.2352800369262695e-01" nType="-99"/>
            <Node pos="r" depth="3" NCoef="0" IVar="-1" Cut="0.0000000000000000e+00" cType="1" res="-2.6042992249131203e-03" rms="3.8548365235328674e-01" purity="5.0859743356704712e-01" nType="-99"/>
          </Node>
        </Node>
        <Node pos="r" depth="1" NCoef="0" IVar="9" Cut="2.3048062324523926e+00" cType="1" res="1.8779458478093147e-02" rms="3.9628776907920837e-01" purity="3.5709205269813538e-01" nType="0">
          <Node pos="l" depth="2" NCoef="0" IVar="-1" Cut="0.0000000000000000e+00" cType="1" res="1.8227219581604004e-02" rms="3.9936617016792297e-01" purity="3.9821270108222961e-01" nType="-99"/>
          <Node pos="r" depth="2" NCoef="0" IVar="-1" Cut="0.0000000000000000e+00" cType="1" res="7.3441355489194393e-03" rms="3.9308238029479980e-01" purity="3.1712353229522705e-01" nType="-99"/>
        </Node>
      </Node>
    </BinaryTree>
    <BinaryTree type="DecisionTree" boostWeight="1.0000000000000000e+00" itree="421">
      <Node pos="s" depth="0" NCoef="0" IVar="8" Cut="-6.6666662693023682e-01" cType="1" res="-1.8190551782026887e-03" rms="3.8468423485755920e-01" purity="4.9862506985664368e-01" nType="0">
        <Node pos="l" depth="1" NCoef="0" IVar="7" Cut="-1.4666351079940796e+00" cType="1" res="-1.0041897185146809e-02" rms="3.7826472520828247e-01" purity="4.2641040682792664e-01" nType="0">
          <Node pos="l" depth="2" NCoef="0" IVar="-1" Cut="0.0000000000000000e+00" cType="1" res="-3.9748292416334152e-02" rms="2.9706403613090515e-01" purity="1.4226981997489929e-01" nType="-99"/>
          <Node pos="r" depth="2" NCoef="0" IVar="7" Cut="-4.5094245672225952e-01" cType="1" res="-5.9252055361866951e-03" rms="3.8708978891372681e-01" purity="4.6219313144683838e-01" nType="0">
            <Node pos="l" depth="3" NCoef="0" IVar="-1" Cut="0.0000000000000000e+00" cType="1" res="7.9124318435788155e-03" rms="3.9998644590377808e-01" purity="4.5631405711174011e-01" nType="-99"/>
            <Node pos="r" depth="3" NCoef="0" IVar="-1" Cut="0.0000000000000000e+00" cType="1" res="-9.5250038430094719e-03" rms="3.8065490126609802e-01" purity="4.6492144465446472e-01" nType="-99"/>
          </Node>
        </Node>
        <Node pos="r" depth="1" NCoef="0" IVar="7" Cut="4.0005490183830261e-01" cType="1" res="1.3948921114206314e-03" rms="3.8711693882942200e-01" purity="5.2685058116912842e-01" nType="0">
          <Node pos="l" depth="2" NCoef="0" IVar="6" Cut="-3.9365124702453613e-01" cType="1" res="5.8006481267511845e-03" rms="3.8686236739158630e-01" purity="5.6668812036514282e-01" nType="0">
            <Node pos="l" depth="3" NCoef="0" IVar="-1" Cut="0.0000000000000000e+00" cType="1" res="9.4493748620152473e-03" rms="3.9408355951309204e-01" purity="5.3487586975097656e-01" nType="-99"/>
            <Node pos="r" depth="3" NCoef="0" IVar="-1" Cut="0.0000000000000000e+00" cType="1" res="8.1628648331388831e-04" rms="3.8307413458824158e-01" purity="5.8279120922088623e-01" nType="-99"/>
          </Node>
          <Node pos="r" depth="2" NCoef="0" IVar="6" Cut="9.6977621316909790e-01" cType="1" res="-6.2684719450771809e-03" rms="3.8744002580642700e-01" purity="4.5755732059478760e-01" nType="0">
            <Node pos="l" depth="3" NCoef="0" IVar="-1" Cut="0.0000000000000000e+00" cType="1" res="-8.4980148822069168e-03" rms="3.9184165000915527e-01" purity="4.9613469839096069e-01" nType="-99"/>
            <Node pos="r" depth="3" NCoef="0" IVar="-1" Cut="0.0000000000000000e+00" cType="1" res="1.6947139054536819e-02" rms="3.6785659193992615e-01" purity="3.0182096362113953e-01" nType="-99"/>
          </Node>
        </Node>
      </Node>
    </BinaryTree>
    <BinaryTree type="DecisionTree" boostWeight="1.0000000000000000e+00" itree="422">
      <Node pos="s" depth="0" NCoef="0" IVar="9" Cut="2.2666571140289307e+00" cType="1" res="8.2646199734881520e-04" rms="3.8751173019409180e-01" purity="5.0003063678741455e-01" nType="0">
        <Node pos="l" depth="1" NCoef="0" IVar="8" Cut="1.7333102226257324e+00" cType="1" res="1.8583328928798437e-03" rms="3.8850665092468262e-01" purity="5.0645881891250610e-01" nType="0">
          <Node pos="l" depth="2" NCoef="0" IVar="6" Cut="-9.2597699165344238e-01" cType="1" res="5.5191741557791829e-04" rms="3.8912808895111084e-01" purity="5.2096992731094360e-01" nType="0">
            <Node pos="l" depth="3" NCoef="0" IVar="-1" Cut="0.0000000000000000e+00" cType="1" res="-6.4449128694832325e-03" rms="3.7321832776069641e-01" purity="3.2774814963340759e-01" nType="-99"/>
            <Node pos="r" depth="3" NCoef="0" IVar="-1" Cut="0.0000000000000000e+00" cType="1" res="1.5885237371549010e-03" rms="3.9215442538261414e-01" purity="5.5898642539978027e-01" nType="-99"/>
          </Node>
          <Node pos="r" depth="2" NCoef="0" IVar="4" Cut="1.1722443389892578e+02" cType="1" res="1.9821915775537491e-02" rms="3.7940272688865662e-01" purity="3.0692765116691589e-01" nType="0">
            <Node pos="l" depth="3" NCoef="0" IVar="-1" Cut="0.0000000000000000e+00" cType="1" res="-6.6452578175812960e-04" rms="3.4988713264465332e-01" purity="1.9220705330371857e-01" nType="-99"/>
            <Node pos="r" depth="3" NCoef="0" IVar="-1" Cut="0.0000000000000000e+00" cType="1" res="3.0660662800073624e-02" rms="4.1570791602134705e-01" purity="4.6846023201942444e-01" nType="-99"/>
          </Node>
        </Node>
        <Node pos="r" depth="1" NCoef="0" IVar="-1" Cut="0.0000000000000000e+00" cType="1" res="-2.2759901359677315e-02" rms="3.5254362225532532e-01" purity="2.9396328330039978e-01" nType="-99"/>
      </Node>
    </BinaryTree>
    <BinaryTree type="DecisionTree" boostWeight="1.0000000000000000e+00" itree="423">
      <Node pos="s" depth="0" NCoef="0" IVar="9" Cut="1.9999967813491821e+00" cType="1" res="9.8881789017468691e-04" rms="3.8636139035224915e-01" purity="5.0133502483367920e-01" nType="0">
        <Node pos="l" depth="1" NCoef="0" IVar="6" Cut="1.4691361188888550e+00" cType="1" res="-5.1331566646695137e-04" rms="3.8606396317481995e-01" purity="5.0794434547424316e-01" nType="0">
          <Node pos="l" depth="2" NCoef="0" IVar="8" Cut="-1.4666861295700073e+00" cType="1" res="-2.0174679812043905e-03" rms="3.8893797993659973e-01" purity="5.2790057659149170e-01" nType="0">
            <Node pos="l" depth="3" NCoef="0" IVar="-1" Cut="0.0000000000000000e+00" cType="1" res="9.2930393293499947e-03" rms="3.8705712556838989e-01" purity="3.6135521531105042e-01" nType="-99"/>
            <Node pos="r" depth="3" NCoef="0" IVar="-1" Cut="0.0000000000000000e+00" cType="1" res="-2.4959919974207878e-03" rms="3.8911956548690796e-01" purity="5.4773718118667603e-01" nType="-99"/>
          </Node>
          <Node pos="r" depth="2" NCoef="0" IVar="9" Cut="1.7171843349933624e-01" cType="1" res="2.0699528977274895e-02" rms="3.4227344393730164e-01" purity="2.2650395333766937e-01" nType="0">
            <Node pos="l" depth="3" NCoef="0" IVar="-1" Cut="0.0000000000000000e+00" cType="1" res="3.1364642083644867e-02" rms="3.5917448997497559e-01" purity="2.6952856779098511e-01" nType="-99"/>
            <Node pos="r" depth="3" NCoef="0" IVar="-1" Cut="0.0000000000000000e+00" cType="1" res="1.6389803204219788e-04" rms="3.2066360116004944e-01" purity="1.7738053202629089e-01" nType="-99"/>
          </Node>
        </Node>
        <Node pos="r" depth="1" NCoef="0" IVar="6" Cut="2.0208828151226044e-01" cType="1" res="2.6546187698841095e-02" rms="3.9050292968750000e-01" purity="3.8888326287269592e-01" nType="0">
          <Node pos="l" depth="2" NCoef="0" IVar="-1" Cut="0.0000000000000000e+00" cType="1" res="2.7000499889254570e-02" rms="4.0775790810585022e-01" purity="4.3506327271461487e-01" nType="-99"/>
          <Node pos="r" depth="2" NCoef="0" IVar="-1" Cut="0.0000000000000000e+00" cType="1" res="6.2950770370662212e-03" rms="3.6872348189353943e-01" purity="3.3546650409698486e-01" nType="-99"/>
        </Node>
      </Node>
    </BinaryTree>
    <BinaryTree type="DecisionTree" boostWeight="1.0000000000000000e+00" itree="424">
      <Node pos="s" depth="0" NCoef="0" IVar="9" Cut="-3.9988064765930176e-01" cType="1" res="-1.6908773686736822e-03" rms="3.8742962479591370e-01" purity="4.9613219499588013e-01" nType="0">
        <Node pos="l" depth="1" NCoef="0" IVar="8" Cut="1.1999393701553345e+00" cType="1" res="5.5356053635478020e-03" rms="3.9078807830810547e-01" purity="4.8313277959823608e-01" nType="0">
          <Node pos="l" depth="2" NCoef="0" IVar="8" Cut="-1.6571462154388428e+00" cType="1" res="8.2411384209990501e-03" rms="3.9227780699729919e-01" purity="5.0217902660369873e-01" nType="0">
            <Node pos="l" depth="3" NCoef="0" IVar="-1" Cut="0.0000000000000000e+00" cType="1" res="-1.1635783128440380e-02" rms="3.3954340219497681e-01" purity="2.5396215915679932e-01" nType="-99"/>
            <Node pos="r" depth="3" NCoef="0" IVar="-1" Cut="0.0000000000000000e+00" cType="1" res="7.1571972221136093e-03" rms="3.9810550212860107e-01" purity="5.3226578235626221e-01" nType="-99"/>
          </Node>
          <Node pos="r" depth="2" NCoef="0" IVar="-1" Cut="0.0000000000000000e+00" cType="1" res="-8.9527498930692673e-03" rms="3.7971854209899902e-01" purity="3.5050410032272339e-01" nType="-99"/>
        </Node>
        <Node pos="r" depth="1" NCoef="0" IVar="9" Cut="2.1904971599578857e+00" cType="1" res="-6.2424889765679836e-03" rms="3.8522967696189880e-01" purity="5.0431990623474121e-01" nType="0">
          <Node pos="l" depth="2" NCoef="0" IVar="6" Cut="-1.4581344127655029e+00" cType="1" res="-8.3386497572064400e-03" rms="3.8493132591247559e-01" purity="5.1366138458251953e-01" nType="0">
            <Node pos="l" depth="3" NCoef="0" IVar="-1" Cut="0.0000000000000000e+00" cType="1" res="1.3171364553272724e-02" rms="3.6550745368003845e-01" purity="2.5770640373229980e-01" nType="-99"/>
            <Node pos="r" depth="3" NCoef="0" IVar="-1" Cut="0.0000000000000000e+00" cType="1" res="-6.5809572115540504e-03" rms="3.8611766695976257e-01" purity="5.3051102161407471e-01" nType="-99"/>
          </Node>
          <Node pos="r" depth="2" NCoef="0" IVar="-1" Cut="0.0000000000000000e+00" cType="1" res="1.7725901678204536e-02" rms="3.8836675882339478e-01" purity="3.6066845059394836e-01" nType="-99"/>
        </Node>
      </Node>
    </BinaryTree>
    <BinaryTree type="DecisionTree" boostWeight="1.0000000000000000e+00" itree="425">
      <Node pos="s" depth="0" NCoef="0" IVar="6" Cut="4.0478047728538513e-01" cType="1" res="1.4223773032426834e-03" rms="3.8791099190711975e-01" purity="4.9836552143096924e-01" nType="0">
        <Node pos="l" depth="1" NCoef="0" IVar="9" Cut="-1.3322432339191437e-01" cType="1" res="5.6812297552824020e-03" rms="3.9108097553253174e-01" purity="5.3952151536941528e-01" nType="0">
          <Node pos="l" depth="2" NCoef="0" IVar="6" Cut="-1.2606697082519531e+00" cType="1" res="-1.4325223164632916e-03" rms="3.9230677485466003e-01" purity="5.1360493898391724e-01" nType="0">
            <Node pos="l" depth="3" NCoef="0" IVar="-1" Cut="0.0000000000000000e+00" cType="1" res="1.6354396939277649e-02" rms="3.6214113235473633e-01" purity="2.4472977221012115e-01" nType="-99"/>
            <Node pos="r" depth="3" NCoef="0" IVar="-1" Cut="0.0000000000000000e+00" cType="1" res="-3.4272999037057161e-03" rms="3.9758256077766418e-01" purity="5.6402081251144409e-01" nType="-99"/>
          </Node>
          <Node pos="r" depth="2" NCoef="0" IVar="2" Cut="3.2286959838867188e+02" cType="1" res="1.2285004369914532e-02" rms="3.8982346653938293e-01" purity="5.6358021497726440e-01" nType="0">
            <Node pos="l" depth="3" NCoef="0" IVar="-1" Cut="0.0000000000000000e+00" cType="1" res="1.2917854823172092e-02" rms="4.0230265259742737e-01" purity="5.3305119276046753e-01" nType="-99"/>
            <Node pos="r" depth="3" NCoef="0" IVar="-1" Cut="0.0000000000000000e+00" cType="1" res="3.7497116718441248e-03" rms="3.8015621900558472e-01" purity="5.8624172210693359e-01" nType="-99"/>
          </Node>
        </Node>
        <Node pos="r" depth="1" NCoef="0" IVar="7" Cut="1.3344523310661316e-01" cType="1" res="-7.4154906906187534e-03" rms="3.8109675049781799e-01" purity="4.1295957565307617e-01" nType="0">
          <Node pos="l" depth="2" NCoef="0" IVar="6" Cut="1.4311661720275879e+00" cType="1" res="1.6002352349460125e-03" rms="3.8327717781066895e-01" purity="4.3739688396453857e-01" nType="0">
            <Node pos="l" depth="3" NCoef="0" IVar="-1" Cut="0.0000000000000000e+00" cType="1" res="-4.3890257366001606e-03" rms="3.8870760798454285e-01" purity="4.9273228645324707e-01" nType="-99"/>
            <Node pos="r" depth="3" NCoef="0" IVar="-1" Cut="0.0000000000000000e+00" cType="1" res="2.4134300649166107e-02" rms="3.6327353119850159e-01" purity="2.5353035330772400e-01" nType="-99"/>
          </Node>
          <Node pos="r" depth="2" NCoef="0" IVar="7" Cut="1.6571260690689087e+00" cType="1" res="-1.7141604796051979e-02" rms="3.7848967313766479e-01" purity="3.8659673929214478e-01" nType="0">
            <Node pos="l" depth="3" NCoef="0" IVar="-1" Cut="0.0000000000000000e+00" cType="1" res="-1.3960183598101139e-02" rms="3.8723742961883545e-01" purity="4.2407789826393127e-01" nType="-99"/>
            <Node pos="r" depth="3" NCoef="0" IVar="-1" Cut="0.0000000000000000e+00" cType="1" res="5.6203813292086124e-03" rms="3.2825362682342529e-01" purity="1.9145970046520233e-01" nType="-99"/>
          </Node>
        </Node>
      </Node>
    </BinaryTree>
    <BinaryTree type="DecisionTree" boostWeight="1.0000000000000000e+00" itree="426">
      <Node pos="s" depth="0" NCoef="0" IVar="9" Cut="-1.1999946832656860e+00" cType="1" res="3.1068555545061827e-03" rms="3.8565376400947571e-01" purity="5.0252658128738403e-01" nType="0">
        <Node pos="l" depth="1" NCoef="0" IVar="5" Cut="7.2212303161621094e+01" cType="1" res="-9.9047701805830002e-03" rms="3.8100612163543701e-01" purity="4.0438264608383179e-01" nType="0">
          <Node pos="l" depth="2" NCoef="0" IVar="9" Cut="-1.5809489488601685e+00" cType="1" res="-2.4754781275987625e-02" rms="3.5349765419960022e-01" purity="2.3647977411746979e-01" nType="0">
            <Node pos="l" depth="3" NCoef="0" IVar="-1" Cut="0.0000000000000000e+00" cType="1" res="-9.6505042165517807e-03" rms="3.4691262245178223e-01" purity="2.3176313936710358e-01" nType="-99"/>
            <Node pos="r" depth="3" NCoef="0" IVar="-1" Cut="0.0000000000000000e+00" cType="1" res="-3.3357493579387665e-02" rms="3.6484780907630920e-01" purity="2.4571184813976288e-01" nType="-99"/>
          </Node>
          <Node pos="r" depth="2" NCoef="0" IVar="7" Cut="-4.0011712908744812e-01" cType="1" res="1.8844529986381531e-03" rms="4.0111359953880310e-01" purity="5.3767853975296021e-01" nType="0">
            <Node pos="l" depth="3" NCoef="0" IVar="-1" Cut="0.0000000000000000e+00" cType="1" res="-8.1868926063179970e-03" rms="4.0437296032905579e-01" purity="4.6826657652854919e-01" nType="-99"/>
            <Node pos="r" depth="3" NCoef="0" IVar="-1" Cut="0.0000000000000000e+00" cType="1" res="7.2984383441507816e-03" rms="3.9864498376846313e-01" purity="5.8328235149383545e-01" nType="-99"/>
          </Node>
        </Node>
        <Node pos="r" depth="1" NCoef="0" IVar="0" Cut="5.5700848388671875e+02" cType="1" res="5.7459310628473759e-03" rms="3.8653618097305298e-01" purity="5.2243256568908691e-01" nType="0">
          <Node pos="l" depth="2" NCoef="0" IVar="0" Cut="4.8357171630859375e+02" cType="1" res="8.6753806099295616e-03" rms="3.9610648155212402e-01" purity="4.5332792401313782e-01" nType="0">
            <Node pos="l" depth="3" NCoef="0" IVar="-1" Cut="0.0000000000000000e+00" cType="1" res="3.3433707430958748e-03" rms="3.9827841520309448e-01" purity="4.0652772784233093e-01" nType="-99"/>
            <Node pos="r" depth="3" NCoef="0" IVar="-1" Cut="0.0000000000000000e+00" cType="1" res="1.6908386722207069e-02" rms="3.8413074612617493e-01" purity="6.9710248708724976e-01" nType="-99"/>
          </Node>
          <Node pos="r" depth="2" NCoef="0" IVar="1" Cut="1.5830679931640625e+03" cType="1" res="-5.8416184037923813e-03" rms="3.4585338830947876e-01" purity="7.9577893018722534e-01" nType="0">
            <Node pos="l" depth="3" NCoef="0" IVar="-1" Cut="0.0000000000000000e+00" cType="1" res="-1.8775787204504013e-02" rms="3.9299368858337402e-01" purity="6.9916522502899170e-01" nType="-99"/>
            <Node pos="r" depth="3" NCoef="0" IVar="-1" Cut="0.0000000000000000e+00" cType="1" res="4.1469605639576912e-03" rms="3.2080742716789246e-01" purity="8.4119564294815063e-01" nType="-99"/>
          </Node>
        </Node>
      </Node>
    </BinaryTree>
    <BinaryTree type="DecisionTree" boostWeight="1.0000000000000000e+00" itree="427">
      <Node pos="s" depth="0" NCoef="0" IVar="3" Cut="3.3475817871093750e+02" cType="1" res="-2.1921468432992697e-03" rms="3.8560786843299866e-01" purity="4.9741417169570923e-01" nType="0">
        <Node pos="l" depth="1" NCoef="0" IVar="1" Cut="1.2924299316406250e+03" cType="1" res="-5.6354014668613672e-04" rms="3.8652437925338745e-01" purity="4.8005294799804688e-01" nType="0">
          <Node pos="l" depth="2" NCoef="0" IVar="9" Cut="-1.9999636411666870e+00" cType="1" res="-4.8863063566386700e-03" rms="3.9841315150260925e-01" purity="3.2438611984252930e-01" nType="0">
            <Node pos="l" depth="3" NCoef="0" IVar="-1" Cut="0.0000000000000000e+00" cType="1" res="2.6302319020032883e-02" rms="3.8663393259048462e-01" purity="2.8043496608734131e-01" nType="-99"/>
            <Node pos="r" depth="3" NCoef="0" IVar="-1" Cut="0.0000000000000000e+00" cType="1" res="-4.7669992782175541e-03" rms="3.9907205104827881e-01" purity="3.2746917009353638e-01" nType="-99"/>
          </Node>
          <Node pos="r" depth="2" NCoef="0" IVar="3" Cut="2.6721514892578125e+02" cType="1" res="5.8892909437417984e-03" rms="3.6796903610229492e-01" purity="7.1242552995681763e-01" nType="0">
            <Node pos="l" depth="3" NCoef="0" IVar="-1" Cut="0.0000000000000000e+00" cType="1" res="6.6995751112699509e-03" rms="3.7545642256736755e-01" purity="6.9980841875076294e-01" nType="-99"/>
            <Node pos="r" depth="3" NCoef="0" IVar="-1" Cut="0.0000000000000000e+00" cType="1" res="-1.4954510843381286e-03" rms="3.5208207368850708e-01" purity="7.3814958333969116e-01" nType="-99"/>
          </Node>
        </Node>
        <Node pos="r" depth="1" NCoef="0" IVar="2" Cut="4.7453991699218750e+02" cType="1" res="-1.7602652311325073e-02" rms="3.7647673487663269e-01" purity="6.6169250011444092e-01" nType="0">
          <Node pos="l" depth="2" NCoef="0" IVar="-1" Cut="0.0000000000000000e+00" cType="1" res="-2.7677578851580620e-02" rms="3.5622757673263550e-01" purity="6.9987130165100098e-01" nType="-99"/>
          <Node pos="r" depth="2" NCoef="0" IVar="3" Cut="4.1584234619140625e+02" cType="1" res="-6.4660809002816677e-03" rms="3.8782864809036255e-01" purity="6.3852089643478394e-01" nType="0">
            <Node pos="l" depth="3" NCoef="0" IVar="-1" Cut="0.0000000000000000e+00" cType="1" res="8.2273874431848526e-03" rms="3.8345739245414734e-01" purity="6.4638686180114746e-01" nType="-99"/>
            <Node pos="r" depth="3" NCoef="0" IVar="-1" Cut="0.0000000000000000e+00" cType="1" res="-1.6426045447587967e-02" rms="3.9130160212516785e-01" purity="6.3047426939010620e-01" nType="-99"/>
          </Node>
        </Node>
      </Node>
    </BinaryTree>
    <BinaryTree type="DecisionTree" boostWeight="1.0000000000000000e+00" itree="428">
      <Node pos="s" depth="0" NCoef="0" IVar="3" Cut="1.3582890319824219e+02" cType="1" res="8.5243716603145003e-04" rms="3.8635888695716858e-01" purity="5.0012677907943726e-01" nType="0">
        <Node pos="l" depth="1" NCoef="0" IVar="3" Cut="1.2781597900390625e+02" cType="1" res="-8.2583427429199219e-03" rms="3.5724797844886780e-01" purity="2.0982542634010315e-01" nType="0">
          <Node pos="l" depth="2" NCoef="0" IVar="9" Cut="4.0002009272575378e-01" cType="1" res="-1.3233708217740059e-02" rms="3.4481686353683472e-01" purity="1.8624383211135864e-01" nType="0">
            <Node pos="l" depth="3" NCoef="0" IVar="-1" Cut="0.0000000000000000e+00" cType="1" res="-1.8265670165419579e-02" rms="3.3776494860649109e-01" purity="1.7832607030868530e-01" nType="-99"/>
            <Node pos="r" depth="3" NCoef="0" IVar="-1" Cut="0.0000000000000000e+00" cType="1" res="1.7596966354176402e-03" rms="3.5443541407585144e-01" purity="1.9796583056449890e-01" nType="-99"/>
          </Node>
          <Node pos="r" depth="2" NCoef="0" IVar="-1" Cut="0.0000000000000000e+00" cType="1" res="1.0407918132841587e-02" rms="4.1359129548072815e-01" purity="3.2923147082328796e-01" nType="-99"/>
        </Node>
        <Node pos="r" depth="1" NCoef="0" IVar="3" Cut="2.1595758056640625e+02" cType="1" res="3.1085079535841942e-03" rms="3.9320215582847595e-01" purity="5.7201313972473145e-01" nType="0">
          <Node pos="l" depth="2" NCoef="0" IVar="7" Cut="1.1998718976974487e+00" cType="1" res="8.4605943411588669e-03" rms="4.0848359465599060e-01" purity="4.8203608393669128e-01" nType="0">
            <Node pos="l" depth="3" NCoef="0" IVar="-1" Cut="0.0000000000000000e+00" cType="1" res="6.4331339672207832e-03" rms="4.1454517841339111e-01" purity="5.1309019327163696e-01" nType="-99"/>
            <Node pos="r" depth="3" NCoef="0" IVar="-1" Cut="0.0000000000000000e+00" cType="1" res="-5.1388014107942581e-03" rms="3.6806702613830566e-01" purity="2.8844413161277771e-01" nType="-99"/>
          </Node>
          <Node pos="r" depth="2" NCoef="0" IVar="9" Cut="-1.7331300973892212e+00" cType="1" res="-1.7818065825849771e-03" rms="3.7863430380821228e-01" purity="6.5422701835632324e-01" nType="0">
            <Node pos="l" depth="3" NCoef="0" IVar="-1" Cut="0.0000000000000000e+00" cType="1" res="-1.5551691874861717e-02" rms="3.8656738400459290e-01" purity="5.0242793560028076e-01" nType="-99"/>
            <Node pos="r" depth="3" NCoef="0" IVar="-1" Cut="0.0000000000000000e+00" cType="1" res="-6.3132538343779743e-05" rms="3.7798255681991577e-01" purity="6.6552603244781494e-01" nType="-99"/>
          </Node>
        </Node>
      </Node>
    </BinaryTree>
    <BinaryTree type="DecisionTree" boostWeight="1.0000000000000000e+00" itree="429">
      <Node pos="s" depth="0" NCoef="0" IVar="9" Cut="-1.3332885503768921e-01" cType="1" res="7.0364301791414618e-05" rms="3.8375869393348694e-01" purity="5.0176370143890381e-01" nType="0">
        <Node pos="l" depth="1" NCoef="0" IVar="8" Cut="-1.4666872024536133e+00" cType="1" res="5.3646620362997055e-03" rms="3.8742899894714355e-01" purity="4.9778765439987183e-01" nType="0">
          <Node pos="l" depth="2" NCoef="0" IVar="5" Cut="6.9926216125488281e+01" cType="1" res="2.5805089622735977e-02" rms="3.6927410960197449e-01" purity="3.3381876349449158e-01" nType="0">
            <Node pos="l" depth="3" NCoef="0" IVar="-1" Cut="0.0000000000000000e+00" cType="1" res="1.5878338366746902e-02" rms="3.3001953363418579e-01" purity="2.0172157883644104e-01" nType="-99"/>
            <Node pos="r" depth="3" NCoef="0" IVar="-1" Cut="0.0000000000000000e+00" cType="1" res="2.1228142082691193e-02" rms="3.9925187826156616e-01" purity="4.4519141316413879e-01" nType="-99"/>
          </Node>
          <Node pos="r" depth="2" NCoef="0" IVar="9" Cut="-2.0380887985229492e+00" cType="1" res="2.5288071483373642e-03" rms="3.8979634642601013e-01" purity="5.2053624391555786e-01" nType="0">
            <Node pos="l" depth="3" NCoef="0" IVar="-1" Cut="0.0000000000000000e+00" cType="1" res="-1.1137360706925392e-02" rms="3.7656605243682861e-01" purity="3.6232858896255493e-01" nType="-99"/>
            <Node pos="r" depth="3" NCoef="0" IVar="-1" Cut="0.0000000000000000e+00" cType="1" res="3.0937010888010263e-03" rms="3.9122667908668518e-01" purity="5.3872972726821899e-01" nType="-99"/>
          </Node>
        </Node>
        <Node pos="r" depth="1" NCoef="0" IVar="3" Cut="2.1380673217773438e+02" cType="1" res="-4.4380417093634605e-03" rms="3.8054725527763367e-01" purity="5.0514960289001465e-01" nType="0">
          <Node pos="l" depth="2" NCoef="0" IVar="8" Cut="9.3321746587753296e-01" cType="1" res="-1.1561050079762936e-02" rms="3.8582789897918701e-01" purity="3.7437975406646729e-01" nType="0">
            <Node pos="l" depth="3" NCoef="0" IVar="-1" Cut="0.0000000000000000e+00" cType="1" res="-1.0992501862347126e-02" rms="3.8903674483299255e-01" purity="4.0368038415908813e-01" nType="-99"/>
            <Node pos="r" depth="3" NCoef="0" IVar="-1" Cut="0.0000000000000000e+00" cType="1" res="4.4114990159869194e-03" rms="3.7601506710052490e-01" purity="2.9124343395233154e-01" nType="-99"/>
          </Node>
          <Node pos="r" depth="2" NCoef="0" IVar="2" Cut="6.0075921630859375e+02" cType="1" res="4.5772204175591469e-03" rms="3.7356212735176086e-01" purity="6.7065894603729248e-01" nType="0">
            <Node pos="l" depth="3" NCoef="0" IVar="-1" Cut="0.0000000000000000e+00" cType="1" res="6.4967093057930470e-03" rms="3.7117534875869751e-01" purity="6.8478733301162720e-01" nType="-99"/>
            <Node pos="r" depth="3" NCoef="0" IVar="-1" Cut="0.0000000000000000e+00" cType="1" res="-1.8339261412620544e-02" rms="3.8891047239303589e-01" purity="5.6705451011657715e-01" nType="-99"/>
          </Node>
        </Node>
      </Node>
    </BinaryTree>
    <BinaryTree type="DecisionTree" boostWeight="1.0000000000000000e+00" itree="430">
      <Node pos="s" depth="0" NCoef="0" IVar="8" Cut="-6.6666662693023682e-01" cType="1" res="2.1003859583288431e-03" rms="3.8647535443305969e-01" purity="4.9974769353866577e-01" nType="0">
        <Node pos="l" depth="1" NCoef="0" IVar="7" Cut="6.6636514663696289e-01" cType="1" res="8.7302690371870995e-03" rms="3.8490459322929382e-01" purity="4.4261792302131653e-01" nType="0">
          <Node pos="l" depth="2" NCoef="0" IVar="2" Cut="4.3589620971679688e+02" cType="1" res="1.4496019110083580e-02" rms="3.8722550868988037e-01" purity="4.7012415528297424e-01" nType="0">
            <Node pos="l" depth="3" NCoef="0" IVar="-1" Cut="0.0000000000000000e+00" cType="1" res="1.3128925114870071e-02" rms="3.8734400272369385e-01" purity="4.5531797409057617e-01" nType="-99"/>
            <Node pos="r" depth="3" NCoef="0" IVar="-1" Cut="0.0000000000000000e+00" cType="1" res="-3.3259534393437207e-04" rms="3.8649839162826538e-01" purity="5.1150339841842651e-01" nType="-99"/>
          </Node>
          <Node pos="r" depth="2" NCoef="0" IVar="4" Cut="1.2039553070068359e+02" cType="1" res="-1.1553064920008183e-02" rms="3.7592419981956482e-01" purity="3.4585365653038025e-01" nType="0">
            <Node pos="l" depth="3" NCoef="0" IVar="-1" Cut="0.0000000000000000e+00" cType="1" res="8.6546381935477257e-03" rms="3.7423172593116760e-01" purity="2.4645857512950897e-01" nType="-99"/>
            <Node pos="r" depth="3" NCoef="0" IVar="-1" Cut="0.0000000000000000e+00" cType="1" res="-2.6385376229882240e-02" rms="3.7601864337921143e-01" purity="4.6922522783279419e-01" nType="-99"/>
          </Node>
        </Node>
        <Node pos="r" depth="1" NCoef="0" IVar="7" Cut="6.6656476259231567e-01" cType="1" res="-5.4638209985569119e-04" rms="3.8706892728805542e-01" purity="5.2255493402481079e-01" nType="0">
          <Node pos="l" depth="2" NCoef="0" IVar="6" Cut="-1.1919696331024170e+00" cType="1" res="-4.1192150674760342e-03" rms="3.8711819052696228e-01" purity="5.6061893701553345e-01" nType="0">
            <Node pos="l" depth="3" NCoef="0" IVar="-1" Cut="0.0000000000000000e+00" cType="1" res="-1.8077792599797249e-02" rms="3.6574250459671021e-01" purity="2.8744852542877197e-01" nType="-99"/>
            <Node pos="r" depth="3" NCoef="0" IVar="-1" Cut="0.0000000000000000e+00" cType="1" res="-1.2414013035595417e-03" rms="3.8913026452064514e-01" purity="5.8805233240127563e-01" nType="-99"/>
          </Node>
          <Node pos="r" depth="2" NCoef="0" IVar="9" Cut="6.6689640283584595e-01" cType="1" res="8.6241886019706726e-03" rms="3.8679137825965881e-01" purity="4.2485406994819641e-01" nType="0">
            <Node pos="l" depth="3" NCoef="0" IVar="-1" Cut="0.0000000000000000e+00" cType="1" res="1.3387152925133705e-02" rms="3.9396402239799500e-01" purity="4.6945989131927490e-01" nType="-99"/>
            <Node pos="r" depth="3" NCoef="0" IVar="-1" Cut="0.0000000000000000e+00" cType="1" res="-8.4178568795323372e-03" rms="3.7315186858177185e-01" purity="3.4750422835350037e-01" nType="-99"/>
          </Node>
        </Node>
      </Node>
    </BinaryTree>
    <BinaryTree type="DecisionTree" boostWeight="1.0000000000000000e+00" itree="431">
      <Node pos="s" depth="0" NCoef="0" IVar="4" Cut="1.0501953125000000e+02" cType="1" res="-1.6681342385709286e-03" rms="3.8615411520004272e-01" purity="4.9485674500465393e-01" nType="0">
        <Node pos="l" depth="1" NCoef="0" IVar="5" Cut="5.2608493804931641e+01" cType="1" res="-9.8355663940310478e-03" rms="3.7446209788322449e-01" purity="2.5096458196640015e-01" nType="0">
          <Node pos="l" depth="2" NCoef="0" IVar="-1" Cut="0.0000000000000000e+00" cType="1" res="2.0055923610925674e-02" rms="3.5881948471069336e-01" purity="1.9160005450248718e-01" nType="-99"/>
          <Node pos="r" depth="2" NCoef="0" IVar="8" Cut="1.3332483172416687e-01" cType="1" res="-1.4399540610611439e-02" rms="3.7634444236755371e-01" purity="2.5916695594787598e-01" nType="0">
            <Node pos="l" depth="3" NCoef="0" IVar="-1" Cut="0.0000000000000000e+00" cType="1" res="-1.7273129895329475e-02" rms="3.7457907199859619e-01" purity="2.5438058376312256e-01" nType="-99"/>
            <Node pos="r" depth="3" NCoef="0" IVar="-1" Cut="0.0000000000000000e+00" cType="1" res="-5.1450455794110894e-04" rms="3.7792098522186279e-01" purity="2.6471263170242310e-01" nType="-99"/>
          </Node>
        </Node>
        <Node pos="r" depth="1" NCoef="0" IVar="7" Cut="-1.4664684534072876e+00" cType="1" res="2.7589565142989159e-03" rms="3.9227503538131714e-01" purity="6.2705653905868530e-01" nType="0">
          <Node pos="l" depth="2" NCoef="0" IVar="-1" Cut="0.0000000000000000e+00" cType="1" res="-1.4593285508453846e-02" rms="3.7319114804267883e-01" purity="3.4354516863822937e-01" nType="-99"/>
          <Node pos="r" depth="2" NCoef="0" IVar="0" Cut="4.2762841796875000e+02" cType="1" res="4.7375713475048542e-03" rms="3.9367276430130005e-01" purity="6.4941614866256714e-01" nType="0">
            <Node pos="l" depth="3" NCoef="0" IVar="-1" Cut="0.0000000000000000e+00" cType="1" res="6.7404676228761673e-03" rms="4.2762294411659241e-01" purity="5.0390326976776123e-01" nType="-99"/>
            <Node pos="r" depth="3" NCoef="0" IVar="-1" Cut="0.0000000000000000e+00" cType="1" res="-1.7967544263228774e-03" rms="3.5921606421470642e-01" purity="7.8425860404968262e-01" nType="-99"/>
          </Node>
        </Node>
      </Node>
    </BinaryTree>
    <BinaryTree type="DecisionTree" boostWeight="1.0000000000000000e+00" itree="432">
      <Node pos="s" depth="0" NCoef="0" IVar="8" Cut="3.9995068311691284e-01" cType="1" res="-4.1650151833891869e-03" rms="3.8586416840553284e-01" purity="4.9223560094833374e-01" nType="0">
        <Node pos="l" depth="1" NCoef="0" IVar="8" Cut="-2.1904771327972412e+00" cType="1" res="-3.0456832610070705e-04" rms="3.8669902086257935e-01" purity="5.1723569631576538e-01" nType="0">
          <Node pos="l" depth="2" NCoef="0" IVar="-1" Cut="0.0000000000000000e+00" cType="1" res="-2.7584169059991837e-02" rms="3.1116744875907898e-01" purity="1.8732574582099915e-01" nType="-99"/>
          <Node pos="r" depth="2" NCoef="0" IVar="6" Cut="-1.1919403076171875e+00" cType="1" res="1.0834349086508155e-03" rms="3.8965505361557007e-01" purity="5.3188300132751465e-01" nType="0">
            <Node pos="l" depth="3" NCoef="0" IVar="-1" Cut="0.0000000000000000e+00" cType="1" res="1.4257756993174553e-02" rms="3.7653854489326477e-01" purity="2.9111382365226746e-01" nType="-99"/>
            <Node pos="r" depth="3" NCoef="0" IVar="-1" Cut="0.0000000000000000e+00" cType="1" res="-7.7612895984202623e-04" rms="3.9123022556304932e-01" purity="5.6246793270111084e-01" nType="-99"/>
          </Node>
        </Node>
        <Node pos="r" depth="1" NCoef="0" IVar="9" Cut="2.0000066757202148e+00" cType="1" res="-1.1116343550384045e-02" rms="3.8425853848457336e-01" purity="4.4721910357475281e-01" nType="0">
          <Node pos="l" depth="2" NCoef="0" IVar="8" Cut="1.7713549137115479e+00" cType="1" res="-1.3764676637947559e-02" rms="3.8440623879432678e-01" purity="4.5502871274948120e-01" nType="0">
            <Node pos="l" depth="3" NCoef="0" IVar="-1" Cut="0.0000000000000000e+00" cType="1" res="-6.6268392838537693e-03" rms="3.9164575934410095e-01" purity="4.9700519442558289e-01" nType="-99"/>
            <Node pos="r" depth="3" NCoef="0" IVar="-1" Cut="0.0000000000000000e+00" cType="1" res="-2.3002734407782555e-02" rms="3.4769314527511597e-01" purity="2.5700691342353821e-01" nType="-99"/>
          </Node>
          <Node pos="r" depth="2" NCoef="0" IVar="-1" Cut="0.0000000000000000e+00" cType="1" res="1.6409348696470261e-02" rms="3.8062542676925659e-01" purity="3.4501069784164429e-01" nType="-99"/>
        </Node>
      </Node>
    </BinaryTree>
    <BinaryTree type="DecisionTree" boostWeight="1.0000000000000000e+00" itree="433">
      <Node pos="s" depth="0" NCoef="0" IVar="8" Cut="-1.3334368169307709e-01" cType="1" res="4.2144706822000444e-04" rms="3.8588353991508484e-01" purity="4.9896270036697388e-01" nType="0">
        <Node pos="l" depth="1" NCoef="0" IVar="7" Cut="-1.4666166305541992e+00" cType="1" res="-4.8385933041572571e-03" rms="3.8384175300598145e-01" purity="4.8281276226043701e-01" nType="0">
          <Node pos="l" depth="2" NCoef="0" IVar="-1" Cut="0.0000000000000000e+00" cType="1" res="1.7339045181870461e-02" rms="3.6973708868026733e-01" purity="2.5759622454643250e-01" nType="-99"/>
          <Node pos="r" depth="2" NCoef="0" IVar="8" Cut="-7.6825952529907227e-01" cType="1" res="-7.9471217468380928e-03" rms="3.8537546992301941e-01" purity="5.0972837209701538e-01" nType="0">
            <Node pos="l" depth="3" NCoef="0" IVar="-1" Cut="0.0000000000000000e+00" cType="1" res="-9.0939714573323727e-04" rms="3.8189220428466797e-01" purity="4.5092454552650452e-01" nType="-99"/>
            <Node pos="r" depth="3" NCoef="0" IVar="-1" Cut="0.0000000000000000e+00" cType="1" res="-1.0520014911890030e-02" rms="3.8948610424995422e-01" purity="5.8241999149322510e-01" nType="-99"/>
          </Node>
        </Node>
        <Node pos="r" depth="1" NCoef="0" IVar="3" Cut="1.4498309326171875e+02" cType="1" res="4.6994723379611969e-03" rms="3.8748356699943542e-01" purity="5.1209747791290283e-01" nType="0">
          <Node pos="l" depth="2" NCoef="0" IVar="7" Cut="-9.3343114852905273e-01" cType="1" res="1.3690089806914330e-02" rms="3.8410142064094543e-01" purity="2.5988888740539551e-01" nType="0">
            <Node pos="l" depth="3" NCoef="0" IVar="-1" Cut="0.0000000000000000e+00" cType="1" res="3.1746353954076767e-02" rms="3.7373539805412292e-01" purity="2.6232570409774780e-01" nType="-99"/>
            <Node pos="r" depth="3" NCoef="0" IVar="-1" Cut="0.0000000000000000e+00" cType="1" res="3.7773407530039549e-03" rms="3.8664737343788147e-01" purity="2.5918734073638916e-01" nType="-99"/>
          </Node>
          <Node pos="r" depth="2" NCoef="0" IVar="7" Cut="-4.0008020401000977e-01" cType="1" res="1.8777956720441580e-03" rms="3.8849607110023499e-01" purity="5.9125244617462158e-01" nType="0">
            <Node pos="l" depth="3" NCoef="0" IVar="-1" Cut="0.0000000000000000e+00" cType="1" res="-5.8205509558320045e-03" rms="3.9041128754615784e-01" purity="5.4266726970672607e-01" nType="-99"/>
            <Node pos="r" depth="3" NCoef="0" IVar="-1" Cut="0.0000000000000000e+00" cType="1" res="4.3604848906397820e-03" rms="3.8755619525909424e-01" purity="6.1257779598236084e-01" nType="-99"/>
          </Node>
        </Node>
      </Node>
    </BinaryTree>
    <BinaryTree type="DecisionTree" boostWeight="1.0000000000000000e+00" itree="434">
      <Node pos="s" depth="0" NCoef="0" IVar="9" Cut="-2.2666609287261963e+00" cType="1" res="1.7733300337567925e-03" rms="3.8488605618476868e-01" purity="4.9921366572380066e-01" nType="0">
        <Node pos="l" depth="1" NCoef="0" IVar="-1" Cut="0.0000000000000000e+00" cType="1" res="2.1668011322617531e-02" rms="3.7207916378974915e-01" purity="3.4960687160491943e-01" nType="-99"/>
        <Node pos="r" depth="1" NCoef="0" IVar="8" Cut="6.6665768623352051e-01" cType="1" res="7.9070829087868333e-04" rms="3.8526710867881775e-01" purity="5.0420421361923218e-01" nType="0">
          <Node pos="l" depth="2" NCoef="0" IVar="7" Cut="-6.6658407449722290e-01" cType="1" res="4.4960840605199337e-03" rms="3.8739728927612305e-01" purity="5.3568196296691895e-01" nType="0">
            <Node pos="l" depth="3" NCoef="0" IVar="-1" Cut="0.0000000000000000e+00" cType="1" res="8.6448555812239647e-03" rms="3.8600644469261169e-01" purity="4.5568749308586121e-01" nType="-99"/>
            <Node pos="r" depth="3" NCoef="0" IVar="-1" Cut="0.0000000000000000e+00" cType="1" res="6.9101963890716434e-04" rms="3.8789513707160950e-01" purity="5.6748598814010620e-01" nType="-99"/>
          </Node>
          <Node pos="r" depth="2" NCoef="0" IVar="3" Cut="1.3359887695312500e+02" cType="1" res="-8.8133616372942924e-03" rms="3.7952184677124023e-01" purity="4.2261630296707153e-01" nType="0">
            <Node pos="l" depth="3" NCoef="0" IVar="-1" Cut="0.0000000000000000e+00" cType="1" res="2.5534080341458321e-03" rms="3.4822538495063782e-01" purity="1.9386109709739685e-01" nType="-99"/>
            <Node pos="r" depth="3" NCoef="0" IVar="-1" Cut="0.0000000000000000e+00" cType="1" res="-7.7309506013989449e-03" rms="3.8766348361968994e-01" purity="4.8585617542266846e-01" nType="-99"/>
          </Node>
        </Node>
      </Node>
    </BinaryTree>
    <BinaryTree type="DecisionTree" boostWeight="1.0000000000000000e+00" itree="435">
      <Node pos="s" depth="0" NCoef="0" IVar="2" Cut="5.0379873657226562e+02" cType="1" res="5.9700454585254192e-04" rms="3.8607314229011536e-01" purity="4.9884024262428284e-01" nType="0">
        <Node pos="l" depth="1" NCoef="0" IVar="6" Cut="4.0452641248703003e-01" cType="1" res="-1.6069938428699970e-03" rms="3.8486650586128235e-01" purity="4.8629137873649597e-01" nType="0">
          <Node pos="l" depth="2" NCoef="0" IVar="4" Cut="7.0830764770507812e+01" cType="1" res="-5.0027123652398586e-03" rms="3.8814768195152283e-01" purity="5.1739239692687988e-01" nType="0">
            <Node pos="l" depth="3" NCoef="0" IVar="-1" Cut="0.0000000000000000e+00" cType="1" res="-2.2141227498650551e-02" rms="3.1771096587181091e-01" purity="1.3993793725967407e-01" nType="-99"/>
            <Node pos="r" depth="3" NCoef="0" IVar="-1" Cut="0.0000000000000000e+00" cType="1" res="-1.9211809849366546e-03" rms="3.9425182342529297e-01" purity="5.5399686098098755e-01" nType="-99"/>
          </Node>
          <Node pos="r" depth="2" NCoef="0" IVar="8" Cut="-6.6685450077056885e-01" cType="1" res="4.9140169285237789e-03" rms="3.7840023636817932e-01" purity="4.2656612396240234e-01" nType="0">
            <Node pos="l" depth="3" NCoef="0" IVar="-1" Cut="0.0000000000000000e+00" cType="1" res="-1.1522442102432251e-02" rms="3.6427161097526550e-01" purity="3.4655830264091492e-01" nType="-99"/>
            <Node pos="r" depth="3" NCoef="0" IVar="-1" Cut="0.0000000000000000e+00" cType="1" res="7.9133464023470879e-03" rms="3.8255947828292847e-01" purity="4.5212373137474060e-01" nType="-99"/>
          </Node>
        </Node>
        <Node pos="r" depth="1" NCoef="0" IVar="6" Cut="4.8899129033088684e-01" cType="1" res="1.1709226295351982e-02" rms="3.9191153645515442e-01" purity="5.6210976839065552e-01" nType="0">
          <Node pos="l" depth="2" NCoef="0" IVar="1" Cut="1.6028468017578125e+03" cType="1" res="1.8862342461943626e-02" rms="3.9442113041877747e-01" purity="6.0778748989105225e-01" nType="0">
            <Node pos="l" depth="3" NCoef="0" IVar="-1" Cut="0.0000000000000000e+00" cType="1" res="2.2309072315692902e-02" rms="4.1623798012733459e-01" purity="3.7115046381950378e-01" nType="-99"/>
            <Node pos="r" depth="3" NCoef="0" IVar="-1" Cut="0.0000000000000000e+00" cType="1" res="6.6388021223247051e-03" rms="3.8282576203346252e-01" purity="7.2512710094451904e-01" nType="-99"/>
          </Node>
          <Node pos="r" depth="2" NCoef="0" IVar="-1" Cut="0.0000000000000000e+00" cType="1" res="-5.6894314475357533e-03" rms="3.8403972983360291e-01" purity="4.3345555663108826e-01" nType="-99"/>
        </Node>
      </Node>
    </BinaryTree>
    <BinaryTree type="DecisionTree" boostWeight="1.0000000000000000e+00" itree="436">
      <Node pos="s" depth="0" NCoef="0" IVar="3" Cut="4.2750939941406250e+02" cType="1" res="1.7576490063220263e-03" rms="3.8541468977928162e-01" purity="4.9775165319442749e-01" nType="0">
        <Node pos="l" depth="1" NCoef="0" IVar="3" Cut="3.0233752441406250e+02" cType="1" res="7.9375004861503839e-04" rms="3.8518631458282471e-01" purity="4.9159598350524902e-01" nType="0">
          <Node pos="l" depth="2" NCoef="0" IVar="4" Cut="2.1769743347167969e+02" cType="1" res="2.8717515524476767e-03" rms="3.8779237866401672e-01" purity="4.6662214398384094e-01" nType="0">
            <Node pos="l" depth="3" NCoef="0" IVar="-1" Cut="0.0000000000000000e+00" cType="1" res="9.8555209115147591e-04" rms="3.9020472764968872e-01" purity="4.4622048735618591e-01" nType="-99"/>
            <Node pos="r" depth="3" NCoef="0" IVar="-1" Cut="0.0000000000000000e+00" cType="1" res="2.0393867045640945e-02" rms="3.4578192234039307e-01" purity="7.9611098766326904e-01" nType="-99"/>
          </Node>
          <Node pos="r" depth="2" NCoef="0" IVar="9" Cut="-3.9941814541816711e-01" cType="1" res="-1.4272611588239670e-02" rms="3.6538293957710266e-01" purity="6.7266666889190674e-01" nType="0">
            <Node pos="l" depth="3" NCoef="0" IVar="-1" Cut="0.0000000000000000e+00" cType="1" res="-2.6367772370576859e-02" rms="3.6691516637802124e-01" purity="6.2945300340652466e-01" nType="-99"/>
            <Node pos="r" depth="3" NCoef="0" IVar="-1" Cut="0.0000000000000000e+00" cType="1" res="-1.1808307608589530e-03" rms="3.6390292644500732e-01" purity="6.9711101055145264e-01" nType="-99"/>
          </Node>
        </Node>
        <Node pos="r" depth="1" NCoef="0" IVar="-1" Cut="0.0000000000000000e+00" cType="1" res="1.8093731254339218e-02" rms="3.9092260599136353e-01" purity="6.7528146505355835e-01" nType="-99"/>
      </Node>
    </BinaryTree>
    <BinaryTree type="DecisionTree" boostWeight="1.0000000000000000e+00" itree="437">
      <Node pos="s" depth="0" NCoef="0" IVar="9" Cut="1.9999458789825439e+00" cType="1" res="2.0904751727357507e-04" rms="3.8524785637855530e-01" purity="5.0055766105651855e-01" nType="0">
        <Node pos="l" depth="1" NCoef="0" IVar="7" Cut="6.6664916276931763e-01" cType="1" res="1.5095757553353906e-03" rms="3.8601472973823547e-01" purity="5.0991338491439819e-01" nType="0">
          <Node pos="l" depth="2" NCoef="0" IVar="8" Cut="-1.9999421834945679e+00" cType="1" res="-1.7766954842954874e-03" rms="3.8668665289878845e-01" purity="5.3843271732330322e-01" nType="0">
            <Node pos="l" depth="3" NCoef="0" IVar="-1" Cut="0.0000000000000000e+00" cType="1" res="2.1603796631097794e-02" rms="3.6094719171524048e-01" purity="3.0285429954528809e-01" nType="-99"/>
            <Node pos="r" depth="3" NCoef="0" IVar="-1" Cut="0.0000000000000000e+00" cType="1" res="-2.1266315598040819e-03" rms="3.8781481981277466e-01" purity="5.4970920085906982e-01" nType="-99"/>
          </Node>
          <Node pos="r" depth="2" NCoef="0" IVar="5" Cut="7.8396553039550781e+01" cType="1" res="1.0757143609225750e-02" rms="3.8396665453910828e-01" purity="4.2965981364250183e-01" nType="0">
            <Node pos="l" depth="3" NCoef="0" IVar="-1" Cut="0.0000000000000000e+00" cType="1" res="8.4819050971418619e-04" rms="3.6865404248237610e-01" purity="2.5202098488807678e-01" nType="-99"/>
            <Node pos="r" depth="3" NCoef="0" IVar="-1" Cut="0.0000000000000000e+00" cType="1" res="1.2630610726773739e-02" rms="3.9818328619003296e-01" purity="6.0380750894546509e-01" nType="-99"/>
          </Node>
        </Node>
        <Node pos="r" depth="1" NCoef="0" IVar="8" Cut="1.3315293192863464e-01" cType="1" res="-2.3007377982139587e-02" rms="3.7052443623542786e-01" purity="3.3354490995407104e-01" nType="0">
          <Node pos="l" depth="2" NCoef="0" IVar="-1" Cut="0.0000000000000000e+00" cType="1" res="-2.0496224984526634e-02" rms="3.7040841579437256e-01" purity="3.5651102662086487e-01" nType="-99"/>
          <Node pos="r" depth="2" NCoef="0" IVar="-1" Cut="0.0000000000000000e+00" cType="1" res="-1.0962691158056259e-02" rms="3.7048947811126709e-01" purity="3.1110349297523499e-01" nType="-99"/>
        </Node>
      </Node>
    </BinaryTree>
    <BinaryTree type="DecisionTree" boostWeight="1.0000000000000000e+00" itree="438">
      <Node pos="s" depth="0" NCoef="0" IVar="8" Cut="9.3331772089004517e-01" cType="1" res="1.4002021634951234e-03" rms="3.8700169324874878e-01" purity="5.0103145837783813e-01" nType="0">
        <Node pos="l" depth="1" NCoef="0" IVar="1" Cut="1.0998989257812500e+03" cType="1" res="-2.2098566405475140e-03" rms="3.8780459761619568e-01" purity="5.2319914102554321e-01" nType="0">
          <Node pos="l" depth="2" NCoef="0" IVar="8" Cut="-1.3348670303821564e-01" cType="1" res="6.1467345803976059e-03" rms="3.8948547840118408e-01" purity="2.5522881746292114e-01" nType="0">
            <Node pos="l" depth="3" NCoef="0" IVar="-1" Cut="0.0000000000000000e+00" cType="1" res="1.0534097440540791e-02" rms="3.7907749414443970e-01" purity="2.4425812065601349e-01" nType="-99"/>
            <Node pos="r" depth="3" NCoef="0" IVar="-1" Cut="0.0000000000000000e+00" cType="1" res="-4.8355623148381710e-03" rms="4.0528884530067444e-01" purity="2.7290254831314087e-01" nType="-99"/>
          </Node>
          <Node pos="r" depth="2" NCoef="0" IVar="5" Cut="1.3116470336914062e+02" cType="1" res="-5.8493893593549728e-03" rms="3.8701385259628296e-01" purity="6.3990789651870728e-01" nType="0">
            <Node pos="l" depth="3" NCoef="0" IVar="-1" Cut="0.0000000000000000e+00" cType="1" res="-6.0505308210849762e-03" rms="4.0703657269477844e-01" purity="5.7277554273605347e-01" nType="-99"/>
            <Node pos="r" depth="3" NCoef="0" IVar="-1" Cut="0.0000000000000000e+00" cType="1" res="6.0562468133866787e-03" rms="3.2055464386940002e-01" purity="8.3759540319442749e-01" nType="-99"/>
          </Node>
        </Node>
        <Node pos="r" depth="1" NCoef="0" IVar="6" Cut="9.4163662195205688e-01" cType="1" res="1.4505044557154179e-02" rms="3.8378763198852539e-01" purity="4.2056071758270264e-01" nType="0">
          <Node pos="l" depth="2" NCoef="0" IVar="6" Cut="-1.2018685787916183e-01" cType="1" res="2.1579004824161530e-02" rms="3.9507481455802917e-01" purity="4.7723293304443359e-01" nType="0">
            <Node pos="l" depth="3" NCoef="0" IVar="-1" Cut="0.0000000000000000e+00" cType="1" res="5.6161447428166866e-03" rms="3.8110724091529846e-01" purity="4.2069652676582336e-01" nType="-99"/>
            <Node pos="r" depth="3" NCoef="0" IVar="-1" Cut="0.0000000000000000e+00" cType="1" res="2.1130543202161789e-02" rms="4.0847834944725037e-01" purity="5.3528141975402832e-01" nType="-99"/>
          </Node>
          <Node pos="r" depth="2" NCoef="0" IVar="-1" Cut="0.0000000000000000e+00" cType="1" res="-1.2130256742238998e-02" rms="3.3383801579475403e-01" purity="1.9583673775196075e-01" nType="-99"/>
        </Node>
      </Node>
    </BinaryTree>
    <BinaryTree type="DecisionTree" boostWeight="1.0000000000000000e+00" itree="439">
      <Node pos="s" depth="0" NCoef="0" IVar="2" Cut="7.4716015625000000e+02" cType="1" res="8.1112730549648404e-04" rms="3.8493657112121582e-01" purity="5.0417888164520264e-01" nType="0">
        <Node pos="l" depth="1" NCoef="0" IVar="4" Cut="1.1077722930908203e+02" cType="1" res="1.6915362793952227e-03" rms="3.8415905833244324e-01" purity="5.0221031904220581e-01" nType="0">
          <Node pos="l" depth="2" NCoef="0" IVar="4" Cut="1.0499422454833984e+02" cType="1" res="-6.6208196803927422e-03" rms="3.7968462705612183e-01" purity="2.6840537786483765e-01" nType="0">
            <Node pos="l" depth="3" NCoef="0" IVar="-1" Cut="0.0000000000000000e+00" cType="1" res="-2.3027039133012295e-03" rms="3.7586739659309387e-01" purity="2.5071689486503601e-01" nType="-99"/>
            <Node pos="r" depth="3" NCoef="0" IVar="-1" Cut="0.0000000000000000e+00" cType="1" res="-1.8241157755255699e-02" rms="4.0764299035072327e-01" purity="4.0813511610031128e-01" nType="-99"/>
          </Node>
          <Node pos="r" depth="2" NCoef="0" IVar="4" Cut="1.3824655151367188e+02" cType="1" res="7.0438887923955917e-03" rms="3.8691827654838562e-01" purity="6.5275812149047852e-01" nType="0">
            <Node pos="l" depth="3" NCoef="0" IVar="-1" Cut="0.0000000000000000e+00" cType="1" res="1.1608597822487354e-02" rms="4.1865351796150208e-01" purity="5.3058230876922607e-01" nType="-99"/>
            <Node pos="r" depth="3" NCoef="0" IVar="-1" Cut="0.0000000000000000e+00" cType="1" res="7.3651317507028580e-04" rms="3.7180066108703613e-01" purity="7.0701205730438232e-01" nType="-99"/>
          </Node>
        </Node>
        <Node pos="r" depth="1" NCoef="0" IVar="-1" Cut="0.0000000000000000e+00" cType="1" res="-1.8142057582736015e-02" rms="4.1138339042663574e-01" purity="5.7710516452789307e-01" nType="-99"/>
      </Node>
    </BinaryTree>
    <BinaryTree type="DecisionTree" boostWeight="1.0000000000000000e+00" itree="440">
      <Node pos="s" depth="0" NCoef="0" IVar="4" Cut="9.5681533813476562e+01" cType="1" res="-5.5398163385689259e-04" rms="3.8623195886611938e-01" purity="4.9722519516944885e-01" nType="0">
        <Node pos="l" depth="1" NCoef="0" IVar="6" Cut="-9.0104627609252930e-01" cType="1" res="1.3267710804939270e-02" rms="3.7520152330398560e-01" purity="2.4525645375251770e-01" nType="0">
          <Node pos="l" depth="2" NCoef="0" IVar="7" Cut="-1.3343529403209686e-01" cType="1" res="-1.0113858617842197e-02" rms="3.0222371220588684e-01" purity="1.1931509524583817e-01" nType="0">
            <Node pos="l" depth="3" NCoef="0" IVar="-1" Cut="0.0000000000000000e+00" cType="1" res="-3.4279517829418182e-02" rms="2.7426728606224060e-01" purity="9.2737704515457153e-02" nType="-99"/>
            <Node pos="r" depth="3" NCoef="0" IVar="-1" Cut="0.0000000000000000e+00" cType="1" res="1.3515924103558064e-02" rms="3.2791811227798462e-01" purity="1.4771910011768341e-01" nType="-99"/>
          </Node>
          <Node pos="r" depth="2" NCoef="0" IVar="5" Cut="7.5930229187011719e+01" cType="1" res="1.9146809354424477e-02" rms="3.9119645953178406e-01" purity="2.7692332863807678e-01" nType="0">
            <Node pos="l" depth="3" NCoef="0" IVar="-1" Cut="0.0000000000000000e+00" cType="1" res="1.0424049571156502e-02" rms="3.8287702202796936e-01" purity="2.4997392296791077e-01" nType="-99"/>
            <Node pos="r" depth="3" NCoef="0" IVar="-1" Cut="0.0000000000000000e+00" cType="1" res="2.3541348055005074e-02" rms="4.3494844436645508e-01" purity="4.3107503652572632e-01" nType="-99"/>
          </Node>
        </Node>
        <Node pos="r" depth="1" NCoef="0" IVar="3" Cut="1.8845498657226562e+02" cType="1" res="-6.0756700113415718e-03" rms="3.9041471481323242e-01" purity="5.9788525104522705e-01" nType="0">
          <Node pos="l" depth="2" NCoef="0" IVar="2" Cut="4.5778506469726562e+02" cType="1" res="-1.4864480122923851e-02" rms="4.1190341114997864e-01" purity="4.3982362747192383e-01" nType="0">
            <Node pos="l" depth="3" NCoef="0" IVar="-1" Cut="0.0000000000000000e+00" cType="1" res="-1.0970161296427250e-02" rms="4.1441038250923157e-01" purity="4.3043923377990723e-01" nType="-99"/>
            <Node pos="r" depth="3" NCoef="0" IVar="-1" Cut="0.0000000000000000e+00" cType="1" res="6.9059059023857117e-03" rms="3.9602762460708618e-01" purity="4.9428105354309082e-01" nType="-99"/>
          </Node>
          <Node pos="r" depth="2" NCoef="0" IVar="6" Cut="1.2154748439788818e+00" cType="1" res="-1.8036013934761286e-03" rms="3.7945675849914551e-01" purity="6.7471599578857422e-01" nType="0">
            <Node pos="l" depth="3" NCoef="0" IVar="-1" Cut="0.0000000000000000e+00" cType="1" res="-2.6611576322466135e-03" rms="3.7816980481147766e-01" purity="6.9802904129028320e-01" nType="-99"/>
            <Node pos="r" depth="3" NCoef="0" IVar="-1" Cut="0.0000000000000000e+00" cType="1" res="1.2684804387390614e-02" rms="3.9254489541053772e-01" purity="4.2016634345054626e-01" nType="-99"/>
          </Node>
        </Node>
      </Node>
    </BinaryTree>
    <BinaryTree type="DecisionTree" boostWeight="1.0000000000000000e+00" itree="441">
      <Node pos="s" depth="0" NCoef="0" IVar="9" Cut="-1.9999936819076538e+00" cType="1" res="8.2357821520417929e-04" rms="3.8608038425445557e-01" purity="4.9846553802490234e-01" nType="0">
        <Node pos="l" depth="1" NCoef="0" IVar="6" Cut="-1.0378190129995346e-01" cType="1" res="-2.4866478517651558e-02" rms="3.7736967206001282e-01" purity="3.3095318078994751e-01" nType="0">
          <Node pos="l" depth="2" NCoef="0" IVar="-1" Cut="0.0000000000000000e+00" cType="1" res="-1.0112565010786057e-02" rms="3.8066446781158447e-01" purity="3.2831409573554993e-01" nType="-99"/>
          <Node pos="r" depth="2" NCoef="0" IVar="-1" Cut="0.0000000000000000e+00" cType="1" res="-2.3505371063947678e-02" rms="3.7373027205467224e-01" purity="3.3361583948135376e-01" nType="-99"/>
        </Node>
        <Node pos="r" depth="1" NCoef="0" IVar="9" Cut="-1.5428410768508911e+00" cType="1" res="2.1946977358311415e-03" rms="3.8649177551269531e-01" purity="5.0740593671798706e-01" nType="0">
          <Node pos="l" depth="2" NCoef="0" IVar="0" Cut="4.1904791259765625e+02" cType="1" res="2.2128244861960411e-02" rms="3.8006269931793213e-01" purity="4.2286056280136108e-01" nType="0">
            <Node pos="l" depth="3" NCoef="0" IVar="-1" Cut="0.0000000000000000e+00" cType="1" res="-9.2288543237373233e-04" rms="3.6555358767509460e-01" purity="2.6054832339286804e-01" nType="-99"/>
            <Node pos="r" depth="3" NCoef="0" IVar="-1" Cut="0.0000000000000000e+00" cType="1" res="3.0037077143788338e-02" rms="3.9455479383468628e-01" purity="6.1198979616165161e-01" nType="-99"/>
          </Node>
          <Node pos="r" depth="2" NCoef="0" IVar="9" Cut="3.1839600205421448e-01" cType="1" res="8.8369258446618915e-04" rms="3.8687485456466675e-01" purity="5.1296639442443848e-01" nType="0">
            <Node pos="l" depth="3" NCoef="0" IVar="-1" Cut="0.0000000000000000e+00" cType="1" res="-2.9262714087963104e-03" rms="3.8577044010162354e-01" purity="5.3300559520721436e-01" nType="-99"/>
            <Node pos="r" depth="3" NCoef="0" IVar="-1" Cut="0.0000000000000000e+00" cType="1" res="4.7305328771471977e-03" rms="3.8807776570320129e-01" purity="4.8936954140663147e-01" nType="-99"/>
          </Node>
        </Node>
      </Node>
    </BinaryTree>
    <BinaryTree type="DecisionTree" boostWeight="1.0000000000000000e+00" itree="442">
      <Node pos="s" depth="0" NCoef="0" IVar="5" Cut="8.0216262817382812e+01" cType="1" res="-1.5931425150483847e-03" rms="3.8585776090621948e-01" purity="4.9787160754203796e-01" nType="0">
        <Node pos="l" depth="1" NCoef="0" IVar="7" Cut="-1.7331852912902832e+00" cType="1" res="2.8255644720047712e-03" rms="3.8991677761077881e-01" purity="3.2738471031188965e-01" nType="0">
          <Node pos="l" depth="2" NCoef="0" IVar="-1" Cut="0.0000000000000000e+00" cType="1" res="-3.0878448858857155e-02" rms="2.6537463068962097e-01" purity="9.7500368952751160e-02" nType="-99"/>
          <Node pos="r" depth="2" NCoef="0" IVar="7" Cut="-4.3801829218864441e-01" cType="1" res="5.1451111212372780e-03" rms="3.9748862385749817e-01" purity="3.4439876675605774e-01" nType="0">
            <Node pos="l" depth="3" NCoef="0" IVar="-1" Cut="0.0000000000000000e+00" cType="1" res="1.2025726027786732e-02" rms="4.0324848890304565e-01" purity="3.4624081850051880e-01" nType="-99"/>
            <Node pos="r" depth="3" NCoef="0" IVar="-1" Cut="0.0000000000000000e+00" cType="1" res="-7.1007589576765895e-04" rms="3.9474701881408691e-01" purity="3.4358236193656921e-01" nType="-99"/>
          </Node>
        </Node>
        <Node pos="r" depth="1" NCoef="0" IVar="7" Cut="-9.3319815397262573e-01" cType="1" res="-5.8535821735858917e-03" rms="3.8185483217239380e-01" purity="6.6225206851959229e-01" nType="0">
          <Node pos="l" depth="2" NCoef="0" IVar="6" Cut="-1.0557432472705841e-01" cType="1" res="9.2063220217823982e-03" rms="3.9875760674476624e-01" purity="5.4499328136444092e-01" nType="0">
            <Node pos="l" depth="3" NCoef="0" IVar="-1" Cut="0.0000000000000000e+00" cType="1" res="1.4720459468662739e-02" rms="3.9804479479789734e-01" purity="5.7250338792800903e-01" nType="-99"/>
            <Node pos="r" depth="3" NCoef="0" IVar="-1" Cut="0.0000000000000000e+00" cType="1" res="-4.3480475433170795e-03" rms="3.9887815713882446e-01" purity="5.1569199562072754e-01" nType="-99"/>
          </Node>
          <Node pos="r" depth="2" NCoef="0" IVar="6" Cut="-8.9454174041748047e-01" cType="1" res="-9.1235870495438576e-03" rms="3.7800559401512146e-01" purity="6.8771284818649292e-01" nType="0">
            <Node pos="l" depth="3" NCoef="0" IVar="-1" Cut="0.0000000000000000e+00" cType="1" res="-1.7229007557034492e-02" rms="4.0354025363922119e-01" purity="4.8278978466987610e-01" nType="-99"/>
            <Node pos="r" depth="3" NCoef="0" IVar="-1" Cut="0.0000000000000000e+00" cType="1" res="-4.3160901404917240e-03" rms="3.7371504306793213e-01" purity="7.2013175487518311e-01" nType="-99"/>
          </Node>
        </Node>
      </Node>
    </BinaryTree>
    <BinaryTree type="DecisionTree" boostWeight="1.0000000000000000e+00" itree="443">
      <Node pos="s" depth="0" NCoef="0" IVar="8" Cut="-9.3333774805068970e-01" cType="1" res="-1.3134600594639778e-03" rms="3.8551554083824158e-01" purity="4.9885535240173340e-01" nType="0">
        <Node pos="l" depth="1" NCoef="0" IVar="8" Cut="-1.7333351373672485e+00" cType="1" res="-9.0351747348904610e-03" rms="3.7922972440719604e-01" purity="3.9253696799278259e-01" nType="0">
          <Node pos="l" depth="2" NCoef="0" IVar="5" Cut="8.0016586303710938e+01" cType="1" res="9.4004375860095024e-03" rms="3.7330964207649231e-01" purity="2.9518312215805054e-01" nType="0">
            <Node pos="l" depth="3" NCoef="0" IVar="-1" Cut="0.0000000000000000e+00" cType="1" res="1.9417764618992805e-02" rms="3.5871297121047974e-01" purity="2.0737484097480774e-01" nType="-99"/>
            <Node pos="r" depth="3" NCoef="0" IVar="-1" Cut="0.0000000000000000e+00" cType="1" res="-7.3012080974876881e-03" rms="3.9479202032089233e-01" purity="4.3653368949890137e-01" nType="-99"/>
          </Node>
          <Node pos="r" depth="2" NCoef="0" IVar="8" Cut="-1.0476227998733521e+00" cType="1" res="-1.8376797437667847e-02" rms="3.8185492157936096e-01" purity="4.4186773896217346e-01" nType="0">
            <Node pos="l" depth="3" NCoef="0" IVar="-1" Cut="0.0000000000000000e+00" cType="1" res="-1.6718935221433640e-02" rms="3.7734875082969666e-01" purity="4.1883650422096252e-01" nType="-99"/>
            <Node pos="r" depth="3" NCoef="0" IVar="-1" Cut="0.0000000000000000e+00" cType="1" res="6.3707376830279827e-03" rms="3.9842393994331360e-01" purity="5.3576356172561646e-01" nType="-99"/>
          </Node>
        </Node>
        <Node pos="r" depth="1" NCoef="0" IVar="9" Cut="-3.9999467134475708e-01" cType="1" res="7.5267860665917397e-04" rms="3.8715404272079468e-01" purity="5.2730345726013184e-01" nType="0">
          <Node pos="l" depth="2" NCoef="0" IVar="7" Cut="-1.1998946666717529e+00" cType="1" res="7.0945867337286472e-03" rms="3.9003905653953552e-01" purity="5.2596783638000488e-01" nType="0">
            <Node pos="l" depth="3" NCoef="0" IVar="-1" Cut="0.0000000000000000e+00" cType="1" res="1.7561707645654678e-02" rms="3.7716791033744812e-01" purity="3.4905138611793518e-01" nType="-99"/>
            <Node pos="r" depth="3" NCoef="0" IVar="-1" Cut="0.0000000000000000e+00" cType="1" res="2.5228380691260099e-03" rms="3.9217793941497803e-01" purity="5.5715662240982056e-01" nType="-99"/>
          </Node>
          <Node pos="r" depth="2" NCoef="0" IVar="7" Cut="-1.3290290534496307e-01" cType="1" res="-2.8690379112958908e-03" rms="3.8544997572898865e-01" purity="5.2806621789932251e-01" nType="0">
            <Node pos="l" depth="3" NCoef="0" IVar="-1" Cut="0.0000000000000000e+00" cType="1" res="-7.9470928758382797e-03" rms="3.8847813010215759e-01" purity="5.2102714776992798e-01" nType="-99"/>
            <Node pos="r" depth="3" NCoef="0" IVar="-1" Cut="0.0000000000000000e+00" cType="1" res="2.2003080230206251e-03" rms="3.8329428434371948e-01" purity="5.3275960683822632e-01" nType="-99"/>
          </Node>
        </Node>
      </Node>
    </BinaryTree>
    <BinaryTree type="DecisionTree" boostWeight="1.0000000000000000e+00" itree="444">
      <Node pos="s" depth="0" NCoef="0" IVar="6" Cut="-1.1916217803955078e+00" cType="1" res="8.2740560173988342e-04" rms="3.8759216666221619e-01" purity="4.9552333354949951e-01" nType="0">
        <Node pos="l" depth="1" NCoef="0" IVar="2" Cut="2.8360174560546875e+02" cType="1" res="2.6600778102874756e-02" rms="3.7856057286262512e-01" purity="2.7702012658119202e-01" nType="0">
          <Node pos="l" depth="2" NCoef="0" IVar="-1" Cut="0.0000000000000000e+00" cType="1" res="3.6249998956918716e-02" rms="3.9333939552307129e-01" purity="2.8460216522216797e-01" nType="-99"/>
          <Node pos="r" depth="2" NCoef="0" IVar="6" Cut="-1.4931749105453491e+00" cType="1" res="1.4523595571517944e-02" rms="3.6939996480941772e-01" purity="2.7273464202880859e-01" nType="0">
            <Node pos="l" depth="3" NCoef="0" IVar="-1" Cut="0.0000000000000000e+00" cType="1" res="-2.0310201216489077e-03" rms="3.3327415585517883e-01" purity="1.9113951921463013e-01" nType="-99"/>
            <Node pos="r" depth="3" NCoef="0" IVar="-1" Cut="0.0000000000000000e+00" cType="1" res="2.3043217137455940e-02" rms="4.0799576044082642e-01" purity="3.7159618735313416e-01" nType="-99"/>
          </Node>
        </Node>
        <Node pos="r" depth="1" NCoef="0" IVar="5" Cut="7.8396499633789062e+01" cType="1" res="-2.4263935629278421e-03" rms="3.8859593868255615e-01" purity="5.2310860157012939e-01" nType="0">
          <Node pos="l" depth="2" NCoef="0" IVar="9" Cut="-1.4666107892990112e+00" cType="1" res="-7.6844971626996994e-03" rms="3.9475464820861816e-01" purity="3.3324715495109558e-01" nType="0">
            <Node pos="l" depth="3" NCoef="0" IVar="-1" Cut="0.0000000000000000e+00" cType="1" res="1.0519339703023434e-02" rms="3.8815233111381531e-01" purity="3.1347236037254333e-01" nType="-99"/>
            <Node pos="r" depth="3" NCoef="0" IVar="-1" Cut="0.0000000000000000e+00" cType="1" res="-7.1058627218008041e-03" rms="3.9567279815673828e-01" purity="3.3641624450683594e-01" nType="-99"/>
          </Node>
          <Node pos="r" depth="2" NCoef="0" IVar="8" Cut="-6.6666549444198608e-01" cType="1" res="1.9815233536064625e-03" rms="3.8330125808715820e-01" purity="6.8227118253707886e-01" nType="0">
            <Node pos="l" depth="3" NCoef="0" IVar="-1" Cut="0.0000000000000000e+00" cType="1" res="9.6970889717340469e-03" rms="3.9814260601997375e-01" purity="6.2922328710556030e-01" nType="-99"/>
            <Node pos="r" depth="3" NCoef="0" IVar="-1" Cut="0.0000000000000000e+00" cType="1" res="-1.8775829812511802e-03" rms="3.7788027524948120e-01" purity="7.0075523853302002e-01" nType="-99"/>
          </Node>
        </Node>
      </Node>
    </BinaryTree>
    <BinaryTree type="DecisionTree" boostWeight="1.0000000000000000e+00" itree="445">
      <Node pos="s" depth="0" NCoef="0" IVar="3" Cut="4.3168344116210938e+02" cType="1" res="2.2925476077944040e-03" rms="3.8652893900871277e-01" purity="4.9805507063865662e-01" nType="0">
        <Node pos="l" depth="1" NCoef="0" IVar="9" Cut="-1.1999716758728027e+00" cType="1" res="1.3055431190878153e-03" rms="3.8596519827842712e-01" purity="4.9234965443611145e-01" nType="0">
          <Node pos="l" depth="2" NCoef="0" IVar="6" Cut="6.8950349092483521e-01" cType="1" res="1.4073609374463558e-02" rms="3.8467997312545776e-01" purity="4.2870202660560608e-01" nType="0">
            <Node pos="l" depth="3" NCoef="0" IVar="-1" Cut="0.0000000000000000e+00" cType="1" res="1.2880314141511917e-02" rms="3.8985705375671387e-01" purity="4.6472266316413879e-01" nType="-99"/>
            <Node pos="r" depth="3" NCoef="0" IVar="-1" Cut="0.0000000000000000e+00" cType="1" res="-7.3598148301243782e-03" rms="3.6205133795738220e-01" purity="2.8317657113075256e-01" nType="-99"/>
          </Node>
          <Node pos="r" depth="2" NCoef="0" IVar="8" Cut="1.3332903385162354e-01" cType="1" res="-1.4730447437614202e-03" rms="3.8618841767311096e-01" purity="5.0620067119598389e-01" nType="0">
            <Node pos="l" depth="3" NCoef="0" IVar="-1" Cut="0.0000000000000000e+00" cType="1" res="-4.1239699348807335e-03" rms="3.8803604245185852e-01" purity="5.1498341560363770e-01" nType="-99"/>
            <Node pos="r" depth="3" NCoef="0" IVar="-1" Cut="0.0000000000000000e+00" cType="1" res="2.7102266903966665e-03" rms="3.8399401307106018e-01" purity="4.9617743492126465e-01" nType="-99"/>
          </Node>
        </Node>
        <Node pos="r" depth="1" NCoef="0" IVar="-1" Cut="0.0000000000000000e+00" cType="1" res="1.9902268424630165e-02" rms="4.0232652425765991e-01" purity="6.7383414506912231e-01" nType="-99"/>
      </Node>
    </BinaryTree>
    <BinaryTree type="DecisionTree" boostWeight="1.0000000000000000e+00" itree="446">
      <Node pos="s" depth="0" NCoef="0" IVar="7" Cut="6.6651988029479980e-01" cType="1" res="1.6317669069394469e-03" rms="3.8504046201705933e-01" purity="5.0337332487106323e-01" nType="0">
        <Node pos="l" depth="1" NCoef="0" IVar="1" Cut="1.1200372314453125e+03" cType="1" res="5.4070674814283848e-03" rms="3.8799563050270081e-01" purity="5.4040628671646118e-01" nType="0">
          <Node pos="l" depth="2" NCoef="0" IVar="2" Cut="2.5328227233886719e+02" cType="1" res="-2.4802025873214006e-03" rms="3.9033800363540649e-01" purity="2.6283013820648193e-01" nType="0">
            <Node pos="l" depth="3" NCoef="0" IVar="-1" Cut="0.0000000000000000e+00" cType="1" res="6.7067276686429977e-03" rms="4.1990184783935547e-01" purity="3.3079004287719727e-01" nType="-99"/>
            <Node pos="r" depth="3" NCoef="0" IVar="-1" Cut="0.0000000000000000e+00" cType="1" res="-8.0019524320960045e-03" rms="3.6996090412139893e-01" purity="2.1947978436946869e-01" nType="-99"/>
          </Node>
          <Node pos="r" depth="2" NCoef="0" IVar="8" Cut="6.6669243574142456e-01" cType="1" res="9.0817809104919434e-03" rms="3.8684454560279846e-01" purity="6.6973018646240234e-01" nType="0">
            <Node pos="l" depth="3" NCoef="0" IVar="-1" Cut="0.0000000000000000e+00" cType="1" res="1.7266029026359320e-03" rms="3.8165488839149475e-01" purity="6.8407922983169556e-01" nType="-99"/>
            <Node pos="r" depth="3" NCoef="0" IVar="-1" Cut="0.0000000000000000e+00" cType="1" res="1.7598263919353485e-02" rms="4.0095269680023193e-01" purity="6.2799477577209473e-01" nType="-99"/>
          </Node>
        </Node>
        <Node pos="r" depth="1" NCoef="0" IVar="8" Cut="-1.4666719436645508e+00" cType="1" res="-9.2045683413743973e-03" rms="3.7621903419494629e-01" purity="3.9707699418067932e-01" nType="0">
          <Node pos="l" depth="2" NCoef="0" IVar="-1" Cut="0.0000000000000000e+00" cType="1" res="2.7433454990386963e-02" rms="3.7781891226768494e-01" purity="2.9669913649559021e-01" nType="-99"/>
          <Node pos="r" depth="2" NCoef="0" IVar="5" Cut="1.0679331970214844e+02" cType="1" res="-1.4378282241523266e-02" rms="3.7569221854209900e-01" purity="4.0889918804168701e-01" nType="0">
            <Node pos="l" depth="3" NCoef="0" IVar="-1" Cut="0.0000000000000000e+00" cType="1" res="-1.4172960072755814e-02" rms="3.7669110298156738e-01" purity="2.9730844497680664e-01" nType="-99"/>
            <Node pos="r" depth="3" NCoef="0" IVar="-1" Cut="0.0000000000000000e+00" cType="1" res="2.3833292070776224e-03" rms="3.7240174412727356e-01" purity="7.0993727445602417e-01" nType="-99"/>
          </Node>
        </Node>
      </Node>
    </BinaryTree>
    <BinaryTree type="DecisionTree" boostWeight="1.0000000000000000e+00" itree="447">
      <Node pos="s" depth="0" NCoef="0" IVar="1" Cut="1.6627307128906250e+03" cType="1" res="-5.2405418828129768e-03" rms="3.8453269004821777e-01" purity="4.9378395080566406e-01" nType="0">
        <Node pos="l" depth="1" NCoef="0" IVar="3" Cut="2.5378984069824219e+02" cType="1" res="-7.3518385179340839e-03" rms="3.9343652129173279e-01" purity="4.3048679828643799e-01" nType="0">
          <Node pos="l" depth="2" NCoef="0" IVar="1" Cut="1.3751514892578125e+03" cType="1" res="-4.5714168809354305e-03" rms="3.9318189024925232e-01" purity="4.0085443854331970e-01" nType="0">
            <Node pos="l" depth="3" NCoef="0" IVar="-1" Cut="0.0000000000000000e+00" cType="1" res="-5.0724972970783710e-03" rms="3.9548164606094360e-01" purity="3.4056356549263000e-01" nType="-99"/>
            <Node pos="r" depth="3" NCoef="0" IVar="-1" Cut="0.0000000000000000e+00" cType="1" res="9.3761468306183815e-03" rms="3.8080775737762451e-01" purity="7.0647907257080078e-01" nType="-99"/>
          </Node>
          <Node pos="r" depth="2" NCoef="0" IVar="2" Cut="3.6895556640625000e+02" cType="1" res="-2.0192012190818787e-02" rms="3.9435601234436035e-01" purity="5.6733107566833496e-01" nType="0">
            <Node pos="l" depth="3" NCoef="0" IVar="-1" Cut="0.0000000000000000e+00" cType="1" res="-2.2122748196125031e-02" rms="3.8706928491592407e-01" purity="6.2962615489959717e-01" nType="-99"/>
            <Node pos="r" depth="3" NCoef="0" IVar="-1" Cut="0.0000000000000000e+00" cType="1" res="-6.2503004446625710e-03" rms="3.9958792924880981e-01" purity="5.1933538913726807e-01" nType="-99"/>
          </Node>
        </Node>
        <Node pos="r" depth="1" NCoef="0" IVar="2" Cut="4.8060043334960938e+02" cType="1" res="4.7770212404429913e-03" rms="3.3893585205078125e-01" purity="7.9411298036575317e-01" nType="0">
          <Node pos="l" depth="2" NCoef="0" IVar="-1" Cut="0.0000000000000000e+00" cType="1" res="2.4376984685659409e-02" rms="2.7707347273826599e-01" purity="9.0604686737060547e-01" nType="-99"/>
          <Node pos="r" depth="2" NCoef="0" IVar="1" Cut="1.9092286376953125e+03" cType="1" res="-5.4428149014711380e-03" rms="3.7435728311538696e-01" purity="7.1913492679595947e-01" nType="0">
            <Node pos="l" depth="3" NCoef="0" IVar="-1" Cut="0.0000000000000000e+00" cType="1" res="-1.1240998283028603e-02" rms="3.9280799031257629e-01" purity="6.4245772361755371e-01" nType="-99"/>
            <Node pos="r" depth="3" NCoef="0" IVar="-1" Cut="0.0000000000000000e+00" cType="1" res="2.2652379702776670e-03" rms="3.6089718341827393e-01" purity="7.7178519964218140e-01" nType="-99"/>
          </Node>
        </Node>
      </Node>
    </BinaryTree>
    <BinaryTree type="DecisionTree" boostWeight="1.0000000000000000e+00" itree="448">
      <Node pos="s" depth="0" NCoef="0" IVar="3" Cut="2.4120411682128906e+02" cType="1" res="-6.8132992601022124e-04" rms="3.8752245903015137e-01" purity="4.9530571699142456e-01" nType="0">
        <Node pos="l" depth="1" NCoef="0" IVar="9" Cut="-1.3331577181816101e-01" cType="1" res="3.3333660103380680e-03" rms="3.9445948600769043e-01" purity="4.1744709014892578e-01" nType="0">
          <Node pos="l" depth="2" NCoef="0" IVar="6" Cut="6.8511205911636353e-01" cType="1" res="-5.7440339587628841e-03" rms="3.9180541038513184e-01" purity="4.0611821413040161e-01" nType="0">
            <Node pos="l" depth="3" NCoef="0" IVar="-1" Cut="0.0000000000000000e+00" cType="1" res="-3.0526597402058542e-04" rms="3.9944636821746826e-01" purity="4.3928065896034241e-01" nType="-99"/>
            <Node pos="r" depth="3" NCoef="0" IVar="-1" Cut="0.0000000000000000e+00" cType="1" res="-1.8743580207228661e-02" rms="3.6013099551200867e-01" purity="2.7830922603607178e-01" nType="-99"/>
          </Node>
          <Node pos="r" depth="2" NCoef="0" IVar="4" Cut="1.2274529266357422e+02" cType="1" res="1.1001480743288994e-02" rms="3.9652580022811890e-01" purity="4.2701712250709534e-01" nType="0">
            <Node pos="l" depth="3" NCoef="0" IVar="-1" Cut="0.0000000000000000e+00" cType="1" res="2.2788115311414003e-03" rms="3.9006993174552917e-01" purity="2.8640326857566833e-01" nType="-99"/>
            <Node pos="r" depth="3" NCoef="0" IVar="-1" Cut="0.0000000000000000e+00" cType="1" res="1.3383763842284679e-02" rms="4.0539020299911499e-01" purity="6.2943649291992188e-01" nType="-99"/>
          </Node>
        </Node>
        <Node pos="r" depth="1" NCoef="0" IVar="4" Cut="1.0523537445068359e+02" cType="1" res="-9.3743549659848213e-03" rms="3.7191027402877808e-01" purity="6.6389310359954834e-01" nType="0">
          <Node pos="l" depth="2" NCoef="0" IVar="-1" Cut="0.0000000000000000e+00" cType="1" res="6.1678416095674038e-03" rms="4.0965244174003601e-01" purity="4.1794294118881226e-01" nType="-99"/>
          <Node pos="r" depth="2" NCoef="0" IVar="1" Cut="1.5992615966796875e+03" cType="1" res="-1.2977630831301212e-02" rms="3.6449855566024780e-01" purity="7.0869946479797363e-01" nType="0">
            <Node pos="l" depth="3" NCoef="0" IVar="-1" Cut="0.0000000000000000e+00" cType="1" res="-1.4348568394780159e-02" rms="3.9665600657463074e-01" purity="5.9988790750503540e-01" nType="-99"/>
            <Node pos="r" depth="3" NCoef="0" IVar="-1" Cut="0.0000000000000000e+00" cType="1" res="-4.0504038333892822e-03" rms="3.3515998721122742e-01" purity="7.9927265644073486e-01" nType="-99"/>
          </Node>
        </Node>
      </Node>
    </BinaryTree>
    <BinaryTree type="DecisionTree" boostWeight="1.0000000000000000e+00" itree="449">
      <Node pos="s" depth="0" NCoef="0" IVar="0" Cut="5.7280004882812500e+02" cType="1" res="5.3203818388283253e-03" rms="3.8644886016845703e-01" purity="5.0423860549926758e-01" nType="0">
        <Node pos="l" depth="1" NCoef="0" IVar="1" Cut="1.1410516357421875e+03" cType="1" res="8.0336472019553185e-03" rms="3.9375805854797363e-01" purity="4.4431978464126587e-01" nType="0">
          <Node pos="l" depth="2" NCoef="0" IVar="9" Cut="1.2000002861022949e+00" cType="1" res="-1.6259986441582441e-03" rms="3.8659647107124329e-01" purity="2.5279945135116577e-01" nType="0">
            <Node pos="l" depth="3" NCoef="0" IVar="-1" Cut="0.0000000000000000e+00" cType="1" res="-3.9403974078595638e-03" rms="3.8994655013084412e-01" purity="2.5601851940155029e-01" nType="-99"/>
            <Node pos="r" depth="3" NCoef="0" IVar="-1" Cut="0.0000000000000000e+00" cType="1" res="1.1391380801796913e-02" rms="3.7262660264968872e-01" purity="2.4013970792293549e-01" nType="-99"/>
          </Node>
          <Node pos="r" depth="2" NCoef="0" IVar="0" Cut="3.2598101806640625e+02" cType="1" res="1.5564264729619026e-02" rms="3.9908999204635620e-01" purity="5.9362822771072388e-01" nType="0">
            <Node pos="l" depth="3" NCoef="0" IVar="-1" Cut="0.0000000000000000e+00" cType="1" res="-7.0408070459961891e-03" rms="3.9440768957138062e-01" purity="4.0204137563705444e-01" nType="-99"/>
            <Node pos="r" depth="3" NCoef="0" IVar="-1" Cut="0.0000000000000000e+00" cType="1" res="1.1528499424457550e-02" rms="3.9950338006019592e-01" purity="6.1564934253692627e-01" nType="-99"/>
          </Node>
        </Node>
        <Node pos="r" depth="1" NCoef="0" IVar="8" Cut="9.3312364816665649e-01" cType="1" res="-7.6089580543339252e-03" rms="3.4923598170280457e-01" purity="7.8976565599441528e-01" nType="0">
          <Node pos="l" depth="2" NCoef="0" IVar="7" Cut="4.0068063139915466e-01" cType="1" res="-1.0064422385767102e-03" rms="3.4307712316513062e-01" purity="8.1025505065917969e-01" nType="0">
            <Node pos="l" depth="3" NCoef="0" IVar="-1" Cut="0.0000000000000000e+00" cType="1" res="-6.3138827681541443e-03" rms="3.3503049612045288e-01" purity="8.1863069534301758e-01" nType="-99"/>
            <Node pos="r" depth="3" NCoef="0" IVar="-1" Cut="0.0000000000000000e+00" cType="1" res="9.6906004473567009e-03" rms="3.6002674698829651e-01" purity="7.9155474901199341e-01" nType="-99"/>
          </Node>
          <Node pos="r" depth="2" NCoef="0" IVar="-1" Cut="0.0000000000000000e+00" cType="1" res="-2.8900641947984695e-02" rms="3.7697494029998779e-01" purity="6.8659949302673340e-01" nType="-99"/>
        </Node>
      </Node>
    </BinaryTree>
    <BinaryTree type="DecisionTree" boostWeight="1.0000000000000000e+00" itree="450">
      <Node pos="s" depth="0" NCoef="0" IVar="7" Cut="-1.2000304460525513e+00" cType="1" res="-2.3864216636866331e-03" rms="3.8525038957595825e-01" purity="4.9632823467254639e-01" nType="0">
        <Node pos="l" depth="1" NCoef="0" IVar="7" Cut="-1.5048046112060547e+00" cType="1" res="8.8970037177205086e-03" rms="3.6894834041595459e-01" purity="3.2282382249832153e-01" nType="0">
          <Node pos="l" depth="2" NCoef="0" IVar="1" Cut="1.2626804199218750e+03" cType="1" res="-2.8778135310858488e-03" rms="3.4548074007034302e-01" purity="2.4426934123039246e-01" nType="0">
            <Node pos="l" depth="3" NCoef="0" IVar="-1" Cut="0.0000000000000000e+00" cType="1" res="-1.3633714057505131e-02" rms="3.0764660239219666e-01" purity="1.3598592579364777e-01" nType="-99"/>
            <Node pos="r" depth="3" NCoef="0" IVar="-1" Cut="0.0000000000000000e+00" cType="1" res="1.1384693905711174e-02" rms="4.0655499696731567e-01" purity="4.4866853952407837e-01" nType="-99"/>
          </Node>
          <Node pos="r" depth="2" NCoef="0" IVar="6" Cut="-1.0557432472705841e-01" cType="1" res="2.8238786384463310e-02" rms="4.0380868315696716e-01" purity="4.5186060667037964e-01" nType="0">
            <Node pos="l" depth="3" NCoef="0" IVar="-1" Cut="0.0000000000000000e+00" cType="1" res="2.8600152581930161e-02" rms="4.1189607977867126e-01" purity="4.5968398451805115e-01" nType="-99"/>
            <Node pos="r" depth="3" NCoef="0" IVar="-1" Cut="0.0000000000000000e+00" cType="1" res="6.7043271847069263e-03" rms="3.9418166875839233e-01" purity="4.4347053766250610e-01" nType="-99"/>
          </Node>
        </Node>
        <Node pos="r" depth="1" NCoef="0" IVar="9" Cut="1.2000092267990112e+00" cType="1" res="-4.1978904046118259e-03" rms="3.8777315616607666e-01" purity="5.2418303489685059e-01" nType="0">
          <Node pos="l" depth="2" NCoef="0" IVar="6" Cut="1.3820783793926239e-01" cType="1" res="-2.2108415141701698e-03" rms="3.8868096470832825e-01" purity="5.4555016756057739e-01" nType="0">
            <Node pos="l" depth="3" NCoef="0" IVar="-1" Cut="0.0000000000000000e+00" cType="1" res="-4.2436216026544571e-03" rms="3.8578429818153381e-01" purity="5.6102854013442993e-01" nType="-99"/>
            <Node pos="r" depth="3" NCoef="0" IVar="-1" Cut="0.0000000000000000e+00" cType="1" res="2.2377623245120049e-03" rms="3.9243936538696289e-01" purity="5.2490806579589844e-01" nType="-99"/>
          </Node>
          <Node pos="r" depth="2" NCoef="0" IVar="8" Cut="1.1999899148941040e+00" cType="1" res="-1.3667915947735310e-02" rms="3.8327553868293762e-01" purity="4.2235007882118225e-01" nType="0">
            <Node pos="l" depth="3" NCoef="0" IVar="-1" Cut="0.0000000000000000e+00" cType="1" res="-4.1113593615591526e-03" rms="3.9435264468193054e-01" purity="4.7345650196075439e-01" nType="-99"/>
            <Node pos="r" depth="3" NCoef="0" IVar="-1" Cut="0.0000000000000000e+00" cType="1" res="-3.4426942467689514e-02" rms="3.3078911900520325e-01" purity="2.0677141845226288e-01" nType="-99"/>
          </Node>
        </Node>
      </Node>
    </BinaryTree>
    <BinaryTree type="DecisionTree" boostWeight="1.0000000000000000e+00" itree="451">
      <Node pos="s" depth="0" NCoef="0" IVar="8" Cut="-4.0000414848327637e-01" cType="1" res="8.4144953871145844e-04" rms="3.8310214877128601e-01" purity="5.0351452827453613e-01" nType="0">
        <Node pos="l" depth="1" NCoef="0" IVar="6" Cut="4.2104813456535339e-01" cType="1" res="9.6121439710259438e-03" rms="3.8445556163787842e-01" purity="4.7804677486419678e-01" nType="0">
          <Node pos="l" depth="2" NCoef="0" IVar="8" Cut="-1.9999042749404907e+00" cType="1" res="1.6126707196235657e-02" rms="3.8923624157905579e-01" purity="5.1079636812210083e-01" nType="0">
            <Node pos="l" depth="3" NCoef="0" IVar="-1" Cut="0.0000000000000000e+00" cType="1" res="-8.5707986727356911e-03" rms="3.5772663354873657e-01" purity="2.7409645915031433e-01" nType="-99"/>
            <Node pos="r" depth="3" NCoef="0" IVar="-1" Cut="0.0000000000000000e+00" cType="1" res="1.2487963773310184e-02" rms="3.9277738332748413e-01" purity="5.3971821069717407e-01" nType="-99"/>
          </Node>
          <Node pos="r" depth="2" NCoef="0" IVar="9" Cut="9.3295139074325562e-01" cType="1" res="-7.3818713426589966e-03" rms="3.7115743756294250e-01" purity="3.9261552691459656e-01" nType="0">
            <Node pos="l" depth="3" NCoef="0" IVar="-1" Cut="0.0000000000000000e+00" cType="1" res="-1.2193104252219200e-02" rms="3.7060815095901489e-01" purity="3.9248880743980408e-01" nType="-99"/>
            <Node pos="r" depth="3" NCoef="0" IVar="-1" Cut="0.0000000000000000e+00" cType="1" res="1.3739167712628841e-02" rms="3.7125787138938904e-01" purity="3.9294388890266418e-01" nType="-99"/>
          </Node>
        </Node>
        <Node pos="r" depth="1" NCoef="0" IVar="9" Cut="4.0000277757644653e-01" cType="1" res="-4.2116004042327404e-03" rms="3.8222885131835938e-01" purity="5.1818728446960449e-01" nType="0">
          <Node pos="l" depth="2" NCoef="0" IVar="9" Cut="-8.1904566287994385e-01" cType="1" res="-1.4570729399565607e-04" rms="3.8311797380447388e-01" purity="5.4388439655303955e-01" nType="0">
            <Node pos="l" depth="3" NCoef="0" IVar="-1" Cut="0.0000000000000000e+00" cType="1" res="-5.8756670914590359e-03" rms="3.8060227036476135e-01" purity="4.8539337515830994e-01" nType="-99"/>
            <Node pos="r" depth="3" NCoef="0" IVar="-1" Cut="0.0000000000000000e+00" cType="1" res="3.6879458930343390e-03" rms="3.8463154435157776e-01" purity="5.8176249265670776e-01" nType="-99"/>
          </Node>
          <Node pos="r" depth="2" NCoef="0" IVar="0" Cut="6.4876794433593750e+02" cType="1" res="-1.0380871593952179e-02" rms="3.8079291582107544e-01" purity="4.7919648885726929e-01" nType="0">
            <Node pos="l" depth="3" NCoef="0" IVar="-1" Cut="0.0000000000000000e+00" cType="1" res="-9.3773975968360901e-03" rms="3.8630408048629761e-01" purity="4.3734481930732727e-01" nType="-99"/>
            <Node pos="r" depth="3" NCoef="0" IVar="-1" Cut="0.0000000000000000e+00" cType="1" res="1.6683178022503853e-02" rms="3.3193856477737427e-01" purity="8.1353783607482910e-01" nType="-99"/>
          </Node>
        </Node>
      </Node>
    </BinaryTree>
    <BinaryTree type="DecisionTree" boostWeight="1.0000000000000000e+00" itree="452">
      <Node pos="s" depth="0" NCoef="0" IVar="9" Cut="-1.3332885503768921e-01" cType="1" res="3.3543797326274216e-04" rms="3.8335743546485901e-01" purity="5.0084155797958374e-01" nType="0">
        <Node pos="l" depth="1" NCoef="0" IVar="9" Cut="-2.1650702953338623e+00" cType="1" res="6.6022095270454884e-03" rms="3.8664945960044861e-01" purity="5.0292479991912842e-01" nType="0">
          <Node pos="l" depth="2" NCoef="0" IVar="-1" Cut="0.0000000000000000e+00" cType="1" res="-1.2234921567142010e-02" rms="3.4929442405700684e-01" purity="3.1105265021324158e-01" nType="-99"/>
          <Node pos="r" depth="2" NCoef="0" IVar="7" Cut="1.3335894048213959e-01" cType="1" res="8.7371496483683586e-03" rms="3.8977959752082825e-01" purity="5.2027082443237305e-01" nType="0">
            <Node pos="l" depth="3" NCoef="0" IVar="-1" Cut="0.0000000000000000e+00" cType="1" res="2.4088455829769373e-03" rms="3.8935673236846924e-01" purity="5.1290744543075562e-01" nType="-99"/>
            <Node pos="r" depth="3" NCoef="0" IVar="-1" Cut="0.0000000000000000e+00" cType="1" res="1.0541217401623726e-02" rms="3.9027345180511475e-01" purity="5.3092449903488159e-01" nType="-99"/>
          </Node>
        </Node>
        <Node pos="r" depth="1" NCoef="0" IVar="6" Cut="-9.2596250772476196e-01" cType="1" res="-5.1259654574096203e-03" rms="3.8038107752799988e-01" purity="4.9902600049972534e-01" nType="0">
          <Node pos="l" depth="2" NCoef="0" IVar="7" Cut="1.3321545720100403e-01" cType="1" res="-2.3595366626977921e-02" rms="3.5100254416465759e-01" purity="3.1482747197151184e-01" nType="0">
            <Node pos="l" depth="3" NCoef="0" IVar="-1" Cut="0.0000000000000000e+00" cType="1" res="-3.9702686481177807e-03" rms="3.7077093124389648e-01" purity="3.6678722500801086e-01" nType="-99"/>
            <Node pos="r" depth="3" NCoef="0" IVar="-1" Cut="0.0000000000000000e+00" cType="1" res="-3.4445688128471375e-02" rms="3.2394349575042725e-01" purity="2.5146207213401794e-01" nType="-99"/>
          </Node>
          <Node pos="r" depth="2" NCoef="0" IVar="8" Cut="3.9999428391456604e-01" cType="1" res="-2.1243938244879246e-03" rms="3.8486009836196899e-01" purity="5.2896124124526978e-01" nType="0">
            <Node pos="l" depth="3" NCoef="0" IVar="-1" Cut="0.0000000000000000e+00" cType="1" res="2.8422113973647356e-03" rms="3.8802111148834229e-01" purity="5.7564836740493774e-01" nType="-99"/>
            <Node pos="r" depth="3" NCoef="0" IVar="-1" Cut="0.0000000000000000e+00" cType="1" res="-8.1700403243303299e-03" rms="3.7972459197044373e-01" purity="4.5703032612800598e-01" nType="-99"/>
          </Node>
        </Node>
      </Node>
    </BinaryTree>
    <BinaryTree type="DecisionTree" boostWeight="1.0000000000000000e+00" itree="453">
      <Node pos="s" depth="0" NCoef="0" IVar="9" Cut="-1.7332997322082520e+00" cType="1" res="3.4212635364383459e-03" rms="3.8570752739906311e-01" purity="5.0473964214324951e-01" nType="0">
        <Node pos="l" depth="1" NCoef="0" IVar="8" Cut="-6.6701984405517578e-01" cType="1" res="-1.5700148418545723e-02" rms="3.6030247807502747e-01" purity="3.5694181919097900e-01" nType="0">
          <Node pos="l" depth="2" NCoef="0" IVar="-1" Cut="0.0000000000000000e+00" cType="1" res="-2.7504216879606247e-02" rms="3.2299038767814636e-01" purity="2.2790199518203735e-01" nType="-99"/>
          <Node pos="r" depth="2" NCoef="0" IVar="8" Cut="3.2334551215171814e-01" cType="1" res="-5.9155984781682491e-03" rms="3.7775453925132751e-01" purity="4.2355841398239136e-01" nType="0">
            <Node pos="l" depth="3" NCoef="0" IVar="-1" Cut="0.0000000000000000e+00" cType="1" res="7.4982522055506706e-03" rms="3.8980096578598022e-01" purity="5.0499385595321655e-01" nType="-99"/>
            <Node pos="r" depth="3" NCoef="0" IVar="-1" Cut="0.0000000000000000e+00" cType="1" res="-1.6003923490643501e-02" rms="3.6535266041755676e-01" purity="3.4738117456436157e-01" nType="-99"/>
          </Node>
        </Node>
        <Node pos="r" depth="1" NCoef="0" IVar="9" Cut="-1.0856662988662720e+00" cType="1" res="5.1312251016497612e-03" rms="3.8785243034362793e-01" purity="5.1795667409896851e-01" nType="0">
          <Node pos="l" depth="2" NCoef="0" IVar="9" Cut="-1.3323756456375122e+00" cType="1" res="1.9315160810947418e-02" rms="3.9689904451370239e-01" purity="5.0356477499008179e-01" nType="0">
            <Node pos="l" depth="3" NCoef="0" IVar="-1" Cut="0.0000000000000000e+00" cType="1" res="4.6772644855082035e-03" rms="3.8986492156982422e-01" purity="4.8993322253227234e-01" nType="-99"/>
            <Node pos="r" depth="3" NCoef="0" IVar="-1" Cut="0.0000000000000000e+00" cType="1" res="2.1429184824228287e-02" rms="4.0460065007209778e-01" purity="5.1972115039825439e-01" nType="-99"/>
          </Node>
          <Node pos="r" depth="2" NCoef="0" IVar="5" Cut="1.5527264404296875e+02" cType="1" res="3.0895303934812546e-03" rms="3.8648995757102966e-01" purity="5.2002829313278198e-01" nType="0">
            <Node pos="l" depth="3" NCoef="0" IVar="-1" Cut="0.0000000000000000e+00" cType="1" res="3.0621818732470274e-03" rms="3.9355483651161194e-01" purity="4.8586952686309814e-01" nType="-99"/>
            <Node pos="r" depth="3" NCoef="0" IVar="-1" Cut="0.0000000000000000e+00" cType="1" res="-1.3813068158924580e-02" rms="3.1034746766090393e-01" purity="8.4714627265930176e-01" nType="-99"/>
          </Node>
        </Node>
      </Node>
    </BinaryTree>
    <BinaryTree type="DecisionTree" boostWeight="1.0000000000000000e+00" itree="454">
      <Node pos="s" depth="0" NCoef="0" IVar="7" Cut="-6.6662639379501343e-01" cType="1" res="-2.7964860200881958e-03" rms="3.8464662432670593e-01" purity="4.9745225906372070e-01" nType="0">
        <Node pos="l" depth="1" NCoef="0" IVar="4" Cut="1.4369297790527344e+02" cType="1" res="-1.0857695713639259e-02" rms="3.7867274880409241e-01" purity="4.0114262700080872e-01" nType="0">
          <Node pos="l" depth="2" NCoef="0" IVar="6" Cut="9.4109350442886353e-01" cType="1" res="-4.9130460247397423e-03" rms="3.7330853939056396e-01" purity="2.9515483975410461e-01" nType="0">
            <Node pos="l" depth="3" NCoef="0" IVar="-1" Cut="0.0000000000000000e+00" cType="1" res="-6.3888961449265480e-03" rms="3.8155615329742432e-01" purity="3.2143777608871460e-01" nType="-99"/>
            <Node pos="r" depth="3" NCoef="0" IVar="-1" Cut="0.0000000000000000e+00" cType="1" res="1.9054522737860680e-02" rms="3.2985058426856995e-01" purity="1.6904984414577484e-01" nType="-99"/>
          </Node>
          <Node pos="r" depth="2" NCoef="0" IVar="8" Cut="4.0036496520042419e-01" cType="1" res="-2.2537898272275925e-02" rms="3.8873237371444702e-01" purity="6.0939019918441772e-01" nType="0">
            <Node pos="l" depth="3" NCoef="0" IVar="-1" Cut="0.0000000000000000e+00" cType="1" res="-8.6289327591657639e-03" rms="3.8955828547477722e-01" purity="6.3536882400512695e-01" nType="-99"/>
            <Node pos="r" depth="3" NCoef="0" IVar="-1" Cut="0.0000000000000000e+00" cType="1" res="-3.0660228803753853e-02" rms="3.8573092222213745e-01" purity="5.4587757587432861e-01" nType="-99"/>
          </Node>
        </Node>
        <Node pos="r" depth="1" NCoef="0" IVar="6" Cut="4.0456292033195496e-01" cType="1" res="9.1488604084588587e-05" rms="3.8672345876693726e-01" purity="5.3195571899414062e-01" nType="0">
          <Node pos="l" depth="2" NCoef="0" IVar="9" Cut="-6.6680306196212769e-01" cType="1" res="-3.2571828924119473e-03" rms="3.8826632499694824e-01" purity="5.6567281484603882e-01" nType="0">
            <Node pos="l" depth="3" NCoef="0" IVar="-1" Cut="0.0000000000000000e+00" cType="1" res="6.1771776527166367e-03" rms="3.9519253373146057e-01" purity="5.4221761226654053e-01" nType="-99"/>
            <Node pos="r" depth="3" NCoef="0" IVar="-1" Cut="0.0000000000000000e+00" cType="1" res="-5.9785367920994759e-03" rms="3.8500857353210449e-01" purity="5.7610517740249634e-01" nType="-99"/>
          </Node>
          <Node pos="r" depth="2" NCoef="0" IVar="7" Cut="-6.3383635133504868e-03" cType="1" res="6.5046544186770916e-03" rms="3.8366982340812683e-01" purity="4.6738284826278687e-01" nType="0">
            <Node pos="l" depth="3" NCoef="0" IVar="-1" Cut="0.0000000000000000e+00" cType="1" res="1.2924612499773502e-02" rms="3.8894620537757874e-01" purity="5.7384765148162842e-01" nType="-99"/>
            <Node pos="r" depth="3" NCoef="0" IVar="-1" Cut="0.0000000000000000e+00" cType="1" res="5.4260593606159091e-04" rms="3.8130119442939758e-01" purity="4.2295959591865540e-01" nType="-99"/>
          </Node>
        </Node>
      </Node>
    </BinaryTree>
    <BinaryTree type="DecisionTree" boostWeight="1.0000000000000000e+00" itree="455">
      <Node pos="s" depth="0" NCoef="0" IVar="8" Cut="1.3332676887512207e-01" cType="1" res="-4.5639596646651626e-04" rms="3.8562870025634766e-01" purity="5.0101655721664429e-01" nType="0">
        <Node pos="l" depth="1" NCoef="0" IVar="8" Cut="-1.5428594350814819e+00" cType="1" res="-5.8540035970509052e-03" rms="3.8437590003013611e-01" purity="5.0724196434020996e-01" nType="0">
          <Node pos="l" depth="2" NCoef="0" IVar="0" Cut="4.1629183959960938e+02" cType="1" res="-1.9650273025035858e-02" rms="3.5413742065429688e-01" purity="2.9543042182922363e-01" nType="0">
            <Node pos="l" depth="3" NCoef="0" IVar="-1" Cut="0.0000000000000000e+00" cType="1" res="-3.3786505460739136e-02" rms="3.0640554428100586e-01" purity="1.4409331977367401e-01" nType="-99"/>
            <Node pos="r" depth="3" NCoef="0" IVar="-1" Cut="0.0000000000000000e+00" cType="1" res="3.8973966147750616e-03" rms="4.0863549709320068e-01" purity="5.0070637464523315e-01" nType="-99"/>
          </Node>
          <Node pos="r" depth="2" NCoef="0" IVar="8" Cut="-1.2235665321350098e+00" cType="1" res="-3.0645171646028757e-03" rms="3.9014589786529541e-01" purity="5.5006843805313110e-01" nType="0">
            <Node pos="l" depth="3" NCoef="0" IVar="-1" Cut="0.0000000000000000e+00" cType="1" res="1.0088190436363220e-02" rms="3.8772639632225037e-01" purity="4.5917293429374695e-01" nType="-99"/>
            <Node pos="r" depth="3" NCoef="0" IVar="-1" Cut="0.0000000000000000e+00" cType="1" res="-3.5631530918180943e-03" rms="3.9040073752403259e-01" purity="5.6210440397262573e-01" nType="-99"/>
          </Node>
        </Node>
        <Node pos="r" depth="1" NCoef="0" IVar="9" Cut="-4.0000694990158081e-01" cType="1" res="6.0173417441546917e-03" rms="3.8702660799026489e-01" purity="4.9355000257492065e-01" nType="0">
          <Node pos="l" depth="2" NCoef="0" IVar="8" Cut="6.4130091667175293e-01" cType="1" res="1.7158186063170433e-02" rms="3.9836603403091431e-01" purity="5.0317358970642090e-01" nType="0">
            <Node pos="l" depth="3" NCoef="0" IVar="-1" Cut="0.0000000000000000e+00" cType="1" res="-4.4941790401935577e-03" rms="3.9862412214279175e-01" purity="5.4306626319885254e-01" nType="-99"/>
            <Node pos="r" depth="3" NCoef="0" IVar="-1" Cut="0.0000000000000000e+00" cType="1" res="2.0876362919807434e-02" rms="3.9751055836677551e-01" purity="4.7927251458168030e-01" nType="-99"/>
          </Node>
          <Node pos="r" depth="2" NCoef="0" IVar="8" Cut="1.6571311950683594e+00" cType="1" res="1.4883742551319301e-04" rms="3.8078671693801880e-01" purity="4.8848071694374084e-01" nType="0">
            <Node pos="l" depth="3" NCoef="0" IVar="-1" Cut="0.0000000000000000e+00" cType="1" res="2.2778757847845554e-03" rms="3.8495945930480957e-01" purity="5.3327780961990356e-01" nType="-99"/>
            <Node pos="r" depth="3" NCoef="0" IVar="-1" Cut="0.0000000000000000e+00" cType="1" res="-1.1748258955776691e-02" rms="3.5957816243171692e-01" purity="2.7262115478515625e-01" nType="-99"/>
          </Node>
        </Node>
      </Node>
    </BinaryTree>
    <BinaryTree type="DecisionTree" boostWeight="1.0000000000000000e+00" itree="456">
      <Node pos="s" depth="0" NCoef="0" IVar="7" Cut="1.3320557773113251e-01" cType="1" res="-1.3085543469060212e-04" rms="3.8600146770477295e-01" purity="4.9795922636985779e-01" nType="0">
        <Node pos="l" depth="1" NCoef="0" IVar="7" Cut="-4.2547956109046936e-01" cType="1" res="-7.1668508462607861e-03" rms="3.8533830642700195e-01" purity="5.0363528728485107e-01" nType="0">
          <Node pos="l" depth="2" NCoef="0" IVar="6" Cut="-1.4475361108779907e+00" cType="1" res="-2.7770679444074631e-03" rms="3.8335773348808289e-01" purity="4.4965755939483643e-01" nType="0">
            <Node pos="l" depth="3" NCoef="0" IVar="-1" Cut="0.0000000000000000e+00" cType="1" res="2.4197848513722420e-02" rms="3.4678128361701965e-01" purity="1.9683299958705902e-01" nType="-99"/>
            <Node pos="r" depth="3" NCoef="0" IVar="-1" Cut="0.0000000000000000e+00" cType="1" res="-3.4915700089186430e-03" rms="3.8639560341835022e-01" purity="4.7255435585975647e-01" nType="-99"/>
          </Node>
          <Node pos="r" depth="2" NCoef="0" IVar="9" Cut="-9.3294101953506470e-01" cType="1" res="-1.4792871661484241e-02" rms="3.8863709568977356e-01" purity="5.9740644693374634e-01" nType="0">
            <Node pos="l" depth="3" NCoef="0" IVar="-1" Cut="0.0000000000000000e+00" cType="1" res="-2.7165431529283524e-02" rms="3.8788995146751404e-01" purity="5.3234940767288208e-01" nType="-99"/>
            <Node pos="r" depth="3" NCoef="0" IVar="-1" Cut="0.0000000000000000e+00" cType="1" res="-4.3676127679646015e-03" rms="3.8846600055694580e-01" purity="6.1604964733123779e-01" nType="-99"/>
          </Node>
        </Node>
        <Node pos="r" depth="1" NCoef="0" IVar="5" Cut="1.5747796630859375e+02" cType="1" res="8.4048295393586159e-03" rms="3.8663259148597717e-01" purity="4.9107336997985840e-01" nType="0">
          <Node pos="l" depth="2" NCoef="0" IVar="9" Cut="-1.7333097457885742e+00" cType="1" res="1.0094339959323406e-02" rms="3.9234358072280884e-01" purity="4.5925551652908325e-01" nType="0">
            <Node pos="l" depth="3" NCoef="0" IVar="-1" Cut="0.0000000000000000e+00" cType="1" res="-9.7363814711570740e-03" rms="3.6180642247200012e-01" purity="3.1605485081672668e-01" nType="-99"/>
            <Node pos="r" depth="3" NCoef="0" IVar="-1" Cut="0.0000000000000000e+00" cType="1" res="7.7551901340484619e-03" rms="3.9461824297904968e-01" purity="4.7069114446640015e-01" nType="-99"/>
          </Node>
          <Node pos="r" depth="2" NCoef="0" IVar="-1" Cut="0.0000000000000000e+00" cType="1" res="-1.0083581320941448e-02" rms="3.1745070219039917e-01" purity="8.3682066202163696e-01" nType="-99"/>
        </Node>
      </Node>
    </BinaryTree>
    <BinaryTree type="DecisionTree" boostWeight="1.0000000000000000e+00" itree="457">
      <Node pos="s" depth="0" NCoef="0" IVar="1" Cut="1.7600855712890625e+03" cType="1" res="-4.1685884934850037e-04" rms="3.8568979501724243e-01" purity="4.9817556142807007e-01" nType="0">
        <Node pos="l" depth="1" NCoef="0" IVar="2" Cut="5.0516134643554688e+02" cType="1" res="-2.2703229915350676e-03" rms="3.9182716608047485e-01" purity="4.5139130949974060e-01" nType="0">
          <Node pos="l" depth="2" NCoef="0" IVar="3" Cut="1.1615946197509766e+02" cType="1" res="-4.7130207531154156e-04" rms="3.9200532436370850e-01" purity="4.5993366837501526e-01" nType="0">
            <Node pos="l" depth="3" NCoef="0" IVar="-1" Cut="0.0000000000000000e+00" cType="1" res="-1.5352601185441017e-02" rms="3.1414261460304260e-01" purity="1.3961260020732880e-01" nType="-99"/>
            <Node pos="r" depth="3" NCoef="0" IVar="-1" Cut="0.0000000000000000e+00" cType="1" res="1.3483313377946615e-03" rms="4.0297141671180725e-01" purity="5.1102185249328613e-01" nType="-99"/>
          </Node>
          <Node pos="r" depth="2" NCoef="0" IVar="0" Cut="4.7767495727539062e+02" cType="1" res="-1.9215617328882217e-02" rms="3.8973796367645264e-01" purity="3.7092941999435425e-01" nType="0">
            <Node pos="l" depth="3" NCoef="0" IVar="-1" Cut="0.0000000000000000e+00" cType="1" res="-2.4745082482695580e-02" rms="3.6071434617042542e-01" purity="2.6906028389930725e-01" nType="-99"/>
            <Node pos="r" depth="3" NCoef="0" IVar="-1" Cut="0.0000000000000000e+00" cType="1" res="5.3240340203046799e-03" rms="4.3042635917663574e-01" purity="5.3323984146118164e-01" nType="-99"/>
          </Node>
        </Node>
        <Node pos="r" depth="1" NCoef="0" IVar="2" Cut="6.0904095458984375e+02" cType="1" res="1.1846363544464111e-02" rms="3.4206834435462952e-01" purity="8.0771785974502563e-01" nType="0">
          <Node pos="l" depth="2" NCoef="0" IVar="0" Cut="6.8227886962890625e+02" cType="1" res="4.6056332066655159e-03" rms="2.8749012947082520e-01" purity="8.8703858852386475e-01" nType="0">
            <Node pos="l" depth="3" NCoef="0" IVar="-1" Cut="0.0000000000000000e+00" cType="1" res="1.3197424821555614e-02" rms="2.8998327255249023e-01" purity="8.8136142492294312e-01" nType="-99"/>
            <Node pos="r" depth="3" NCoef="0" IVar="-1" Cut="0.0000000000000000e+00" cType="1" res="-8.5985455662012100e-03" rms="2.8330752253532410e-01" purity="8.9565271139144897e-01" nType="-99"/>
          </Node>
          <Node pos="r" depth="2" NCoef="0" IVar="6" Cut="-1.7121246084570885e-02" cType="1" res="2.2881746292114258e-02" rms="4.1131058335304260e-01" purity="6.8682754039764404e-01" nType="0">
            <Node pos="l" depth="3" NCoef="0" IVar="-1" Cut="0.0000000000000000e+00" cType="1" res="2.1811336278915405e-02" rms="4.2062008380889893e-01" purity="6.9772940874099731e-01" nType="-99"/>
            <Node pos="r" depth="3" NCoef="0" IVar="-1" Cut="0.0000000000000000e+00" cType="1" res="5.3187841549515724e-03" rms="4.0105760097503662e-01" purity="6.7564195394515991e-01" nType="-99"/>
          </Node>
        </Node>
      </Node>
    </BinaryTree>
    <BinaryTree type="DecisionTree" boostWeight="1.0000000000000000e+00" itree="458">
      <Node pos="s" depth="0" NCoef="0" IVar="9" Cut="1.9999915361404419e+00" cType="1" res="3.3534590620547533e-03" rms="3.8862377405166626e-01" purity="4.9935063719749451e-01" nType="0">
        <Node pos="l" depth="1" NCoef="0" IVar="4" Cut="1.0560417175292969e+02" cType="1" res="1.5665628015995026e-03" rms="3.8846585154533386e-01" purity="5.0601893663406372e-01" nType="0">
          <Node pos="l" depth="2" NCoef="0" IVar="5" Cut="7.1128868103027344e+01" cType="1" res="1.0380491614341736e-02" rms="3.8437733054161072e-01" purity="2.8208217024803162e-01" nType="0">
            <Node pos="l" depth="3" NCoef="0" IVar="-1" Cut="0.0000000000000000e+00" cType="1" res="2.3244116455316544e-03" rms="3.6328732967376709e-01" purity="2.2263020277023315e-01" nType="-99"/>
            <Node pos="r" depth="3" NCoef="0" IVar="-1" Cut="0.0000000000000000e+00" cType="1" res="1.4526772312819958e-02" rms="4.2447972297668457e-01" purity="4.0565350651741028e-01" nType="-99"/>
          </Node>
          <Node pos="r" depth="2" NCoef="0" IVar="7" Cut="1.4666916131973267e+00" cType="1" res="-3.3726114779710770e-03" rms="3.9065134525299072e-01" purity="6.3150930404663086e-01" nType="0">
            <Node pos="l" depth="3" NCoef="0" IVar="-1" Cut="0.0000000000000000e+00" cType="1" res="-3.6410724278539419e-03" rms="3.9036169648170471e-01" purity="6.5074539184570312e-01" nType="-99"/>
            <Node pos="r" depth="3" NCoef="0" IVar="-1" Cut="0.0000000000000000e+00" cType="1" res="1.5448951162397861e-02" rms="3.9319047331809998e-01" purity="3.9531227946281433e-01" nType="-99"/>
          </Node>
        </Node>
        <Node pos="r" depth="1" NCoef="0" IVar="0" Cut="4.0454135131835938e+02" cType="1" res="3.2393045723438263e-02" rms="3.9003515243530273e-01" purity="3.9098057150840759e-01" nType="0">
          <Node pos="l" depth="2" NCoef="0" IVar="-1" Cut="0.0000000000000000e+00" cType="1" res="6.8711908534169197e-03" rms="3.6010679602622986e-01" purity="2.4434757232666016e-01" nType="-99"/>
          <Node pos="r" depth="2" NCoef="0" IVar="-1" Cut="0.0000000000000000e+00" cType="1" res="3.4542236477136612e-02" rms="4.1822332143783569e-01" purity="5.4764813184738159e-01" nType="-99"/>
        </Node>
      </Node>
    </BinaryTree>
    <BinaryTree type="DecisionTree" boostWeight="1.0000000000000000e+00" itree="459">
      <Node pos="s" depth="0" NCoef="0" IVar="9" Cut="-9.3332630395889282e-01" cType="1" res="1.0088030248880386e-03" rms="3.8600796461105347e-01" purity="5.0153499841690063e-01" nType="0">
        <Node pos="l" depth="1" NCoef="0" IVar="9" Cut="-1.3777713775634766e+00" cType="1" res="-5.4931272752583027e-03" rms="3.7836506962776184e-01" purity="4.3913894891738892e-01" nType="0">
          <Node pos="l" depth="2" NCoef="0" IVar="1" Cut="1.0548217773437500e+03" cType="1" res="4.5734276063740253e-03" rms="3.7500992417335510e-01" purity="4.1595196723937988e-01" nType="0">
            <Node pos="l" depth="3" NCoef="0" IVar="-1" Cut="0.0000000000000000e+00" cType="1" res="-1.6410784795880318e-02" rms="3.1790488958358765e-01" purity="1.5202830731868744e-01" nType="-99"/>
            <Node pos="r" depth="3" NCoef="0" IVar="-1" Cut="0.0000000000000000e+00" cType="1" res="9.1568520292639732e-03" rms="3.9622864127159119e-01" purity="5.2735972404479980e-01" nType="-99"/>
          </Node>
          <Node pos="r" depth="2" NCoef="0" IVar="5" Cut="9.3014167785644531e+01" cType="1" res="-2.0701576024293900e-02" rms="3.8287666440010071e-01" purity="4.7416955232620239e-01" nType="0">
            <Node pos="l" depth="3" NCoef="0" IVar="-1" Cut="0.0000000000000000e+00" cType="1" res="-2.5481685996055603e-02" rms="3.8778465986251831e-01" purity="3.2038015127182007e-01" nType="-99"/>
            <Node pos="r" depth="3" NCoef="0" IVar="-1" Cut="0.0000000000000000e+00" cType="1" res="6.3768336549401283e-03" rms="3.7326559424400330e-01" purity="7.0849901437759399e-01" nType="-99"/>
          </Node>
        </Node>
        <Node pos="r" depth="1" NCoef="0" IVar="3" Cut="3.9998565673828125e+02" cType="1" res="2.9655138496309519e-03" rms="3.8825726509094238e-01" purity="5.2031266689300537e-01" nType="0">
          <Node pos="l" depth="2" NCoef="0" IVar="7" Cut="1.4666432142257690e+00" cType="1" res="4.0785642340779305e-03" rms="3.8777926564216614e-01" purity="5.1495832204818726e-01" nType="0">
            <Node pos="l" depth="3" NCoef="0" IVar="-1" Cut="0.0000000000000000e+00" cType="1" res="3.7408706266433001e-03" rms="3.9103168249130249e-01" purity="5.4239422082901001e-01" nType="-99"/>
            <Node pos="r" depth="3" NCoef="0" IVar="-1" Cut="0.0000000000000000e+00" cType="1" res="-1.0001117363572121e-02" rms="3.5307744145393372e-01" purity="2.3979499936103821e-01" nType="-99"/>
          </Node>
          <Node pos="r" depth="2" NCoef="0" IVar="-1" Cut="0.0000000000000000e+00" cType="1" res="-1.4467298053205013e-02" rms="3.9807888865470886e-01" purity="6.4133399724960327e-01" nType="-99"/>
        </Node>
      </Node>
    </BinaryTree>
    <BinaryTree type="DecisionTree" boostWeight="1.0000000000000000e+00" itree="460">
      <Node pos="s" depth="0" NCoef="0" IVar="3" Cut="3.3719552612304688e+02" cType="1" res="1.9406648352742195e-03" rms="3.8525250554084778e-01" purity="5.0132495164871216e-01" nType="0">
        <Node pos="l" depth="1" NCoef="0" IVar="2" Cut="5.8868579101562500e+02" cType="1" res="2.6375794550403953e-04" rms="3.8640600442886353e-01" purity="4.7973787784576416e-01" nType="0">
          <Node pos="l" depth="2" NCoef="0" IVar="8" Cut="-1.3349787890911102e-01" cType="1" res="1.7301727784797549e-03" rms="3.8649371266365051e-01" purity="4.7724378108978271e-01" nType="0">
            <Node pos="l" depth="3" NCoef="0" IVar="-1" Cut="0.0000000000000000e+00" cType="1" res="5.0838189199566841e-03" rms="3.8793358206748962e-01" purity="4.7605603933334351e-01" nType="-99"/>
            <Node pos="r" depth="3" NCoef="0" IVar="-1" Cut="0.0000000000000000e+00" cType="1" res="-2.2249650210142136e-03" rms="3.8519772887229919e-01" purity="4.7824978828430176e-01" nType="-99"/>
          </Node>
          <Node pos="r" depth="2" NCoef="0" IVar="3" Cut="2.2854753112792969e+02" cType="1" res="-2.3154778406023979e-02" rms="3.8424488902091980e-01" purity="5.1956880092620850e-01" nType="0">
            <Node pos="l" depth="3" NCoef="0" IVar="-1" Cut="0.0000000000000000e+00" cType="1" res="-1.9264616072177887e-02" rms="4.0093731880187988e-01" purity="4.4047191739082336e-01" nType="-99"/>
            <Node pos="r" depth="3" NCoef="0" IVar="-1" Cut="0.0000000000000000e+00" cType="1" res="-9.1395378112792969e-03" rms="3.6609411239624023e-01" purity="6.0071134567260742e-01" nType="-99"/>
          </Node>
        </Node>
        <Node pos="r" depth="1" NCoef="0" IVar="1" Cut="1.9645843505859375e+03" cType="1" res="1.6793865710496902e-02" rms="3.7455290555953979e-01" purity="6.9253176450729370e-01" nType="0">
          <Node pos="l" depth="2" NCoef="0" IVar="6" Cut="-4.7411497682332993e-02" cType="1" res="2.8466155752539635e-02" rms="3.8451203703880310e-01" purity="6.4153736829757690e-01" nType="0">
            <Node pos="l" depth="3" NCoef="0" IVar="-1" Cut="0.0000000000000000e+00" cType="1" res="2.2857547737658024e-03" rms="3.8985952734947205e-01" purity="6.0289227962493896e-01" nType="-99"/>
            <Node pos="r" depth="3" NCoef="0" IVar="-1" Cut="0.0000000000000000e+00" cType="1" res="3.1231025233864784e-02" rms="3.7905016541481018e-01" purity="6.7230087518692017e-01" nType="-99"/>
          </Node>
          <Node pos="r" depth="2" NCoef="0" IVar="-1" Cut="0.0000000000000000e+00" cType="1" res="-2.5428084190934896e-03" rms="3.5584416985511780e-01" purity="7.8039747476577759e-01" nType="-99"/>
        </Node>
      </Node>
    </BinaryTree>
    <BinaryTree type="DecisionTree" boostWeight="1.0000000000000000e+00" itree="461">
      <Node pos="s" depth="0" NCoef="0" IVar="7" Cut="-4.0004774928092957e-01" cType="1" res="1.0365352500230074e-03" rms="3.8587057590484619e-01" purity="4.9930939078330994e-01" nType="0">
        <Node pos="l" depth="1" NCoef="0" IVar="6" Cut="-1.0725830495357513e-01" cType="1" res="-4.7728116624057293e-03" rms="3.8456547260284424e-01" purity="4.4851228594779968e-01" nType="0">
          <Node pos="l" depth="2" NCoef="0" IVar="5" Cut="1.0035000610351562e+02" cType="1" res="-1.3367681764066219e-02" rms="3.8566580414772034e-01" purity="4.2745164036750793e-01" nType="0">
            <Node pos="l" depth="3" NCoef="0" IVar="-1" Cut="0.0000000000000000e+00" cType="1" res="-1.3619440607726574e-02" rms="3.8761135935783386e-01" purity="2.9725655913352966e-01" nType="-99"/>
            <Node pos="r" depth="3" NCoef="0" IVar="-1" Cut="0.0000000000000000e+00" cType="1" res="2.0420639775693417e-03" rms="3.8087880611419678e-01" purity="7.1137148141860962e-01" nType="-99"/>
          </Node>
          <Node pos="r" depth="2" NCoef="0" IVar="6" Cut="1.1385746002197266e+00" cType="1" res="3.4466483630239964e-03" rms="3.8333001732826233e-01" purity="4.6865308284759521e-01" nType="0">
            <Node pos="l" depth="3" NCoef="0" IVar="-1" Cut="0.0000000000000000e+00" cType="1" res="6.8105617538094521e-03" rms="3.9948645234107971e-01" purity="5.4692780971527100e-01" nType="-99"/>
            <Node pos="r" depth="3" NCoef="0" IVar="-1" Cut="0.0000000000000000e+00" cType="1" res="-1.9116070121526718e-02" rms="3.1969714164733887e-01" purity="1.9695891439914703e-01" nType="-99"/>
          </Node>
        </Node>
        <Node pos="r" depth="1" NCoef="0" IVar="8" Cut="-1.7333276271820068e+00" cType="1" res="4.1877906769514084e-03" rms="3.8654017448425293e-01" purity="5.2686405181884766e-01" nType="0">
          <Node pos="l" depth="2" NCoef="0" IVar="-1" Cut="0.0000000000000000e+00" cType="1" res="-1.0761230252683163e-02" rms="3.6447328329086304e-01" purity="2.9420846700668335e-01" nType="-99"/>
          <Node pos="r" depth="2" NCoef="0" IVar="8" Cut="-6.5393429994583130e-01" cType="1" res="5.4040569812059402e-03" rms="3.8786220550537109e-01" purity="5.4158562421798706e-01" nType="0">
            <Node pos="l" depth="3" NCoef="0" IVar="-1" Cut="0.0000000000000000e+00" cType="1" res="1.1261463165283203e-02" rms="3.9930832386016846e-01" purity="5.3751552104949951e-01" nType="-99"/>
            <Node pos="r" depth="3" NCoef="0" IVar="-1" Cut="0.0000000000000000e+00" cType="1" res="1.3436782173812389e-03" rms="3.8461607694625854e-01" purity="5.4269421100616455e-01" nType="-99"/>
          </Node>
        </Node>
      </Node>
    </BinaryTree>
    <BinaryTree type="DecisionTree" boostWeight="1.0000000000000000e+00" itree="462">
      <Node pos="s" depth="0" NCoef="0" IVar="6" Cut="1.2030272483825684e+00" cType="1" res="-3.3191121183335781e-03" rms="3.8307437300682068e-01" purity="4.9490579962730408e-01" nType="0">
        <Node pos="l" depth="1" NCoef="0" IVar="8" Cut="-1.3331933319568634e-01" cType="1" res="-9.0266647748649120e-04" rms="3.8912156224250793e-01" purity="5.2780538797378540e-01" nType="0">
          <Node pos="l" depth="2" NCoef="0" IVar="0" Cut="4.2728143310546875e+02" cType="1" res="-8.6527252569794655e-03" rms="3.8503798842430115e-01" purity="5.1134532690048218e-01" nType="0">
            <Node pos="l" depth="3" NCoef="0" IVar="-1" Cut="0.0000000000000000e+00" cType="1" res="-1.1032214388251305e-02" rms="3.8916179537773132e-01" purity="3.4250363707542419e-01" nType="-99"/>
            <Node pos="r" depth="3" NCoef="0" IVar="-1" Cut="0.0000000000000000e+00" cType="1" res="5.8284407714381814e-04" rms="3.8025906682014465e-01" purity="6.9560879468917847e-01" nType="-99"/>
          </Node>
          <Node pos="r" depth="2" NCoef="0" IVar="3" Cut="3.3172842407226562e+02" cType="1" res="5.6577743962407112e-03" rms="3.9242550730705261e-01" purity="5.4173892736434937e-01" nType="0">
            <Node pos="l" depth="3" NCoef="0" IVar="-1" Cut="0.0000000000000000e+00" cType="1" res="4.9808234907686710e-03" rms="3.9557808637619019e-01" purity="5.2383154630661011e-01" nType="-99"/>
            <Node pos="r" depth="3" NCoef="0" IVar="-1" Cut="0.0000000000000000e+00" cType="1" res="-8.8320747017860413e-03" rms="3.6421284079551697e-01" purity="6.9298171997070312e-01" nType="-99"/>
          </Node>
        </Node>
        <Node pos="r" depth="1" NCoef="0" IVar="9" Cut="-6.6685140132904053e-01" cType="1" res="-2.3443996906280518e-02" rms="3.2772302627563477e-01" purity="2.2090777754783630e-01" nType="0">
          <Node pos="l" depth="2" NCoef="0" IVar="-1" Cut="0.0000000000000000e+00" cType="1" res="3.9362041279673576e-03" rms="3.4779474139213562e-01" purity="2.5046312808990479e-01" nType="-99"/>
          <Node pos="r" depth="2" NCoef="0" IVar="9" Cut="8.1880939006805420e-01" cType="1" res="-3.3609051257371902e-02" rms="3.1962105631828308e-01" purity="2.1032980084419250e-01" nType="0">
            <Node pos="l" depth="3" NCoef="0" IVar="-1" Cut="0.0000000000000000e+00" cType="1" res="-3.6736868321895599e-02" rms="3.2458987832069397e-01" purity="2.3800992965698242e-01" nType="-99"/>
            <Node pos="r" depth="3" NCoef="0" IVar="-1" Cut="0.0000000000000000e+00" cType="1" res="-1.6281651332974434e-02" rms="3.1323933601379395e-01" purity="1.7990219593048096e-01" nType="-99"/>
          </Node>
        </Node>
      </Node>
    </BinaryTree>
    <BinaryTree type="DecisionTree" boostWeight="1.0000000000000000e+00" itree="463">
      <Node pos="s" depth="0" NCoef="0" IVar="8" Cut="-1.4666715860366821e+00" cType="1" res="2.4629705585539341e-03" rms="3.8482820987701416e-01" purity="5.0437134504318237e-01" nType="0">
        <Node pos="l" depth="1" NCoef="0" IVar="9" Cut="-3.9985531568527222e-01" cType="1" res="-1.3896931894123554e-02" rms="3.6646682024002075e-01" purity="3.0209028720855713e-01" nType="0">
          <Node pos="l" depth="2" NCoef="0" IVar="-1" Cut="0.0000000000000000e+00" cType="1" res="-2.8483847156167030e-02" rms="3.3930712938308716e-01" purity="2.3338294029235840e-01" nType="-99"/>
          <Node pos="r" depth="2" NCoef="0" IVar="3" Cut="1.8992689514160156e+02" cType="1" res="3.5944820847362280e-03" rms="3.8553360104560852e-01" purity="3.5597857832908630e-01" nType="0">
            <Node pos="l" depth="3" NCoef="0" IVar="-1" Cut="0.0000000000000000e+00" cType="1" res="1.4472858048975468e-02" rms="3.6920261383056641e-01" purity="2.4576298892498016e-01" nType="-99"/>
            <Node pos="r" depth="3" NCoef="0" IVar="-1" Cut="0.0000000000000000e+00" cType="1" res="-9.0475762262940407e-03" rms="4.0301087498664856e-01" purity="4.8459219932556152e-01" nType="-99"/>
          </Node>
        </Node>
        <Node pos="r" depth="1" NCoef="0" IVar="6" Cut="6.7089605331420898e-01" cType="1" res="4.3426458723843098e-03" rms="3.8683772087097168e-01" purity="5.2761250734329224e-01" nType="0">
          <Node pos="l" depth="2" NCoef="0" IVar="4" Cut="1.0559147644042969e+02" cType="1" res="1.2335242936387658e-03" rms="3.8905498385429382e-01" purity="5.6733131408691406e-01" nType="0">
            <Node pos="l" depth="3" NCoef="0" IVar="-1" Cut="0.0000000000000000e+00" cType="1" res="6.5253279171884060e-03" rms="4.0467616915702820e-01" purity="3.2328093051910400e-01" nType="-99"/>
            <Node pos="r" depth="3" NCoef="0" IVar="-1" Cut="0.0000000000000000e+00" cType="1" res="-2.2476867306977510e-03" rms="3.8107436895370483e-01" purity="6.8706405162811279e-01" nType="-99"/>
          </Node>
          <Node pos="r" depth="2" NCoef="0" IVar="9" Cut="-9.3302178382873535e-01" cType="1" res="1.4162222854793072e-02" rms="3.7958273291587830e-01" purity="4.0216794610023499e-01" nType="0">
            <Node pos="l" depth="3" NCoef="0" IVar="-1" Cut="0.0000000000000000e+00" cType="1" res="2.3228028789162636e-02" rms="3.8267996907234192e-01" purity="3.9317902922630310e-01" nType="-99"/>
            <Node pos="r" depth="3" NCoef="0" IVar="-1" Cut="0.0000000000000000e+00" cType="1" res="6.4035025425255299e-03" rms="3.7861952185630798e-01" purity="4.0447416901588440e-01" nType="-99"/>
          </Node>
        </Node>
      </Node>
    </BinaryTree>
    <BinaryTree type="DecisionTree" boostWeight="1.0000000000000000e+00" itree="464">
      <Node pos="s" depth="0" NCoef="0" IVar="8" Cut="6.6664963960647583e-01" cType="1" res="2.3801026400178671e-03" rms="3.8906189799308777e-01" purity="4.9922427535057068e-01" nType="0">
        <Node pos="l" depth="1" NCoef="0" IVar="7" Cut="-1.7331008911132812e+00" cType="1" res="7.0289666764438152e-03" rms="3.9101824164390564e-01" purity="5.2777475118637085e-01" nType="0">
          <Node pos="l" depth="2" NCoef="0" IVar="-1" Cut="0.0000000000000000e+00" cType="1" res="2.1306507289409637e-02" rms="3.5978195071220398e-01" purity="2.6758873462677002e-01" nType="-99"/>
          <Node pos="r" depth="2" NCoef="0" IVar="0" Cut="4.3904391479492188e+02" cType="1" res="5.7197394780814648e-03" rms="3.9300632476806641e-01" purity="5.4536783695220947e-01" nType="0">
            <Node pos="l" depth="3" NCoef="0" IVar="-1" Cut="0.0000000000000000e+00" cType="1" res="6.4692767336964607e-03" rms="4.0618267655372620e-01" purity="4.0405845642089844e-01" nType="-99"/>
            <Node pos="r" depth="3" NCoef="0" IVar="-1" Cut="0.0000000000000000e+00" cType="1" res="-4.2384309927001595e-04" rms="3.7542432546615601e-01" purity="7.2571510076522827e-01" nType="-99"/>
          </Node>
        </Node>
        <Node pos="r" depth="1" NCoef="0" IVar="9" Cut="-1.1999921798706055e+00" cType="1" res="-9.6968533471226692e-03" rms="3.8366997241973877e-01" purity="4.2505514621734619e-01" nType="0">
          <Node pos="l" depth="2" NCoef="0" IVar="-1" Cut="0.0000000000000000e+00" cType="1" res="9.4973612576723099e-03" rms="4.0151366591453552e-01" purity="3.8995179533958435e-01" nType="-99"/>
          <Node pos="r" depth="2" NCoef="0" IVar="7" Cut="9.3337392807006836e-01" cType="1" res="-1.3979488983750343e-02" rms="3.8026672601699829e-01" purity="4.3126326799392700e-01" nType="0">
            <Node pos="l" depth="3" NCoef="0" IVar="-1" Cut="0.0000000000000000e+00" cType="1" res="-1.2399473227560520e-02" rms="3.8716226816177368e-01" purity="4.7688978910446167e-01" nType="-99"/>
            <Node pos="r" depth="3" NCoef="0" IVar="-1" Cut="0.0000000000000000e+00" cType="1" res="8.6778943659737706e-04" rms="3.5761934518814087e-01" purity="2.8977832198143005e-01" nType="-99"/>
          </Node>
        </Node>
      </Node>
    </BinaryTree>
    <BinaryTree type="DecisionTree" boostWeight="1.0000000000000000e+00" itree="465">
      <Node pos="s" depth="0" NCoef="0" IVar="8" Cut="1.4666552543640137e+00" cType="1" res="-1.4736697776243091e-03" rms="3.8367775082588196e-01" purity="4.9987268447875977e-01" nType="0">
        <Node pos="l" depth="1" NCoef="0" IVar="6" Cut="-1.7238866090774536e+00" cType="1" res="-3.5464863758534193e-03" rms="3.8371381163597107e-01" purity="5.2019220590591431e-01" nType="0">
          <Node pos="l" depth="2" NCoef="0" IVar="-1" Cut="0.0000000000000000e+00" cType="1" res="-3.0704889446496964e-02" rms="2.9969635605812073e-01" purity="1.3917820155620575e-01" nType="-99"/>
          <Node pos="r" depth="2" NCoef="0" IVar="7" Cut="-1.3347665965557098e-01" cType="1" res="-2.4827721063047647e-03" rms="3.8640591502189636e-01" purity="5.3416192531585693e-01" nType="0">
            <Node pos="l" depth="3" NCoef="0" IVar="-1" Cut="0.0000000000000000e+00" cType="1" res="2.0774961449205875e-03" rms="3.8957342505455017e-01" purity="5.2182459831237793e-01" nType="-99"/>
            <Node pos="r" depth="3" NCoef="0" IVar="-1" Cut="0.0000000000000000e+00" cType="1" res="-4.8622624017298222e-03" rms="3.8361185789108276e-01" purity="5.4470664262771606e-01" nType="-99"/>
          </Node>
        </Node>
        <Node pos="r" depth="1" NCoef="0" IVar="8" Cut="1.6571360826492310e+00" cType="1" res="1.5680281445384026e-02" rms="3.8294872641563416e-01" purity="3.3171519637107849e-01" nType="0">
          <Node pos="l" depth="2" NCoef="0" IVar="-1" Cut="0.0000000000000000e+00" cType="1" res="3.2750122249126434e-02" rms="4.1221556067466736e-01" purity="4.5029783248901367e-01" nType="-99"/>
          <Node pos="r" depth="2" NCoef="0" IVar="2" Cut="3.2215716552734375e+02" cType="1" res="3.7519116885960102e-03" rms="3.7147909402847290e-01" purity="2.9043114185333252e-01" nType="0">
            <Node pos="l" depth="3" NCoef="0" IVar="-1" Cut="0.0000000000000000e+00" cType="1" res="-1.8186729401350021e-02" rms="3.5220724344253540e-01" purity="2.2470004856586456e-01" nType="-99"/>
            <Node pos="r" depth="3" NCoef="0" IVar="-1" Cut="0.0000000000000000e+00" cType="1" res="2.0007535815238953e-02" rms="3.8578543066978455e-01" purity="3.4731790423393250e-01" nType="-99"/>
          </Node>
        </Node>
      </Node>
    </BinaryTree>
    <BinaryTree type="DecisionTree" boostWeight="1.0000000000000000e+00" itree="466">
      <Node pos="s" depth="0" NCoef="0" IVar="7" Cut="-1.1999139785766602e+00" cType="1" res="-5.1164915785193443e-03" rms="3.8379737734794617e-01" purity="4.9312135577201843e-01" nType="0">
        <Node pos="l" depth="1" NCoef="0" IVar="6" Cut="1.5829606354236603e-01" cType="1" res="-1.8587213009595871e-02" rms="3.5325205326080322e-01" purity="2.8522297739982605e-01" nType="0">
          <Node pos="l" depth="2" NCoef="0" IVar="8" Cut="-4.0013068914413452e-01" cType="1" res="-3.0561255291104317e-02" rms="3.5522747039794922e-01" purity="2.9707583785057068e-01" nType="0">
            <Node pos="l" depth="3" NCoef="0" IVar="-1" Cut="0.0000000000000000e+00" cType="1" res="-1.2492697685956955e-02" rms="3.5515403747558594e-01" purity="2.7455526590347290e-01" nType="-99"/>
            <Node pos="r" depth="3" NCoef="0" IVar="-1" Cut="0.0000000000000000e+00" cType="1" res="-2.9624486342072487e-02" rms="3.5480591654777527e-01" purity="3.1800073385238647e-01" nType="-99"/>
          </Node>
          <Node pos="r" depth="2" NCoef="0" IVar="6" Cut="7.8655952215194702e-01" cType="1" res="-1.6930998535826802e-03" rms="3.4974953532218933e-01" purity="2.6849985122680664e-01" nType="0">
            <Node pos="l" depth="3" NCoef="0" IVar="-1" Cut="0.0000000000000000e+00" cType="1" res="8.2447528839111328e-03" rms="4.0098890662193298e-01" purity="3.8352504372596741e-01" nType="-99"/>
            <Node pos="r" depth="3" NCoef="0" IVar="-1" Cut="0.0000000000000000e+00" cType="1" res="-1.5427827835083008e-02" rms="2.9342648386955261e-01" purity="1.6134166717529297e-01" nType="-99"/>
          </Node>
        </Node>
        <Node pos="r" depth="1" NCoef="0" IVar="2" Cut="4.9194308471679688e+02" cType="1" res="-3.1093202996999025e-03" rms="3.8810294866561890e-01" purity="5.2409875392913818e-01" nType="0">
          <Node pos="l" depth="2" NCoef="0" IVar="7" Cut="5.1432317495346069e-01" cType="1" res="-5.7541285641491413e-03" rms="3.8778528571128845e-01" purity="5.0837302207946777e-01" nType="0">
            <Node pos="l" depth="3" NCoef="0" IVar="-1" Cut="0.0000000000000000e+00" cType="1" res="-1.1915959184989333e-03" rms="3.9234584569931030e-01" purity="5.6696462631225586e-01" nType="-99"/>
            <Node pos="r" depth="3" NCoef="0" IVar="-1" Cut="0.0000000000000000e+00" cType="1" res="-8.4209097549319267e-03" rms="3.7985944747924805e-01" purity="4.0931555628776550e-01" nType="-99"/>
          </Node>
          <Node pos="r" depth="2" NCoef="0" IVar="9" Cut="-1.3334877789020538e-01" cType="1" res="8.1056356430053711e-03" rms="3.8924753665924072e-01" purity="5.9078162908554077e-01" nType="0">
            <Node pos="l" depth="3" NCoef="0" IVar="-1" Cut="0.0000000000000000e+00" cType="1" res="-1.9676629453897476e-03" rms="3.8845664262771606e-01" purity="5.8849447965621948e-01" nType="-99"/>
            <Node pos="r" depth="3" NCoef="0" IVar="-1" Cut="0.0000000000000000e+00" cType="1" res="1.1140882968902588e-02" rms="3.8965556025505066e-01" purity="5.9264278411865234e-01" nType="-99"/>
          </Node>
        </Node>
      </Node>
    </BinaryTree>
    <BinaryTree type="DecisionTree" boostWeight="1.0000000000000000e+00" itree="467">
      <Node pos="s" depth="0" NCoef="0" IVar="9" Cut="1.3331310451030731e-01" cType="1" res="-3.7401255685836077e-03" rms="3.8348719477653503e-01" purity="4.9844676256179810e-01" nType="0">
        <Node pos="l" depth="1" NCoef="0" IVar="3" Cut="3.3693667602539062e+02" cType="1" res="-8.6623448878526688e-03" rms="3.8188141584396362e-01" purity="5.0172895193099976e-01" nType="0">
          <Node pos="l" depth="2" NCoef="0" IVar="3" Cut="1.8752380371093750e+02" cType="1" res="-1.0872821323573589e-02" rms="3.8214832544326782e-01" purity="4.8004606366157532e-01" nType="0">
            <Node pos="l" depth="3" NCoef="0" IVar="-1" Cut="0.0000000000000000e+00" cType="1" res="-1.4136444078758359e-03" rms="3.8441744446754456e-01" purity="3.3867281675338745e-01" nType="-99"/>
            <Node pos="r" depth="3" NCoef="0" IVar="-1" Cut="0.0000000000000000e+00" cType="1" res="-1.3157581910490990e-02" rms="3.7978941202163696e-01" purity="6.1461865901947021e-01" nType="-99"/>
          </Node>
          <Node pos="r" depth="2" NCoef="0" IVar="6" Cut="-1.8455710262060165e-02" cType="1" res="1.0595992207527161e-02" rms="3.7900319695472717e-01" purity="6.9063675403594971e-01" nType="0">
            <Node pos="l" depth="3" NCoef="0" IVar="-1" Cut="0.0000000000000000e+00" cType="1" res="-2.0313952118158340e-03" rms="3.8587215542793274e-01" purity="6.6085445880889893e-01" nType="-99"/>
            <Node pos="r" depth="3" NCoef="0" IVar="-1" Cut="0.0000000000000000e+00" cType="1" res="1.6400001943111420e-02" rms="3.7188404798507690e-01" purity="7.1897393465042114e-01" nType="-99"/>
          </Node>
        </Node>
        <Node pos="r" depth="1" NCoef="0" IVar="2" Cut="5.0379696655273438e+02" cType="1" res="2.0699796732515097e-03" rms="3.8529309630393982e-01" purity="4.9457255005836487e-01" nType="0">
          <Node pos="l" depth="2" NCoef="0" IVar="9" Cut="1.2761212587356567e+00" cType="1" res="-1.1684343917295337e-03" rms="3.8508328795433044e-01" purity="4.8111635446548462e-01" nType="0">
            <Node pos="l" depth="3" NCoef="0" IVar="-1" Cut="0.0000000000000000e+00" cType="1" res="3.4694117493927479e-03" rms="3.9162719249725342e-01" purity="5.2597916126251221e-01" nType="-99"/>
            <Node pos="r" depth="3" NCoef="0" IVar="-1" Cut="0.0000000000000000e+00" cType="1" res="-8.8896984234452248e-03" rms="3.7233325839042664e-01" purity="3.9780747890472412e-01" nType="-99"/>
          </Node>
          <Node pos="r" depth="2" NCoef="0" IVar="9" Cut="6.4124351739883423e-01" cType="1" res="1.8429802730679512e-02" rms="3.8593623042106628e-01" purity="5.6255030632019043e-01" nType="0">
            <Node pos="l" depth="3" NCoef="0" IVar="-1" Cut="0.0000000000000000e+00" cType="1" res="-6.8788179196417332e-03" rms="3.7554249167442322e-01" purity="5.9738910198211670e-01" nType="-99"/>
            <Node pos="r" depth="3" NCoef="0" IVar="-1" Cut="0.0000000000000000e+00" cType="1" res="2.1363938227295876e-02" rms="3.9022108912467957e-01" purity="5.4514569044113159e-01" nType="-99"/>
          </Node>
        </Node>
      </Node>
    </BinaryTree>
    <BinaryTree type="DecisionTree" boostWeight="1.0000000000000000e+00" itree="468">
      <Node pos="s" depth="0" NCoef="0" IVar="2" Cut="6.0637103271484375e+02" cType="1" res="1.4904531417414546e-03" rms="3.8426390290260315e-01" purity="5.0003618001937866e-01" nType="0">
        <Node pos="l" depth="1" NCoef="0" IVar="9" Cut="2.2666566371917725e+00" cType="1" res="3.0264325905591249e-03" rms="3.8357198238372803e-01" purity="4.9559742212295532e-01" nType="0">
          <Node pos="l" depth="2" NCoef="0" IVar="6" Cut="-9.2565250396728516e-01" cType="1" res="3.8340799510478973e-03" rms="3.8440546393394470e-01" purity="5.0132429599761963e-01" nType="0">
            <Node pos="l" depth="3" NCoef="0" IVar="-1" Cut="0.0000000000000000e+00" cType="1" res="9.4869146123528481e-03" rms="3.7113779783248901e-01" purity="3.3738869428634644e-01" nType="-99"/>
            <Node pos="r" depth="3" NCoef="0" IVar="-1" Cut="0.0000000000000000e+00" cType="1" res="1.2803472345694900e-03" rms="3.8708987832069397e-01" purity="5.3553360700607300e-01" nType="-99"/>
          </Node>
          <Node pos="r" depth="2" NCoef="0" IVar="-1" Cut="0.0000000000000000e+00" cType="1" res="-1.6327645629644394e-02" rms="3.5500216484069824e-01" purity="3.1293433904647827e-01" nType="-99"/>
        </Node>
        <Node pos="r" depth="1" NCoef="0" IVar="0" Cut="7.0921643066406250e+02" cType="1" res="-1.7576392740011215e-02" rms="3.9225119352340698e-01" purity="5.5513662099838257e-01" nType="0">
          <Node pos="l" depth="2" NCoef="0" IVar="-1" Cut="0.0000000000000000e+00" cType="1" res="-2.2630166262388229e-02" rms="3.8988468050956726e-01" purity="4.6472436189651489e-01" nType="-99"/>
          <Node pos="r" depth="2" NCoef="0" IVar="-1" Cut="0.0000000000000000e+00" cType="1" res="1.3228453695774078e-02" rms="3.9408224821090698e-01" purity="7.3471152782440186e-01" nType="-99"/>
        </Node>
      </Node>
    </BinaryTree>
    <BinaryTree type="DecisionTree" boostWeight="1.0000000000000000e+00" itree="469">
      <Node pos="s" depth="0" NCoef="0" IVar="3" Cut="3.3631930541992188e+02" cType="1" res="8.9609706774353981e-03" rms="3.8901576399803162e-01" purity="5.0208508968353271e-01" nType="0">
        <Node pos="l" depth="1" NCoef="0" IVar="6" Cut="-1.7241441011428833e+00" cType="1" res="1.1071501299738884e-02" rms="3.8929882645606995e-01" purity="4.8729977011680603e-01" nType="0">
          <Node pos="l" depth="2" NCoef="0" IVar="-1" Cut="0.0000000000000000e+00" cType="1" res="3.9366457611322403e-02" rms="3.5393902659416199e-01" purity="1.9378933310508728e-01" nType="-99"/>
          <Node pos="r" depth="2" NCoef="0" IVar="8" Cut="3.9999049901962280e-01" cType="1" res="9.9057164043188095e-03" rms="3.9067161083221436e-01" purity="4.9963435530662537e-01" nType="0">
            <Node pos="l" depth="3" NCoef="0" IVar="-1" Cut="0.0000000000000000e+00" cType="1" res="3.9070467464625835e-03" rms="3.9047503471374512e-01" purity="5.1566666364669800e-01" nType="-99"/>
            <Node pos="r" depth="3" NCoef="0" IVar="-1" Cut="0.0000000000000000e+00" cType="1" res="1.0909653268754482e-02" rms="3.9091631770133972e-01" purity="4.7260311245918274e-01" nType="-99"/>
          </Node>
        </Node>
        <Node pos="r" depth="1" NCoef="0" IVar="0" Cut="6.0599536132812500e+02" cType="1" res="-1.1951321735978127e-02" rms="3.8557603955268860e-01" purity="6.4858609437942505e-01" nType="0">
          <Node pos="l" depth="2" NCoef="0" IVar="3" Cut="3.9321090698242188e+02" cType="1" res="-3.8355945143848658e-03" rms="3.9386135339736938e-01" purity="5.9617495536804199e-01" nType="0">
            <Node pos="l" depth="3" NCoef="0" IVar="-1" Cut="0.0000000000000000e+00" cType="1" res="-1.1413406580686569e-02" rms="3.8571146130561829e-01" purity="5.8640927076339722e-01" nType="-99"/>
            <Node pos="r" depth="3" NCoef="0" IVar="-1" Cut="0.0000000000000000e+00" cType="1" res="6.3888602890074253e-03" rms="4.0183097124099731e-01" purity="6.0654294490814209e-01" nType="-99"/>
          </Node>
          <Node pos="r" depth="2" NCoef="0" IVar="-1" Cut="0.0000000000000000e+00" cType="1" res="-2.7640163898468018e-02" rms="3.6227980256080627e-01" purity="7.8497129678726196e-01" nType="-99"/>
        </Node>
      </Node>
    </BinaryTree>
    <BinaryTree type="DecisionTree" boostWeight="1.0000000000000000e+00" itree="470">
      <Node pos="s" depth="0" NCoef="0" IVar="6" Cut="1.7352451086044312e+00" cType="1" res="-5.3434318397194147e-04" rms="3.8478195667266846e-01" purity="5.0060772895812988e-01" nType="0">
        <Node pos="l" depth="1" NCoef="0" IVar="7" Cut="1.9999725818634033e+00" cType="1" res="-1.6081342473626137e-03" rms="3.8687804341316223e-01" purity="5.1410120725631714e-01" nType="0">
          <Node pos="l" depth="2" NCoef="0" IVar="9" Cut="-3.9999672770500183e-01" cType="1" res="-2.4646087549626827e-03" rms="3.8865414261817932e-01" purity="5.2495765686035156e-01" nType="0">
            <Node pos="l" depth="3" NCoef="0" IVar="-1" Cut="0.0000000000000000e+00" cType="1" res="2.8354034293442965e-03" rms="3.8860201835632324e-01" purity="5.0680327415466309e-01" nType="-99"/>
            <Node pos="r" depth="3" NCoef="0" IVar="-1" Cut="0.0000000000000000e+00" cType="1" res="-4.4249370694160461e-03" rms="3.8862511515617371e-01" purity="5.3650248050689697e-01" nType="-99"/>
          </Node>
          <Node pos="r" depth="2" NCoef="0" IVar="-1" Cut="0.0000000000000000e+00" cType="1" res="2.0148767158389091e-02" rms="3.3377164602279663e-01" purity="2.1694724261760712e-01" nType="-99"/>
        </Node>
        <Node pos="r" depth="1" NCoef="0" IVar="-1" Cut="0.0000000000000000e+00" cType="1" res="2.4115016683936119e-02" rms="3.3184739947319031e-01" purity="1.8948270380496979e-01" nType="-99"/>
      </Node>
    </BinaryTree>
    <BinaryTree type="DecisionTree" boostWeight="1.0000000000000000e+00" itree="471">
      <Node pos="s" depth="0" NCoef="0" IVar="8" Cut="-6.6667580604553223e-01" cType="1" res="-3.5030471626669168e-03" rms="3.8508480787277222e-01" purity="4.9370706081390381e-01" nType="0">
        <Node pos="l" depth="1" NCoef="0" IVar="5" Cut="1.2331130981445312e+02" cType="1" res="9.3924915418028831e-03" rms="3.8434633612632751e-01" purity="4.4555535912513733e-01" nType="0">
          <Node pos="l" depth="2" NCoef="0" IVar="5" Cut="6.0472774505615234e+01" cType="1" res="1.4245748519897461e-02" rms="3.8835409283638000e-01" purity="3.8636785745620728e-01" nType="0">
            <Node pos="l" depth="3" NCoef="0" IVar="-1" Cut="0.0000000000000000e+00" cType="1" res="-2.2776874247938395e-03" rms="3.4299564361572266e-01" purity="2.2258813679218292e-01" nType="-99"/>
            <Node pos="r" depth="3" NCoef="0" IVar="-1" Cut="0.0000000000000000e+00" cType="1" res="1.2828455306589603e-02" rms="4.0370497107505798e-01" purity="4.4713884592056274e-01" nType="-99"/>
          </Node>
          <Node pos="r" depth="2" NCoef="0" IVar="-1" Cut="0.0000000000000000e+00" cType="1" res="-1.0896267369389534e-02" rms="3.6288866400718689e-01" purity="7.3872870206832886e-01" nType="-99"/>
        </Node>
        <Node pos="r" depth="1" NCoef="0" IVar="8" Cut="6.5393412113189697e-01" cType="1" res="-8.7888473644852638e-03" rms="3.8526239991188049e-01" purity="5.1344412565231323e-01" nType="0">
          <Node pos="l" depth="2" NCoef="0" IVar="9" Cut="-1.7333004474639893e+00" cType="1" res="-1.4529875479638577e-02" rms="3.8671877980232239e-01" purity="5.6300354003906250e-01" nType="0">
            <Node pos="l" depth="3" NCoef="0" IVar="-1" Cut="0.0000000000000000e+00" cType="1" res="-3.0430916696786880e-02" rms="3.7924471497535706e-01" purity="4.1482993960380554e-01" nType="-99"/>
            <Node pos="r" depth="3" NCoef="0" IVar="-1" Cut="0.0000000000000000e+00" cType="1" res="-7.7400328591465950e-03" rms="3.8717049360275269e-01" purity="5.7465463876724243e-01" nType="-99"/>
          </Node>
          <Node pos="r" depth="2" NCoef="0" IVar="7" Cut="-3.9990204572677612e-01" cType="1" res="-3.1586750992573798e-04" rms="3.8294562697410583e-01" purity="4.4030123949050903e-01" nType="0">
            <Node pos="l" depth="3" NCoef="0" IVar="-1" Cut="0.0000000000000000e+00" cType="1" res="-9.4087151810526848e-03" rms="3.7554529309272766e-01" purity="3.7684234976768494e-01" nType="-99"/>
            <Node pos="r" depth="3" NCoef="0" IVar="-1" Cut="0.0000000000000000e+00" cType="1" res="3.7266549188643694e-03" rms="3.8598489761352539e-01" purity="4.6798962354660034e-01" nType="-99"/>
          </Node>
        </Node>
      </Node>
    </BinaryTree>
    <BinaryTree type="DecisionTree" boostWeight="1.0000000000000000e+00" itree="472">
      <Node pos="s" depth="0" NCoef="0" IVar="7" Cut="3.9992555975914001e-01" cType="1" res="1.3987285783514380e-03" rms="3.8640192151069641e-01" purity="4.9971228837966919e-01" nType="0">
        <Node pos="l" depth="1" NCoef="0" IVar="6" Cut="4.2433086037635803e-01" cType="1" res="-3.1203865073621273e-03" rms="3.8690796494483948e-01" purity="5.2102845907211304e-01" nType="0">
          <Node pos="l" depth="2" NCoef="0" IVar="3" Cut="2.4006709289550781e+02" cType="1" res="-8.4160985425114632e-03" rms="3.8866400718688965e-01" purity="5.4415893554687500e-01" nType="0">
            <Node pos="l" depth="3" NCoef="0" IVar="-1" Cut="0.0000000000000000e+00" cType="1" res="-9.4613190740346909e-03" rms="3.9800441265106201e-01" purity="4.4646161794662476e-01" nType="-99"/>
            <Node pos="r" depth="3" NCoef="0" IVar="-1" Cut="0.0000000000000000e+00" cType="1" res="3.2370812259614468e-03" rms="3.7009960412979126e-01" purity="7.2805601358413696e-01" nType="-99"/>
          </Node>
          <Node pos="r" depth="2" NCoef="0" IVar="8" Cut="1.3323591649532318e-01" cType="1" res="8.3544990047812462e-03" rms="3.8282403349876404e-01" purity="4.7090876102447510e-01" nType="0">
            <Node pos="l" depth="3" NCoef="0" IVar="-1" Cut="0.0000000000000000e+00" cType="1" res="1.3945068232715130e-02" rms="3.8724139332771301e-01" purity="4.9651652574539185e-01" nType="-99"/>
            <Node pos="r" depth="3" NCoef="0" IVar="-1" Cut="0.0000000000000000e+00" cType="1" res="-4.0516378358006477e-03" rms="3.7712633609771729e-01" purity="4.4121763110160828e-01" nType="-99"/>
          </Node>
        </Node>
        <Node pos="r" depth="1" NCoef="0" IVar="6" Cut="-1.1578881740570068e+00" cType="1" res="9.5495386049151421e-03" rms="3.8535353541374207e-01" purity="4.6126574277877808e-01" nType="0">
          <Node pos="l" depth="2" NCoef="0" IVar="-1" Cut="0.0000000000000000e+00" cType="1" res="3.8510095328092575e-02" rms="3.7781950831413269e-01" purity="2.7235269546508789e-01" nType="-99"/>
          <Node pos="r" depth="2" NCoef="0" IVar="8" Cut="1.4658063650131226e+00" cType="1" res="4.6924599446356297e-03" rms="3.8603675365447998e-01" purity="4.8541945219039917e-01" nType="0">
            <Node pos="l" depth="3" NCoef="0" IVar="-1" Cut="0.0000000000000000e+00" cType="1" res="9.1843411792069674e-04" rms="3.8776123523712158e-01" purity="5.0933426618576050e-01" nType="-99"/>
            <Node pos="r" depth="3" NCoef="0" IVar="-1" Cut="0.0000000000000000e+00" cType="1" res="1.9541501998901367e-02" rms="3.7369924783706665e-01" purity="3.2718873023986816e-01" nType="-99"/>
          </Node>
        </Node>
      </Node>
    </BinaryTree>
    <BinaryTree type="DecisionTree" boostWeight="1.0000000000000000e+00" itree="473">
      <Node pos="s" depth="0" NCoef="0" IVar="7" Cut="-1.4666894674301147e+00" cType="1" res="9.7833585459738970e-04" rms="3.8650754094123840e-01" purity="4.9722117185592651e-01" nType="0">
        <Node pos="l" depth="1" NCoef="0" IVar="8" Cut="-6.6619557142257690e-01" cType="1" res="-1.6626683995127678e-02" rms="3.3850795030593872e-01" purity="2.3048312962055206e-01" nType="0">
          <Node pos="l" depth="2" NCoef="0" IVar="-1" Cut="0.0000000000000000e+00" cType="1" res="6.0278805904090405e-03" rms="3.3223015069961548e-01" purity="2.1143700182437897e-01" nType="-99"/>
          <Node pos="r" depth="2" NCoef="0" IVar="9" Cut="-1.3251452147960663e-01" cType="1" res="-3.0974669381976128e-02" rms="3.4154075384140015e-01" purity="2.4225048720836639e-01" nType="0">
            <Node pos="l" depth="3" NCoef="0" IVar="-1" Cut="0.0000000000000000e+00" cType="1" res="-2.8662467375397682e-02" rms="3.3289179205894470e-01" purity="2.3043872416019440e-01" nType="-99"/>
            <Node pos="r" depth="3" NCoef="0" IVar="-1" Cut="0.0000000000000000e+00" cType="1" res="-1.8779193982481956e-02" rms="3.4936347603797913e-01" purity="2.5336104631423950e-01" nType="-99"/>
          </Node>
        </Node>
        <Node pos="r" depth="1" NCoef="0" IVar="7" Cut="-1.0603473186492920e+00" cType="1" res="2.6952063199132681e-03" rms="3.9083081483840942e-01" purity="5.2323395013809204e-01" nType="0">
          <Node pos="l" depth="2" NCoef="0" IVar="8" Cut="-1.3338999450206757e-01" cType="1" res="2.3282207548618317e-02" rms="4.0327581763267517e-01" purity="4.6153238415718079e-01" nType="0">
            <Node pos="l" depth="3" NCoef="0" IVar="-1" Cut="0.0000000000000000e+00" cType="1" res="2.4768194998614490e-04" rms="3.9891299605369568e-01" purity="4.1972023248672485e-01" nType="-99"/>
            <Node pos="r" depth="3" NCoef="0" IVar="-1" Cut="0.0000000000000000e+00" cType="1" res="2.8034996241331100e-02" rms="4.0619972348213196e-01" purity="5.0151914358139038e-01" nType="-99"/>
          </Node>
          <Node pos="r" depth="2" NCoef="0" IVar="3" Cut="1.4001974487304688e+02" cType="1" res="7.8472908353433013e-04" rms="3.8960060477256775e-01" purity="5.2895987033843994e-01" nType="0">
            <Node pos="l" depth="3" NCoef="0" IVar="-1" Cut="0.0000000000000000e+00" cType="1" res="-6.1908164061605930e-03" rms="3.6812651157379150e-01" purity="2.2968938946723938e-01" nType="-99"/>
            <Node pos="r" depth="3" NCoef="0" IVar="-1" Cut="0.0000000000000000e+00" cType="1" res="2.0317868329584599e-03" rms="3.9478257298469543e-01" purity="6.0424137115478516e-01" nType="-99"/>
          </Node>
        </Node>
      </Node>
    </BinaryTree>
    <BinaryTree type="DecisionTree" boostWeight="1.0000000000000000e+00" itree="474">
      <Node pos="s" depth="0" NCoef="0" IVar="1" Cut="1.0998989257812500e+03" cType="1" res="-1.1025560088455677e-03" rms="3.8609287142753601e-01" purity="4.9755522608757019e-01" nType="0">
        <Node pos="l" depth="1" NCoef="0" IVar="6" Cut="-9.1670346260070801e-01" cType="1" res="1.1631227098405361e-02" rms="3.8000550866127014e-01" purity="2.4403591454029083e-01" nType="0">
          <Node pos="l" depth="2" NCoef="0" IVar="-1" Cut="0.0000000000000000e+00" cType="1" res="-1.4424136839807034e-02" rms="3.1295046210289001e-01" purity="1.3059018552303314e-01" nType="-99"/>
          <Node pos="r" depth="2" NCoef="0" IVar="6" Cut="8.5294598340988159e-01" cType="1" res="1.8653750419616699e-02" rms="3.9537721872329712e-01" purity="2.7371627092361450e-01" nType="0">
            <Node pos="l" depth="3" NCoef="0" IVar="-1" Cut="0.0000000000000000e+00" cType="1" res="1.6382729634642601e-02" rms="4.2411559820175171e-01" purity="3.2954972982406616e-01" nType="-99"/>
            <Node pos="r" depth="3" NCoef="0" IVar="-1" Cut="0.0000000000000000e+00" cType="1" res="-4.3342998251318932e-03" rms="3.1691101193428040e-01" purity="1.4304496347904205e-01" nType="-99"/>
          </Node>
        </Node>
        <Node pos="r" depth="1" NCoef="0" IVar="7" Cut="-3.9999249577522278e-01" cType="1" res="-7.0404564030468464e-03" rms="3.8875633478164673e-01" purity="6.1577403545379639e-01" nType="0">
          <Node pos="l" depth="2" NCoef="0" IVar="0" Cut="6.0413476562500000e+02" cType="1" res="-1.5828343108296394e-02" rms="3.9148810505867004e-01" purity="5.6319594383239746e-01" nType="0">
            <Node pos="l" depth="3" NCoef="0" IVar="-1" Cut="0.0000000000000000e+00" cType="1" res="-1.3634449802339077e-02" rms="3.9809358119964600e-01" purity="5.0962758064270020e-01" nType="-99"/>
            <Node pos="r" depth="3" NCoef="0" IVar="-1" Cut="0.0000000000000000e+00" cType="1" res="6.9067664444446564e-03" rms="3.6340665817260742e-01" purity="7.7289241552352905e-01" nType="-99"/>
          </Node>
          <Node pos="r" depth="2" NCoef="0" IVar="7" Cut="1.5808507204055786e+00" cType="1" res="-2.6019839569926262e-03" rms="3.8729351758956909e-01" purity="6.4232951402664185e-01" nType="0">
            <Node pos="l" depth="3" NCoef="0" IVar="-1" Cut="0.0000000000000000e+00" cType="1" res="-1.9522658840287477e-04" rms="3.8803878426551819e-01" purity="6.7422932386398315e-01" nType="-99"/>
            <Node pos="r" depth="3" NCoef="0" IVar="-1" Cut="0.0000000000000000e+00" cType="1" res="-1.8099740147590637e-02" rms="3.7848922610282898e-01" purity="3.0589702725410461e-01" nType="-99"/>
          </Node>
        </Node>
      </Node>
    </BinaryTree>
    <BinaryTree type="DecisionTree" boostWeight="1.0000000000000000e+00" itree="475">
      <Node pos="s" depth="0" NCoef="0" IVar="9" Cut="-1.3333226740360260e-01" cType="1" res="-2.9195568640716374e-04" rms="3.8529637455940247e-01" purity="4.9929946660995483e-01" nType="0">
        <Node pos="l" depth="1" NCoef="0" IVar="4" Cut="1.4138114929199219e+02" cType="1" res="-6.5127778798341751e-03" rms="3.8436624407768250e-01" purity="4.8683300614356995e-01" nType="0">
          <Node pos="l" depth="2" NCoef="0" IVar="7" Cut="-1.1999081373214722e+00" cType="1" res="-1.5181999653577805e-02" rms="3.9166164398193359e-01" purity="3.3653965592384338e-01" nType="0">
            <Node pos="l" depth="3" NCoef="0" IVar="-1" Cut="0.0000000000000000e+00" cType="1" res="1.1258022859692574e-02" rms="3.4678328037261963e-01" purity="2.1593093872070312e-01" nType="-99"/>
            <Node pos="r" depth="3" NCoef="0" IVar="-1" Cut="0.0000000000000000e+00" cType="1" res="-1.3249809853732586e-02" rms="4.0106245875358582e-01" purity="3.6450541019439697e-01" nType="-99"/>
          </Node>
          <Node pos="r" depth="2" NCoef="0" IVar="5" Cut="8.1794639587402344e+01" cType="1" res="6.1308913864195347e-03" rms="3.7310984730720520e-01" purity="7.0602905750274658e-01" nType="0">
            <Node pos="l" depth="3" NCoef="0" IVar="-1" Cut="0.0000000000000000e+00" cType="1" res="1.2524265795946121e-02" rms="4.2411220073699951e-01" purity="5.5668431520462036e-01" nType="-99"/>
            <Node pos="r" depth="3" NCoef="0" IVar="-1" Cut="0.0000000000000000e+00" cType="1" res="9.4773614546284080e-04" rms="3.5561496019363403e-01" purity="7.5248444080352783e-01" nType="-99"/>
          </Node>
        </Node>
        <Node pos="r" depth="1" NCoef="0" IVar="0" Cut="4.5207009887695312e+02" cType="1" res="4.9749603495001793e-03" rms="3.8600379228591919e-01" purity="5.0985437631607056e-01" nType="0">
          <Node pos="l" depth="2" NCoef="0" IVar="9" Cut="8.4445238113403320e-01" cType="1" res="-2.8970057610422373e-04" rms="3.9419978857040405e-01" purity="3.6679977178573608e-01" nType="0">
            <Node pos="l" depth="3" NCoef="0" IVar="-1" Cut="0.0000000000000000e+00" cType="1" res="5.3587057627737522e-03" rms="4.0743136405944824e-01" purity="4.1883939504623413e-01" nType="-99"/>
            <Node pos="r" depth="3" NCoef="0" IVar="-1" Cut="0.0000000000000000e+00" cType="1" res="-6.4557329751551151e-03" rms="3.7988576292991638e-01" purity="3.1328392028808594e-01" nType="-99"/>
          </Node>
          <Node pos="r" depth="2" NCoef="0" IVar="3" Cut="1.4500955200195312e+02" cType="1" res="1.2807922437787056e-02" rms="3.7333935499191284e-01" purity="7.2269642353057861e-01" nType="0">
            <Node pos="l" depth="3" NCoef="0" IVar="-1" Cut="0.0000000000000000e+00" cType="1" res="2.2414334118366241e-02" rms="4.4735556840896606e-01" purity="4.4935700297355652e-01" nType="-99"/>
            <Node pos="r" depth="3" NCoef="0" IVar="-1" Cut="0.0000000000000000e+00" cType="1" res="5.8776722289621830e-03" rms="3.5855591297149658e-01" purity="7.7062177658081055e-01" nType="-99"/>
          </Node>
        </Node>
      </Node>
    </BinaryTree>
    <BinaryTree type="DecisionTree" boostWeight="1.0000000000000000e+00" itree="476">
      <Node pos="s" depth="0" NCoef="0" IVar="1" Cut="1.7600855712890625e+03" cType="1" res="9.9631398916244507e-04" rms="3.8487654924392700e-01" purity="5.0126922130584717e-01" nType="0">
        <Node pos="l" depth="1" NCoef="0" IVar="2" Cut="5.7137835693359375e+02" cType="1" res="-8.3128805272281170e-04" rms="3.8960483670234680e-01" purity="4.5720133185386658e-01" nType="0">
          <Node pos="l" depth="2" NCoef="0" IVar="1" Cut="8.9143511962890625e+02" cType="1" res="4.6660515363328159e-04" rms="3.8993549346923828e-01" purity="4.6355894207954407e-01" nType="0">
            <Node pos="l" depth="3" NCoef="0" IVar="-1" Cut="0.0000000000000000e+00" cType="1" res="-2.0753212273120880e-02" rms="2.8838756680488586e-01" purity="1.0177378356456757e-01" nType="-99"/>
            <Node pos="r" depth="3" NCoef="0" IVar="-1" Cut="0.0000000000000000e+00" cType="1" res="1.3719329144805670e-03" rms="3.9708292484283447e-01" purity="4.9330833554267883e-01" nType="-99"/>
          </Node>
          <Node pos="r" depth="2" NCoef="0" IVar="-1" Cut="0.0000000000000000e+00" cType="1" res="-1.8362034112215042e-02" rms="3.8094770908355713e-01" purity="3.1452548503875732e-01" nType="-99"/>
        </Node>
        <Node pos="r" depth="1" NCoef="0" IVar="6" Cut="-6.2251013517379761e-01" cType="1" res="1.3456887565553188e-02" rms="3.5069167613983154e-01" purity="8.0172348022460938e-01" nType="0">
          <Node pos="l" depth="2" NCoef="0" IVar="-1" Cut="0.0000000000000000e+00" cType="1" res="3.2149907201528549e-02" rms="3.7298807501792908e-01" purity="7.6587271690368652e-01" nType="-99"/>
          <Node pos="r" depth="2" NCoef="0" IVar="8" Cut="-4.0008011460304260e-01" cType="1" res="4.0699732489883900e-03" rms="3.4331700205802917e-01" purity="8.1223148107528687e-01" nType="0">
            <Node pos="l" depth="3" NCoef="0" IVar="-1" Cut="0.0000000000000000e+00" cType="1" res="-1.6217665746808052e-02" rms="3.4536099433898926e-01" purity="7.8933298587799072e-01" nType="-99"/>
            <Node pos="r" depth="3" NCoef="0" IVar="-1" Cut="0.0000000000000000e+00" cType="1" res="1.3262931257486343e-02" rms="3.4175303578376770e-01" purity="8.2349866628646851e-01" nType="-99"/>
          </Node>
        </Node>
      </Node>
    </BinaryTree>
    <BinaryTree type="DecisionTree" boostWeight="1.0000000000000000e+00" itree="477">
      <Node pos="s" depth="0" NCoef="0" IVar="9" Cut="-1.7332592010498047e+00" cType="1" res="-3.1649287848267704e-05" rms="3.8410639762878418e-01" purity="4.9671435356140137e-01" nType="0">
        <Node pos="l" depth="1" NCoef="0" IVar="4" Cut="1.2059353637695312e+02" cType="1" res="2.0093888044357300e-02" rms="3.7394115328788757e-01" purity="3.8333109021186829e-01" nType="0">
          <Node pos="l" depth="2" NCoef="0" IVar="-1" Cut="0.0000000000000000e+00" cType="1" res="4.4938283972442150e-03" rms="3.5227769613265991e-01" purity="2.2846493124961853e-01" nType="-99"/>
          <Node pos="r" depth="2" NCoef="0" IVar="-1" Cut="0.0000000000000000e+00" cType="1" res="2.2546339780092239e-02" rms="3.9848390221595764e-01" purity="5.7568341493606567e-01" nType="-99"/>
        </Node>
        <Node pos="r" depth="1" NCoef="0" IVar="3" Cut="4.2993606567382812e+02" cType="1" res="-1.9334523240104318e-03" rms="3.8499870896339417e-01" purity="5.0742876529693604e-01" nType="0">
          <Node pos="l" depth="2" NCoef="0" IVar="6" Cut="-1.4296298027038574e+00" cType="1" res="-8.0420623999089003e-04" rms="3.8511952757835388e-01" purity="5.0330835580825806e-01" nType="0">
            <Node pos="l" depth="3" NCoef="0" IVar="-1" Cut="0.0000000000000000e+00" cType="1" res="-1.9824193790555000e-02" rms="3.3622267842292786e-01" purity="1.9234073162078857e-01" nType="-99"/>
            <Node pos="r" depth="3" NCoef="0" IVar="-1" Cut="0.0000000000000000e+00" cType="1" res="5.8233685558661819e-04" rms="3.8837727904319763e-01" purity="5.2589601278305054e-01" nType="-99"/>
          </Node>
          <Node pos="r" depth="2" NCoef="0" IVar="-1" Cut="0.0000000000000000e+00" cType="1" res="-2.6326319202780724e-02" rms="3.7896075844764709e-01" purity="6.4596807956695557e-01" nType="-99"/>
        </Node>
      </Node>
    </BinaryTree>
    <BinaryTree type="DecisionTree" boostWeight="1.0000000000000000e+00" itree="478">
      <Node pos="s" depth="0" NCoef="0" IVar="8" Cut="-1.2000212669372559e+00" cType="1" res="1.8114004051312804e-03" rms="3.8728338479995728e-01" purity="5.0166726112365723e-01" nType="0">
        <Node pos="l" depth="1" NCoef="0" IVar="9" Cut="9.3314129114151001e-01" cType="1" res="1.3488830998539925e-02" rms="3.8243296742439270e-01" purity="3.7311166524887085e-01" nType="0">
          <Node pos="l" depth="2" NCoef="0" IVar="4" Cut="9.2398635864257812e+01" cType="1" res="2.0193632692098618e-02" rms="3.8251218199729919e-01" purity="3.8982740044593811e-01" nType="0">
            <Node pos="l" depth="3" NCoef="0" IVar="-1" Cut="0.0000000000000000e+00" cType="1" res="-1.9905148074030876e-03" rms="3.3085200190544128e-01" purity="1.7564795911312103e-01" nType="-99"/>
            <Node pos="r" depth="3" NCoef="0" IVar="-1" Cut="0.0000000000000000e+00" cType="1" res="1.8536888062953949e-02" rms="4.0273806452751160e-01" purity="4.8397827148437500e-01" nType="-99"/>
          </Node>
          <Node pos="r" depth="2" NCoef="0" IVar="-1" Cut="0.0000000000000000e+00" cType="1" res="-9.5381410792469978e-03" rms="3.8092073798179626e-01" purity="3.0578577518463135e-01" nType="-99"/>
        </Node>
        <Node pos="r" depth="1" NCoef="0" IVar="6" Cut="4.0495520830154419e-01" cType="1" res="-2.8901494806632400e-04" rms="3.8811212778091431e-01" purity="5.2479046583175659e-01" nType="0">
          <Node pos="l" depth="2" NCoef="0" IVar="1" Cut="1.1148236083984375e+03" cType="1" res="3.5895830951631069e-03" rms="3.9032068848609924e-01" purity="5.6473964452743530e-01" nType="0">
            <Node pos="l" depth="3" NCoef="0" IVar="-1" Cut="0.0000000000000000e+00" cType="1" res="9.5594488084316254e-03" rms="4.0695029497146606e-01" purity="3.0626106262207031e-01" nType="-99"/>
            <Node pos="r" depth="3" NCoef="0" IVar="-1" Cut="0.0000000000000000e+00" cType="1" res="-1.1589877540245652e-03" rms="3.8271939754486084e-01" purity="6.7749309539794922e-01" nType="-99"/>
          </Node>
          <Node pos="r" depth="2" NCoef="0" IVar="6" Cut="6.3305276632308960e-01" cType="1" res="-7.9135205596685410e-03" rms="3.8361918926239014e-01" purity="4.4625893235206604e-01" nType="0">
            <Node pos="l" depth="3" NCoef="0" IVar="-1" Cut="0.0000000000000000e+00" cType="1" res="-1.4265256002545357e-02" rms="3.9290168881416321e-01" purity="5.8439493179321289e-01" nType="-99"/>
            <Node pos="r" depth="3" NCoef="0" IVar="-1" Cut="0.0000000000000000e+00" cType="1" res="-2.3904079571366310e-03" rms="3.8054567575454712e-01" purity="4.0285113453865051e-01" nType="-99"/>
          </Node>
        </Node>
      </Node>
    </BinaryTree>
    <BinaryTree type="DecisionTree" boostWeight="1.0000000000000000e+00" itree="479">
      <Node pos="s" depth="0" NCoef="0" IVar="6" Cut="-6.5982687473297119e-01" cType="1" res="-9.0936035849153996e-04" rms="3.8525816798210144e-01" purity="4.9800536036491394e-01" nType="0">
        <Node pos="l" depth="1" NCoef="0" IVar="6" Cut="-8.6257016658782959e-01" cType="1" res="-9.0156299993395805e-03" rms="3.7668922543525696e-01" purity="3.7778782844543457e-01" nType="0">
          <Node pos="l" depth="2" NCoef="0" IVar="4" Cut="9.3413307189941406e+01" cType="1" res="-2.0232724491506815e-03" rms="3.7119096517562866e-01" purity="3.3874195814132690e-01" nType="0">
            <Node pos="l" depth="3" NCoef="0" IVar="-1" Cut="0.0000000000000000e+00" cType="1" res="-2.0935785025358200e-02" rms="2.8973299264907837e-01" purity="1.1225450038909912e-01" nType="-99"/>
            <Node pos="r" depth="3" NCoef="0" IVar="-1" Cut="0.0000000000000000e+00" cType="1" res="3.5154363140463829e-03" rms="4.0137255191802979e-01" purity="4.3765470385551453e-01" nType="-99"/>
          </Node>
          <Node pos="r" depth="2" NCoef="0" IVar="4" Cut="1.2109262847900391e+02" cType="1" res="-3.1462378799915314e-02" rms="3.9298141002655029e-01" purity="5.0313234329223633e-01" nType="0">
            <Node pos="l" depth="3" NCoef="0" IVar="-1" Cut="0.0000000000000000e+00" cType="1" res="-3.0768081545829773e-02" rms="3.9770862460136414e-01" purity="2.8897297382354736e-01" nType="-99"/>
            <Node pos="r" depth="3" NCoef="0" IVar="-1" Cut="0.0000000000000000e+00" cType="1" res="-9.7718657925724983e-03" rms="3.8823652267456055e-01" purity="6.8246620893478394e-01" nType="-99"/>
          </Node>
        </Node>
        <Node pos="r" depth="1" NCoef="0" IVar="6" Cut="1.4816257953643799e+00" cType="1" res="1.6613043844699860e-03" rms="3.8790065050125122e-01" purity="5.3612887859344482e-01" nType="0">
          <Node pos="l" depth="2" NCoef="0" IVar="9" Cut="4.0000277757644653e-01" cType="1" res="3.4712832421064377e-03" rms="3.9430508017539978e-01" purity="5.7009404897689819e-01" nType="0">
            <Node pos="l" depth="3" NCoef="0" IVar="-1" Cut="0.0000000000000000e+00" cType="1" res="4.8201065510511398e-03" rms="3.9264971017837524e-01" purity="5.8938091993331909e-01" nType="-99"/>
            <Node pos="r" depth="3" NCoef="0" IVar="-1" Cut="0.0000000000000000e+00" cType="1" res="-1.8522468162700534e-03" rms="3.9686417579650879e-01" purity="5.3914117813110352e-01" nType="-99"/>
          </Node>
          <Node pos="r" depth="2" NCoef="0" IVar="8" Cut="3.9973518252372742e-01" cType="1" res="-1.7718747258186340e-02" rms="3.1051063537597656e-01" purity="1.7245166003704071e-01" nType="0">
            <Node pos="l" depth="3" NCoef="0" IVar="-1" Cut="0.0000000000000000e+00" cType="1" res="-2.9065974056720734e-02" rms="3.1486269831657410e-01" purity="1.8130233883857727e-01" nType="-99"/>
            <Node pos="r" depth="3" NCoef="0" IVar="-1" Cut="0.0000000000000000e+00" cType="1" res="1.3066965620964766e-03" rms="3.0441266298294067e-01" purity="1.6246460378170013e-01" nType="-99"/>
          </Node>
        </Node>
      </Node>
    </BinaryTree>
    <BinaryTree type="DecisionTree" boostWeight="1.0000000000000000e+00" itree="480">
      <Node pos="s" depth="0" NCoef="0" IVar="8" Cut="-6.6658341884613037e-01" cType="1" res="9.5509365200996399e-04" rms="3.8649508357048035e-01" purity="4.9905428290367126e-01" nType="0">
        <Node pos="l" depth="1" NCoef="0" IVar="6" Cut="-1.1645249128341675e+00" cType="1" res="-8.1579498946666718e-03" rms="3.8113811612129211e-01" purity="4.3204963207244873e-01" nType="0">
          <Node pos="l" depth="2" NCoef="0" IVar="-1" Cut="0.0000000000000000e+00" cType="1" res="-3.0557459220290184e-02" rms="3.1973305344581604e-01" purity="1.8391063809394836e-01" nType="-99"/>
          <Node pos="r" depth="2" NCoef="0" IVar="7" Cut="-1.3364261388778687e-01" cType="1" res="-3.6456249654293060e-03" rms="3.9037710428237915e-01" purity="4.7396019101142883e-01" nType="0">
            <Node pos="l" depth="3" NCoef="0" IVar="-1" Cut="0.0000000000000000e+00" cType="1" res="3.9845765568315983e-03" rms="3.8896134495735168e-01" purity="4.7529351711273193e-01" nType="-99"/>
            <Node pos="r" depth="3" NCoef="0" IVar="-1" Cut="0.0000000000000000e+00" cType="1" res="-9.1741206124424934e-03" rms="3.9163210988044739e-01" purity="4.7251820564270020e-01" nType="-99"/>
          </Node>
        </Node>
        <Node pos="r" depth="1" NCoef="0" IVar="8" Cut="1.8095391988754272e+00" cType="1" res="4.5163962058722973e-03" rms="3.8851037621498108e-01" purity="5.2523916959762573e-01" nType="0">
          <Node pos="l" depth="2" NCoef="0" IVar="6" Cut="1.2067840099334717e+00" cType="1" res="6.7831664346158504e-03" rms="3.9154484868049622e-01" purity="5.5111646652221680e-01" nType="0">
            <Node pos="l" depth="3" NCoef="0" IVar="-1" Cut="0.0000000000000000e+00" cType="1" res="3.2450873404741287e-03" rms="3.9519837498664856e-01" purity="5.7946860790252686e-01" nType="-99"/>
            <Node pos="r" depth="3" NCoef="0" IVar="-1" Cut="0.0000000000000000e+00" cType="1" res="1.5984432771801949e-02" rms="3.5963401198387146e-01" purity="3.1693714857101440e-01" nType="-99"/>
          </Node>
          <Node pos="r" depth="2" NCoef="0" IVar="5" Cut="6.9808830261230469e+01" cType="1" res="-2.0114138722419739e-02" rms="3.5292693972587585e-01" purity="2.4405871331691742e-01" nType="0">
            <Node pos="l" depth="3" NCoef="0" IVar="-1" Cut="0.0000000000000000e+00" cType="1" res="-8.5848048329353333e-03" rms="3.0354127287864685e-01" purity="1.3466756045818329e-01" nType="-99"/>
            <Node pos="r" depth="3" NCoef="0" IVar="-1" Cut="0.0000000000000000e+00" cType="1" res="-1.9372731447219849e-02" rms="3.9262169599533081e-01" purity="3.4473580121994019e-01" nType="-99"/>
          </Node>
        </Node>
      </Node>
    </BinaryTree>
    <BinaryTree type="DecisionTree" boostWeight="1.0000000000000000e+00" itree="481">
      <Node pos="s" depth="0" NCoef="0" IVar="9" Cut="1.9999910593032837e+00" cType="1" res="3.5493711475282907e-03" rms="3.8511773943901062e-01" purity="5.0343394279479980e-01" nType="0">
        <Node pos="l" depth="1" NCoef="0" IVar="1" Cut="1.1200350341796875e+03" cType="1" res="5.4029542952775955e-03" rms="3.8611373305320740e-01" purity="5.1374757289886475e-01" nType="0">
          <Node pos="l" depth="2" NCoef="0" IVar="7" Cut="6.6599535942077637e-01" cType="1" res="1.4040504582226276e-02" rms="3.9016309380531311e-01" purity="2.5983294844627380e-01" nType="0">
            <Node pos="l" depth="3" NCoef="0" IVar="-1" Cut="0.0000000000000000e+00" cType="1" res="1.3509011827409267e-02" rms="4.0270468592643738e-01" purity="2.8829851746559143e-01" nType="-99"/>
            <Node pos="r" depth="3" NCoef="0" IVar="-1" Cut="0.0000000000000000e+00" cType="1" res="-2.1801844704896212e-03" rms="3.5756424069404602e-01" purity="1.9120043516159058e-01" nType="-99"/>
          </Node>
          <Node pos="r" depth="2" NCoef="0" IVar="9" Cut="-1.4285708665847778e+00" cType="1" res="1.0217630770057440e-03" rms="3.8396921753883362e-01" purity="6.4253973960876465e-01" nType="0">
            <Node pos="l" depth="3" NCoef="0" IVar="-1" Cut="0.0000000000000000e+00" cType="1" res="-1.0023453272879124e-02" rms="3.8353148102760315e-01" purity="5.2486962080001831e-01" nType="-99"/>
            <Node pos="r" depth="3" NCoef="0" IVar="-1" Cut="0.0000000000000000e+00" cType="1" res="2.1861924324184656e-03" rms="3.8397228717803955e-01" purity="6.5823358297348022e-01" nType="-99"/>
          </Node>
        </Node>
        <Node pos="r" depth="1" NCoef="0" IVar="4" Cut="1.1118650817871094e+02" cType="1" res="-2.9895927757024765e-02" rms="3.6506864428520203e-01" purity="3.1733906269073486e-01" nType="0">
          <Node pos="l" depth="2" NCoef="0" IVar="-1" Cut="0.0000000000000000e+00" cType="1" res="-4.0136337280273438e-02" rms="3.1054693460464478e-01" purity="1.5178282558917999e-01" nType="-99"/>
          <Node pos="r" depth="2" NCoef="0" IVar="-1" Cut="0.0000000000000000e+00" cType="1" res="-6.9638672284781933e-03" rms="4.1126871109008789e-01" purity="4.8166432976722717e-01" nType="-99"/>
        </Node>
      </Node>
    </BinaryTree>
    <BinaryTree type="DecisionTree" boostWeight="1.0000000000000000e+00" itree="482">
      <Node pos="s" depth="0" NCoef="0" IVar="6" Cut="-1.6887389421463013e+00" cType="1" res="2.9537156224250793e-03" rms="3.8501936197280884e-01" purity="5.0373941659927368e-01" nType="0">
        <Node pos="l" depth="1" NCoef="0" IVar="-1" Cut="0.0000000000000000e+00" cType="1" res="2.1438516676425934e-02" rms="3.3359560370445251e-01" purity="1.9321447610855103e-01" nType="-99"/>
        <Node pos="r" depth="1" NCoef="0" IVar="6" Cut="1.3035074472427368e+00" cType="1" res="2.0787506364285946e-03" rms="3.8712361454963684e-01" purity="5.1754361391067505e-01" nType="0">
          <Node pos="l" depth="2" NCoef="0" IVar="1" Cut="1.6877022705078125e+03" cType="1" res="3.7282328121364117e-03" rms="3.9226830005645752e-01" purity="5.4902887344360352e-01" nType="0">
            <Node pos="l" depth="3" NCoef="0" IVar="-1" Cut="0.0000000000000000e+00" cType="1" res="3.5957137588411570e-03" rms="4.0256708860397339e-01" purity="4.9714460968971252e-01" nType="-99"/>
            <Node pos="r" depth="3" NCoef="0" IVar="-1" Cut="0.0000000000000000e+00" cType="1" res="-5.8870972134172916e-03" rms="3.3747279644012451e-01" purity="8.0163347721099854e-01" nType="-99"/>
          </Node>
          <Node pos="r" depth="2" NCoef="0" IVar="5" Cut="7.7055770874023438e+01" cType="1" res="-1.3920909725129604e-02" rms="3.3269917964935303e-01" purity="2.1214289963245392e-01" nType="0">
            <Node pos="l" depth="3" NCoef="0" IVar="-1" Cut="0.0000000000000000e+00" cType="1" res="5.0077750347554684e-04" rms="2.9729554057121277e-01" purity="1.2477087974548340e-01" nType="-99"/>
            <Node pos="r" depth="3" NCoef="0" IVar="-1" Cut="0.0000000000000000e+00" cType="1" res="-2.1553814411163330e-02" rms="3.7142360210418701e-01" purity="3.2122451066970825e-01" nType="-99"/>
          </Node>
        </Node>
      </Node>
    </BinaryTree>
    <BinaryTree type="DecisionTree" boostWeight="1.0000000000000000e+00" itree="483">
      <Node pos="s" depth="0" NCoef="0" IVar="5" Cut="8.5090904235839844e+01" cType="1" res="-1.0628248564898968e-03" rms="3.8495951890945435e-01" purity="4.9999970197677612e-01" nType="0">
        <Node pos="l" depth="1" NCoef="0" IVar="1" Cut="1.4400571289062500e+03" cType="1" res="-4.2823851108551025e-03" rms="3.8996294140815735e-01" purity="3.3336216211318970e-01" nType="0">
          <Node pos="l" depth="2" NCoef="0" IVar="1" Cut="1.2571813964843750e+03" cType="1" res="-6.7379525862634182e-03" rms="3.8333427906036377e-01" purity="2.8663566708564758e-01" nType="0">
            <Node pos="l" depth="3" NCoef="0" IVar="-1" Cut="0.0000000000000000e+00" cType="1" res="-7.8020999208092690e-03" rms="3.7648516893386841e-01" purity="2.4535633623600006e-01" nType="-99"/>
            <Node pos="r" depth="3" NCoef="0" IVar="-1" Cut="0.0000000000000000e+00" cType="1" res="8.8010802865028381e-03" rms="4.1354712843894958e-01" purity="4.8238134384155273e-01" nType="-99"/>
          </Node>
          <Node pos="r" depth="2" NCoef="0" IVar="7" Cut="-1.3342663645744324e-01" cType="1" res="8.4387036040425301e-03" rms="4.2241334915161133e-01" purity="5.7542926073074341e-01" nType="0">
            <Node pos="l" depth="3" NCoef="0" IVar="-1" Cut="0.0000000000000000e+00" cType="1" res="1.6898389905691147e-02" rms="4.2039230465888977e-01" purity="5.8397066593170166e-01" nType="-99"/>
            <Node pos="r" depth="3" NCoef="0" IVar="-1" Cut="0.0000000000000000e+00" cType="1" res="-6.0160271823406219e-03" rms="4.2326340079307556e-01" purity="5.6809568405151367e-01" nType="-99"/>
          </Node>
        </Node>
        <Node pos="r" depth="1" NCoef="0" IVar="2" Cut="4.9194665527343750e+02" cType="1" res="2.6555096264928579e-03" rms="3.7906479835510254e-01" purity="6.9245272874832153e-01" nType="0">
          <Node pos="l" depth="2" NCoef="0" IVar="0" Cut="3.6095971679687500e+02" cType="1" res="5.6103612296283245e-03" rms="3.8101515173912048e-01" purity="6.9094830751419067e-01" nType="0">
            <Node pos="l" depth="3" NCoef="0" IVar="-1" Cut="0.0000000000000000e+00" cType="1" res="9.0935621410608292e-03" rms="4.2652460932731628e-01" purity="4.9554675817489624e-01" nType="-99"/>
            <Node pos="r" depth="3" NCoef="0" IVar="-1" Cut="0.0000000000000000e+00" cType="1" res="8.8974169921129942e-04" rms="3.6127686500549316e-01" purity="7.6847827434539795e-01" nType="-99"/>
          </Node>
          <Node pos="r" depth="2" NCoef="0" IVar="3" Cut="3.1868432617187500e+02" cType="1" res="-9.6334759145975113e-03" rms="3.7059065699577332e-01" purity="6.9870942831039429e-01" nType="0">
            <Node pos="l" depth="3" NCoef="0" IVar="-1" Cut="0.0000000000000000e+00" cType="1" res="-1.8553355708718300e-02" rms="3.7554675340652466e-01" purity="6.4712345600128174e-01" nType="-99"/>
            <Node pos="r" depth="3" NCoef="0" IVar="-1" Cut="0.0000000000000000e+00" cType="1" res="7.7847600914537907e-03" rms="3.6346682906150818e-01" purity="7.6099073886871338e-01" nType="-99"/>
          </Node>
        </Node>
      </Node>
    </BinaryTree>
    <BinaryTree type="DecisionTree" boostWeight="1.0000000000000000e+00" itree="484">
      <Node pos="s" depth="0" NCoef="0" IVar="3" Cut="3.3698907470703125e+02" cType="1" res="-9.2661427333950996e-04" rms="3.8279303908348083e-01" purity="5.0225210189819336e-01" nType="0">
        <Node pos="l" depth="1" NCoef="0" IVar="4" Cut="2.4113081359863281e+02" cType="1" res="5.0963595276698470e-04" rms="3.8357844948768616e-01" purity="4.8510637879371643e-01" nType="0">
          <Node pos="l" depth="2" NCoef="0" IVar="9" Cut="-9.3333107233047485e-01" cType="1" res="-6.4522708998993039e-04" rms="3.8610851764678955e-01" purity="4.7013279795646667e-01" nType="0">
            <Node pos="l" depth="3" NCoef="0" IVar="-1" Cut="0.0000000000000000e+00" cType="1" res="4.6796635724604130e-03" rms="3.8326704502105713e-01" purity="4.2614176869392395e-01" nType="-99"/>
            <Node pos="r" depth="3" NCoef="0" IVar="-1" Cut="0.0000000000000000e+00" cType="1" res="-2.0054907072335482e-03" rms="3.8696295022964478e-01" purity="4.8391407728195190e-01" nType="-99"/>
          </Node>
          <Node pos="r" depth="2" NCoef="0" IVar="-1" Cut="0.0000000000000000e+00" cType="1" res="2.4381278082728386e-02" rms="3.1934520602226257e-01" purity="8.2670968770980835e-01" nType="-99"/>
        </Node>
        <Node pos="r" depth="1" NCoef="0" IVar="5" Cut="1.5527279663085938e+02" cType="1" res="-1.4495788142085075e-02" rms="3.7502008676528931e-01" purity="6.6423910856246948e-01" nType="0">
          <Node pos="l" depth="2" NCoef="0" IVar="7" Cut="-1.3223238289356232e-01" cType="1" res="-2.3339955136179924e-02" rms="3.9756220579147339e-01" purity="5.9022688865661621e-01" nType="0">
            <Node pos="l" depth="3" NCoef="0" IVar="-1" Cut="0.0000000000000000e+00" cType="1" res="-7.3103117756545544e-03" rms="3.9074370265007019e-01" purity="5.9490346908569336e-01" nType="-99"/>
            <Node pos="r" depth="3" NCoef="0" IVar="-1" Cut="0.0000000000000000e+00" cType="1" res="-2.1349675953388214e-02" rms="4.0300187468528748e-01" purity="5.8625108003616333e-01" nType="-99"/>
          </Node>
          <Node pos="r" depth="2" NCoef="0" IVar="-1" Cut="0.0000000000000000e+00" cType="1" res="8.8656749576330185e-03" rms="3.0560237169265747e-01" purity="8.6177366971969604e-01" nType="-99"/>
        </Node>
      </Node>
    </BinaryTree>
    <BinaryTree type="DecisionTree" boostWeight="1.0000000000000000e+00" itree="485">
      <Node pos="s" depth="0" NCoef="0" IVar="6" Cut="-1.4247987270355225e+00" cType="1" res="2.6971851475536823e-03" rms="3.8701179623603821e-01" purity="5.0310051441192627e-01" nType="0">
        <Node pos="l" depth="1" NCoef="0" IVar="4" Cut="1.1797725677490234e+02" cType="1" res="2.2328380495309830e-02" rms="3.5879456996917725e-01" purity="2.3947522044181824e-01" nType="0">
          <Node pos="l" depth="2" NCoef="0" IVar="-1" Cut="0.0000000000000000e+00" cType="1" res="4.4067069888114929e-02" rms="3.3392813801765442e-01" purity="1.6207163035869598e-01" nType="-99"/>
          <Node pos="r" depth="2" NCoef="0" IVar="-1" Cut="0.0000000000000000e+00" cType="1" res="-7.0205488009378314e-04" rms="3.8910105824470520e-01" purity="3.4559404850006104e-01" nType="-99"/>
        </Node>
        <Node pos="r" depth="1" NCoef="0" IVar="9" Cut="-1.3333170115947723e-01" cType="1" res="1.1367183178663254e-03" rms="3.8912448287010193e-01" purity="5.2405583858489990e-01" nType="0">
          <Node pos="l" depth="2" NCoef="0" IVar="6" Cut="7.8781521320343018e-01" cType="1" res="-4.8709148541092873e-03" rms="3.8966149091720581e-01" purity="5.2195209264755249e-01" nType="0">
            <Node pos="l" depth="3" NCoef="0" IVar="-1" Cut="0.0000000000000000e+00" cType="1" res="-8.8681938359513879e-04" rms="3.9430063962936401e-01" purity="5.6469511985778809e-01" nType="-99"/>
            <Node pos="r" depth="3" NCoef="0" IVar="-1" Cut="0.0000000000000000e+00" cType="1" res="-1.4888323843479156e-02" rms="3.6732941865921021e-01" purity="3.2688662409782410e-01" nType="-99"/>
          </Node>
          <Node pos="r" depth="2" NCoef="0" IVar="7" Cut="-1.2000304460525513e+00" cType="1" res="6.1815171502530575e-03" rms="3.8860127329826355e-01" purity="5.2582234144210815e-01" nType="0">
            <Node pos="l" depth="3" NCoef="0" IVar="-1" Cut="0.0000000000000000e+00" cType="1" res="2.0178401842713356e-02" rms="3.8779151439666748e-01" purity="3.7885323166847229e-01" nType="-99"/>
            <Node pos="r" depth="3" NCoef="0" IVar="-1" Cut="0.0000000000000000e+00" cType="1" res="2.0174144301563501e-03" rms="3.8860478997230530e-01" purity="5.4566299915313721e-01" nType="-99"/>
          </Node>
        </Node>
      </Node>
    </BinaryTree>
    <BinaryTree type="DecisionTree" boostWeight="1.0000000000000000e+00" itree="486">
      <Node pos="s" depth="0" NCoef="0" IVar="2" Cut="5.0379733276367188e+02" cType="1" res="5.1247142255306244e-04" rms="3.8646337389945984e-01" purity="4.9982425570487976e-01" nType="0">
        <Node pos="l" depth="1" NCoef="0" IVar="3" Cut="9.4903297424316406e+01" cType="1" res="2.2198031656444073e-03" rms="3.8589513301849365e-01" purity="4.9158680438995361e-01" nType="0">
          <Node pos="l" depth="2" NCoef="0" IVar="-1" Cut="0.0000000000000000e+00" cType="1" res="3.2330140471458435e-02" rms="3.3017870783805847e-01" purity="1.4975710213184357e-01" nType="-99"/>
          <Node pos="r" depth="2" NCoef="0" IVar="3" Cut="1.1435519409179688e+02" cType="1" res="4.5728002442047000e-04" rms="3.8906431198120117e-01" purity="5.1307916641235352e-01" nType="0">
            <Node pos="l" depth="3" NCoef="0" IVar="-1" Cut="0.0000000000000000e+00" cType="1" res="-1.5507050789892673e-02" rms="3.3208557963371277e-01" purity="1.7077535390853882e-01" nType="-99"/>
            <Node pos="r" depth="3" NCoef="0" IVar="-1" Cut="0.0000000000000000e+00" cType="1" res="1.2808125466108322e-03" rms="3.9298811554908752e-01" purity="5.3891593217849731e-01" nType="-99"/>
          </Node>
        </Node>
        <Node pos="r" depth="1" NCoef="0" IVar="7" Cut="6.6640591621398926e-01" cType="1" res="-8.4394989535212517e-03" rms="3.8930675387382507e-01" purity="5.4301542043685913e-01" nType="0">
          <Node pos="l" depth="2" NCoef="0" IVar="7" Cut="-1.5891540050506592e-01" cType="1" res="-1.3610430760309100e-03" rms="3.9191335439682007e-01" purity="5.8588504791259766e-01" nType="0">
            <Node pos="l" depth="3" NCoef="0" IVar="-1" Cut="0.0000000000000000e+00" cType="1" res="-8.4394430741667747e-03" rms="3.8686263561248779e-01" purity="5.2939015626907349e-01" nType="-99"/>
            <Node pos="r" depth="3" NCoef="0" IVar="-1" Cut="0.0000000000000000e+00" cType="1" res="8.7917121127247810e-03" rms="3.9796888828277588e-01" purity="6.6037875413894653e-01" nType="-99"/>
          </Node>
          <Node pos="r" depth="2" NCoef="0" IVar="-1" Cut="0.0000000000000000e+00" cType="1" res="-2.1646985784173012e-02" rms="3.7926945090293884e-01" purity="3.9652851223945618e-01" nType="-99"/>
        </Node>
      </Node>
    </BinaryTree>
    <BinaryTree type="DecisionTree" boostWeight="1.0000000000000000e+00" itree="487">
      <Node pos="s" depth="0" NCoef="0" IVar="2" Cut="6.5569555664062500e+02" cType="1" res="-3.0091381631791592e-03" rms="3.8401588797569275e-01" purity="4.9877408146858215e-01" nType="0">
        <Node pos="l" depth="1" NCoef="0" IVar="5" Cut="9.1468994140625000e+01" cType="1" res="-1.9021725747734308e-03" rms="3.8349220156669617e-01" purity="4.9570986628532410e-01" nType="0">
          <Node pos="l" depth="2" NCoef="0" IVar="5" Cut="8.7519393920898438e+01" cType="1" res="-5.5448673665523529e-03" rms="3.8928169012069702e-01" purity="3.4696647524833679e-01" nType="0">
            <Node pos="l" depth="3" NCoef="0" IVar="-1" Cut="0.0000000000000000e+00" cType="1" res="-2.3541320115327835e-03" rms="3.8847365975379944e-01" purity="3.3716583251953125e-01" nType="-99"/>
            <Node pos="r" depth="3" NCoef="0" IVar="-1" Cut="0.0000000000000000e+00" cType="1" res="-2.1908558905124664e-02" rms="4.0096402168273926e-01" purity="5.0756126642227173e-01" nType="-99"/>
          </Node>
          <Node pos="r" depth="2" NCoef="0" IVar="5" Cut="1.6650813293457031e+02" cType="1" res="3.5096297506242990e-03" rms="3.7466049194335938e-01" purity="7.1669185161590576e-01" nType="0">
            <Node pos="l" depth="3" NCoef="0" IVar="-1" Cut="0.0000000000000000e+00" cType="1" res="4.7747343778610229e-03" rms="3.8470616936683655e-01" purity="6.9237709045410156e-01" nType="-99"/>
            <Node pos="r" depth="3" NCoef="0" IVar="-1" Cut="0.0000000000000000e+00" cType="1" res="-1.7181167379021645e-02" rms="3.1439363956451416e-01" purity="8.4767711162567139e-01" nType="-99"/>
          </Node>
        </Node>
        <Node pos="r" depth="1" NCoef="0" IVar="-1" Cut="0.0000000000000000e+00" cType="1" res="-1.3981455937027931e-02" rms="3.9301294088363647e-01" purity="5.5543988943099976e-01" nType="-99"/>
      </Node>
    </BinaryTree>
    <BinaryTree type="DecisionTree" boostWeight="1.0000000000000000e+00" itree="488">
      <Node pos="s" depth="0" NCoef="0" IVar="6" Cut="-6.5959882736206055e-01" cType="1" res="2.6762315537780523e-03" rms="3.8574978709220886e-01" purity="5.0113302469253540e-01" nType="0">
        <Node pos="l" depth="1" NCoef="0" IVar="6" Cut="-1.1664180755615234e+00" cType="1" res="1.0207440704107285e-02" rms="3.8217529654502869e-01" purity="3.9624387025833130e-01" nType="0">
          <Node pos="l" depth="2" NCoef="0" IVar="2" Cut="3.6719528198242188e+02" cType="1" res="6.5846659708768129e-04" rms="3.5779231786727905e-01" purity="2.6556050777435303e-01" nType="0">
            <Node pos="l" depth="3" NCoef="0" IVar="-1" Cut="0.0000000000000000e+00" cType="1" res="8.2239285111427307e-03" rms="3.6684519052505493e-01" purity="2.7622848749160767e-01" nType="-99"/>
            <Node pos="r" depth="3" NCoef="0" IVar="-1" Cut="0.0000000000000000e+00" cType="1" res="-1.5709357336163521e-02" rms="3.3818346261978149e-01" purity="2.4439926445484161e-01" nType="-99"/>
          </Node>
          <Node pos="r" depth="2" NCoef="0" IVar="5" Cut="7.1787414550781250e+01" cType="1" res="1.8541671335697174e-02" rms="4.0206500887870789e-01" purity="5.1030272245407104e-01" nType="0">
            <Node pos="l" depth="3" NCoef="0" IVar="-1" Cut="0.0000000000000000e+00" cType="1" res="2.3818349465727806e-02" rms="4.0122976899147034e-01" purity="3.2762715220451355e-01" nType="-99"/>
            <Node pos="r" depth="3" NCoef="0" IVar="-1" Cut="0.0000000000000000e+00" cType="1" res="4.2460132390260696e-03" rms="4.0219259262084961e-01" purity="6.3026791810989380e-01" nType="-99"/>
          </Node>
        </Node>
        <Node pos="r" depth="1" NCoef="0" IVar="3" Cut="2.4130744934082031e+02" cType="1" res="2.6273855473846197e-04" rms="3.8685730099678040e-01" purity="5.3474640846252441e-01" nType="0">
          <Node pos="l" depth="2" NCoef="0" IVar="8" Cut="1.4666540622711182e+00" cType="1" res="-3.6432391498237848e-03" rms="3.9579683542251587e-01" purity="4.4662693142890930e-01" nType="0">
            <Node pos="l" depth="3" NCoef="0" IVar="-1" Cut="0.0000000000000000e+00" cType="1" res="-6.4435758395120502e-04" rms="3.9952510595321655e-01" purity="4.7153991460800171e-01" nType="-99"/>
            <Node pos="r" depth="3" NCoef="0" IVar="-1" Cut="0.0000000000000000e+00" cType="1" res="-1.7091587185859680e-02" rms="3.6575025320053101e-01" purity="2.5809836387634277e-01" nType="-99"/>
          </Node>
          <Node pos="r" depth="2" NCoef="0" IVar="8" Cut="1.1998411417007446e+00" cType="1" res="7.9629952087998390e-03" rms="3.6847811937332153e-01" purity="7.0846521854400635e-01" nType="0">
            <Node pos="l" depth="3" NCoef="0" IVar="-1" Cut="0.0000000000000000e+00" cType="1" res="3.3879666589200497e-03" rms="3.6248770356178284e-01" purity="7.2857594490051270e-01" nType="-99"/>
            <Node pos="r" depth="3" NCoef="0" IVar="-1" Cut="0.0000000000000000e+00" cType="1" res="1.9918337464332581e-02" rms="4.0729314088821411e-01" purity="5.6712841987609863e-01" nType="-99"/>
          </Node>
        </Node>
      </Node>
    </BinaryTree>
    <BinaryTree type="DecisionTree" boostWeight="1.0000000000000000e+00" itree="489">
      <Node pos="s" depth="0" NCoef="0" IVar="8" Cut="-1.4666715860366821e+00" cType="1" res="-1.6305673634633422e-03" rms="3.8482052087783813e-01" purity="5.0036555528640747e-01" nType="0">
        <Node pos="l" depth="1" NCoef="0" IVar="3" Cut="2.0689929199218750e+02" cType="1" res="-2.0081330090761185e-02" rms="3.5353311896324158e-01" purity="2.9658055305480957e-01" nType="0">
          <Node pos="l" depth="2" NCoef="0" IVar="6" Cut="-1.0897856950759888e-01" cType="1" res="-8.7641235440969467e-03" rms="3.3663910627365112e-01" purity="2.2173017263412476e-01" nType="0">
            <Node pos="l" depth="3" NCoef="0" IVar="-1" Cut="0.0000000000000000e+00" cType="1" res="6.3765430822968483e-03" rms="3.4256398677825928e-01" purity="2.4154557287693024e-01" nType="-99"/>
            <Node pos="r" depth="3" NCoef="0" IVar="-1" Cut="0.0000000000000000e+00" cType="1" res="-2.2478753700852394e-02" rms="3.2876980304718018e-01" purity="1.9924210011959076e-01" nType="-99"/>
          </Node>
          <Node pos="r" depth="2" NCoef="0" IVar="-1" Cut="0.0000000000000000e+00" cType="1" res="-2.6112724095582962e-02" rms="3.8136580586433411e-01" purity="4.3206945061683655e-01" nType="-99"/>
        </Node>
        <Node pos="r" depth="1" NCoef="0" IVar="2" Cut="3.4596881103515625e+02" cType="1" res="4.5747958938591182e-04" rms="3.8814723491668701e-01" purity="5.2342760562896729e-01" nType="0">
          <Node pos="l" depth="2" NCoef="0" IVar="8" Cut="1.7840648889541626e+00" cType="1" res="-5.9298146516084671e-03" rms="3.9597976207733154e-01" purity="4.8190003633499146e-01" nType="0">
            <Node pos="l" depth="3" NCoef="0" IVar="-1" Cut="0.0000000000000000e+00" cType="1" res="-5.1389485597610474e-03" rms="3.9766499400138855e-01" purity="5.0045359134674072e-01" nType="-99"/>
            <Node pos="r" depth="3" NCoef="0" IVar="-1" Cut="0.0000000000000000e+00" cType="1" res="1.5089448541402817e-02" rms="3.7531605362892151e-01" purity="2.7089601755142212e-01" nType="-99"/>
          </Node>
          <Node pos="r" depth="2" NCoef="0" IVar="9" Cut="1.1999821662902832e+00" cType="1" res="6.8709310144186020e-03" rms="3.8001230359077454e-01" purity="5.6512522697448730e-01" nType="0">
            <Node pos="l" depth="3" NCoef="0" IVar="-1" Cut="0.0000000000000000e+00" cType="1" res="7.8478762879967690e-03" rms="3.8122802972793579e-01" purity="5.8936315774917603e-01" nType="-99"/>
            <Node pos="r" depth="3" NCoef="0" IVar="-1" Cut="0.0000000000000000e+00" cType="1" res="-1.2214585207402706e-02" rms="3.7237626314163208e-01" purity="4.3331453204154968e-01" nType="-99"/>
          </Node>
        </Node>
      </Node>
    </BinaryTree>
    <BinaryTree type="DecisionTree" boostWeight="1.0000000000000000e+00" itree="490">
      <Node pos="s" depth="0" NCoef="0" IVar="8" Cut="-9.3336051702499390e-01" cType="1" res="9.7851996542885900e-05" rms="3.8585716485977173e-01" purity="5.0158017873764038e-01" nType="0">
        <Node pos="l" depth="1" NCoef="0" IVar="1" Cut="1.7350104980468750e+03" cType="1" res="1.1397267691791058e-02" rms="3.8262256979942322e-01" purity="4.1895332932472229e-01" nType="0">
          <Node pos="l" depth="2" NCoef="0" IVar="2" Cut="3.0489556884765625e+02" cType="1" res="7.7702207490801811e-03" rms="3.8254493474960327e-01" purity="3.7383711338043213e-01" nType="0">
            <Node pos="l" depth="3" NCoef="0" IVar="-1" Cut="0.0000000000000000e+00" cType="1" res="1.5651745721697807e-02" rms="3.8977825641632080e-01" purity="3.8103058934211731e-01" nType="-99"/>
            <Node pos="r" depth="3" NCoef="0" IVar="-1" Cut="0.0000000000000000e+00" cType="1" res="-3.0949106439948082e-03" rms="3.7632238864898682e-01" purity="3.6819061636924744e-01" nType="-99"/>
          </Node>
          <Node pos="r" depth="2" NCoef="0" IVar="-1" Cut="0.0000000000000000e+00" cType="1" res="2.6853943243622780e-02" rms="3.8211441040039062e-01" purity="7.5595146417617798e-01" nType="-99"/>
        </Node>
        <Node pos="r" depth="1" NCoef="0" IVar="6" Cut="-1.7129777669906616e+00" cType="1" res="-3.0508998315781355e-03" rms="3.8669490814208984e-01" purity="5.2460539340972900e-01" nType="0">
          <Node pos="l" depth="2" NCoef="0" IVar="-1" Cut="0.0000000000000000e+00" cType="1" res="-3.5072527825832367e-02" rms="3.1714776158332825e-01" purity="1.5179847180843353e-01" nType="-99"/>
          <Node pos="r" depth="2" NCoef="0" IVar="7" Cut="6.6656476259231567e-01" cType="1" res="-1.7843220848590136e-03" rms="3.8878747820854187e-01" purity="5.3733444213867188e-01" nType="0">
            <Node pos="l" depth="3" NCoef="0" IVar="-1" Cut="0.0000000000000000e+00" cType="1" res="-2.9986742883920670e-03" rms="3.9122828841209412e-01" purity="5.7326602935791016e-01" nType="-99"/>
            <Node pos="r" depth="3" NCoef="0" IVar="-1" Cut="0.0000000000000000e+00" cType="1" res="3.6910579074174166e-03" rms="3.8225203752517700e-01" purity="4.4362011551856995e-01" nType="-99"/>
          </Node>
        </Node>
      </Node>
    </BinaryTree>
    <BinaryTree type="DecisionTree" boostWeight="1.0000000000000000e+00" itree="491">
      <Node pos="s" depth="0" NCoef="0" IVar="8" Cut="3.9998909831047058e-01" cType="1" res="-1.1433337349444628e-03" rms="3.8420093059539795e-01" purity="4.9751302599906921e-01" nType="0">
        <Node pos="l" depth="1" NCoef="0" IVar="3" Cut="1.4490078735351562e+02" cType="1" res="2.5211821775883436e-03" rms="3.8532474637031555e-01" purity="5.1811873912811279e-01" nType="0">
          <Node pos="l" depth="2" NCoef="0" IVar="5" Cut="8.0413696289062500e+01" cType="1" res="-7.7256327494978905e-03" rms="3.6484819650650024e-01" purity="2.4020287394523621e-01" nType="0">
            <Node pos="l" depth="3" NCoef="0" IVar="-1" Cut="0.0000000000000000e+00" cType="1" res="-1.5668570995330811e-02" rms="3.3949816226959229e-01" purity="1.7240478098392487e-01" nType="-99"/>
            <Node pos="r" depth="3" NCoef="0" IVar="-1" Cut="0.0000000000000000e+00" cType="1" res="1.7366653308272362e-02" rms="4.3541726469993591e-01" purity="4.6257972717285156e-01" nType="-99"/>
          </Node>
          <Node pos="r" depth="2" NCoef="0" IVar="0" Cut="7.5898345947265625e+02" cType="1" res="5.6157913058996201e-03" rms="3.9124542474746704e-01" purity="6.0205119848251343e-01" nType="0">
            <Node pos="l" depth="3" NCoef="0" IVar="-1" Cut="0.0000000000000000e+00" cType="1" res="4.7484524548053741e-03" rms="3.9383956789970398e-01" purity="5.8992469310760498e-01" nType="-99"/>
            <Node pos="r" depth="3" NCoef="0" IVar="-1" Cut="0.0000000000000000e+00" cType="1" res="-2.6170916855335236e-02" rms="3.3954310417175293e-01" purity="8.2033479213714600e-01" nType="-99"/>
          </Node>
        </Node>
        <Node pos="r" depth="1" NCoef="0" IVar="9" Cut="6.6666859388351440e-01" cType="1" res="-7.5614741072058678e-03" rms="3.8214001059532166e-01" purity="4.6142357587814331e-01" nType="0">
          <Node pos="l" depth="2" NCoef="0" IVar="0" Cut="4.1421047973632812e+02" cType="1" res="-1.7713861307129264e-03" rms="3.8847389817237854e-01" purity="5.0567257404327393e-01" nType="0">
            <Node pos="l" depth="3" NCoef="0" IVar="-1" Cut="0.0000000000000000e+00" cType="1" res="6.7369695752859116e-03" rms="3.9353924989700317e-01" purity="3.6035412549972534e-01" nType="-99"/>
            <Node pos="r" depth="3" NCoef="0" IVar="-1" Cut="0.0000000000000000e+00" cType="1" res="-9.8681151866912842e-03" rms="3.8278630375862122e-01" purity="6.5502458810806274e-01" nType="-99"/>
          </Node>
          <Node pos="r" depth="2" NCoef="0" IVar="0" Cut="5.1365350341796875e+02" cType="1" res="-1.9276054576039314e-02" rms="3.6871480941772461e-01" purity="3.7189856171607971e-01" nType="0">
            <Node pos="l" depth="3" NCoef="0" IVar="-1" Cut="0.0000000000000000e+00" cType="1" res="-1.8704241141676903e-02" rms="3.6378890275955200e-01" purity="2.8679350018501282e-01" nType="-99"/>
            <Node pos="r" depth="3" NCoef="0" IVar="-1" Cut="0.0000000000000000e+00" cType="1" res="3.2542715780436993e-03" rms="3.8457658886909485e-01" purity="6.7140209674835205e-01" nType="-99"/>
          </Node>
        </Node>
      </Node>
    </BinaryTree>
    <BinaryTree type="DecisionTree" boostWeight="1.0000000000000000e+00" itree="492">
      <Node pos="s" depth="0" NCoef="0" IVar="6" Cut="-1.2751729786396027e-01" cType="1" res="2.2484557703137398e-03" rms="3.8528311252593994e-01" purity="5.0201660394668579e-01" nType="0">
        <Node pos="l" depth="1" NCoef="0" IVar="5" Cut="1.1358437347412109e+02" cType="1" res="-4.1283434256911278e-03" rms="3.8342729210853577e-01" purity="4.8190906643867493e-01" nType="0">
          <Node pos="l" depth="2" NCoef="0" IVar="6" Cut="-1.0145481824874878e+00" cType="1" res="-9.9040111526846886e-03" rms="3.9324066042900085e-01" purity="3.8013392686843872e-01" nType="0">
            <Node pos="l" depth="3" NCoef="0" IVar="-1" Cut="0.0000000000000000e+00" cType="1" res="-1.5098632313311100e-02" rms="3.3780559897422791e-01" purity="2.1160115301609039e-01" nType="-99"/>
            <Node pos="r" depth="3" NCoef="0" IVar="-1" Cut="0.0000000000000000e+00" cType="1" res="-2.8561663348227739e-03" rms="4.1986912488937378e-01" purity="4.7047105431556702e-01" nType="-99"/>
          </Node>
          <Node pos="r" depth="2" NCoef="0" IVar="6" Cut="-7.4121469259262085e-01" cType="1" res="1.2887110002338886e-02" rms="3.5238423943519592e-01" purity="7.8174459934234619e-01" nType="0">
            <Node pos="l" depth="3" NCoef="0" IVar="-1" Cut="0.0000000000000000e+00" cType="1" res="1.6050145030021667e-02" rms="3.9069524407386780e-01" purity="6.8521696329116821e-01" nType="-99"/>
            <Node pos="r" depth="3" NCoef="0" IVar="-1" Cut="0.0000000000000000e+00" cType="1" res="3.7559594493359327e-03" rms="3.2259491086006165e-01" purity="8.4927719831466675e-01" nType="-99"/>
          </Node>
        </Node>
        <Node pos="r" depth="1" NCoef="0" IVar="3" Cut="1.4142408752441406e+02" cType="1" res="7.3281931690871716e-03" rms="3.8667982816696167e-01" purity="5.1803421974182129e-01" nType="0">
          <Node pos="l" depth="2" NCoef="0" IVar="9" Cut="4.0002498030662537e-01" cType="1" res="2.3670377209782600e-02" rms="3.8573527336120605e-01" purity="2.5891369581222534e-01" nType="0">
            <Node pos="l" depth="3" NCoef="0" IVar="-1" Cut="0.0000000000000000e+00" cType="1" res="8.5547482594847679e-03" rms="3.8361805677413940e-01" purity="2.6158276200294495e-01" nType="-99"/>
            <Node pos="r" depth="3" NCoef="0" IVar="-1" Cut="0.0000000000000000e+00" cType="1" res="2.8876973316073418e-02" rms="3.8793501257896423e-01" purity="2.5550255179405212e-01" nType="-99"/>
          </Node>
          <Node pos="r" depth="2" NCoef="0" IVar="6" Cut="2.9065561294555664e-01" cType="1" res="2.6854216121137142e-03" rms="3.8682183623313904e-01" purity="5.9164971113204956e-01" nType="0">
            <Node pos="l" depth="3" NCoef="0" IVar="-1" Cut="0.0000000000000000e+00" cType="1" res="1.0371660813689232e-02" rms="3.8724139332771301e-01" purity="7.1613305807113647e-01" nType="-99"/>
            <Node pos="r" depth="3" NCoef="0" IVar="-1" Cut="0.0000000000000000e+00" cType="1" res="-2.5998842902481556e-03" rms="3.8643693923950195e-01" purity="5.2757292985916138e-01" nType="-99"/>
          </Node>
        </Node>
      </Node>
    </BinaryTree>
    <BinaryTree type="DecisionTree" boostWeight="1.0000000000000000e+00" itree="493">
      <Node pos="s" depth="0" NCoef="0" IVar="8" Cut="-1.4665640592575073e+00" cType="1" res="-1.2822431745007634e-03" rms="3.8677039742469788e-01" purity="4.9796310067176819e-01" nType="0">
        <Node pos="l" depth="1" NCoef="0" IVar="2" Cut="3.1433053588867188e+02" cType="1" res="1.3928301632404327e-02" rms="3.7876695394515991e-01" purity="3.3541944622993469e-01" nType="0">
          <Node pos="l" depth="2" NCoef="0" IVar="-1" Cut="0.0000000000000000e+00" cType="1" res="-5.4901475086808205e-03" rms="3.6715239286422729e-01" purity="2.6627618074417114e-01" nType="-99"/>
          <Node pos="r" depth="2" NCoef="0" IVar="6" Cut="-1.0383549332618713e-01" cType="1" res="2.9217382892966270e-02" rms="3.8619837164878845e-01" purity="3.8524395227432251e-01" nType="0">
            <Node pos="l" depth="3" NCoef="0" IVar="-1" Cut="0.0000000000000000e+00" cType="1" res="3.1266681849956512e-02" rms="3.8307920098304749e-01" purity="4.0098580718040466e-01" nType="-99"/>
            <Node pos="r" depth="3" NCoef="0" IVar="-1" Cut="0.0000000000000000e+00" cType="1" res="8.9951613917946815e-03" rms="3.8882344961166382e-01" purity="3.6831471323966980e-01" nType="-99"/>
          </Node>
        </Node>
        <Node pos="r" depth="1" NCoef="0" IVar="9" Cut="1.9999915361404419e+00" cType="1" res="-3.1284866854548454e-03" rms="3.8769000768661499e-01" purity="5.1769250631332397e-01" nType="0">
          <Node pos="l" depth="2" NCoef="0" IVar="8" Cut="-8.5704445838928223e-01" cType="1" res="-4.6661454252898693e-03" rms="3.8748228549957275e-01" purity="5.2505928277969360e-01" nType="0">
            <Node pos="l" depth="3" NCoef="0" IVar="-1" Cut="0.0000000000000000e+00" cType="1" res="-1.4104129746556282e-02" rms="3.8789287209510803e-01" purity="4.7237861156463623e-01" nType="-99"/>
            <Node pos="r" depth="3" NCoef="0" IVar="-1" Cut="0.0000000000000000e+00" cType="1" res="-1.2796546798199415e-03" rms="3.8734623789787292e-01" purity="5.3358811140060425e-01" nType="-99"/>
          </Node>
          <Node pos="r" depth="2" NCoef="0" IVar="-1" Cut="0.0000000000000000e+00" cType="1" res="1.5300482511520386e-02" rms="3.9024272561073303e-01" purity="3.9504528045654297e-01" nType="-99"/>
        </Node>
      </Node>
    </BinaryTree>
    <BinaryTree type="DecisionTree" boostWeight="1.0000000000000000e+00" itree="494">
      <Node pos="s" depth="0" NCoef="0" IVar="6" Cut="-1.1917487382888794e+00" cType="1" res="6.5447636879980564e-03" rms="3.8675755262374878e-01" purity="5.0667780637741089e-01" nType="0">
        <Node pos="l" depth="1" NCoef="0" IVar="9" Cut="-1.2000668048858643e+00" cType="1" res="2.1723464131355286e-02" rms="3.7467497587203979e-01" purity="2.7510064840316772e-01" nType="0">
          <Node pos="l" depth="2" NCoef="0" IVar="-1" Cut="0.0000000000000000e+00" cType="1" res="-6.5594152547419071e-03" rms="3.2086348533630371e-01" purity="1.6881927847862244e-01" nType="-99"/>
          <Node pos="r" depth="2" NCoef="0" IVar="9" Cut="1.3282823562622070e-01" cType="1" res="3.0328452587127686e-02" rms="3.8896563649177551e-01" purity="3.0700013041496277e-01" nType="0">
            <Node pos="l" depth="3" NCoef="0" IVar="-1" Cut="0.0000000000000000e+00" cType="1" res="3.6416731774806976e-02" rms="4.1060468554496765e-01" purity="3.4240436553955078e-01" nType="-99"/>
            <Node pos="r" depth="3" NCoef="0" IVar="-1" Cut="0.0000000000000000e+00" cType="1" res="7.5958780944347382e-03" rms="3.6532047390937805e-01" purity="2.7223157882690430e-01" nType="-99"/>
          </Node>
        </Node>
        <Node pos="r" depth="1" NCoef="0" IVar="8" Cut="1.3325789570808411e-01" cType="1" res="4.6834554523229599e-03" rms="3.8817244768142700e-01" purity="5.3507524728775024e-01" nType="0">
          <Node pos="l" depth="2" NCoef="0" IVar="1" Cut="1.1200404052734375e+03" cType="1" res="6.6750292899087071e-04" rms="3.8692659139633179e-01" purity="5.4642713069915771e-01" nType="0">
            <Node pos="l" depth="3" NCoef="0" IVar="-1" Cut="0.0000000000000000e+00" cType="1" res="-5.3697489202022552e-03" rms="3.9022055268287659e-01" purity="2.7118146419525146e-01" nType="-99"/>
            <Node pos="r" depth="3" NCoef="0" IVar="-1" Cut="0.0000000000000000e+00" cType="1" res="3.3342926762998104e-03" rms="3.8530182838439941e-01" purity="6.7508858442306519e-01" nType="-99"/>
          </Node>
          <Node pos="r" depth="2" NCoef="0" IVar="7" Cut="-1.4666385650634766e+00" cType="1" res="9.3053337186574936e-03" rms="3.8955014944076538e-01" purity="5.2201062440872192e-01" nType="0">
            <Node pos="l" depth="3" NCoef="0" IVar="-1" Cut="0.0000000000000000e+00" cType="1" res="2.9718458652496338e-02" rms="3.6209726333618164e-01" purity="3.1949493288993835e-01" nType="-99"/>
            <Node pos="r" depth="3" NCoef="0" IVar="-1" Cut="0.0000000000000000e+00" cType="1" res="4.4516324996948242e-03" rms="3.9162325859069824e-01" purity="5.3870075941085815e-01" nType="-99"/>
          </Node>
        </Node>
      </Node>
    </BinaryTree>
    <BinaryTree type="DecisionTree" boostWeight="1.0000000000000000e+00" itree="495">
      <Node pos="s" depth="0" NCoef="0" IVar="9" Cut="2.2666635513305664e+00" cType="1" res="-4.4085786794312298e-04" rms="3.8696685433387756e-01" purity="4.9920159578323364e-01" nType="0">
        <Node pos="l" depth="1" NCoef="0" IVar="6" Cut="-6.5942943096160889e-01" cType="1" res="4.0909924427978694e-04" rms="3.8805702328681946e-01" purity="5.0511080026626587e-01" nType="0">
          <Node pos="l" depth="2" NCoef="0" IVar="6" Cut="-1.5717625617980957e+00" cType="1" res="8.8249361142516136e-03" rms="3.8711234927177429e-01" purity="4.0103697776794434e-01" nType="0">
            <Node pos="l" depth="3" NCoef="0" IVar="-1" Cut="0.0000000000000000e+00" cType="1" res="-1.0713598690927029e-02" rms="3.2633951306343079e-01" purity="1.7423298954963684e-01" nType="-99"/>
            <Node pos="r" depth="3" NCoef="0" IVar="-1" Cut="0.0000000000000000e+00" cType="1" res="9.1912709176540375e-03" rms="4.0130046010017395e-01" purity="4.6029657125473022e-01" nType="-99"/>
          </Node>
          <Node pos="r" depth="2" NCoef="0" IVar="2" Cut="6.1997619628906250e+02" cType="1" res="-2.3643660824745893e-03" rms="3.8832786679267883e-01" purity="5.3940862417221069e-01" nType="0">
            <Node pos="l" depth="3" NCoef="0" IVar="-1" Cut="0.0000000000000000e+00" cType="1" res="-2.9207235202193260e-03" rms="3.8699698448181152e-01" purity="5.3365361690521240e-01" nType="-99"/>
            <Node pos="r" depth="3" NCoef="0" IVar="-1" Cut="0.0000000000000000e+00" cType="1" res="1.3603629544377327e-02" rms="4.0376374125480652e-01" purity="6.1142230033874512e-01" nType="-99"/>
          </Node>
        </Node>
        <Node pos="r" depth="1" NCoef="0" IVar="-1" Cut="0.0000000000000000e+00" cType="1" res="-2.1636882796883583e-02" rms="3.4720024466514587e-01" purity="3.0087465047836304e-01" nType="-99"/>
      </Node>
    </BinaryTree>
    <BinaryTree type="DecisionTree" boostWeight="1.0000000000000000e+00" itree="496">
      <Node pos="s" depth="0" NCoef="0" IVar="7" Cut="1.9999189376831055e+00" cType="1" res="7.2094163624569774e-04" rms="3.8386482000350952e-01" purity="5.0273585319519043e-01" nType="0">
        <Node pos="l" depth="1" NCoef="0" IVar="0" Cut="5.7808782958984375e+02" cType="1" res="1.7761958297342062e-03" rms="3.8682562112808228e-01" purity="5.1543527841567993e-01" nType="0">
          <Node pos="l" depth="2" NCoef="0" IVar="0" Cut="4.0593820190429688e+02" cType="1" res="-3.5564455902203918e-04" rms="3.9417490363121033e-01" purity="4.5218309760093689e-01" nType="0">
            <Node pos="l" depth="3" NCoef="0" IVar="-1" Cut="0.0000000000000000e+00" cType="1" res="4.6704327687621117e-03" rms="3.9331528544425964e-01" purity="3.5202628374099731e-01" nType="-99"/>
            <Node pos="r" depth="3" NCoef="0" IVar="-1" Cut="0.0000000000000000e+00" cType="1" res="-6.7597678862512112e-03" rms="3.9510592818260193e-01" purity="5.8881545066833496e-01" nType="-99"/>
          </Node>
          <Node pos="r" depth="2" NCoef="0" IVar="2" Cut="6.1038000488281250e+02" cType="1" res="1.1624636128544807e-02" rms="3.5071361064910889e-01" purity="8.0764091014862061e-01" nType="0">
            <Node pos="l" depth="3" NCoef="0" IVar="-1" Cut="0.0000000000000000e+00" cType="1" res="3.4593883901834488e-03" rms="3.3502292633056641e-01" purity="8.3113598823547363e-01" nType="-99"/>
            <Node pos="r" depth="3" NCoef="0" IVar="-1" Cut="0.0000000000000000e+00" cType="1" res="2.2370411083102226e-02" rms="3.9542162418365479e-01" purity="7.3300617933273315e-01" nType="-99"/>
          </Node>
        </Node>
        <Node pos="r" depth="1" NCoef="0" IVar="-1" Cut="0.0000000000000000e+00" cType="1" res="-2.9420018196105957e-02" rms="2.8528958559036255e-01" purity="1.4083923399448395e-01" nType="-99"/>
      </Node>
    </BinaryTree>
    <BinaryTree type="DecisionTree" boostWeight="1.0000000000000000e+00" itree="497">
      <Node pos="s" depth="0" NCoef="0" IVar="7" Cut="1.7333421707153320e+00" cType="1" res="2.1073198877274990e-03" rms="3.8706764578819275e-01" purity="5.0186461210250854e-01" nType="0">
        <Node pos="l" depth="1" NCoef="0" IVar="9" Cut="1.4666594266891479e+00" cType="1" res="7.1881862822920084e-04" rms="3.8968598842620850e-01" purity="5.1862555742263794e-01" nType="0">
          <Node pos="l" depth="2" NCoef="0" IVar="9" Cut="1.2634754180908203e+00" cType="1" res="-1.6532343579456210e-03" rms="3.8960865139961243e-01" purity="5.3061777353286743e-01" nType="0">
            <Node pos="l" depth="3" NCoef="0" IVar="-1" Cut="0.0000000000000000e+00" cType="1" res="-3.4717709058895707e-04" rms="3.8962250947952271e-01" purity="5.3336799144744873e-01" nType="-99"/>
            <Node pos="r" depth="3" NCoef="0" IVar="-1" Cut="0.0000000000000000e+00" cType="1" res="-1.9419973716139793e-02" rms="3.8827088475227356e-01" purity="4.6393281221389771e-01" nType="-99"/>
          </Node>
          <Node pos="r" depth="2" NCoef="0" IVar="7" Cut="2.2283458709716797e-01" cType="1" res="1.7593769356608391e-02" rms="3.8981941342353821e-01" purity="4.3331202864646912e-01" nType="0">
            <Node pos="l" depth="3" NCoef="0" IVar="-1" Cut="0.0000000000000000e+00" cType="1" res="-1.3546070549637079e-03" rms="3.8082152605056763e-01" purity="4.1466495394706726e-01" nType="-99"/>
            <Node pos="r" depth="3" NCoef="0" IVar="-1" Cut="0.0000000000000000e+00" cType="1" res="2.6602730154991150e-02" rms="3.9926633238792419e-01" purity="4.5618462562561035e-01" nType="-99"/>
          </Node>
        </Node>
        <Node pos="r" depth="1" NCoef="0" IVar="4" Cut="1.1258693695068359e+02" cType="1" res="2.4474399164319038e-02" rms="3.4136155247688293e-01" purity="2.3186679184436798e-01" nType="0">
          <Node pos="l" depth="2" NCoef="0" IVar="-1" Cut="0.0000000000000000e+00" cType="1" res="4.1627795435488224e-03" rms="2.9467386007308960e-01" purity="1.2125340104103088e-01" nType="-99"/>
          <Node pos="r" depth="2" NCoef="0" IVar="-1" Cut="0.0000000000000000e+00" cType="1" res="3.3894594758749008e-02" rms="3.9115992188453674e-01" purity="3.7245243787765503e-01" nType="-99"/>
        </Node>
      </Node>
    </BinaryTree>
    <BinaryTree type="DecisionTree" boostWeight="1.0000000000000000e+00" itree="498">
      <Node pos="s" depth="0" NCoef="0" IVar="6" Cut="1.7423530817031860e+00" cType="1" res="7.8861962538212538e-04" rms="3.8601252436637878e-01" purity="5.0141954421997070e-01" nType="0">
        <Node pos="l" depth="1" NCoef="0" IVar="9" Cut="9.3332844972610474e-01" cType="1" res="-4.0734800859354436e-04" rms="3.8840618729591370e-01" purity="5.1450157165527344e-01" nType="0">
          <Node pos="l" depth="2" NCoef="0" IVar="6" Cut="-1.2534279823303223e+00" cType="1" res="-3.1476791482418776e-03" rms="3.8871908187866211e-01" purity="5.2838152647018433e-01" nType="0">
            <Node pos="l" depth="3" NCoef="0" IVar="-1" Cut="0.0000000000000000e+00" cType="1" res="-1.5081401914358139e-02" rms="3.4829232096672058e-01" purity="2.4106284976005554e-01" nType="-99"/>
            <Node pos="r" depth="3" NCoef="0" IVar="-1" Cut="0.0000000000000000e+00" cType="1" res="-8.1654096720740199e-04" rms="3.9310446381568909e-01" purity="5.6177616119384766e-01" nType="-99"/>
          </Node>
          <Node pos="r" depth="2" NCoef="0" IVar="7" Cut="1.4668320417404175e+00" cType="1" res="8.6488071829080582e-03" rms="3.8723245263099670e-01" purity="4.6863153576850891e-01" nType="0">
            <Node pos="l" depth="3" NCoef="0" IVar="-1" Cut="0.0000000000000000e+00" cType="1" res="8.8031245395541191e-03" rms="3.9667174220085144e-01" purity="5.0846290588378906e-01" nType="-99"/>
            <Node pos="r" depth="3" NCoef="0" IVar="-1" Cut="0.0000000000000000e+00" cType="1" res="-2.8125071898102760e-02" rms="3.0159765481948853e-01" purity="1.6065138578414917e-01" nType="-99"/>
          </Node>
        </Node>
        <Node pos="r" depth="1" NCoef="0" IVar="-1" Cut="0.0000000000000000e+00" cType="1" res="2.7079010382294655e-02" rms="3.2540321350097656e-01" purity="2.0261894166469574e-01" nType="-99"/>
      </Node>
    </BinaryTree>
    <BinaryTree type="DecisionTree" boostWeight="1.0000000000000000e+00" itree="499">
      <Node pos="s" depth="0" NCoef="0" IVar="6" Cut="1.3846547901630402e-01" cType="1" res="-5.7465228019282222e-04" rms="3.8273310661315918e-01" purity="5.0279223918914795e-01" nType="0">
        <Node pos="l" depth="1" NCoef="0" IVar="8" Cut="-1.4666378498077393e+00" cType="1" res="5.1211277022957802e-03" rms="3.8569164276123047e-01" purity="5.2741330862045288e-01" nType="0">
          <Node pos="l" depth="2" NCoef="0" IVar="9" Cut="-1.3310305774211884e-01" cType="1" res="-1.6376849263906479e-02" rms="3.6121073365211487e-01" purity="3.2911702990531921e-01" nType="0">
            <Node pos="l" depth="3" NCoef="0" IVar="-1" Cut="0.0000000000000000e+00" cType="1" res="-2.3454740643501282e-02" rms="3.4818512201309204e-01" purity="2.7675643563270569e-01" nType="-99"/>
            <Node pos="r" depth="3" NCoef="0" IVar="-1" Cut="0.0000000000000000e+00" cType="1" res="1.0433542774990201e-03" rms="3.7622597813606262e-01" purity="3.9514601230621338e-01" nType="-99"/>
          </Node>
          <Node pos="r" depth="2" NCoef="0" IVar="7" Cut="-1.4666166305541992e+00" cType="1" res="7.7877328731119633e-03" rms="3.8853785395622253e-01" purity="5.5200994014739990e-01" nType="0">
            <Node pos="l" depth="3" NCoef="0" IVar="-1" Cut="0.0000000000000000e+00" cType="1" res="2.2715909406542778e-02" rms="3.9630821347236633e-01" purity="3.3285376429557800e-01" nType="-99"/>
            <Node pos="r" depth="3" NCoef="0" IVar="-1" Cut="0.0000000000000000e+00" cType="1" res="3.5411398857831955e-03" rms="3.8769692182540894e-01" purity="5.7309651374816895e-01" nType="-99"/>
          </Node>
        </Node>
        <Node pos="r" depth="1" NCoef="0" IVar="6" Cut="1.6590223312377930e+00" cType="1" res="-7.9781720414757729e-03" rms="3.7872493267059326e-01" purity="4.7078916430473328e-01" nType="0">
          <Node pos="l" depth="2" NCoef="0" IVar="8" Cut="-1.4667094945907593e+00" cType="1" res="-1.1115918867290020e-02" rms="3.8541242480278015e-01" purity="5.0457859039306641e-01" nType="0">
            <Node pos="l" depth="3" NCoef="0" IVar="-1" Cut="0.0000000000000000e+00" cType="1" res="8.6523117497563362e-03" rms="3.7977954745292664e-01" purity="3.2998979091644287e-01" nType="-99"/>
            <Node pos="r" depth="3" NCoef="0" IVar="-1" Cut="0.0000000000000000e+00" cType="1" res="-8.8858203962445259e-03" rms="3.8590472936630249e-01" purity="5.2251648902893066e-01" nType="-99"/>
          </Node>
          <Node pos="r" depth="2" NCoef="0" IVar="-1" Cut="0.0000000000000000e+00" cType="1" res="1.5862541273236275e-02" rms="3.2008105516433716e-01" purity="2.0437693595886230e-01" nType="-99"/>
        </Node>
      </Node>
    </BinaryTree>
    <BinaryTree type="DecisionTree" boostWeight="1.0000000000000000e+00" itree="500">
      <Node pos="s" depth="0" NCoef="0" IVar="8" Cut="1.9999754428863525e+00" cType="1" res="7.6127471402287483e-04" rms="3.8627603650093079e-01" purity="5.0057619810104370e-01" nType="0">
        <Node pos="l" depth="1" NCoef="0" IVar="8" Cut="3.9997029304504395e-01" cType="1" res="-8.3673925837501884e-04" rms="3.8687697052955627e-01" purity="5.1061171293258667e-01" nType="0">
          <Node pos="l" depth="2" NCoef="0" IVar="7" Cut="1.1999695301055908e+00" cType="1" res="3.7619487848132849e-03" rms="3.8711589574813843e-01" purity="5.2487939596176147e-01" nType="0">
            <Node pos="l" depth="3" NCoef="0" IVar="-1" Cut="0.0000000000000000e+00" cType="1" res="1.0657891398295760e-03" rms="3.8821777701377869e-01" purity="5.4938161373138428e-01" nType="-99"/>
            <Node pos="r" depth="3" NCoef="0" IVar="-1" Cut="0.0000000000000000e+00" cType="1" res="1.4083337970077991e-02" rms="3.7859794497489929e-01" purity="3.4586703777313232e-01" nType="-99"/>
          </Node>
          <Node pos="r" depth="2" NCoef="0" IVar="7" Cut="-6.6667169332504272e-01" cType="1" res="-1.0131886228919029e-02" rms="3.8622644543647766e-01" purity="4.8177307844161987e-01" nType="0">
            <Node pos="l" depth="3" NCoef="0" IVar="-1" Cut="0.0000000000000000e+00" cType="1" res="-1.9783478230237961e-02" rms="3.8218632340431213e-01" purity="3.6706051230430603e-01" nType="-99"/>
            <Node pos="r" depth="3" NCoef="0" IVar="-1" Cut="0.0000000000000000e+00" cType="1" res="-3.0716131441295147e-03" rms="3.8718104362487793e-01" purity="5.1411426067352295e-01" nType="-99"/>
          </Node>
        </Node>
        <Node pos="r" depth="1" NCoef="0" IVar="-1" Cut="0.0000000000000000e+00" cType="1" res="2.6328207924962044e-02" rms="3.7189766764640808e-01" purity="2.9044380784034729e-01" nType="-99"/>
      </Node>
    </BinaryTree>
    <BinaryTree type="DecisionTree" boostWeight="1.0000000000000000e+00" itree="501">
      <Node pos="s" depth="0" NCoef="0" IVar="6" Cut="1.2070015668869019e+00" cType="1" res="7.9354899935424328e-04" rms="3.8674026727676392e-01" purity="5.0003933906555176e-01" nType="0">
        <Node pos="l" depth="1" NCoef="0" IVar="4" Cut="1.0560948944091797e+02" cType="1" res="-7.6185114448890090e-04" rms="3.9041733741760254e-01" purity="5.2952605485916138e-01" nType="0">
          <Node pos="l" depth="2" NCoef="0" IVar="8" Cut="-6.6664808988571167e-01" cType="1" res="4.4216667301952839e-03" rms="3.9090183377265930e-01" purity="2.9493668675422668e-01" nType="0">
            <Node pos="l" depth="3" NCoef="0" IVar="-1" Cut="0.0000000000000000e+00" cType="1" res="-7.5021348893642426e-03" rms="3.6517921090126038e-01" purity="2.4284274876117706e-01" nType="-99"/>
            <Node pos="r" depth="3" NCoef="0" IVar="-1" Cut="0.0000000000000000e+00" cType="1" res="6.9259880110621452e-03" rms="4.0181636810302734e-01" purity="3.1850335001945496e-01" nType="-99"/>
          </Node>
          <Node pos="r" depth="2" NCoef="0" IVar="7" Cut="1.1998306512832642e+00" cType="1" res="-3.5468225833028555e-03" rms="3.9012834429740906e-01" purity="6.5556484460830688e-01" nType="0">
            <Node pos="l" depth="3" NCoef="0" IVar="-1" Cut="0.0000000000000000e+00" cType="1" res="-2.7192514971829951e-04" rms="3.8930228352546692e-01" purity="6.8373256921768188e-01" nType="-99"/>
            <Node pos="r" depth="3" NCoef="0" IVar="-1" Cut="0.0000000000000000e+00" cType="1" res="-1.8812196329236031e-02" rms="3.9603984355926514e-01" purity="4.1804146766662598e-01" nType="-99"/>
          </Node>
        </Node>
        <Node pos="r" depth="1" NCoef="0" IVar="7" Cut="9.3324977159500122e-01" cType="1" res="1.3664419762790203e-02" rms="3.5459178686141968e-01" purity="2.5603798031806946e-01" nType="0">
          <Node pos="l" depth="2" NCoef="0" IVar="0" Cut="3.9404669189453125e+02" cType="1" res="2.1488130092620850e-02" rms="3.7158918380737305e-01" purity="3.0000010132789612e-01" nType="0">
            <Node pos="l" depth="3" NCoef="0" IVar="-1" Cut="0.0000000000000000e+00" cType="1" res="4.4806725345551968e-03" rms="3.3049613237380981e-01" purity="1.6414485871791840e-01" nType="-99"/>
            <Node pos="r" depth="3" NCoef="0" IVar="-1" Cut="0.0000000000000000e+00" cType="1" res="2.4513386189937592e-02" rms="4.1219642758369446e-01" purity="4.5301407575607300e-01" nType="-99"/>
          </Node>
          <Node pos="r" depth="2" NCoef="0" IVar="-1" Cut="0.0000000000000000e+00" cType="1" res="-1.1788123287260532e-02" rms="2.9498946666717529e-01" purity="1.2087420374155045e-01" nType="-99"/>
        </Node>
      </Node>
    </BinaryTree>
    <BinaryTree type="DecisionTree" boostWeight="1.0000000000000000e+00" itree="502">
      <Node pos="s" depth="0" NCoef="0" IVar="2" Cut="5.0379696655273438e+02" cType="1" res="-1.8040555296465755e-03" rms="3.8475486636161804e-01" purity="4.9971875548362732e-01" nType="0">
        <Node pos="l" depth="1" NCoef="0" IVar="8" Cut="-1.9999691247940063e+00" cType="1" res="-3.8018308114260435e-03" rms="3.8388589024543762e-01" purity="4.8645550012588501e-01" nType="0">
          <Node pos="l" depth="2" NCoef="0" IVar="-1" Cut="0.0000000000000000e+00" cType="1" res="1.5545070171356201e-02" rms="3.5166856646537781e-01" purity="2.5588011741638184e-01" nType="-99"/>
          <Node pos="r" depth="2" NCoef="0" IVar="7" Cut="-1.1999769210815430e+00" cType="1" res="-4.8412526957690716e-03" rms="3.8527977466583252e-01" purity="4.9712491035461426e-01" nType="0">
            <Node pos="l" depth="3" NCoef="0" IVar="-1" Cut="0.0000000000000000e+00" cType="1" res="5.8376952074468136e-03" rms="3.7325355410575867e-01" purity="3.2291886210441589e-01" nType="-99"/>
            <Node pos="r" depth="3" NCoef="0" IVar="-1" Cut="0.0000000000000000e+00" cType="1" res="-4.5849424786865711e-03" rms="3.8712480664253235e-01" purity="5.2493655681610107e-01" nType="-99"/>
          </Node>
        </Node>
        <Node pos="r" depth="1" NCoef="0" IVar="6" Cut="2.0128986239433289e-01" cType="1" res="8.0340672284364700e-03" rms="3.8885614275932312e-01" purity="5.6503409147262573e-01" nType="0">
          <Node pos="l" depth="2" NCoef="0" IVar="7" Cut="6.6659265756607056e-01" cType="1" res="1.7984190955758095e-02" rms="3.9187186956405640e-01" purity="6.0213845968246460e-01" nType="0">
            <Node pos="l" depth="3" NCoef="0" IVar="-1" Cut="0.0000000000000000e+00" cType="1" res="6.4533022232353687e-03" rms="3.8852855563163757e-01" purity="6.3716071844100952e-01" nType="-99"/>
            <Node pos="r" depth="3" NCoef="0" IVar="-1" Cut="0.0000000000000000e+00" cType="1" res="2.8218427672982216e-02" rms="4.0117698907852173e-01" purity="4.9087607860565186e-01" nType="-99"/>
          </Node>
          <Node pos="r" depth="2" NCoef="0" IVar="3" Cut="2.8325686645507812e+02" cType="1" res="-8.6547378450632095e-03" rms="3.8316509127616882e-01" purity="5.0280100107192993e-01" nType="0">
            <Node pos="l" depth="3" NCoef="0" IVar="-1" Cut="0.0000000000000000e+00" cType="1" res="-2.2107778117060661e-02" rms="3.6927920579910278e-01" purity="4.0273314714431763e-01" nType="-99"/>
            <Node pos="r" depth="3" NCoef="0" IVar="-1" Cut="0.0000000000000000e+00" cType="1" res="1.1478920467197895e-02" rms="3.9603596925735474e-01" purity="6.1170220375061035e-01" nType="-99"/>
          </Node>
        </Node>
      </Node>
    </BinaryTree>
    <BinaryTree type="DecisionTree" boostWeight="1.0000000000000000e+00" itree="503">
      <Node pos="s" depth="0" NCoef="0" IVar="6" Cut="-1.6939350366592407e+00" cType="1" res="-7.5339741306379437e-04" rms="3.8480266928672791e-01" purity="4.9967750906944275e-01" nType="0">
        <Node pos="l" depth="1" NCoef="0" IVar="-1" Cut="0.0000000000000000e+00" cType="1" res="3.4270513802766800e-02" rms="3.4590867161750793e-01" purity="2.1846520900726318e-01" nType="-99"/>
        <Node pos="r" depth="1" NCoef="0" IVar="6" Cut="-4.1000220179557800e-01" cType="1" res="-2.4273372255265713e-03" rms="3.8638117909431458e-01" purity="5.1236486434936523e-01" nType="0">
          <Node pos="l" depth="2" NCoef="0" IVar="7" Cut="-6.6674810647964478e-01" cType="1" res="-1.1158505454659462e-02" rms="3.8799515366554260e-01" purity="4.7162166237831116e-01" nType="0">
            <Node pos="l" depth="3" NCoef="0" IVar="-1" Cut="0.0000000000000000e+00" cType="1" res="-1.6620725393295288e-02" rms="3.7693569064140320e-01" purity="3.7919959425926208e-01" nType="-99"/>
            <Node pos="r" depth="3" NCoef="0" IVar="-1" Cut="0.0000000000000000e+00" cType="1" res="-3.5105259157717228e-03" rms="3.9235940575599670e-01" purity="5.1004016399383545e-01" nType="-99"/>
          </Node>
          <Node pos="r" depth="2" NCoef="0" IVar="6" Cut="1.1184852123260498e+00" cType="1" res="1.3184788404032588e-03" rms="3.8562610745429993e-01" purity="5.2984446287155151e-01" nType="0">
            <Node pos="l" depth="3" NCoef="0" IVar="-1" Cut="0.0000000000000000e+00" cType="1" res="-7.3953624814748764e-04" rms="3.9256203174591064e-01" purity="5.8631187677383423e-01" nType="-99"/>
            <Node pos="r" depth="3" NCoef="0" IVar="-1" Cut="0.0000000000000000e+00" cType="1" res="9.5604984089732170e-03" rms="3.5411787033081055e-01" purity="2.8746062517166138e-01" nType="-99"/>
          </Node>
        </Node>
      </Node>
    </BinaryTree>
    <BinaryTree type="DecisionTree" boostWeight="1.0000000000000000e+00" itree="504">
      <Node pos="s" depth="0" NCoef="0" IVar="6" Cut="-3.9356622099876404e-01" cType="1" res="-1.0319041321054101e-03" rms="3.8346084952354431e-01" purity="5.0051832199096680e-01" nType="0">
        <Node pos="l" depth="1" NCoef="0" IVar="7" Cut="9.3315511941909790e-01" cType="1" res="-9.6842609345912933e-03" rms="3.7810441851615906e-01" purity="4.3681034445762634e-01" nType="0">
          <Node pos="l" depth="2" NCoef="0" IVar="4" Cut="9.3319992065429688e+01" cType="1" res="-5.4772249422967434e-03" rms="3.8553729653358459e-01" purity="4.7677868604660034e-01" nType="0">
            <Node pos="l" depth="3" NCoef="0" IVar="-1" Cut="0.0000000000000000e+00" cType="1" res="-1.6668358817696571e-02" rms="3.4137892723083496e-01" purity="1.7458948493003845e-01" nType="-99"/>
            <Node pos="r" depth="3" NCoef="0" IVar="-1" Cut="0.0000000000000000e+00" cType="1" res="-8.2396014477126300e-05" rms="3.9971166849136353e-01" purity="5.8259916305541992e-01" nType="-99"/>
          </Node>
          <Node pos="r" depth="2" NCoef="0" IVar="9" Cut="-1.3290695846080780e-01" cType="1" res="-2.8870569542050362e-02" rms="3.4150886535644531e-01" purity="2.5453352928161621e-01" nType="0">
            <Node pos="l" depth="3" NCoef="0" IVar="-1" Cut="0.0000000000000000e+00" cType="1" res="-9.6987737342715263e-03" rms="3.4907072782516479e-01" purity="2.7748376131057739e-01" nType="-99"/>
            <Node pos="r" depth="3" NCoef="0" IVar="-1" Cut="0.0000000000000000e+00" cType="1" res="-3.4155134111642838e-02" rms="3.3442661166191101e-01" purity="2.3530304431915283e-01" nType="-99"/>
          </Node>
        </Node>
        <Node pos="r" depth="1" NCoef="0" IVar="3" Cut="1.4556855773925781e+02" cType="1" res="3.2917582429945469e-03" rms="3.8603699207305908e-01" purity="5.3235375881195068e-01" nType="0">
          <Node pos="l" depth="2" NCoef="0" IVar="1" Cut="1.0502070312500000e+03" cType="1" res="1.6153356060385704e-02" rms="3.8699454069137573e-01" purity="2.7950945496559143e-01" nType="0">
            <Node pos="l" depth="3" NCoef="0" IVar="-1" Cut="0.0000000000000000e+00" cType="1" res="2.1627654787153006e-03" rms="3.5543596744537354e-01" purity="1.8489480018615723e-01" nType="-99"/>
            <Node pos="r" depth="3" NCoef="0" IVar="-1" Cut="0.0000000000000000e+00" cType="1" res="2.0805729553103447e-02" rms="4.3041703104972839e-01" purity="4.2569088935852051e-01" nType="-99"/>
          </Node>
          <Node pos="r" depth="2" NCoef="0" IVar="6" Cut="1.5832159519195557e+00" cType="1" res="-7.5525633292272687e-04" rms="3.8564649224281311e-01" purity="6.1191338300704956e-01" nType="0">
            <Node pos="l" depth="3" NCoef="0" IVar="-1" Cut="0.0000000000000000e+00" cType="1" res="4.7730884398333728e-04" rms="3.8956102728843689e-01" purity="6.4194577932357788e-01" nType="-99"/>
            <Node pos="r" depth="3" NCoef="0" IVar="-1" Cut="0.0000000000000000e+00" cType="1" res="-1.6421955078840256e-02" rms="3.2916167378425598e-01" purity="2.1641926467418671e-01" nType="-99"/>
          </Node>
        </Node>
      </Node>
    </BinaryTree>
    <BinaryTree type="DecisionTree" boostWeight="1.0000000000000000e+00" itree="505">
      <Node pos="s" depth="0" NCoef="0" IVar="8" Cut="-1.4666963815689087e+00" cType="1" res="3.5298147704452276e-03" rms="3.8839200139045715e-01" purity="5.0227183103561401e-01" nType="0">
        <Node pos="l" depth="1" NCoef="0" IVar="2" Cut="3.0889184570312500e+02" cType="1" res="1.8067169934511185e-02" rms="3.7555366754531860e-01" purity="3.5303753614425659e-01" nType="0">
          <Node pos="l" depth="2" NCoef="0" IVar="-1" Cut="0.0000000000000000e+00" cType="1" res="2.5412783026695251e-02" rms="3.7655872106552124e-01" purity="3.1427159905433655e-01" nType="-99"/>
          <Node pos="r" depth="2" NCoef="0" IVar="3" Cut="2.0742761230468750e+02" cType="1" res="6.4324028789997101e-03" rms="3.7440836429595947e-01" purity="3.8025581836700439e-01" nType="0">
            <Node pos="l" depth="3" NCoef="0" IVar="-1" Cut="0.0000000000000000e+00" cType="1" res="-1.3948306441307068e-02" rms="3.4179735183715820e-01" purity="2.3719374835491180e-01" nType="-99"/>
            <Node pos="r" depth="3" NCoef="0" IVar="-1" Cut="0.0000000000000000e+00" cType="1" res="1.9303886219859123e-02" rms="4.0284854173660278e-01" purity="5.2242934703826904e-01" nType="-99"/>
          </Node>
        </Node>
        <Node pos="r" depth="1" NCoef="0" IVar="6" Cut="-1.4475477933883667e+00" cType="1" res="1.7827341798692942e-03" rms="3.8986995816230774e-01" purity="5.2020663022994995e-01" nType="0">
          <Node pos="l" depth="2" NCoef="0" IVar="3" Cut="1.8978186035156250e+02" cType="1" res="2.0670475438237190e-02" rms="3.6177390813827515e-01" purity="2.5775110721588135e-01" nType="0">
            <Node pos="l" depth="3" NCoef="0" IVar="-1" Cut="0.0000000000000000e+00" cType="1" res="7.7738682739436626e-03" rms="3.2975894212722778e-01" purity="1.6251152753829956e-01" nType="-99"/>
            <Node pos="r" depth="3" NCoef="0" IVar="-1" Cut="0.0000000000000000e+00" cType="1" res="2.2901613265275955e-02" rms="3.9562037587165833e-01" purity="3.6977440118789673e-01" nType="-99"/>
          </Node>
          <Node pos="r" depth="2" NCoef="0" IVar="1" Cut="1.3997946777343750e+03" cType="1" res="4.6604505041614175e-04" rms="3.9171949028968811e-01" purity="5.3850275278091431e-01" nType="0">
            <Node pos="l" depth="3" NCoef="0" IVar="-1" Cut="0.0000000000000000e+00" cType="1" res="2.6085223071277142e-03" rms="4.0962648391723633e-01" purity="4.0912485122680664e-01" nType="-99"/>
            <Node pos="r" depth="3" NCoef="0" IVar="-1" Cut="0.0000000000000000e+00" cType="1" res="-4.9158753827214241e-03" rms="3.5943326354026794e-01" purity="7.5652259588241577e-01" nType="-99"/>
          </Node>
        </Node>
      </Node>
    </BinaryTree>
    <BinaryTree type="DecisionTree" boostWeight="1.0000000000000000e+00" itree="506">
      <Node pos="s" depth="0" NCoef="0" IVar="5" Cut="8.1792320251464844e+01" cType="1" res="1.5936298295855522e-03" rms="3.8965311646461487e-01" purity="4.9829599261283875e-01" nType="0">
        <Node pos="l" depth="1" NCoef="0" IVar="6" Cut="-6.5957444906234741e-01" cType="1" res="8.7959794327616692e-03" rms="3.9522904157638550e-01" purity="3.3220261335372925e-01" nType="0">
          <Node pos="l" depth="2" NCoef="0" IVar="8" Cut="4.0028992295265198e-01" cType="1" res="2.2824373096227646e-02" rms="3.7907153367996216e-01" purity="2.6577949523925781e-01" nType="0">
            <Node pos="l" depth="3" NCoef="0" IVar="-1" Cut="0.0000000000000000e+00" cType="1" res="7.4768336489796638e-03" rms="3.7401264905929565e-01" purity="2.5742718577384949e-01" nType="-99"/>
            <Node pos="r" depth="3" NCoef="0" IVar="-1" Cut="0.0000000000000000e+00" cType="1" res="3.6548189818859100e-02" rms="3.8768798112869263e-01" purity="2.8239718079566956e-01" nType="-99"/>
          </Node>
          <Node pos="r" depth="2" NCoef="0" IVar="6" Cut="1.6400085389614105e-01" cType="1" res="3.6628313828259706e-03" rms="4.0085592865943909e-01" purity="3.5650759935379028e-01" nType="0">
            <Node pos="l" depth="3" NCoef="0" IVar="-1" Cut="0.0000000000000000e+00" cType="1" res="-6.2562930397689342e-03" rms="4.2027899622917175e-01" purity="4.2246216535568237e-01" nType="-99"/>
            <Node pos="r" depth="3" NCoef="0" IVar="-1" Cut="0.0000000000000000e+00" cType="1" res="9.2870974913239479e-03" rms="3.8693657517433167e-01" purity="3.1219026446342468e-01" nType="-99"/>
          </Node>
        </Node>
        <Node pos="r" depth="1" NCoef="0" IVar="6" Cut="4.0470051765441895e-01" cType="1" res="-5.8725434355437756e-03" rms="3.8364472985267639e-01" purity="6.7047333717346191e-01" nType="0">
          <Node pos="l" depth="2" NCoef="0" IVar="8" Cut="-6.6654551029205322e-01" cType="1" res="-9.9352886900305748e-03" rms="3.8019502162933350e-01" purity="6.9444817304611206e-01" nType="0">
            <Node pos="l" depth="3" NCoef="0" IVar="-1" Cut="0.0000000000000000e+00" cType="1" res="-1.4261689037084579e-02" rms="3.8940533995628357e-01" purity="6.2987685203552246e-01" nType="-99"/>
            <Node pos="r" depth="3" NCoef="0" IVar="-1" Cut="0.0000000000000000e+00" cType="1" res="-4.0654256008565426e-03" rms="3.7662741541862488e-01" purity="7.1844083070755005e-01" nType="-99"/>
          </Node>
          <Node pos="r" depth="2" NCoef="0" IVar="9" Cut="1.2000287771224976e+00" cType="1" res="2.4960006121546030e-03" rms="3.9052137732505798e-01" purity="6.2108939886093140e-01" nType="0">
            <Node pos="l" depth="3" NCoef="0" IVar="-1" Cut="0.0000000000000000e+00" cType="1" res="-3.0374543275684118e-03" rms="3.8670673966407776e-01" purity="6.3353043794631958e-01" nType="-99"/>
            <Node pos="r" depth="3" NCoef="0" IVar="-1" Cut="0.0000000000000000e+00" cType="1" res="2.0966226235032082e-02" rms="4.0528470277786255e-01" purity="5.6674146652221680e-01" nType="-99"/>
          </Node>
        </Node>
      </Node>
    </BinaryTree>
    <BinaryTree type="DecisionTree" boostWeight="1.0000000000000000e+00" itree="507">
      <Node pos="s" depth="0" NCoef="0" IVar="3" Cut="4.3220745849609375e+02" cType="1" res="-5.2021821029484272e-03" rms="3.8229322433471680e-01" purity="4.9858000874519348e-01" nType="0">
        <Node pos="l" depth="1" NCoef="0" IVar="2" Cut="5.0379714965820312e+02" cType="1" res="-6.2962328083813190e-03" rms="3.8224622607231140e-01" purity="4.9216735363006592e-01" nType="0">
          <Node pos="l" depth="2" NCoef="0" IVar="1" Cut="1.1785388183593750e+03" cType="1" res="-4.0413574315607548e-03" rms="3.8250324130058289e-01" purity="4.8707249760627747e-01" nType="0">
            <Node pos="l" depth="3" NCoef="0" IVar="-1" Cut="0.0000000000000000e+00" cType="1" res="-6.2877503223717213e-03" rms="3.8746383786201477e-01" purity="2.7104860544204712e-01" nType="-99"/>
            <Node pos="r" depth="3" NCoef="0" IVar="-1" Cut="0.0000000000000000e+00" cType="1" res="9.3668547924607992e-04" rms="3.7759074568748474e-01" purity="6.9488632678985596e-01" nType="-99"/>
          </Node>
          <Node pos="r" depth="2" NCoef="0" IVar="3" Cut="2.3304608154296875e+02" cType="1" res="-2.0184604451060295e-02" rms="3.8036492466926575e-01" purity="5.2354800701141357e-01" nType="0">
            <Node pos="l" depth="3" NCoef="0" IVar="-1" Cut="0.0000000000000000e+00" cType="1" res="-2.7719644829630852e-02" rms="3.8805508613586426e-01" purity="3.8565331697463989e-01" nType="-99"/>
            <Node pos="r" depth="3" NCoef="0" IVar="-1" Cut="0.0000000000000000e+00" cType="1" res="-2.2315618116408587e-03" rms="3.7365603446960449e-01" purity="6.2587338685989380e-01" nType="-99"/>
          </Node>
        </Node>
        <Node pos="r" depth="1" NCoef="0" IVar="-1" Cut="0.0000000000000000e+00" cType="1" res="1.7491852864623070e-02" rms="3.8224026560783386e-01" purity="6.9181632995605469e-01" nType="-99"/>
      </Node>
    </BinaryTree>
    <BinaryTree type="DecisionTree" boostWeight="1.0000000000000000e+00" itree="508">
      <Node pos="s" depth="0" NCoef="0" IVar="8" Cut="6.6665828227996826e-01" cType="1" res="-2.8308674227446318e-03" rms="3.8722795248031616e-01" purity="4.9485656619071960e-01" nType="0">
        <Node pos="l" depth="1" NCoef="0" IVar="5" Cut="7.8396499633789062e+01" cType="1" res="1.5036630211398005e-03" rms="3.8821756839752197e-01" purity="5.2572691440582275e-01" nType="0">
          <Node pos="l" depth="2" NCoef="0" IVar="3" Cut="2.1931210327148438e+02" cType="1" res="1.0774797759950161e-02" rms="3.9797073602676392e-01" purity="3.4792503714561462e-01" nType="0">
            <Node pos="l" depth="3" NCoef="0" IVar="-1" Cut="0.0000000000000000e+00" cType="1" res="1.2103189714252949e-02" rms="3.9270156621932983e-01" purity="2.9232621192932129e-01" nType="-99"/>
            <Node pos="r" depth="3" NCoef="0" IVar="-1" Cut="0.0000000000000000e+00" cType="1" res="-4.7704000025987625e-03" rms="4.1066759824752808e-01" purity="4.9165430665016174e-01" nType="-99"/>
          </Node>
          <Node pos="r" depth="2" NCoef="0" IVar="7" Cut="-1.2000564336776733e+00" cType="1" res="-6.3391681760549545e-03" rms="3.7959471344947815e-01" purity="6.7613679170608521e-01" nType="0">
            <Node pos="l" depth="3" NCoef="0" IVar="-1" Cut="0.0000000000000000e+00" cType="1" res="-2.2059688344597816e-02" rms="3.9185473322868347e-01" purity="4.6261656284332275e-01" nType="-99"/>
            <Node pos="r" depth="3" NCoef="0" IVar="-1" Cut="0.0000000000000000e+00" cType="1" res="-1.8045889446511865e-03" rms="3.7783718109130859e-01" purity="7.0338684320449829e-01" nType="-99"/>
          </Node>
        </Node>
        <Node pos="r" depth="1" NCoef="0" IVar="6" Cut="1.4725463390350342e+00" cType="1" res="-1.4042058959603310e-02" rms="3.8442990183830261e-01" purity="4.1501092910766602e-01" nType="0">
          <Node pos="l" depth="2" NCoef="0" IVar="6" Cut="2.5900700688362122e-01" cType="1" res="-1.7089426517486572e-02" rms="3.9037775993347168e-01" purity="4.4180572032928467e-01" nType="0">
            <Node pos="l" depth="3" NCoef="0" IVar="-1" Cut="0.0000000000000000e+00" cType="1" res="-6.0908785089850426e-03" rms="3.9091774821281433e-01" purity="4.5902785658836365e-01" nType="-99"/>
            <Node pos="r" depth="3" NCoef="0" IVar="-1" Cut="0.0000000000000000e+00" cType="1" res="-1.8737263977527618e-02" rms="3.8921737670898438e-01" purity="4.1458287835121155e-01" nType="-99"/>
          </Node>
          <Node pos="r" depth="2" NCoef="0" IVar="-1" Cut="0.0000000000000000e+00" cType="1" res="1.8085319548845291e-02" rms="3.1825467944145203e-01" purity="1.5044189989566803e-01" nType="-99"/>
        </Node>
      </Node>
    </BinaryTree>
    <BinaryTree type="DecisionTree" boostWeight="1.0000000000000000e+00" itree="509">
      <Node pos="s" depth="0" NCoef="0" IVar="6" Cut="1.7352451086044312e+00" cType="1" res="2.9191449284553528e-03" rms="3.8472008705139160e-01" purity="5.0451880693435669e-01" nType="0">
        <Node pos="l" depth="1" NCoef="0" IVar="6" Cut="-1.7115001678466797e+00" cType="1" res="3.9633493870496750e-03" rms="3.8807842135429382e-01" purity="5.1936811208724976e-01" nType="0">
          <Node pos="l" depth="2" NCoef="0" IVar="-1" Cut="0.0000000000000000e+00" cType="1" res="-1.5196709893643856e-02" rms="3.0844935774803162e-01" purity="1.5312913060188293e-01" nType="-99"/>
          <Node pos="r" depth="2" NCoef="0" IVar="6" Cut="9.3944504857063293e-02" cType="1" res="4.7762813046574593e-03" rms="3.9098739624023438e-01" purity="5.3444319963455200e-01" nType="0">
            <Node pos="l" depth="3" NCoef="0" IVar="-1" Cut="0.0000000000000000e+00" cType="1" res="5.2976566366851330e-03" rms="3.9043611288070679e-01" purity="5.4845184087753296e-01" nType="-99"/>
            <Node pos="r" depth="3" NCoef="0" IVar="-1" Cut="0.0000000000000000e+00" cType="1" res="4.1063246317207813e-04" rms="3.9161160588264465e-01" purity="5.1753407716751099e-01" nType="-99"/>
          </Node>
        </Node>
        <Node pos="r" depth="1" NCoef="0" IVar="-1" Cut="0.0000000000000000e+00" cType="1" res="-2.1491447463631630e-02" rms="2.9231041669845581e-01" purity="1.5025320649147034e-01" nType="-99"/>
      </Node>
    </BinaryTree>
    <BinaryTree type="DecisionTree" boostWeight="1.0000000000000000e+00" itree="510">
      <Node pos="s" depth="0" NCoef="0" IVar="7" Cut="1.1999148130416870e+00" cType="1" res="-1.0795505950227380e-03" rms="3.8597762584686279e-01" purity="5.0094485282897949e-01" nType="0">
        <Node pos="l" depth="1" NCoef="0" IVar="7" Cut="-1.2762179374694824e+00" cType="1" res="-3.5455969627946615e-03" rms="3.8826096057891846e-01" purity="5.2959853410720825e-01" nType="0">
          <Node pos="l" depth="2" NCoef="0" IVar="6" Cut="-6.3213860988616943e-01" cType="1" res="-1.8373319879174232e-02" rms="3.5539412498474121e-01" purity="2.7286338806152344e-01" nType="0">
            <Node pos="l" depth="3" NCoef="0" IVar="-1" Cut="0.0000000000000000e+00" cType="1" res="-3.4332729876041412e-02" rms="3.2158303260803223e-01" purity="1.9000841677188873e-01" nType="-99"/>
            <Node pos="r" depth="3" NCoef="0" IVar="-1" Cut="0.0000000000000000e+00" cType="1" res="-6.1672879382967949e-03" rms="3.6921283602714539e-01" purity="3.1019625067710876e-01" nType="-99"/>
          </Node>
          <Node pos="r" depth="2" NCoef="0" IVar="7" Cut="1.3872158527374268e-01" cType="1" res="-1.2154802680015564e-03" rms="3.9312526583671570e-01" purity="5.6994342803955078e-01" nType="0">
            <Node pos="l" depth="3" NCoef="0" IVar="-1" Cut="0.0000000000000000e+00" cType="1" res="2.2979155182838440e-03" rms="3.9258098602294922e-01" purity="5.8082109689712524e-01" nType="-99"/>
            <Node pos="r" depth="3" NCoef="0" IVar="-1" Cut="0.0000000000000000e+00" cType="1" res="-5.0657768733799458e-03" rms="3.9378494024276733e-01" purity="5.5477434396743774e-01" nType="-99"/>
          </Node>
        </Node>
        <Node pos="r" depth="1" NCoef="0" IVar="1" Cut="1.2611264648437500e+03" cType="1" res="1.4690463431179523e-02" rms="3.7065619230270386e-01" purity="3.1770867109298706e-01" nType="0">
          <Node pos="l" depth="2" NCoef="0" IVar="2" Cut="2.8569094848632812e+02" cType="1" res="3.9493157528340816e-03" rms="3.4940615296363831e-01" purity="1.8721839785575867e-01" nType="0">
            <Node pos="l" depth="3" NCoef="0" IVar="-1" Cut="0.0000000000000000e+00" cType="1" res="-9.0797673910856247e-03" rms="3.5484489798545837e-01" purity="2.0291465520858765e-01" nType="-99"/>
            <Node pos="r" depth="3" NCoef="0" IVar="-1" Cut="0.0000000000000000e+00" cType="1" res="1.7215859144926071e-02" rms="3.4385010600090027e-01" purity="1.7319157719612122e-01" nType="-99"/>
          </Node>
          <Node pos="r" depth="2" NCoef="0" IVar="6" Cut="-6.2373932451009750e-02" cType="1" res="3.0918251723051071e-02" rms="4.0008217096328735e-01" purity="5.1485407352447510e-01" nType="0">
            <Node pos="l" depth="3" NCoef="0" IVar="-1" Cut="0.0000000000000000e+00" cType="1" res="3.3043213188648224e-02" rms="3.9912030100822449e-01" purity="5.0766342878341675e-01" nType="-99"/>
            <Node pos="r" depth="3" NCoef="0" IVar="-1" Cut="0.0000000000000000e+00" cType="1" res="6.6200396977365017e-03" rms="3.9989769458770752e-01" purity="5.2166748046875000e-01" nType="-99"/>
          </Node>
        </Node>
      </Node>
    </BinaryTree>
    <BinaryTree type="DecisionTree" boostWeight="1.0000000000000000e+00" itree="511">
      <Node pos="s" depth="0" NCoef="0" IVar="3" Cut="1.4556855773925781e+02" cType="1" res="1.6068993136286736e-03" rms="3.8412663340568542e-01" purity="5.0236123800277710e-01" nType="0">
        <Node pos="l" depth="1" NCoef="0" IVar="8" Cut="9.3327850103378296e-01" cType="1" res="-7.1960221976041794e-03" rms="3.6743205785751343e-01" purity="2.3524697124958038e-01" nType="0">
          <Node pos="l" depth="2" NCoef="0" IVar="8" Cut="3.9987951517105103e-01" cType="1" res="1.5576560690533370e-04" rms="3.7683576345443726e-01" purity="2.5736424326896667e-01" nType="0">
            <Node pos="l" depth="3" NCoef="0" IVar="-1" Cut="0.0000000000000000e+00" cType="1" res="-5.3180796094238758e-03" rms="3.6925476789474487e-01" purity="2.4280826747417450e-01" nType="-99"/>
            <Node pos="r" depth="3" NCoef="0" IVar="-1" Cut="0.0000000000000000e+00" cType="1" res="2.0634073764085770e-02" rms="4.0549319982528687e-01" purity="3.1831401586532593e-01" nType="-99"/>
          </Node>
          <Node pos="r" depth="2" NCoef="0" IVar="4" Cut="8.1681152343750000e+01" cType="1" res="-3.0634026974439621e-02" rms="3.3462181687355042e-01" purity="1.6473570466041565e-01" nType="0">
            <Node pos="l" depth="3" NCoef="0" IVar="-1" Cut="0.0000000000000000e+00" cType="1" res="-1.2619037181138992e-02" rms="2.8480195999145508e-01" purity="1.0649624466896057e-01" nType="-99"/>
            <Node pos="r" depth="3" NCoef="0" IVar="-1" Cut="0.0000000000000000e+00" cType="1" res="-3.0831862241029739e-02" rms="3.6864423751831055e-01" purity="2.1087375283241272e-01" nType="-99"/>
          </Node>
        </Node>
        <Node pos="r" depth="1" NCoef="0" IVar="6" Cut="1.7351977825164795e+00" cType="1" res="4.3955040164291859e-03" rms="3.8922435045242310e-01" purity="5.8697813749313354e-01" nType="0">
          <Node pos="l" depth="2" NCoef="0" IVar="6" Cut="6.5806460380554199e-01" cType="1" res="5.3400965407490730e-03" rms="3.9158812165260315e-01" purity="6.0161799192428589e-01" nType="0">
            <Node pos="l" depth="3" NCoef="0" IVar="-1" Cut="0.0000000000000000e+00" cType="1" res="1.4810103457421064e-03" rms="3.8983482122421265e-01" purity="6.2294286489486694e-01" nType="-99"/>
            <Node pos="r" depth="3" NCoef="0" IVar="-1" Cut="0.0000000000000000e+00" cType="1" res="1.0906751267611980e-02" rms="3.9816641807556152e-01" purity="5.1796245574951172e-01" nType="-99"/>
          </Node>
          <Node pos="r" depth="2" NCoef="0" IVar="-1" Cut="0.0000000000000000e+00" cType="1" res="-1.8742861226201057e-02" rms="3.1549486517906189e-01" purity="1.8049187958240509e-01" nType="-99"/>
        </Node>
      </Node>
    </BinaryTree>
    <BinaryTree type="DecisionTree" boostWeight="1.0000000000000000e+00" itree="512">
      <Node pos="s" depth="0" NCoef="0" IVar="6" Cut="-1.7238407135009766e+00" cType="1" res="4.2877258965745568e-04" rms="3.8358289003372192e-01" purity="5.0337588787078857e-01" nType="0">
        <Node pos="l" depth="1" NCoef="0" IVar="-1" Cut="0.0000000000000000e+00" cType="1" res="2.3464821279048920e-02" rms="3.4425893425941467e-01" purity="1.9181223213672638e-01" nType="-99"/>
        <Node pos="r" depth="1" NCoef="0" IVar="9" Cut="-3.9997977018356323e-01" cType="1" res="-5.6744541507214308e-04" rms="3.8506871461868286e-01" purity="5.1608377695083618e-01" nType="0">
          <Node pos="l" depth="2" NCoef="0" IVar="6" Cut="-6.4678281545639038e-01" cType="1" res="-6.4804167486727238e-03" rms="3.8250976800918579e-01" purity="4.9644026160240173e-01" nType="0">
            <Node pos="l" depth="3" NCoef="0" IVar="-1" Cut="0.0000000000000000e+00" cType="1" res="-1.8219208344817162e-02" rms="3.7793022394180298e-01" purity="3.8077563047409058e-01" nType="-99"/>
            <Node pos="r" depth="3" NCoef="0" IVar="-1" Cut="0.0000000000000000e+00" cType="1" res="1.0673030192265287e-04" rms="3.8376346230506897e-01" purity="5.3429341316223145e-01" nType="-99"/>
          </Node>
          <Node pos="r" depth="2" NCoef="0" IVar="6" Cut="1.5070339441299438e+00" cType="1" res="2.9676859267055988e-03" rms="3.8654729723930359e-01" purity="5.2782785892486572e-01" nType="0">
            <Node pos="l" depth="3" NCoef="0" IVar="-1" Cut="0.0000000000000000e+00" cType="1" res="3.2330304384231567e-03" rms="3.9258775115013123e-01" purity="5.5536293983459473e-01" nType="-99"/>
            <Node pos="r" depth="3" NCoef="0" IVar="-1" Cut="0.0000000000000000e+00" cType="1" res="-2.5277210399508476e-02" rms="2.8719174861907959e-01" purity="1.4126993715763092e-01" nType="-99"/>
          </Node>
        </Node>
      </Node>
    </BinaryTree>
    <BinaryTree type="DecisionTree" boostWeight="1.0000000000000000e+00" itree="513">
      <Node pos="s" depth="0" NCoef="0" IVar="8" Cut="9.3332475423812866e-01" cType="1" res="5.7374261086806655e-04" rms="3.8630560040473938e-01" purity="5.0131547451019287e-01" nType="0">
        <Node pos="l" depth="1" NCoef="0" IVar="8" Cut="5.7774746417999268e-01" cType="1" res="-2.5293554645031691e-03" rms="3.8573366403579712e-01" purity="5.2561008930206299e-01" nType="0">
          <Node pos="l" depth="2" NCoef="0" IVar="6" Cut="-3.8567748665809631e-01" cType="1" res="-4.9658206989988685e-04" rms="3.8614088296890259e-01" purity="5.2529054880142212e-01" nType="0">
            <Node pos="l" depth="3" NCoef="0" IVar="-1" Cut="0.0000000000000000e+00" cType="1" res="4.7497460618615150e-03" rms="3.8610568642616272e-01" purity="4.7098442912101746e-01" nType="-99"/>
            <Node pos="r" depth="3" NCoef="0" IVar="-1" Cut="0.0000000000000000e+00" cType="1" res="-3.1595465261489153e-03" rms="3.8609421253204346e-01" purity="5.5593943595886230e-01" nType="-99"/>
          </Node>
          <Node pos="r" depth="2" NCoef="0" IVar="9" Cut="-1.3330586254596710e-01" cType="1" res="-1.8023753538727760e-02" rms="3.8226029276847839e-01" purity="5.2804607152938843e-01" nType="0">
            <Node pos="l" depth="3" NCoef="0" IVar="-1" Cut="0.0000000000000000e+00" cType="1" res="-8.9866010239347816e-04" rms="3.8218897581100464e-01" purity="5.7518965005874634e-01" nType="-99"/>
            <Node pos="r" depth="3" NCoef="0" IVar="-1" Cut="0.0000000000000000e+00" cType="1" res="-2.0840194076299667e-02" rms="3.8178843259811401e-01" purity="4.9005877971649170e-01" nType="-99"/>
          </Node>
        </Node>
        <Node pos="r" depth="1" NCoef="0" IVar="9" Cut="6.6663157939910889e-01" cType="1" res="1.2113754637539387e-02" rms="3.8820761442184448e-01" purity="4.1096702218055725e-01" nType="0">
          <Node pos="l" depth="2" NCoef="0" IVar="6" Cut="1.5940980613231659e-01" cType="1" res="8.2596740685403347e-04" rms="3.8940572738647461e-01" purity="4.4413810968399048e-01" nType="0">
            <Node pos="l" depth="3" NCoef="0" IVar="-1" Cut="0.0000000000000000e+00" cType="1" res="-8.6936531588435173e-03" rms="3.8821700215339661e-01" purity="4.5228528976440430e-01" nType="-99"/>
            <Node pos="r" depth="3" NCoef="0" IVar="-1" Cut="0.0000000000000000e+00" cType="1" res="1.1181371286511421e-02" rms="3.9011755585670471e-01" purity="4.3502011895179749e-01" nType="-99"/>
          </Node>
          <Node pos="r" depth="2" NCoef="0" IVar="9" Cut="1.2761477231979370e+00" cType="1" res="3.1555633991956711e-02" rms="3.8536089658737183e-01" purity="3.5383376479148865e-01" nType="0">
            <Node pos="l" depth="3" NCoef="0" IVar="-1" Cut="0.0000000000000000e+00" cType="1" res="3.4255843609571457e-02" rms="3.9996665716171265e-01" purity="4.3767109513282776e-01" nType="-99"/>
            <Node pos="r" depth="3" NCoef="0" IVar="-1" Cut="0.0000000000000000e+00" cType="1" res="1.1839940212666988e-02" rms="3.7224680185317993e-01" purity="2.8522041440010071e-01" nType="-99"/>
          </Node>
        </Node>
      </Node>
    </BinaryTree>
    <BinaryTree type="DecisionTree" boostWeight="1.0000000000000000e+00" itree="514">
      <Node pos="s" depth="0" NCoef="0" IVar="9" Cut="6.6666418313980103e-01" cType="1" res="1.4568773331120610e-03" rms="3.8721200823783875e-01" purity="4.9895879626274109e-01" nType="0">
        <Node pos="l" depth="1" NCoef="0" IVar="4" Cut="2.2021345520019531e+02" cType="1" res="6.1126663349568844e-03" rms="3.8998100161552429e-01" purity="5.1942300796508789e-01" nType="0">
          <Node pos="l" depth="2" NCoef="0" IVar="4" Cut="6.6311462402343750e+01" cType="1" res="8.0395964905619621e-03" rms="3.9464446902275085e-01" purity="4.8899769783020020e-01" nType="0">
            <Node pos="l" depth="3" NCoef="0" IVar="-1" Cut="0.0000000000000000e+00" cType="1" res="2.5968588888645172e-02" rms="3.5206311941146851e-01" purity="1.8605537712574005e-01" nType="-99"/>
            <Node pos="r" depth="3" NCoef="0" IVar="-1" Cut="0.0000000000000000e+00" cType="1" res="4.1314596310257912e-03" rms="3.9753818511962891e-01" purity="5.1115614175796509e-01" nType="-99"/>
          </Node>
          <Node pos="r" depth="2" NCoef="0" IVar="8" Cut="-1.3408471643924713e-01" cType="1" res="-1.0643016546964645e-02" rms="3.4634444117546082e-01" purity="7.8398716449737549e-01" nType="0">
            <Node pos="l" depth="3" NCoef="0" IVar="-1" Cut="0.0000000000000000e+00" cType="1" res="-2.0571941509842873e-02" rms="3.5547128319740295e-01" purity="7.5026941299438477e-01" nType="-99"/>
            <Node pos="r" depth="3" NCoef="0" IVar="-1" Cut="0.0000000000000000e+00" cType="1" res="2.3817500914447010e-04" rms="3.3865442872047424e-01" purity="8.1028479337692261e-01" nType="-99"/>
          </Node>
        </Node>
        <Node pos="r" depth="1" NCoef="0" IVar="7" Cut="-9.3326067924499512e-01" cType="1" res="-9.3605900183320045e-03" rms="3.8048076629638672e-01" purity="4.5141118764877319e-01" nType="0">
          <Node pos="l" depth="2" NCoef="0" IVar="5" Cut="7.4767974853515625e+01" cType="1" res="5.1713623106479645e-03" rms="3.8377210497856140e-01" purity="3.5593667626380920e-01" nType="0">
            <Node pos="l" depth="3" NCoef="0" IVar="-1" Cut="0.0000000000000000e+00" cType="1" res="4.0238988585770130e-03" rms="3.5918870568275452e-01" purity="2.1647597849369049e-01" nType="-99"/>
            <Node pos="r" depth="3" NCoef="0" IVar="-1" Cut="0.0000000000000000e+00" cType="1" res="3.1412045937031507e-03" rms="4.0592974424362183e-01" purity="4.8954400420188904e-01" nType="-99"/>
          </Node>
          <Node pos="r" depth="2" NCoef="0" IVar="3" Cut="2.3948475646972656e+02" cType="1" res="-1.2347050011157990e-02" rms="3.7973195314407349e-01" purity="4.7103217244148254e-01" nType="0">
            <Node pos="l" depth="3" NCoef="0" IVar="-1" Cut="0.0000000000000000e+00" cType="1" res="-1.2173250317573547e-02" rms="3.8227176666259766e-01" purity="3.7783306837081909e-01" nType="-99"/>
            <Node pos="r" depth="3" NCoef="0" IVar="-1" Cut="0.0000000000000000e+00" cType="1" res="1.2849993072450161e-04" rms="3.7402349710464478e-01" purity="6.6708028316497803e-01" nType="-99"/>
          </Node>
        </Node>
      </Node>
    </BinaryTree>
    <BinaryTree type="DecisionTree" boostWeight="1.0000000000000000e+00" itree="515">
      <Node pos="s" depth="0" NCoef="0" IVar="4" Cut="9.5696685791015625e+01" cType="1" res="-4.1000265628099442e-03" rms="3.8521480560302734e-01" purity="4.9567195773124695e-01" nType="0">
        <Node pos="l" depth="1" NCoef="0" IVar="7" Cut="-9.3306517601013184e-01" cType="1" res="2.4944294709712267e-03" rms="3.6943626403808594e-01" purity="2.3678709566593170e-01" nType="0">
          <Node pos="l" depth="2" NCoef="0" IVar="4" Cut="7.4068672180175781e+01" cType="1" res="-1.6717195510864258e-02" rms="3.0924990773200989e-01" purity="1.3794156908988953e-01" nType="0">
            <Node pos="l" depth="3" NCoef="0" IVar="-1" Cut="0.0000000000000000e+00" cType="1" res="-4.5769587159156799e-02" rms="2.3402017354965210e-01" purity="6.8830870091915131e-02" nType="-99"/>
            <Node pos="r" depth="3" NCoef="0" IVar="-1" Cut="0.0000000000000000e+00" cType="1" res="-1.3588716974481940e-03" rms="3.5127034783363342e-01" purity="1.8580986559391022e-01" nType="-99"/>
          </Node>
          <Node pos="r" depth="2" NCoef="0" IVar="2" Cut="4.4084182739257812e+02" cType="1" res="8.0050071701407433e-03" rms="3.8479015231132507e-01" purity="2.6513949036598206e-01" nType="0">
            <Node pos="l" depth="3" NCoef="0" IVar="-1" Cut="0.0000000000000000e+00" cType="1" res="1.0836015455424786e-02" rms="3.8391005992889404e-01" purity="2.6188102364540100e-01" nType="-99"/>
            <Node pos="r" depth="3" NCoef="0" IVar="-1" Cut="0.0000000000000000e+00" cType="1" res="-1.3148043304681778e-02" rms="3.8674697279930115e-01" purity="2.7727392315864563e-01" nType="-99"/>
          </Node>
        </Node>
        <Node pos="r" depth="1" NCoef="0" IVar="7" Cut="1.3321650028228760e-01" cType="1" res="-6.6816024482250214e-03" rms="3.9118814468383789e-01" purity="5.9701937437057495e-01" nType="0">
          <Node pos="l" depth="2" NCoef="0" IVar="9" Cut="-1.7331638336181641e+00" cType="1" res="-1.8463233718648553e-03" rms="3.9444565773010254e-01" purity="6.1035698652267456e-01" nType="0">
            <Node pos="l" depth="3" NCoef="0" IVar="-1" Cut="0.0000000000000000e+00" cType="1" res="1.4493224211037159e-02" rms="4.0265285968780518e-01" purity="5.0491547584533691e-01" nType="-99"/>
            <Node pos="r" depth="3" NCoef="0" IVar="-1" Cut="0.0000000000000000e+00" cType="1" res="-2.7003199793398380e-03" rms="3.9360460638999939e-01" purity="6.1996197700500488e-01" nType="-99"/>
          </Node>
          <Node pos="r" depth="2" NCoef="0" IVar="3" Cut="1.7802935791015625e+02" cType="1" res="-1.2833583168685436e-02" rms="3.8691663742065430e-01" purity="5.8004975318908691e-01" nType="0">
            <Node pos="l" depth="3" NCoef="0" IVar="-1" Cut="0.0000000000000000e+00" cType="1" res="-1.4888351783156395e-02" rms="4.0370738506317139e-01" purity="4.0084066987037659e-01" nType="-99"/>
            <Node pos="r" depth="3" NCoef="0" IVar="-1" Cut="0.0000000000000000e+00" cType="1" res="-5.4744598455727100e-03" rms="3.8011297583580017e-01" purity="6.4937323331832886e-01" nType="-99"/>
          </Node>
        </Node>
      </Node>
    </BinaryTree>
    <BinaryTree type="DecisionTree" boostWeight="1.0000000000000000e+00" itree="516">
      <Node pos="s" depth="0" NCoef="0" IVar="8" Cut="-1.3338100910186768e-01" cType="1" res="-2.3857393534854054e-04" rms="3.8448169827461243e-01" purity="5.0014895200729370e-01" nType="0">
        <Node pos="l" depth="1" NCoef="0" IVar="8" Cut="-1.4032024145126343e+00" cType="1" res="5.6663588620722294e-03" rms="3.8591325283050537e-01" purity="4.9866330623626709e-01" nType="0">
          <Node pos="l" depth="2" NCoef="0" IVar="7" Cut="1.3156549632549286e-01" cType="1" res="-6.8689323961734772e-03" rms="3.6470708250999451e-01" purity="3.2784387469291687e-01" nType="0">
            <Node pos="l" depth="3" NCoef="0" IVar="-1" Cut="0.0000000000000000e+00" cType="1" res="2.6555396616458893e-03" rms="3.6582604050636292e-01" purity="3.4405520558357239e-01" nType="-99"/>
            <Node pos="r" depth="3" NCoef="0" IVar="-1" Cut="0.0000000000000000e+00" cType="1" res="-1.7066486179828644e-02" rms="3.6228933930397034e-01" purity="3.0203810334205627e-01" nType="-99"/>
          </Node>
          <Node pos="r" depth="2" NCoef="0" IVar="7" Cut="3.9987593889236450e-01" cType="1" res="9.7806928679347038e-03" rms="3.9253669977188110e-01" purity="5.5472970008850098e-01" nType="0">
            <Node pos="l" depth="3" NCoef="0" IVar="-1" Cut="0.0000000000000000e+00" cType="1" res="1.2027496704831719e-03" rms="3.9051312208175659e-01" purity="5.6555873155593872e-01" nType="-99"/>
            <Node pos="r" depth="3" NCoef="0" IVar="-1" Cut="0.0000000000000000e+00" cType="1" res="1.7151499167084694e-02" rms="3.9628207683563232e-01" purity="5.3166443109512329e-01" nType="-99"/>
          </Node>
        </Node>
        <Node pos="r" depth="1" NCoef="0" IVar="6" Cut="-9.2579740285873413e-01" cType="1" res="-5.2648647688329220e-03" rms="3.8318726420402527e-01" purity="5.0141358375549316e-01" nType="0">
          <Node pos="l" depth="2" NCoef="0" IVar="5" Cut="7.5030166625976562e+01" cType="1" res="-1.9071467220783234e-02" rms="3.6016234755516052e-01" purity="3.3102715015411377e-01" nType="0">
            <Node pos="l" depth="3" NCoef="0" IVar="-1" Cut="0.0000000000000000e+00" cType="1" res="-2.4594260379672050e-02" rms="3.1643113493919373e-01" purity="1.6201004385948181e-01" nType="-99"/>
            <Node pos="r" depth="3" NCoef="0" IVar="-1" Cut="0.0000000000000000e+00" cType="1" res="-6.9401119835674763e-03" rms="3.9389297366142273e-01" purity="4.7709053754806519e-01" nType="-99"/>
          </Node>
          <Node pos="r" depth="2" NCoef="0" IVar="6" Cut="3.1609392166137695e-01" cType="1" res="-2.9713248368352652e-03" rms="3.8683173060417175e-01" purity="5.2971804141998291e-01" nType="0">
            <Node pos="l" depth="3" NCoef="0" IVar="-1" Cut="0.0000000000000000e+00" cType="1" res="1.4647583011537790e-03" rms="3.9260217547416687e-01" purity="6.1305409669876099e-01" nType="-99"/>
            <Node pos="r" depth="3" NCoef="0" IVar="-1" Cut="0.0000000000000000e+00" cType="1" res="-6.2021925114095211e-03" rms="3.7986344099044800e-01" purity="4.3202951550483704e-01" nType="-99"/>
          </Node>
        </Node>
      </Node>
    </BinaryTree>
    <BinaryTree type="DecisionTree" boostWeight="1.0000000000000000e+00" itree="517">
      <Node pos="s" depth="0" NCoef="0" IVar="7" Cut="-1.1998851299285889e+00" cType="1" res="-8.3018228178843856e-04" rms="3.8326862454414368e-01" purity="5.0154906511306763e-01" nType="0">
        <Node pos="l" depth="1" NCoef="0" IVar="7" Cut="-1.5046482086181641e+00" cType="1" res="-1.1024236679077148e-02" rms="3.5464105010032654e-01" purity="2.9877054691314697e-01" nType="0">
          <Node pos="l" depth="2" NCoef="0" IVar="4" Cut="1.2796176147460938e+02" cType="1" res="2.7266670949757099e-03" rms="3.4568747878074646e-01" purity="2.5551933050155640e-01" nType="0">
            <Node pos="l" depth="3" NCoef="0" IVar="-1" Cut="0.0000000000000000e+00" cType="1" res="-1.1952478438615799e-02" rms="3.1032094359397888e-01" purity="1.4738804101943970e-01" nType="-99"/>
            <Node pos="r" depth="3" NCoef="0" IVar="-1" Cut="0.0000000000000000e+00" cType="1" res="1.8959466367959976e-02" rms="3.9794355630874634e-01" purity="4.4183751940727234e-01" nType="-99"/>
          </Node>
          <Node pos="r" depth="2" NCoef="0" IVar="-1" Cut="0.0000000000000000e+00" cType="1" res="-2.3765785619616508e-02" rms="3.6896574497222900e-01" purity="3.7687623500823975e-01" nType="-99"/>
        </Node>
        <Node pos="r" depth="1" NCoef="0" IVar="7" Cut="1.6571009159088135e+00" cType="1" res="7.1415072306990623e-04" rms="3.8739764690399170e-01" purity="5.3226870298385620e-01" nType="0">
          <Node pos="l" depth="2" NCoef="0" IVar="7" Cut="7.0474737882614136e-01" cType="1" res="1.9429193343967199e-03" rms="3.9190378785133362e-01" purity="5.5905884504318237e-01" nType="0">
            <Node pos="l" depth="3" NCoef="0" IVar="-1" Cut="0.0000000000000000e+00" cType="1" res="-4.4403967331163585e-04" rms="3.9034274220466614e-01" purity="5.8531415462493896e-01" nType="-99"/>
            <Node pos="r" depth="3" NCoef="0" IVar="-1" Cut="0.0000000000000000e+00" cType="1" res="6.7504188045859337e-03" rms="3.9680960774421692e-01" purity="4.7380638122558594e-01" nType="-99"/>
          </Node>
          <Node pos="r" depth="2" NCoef="0" IVar="3" Cut="1.7219708251953125e+02" cType="1" res="-1.4504122547805309e-02" rms="3.2609069347381592e-01" purity="2.0047350227832794e-01" nType="0">
            <Node pos="l" depth="3" NCoef="0" IVar="-1" Cut="0.0000000000000000e+00" cType="1" res="2.5894043501466513e-03" rms="3.1833276152610779e-01" purity="1.5180484950542450e-01" nType="-99"/>
            <Node pos="r" depth="3" NCoef="0" IVar="-1" Cut="0.0000000000000000e+00" cType="1" res="-2.5838604196906090e-02" rms="3.3383134007453918e-01" purity="2.5725522637367249e-01" nType="-99"/>
          </Node>
        </Node>
      </Node>
    </BinaryTree>
    <BinaryTree type="DecisionTree" boostWeight="1.0000000000000000e+00" itree="518">
      <Node pos="s" depth="0" NCoef="0" IVar="9" Cut="6.6666722297668457e-01" cType="1" res="6.3745639636181295e-05" rms="3.8504207134246826e-01" purity="4.9832531809806824e-01" nType="0">
        <Node pos="l" depth="1" NCoef="0" IVar="8" Cut="-1.2000291347503662e+00" cType="1" res="-4.8962235450744629e-03" rms="3.8317534327507019e-01" purity="5.1085811853408813e-01" nType="0">
          <Node pos="l" depth="2" NCoef="0" IVar="8" Cut="-1.7333524227142334e+00" cType="1" res="7.3424004949629307e-03" rms="3.7126186490058899e-01" purity="3.8137793540954590e-01" nType="0">
            <Node pos="l" depth="3" NCoef="0" IVar="-1" Cut="0.0000000000000000e+00" cType="1" res="-1.0523482225835323e-02" rms="3.4732586145401001e-01" purity="2.7162081003189087e-01" nType="-99"/>
            <Node pos="r" depth="3" NCoef="0" IVar="-1" Cut="0.0000000000000000e+00" cType="1" res="1.5646386891603470e-02" rms="3.8818091154098511e-01" purity="4.6728190779685974e-01" nType="-99"/>
          </Node>
          <Node pos="r" depth="2" NCoef="0" IVar="3" Cut="2.4212902832031250e+02" cType="1" res="-7.3303701356053352e-03" rms="3.8545459508895874e-01" purity="5.3661048412322998e-01" nType="0">
            <Node pos="l" depth="3" NCoef="0" IVar="-1" Cut="0.0000000000000000e+00" cType="1" res="-7.4452022090554237e-03" rms="3.9617410302162170e-01" purity="4.4633823633193970e-01" nType="-99"/>
            <Node pos="r" depth="3" NCoef="0" IVar="-1" Cut="0.0000000000000000e+00" cType="1" res="9.3022442888468504e-04" rms="3.6400815844535828e-01" purity="7.0856934785842896e-01" nType="-99"/>
          </Node>
        </Node>
        <Node pos="r" depth="1" NCoef="0" IVar="8" Cut="1.7333401441574097e+00" cType="1" res="1.1279798112809658e-02" rms="3.8899716734886169e-01" purity="4.6998462080955505e-01" nType="0">
          <Node pos="l" depth="2" NCoef="0" IVar="8" Cut="6.5399855375289917e-01" cType="1" res="1.4972086995840073e-02" rms="3.9454075694084167e-01" purity="4.9691572785377502e-01" nType="0">
            <Node pos="l" depth="3" NCoef="0" IVar="-1" Cut="0.0000000000000000e+00" cType="1" res="4.1256328113377094e-03" rms="3.9220219850540161e-01" purity="5.1678329706192017e-01" nType="-99"/>
            <Node pos="r" depth="3" NCoef="0" IVar="-1" Cut="0.0000000000000000e+00" cType="1" res="2.5726821273565292e-02" rms="3.9992284774780273e-01" purity="4.4242861866950989e-01" nType="-99"/>
          </Node>
          <Node pos="r" depth="2" NCoef="0" IVar="-1" Cut="0.0000000000000000e+00" cType="1" res="-2.3987898603081703e-02" rms="3.2190510630607605e-01" purity="1.8464699387550354e-01" nType="-99"/>
        </Node>
      </Node>
    </BinaryTree>
    <BinaryTree type="DecisionTree" boostWeight="1.0000000000000000e+00" itree="519">
      <Node pos="s" depth="0" NCoef="0" IVar="2" Cut="6.5569555664062500e+02" cType="1" res="-1.7318178433924913e-03" rms="3.8569951057434082e-01" purity="4.9470326304435730e-01" nType="0">
        <Node pos="l" depth="1" NCoef="0" IVar="4" Cut="1.8650347900390625e+02" cType="1" res="-7.6469103805720806e-04" rms="3.8506585359573364e-01" purity="4.9163457751274109e-01" nType="0">
          <Node pos="l" depth="2" NCoef="0" IVar="0" Cut="6.4166552734375000e+02" cType="1" res="1.2318994849920273e-03" rms="3.9323630928993225e-01" purity="4.2870223522186279e-01" nType="0">
            <Node pos="l" depth="3" NCoef="0" IVar="-1" Cut="0.0000000000000000e+00" cType="1" res="1.8425404559820890e-03" rms="3.9477393031120300e-01" purity="4.0495425462722778e-01" nType="-99"/>
            <Node pos="r" depth="3" NCoef="0" IVar="-1" Cut="0.0000000000000000e+00" cType="1" res="-1.8674811348319054e-02" rms="3.6921638250350952e-01" purity="7.7534240484237671e-01" nType="-99"/>
          </Node>
          <Node pos="r" depth="2" NCoef="0" IVar="0" Cut="4.5082568359375000e+02" cType="1" res="-9.5556303858757019e-03" rms="3.4667271375656128e-01" purity="7.6872414350509644e-01" nType="0">
            <Node pos="l" depth="3" NCoef="0" IVar="-1" Cut="0.0000000000000000e+00" cType="1" res="-1.3064851984381676e-02" rms="4.0157917141914368e-01" purity="6.3795936107635498e-01" nType="-99"/>
            <Node pos="r" depth="3" NCoef="0" IVar="-1" Cut="0.0000000000000000e+00" cType="1" res="4.9331370973959565e-04" rms="2.9055988788604736e-01" purity="8.8184982538223267e-01" nType="-99"/>
          </Node>
        </Node>
        <Node pos="r" depth="1" NCoef="0" IVar="-1" Cut="0.0000000000000000e+00" cType="1" res="-1.1530783027410507e-02" rms="3.9670804142951965e-01" purity="5.5089944601058960e-01" nType="-99"/>
      </Node>
    </BinaryTree>
    <BinaryTree type="DecisionTree" boostWeight="1.0000000000000000e+00" itree="520">
      <Node pos="s" depth="0" NCoef="0" IVar="8" Cut="1.3314799964427948e-01" cType="1" res="-1.9055108714383096e-04" rms="3.8475927710533142e-01" purity="4.9963992834091187e-01" nType="0">
        <Node pos="l" depth="1" NCoef="0" IVar="8" Cut="-1.4620129764080048e-01" cType="1" res="-4.3281633406877518e-03" rms="3.8475635647773743e-01" purity="5.0609987974166870e-01" nType="0">
          <Node pos="l" depth="2" NCoef="0" IVar="6" Cut="-6.3689786195755005e-01" cType="1" res="-1.2937653809785843e-03" rms="3.8327953219413757e-01" purity="4.9265909194946289e-01" nType="0">
            <Node pos="l" depth="3" NCoef="0" IVar="-1" Cut="0.0000000000000000e+00" cType="1" res="-8.9229149743914604e-03" rms="3.7018811702728271e-01" purity="3.6626410484313965e-01" nType="-99"/>
            <Node pos="r" depth="3" NCoef="0" IVar="-1" Cut="0.0000000000000000e+00" cType="1" res="2.0236433483660221e-03" rms="3.8809815049171448e-01" purity="5.4117947816848755e-01" nType="-99"/>
          </Node>
          <Node pos="r" depth="2" NCoef="0" IVar="3" Cut="2.4071830749511719e+02" cType="1" res="-1.8700804561376572e-02" rms="3.9135625958442688e-01" purity="5.6976324319839478e-01" nType="0">
            <Node pos="l" depth="3" NCoef="0" IVar="-1" Cut="0.0000000000000000e+00" cType="1" res="-2.0922668278217316e-02" rms="4.1295397281646729e-01" purity="4.5339787006378174e-01" nType="-99"/>
            <Node pos="r" depth="3" NCoef="0" IVar="-1" Cut="0.0000000000000000e+00" cType="1" res="5.8126798830926418e-03" rms="3.5252180695533752e-01" purity="7.5578379631042480e-01" nType="-99"/>
          </Node>
        </Node>
        <Node pos="r" depth="1" NCoef="0" IVar="8" Cut="1.1489591598510742e+00" cType="1" res="4.7682616859674454e-03" rms="3.8470417261123657e-01" purity="4.9189782142639160e-01" nType="0">
          <Node pos="l" depth="2" NCoef="0" IVar="3" Cut="2.0463674926757812e+02" cType="1" res="1.0745056904852390e-02" rms="3.8771432638168335e-01" purity="5.6543385982513428e-01" nType="0">
            <Node pos="l" depth="3" NCoef="0" IVar="-1" Cut="0.0000000000000000e+00" cType="1" res="1.2109400704503059e-02" rms="4.0466502308845520e-01" purity="4.3181630969047546e-01" nType="-99"/>
            <Node pos="r" depth="3" NCoef="0" IVar="-1" Cut="0.0000000000000000e+00" cType="1" res="1.1513329809531569e-03" rms="3.6946484446525574e-01" purity="7.0125138759613037e-01" nType="-99"/>
          </Node>
          <Node pos="r" depth="2" NCoef="0" IVar="7" Cut="-9.3272787332534790e-01" cType="1" res="-6.4009088091552258e-03" rms="3.7876212596893311e-01" purity="3.5447689890861511e-01" nType="0">
            <Node pos="l" depth="3" NCoef="0" IVar="-1" Cut="0.0000000000000000e+00" cType="1" res="1.4621075242757797e-02" rms="3.5630765557289124e-01" purity="2.6042437553405762e-01" nType="-99"/>
            <Node pos="r" depth="3" NCoef="0" IVar="-1" Cut="0.0000000000000000e+00" cType="1" res="-8.0457702279090881e-03" rms="3.8338989019393921e-01" purity="3.7553727626800537e-01" nType="-99"/>
          </Node>
        </Node>
      </Node>
    </BinaryTree>
    <BinaryTree type="DecisionTree" boostWeight="1.0000000000000000e+00" itree="521">
      <Node pos="s" depth="0" NCoef="0" IVar="5" Cut="8.5090904235839844e+01" cType="1" res="8.2240282790735364e-04" rms="3.8502597808837891e-01" purity="4.9898523092269897e-01" nType="0">
        <Node pos="l" depth="1" NCoef="0" IVar="0" Cut="5.7808862304687500e+02" cType="1" res="-4.3590744026005268e-03" rms="3.8921251893043518e-01" purity="3.3344334363937378e-01" nType="0">
          <Node pos="l" depth="2" NCoef="0" IVar="5" Cut="7.0051780700683594e+01" cType="1" res="-1.8147575901821256e-03" rms="3.8397285342216492e-01" purity="2.9779118299484253e-01" nType="0">
            <Node pos="l" depth="3" NCoef="0" IVar="-1" Cut="0.0000000000000000e+00" cType="1" res="-5.7133869268000126e-03" rms="3.6671888828277588e-01" purity="2.4278669059276581e-01" nType="-99"/>
            <Node pos="r" depth="3" NCoef="0" IVar="-1" Cut="0.0000000000000000e+00" cType="1" res="5.9546022675931454e-03" rms="4.1591012477874756e-01" purity="4.0724164247512817e-01" nType="-99"/>
          </Node>
          <Node pos="r" depth="2" NCoef="0" IVar="7" Cut="-1.3300640881061554e-01" cType="1" res="-2.4787915870547295e-02" rms="4.2842179536819458e-01" purity="6.1970174312591553e-01" nType="0">
            <Node pos="l" depth="3" NCoef="0" IVar="-1" Cut="0.0000000000000000e+00" cType="1" res="-1.1007009015884250e-04" rms="4.2516162991523743e-01" purity="6.3139289617538452e-01" nType="-99"/>
            <Node pos="r" depth="3" NCoef="0" IVar="-1" Cut="0.0000000000000000e+00" cType="1" res="-2.7423739433288574e-02" rms="4.3010690808296204e-01" purity="6.0943359136581421e-01" nType="-99"/>
          </Node>
        </Node>
        <Node pos="r" depth="1" NCoef="0" IVar="8" Cut="1.1996790170669556e+00" cType="1" res="6.8481522612273693e-03" rms="3.8001042604446411e-01" purity="6.9150054454803467e-01" nType="0">
          <Node pos="l" depth="2" NCoef="0" IVar="8" Cut="-1.6572347879409790e+00" cType="1" res="4.0345843881368637e-03" rms="3.7562263011932373e-01" purity="7.0949494838714600e-01" nType="0">
            <Node pos="l" depth="3" NCoef="0" IVar="-1" Cut="0.0000000000000000e+00" cType="1" res="-2.2375902161002159e-02" rms="3.6979284882545471e-01" purity="4.7382891178131104e-01" nType="-99"/>
            <Node pos="r" depth="3" NCoef="0" IVar="-1" Cut="0.0000000000000000e+00" cType="1" res="4.7790207900106907e-03" rms="3.7588948011398315e-01" purity="7.2640216350555420e-01" nType="-99"/>
          </Node>
          <Node pos="r" depth="2" NCoef="0" IVar="4" Cut="1.6012318420410156e+02" cType="1" res="2.5741668418049812e-02" rms="4.0775263309478760e-01" purity="5.7066553831100464e-01" nType="0">
            <Node pos="l" depth="3" NCoef="0" IVar="-1" Cut="0.0000000000000000e+00" cType="1" res="2.3220203816890717e-02" rms="4.2218521237373352e-01" purity="5.0617480278015137e-01" nType="-99"/>
            <Node pos="r" depth="3" NCoef="0" IVar="-1" Cut="0.0000000000000000e+00" cType="1" res="4.5749796554446220e-03" rms="3.8698774576187134e-01" purity="6.5624648332595825e-01" nType="-99"/>
          </Node>
        </Node>
      </Node>
    </BinaryTree>
    <BinaryTree type="DecisionTree" boostWeight="1.0000000000000000e+00" itree="522">
      <Node pos="s" depth="0" NCoef="0" IVar="8" Cut="9.3331772089004517e-01" cType="1" res="-1.5664868988096714e-03" rms="3.8114309310913086e-01" purity="4.9967867136001587e-01" nType="0">
        <Node pos="l" depth="1" NCoef="0" IVar="1" Cut="1.0774588623046875e+03" cType="1" res="-5.2451910451054573e-03" rms="3.8060113787651062e-01" purity="5.2218484878540039e-01" nType="0">
          <Node pos="l" depth="2" NCoef="0" IVar="9" Cut="1.2002273797988892e+00" cType="1" res="-1.9473180174827576e-02" rms="3.6713844537734985e-01" purity="2.1658049523830414e-01" nType="0">
            <Node pos="l" depth="3" NCoef="0" IVar="-1" Cut="0.0000000000000000e+00" cType="1" res="-1.7014505341649055e-02" rms="3.6593633890151978e-01" purity="2.1594886481761932e-01" nType="-99"/>
            <Node pos="r" depth="3" NCoef="0" IVar="-1" Cut="0.0000000000000000e+00" cType="1" res="4.9737542867660522e-03" rms="3.7137126922607422e-01" purity="2.1942415833473206e-01" nType="-99"/>
          </Node>
          <Node pos="r" depth="2" NCoef="0" IVar="6" Cut="9.3691831827163696e-01" cType="1" res="-4.8276204324793071e-05" rms="3.8527029752731323e-01" purity="6.3380986452102661e-01" nType="0">
            <Node pos="l" depth="3" NCoef="0" IVar="-1" Cut="0.0000000000000000e+00" cType="1" res="1.8602435011416674e-03" rms="3.8569560647010803e-01" purity="6.6433173418045044e-01" nType="-99"/>
            <Node pos="r" depth="3" NCoef="0" IVar="-1" Cut="0.0000000000000000e+00" cType="1" res="-1.2771163135766983e-02" rms="3.8181242346763611e-01" purity="4.2724284529685974e-01" nType="-99"/>
          </Node>
        </Node>
        <Node pos="r" depth="1" NCoef="0" IVar="7" Cut="-9.3324846029281616e-01" cType="1" res="1.1895458213984966e-02" rms="3.8281846046447754e-01" purity="4.1731902956962585e-01" nType="0">
          <Node pos="l" depth="2" NCoef="0" IVar="-1" Cut="0.0000000000000000e+00" cType="1" res="-7.0849675685167313e-03" rms="3.4700751304626465e-01" purity="2.6428514719009399e-01" nType="-99"/>
          <Node pos="r" depth="2" NCoef="0" IVar="2" Cut="4.4954565429687500e+02" cType="1" res="1.6165280714631081e-02" rms="3.8956978917121887e-01" purity="4.4848364591598511e-01" nType="0">
            <Node pos="l" depth="3" NCoef="0" IVar="-1" Cut="0.0000000000000000e+00" cType="1" res="1.4966794289648533e-02" rms="3.9235571026802063e-01" purity="4.4887217879295349e-01" nType="-99"/>
            <Node pos="r" depth="3" NCoef="0" IVar="-1" Cut="0.0000000000000000e+00" cType="1" res="-3.9732418954372406e-03" rms="3.7891557812690735e-01" purity="4.4713681936264038e-01" nType="-99"/>
          </Node>
        </Node>
      </Node>
    </BinaryTree>
    <BinaryTree type="DecisionTree" boostWeight="1.0000000000000000e+00" itree="523">
      <Node pos="s" depth="0" NCoef="0" IVar="9" Cut="-1.3333471119403839e-01" cType="1" res="2.8512470889836550e-03" rms="3.8602435588836670e-01" purity="5.0159531831741333e-01" nType="0">
        <Node pos="l" depth="1" NCoef="0" IVar="9" Cut="-1.1492053270339966e+00" cType="1" res="9.3878200277686119e-03" rms="3.8960105180740356e-01" purity="5.0159734487533569e-01" nType="0">
          <Node pos="l" depth="2" NCoef="0" IVar="4" Cut="1.4375434875488281e+02" cType="1" res="9.6077070338651538e-04" rms="3.8057604432106018e-01" purity="4.1920548677444458e-01" nType="0">
            <Node pos="l" depth="3" NCoef="0" IVar="-1" Cut="0.0000000000000000e+00" cType="1" res="-5.8289957232773304e-03" rms="3.7087038159370422e-01" purity="3.0417257547378540e-01" nType="-99"/>
            <Node pos="r" depth="3" NCoef="0" IVar="-1" Cut="0.0000000000000000e+00" cType="1" res="1.2391494587063789e-02" rms="3.9814144372940063e-01" purity="6.4296728372573853e-01" nType="-99"/>
          </Node>
          <Node pos="r" depth="2" NCoef="0" IVar="2" Cut="5.7560314941406250e+02" cType="1" res="1.4832002110779285e-02" rms="3.9522647857666016e-01" purity="5.5482548475265503e-01" nType="0">
            <Node pos="l" depth="3" NCoef="0" IVar="-1" Cut="0.0000000000000000e+00" cType="1" res="1.2337756343185902e-02" rms="3.9467963576316833e-01" purity="5.5269509553909302e-01" nType="-99"/>
            <Node pos="r" depth="3" NCoef="0" IVar="-1" Cut="0.0000000000000000e+00" cType="1" res="-1.5447014942765236e-02" rms="3.9853957295417786e-01" purity="5.7620447874069214e-01" nType="-99"/>
          </Node>
        </Node>
        <Node pos="r" depth="1" NCoef="0" IVar="3" Cut="2.1455332946777344e+02" cType="1" res="-2.7824596036225557e-03" rms="3.8282531499862671e-01" purity="5.0159353017807007e-01" nType="0">
          <Node pos="l" depth="2" NCoef="0" IVar="7" Cut="1.3327062129974365e-01" cType="1" res="2.4646804668009281e-03" rms="3.9264598488807678e-01" purity="3.8144949078559875e-01" nType="0">
            <Node pos="l" depth="3" NCoef="0" IVar="-1" Cut="0.0000000000000000e+00" cType="1" res="-3.8100949022918940e-03" rms="3.9302012324333191e-01" purity="3.9365088939666748e-01" nType="-99"/>
            <Node pos="r" depth="3" NCoef="0" IVar="-1" Cut="0.0000000000000000e+00" cType="1" res="7.3514464311301708e-03" rms="3.9208668470382690e-01" purity="3.6925545334815979e-01" nType="-99"/>
          </Node>
          <Node pos="r" depth="2" NCoef="0" IVar="6" Cut="-8.9689201116561890e-01" cType="1" res="-9.6943601965904236e-03" rms="3.6937692761421204e-01" purity="6.5985572338104248e-01" nType="0">
            <Node pos="l" depth="3" NCoef="0" IVar="-1" Cut="0.0000000000000000e+00" cType="1" res="-2.6913525536656380e-02" rms="3.6611333489418030e-01" purity="4.5814397931098938e-01" nType="-99"/>
            <Node pos="r" depth="3" NCoef="0" IVar="-1" Cut="0.0000000000000000e+00" cType="1" res="-3.9448630996048450e-03" rms="3.6962568759918213e-01" purity="6.8767607212066650e-01" nType="-99"/>
          </Node>
        </Node>
      </Node>
    </BinaryTree>
    <BinaryTree type="DecisionTree" boostWeight="1.0000000000000000e+00" itree="524">
      <Node pos="s" depth="0" NCoef="0" IVar="8" Cut="-1.7333347797393799e+00" cType="1" res="-1.6906950622797012e-03" rms="3.8511237502098083e-01" purity="4.9666965007781982e-01" nType="0">
        <Node pos="l" depth="1" NCoef="0" IVar="5" Cut="6.5212150573730469e+01" cType="1" res="1.3974291272461414e-02" rms="3.7163412570953369e-01" purity="2.9447346925735474e-01" nType="0">
          <Node pos="l" depth="2" NCoef="0" IVar="-1" Cut="0.0000000000000000e+00" cType="1" res="3.0522875487804413e-02" rms="3.4378159046173096e-01" purity="1.8104882538318634e-01" nType="-99"/>
          <Node pos="r" depth="2" NCoef="0" IVar="-1" Cut="0.0000000000000000e+00" cType="1" res="2.1532955579459667e-03" rms="3.8798704743385315e-01" purity="3.6687180399894714e-01" nType="-99"/>
        </Node>
        <Node pos="r" depth="1" NCoef="0" IVar="9" Cut="-1.9999939203262329e+00" cType="1" res="-2.9063993133604527e-03" rms="3.8611212372779846e-01" purity="5.1236134767532349e-01" nType="0">
          <Node pos="l" depth="2" NCoef="0" IVar="-1" Cut="0.0000000000000000e+00" cType="1" res="-1.7576744779944420e-02" rms="3.7100049853324890e-01" purity="3.5175341367721558e-01" nType="-99"/>
          <Node pos="r" depth="2" NCoef="0" IVar="9" Cut="-1.3142712116241455e+00" cType="1" res="-1.6655180370435119e-03" rms="3.8687145709991455e-01" purity="5.2102315425872803e-01" nType="0">
            <Node pos="l" depth="3" NCoef="0" IVar="-1" Cut="0.0000000000000000e+00" cType="1" res="1.0686808265745640e-02" rms="3.8887897133827209e-01" purity="4.8623225092887878e-01" nType="-99"/>
            <Node pos="r" depth="3" NCoef="0" IVar="-1" Cut="0.0000000000000000e+00" cType="1" res="-2.4087096098810434e-03" rms="3.8659623265266418e-01" purity="5.2490448951721191e-01" nType="-99"/>
          </Node>
        </Node>
      </Node>
    </BinaryTree>
    <BinaryTree type="DecisionTree" boostWeight="1.0000000000000000e+00" itree="525">
      <Node pos="s" depth="0" NCoef="0" IVar="3" Cut="4.3152694702148438e+02" cType="1" res="2.0698206499218941e-03" rms="3.8381865620613098e-01" purity="5.0388699769973755e-01" nType="0">
        <Node pos="l" depth="1" NCoef="0" IVar="3" Cut="1.2355180358886719e+02" cType="1" res="2.9067175928503275e-03" rms="3.8358649611473083e-01" purity="5.0026017427444458e-01" nType="0">
          <Node pos="l" depth="2" NCoef="0" IVar="0" Cut="4.5206890869140625e+02" cType="1" res="1.4184133149683475e-02" rms="3.5764542222023010e-01" purity="1.9787986576557159e-01" nType="0">
            <Node pos="l" depth="3" NCoef="0" IVar="-1" Cut="0.0000000000000000e+00" cType="1" res="3.4758599940687418e-03" rms="3.2732138037681580e-01" purity="1.4830558001995087e-01" nType="-99"/>
            <Node pos="r" depth="3" NCoef="0" IVar="-1" Cut="0.0000000000000000e+00" cType="1" res="2.8994243592023849e-02" rms="4.4659331440925598e-01" purity="3.7278923392295837e-01" nType="-99"/>
          </Node>
          <Node pos="r" depth="2" NCoef="0" IVar="3" Cut="1.6754776000976562e+02" cType="1" res="8.9716596994549036e-04" rms="3.8799262046813965e-01" purity="5.5414205789566040e-01" nType="0">
            <Node pos="l" depth="3" NCoef="0" IVar="-1" Cut="0.0000000000000000e+00" cType="1" res="-7.8829955309629440e-03" rms="4.0225166082382202e-01" purity="3.5370001196861267e-01" nType="-99"/>
            <Node pos="r" depth="3" NCoef="0" IVar="-1" Cut="0.0000000000000000e+00" cType="1" res="3.4175617620348930e-03" rms="3.8346439599990845e-01" purity="6.1492145061492920e-01" nType="-99"/>
          </Node>
        </Node>
        <Node pos="r" depth="1" NCoef="0" IVar="-1" Cut="0.0000000000000000e+00" cType="1" res="-1.6980398446321487e-02" rms="3.9055541157722473e-01" purity="6.2700915336608887e-01" nType="-99"/>
      </Node>
    </BinaryTree>
    <BinaryTree type="DecisionTree" boostWeight="1.0000000000000000e+00" itree="526">
      <Node pos="s" depth="0" NCoef="0" IVar="9" Cut="-1.4666607379913330e+00" cType="1" res="-2.5408139917999506e-03" rms="3.8469350337982178e-01" purity="4.9312835931777954e-01" nType="0">
        <Node pos="l" depth="1" NCoef="0" IVar="8" Cut="-6.6671413183212280e-01" cType="1" res="1.0739617981016636e-02" rms="3.8104781508445740e-01" purity="3.9653313159942627e-01" nType="0">
          <Node pos="l" depth="2" NCoef="0" IVar="-1" Cut="0.0000000000000000e+00" cType="1" res="-8.5595576092600822e-03" rms="3.5482171177864075e-01" purity="2.7623108029365540e-01" nType="-99"/>
          <Node pos="r" depth="2" NCoef="0" IVar="9" Cut="-1.9111064672470093e+00" cType="1" res="2.1899703890085220e-02" rms="3.9334607124328613e-01" purity="4.5819100737571716e-01" nType="0">
            <Node pos="l" depth="3" NCoef="0" IVar="-1" Cut="0.0000000000000000e+00" cType="1" res="2.3561844602227211e-02" rms="3.9669728279113770e-01" purity="4.3009290099143982e-01" nType="-99"/>
            <Node pos="r" depth="3" NCoef="0" IVar="-1" Cut="0.0000000000000000e+00" cType="1" res="3.4063570201396942e-03" rms="3.8883370161056519e-01" purity="4.9011334776878357e-01" nType="-99"/>
          </Node>
        </Node>
        <Node pos="r" depth="1" NCoef="0" IVar="7" Cut="9.3335562944412231e-01" cType="1" res="-4.4302404858171940e-03" rms="3.8517215847969055e-01" purity="5.0687110424041748e-01" nType="0">
          <Node pos="l" depth="2" NCoef="0" IVar="7" Cut="2.2226397693157196e-01" cType="1" res="-1.9090713467448950e-03" rms="3.8924103975296021e-01" purity="5.4498070478439331e-01" nType="0">
            <Node pos="l" depth="3" NCoef="0" IVar="-1" Cut="0.0000000000000000e+00" cType="1" res="-3.5814137663692236e-03" rms="3.8743025064468384e-01" purity="5.2320432662963867e-01" nType="-99"/>
            <Node pos="r" depth="3" NCoef="0" IVar="-1" Cut="0.0000000000000000e+00" cType="1" res="4.3166787363588810e-03" rms="3.9350751042366028e-01" purity="5.9830814599990845e-01" nType="-99"/>
          </Node>
          <Node pos="r" depth="2" NCoef="0" IVar="6" Cut="4.1981437802314758e-01" cType="1" res="-1.4904202893376350e-02" rms="3.6760169267654419e-01" purity="3.4854829311370850e-01" nType="0">
            <Node pos="l" depth="3" NCoef="0" IVar="-1" Cut="0.0000000000000000e+00" cType="1" res="-1.6417982056736946e-02" rms="3.7356552481651306e-01" purity="3.7742277979850769e-01" nType="-99"/>
            <Node pos="r" depth="3" NCoef="0" IVar="-1" Cut="0.0000000000000000e+00" cType="1" res="-3.5526716965250671e-04" rms="3.5749554634094238e-01" purity="3.0290603637695312e-01" nType="-99"/>
          </Node>
        </Node>
      </Node>
    </BinaryTree>
    <BinaryTree type="DecisionTree" boostWeight="1.0000000000000000e+00" itree="527">
      <Node pos="s" depth="0" NCoef="0" IVar="7" Cut="-9.3333888053894043e-01" cType="1" res="5.5134203284978867e-03" rms="3.8624635338783264e-01" purity="5.0530207157135010e-01" nType="0">
        <Node pos="l" depth="1" NCoef="0" IVar="2" Cut="4.5039904785156250e+02" cType="1" res="1.7263153567910194e-02" rms="3.8183861970901489e-01" purity="3.7475895881652832e-01" nType="0">
          <Node pos="l" depth="2" NCoef="0" IVar="3" Cut="2.0373272705078125e+02" cType="1" res="1.1495568789541721e-02" rms="3.7776815891265869e-01" purity="3.5698187351226807e-01" nType="0">
            <Node pos="l" depth="3" NCoef="0" IVar="-1" Cut="0.0000000000000000e+00" cType="1" res="1.6376571729779243e-02" rms="3.6863690614700317e-01" purity="2.8536587953567505e-01" nType="-99"/>
            <Node pos="r" depth="3" NCoef="0" IVar="-1" Cut="0.0000000000000000e+00" cType="1" res="-5.4183946922421455e-03" rms="3.9372473955154419e-01" purity="4.9272564053535461e-01" nType="-99"/>
          </Node>
          <Node pos="r" depth="2" NCoef="0" IVar="-1" Cut="0.0000000000000000e+00" cType="1" res="2.4230053648352623e-02" rms="3.9499872922897339e-01" purity="4.3650916218757629e-01" nType="-99"/>
        </Node>
        <Node pos="r" depth="1" NCoef="0" IVar="7" Cut="1.5555326938629150e+00" cType="1" res="2.6311958208680153e-03" rms="3.8726547360420227e-01" purity="5.3732436895370483e-01" nType="0">
          <Node pos="l" depth="2" NCoef="0" IVar="2" Cut="6.3790582275390625e+02" cType="1" res="7.2908343281596899e-04" rms="3.9032569527626038e-01" purity="5.6844174861907959e-01" nType="0">
            <Node pos="l" depth="3" NCoef="0" IVar="-1" Cut="0.0000000000000000e+00" cType="1" res="-4.3979578185826540e-04" rms="3.8999646902084351e-01" purity="5.6314182281494141e-01" nType="-99"/>
            <Node pos="r" depth="3" NCoef="0" IVar="-1" Cut="0.0000000000000000e+00" cType="1" res="1.2216815724968910e-02" rms="3.9441064000129700e-01" purity="6.4318263530731201e-01" nType="-99"/>
          </Node>
          <Node pos="r" depth="2" NCoef="0" IVar="6" Cut="-5.7196278125047684e-02" cType="1" res="2.0353112369775772e-02" rms="3.5700988769531250e-01" purity="2.4740569293498993e-01" nType="0">
            <Node pos="l" depth="3" NCoef="0" IVar="-1" Cut="0.0000000000000000e+00" cType="1" res="2.9115164652466774e-02" rms="3.6962452530860901e-01" purity="2.5519081950187683e-01" nType="-99"/>
            <Node pos="r" depth="3" NCoef="0" IVar="-1" Cut="0.0000000000000000e+00" cType="1" res="6.6077276133000851e-03" rms="3.4466558694839478e-01" purity="2.4032852053642273e-01" nType="-99"/>
          </Node>
        </Node>
      </Node>
    </BinaryTree>
    <BinaryTree type="DecisionTree" boostWeight="1.0000000000000000e+00" itree="528">
      <Node pos="s" depth="0" NCoef="0" IVar="6" Cut="-8.9956420660018921e-01" cType="1" res="3.3750303555279970e-03" rms="3.8789486885070801e-01" purity="5.0293350219726562e-01" nType="0">
        <Node pos="l" depth="1" NCoef="0" IVar="5" Cut="7.0801147460937500e+01" cType="1" res="1.4450983144342899e-02" rms="3.8167226314544678e-01" purity="3.3919349312782288e-01" nType="0">
          <Node pos="l" depth="2" NCoef="0" IVar="6" Cut="-1.5161024332046509e+00" cType="1" res="3.4082837402820587e-02" rms="3.5486337542533875e-01" purity="2.0975270867347717e-01" nType="0">
            <Node pos="l" depth="3" NCoef="0" IVar="-1" Cut="0.0000000000000000e+00" cType="1" res="-3.1044071074575186e-03" rms="2.8211584687232971e-01" purity="1.0178911685943604e-01" nType="-99"/>
            <Node pos="r" depth="3" NCoef="0" IVar="-1" Cut="0.0000000000000000e+00" cType="1" res="4.2095962911844254e-02" rms="3.9058986306190491e-01" purity="2.7481281757354736e-01" nType="-99"/>
          </Node>
          <Node pos="r" depth="2" NCoef="0" IVar="9" Cut="6.6655427217483521e-01" cType="1" res="-6.2686094315722585e-04" rms="4.0039438009262085e-01" purity="4.3860787153244019e-01" nType="0">
            <Node pos="l" depth="3" NCoef="0" IVar="-1" Cut="0.0000000000000000e+00" cType="1" res="-6.7118271254003048e-03" rms="3.9891660213470459e-01" purity="4.4028875231742859e-01" nType="-99"/>
            <Node pos="r" depth="3" NCoef="0" IVar="-1" Cut="0.0000000000000000e+00" cType="1" res="1.6608230769634247e-02" rms="4.0305417776107788e-01" purity="4.3409538269042969e-01" nType="-99"/>
          </Node>
        </Node>
        <Node pos="r" depth="1" NCoef="0" IVar="2" Cut="6.5569689941406250e+02" cType="1" res="1.0626802686601877e-03" rms="3.8914164900779724e-01" purity="5.3711789846420288e-01" nType="0">
          <Node pos="l" depth="2" NCoef="0" IVar="4" Cut="7.6414268493652344e+01" cType="1" res="2.5086021050810814e-03" rms="3.8867092132568359e-01" purity="5.3525239229202271e-01" nType="0">
            <Node pos="l" depth="3" NCoef="0" IVar="-1" Cut="0.0000000000000000e+00" cType="1" res="1.2456783093512058e-02" rms="3.6369809508323669e-01" purity="2.2216142714023590e-01" nType="-99"/>
            <Node pos="r" depth="3" NCoef="0" IVar="-1" Cut="0.0000000000000000e+00" cType="1" res="2.8841194580309093e-04" rms="3.9219877123832703e-01" purity="5.8170676231384277e-01" nType="-99"/>
          </Node>
          <Node pos="r" depth="2" NCoef="0" IVar="-1" Cut="0.0000000000000000e+00" cType="1" res="-1.5009065158665180e-02" rms="3.9664569497108459e-01" purity="5.7083225250244141e-01" nType="-99"/>
        </Node>
      </Node>
    </BinaryTree>
    <BinaryTree type="DecisionTree" boostWeight="1.0000000000000000e+00" itree="529">
      <Node pos="s" depth="0" NCoef="0" IVar="8" Cut="1.4666556119918823e+00" cType="1" res="-9.7881385590881109e-04" rms="3.8629078865051270e-01" purity="5.0097537040710449e-01" nType="0">
        <Node pos="l" depth="1" NCoef="0" IVar="9" Cut="9.3340927362442017e-01" cType="1" res="9.1918074758723378e-04" rms="3.8856974244117737e-01" purity="5.2394789457321167e-01" nType="0">
          <Node pos="l" depth="2" NCoef="0" IVar="0" Cut="4.5299456787109375e+02" cType="1" res="3.5652443766593933e-03" rms="3.8903090357780457e-01" purity="5.4120516777038574e-01" nType="0">
            <Node pos="l" depth="3" NCoef="0" IVar="-1" Cut="0.0000000000000000e+00" cType="1" res="5.1145390607416630e-03" rms="4.0289220213890076e-01" purity="4.0882283449172974e-01" nType="-99"/>
            <Node pos="r" depth="3" NCoef="0" IVar="-1" Cut="0.0000000000000000e+00" cType="1" res="-2.4530985392630100e-03" rms="3.6754429340362549e-01" purity="7.3629510402679443e-01" nType="-99"/>
          </Node>
          <Node pos="r" depth="2" NCoef="0" IVar="6" Cut="-3.5122483968734741e-01" cType="1" res="-8.4082204848527908e-03" rms="3.8679540157318115e-01" purity="4.6311596035957336e-01" nType="0">
            <Node pos="l" depth="3" NCoef="0" IVar="-1" Cut="0.0000000000000000e+00" cType="1" res="3.4559222403913736e-03" rms="3.8602310419082642e-01" purity="4.3244597315788269e-01" nType="-99"/>
            <Node pos="r" depth="3" NCoef="0" IVar="-1" Cut="0.0000000000000000e+00" cType="1" res="-9.9837956950068474e-03" rms="3.8699740171432495e-01" purity="4.7804284095764160e-01" nType="-99"/>
          </Node>
        </Node>
        <Node pos="r" depth="1" NCoef="0" IVar="4" Cut="1.1018985748291016e+02" cType="1" res="-1.7876008525490761e-02" rms="3.6494100093841553e-01" purity="2.9645854234695435e-01" nType="0">
          <Node pos="l" depth="2" NCoef="0" IVar="7" Cut="1.3330237567424774e-01" cType="1" res="-7.2295176796615124e-03" rms="3.3444002270698547e-01" purity="2.0215643942356110e-01" nType="0">
            <Node pos="l" depth="3" NCoef="0" IVar="-1" Cut="0.0000000000000000e+00" cType="1" res="-9.5495684072375298e-03" rms="3.3991405367851257e-01" purity="2.1117156744003296e-01" nType="-99"/>
            <Node pos="r" depth="3" NCoef="0" IVar="-1" Cut="0.0000000000000000e+00" cType="1" res="-2.2782695014029741e-03" rms="3.2937464118003845e-01" purity="1.9405536353588104e-01" nType="-99"/>
          </Node>
          <Node pos="r" depth="2" NCoef="0" IVar="-1" Cut="0.0000000000000000e+00" cType="1" res="-1.8715774640440941e-02" rms="3.9657455682754517e-01" purity="4.0417754650115967e-01" nType="-99"/>
        </Node>
      </Node>
    </BinaryTree>
    <BinaryTree type="DecisionTree" boostWeight="1.0000000000000000e+00" itree="530">
      <Node pos="s" depth="0" NCoef="0" IVar="8" Cut="-1.9999772310256958e+00" cType="1" res="6.4424693118780851e-04" rms="3.8392791152000427e-01" purity="5.0069117546081543e-01" nType="0">
        <Node pos="l" depth="1" NCoef="0" IVar="-1" Cut="0.0000000000000000e+00" cType="1" res="-1.6518928110599518e-02" rms="3.3462914824485779e-01" purity="2.1577915549278259e-01" nType="-99"/>
        <Node pos="r" depth="1" NCoef="0" IVar="9" Cut="-1.1999921798706055e+00" cType="1" res="1.5079472213983536e-03" rms="3.8577979803085327e-01" purity="5.1230877637863159e-01" nType="0">
          <Node pos="l" depth="2" NCoef="0" IVar="7" Cut="-6.6659170389175415e-01" cType="1" res="-6.8359235301613808e-03" rms="3.8945540785789490e-01" purity="4.2630720138549805e-01" nType="0">
            <Node pos="l" depth="3" NCoef="0" IVar="-1" Cut="0.0000000000000000e+00" cType="1" res="9.4080623239278793e-03" rms="3.7922501564025879e-01" purity="3.5433852672576904e-01" nType="-99"/>
            <Node pos="r" depth="3" NCoef="0" IVar="-1" Cut="0.0000000000000000e+00" cType="1" res="-1.1252040974795818e-02" rms="3.9431336522102356e-01" purity="4.6411389112472534e-01" nType="-99"/>
          </Node>
          <Node pos="r" depth="2" NCoef="0" IVar="7" Cut="-9.3326526880264282e-01" cType="1" res="3.1518735922873020e-03" rms="3.8503018021583557e-01" purity="5.2925300598144531e-01" nType="0">
            <Node pos="l" depth="3" NCoef="0" IVar="-1" Cut="0.0000000000000000e+00" cType="1" res="-2.6451847516000271e-03" rms="3.7939953804016113e-01" purity="3.9167094230651855e-01" nType="-99"/>
            <Node pos="r" depth="3" NCoef="0" IVar="-1" Cut="0.0000000000000000e+00" cType="1" res="3.0824337154626846e-03" rms="3.8620308041572571e-01" purity="5.5858200788497925e-01" nType="-99"/>
          </Node>
        </Node>
      </Node>
    </BinaryTree>
    <BinaryTree type="DecisionTree" boostWeight="1.0000000000000000e+00" itree="531">
      <Node pos="s" depth="0" NCoef="0" IVar="7" Cut="-1.4665309190750122e+00" cType="1" res="5.9525627875700593e-04" rms="3.8345822691917419e-01" purity="5.0158292055130005e-01" nType="0">
        <Node pos="l" depth="1" NCoef="0" IVar="0" Cut="4.5299810791015625e+02" cType="1" res="2.3896729573607445e-02" rms="3.6281719803810120e-01" purity="2.8152254223823547e-01" nType="0">
          <Node pos="l" depth="2" NCoef="0" IVar="3" Cut="1.7597000122070312e+02" cType="1" res="8.0929920077323914e-03" rms="3.2717925310134888e-01" purity="1.7975954711437225e-01" nType="0">
            <Node pos="l" depth="3" NCoef="0" IVar="-1" Cut="0.0000000000000000e+00" cType="1" res="2.2735984995961189e-02" rms="3.1642627716064453e-01" purity="1.5666709840297699e-01" nType="-99"/>
            <Node pos="r" depth="3" NCoef="0" IVar="-1" Cut="0.0000000000000000e+00" cType="1" res="-9.0196700766682625e-03" rms="3.4081247448921204e-01" purity="2.1232680976390839e-01" nType="-99"/>
          </Node>
          <Node pos="r" depth="2" NCoef="0" IVar="-1" Cut="0.0000000000000000e+00" cType="1" res="3.5182815045118332e-02" rms="4.3233102560043335e-01" purity="5.1826512813568115e-01" nType="-99"/>
        </Node>
        <Node pos="r" depth="1" NCoef="0" IVar="6" Cut="9.4150441884994507e-01" cType="1" res="-1.7388134729117155e-03" rms="3.8538727164268494e-01" purity="5.2362602949142456e-01" nType="0">
          <Node pos="l" depth="2" NCoef="0" IVar="6" Cut="2.3364789783954620e-01" cType="1" res="1.0189522290602326e-03" rms="3.9074593782424927e-01" purity="5.6321185827255249e-01" nType="0">
            <Node pos="l" depth="3" NCoef="0" IVar="-1" Cut="0.0000000000000000e+00" cType="1" res="-2.5613475590944290e-03" rms="3.8777083158493042e-01" purity="5.4744136333465576e-01" nType="-99"/>
            <Node pos="r" depth="3" NCoef="0" IVar="-1" Cut="0.0000000000000000e+00" cType="1" res="8.1015937030315399e-03" rms="3.9765989780426025e-01" purity="6.0171991586685181e-01" nType="-99"/>
          </Node>
          <Node pos="r" depth="2" NCoef="0" IVar="9" Cut="-9.3349337577819824e-01" cType="1" res="-1.6434462741017342e-02" rms="3.5511130094528198e-01" purity="3.1268036365509033e-01" nType="0">
            <Node pos="l" depth="3" NCoef="0" IVar="-1" Cut="0.0000000000000000e+00" cType="1" res="-3.3416591584682465e-02" rms="3.3745741844177246e-01" purity="2.6811471581459045e-01" nType="-99"/>
            <Node pos="r" depth="3" NCoef="0" IVar="-1" Cut="0.0000000000000000e+00" cType="1" res="-7.3123462498188019e-03" rms="3.5866048932075500e-01" purity="3.2277911901473999e-01" nType="-99"/>
          </Node>
        </Node>
      </Node>
    </BinaryTree>
    <BinaryTree type="DecisionTree" boostWeight="1.0000000000000000e+00" itree="532">
      <Node pos="s" depth="0" NCoef="0" IVar="3" Cut="1.4619770812988281e+02" cType="1" res="-1.9597902428358793e-03" rms="3.8445106148719788e-01" purity="5.0093060731887817e-01" nType="0">
        <Node pos="l" depth="1" NCoef="0" IVar="4" Cut="7.7401069641113281e+01" cType="1" res="6.3131805509328842e-03" rms="3.7738725543022156e-01" purity="2.5052055716514587e-01" nType="0">
          <Node pos="l" depth="2" NCoef="0" IVar="3" Cut="1.0996439361572266e+02" cType="1" res="2.4395698681473732e-02" rms="3.3717593550682068e-01" purity="1.5832236409187317e-01" nType="0">
            <Node pos="l" depth="3" NCoef="0" IVar="-1" Cut="0.0000000000000000e+00" cType="1" res="7.4429097585380077e-03" rms="3.1149077415466309e-01" purity="1.2513795495033264e-01" nType="-99"/>
            <Node pos="r" depth="3" NCoef="0" IVar="-1" Cut="0.0000000000000000e+00" cType="1" res="4.6456750482320786e-02" rms="3.7630897760391235e-01" purity="2.1690930426120758e-01" nType="-99"/>
          </Node>
          <Node pos="r" depth="2" NCoef="0" IVar="4" Cut="8.7167823791503906e+01" cType="1" res="-3.3305652905255556e-03" rms="3.9683485031127930e-01" purity="2.9969158768653870e-01" nType="0">
            <Node pos="l" depth="3" NCoef="0" IVar="-1" Cut="0.0000000000000000e+00" cType="1" res="-2.6140205562114716e-02" rms="3.4174522757530212e-01" purity="1.7040483653545380e-01" nType="-99"/>
            <Node pos="r" depth="3" NCoef="0" IVar="-1" Cut="0.0000000000000000e+00" cType="1" res="4.4438466429710388e-03" rms="4.1289943456649780e-01" purity="3.4250605106353760e-01" nType="-99"/>
          </Node>
        </Node>
        <Node pos="r" depth="1" NCoef="0" IVar="5" Cut="8.1792190551757812e+01" cType="1" res="-4.6603991650044918e-03" rms="3.8669070601463318e-01" purity="5.8267390727996826e-01" nType="0">
          <Node pos="l" depth="2" NCoef="0" IVar="5" Cut="5.9083446502685547e+01" cType="1" res="-1.2606621719896793e-02" rms="4.0532329678535461e-01" purity="4.0147802233695984e-01" nType="0">
            <Node pos="l" depth="3" NCoef="0" IVar="-1" Cut="0.0000000000000000e+00" cType="1" res="-1.4428582042455673e-02" rms="3.9224335551261902e-01" purity="3.1745386123657227e-01" nType="-99"/>
            <Node pos="r" depth="3" NCoef="0" IVar="-1" Cut="0.0000000000000000e+00" cType="1" res="-4.3549248948693275e-03" rms="4.1133686900138855e-01" purity="4.4167599081993103e-01" nType="-99"/>
          </Node>
          <Node pos="r" depth="2" NCoef="0" IVar="8" Cut="-1.3343575596809387e-01" cType="1" res="6.9016846828162670e-04" rms="3.7352615594863892e-01" purity="7.0468163490295410e-01" nType="0">
            <Node pos="l" depth="3" NCoef="0" IVar="-1" Cut="0.0000000000000000e+00" cType="1" res="-6.8227676674723625e-03" rms="3.7325367331504822e-01" purity="6.8896979093551636e-01" nType="-99"/>
            <Node pos="r" depth="3" NCoef="0" IVar="-1" Cut="0.0000000000000000e+00" cType="1" res="6.2299785204231739e-03" rms="3.7353929877281189e-01" purity="7.1699863672256470e-01" nType="-99"/>
          </Node>
        </Node>
      </Node>
    </BinaryTree>
    <BinaryTree type="DecisionTree" boostWeight="1.0000000000000000e+00" itree="533">
      <Node pos="s" depth="0" NCoef="0" IVar="8" Cut="9.3326550722122192e-01" cType="1" res="-1.1885159183293581e-03" rms="3.8448050618171692e-01" purity="4.9876469373703003e-01" nType="0">
        <Node pos="l" depth="1" NCoef="0" IVar="6" Cut="1.2027733325958252e+00" cType="1" res="1.1643095640465617e-03" rms="3.8710948824882507e-01" purity="5.2580195665359497e-01" nType="0">
          <Node pos="l" depth="2" NCoef="0" IVar="6" Cut="6.3257294893264771e-01" cType="1" res="-3.3942042500711977e-04" rms="3.8979563117027283e-01" purity="5.5255860090255737e-01" nType="0">
            <Node pos="l" depth="3" NCoef="0" IVar="-1" Cut="0.0000000000000000e+00" cType="1" res="1.6710314666852355e-03" rms="3.8932606577873230e-01" purity="5.6243282556533813e-01" nType="-99"/>
            <Node pos="r" depth="3" NCoef="0" IVar="-1" Cut="0.0000000000000000e+00" cType="1" res="-1.0686852037906647e-02" rms="3.9206427335739136e-01" purity="4.9599719047546387e-01" nType="-99"/>
          </Node>
          <Node pos="r" depth="2" NCoef="0" IVar="1" Cut="1.2319945068359375e+03" cType="1" res="1.4465705491602421e-02" rms="3.6221173405647278e-01" purity="2.8912279009819031e-01" nType="0">
            <Node pos="l" depth="3" NCoef="0" IVar="-1" Cut="0.0000000000000000e+00" cType="1" res="9.0171140618622303e-04" rms="3.3463197946548462e-01" purity="1.5293507277965546e-01" nType="-99"/>
            <Node pos="r" depth="3" NCoef="0" IVar="-1" Cut="0.0000000000000000e+00" cType="1" res="2.0756117999553680e-02" rms="3.9629623293876648e-01" purity="4.7653380036354065e-01" nType="-99"/>
          </Node>
        </Node>
        <Node pos="r" depth="1" NCoef="0" IVar="7" Cut="-3.9999103546142578e-01" cType="1" res="-9.9972039461135864e-03" rms="3.7434270977973938e-01" purity="3.9754068851470947e-01" nType="0">
          <Node pos="l" depth="2" NCoef="0" IVar="3" Cut="1.7523103332519531e+02" cType="1" res="9.4809019938111305e-03" rms="3.7599340081214905e-01" purity="3.7870186567306519e-01" nType="0">
            <Node pos="l" depth="3" NCoef="0" IVar="-1" Cut="0.0000000000000000e+00" cType="1" res="2.6827353984117508e-02" rms="3.7178578972816467e-01" purity="2.9785791039466858e-01" nType="-99"/>
            <Node pos="r" depth="3" NCoef="0" IVar="-1" Cut="0.0000000000000000e+00" cType="1" res="-8.8777635246515274e-03" rms="3.7814936041831970e-01" purity="4.4985267519950867e-01" nType="-99"/>
          </Node>
          <Node pos="r" depth="2" NCoef="0" IVar="9" Cut="-9.3286663293838501e-01" cType="1" res="-1.8924839794635773e-02" rms="3.7324413657188416e-01" purity="4.0617531538009644e-01" nType="0">
            <Node pos="l" depth="3" NCoef="0" IVar="-1" Cut="0.0000000000000000e+00" cType="1" res="-3.2825987786054611e-02" rms="3.6091396212577820e-01" purity="3.5701513290405273e-01" nType="-99"/>
            <Node pos="r" depth="3" NCoef="0" IVar="-1" Cut="0.0000000000000000e+00" cType="1" res="-8.5606398060917854e-03" rms="3.7551462650299072e-01" purity="4.1664713621139526e-01" nType="-99"/>
          </Node>
        </Node>
      </Node>
    </BinaryTree>
    <BinaryTree type="DecisionTree" boostWeight="1.0000000000000000e+00" itree="534">
      <Node pos="s" depth="0" NCoef="0" IVar="7" Cut="-1.4666682481765747e+00" cType="1" res="-2.7463766746222973e-03" rms="3.8475218415260315e-01" purity="4.9556595087051392e-01" nType="0">
        <Node pos="l" depth="1" NCoef="0" IVar="7" Cut="-1.7206445932388306e+00" cType="1" res="-2.2564848884940147e-02" rms="3.3834034204483032e-01" purity="2.3434546589851379e-01" nType="0">
          <Node pos="l" depth="2" NCoef="0" IVar="8" Cut="-4.0015178918838501e-01" cType="1" res="-1.2695023790001869e-02" rms="3.2820183038711548e-01" purity="2.1904291212558746e-01" nType="0">
            <Node pos="l" depth="3" NCoef="0" IVar="-1" Cut="0.0000000000000000e+00" cType="1" res="-3.4516472369432449e-02" rms="3.0538874864578247e-01" purity="1.5715512633323669e-01" nType="-99"/>
            <Node pos="r" depth="3" NCoef="0" IVar="-1" Cut="0.0000000000000000e+00" cType="1" res="4.4434568844735622e-03" rms="3.4339836239814758e-01" purity="2.6611381769180298e-01" nType="-99"/>
          </Node>
          <Node pos="r" depth="2" NCoef="0" IVar="-1" Cut="0.0000000000000000e+00" cType="1" res="-3.0633870512247086e-02" rms="3.5834956169128418e-01" purity="2.6741960644721985e-01" nType="-99"/>
        </Node>
        <Node pos="r" depth="1" NCoef="0" IVar="7" Cut="-4.5080155134201050e-01" cType="1" res="-8.3649152657017112e-04" rms="3.8887900114059448e-01" purity="5.2073949575424194e-01" nType="0">
          <Node pos="l" depth="2" NCoef="0" IVar="7" Cut="-5.9592682123184204e-01" cType="1" res="9.9009824916720390e-03" rms="3.9699143171310425e-01" purity="5.2514147758483887e-01" nType="0">
            <Node pos="l" depth="3" NCoef="0" IVar="-1" Cut="0.0000000000000000e+00" cType="1" res="2.6277734432369471e-03" rms="3.9553004503250122e-01" purity="4.9775192141532898e-01" nType="-99"/>
            <Node pos="r" depth="3" NCoef="0" IVar="-1" Cut="0.0000000000000000e+00" cType="1" res="2.0684063434600830e-02" rms="4.0176784992218018e-01" purity="6.2989193201065063e-01" nType="-99"/>
          </Node>
          <Node pos="r" depth="2" NCoef="0" IVar="1" Cut="1.0875858154296875e+03" cType="1" res="-4.9540633335709572e-03" rms="3.8564354181289673e-01" purity="5.1905143260955811e-01" nType="0">
            <Node pos="l" depth="3" NCoef="0" IVar="-1" Cut="0.0000000000000000e+00" cType="1" res="3.7364023737609386e-03" rms="3.8448977470397949e-01" purity="2.4975858628749847e-01" nType="-99"/>
            <Node pos="r" depth="3" NCoef="0" IVar="-1" Cut="0.0000000000000000e+00" cType="1" res="-6.1453287489712238e-03" rms="3.8603162765502930e-01" purity="6.2912803888320923e-01" nType="-99"/>
          </Node>
        </Node>
      </Node>
    </BinaryTree>
    <BinaryTree type="DecisionTree" boostWeight="1.0000000000000000e+00" itree="535">
      <Node pos="s" depth="0" NCoef="0" IVar="8" Cut="-9.3331044912338257e-01" cType="1" res="5.2118087187409401e-03" rms="3.8615700602531433e-01" purity="5.0470656156539917e-01" nType="0">
        <Node pos="l" depth="1" NCoef="0" IVar="9" Cut="-1.4664696455001831e+00" cType="1" res="-5.4507032036781311e-03" rms="3.7585324048995972e-01" purity="3.9696025848388672e-01" nType="0">
          <Node pos="l" depth="2" NCoef="0" IVar="-1" Cut="0.0000000000000000e+00" cType="1" res="1.3039038516581059e-02" rms="3.3578076958656311e-01" purity="2.8100684285163879e-01" nType="-99"/>
          <Node pos="r" depth="2" NCoef="0" IVar="5" Cut="7.0123039245605469e+01" cType="1" res="-9.6078226342797279e-03" rms="3.8302293419837952e-01" purity="4.1951507329940796e-01" nType="0">
            <Node pos="l" depth="3" NCoef="0" IVar="-1" Cut="0.0000000000000000e+00" cType="1" res="-1.7324637621641159e-02" rms="3.5547035932540894e-01" purity="2.2057284414768219e-01" nType="-99"/>
            <Node pos="r" depth="3" NCoef="0" IVar="-1" Cut="0.0000000000000000e+00" cType="1" res="-6.3015747582539916e-04" rms="3.9901277422904968e-01" purity="5.4366183280944824e-01" nType="-99"/>
          </Node>
        </Node>
        <Node pos="r" depth="1" NCoef="0" IVar="7" Cut="9.3331384658813477e-01" cType="1" res="8.0676935613155365e-03" rms="3.8882079720497131e-01" purity="5.3356570005416870e-01" nType="0">
          <Node pos="l" depth="2" NCoef="0" IVar="6" Cut="6.7618179321289062e-01" cType="1" res="5.2195121534168720e-03" rms="3.9112386107444763e-01" purity="5.6836146116256714e-01" nType="0">
            <Node pos="l" depth="3" NCoef="0" IVar="-1" Cut="0.0000000000000000e+00" cType="1" res="1.0304570896551013e-03" rms="3.9191135764122009e-01" purity="6.0459780693054199e-01" nType="-99"/>
            <Node pos="r" depth="3" NCoef="0" IVar="-1" Cut="0.0000000000000000e+00" cType="1" res="1.1310543864965439e-02" rms="3.8829916715621948e-01" purity="4.4976642727851868e-01" nType="-99"/>
          </Node>
          <Node pos="r" depth="2" NCoef="0" IVar="1" Cut="1.3357955322265625e+03" cType="1" res="1.9394282251596451e-02" rms="3.7931218743324280e-01" purity="3.9519104361534119e-01" nType="0">
            <Node pos="l" depth="3" NCoef="0" IVar="-1" Cut="0.0000000000000000e+00" cType="1" res="7.9550864174962044e-03" rms="3.7556314468383789e-01" purity="2.6892611384391785e-01" nType="-99"/>
            <Node pos="r" depth="3" NCoef="0" IVar="-1" Cut="0.0000000000000000e+00" cType="1" res="2.2744026035070419e-02" rms="3.8553756475448608e-01" purity="6.2387651205062866e-01" nType="-99"/>
          </Node>
        </Node>
      </Node>
    </BinaryTree>
    <BinaryTree type="DecisionTree" boostWeight="1.0000000000000000e+00" itree="536">
      <Node pos="s" depth="0" NCoef="0" IVar="6" Cut="-9.2584401369094849e-01" cType="1" res="-2.6585876476019621e-03" rms="3.8477194309234619e-01" purity="4.9823543429374695e-01" nType="0">
        <Node pos="l" depth="1" NCoef="0" IVar="4" Cut="1.7349598693847656e+02" cType="1" res="-1.3919180259108543e-02" rms="3.5966050624847412e-01" purity="3.0936491489410400e-01" nType="0">
          <Node pos="l" depth="2" NCoef="0" IVar="4" Cut="1.2065740966796875e+02" cType="1" res="-1.9032811746001244e-02" rms="3.5052818059921265e-01" purity="2.4037091434001923e-01" nType="0">
            <Node pos="l" depth="3" NCoef="0" IVar="-1" Cut="0.0000000000000000e+00" cType="1" res="-8.1453276798129082e-03" rms="3.2787948846817017e-01" purity="1.7921957373619080e-01" nType="-99"/>
            <Node pos="r" depth="3" NCoef="0" IVar="-1" Cut="0.0000000000000000e+00" cType="1" res="-2.3890195414423943e-02" rms="3.9362919330596924e-01" purity="3.7046808004379272e-01" nType="-99"/>
          </Node>
          <Node pos="r" depth="2" NCoef="0" IVar="-1" Cut="0.0000000000000000e+00" cType="1" res="4.2074280790984631e-03" rms="3.9361521601676941e-01" purity="5.8708077669143677e-01" nType="-99"/>
        </Node>
        <Node pos="r" depth="1" NCoef="0" IVar="5" Cut="8.0216300964355469e+01" cType="1" res="-4.5266080996952951e-04" rms="3.8946348428726196e-01" purity="5.3523474931716919e-01" nType="0">
          <Node pos="l" depth="2" NCoef="0" IVar="7" Cut="1.7330838441848755e+00" cType="1" res="-5.4389606229960918e-03" rms="3.9791032671928406e-01" purity="3.4825682640075684e-01" nType="0">
            <Node pos="l" depth="3" NCoef="0" IVar="-1" Cut="0.0000000000000000e+00" cType="1" res="-2.1202121861279011e-03" rms="4.0615773200988770e-01" purity="3.6805328726768494e-01" nType="-99"/>
            <Node pos="r" depth="3" NCoef="0" IVar="-1" Cut="0.0000000000000000e+00" cType="1" res="-3.2699670642614365e-02" rms="2.6877170801162720e-01" purity="9.3212716281414032e-02" nType="-99"/>
          </Node>
          <Node pos="r" depth="2" NCoef="0" IVar="7" Cut="-1.1999919414520264e+00" cType="1" res="3.9430153556168079e-03" rms="3.8180825114250183e-01" purity="7.0006531476974487e-01" nType="0">
            <Node pos="l" depth="3" NCoef="0" IVar="-1" Cut="0.0000000000000000e+00" cType="1" res="1.6657024621963501e-02" rms="4.2079174518585205e-01" purity="5.2411514520645142e-01" nType="-99"/>
            <Node pos="r" depth="3" NCoef="0" IVar="-1" Cut="0.0000000000000000e+00" cType="1" res="6.3352083088830113e-04" rms="3.7657314538955688e-01" purity="7.2192215919494629e-01" nType="-99"/>
          </Node>
        </Node>
      </Node>
    </BinaryTree>
    <BinaryTree type="DecisionTree" boostWeight="1.0000000000000000e+00" itree="537">
      <Node pos="s" depth="0" NCoef="0" IVar="9" Cut="-1.9999939203262329e+00" cType="1" res="2.8501611668616533e-03" rms="3.8363108038902283e-01" purity="5.0459253787994385e-01" nType="0">
        <Node pos="l" depth="1" NCoef="0" IVar="4" Cut="1.1764042663574219e+02" cType="1" res="2.6104466989636421e-02" rms="3.8239115476608276e-01" purity="3.8133940100669861e-01" nType="0">
          <Node pos="l" depth="2" NCoef="0" IVar="-1" Cut="0.0000000000000000e+00" cType="1" res="1.0156680829823017e-02" rms="3.5526347160339355e-01" purity="2.3941549658775330e-01" nType="-99"/>
          <Node pos="r" depth="2" NCoef="0" IVar="-1" Cut="0.0000000000000000e+00" cType="1" res="2.4880990386009216e-02" rms="4.1263213753700256e-01" purity="5.5528593063354492e-01" nType="-99"/>
        </Node>
        <Node pos="r" depth="1" NCoef="0" IVar="6" Cut="-1.4577651023864746e+00" cType="1" res="1.4742914354428649e-03" rms="3.8366016745567322e-01" purity="5.1188498735427856e-01" nType="0">
          <Node pos="l" depth="2" NCoef="0" IVar="0" Cut="3.8652490234375000e+02" cType="1" res="-1.8553987145423889e-02" rms="3.2837685942649841e-01" purity="1.8440248072147369e-01" nType="0">
            <Node pos="l" depth="3" NCoef="0" IVar="-1" Cut="0.0000000000000000e+00" cType="1" res="-3.3095462713390589e-03" rms="2.8854057192802429e-01" purity="1.2086527794599533e-01" nType="-99"/>
            <Node pos="r" depth="3" NCoef="0" IVar="-1" Cut="0.0000000000000000e+00" cType="1" res="-2.5574300438165665e-02" rms="3.7326946854591370e-01" purity="2.6774820685386658e-01" nType="-99"/>
          </Node>
          <Node pos="r" depth="2" NCoef="0" IVar="6" Cut="-8.4956568479537964e-01" cType="1" res="2.8239719104021788e-03" rms="3.8706451654434204e-01" purity="5.3395360708236694e-01" nType="0">
            <Node pos="l" depth="3" NCoef="0" IVar="-1" Cut="0.0000000000000000e+00" cType="1" res="1.2574836611747742e-02" rms="3.9229080080986023e-01" purity="4.5234537124633789e-01" nType="-99"/>
            <Node pos="r" depth="3" NCoef="0" IVar="-1" Cut="0.0000000000000000e+00" cType="1" res="2.1838015527464449e-04" rms="3.8622167706489563e-01" purity="5.4604774713516235e-01" nType="-99"/>
          </Node>
        </Node>
      </Node>
    </BinaryTree>
    <BinaryTree type="DecisionTree" boostWeight="1.0000000000000000e+00" itree="538">
      <Node pos="s" depth="0" NCoef="0" IVar="6" Cut="4.0495520830154419e-01" cType="1" res="9.2426920309662819e-04" rms="3.8464170694351196e-01" purity="5.0196880102157593e-01" nType="0">
        <Node pos="l" depth="1" NCoef="0" IVar="8" Cut="-1.7332694530487061e+00" cType="1" res="-2.6662368327379227e-03" rms="3.8782542943954468e-01" purity="5.3324234485626221e-01" nType="0">
          <Node pos="l" depth="2" NCoef="0" IVar="-1" Cut="0.0000000000000000e+00" cType="1" res="-1.7032422125339508e-02" rms="3.5236617922782898e-01" purity="2.8846710920333862e-01" nType="-99"/>
          <Node pos="r" depth="2" NCoef="0" IVar="5" Cut="7.8846519470214844e+01" cType="1" res="-1.1159232817590237e-03" rms="3.9030405879020691e-01" purity="5.5155134201049805e-01" nType="0">
            <Node pos="l" depth="3" NCoef="0" IVar="-1" Cut="0.0000000000000000e+00" cType="1" res="2.8482379857450724e-03" rms="4.0426620841026306e-01" purity="3.7342169880867004e-01" nType="-99"/>
            <Node pos="r" depth="3" NCoef="0" IVar="-1" Cut="0.0000000000000000e+00" cType="1" res="-4.1587501764297485e-03" rms="3.7820217013359070e-01" purity="7.0005112886428833e-01" nType="-99"/>
          </Node>
        </Node>
        <Node pos="r" depth="1" NCoef="0" IVar="9" Cut="1.7333195209503174e+00" cType="1" res="8.0912243574857712e-03" rms="3.7810468673706055e-01" purity="4.3954420089721680e-01" nType="0">
          <Node pos="l" depth="2" NCoef="0" IVar="7" Cut="1.2001085281372070e+00" cType="1" res="5.5642421357333660e-03" rms="3.7873619794845581e-01" purity="4.5081001520156860e-01" nType="0">
            <Node pos="l" depth="3" NCoef="0" IVar="-1" Cut="0.0000000000000000e+00" cType="1" res="5.6337015703320503e-03" rms="3.8607949018478394e-01" purity="4.8360681533813477e-01" nType="-99"/>
            <Node pos="r" depth="3" NCoef="0" IVar="-1" Cut="0.0000000000000000e+00" cType="1" res="-9.6725532785058022e-03" rms="3.3280852437019348e-01" purity="2.6203492283821106e-01" nType="-99"/>
          </Node>
          <Node pos="r" depth="2" NCoef="0" IVar="-1" Cut="0.0000000000000000e+00" cType="1" res="2.1084569394588470e-02" rms="3.7227034568786621e-01" purity="3.4760692715644836e-01" nType="-99"/>
        </Node>
      </Node>
    </BinaryTree>
    <BinaryTree type="DecisionTree" boostWeight="1.0000000000000000e+00" itree="539">
      <Node pos="s" depth="0" NCoef="0" IVar="8" Cut="1.4666460752487183e+00" cType="1" res="-9.0290041407570243e-04" rms="3.8377419114112854e-01" purity="5.0047564506530762e-01" nType="0">
        <Node pos="l" depth="1" NCoef="0" IVar="7" Cut="-1.7332259416580200e+00" cType="1" res="7.0324231637641788e-04" rms="3.8520497083663940e-01" purity="5.2397090196609497e-01" nType="0">
          <Node pos="l" depth="2" NCoef="0" IVar="6" Cut="-8.4625184535980225e-02" cType="1" res="-2.4805512279272079e-02" rms="3.2573574781417847e-01" purity="2.1150808036327362e-01" nType="0">
            <Node pos="l" depth="3" NCoef="0" IVar="-1" Cut="0.0000000000000000e+00" cType="1" res="-2.7721881866455078e-02" rms="3.1914341449737549e-01" purity="2.1109507977962494e-01" nType="-99"/>
            <Node pos="r" depth="3" NCoef="0" IVar="-1" Cut="0.0000000000000000e+00" cType="1" res="-1.3942017219960690e-02" rms="3.3159062266349792e-01" purity="2.1189418435096741e-01" nType="-99"/>
          </Node>
          <Node pos="r" depth="2" NCoef="0" IVar="4" Cut="1.9051333618164062e+02" cType="1" res="2.2605396807193756e-03" rms="3.8848659396171570e-01" purity="5.4304665327072144e-01" nType="0">
            <Node pos="l" depth="3" NCoef="0" IVar="-1" Cut="0.0000000000000000e+00" cType="1" res="-4.9402413424104452e-04" rms="4.0004920959472656e-01" purity="4.7553446888923645e-01" nType="-99"/>
            <Node pos="r" depth="3" NCoef="0" IVar="-1" Cut="0.0000000000000000e+00" cType="1" res="1.1705382727086544e-02" rms="3.3978825807571411e-01" purity="8.0435490608215332e-01" nType="-99"/>
          </Node>
        </Node>
        <Node pos="r" depth="1" NCoef="0" IVar="7" Cut="1.3408729434013367e-01" cType="1" res="-1.5323508530855179e-02" rms="3.7036895751953125e-01" purity="2.8952562808990479e-01" nType="0">
          <Node pos="l" depth="2" NCoef="0" IVar="-1" Cut="0.0000000000000000e+00" cType="1" res="-2.0949054509401321e-02" rms="3.7184596061706543e-01" purity="2.8012147545814514e-01" nType="-99"/>
          <Node pos="r" depth="2" NCoef="0" IVar="8" Cut="1.9111001491546631e+00" cType="1" res="-2.4236636236310005e-03" rms="3.6858981847763062e-01" purity="2.9774224758148193e-01" nType="0">
            <Node pos="l" depth="3" NCoef="0" IVar="-1" Cut="0.0000000000000000e+00" cType="1" res="8.4335310384631157e-03" rms="3.9254346489906311e-01" purity="3.6041593551635742e-01" nType="-99"/>
            <Node pos="r" depth="3" NCoef="0" IVar="-1" Cut="0.0000000000000000e+00" cType="1" res="-1.4930576086044312e-02" rms="3.3974403142929077e-01" purity="2.2920724749565125e-01" nType="-99"/>
          </Node>
        </Node>
      </Node>
    </BinaryTree>
    <BinaryTree type="DecisionTree" boostWeight="1.0000000000000000e+00" itree="540">
      <Node pos="s" depth="0" NCoef="0" IVar="9" Cut="-9.3332868814468384e-01" cType="1" res="2.1464526653289795e-03" rms="3.8452234864234924e-01" purity="5.0288403034210205e-01" nType="0">
        <Node pos="l" depth="1" NCoef="0" IVar="7" Cut="-1.1999531984329224e+00" cType="1" res="8.9714471250772476e-03" rms="3.8009110093116760e-01" purity="4.5664438605308533e-01" nType="0">
          <Node pos="l" depth="2" NCoef="0" IVar="-1" Cut="0.0000000000000000e+00" cType="1" res="-1.6952382400631905e-02" rms="3.2364955544471741e-01" purity="2.1571351587772369e-01" nType="-99"/>
          <Node pos="r" depth="2" NCoef="0" IVar="7" Cut="1.0855654478073120e+00" cType="1" res="1.4767207205295563e-02" rms="3.9009043574333191e-01" purity="5.0458592176437378e-01" nType="0">
            <Node pos="l" depth="3" NCoef="0" IVar="-1" Cut="0.0000000000000000e+00" cType="1" res="1.2586850672960281e-02" rms="3.9885440468788147e-01" purity="5.5011397600173950e-01" nType="-99"/>
            <Node pos="r" depth="3" NCoef="0" IVar="-1" Cut="0.0000000000000000e+00" cType="1" res="-1.2519688345491886e-02" rms="3.3744296431541443e-01" purity="2.5974738597869873e-01" nType="-99"/>
          </Node>
        </Node>
        <Node pos="r" depth="1" NCoef="0" IVar="7" Cut="-1.7332259416580200e+00" cType="1" res="4.1920720832422376e-06" rms="3.8587784767150879e-01" purity="5.1739794015884399e-01" nType="0">
          <Node pos="l" depth="2" NCoef="0" IVar="-1" Cut="0.0000000000000000e+00" cType="1" res="1.7578385770320892e-02" rms="3.5689225792884827e-01" purity="2.8240418434143066e-01" nType="-99"/>
          <Node pos="r" depth="2" NCoef="0" IVar="7" Cut="1.0730452537536621e+00" cType="1" res="-1.3072169385850430e-03" rms="3.8745108246803284e-01" purity="5.3101968765258789e-01" nType="0">
            <Node pos="l" depth="3" NCoef="0" IVar="-1" Cut="0.0000000000000000e+00" cType="1" res="-2.6734857819974422e-03" rms="3.8923758268356323e-01" purity="5.7101762294769287e-01" nType="-99"/>
            <Node pos="r" depth="3" NCoef="0" IVar="-1" Cut="0.0000000000000000e+00" cType="1" res="8.5128648206591606e-03" rms="3.7877878546714783e-01" purity="3.4535324573516846e-01" nType="-99"/>
          </Node>
        </Node>
      </Node>
    </BinaryTree>
    <BinaryTree type="DecisionTree" boostWeight="1.0000000000000000e+00" itree="541">
      <Node pos="s" depth="0" NCoef="0" IVar="8" Cut="1.4666531085968018e+00" cType="1" res="2.1255963947623968e-03" rms="3.8324192166328430e-01" purity="5.0473475456237793e-01" nType="0">
        <Node pos="l" depth="1" NCoef="0" IVar="3" Cut="1.4683314514160156e+02" cType="1" res="-4.7871554852463305e-04" rms="3.8389426469802856e-01" purity="5.2357923984527588e-01" nType="0">
          <Node pos="l" depth="2" NCoef="0" IVar="7" Cut="1.3332660496234894e-01" cType="1" res="-1.2046945281326771e-02" rms="3.6949849128723145e-01" purity="2.4943505227565765e-01" nType="0">
            <Node pos="l" depth="3" NCoef="0" IVar="-1" Cut="0.0000000000000000e+00" cType="1" res="-1.5390427783131599e-02" rms="3.6388263106346130e-01" purity="2.3690070211887360e-01" nType="-99"/>
            <Node pos="r" depth="3" NCoef="0" IVar="-1" Cut="0.0000000000000000e+00" cType="1" res="-1.1684271885314956e-04" rms="3.7579670548439026e-01" purity="2.6450696587562561e-01" nType="-99"/>
          </Node>
          <Node pos="r" depth="2" NCoef="0" IVar="9" Cut="-1.7333441972732544e+00" cType="1" res="3.0675074085593224e-03" rms="3.8813135027885437e-01" purity="6.0761773586273193e-01" nType="0">
            <Node pos="l" depth="3" NCoef="0" IVar="-1" Cut="0.0000000000000000e+00" cType="1" res="-1.5353018417954445e-02" rms="3.8678133487701416e-01" purity="4.4322568178176880e-01" nType="-99"/>
            <Node pos="r" depth="3" NCoef="0" IVar="-1" Cut="0.0000000000000000e+00" cType="1" res="3.4511114936321974e-03" rms="3.8815930485725403e-01" purity="6.2102121114730835e-01" nType="-99"/>
          </Node>
        </Node>
        <Node pos="r" depth="1" NCoef="0" IVar="6" Cut="4.1072693467140198e-01" cType="1" res="2.4096075445413589e-02" rms="3.7697839736938477e-01" purity="3.4575870633125305e-01" nType="0">
          <Node pos="l" depth="2" NCoef="0" IVar="5" Cut="7.1292297363281250e+01" cType="1" res="3.6905512213706970e-02" rms="4.0003344416618347e-01" purity="3.9662459492683411e-01" nType="0">
            <Node pos="l" depth="3" NCoef="0" IVar="-1" Cut="0.0000000000000000e+00" cType="1" res="1.6799449920654297e-02" rms="3.6854067444801331e-01" purity="2.3802641034126282e-01" nType="-99"/>
            <Node pos="r" depth="3" NCoef="0" IVar="-1" Cut="0.0000000000000000e+00" cType="1" res="2.8295459225773811e-02" rms="4.2165267467498779e-01" purity="5.1499921083450317e-01" nType="-99"/>
          </Node>
          <Node pos="r" depth="2" NCoef="0" IVar="-1" Cut="0.0000000000000000e+00" cType="1" res="3.1713421922177076e-03" rms="3.3664229512214661e-01" purity="2.6590582728385925e-01" nType="-99"/>
        </Node>
      </Node>
    </BinaryTree>
    <BinaryTree type="DecisionTree" boostWeight="1.0000000000000000e+00" itree="542">
      <Node pos="s" depth="0" NCoef="0" IVar="8" Cut="6.6665947437286377e-01" cType="1" res="-2.0943800918757915e-03" rms="3.8314959406852722e-01" purity="4.9879327416419983e-01" nType="0">
        <Node pos="l" depth="1" NCoef="0" IVar="0" Cut="4.5299533081054688e+02" cType="1" res="4.9148855032399297e-04" rms="3.8433638215065002e-01" purity="5.2535045146942139e-01" nType="0">
          <Node pos="l" depth="2" NCoef="0" IVar="4" Cut="1.1973488616943359e+02" cType="1" res="-3.9834356866776943e-03" rms="3.9352792501449585e-01" purity="3.8316646218299866e-01" nType="0">
            <Node pos="l" depth="3" NCoef="0" IVar="-1" Cut="0.0000000000000000e+00" cType="1" res="1.2316672364249825e-03" rms="3.7109789252281189e-01" purity="2.3704883456230164e-01" nType="-99"/>
            <Node pos="r" depth="3" NCoef="0" IVar="-1" Cut="0.0000000000000000e+00" cType="1" res="-5.8734896592795849e-03" rms="4.1679346561431885e-01" purity="5.4443550109863281e-01" nType="-99"/>
          </Node>
          <Node pos="r" depth="2" NCoef="0" IVar="4" Cut="9.5750862121582031e+01" cType="1" res="7.1429139934480190e-03" rms="3.7015295028686523e-01" purity="7.3668944835662842e-01" nType="0">
            <Node pos="l" depth="3" NCoef="0" IVar="-1" Cut="0.0000000000000000e+00" cType="1" res="1.6133759170770645e-02" rms="4.4395312666893005e-01" purity="4.5619532465934753e-01" nType="-99"/>
            <Node pos="r" depth="3" NCoef="0" IVar="-1" Cut="0.0000000000000000e+00" cType="1" res="1.3526466209441423e-03" rms="3.5101470351219177e-01" purity="8.0037277936935425e-01" nType="-99"/>
          </Node>
        </Node>
        <Node pos="r" depth="1" NCoef="0" IVar="7" Cut="3.9984813332557678e-01" cType="1" res="-8.8105164468288422e-03" rms="3.7996762990951538e-01" purity="4.2981770634651184e-01" nType="0">
          <Node pos="l" depth="2" NCoef="0" IVar="3" Cut="2.1399549865722656e+02" cType="1" res="2.2722217254340649e-03" rms="3.9357215166091919e-01" purity="4.7393316030502319e-01" nType="0">
            <Node pos="l" depth="3" NCoef="0" IVar="-1" Cut="0.0000000000000000e+00" cType="1" res="1.1271997354924679e-02" rms="4.0051636099815369e-01" purity="3.8646420836448669e-01" nType="-99"/>
            <Node pos="r" depth="3" NCoef="0" IVar="-1" Cut="0.0000000000000000e+00" cType="1" res="-1.3884625397622585e-02" rms="3.8194984197616577e-01" purity="6.0343056917190552e-01" nType="-99"/>
          </Node>
          <Node pos="r" depth="2" NCoef="0" IVar="1" Cut="1.5059189453125000e+03" cType="1" res="-2.4253189563751221e-02" rms="3.5958603024482727e-01" purity="3.6834734678268433e-01" nType="0">
            <Node pos="l" depth="3" NCoef="0" IVar="-1" Cut="0.0000000000000000e+00" cType="1" res="-2.4787610396742821e-02" rms="3.5467776656150818e-01" purity="2.8121799230575562e-01" nType="-99"/>
            <Node pos="r" depth="3" NCoef="0" IVar="-1" Cut="0.0000000000000000e+00" cType="1" res="8.4818722680211067e-03" rms="3.7416240572929382e-01" purity="6.7616230249404907e-01" nType="-99"/>
          </Node>
        </Node>
      </Node>
    </BinaryTree>
    <BinaryTree type="DecisionTree" boostWeight="1.0000000000000000e+00" itree="543">
      <Node pos="s" depth="0" NCoef="0" IVar="9" Cut="-3.9997997879981995e-01" cType="1" res="3.6078488919883966e-03" rms="3.8506734371185303e-01" purity="5.0686115026473999e-01" nType="0">
        <Node pos="l" depth="1" NCoef="0" IVar="9" Cut="-7.4285674095153809e-01" cType="1" res="-3.0849447939544916e-03" rms="3.8191196322441101e-01" purity="4.8406919836997986e-01" nType="0">
          <Node pos="l" depth="2" NCoef="0" IVar="6" Cut="1.2140358686447144e+00" cType="1" res="2.3571127094328403e-03" rms="3.8310158252716064e-01" purity="4.6607685089111328e-01" nType="0">
            <Node pos="l" depth="3" NCoef="0" IVar="-1" Cut="0.0000000000000000e+00" cType="1" res="3.3758049830794334e-03" rms="3.8904377818107605e-01" purity="4.9048265814781189e-01" nType="-99"/>
            <Node pos="r" depth="3" NCoef="0" IVar="-1" Cut="0.0000000000000000e+00" cType="1" res="-2.1554479375481606e-02" rms="3.1419929862022400e-01" purity="2.1510869264602661e-01" nType="-99"/>
          </Node>
          <Node pos="r" depth="2" NCoef="0" IVar="0" Cut="4.0494869995117188e+02" cType="1" res="-1.9353929907083511e-02" rms="3.7786620855331421e-01" purity="5.3785723447799683e-01" nType="0">
            <Node pos="l" depth="3" NCoef="0" IVar="-1" Cut="0.0000000000000000e+00" cType="1" res="-2.6570558547973633e-02" rms="3.8436877727508545e-01" purity="3.2353362441062927e-01" nType="-99"/>
            <Node pos="r" depth="3" NCoef="0" IVar="-1" Cut="0.0000000000000000e+00" cType="1" res="-1.1300332844257355e-03" rms="3.7177991867065430e-01" purity="7.0388400554656982e-01" nType="-99"/>
          </Node>
        </Node>
        <Node pos="r" depth="1" NCoef="0" IVar="5" Cut="1.2018179321289062e+02" cType="1" res="7.6542017050087452e-03" rms="3.8690641522407532e-01" purity="5.2064073085784912e-01" nType="0">
          <Node pos="l" depth="2" NCoef="0" IVar="6" Cut="-1.4243726730346680e+00" cType="1" res="1.0885083116590977e-02" rms="3.9982172846794128e-01" purity="4.4159892201423645e-01" nType="0">
            <Node pos="l" depth="3" NCoef="0" IVar="-1" Cut="0.0000000000000000e+00" cType="1" res="2.9159447178244591e-02" rms="3.6936312913894653e-01" purity="2.3570469021797180e-01" nType="-99"/>
            <Node pos="r" depth="3" NCoef="0" IVar="-1" Cut="0.0000000000000000e+00" cType="1" res="5.6270770728588104e-03" rms="4.0189105272293091e-01" purity="4.5657569169998169e-01" nType="-99"/>
          </Node>
          <Node pos="r" depth="2" NCoef="0" IVar="0" Cut="5.4809912109375000e+02" cType="1" res="-3.8193890359252691e-03" rms="3.3681517839431763e-01" purity="8.0133616924285889e-01" nType="0">
            <Node pos="l" depth="3" NCoef="0" IVar="-1" Cut="0.0000000000000000e+00" cType="1" res="-1.0371515527367592e-02" rms="3.8300630450248718e-01" purity="7.2211134433746338e-01" nType="-99"/>
            <Node pos="r" depth="3" NCoef="0" IVar="-1" Cut="0.0000000000000000e+00" cType="1" res="2.0453991368412971e-02" rms="2.4293215572834015e-01" purity="9.2977750301361084e-01" nType="-99"/>
          </Node>
        </Node>
      </Node>
    </BinaryTree>
    <BinaryTree type="DecisionTree" boostWeight="1.0000000000000000e+00" itree="544">
      <Node pos="s" depth="0" NCoef="0" IVar="7" Cut="9.3331384658813477e-01" cType="1" res="-8.4331689868122339e-04" rms="3.8548663258552551e-01" purity="5.0139462947845459e-01" nType="0">
        <Node pos="l" depth="1" NCoef="0" IVar="3" Cut="2.1472824096679688e+02" cType="1" res="-3.2726807985454798e-03" rms="3.8772252202033997e-01" purity="5.3317177295684814e-01" nType="0">
          <Node pos="l" depth="2" NCoef="0" IVar="8" Cut="-1.4666841030120850e+00" cType="1" res="-8.7934555485844612e-03" rms="3.9936810731887817e-01" purity="4.0060368180274963e-01" nType="0">
            <Node pos="l" depth="3" NCoef="0" IVar="-1" Cut="0.0000000000000000e+00" cType="1" res="7.3509099893271923e-03" rms="3.6342209577560425e-01" purity="2.6617765426635742e-01" nType="-99"/>
            <Node pos="r" depth="3" NCoef="0" IVar="-1" Cut="0.0000000000000000e+00" cType="1" res="-6.9463294930756092e-03" rms="4.0414959192276001e-01" purity="4.1971111297607422e-01" nType="-99"/>
          </Node>
          <Node pos="r" depth="2" NCoef="0" IVar="5" Cut="8.0216545104980469e+01" cType="1" res="3.3855976071208715e-03" rms="3.7308567762374878e-01" purity="6.9305419921875000e-01" nType="0">
            <Node pos="l" depth="3" NCoef="0" IVar="-1" Cut="0.0000000000000000e+00" cType="1" res="7.8794751316308975e-03" rms="4.1033157706260681e-01" purity="5.3441762924194336e-01" nType="-99"/>
            <Node pos="r" depth="3" NCoef="0" IVar="-1" Cut="0.0000000000000000e+00" cType="1" res="-1.4476840151473880e-03" rms="3.5312876105308533e-01" purity="7.7140480279922485e-01" nType="-99"/>
          </Node>
        </Node>
        <Node pos="r" depth="1" NCoef="0" IVar="9" Cut="-6.6620612144470215e-01" cType="1" res="9.2570316046476364e-03" rms="3.7587991356849670e-01" purity="3.6927786469459534e-01" nType="0">
          <Node pos="l" depth="2" NCoef="0" IVar="-1" Cut="0.0000000000000000e+00" cType="1" res="-9.8829511553049088e-03" rms="3.5166800022125244e-01" purity="3.0734279751777649e-01" nType="-99"/>
          <Node pos="r" depth="2" NCoef="0" IVar="9" Cut="1.1494009494781494e+00" cType="1" res="1.6959445551037788e-02" rms="3.8343229889869690e-01" purity="3.9026471972465515e-01" nType="0">
            <Node pos="l" depth="3" NCoef="0" IVar="-1" Cut="0.0000000000000000e+00" cType="1" res="1.7748631536960602e-02" rms="3.9336287975311279e-01" purity="4.4766476750373840e-01" nType="-99"/>
            <Node pos="r" depth="3" NCoef="0" IVar="-1" Cut="0.0000000000000000e+00" cType="1" res="-2.9281498864293098e-03" rms="3.5922485589981079e-01" purity="2.6105371117591858e-01" nType="-99"/>
          </Node>
        </Node>
      </Node>
    </BinaryTree>
    <BinaryTree type="DecisionTree" boostWeight="1.0000000000000000e+00" itree="545">
      <Node pos="s" depth="0" NCoef="0" IVar="3" Cut="4.2743582153320312e+02" cType="1" res="-7.4351648800075054e-04" rms="3.8373631238937378e-01" purity="4.9954521656036377e-01" nType="0">
        <Node pos="l" depth="1" NCoef="0" IVar="7" Cut="-1.9999482631683350e+00" cType="1" res="2.8356491384329274e-05" rms="3.8365033268928528e-01" purity="4.9551713466644287e-01" nType="0">
          <Node pos="l" depth="2" NCoef="0" IVar="-1" Cut="0.0000000000000000e+00" cType="1" res="1.9756590947508812e-02" rms="3.3777835965156555e-01" purity="2.2604447603225708e-01" nType="-99"/>
          <Node pos="r" depth="2" NCoef="0" IVar="7" Cut="-1.3142879009246826e+00" cType="1" res="-8.4344873903319240e-04" rms="3.8531929254531860e-01" purity="5.0613063573837280e-01" nType="0">
            <Node pos="l" depth="3" NCoef="0" IVar="-1" Cut="0.0000000000000000e+00" cType="1" res="-1.7001438885927200e-02" rms="3.6842030286788940e-01" purity="2.8489211201667786e-01" nType="-99"/>
            <Node pos="r" depth="3" NCoef="0" IVar="-1" Cut="0.0000000000000000e+00" cType="1" res="6.9234828697517514e-04" rms="3.8664358854293823e-01" purity="5.2469110488891602e-01" nType="-99"/>
          </Node>
        </Node>
        <Node pos="r" depth="1" NCoef="0" IVar="-1" Cut="0.0000000000000000e+00" cType="1" res="-1.6704522073268890e-02" rms="3.8569799065589905e-01" purity="6.3259905576705933e-01" nType="-99"/>
      </Node>
    </BinaryTree>
    <BinaryTree type="DecisionTree" boostWeight="1.0000000000000000e+00" itree="546">
      <Node pos="s" depth="0" NCoef="0" IVar="7" Cut="-2.0000171661376953e+00" cType="1" res="7.3398515814915299e-04" rms="3.8526296615600586e-01" purity="4.9851995706558228e-01" nType="0">
        <Node pos="l" depth="1" NCoef="0" IVar="-1" Cut="0.0000000000000000e+00" cType="1" res="-2.5571104139089584e-02" rms="2.9912456870079041e-01" purity="1.7522870004177094e-01" nType="-99"/>
        <Node pos="r" depth="1" NCoef="0" IVar="9" Cut="-9.3333148956298828e-01" cType="1" res="1.7662459285929799e-03" rms="3.8794708251953125e-01" purity="5.1007068157196045e-01" nType="0">
          <Node pos="l" depth="2" NCoef="0" IVar="7" Cut="5.1423913240432739e-01" cType="1" res="1.0973273776471615e-02" rms="3.8755092024803162e-01" purity="4.6307554841041565e-01" nType="0">
            <Node pos="l" depth="3" NCoef="0" IVar="-1" Cut="0.0000000000000000e+00" cType="1" res="1.2309108860790730e-02" rms="3.9629665017127991e-01" purity="4.9925330281257629e-01" nType="-99"/>
            <Node pos="r" depth="3" NCoef="0" IVar="-1" Cut="0.0000000000000000e+00" cType="1" res="-7.1533699519932270e-03" rms="3.6264932155609131e-01" purity="3.6769774556159973e-01" nType="-99"/>
          </Node>
          <Node pos="r" depth="2" NCoef="0" IVar="9" Cut="2.2666571140289307e+00" cType="1" res="-9.7442569676786661e-04" rms="3.8802272081375122e-01" purity="5.2405977249145508e-01" nType="0">
            <Node pos="l" depth="3" NCoef="0" IVar="-1" Cut="0.0000000000000000e+00" cType="1" res="-1.2660898501053452e-03" rms="3.8780617713928223e-01" purity="5.3149980306625366e-01" nType="-99"/>
            <Node pos="r" depth="3" NCoef="0" IVar="-1" Cut="0.0000000000000000e+00" cType="1" res="1.5113661997020245e-02" rms="3.9244505763053894e-01" purity="3.4823372960090637e-01" nType="-99"/>
          </Node>
        </Node>
      </Node>
    </BinaryTree>
    <BinaryTree type="DecisionTree" boostWeight="1.0000000000000000e+00" itree="547">
      <Node pos="s" depth="0" NCoef="0" IVar="6" Cut="1.7349984645843506e+00" cType="1" res="-5.5332353804260492e-04" rms="3.8365095853805542e-01" purity="4.9926382303237915e-01" nType="0">
        <Node pos="l" depth="1" NCoef="0" IVar="2" Cut="6.3790600585937500e+02" cType="1" res="-2.2699544206261635e-03" rms="3.8553050160408020e-01" purity="5.1229685544967651e-01" nType="0">
          <Node pos="l" depth="2" NCoef="0" IVar="0" Cut="3.7642257690429688e+02" cType="1" res="-4.3834331445395947e-03" rms="3.8404190540313721e-01" purity="5.0673633813858032e-01" nType="0">
            <Node pos="l" depth="3" NCoef="0" IVar="-1" Cut="0.0000000000000000e+00" cType="1" res="-7.3930546641349792e-03" rms="3.8227057456970215e-01" purity="3.1059458851814270e-01" nType="-99"/>
            <Node pos="r" depth="3" NCoef="0" IVar="-1" Cut="0.0000000000000000e+00" cType="1" res="-2.4236513127107173e-05" rms="3.8508102297782898e-01" purity="6.2932169437408447e-01" nType="-99"/>
          </Node>
          <Node pos="r" depth="2" NCoef="0" IVar="7" Cut="1.3328352570533752e-01" cType="1" res="2.8361620381474495e-02" rms="4.0525841712951660e-01" purity="5.9288805723190308e-01" nType="0">
            <Node pos="l" depth="3" NCoef="0" IVar="-1" Cut="0.0000000000000000e+00" cType="1" res="2.2174960002303123e-02" rms="4.0805232524871826e-01" purity="6.1470907926559448e-01" nType="-99"/>
            <Node pos="r" depth="3" NCoef="0" IVar="-1" Cut="0.0000000000000000e+00" cType="1" res="9.0664522722363472e-03" rms="4.0102121233940125e-01" purity="5.6298369169235229e-01" nType="-99"/>
          </Node>
        </Node>
        <Node pos="r" depth="1" NCoef="0" IVar="-1" Cut="0.0000000000000000e+00" cType="1" res="3.8275491446256638e-02" rms="3.3632841706275940e-01" purity="2.0615027844905853e-01" nType="-99"/>
      </Node>
    </BinaryTree>
    <BinaryTree type="DecisionTree" boostWeight="1.0000000000000000e+00" itree="548">
      <Node pos="s" depth="0" NCoef="0" IVar="8" Cut="-1.4666608572006226e+00" cType="1" res="1.1560658458620310e-03" rms="3.8470277190208435e-01" purity="5.0260621309280396e-01" nType="0">
        <Node pos="l" depth="1" NCoef="0" IVar="9" Cut="4.0039986371994019e-01" cType="1" res="1.8565289676189423e-02" rms="3.7769776582717896e-01" purity="3.3950683474540710e-01" nType="0">
          <Node pos="l" depth="2" NCoef="0" IVar="7" Cut="1.3269779086112976e-01" cType="1" res="8.1221833825111389e-03" rms="3.6890208721160889e-01" purity="3.1746259331703186e-01" nType="0">
            <Node pos="l" depth="3" NCoef="0" IVar="-1" Cut="0.0000000000000000e+00" cType="1" res="-1.1960606789216399e-03" rms="3.6353561282157898e-01" purity="3.0678725242614746e-01" nType="-99"/>
            <Node pos="r" depth="3" NCoef="0" IVar="-1" Cut="0.0000000000000000e+00" cType="1" res="1.8198313191533089e-02" rms="3.7730091810226440e-01" purity="3.3566856384277344e-01" nType="-99"/>
          </Node>
          <Node pos="r" depth="2" NCoef="0" IVar="-1" Cut="0.0000000000000000e+00" cType="1" res="2.7148917317390442e-02" rms="3.9339718222618103e-01" purity="3.8222894072532654e-01" nType="-99"/>
        </Node>
        <Node pos="r" depth="1" NCoef="0" IVar="6" Cut="-3.9356622099876404e-01" cType="1" res="-9.1606157366186380e-04" rms="3.8547572493553162e-01" purity="5.2201908826828003e-01" nType="0">
          <Node pos="l" depth="2" NCoef="0" IVar="3" Cut="1.3051257324218750e+02" cType="1" res="-8.8922912254929543e-03" rms="3.8284105062484741e-01" purity="4.5832592248916626e-01" nType="0">
            <Node pos="l" depth="3" NCoef="0" IVar="-1" Cut="0.0000000000000000e+00" cType="1" res="8.2919560372829437e-03" rms="3.5540321469306946e-01" purity="1.9335675239562988e-01" nType="-99"/>
            <Node pos="r" depth="3" NCoef="0" IVar="-1" Cut="0.0000000000000000e+00" cType="1" res="-8.5314661264419556e-03" rms="3.8884720206260681e-01" purity="5.2031153440475464e-01" nType="-99"/>
          </Node>
          <Node pos="r" depth="2" NCoef="0" IVar="9" Cut="9.3333441019058228e-01" cType="1" res="2.9610951896756887e-03" rms="3.8669049739837646e-01" purity="5.5297958850860596e-01" nType="0">
            <Node pos="l" depth="3" NCoef="0" IVar="-1" Cut="0.0000000000000000e+00" cType="1" res="-9.8231248557567596e-04" rms="3.8482412695884705e-01" purity="5.7526302337646484e-01" nType="-99"/>
            <Node pos="r" depth="3" NCoef="0" IVar="-1" Cut="0.0000000000000000e+00" cType="1" res="1.0624575428664684e-02" rms="3.9184314012527466e-01" purity="4.8735642433166504e-01" nType="-99"/>
          </Node>
        </Node>
      </Node>
    </BinaryTree>
    <BinaryTree type="DecisionTree" boostWeight="1.0000000000000000e+00" itree="549">
      <Node pos="s" depth="0" NCoef="0" IVar="7" Cut="-1.1999347209930420e+00" cType="1" res="1.2013699160888791e-03" rms="3.8787537813186646e-01" purity="5.0218832492828369e-01" nType="0">
        <Node pos="l" depth="1" NCoef="0" IVar="0" Cut="5.2320483398437500e+02" cType="1" res="1.6521932557225227e-02" rms="3.7448990345001221e-01" purity="3.1721431016921997e-01" nType="0">
          <Node pos="l" depth="2" NCoef="0" IVar="0" Cut="3.3188858032226562e+02" cType="1" res="9.3956235796213150e-03" rms="3.6352604627609253e-01" purity="2.4040462076663971e-01" nType="0">
            <Node pos="l" depth="3" NCoef="0" IVar="-1" Cut="0.0000000000000000e+00" cType="1" res="5.2644610404968262e-02" rms="3.5368466377258301e-01" purity="1.9284920394420624e-01" nType="-99"/>
            <Node pos="r" depth="3" NCoef="0" IVar="-1" Cut="0.0000000000000000e+00" cType="1" res="-4.7703399322926998e-03" rms="3.6589133739471436e-01" purity="2.5827088952064514e-01" nType="-99"/>
          </Node>
          <Node pos="r" depth="2" NCoef="0" IVar="-1" Cut="0.0000000000000000e+00" cType="1" res="2.8582634404301643e-02" rms="4.1744235157966614e-01" purity="6.5132993459701538e-01" nType="-99"/>
        </Node>
        <Node pos="r" depth="1" NCoef="0" IVar="7" Cut="7.0475965738296509e-01" cType="1" res="-1.2225399259477854e-03" rms="3.8989588618278503e-01" purity="5.3145354986190796e-01" nType="0">
          <Node pos="l" depth="2" NCoef="0" IVar="6" Cut="9.5464164018630981e-01" cType="1" res="-4.0087373927235603e-03" rms="3.9318478107452393e-01" purity="5.8224666118621826e-01" nType="0">
            <Node pos="l" depth="3" NCoef="0" IVar="-1" Cut="0.0000000000000000e+00" cType="1" res="-4.1083181276917458e-03" rms="3.9198482036590576e-01" purity="6.1330324411392212e-01" nType="-99"/>
            <Node pos="r" depth="3" NCoef="0" IVar="-1" Cut="0.0000000000000000e+00" cType="1" res="6.5122600644826889e-03" rms="3.9995464682579041e-01" purity="3.9755570888519287e-01" nType="-99"/>
          </Node>
          <Node pos="r" depth="2" NCoef="0" IVar="7" Cut="1.6026731729507446e+00" cType="1" res="5.2960989996790886e-03" rms="3.8201117515563965e-01" purity="4.1261708736419678e-01" nType="0">
            <Node pos="l" depth="3" NCoef="0" IVar="-1" Cut="0.0000000000000000e+00" cType="1" res="8.4400046616792679e-03" rms="4.0145051479339600e-01" purity="4.8707723617553711e-01" nType="-99"/>
            <Node pos="r" depth="3" NCoef="0" IVar="-1" Cut="0.0000000000000000e+00" cType="1" res="-1.3174728490412235e-02" rms="3.2403257489204407e-01" purity="2.1539799869060516e-01" nType="-99"/>
          </Node>
        </Node>
      </Node>
    </BinaryTree>
    <BinaryTree type="DecisionTree" boostWeight="1.0000000000000000e+00" itree="550">
      <Node pos="s" depth="0" NCoef="0" IVar="8" Cut="3.9998450875282288e-01" cType="1" res="-5.2973889978602529e-04" rms="3.8322725892066956e-01" purity="5.0210958719253540e-01" nType="0">
        <Node pos="l" depth="1" NCoef="0" IVar="3" Cut="1.3803755187988281e+02" cType="1" res="3.5388537216931581e-03" rms="3.8605353236198425e-01" purity="5.2486068010330200e-01" nType="0">
          <Node pos="l" depth="2" NCoef="0" IVar="8" Cut="-3.6191946268081665e-01" cType="1" res="1.5280932188034058e-02" rms="3.6901724338531494e-01" purity="2.5535553693771362e-01" nType="0">
            <Node pos="l" depth="3" NCoef="0" IVar="-1" Cut="0.0000000000000000e+00" cType="1" res="-1.3814746635034680e-03" rms="3.4676125645637512e-01" purity="2.0282474160194397e-01" nType="-99"/>
            <Node pos="r" depth="3" NCoef="0" IVar="-1" Cut="0.0000000000000000e+00" cType="1" res="2.7376938611268997e-02" rms="4.0211760997772217e-01" purity="3.4383073449134827e-01" nType="-99"/>
          </Node>
          <Node pos="r" depth="2" NCoef="0" IVar="2" Cut="3.3546261596679688e+02" cType="1" res="5.1902310224249959e-04" rms="3.9025762677192688e-01" purity="5.9417206048965454e-01" nType="0">
            <Node pos="l" depth="3" NCoef="0" IVar="-1" Cut="0.0000000000000000e+00" cType="1" res="-5.0843455828726292e-03" rms="4.0162718296051025e-01" purity="5.4902881383895874e-01" nType="-99"/>
            <Node pos="r" depth="3" NCoef="0" IVar="-1" Cut="0.0000000000000000e+00" cType="1" res="4.9582878127694130e-03" rms="3.8106921315193176e-01" purity="6.2918472290039062e-01" nType="-99"/>
          </Node>
        </Node>
        <Node pos="r" depth="1" NCoef="0" IVar="1" Cut="1.3948144531250000e+03" cType="1" res="-7.7604809775948524e-03" rms="3.7804418802261353e-01" purity="4.6167621016502380e-01" nType="0">
          <Node pos="l" depth="2" NCoef="0" IVar="2" Cut="3.9629571533203125e+02" cType="1" res="-1.5055015683174133e-02" rms="3.8517603278160095e-01" purity="3.2376074790954590e-01" nType="0">
            <Node pos="l" depth="3" NCoef="0" IVar="-1" Cut="0.0000000000000000e+00" cType="1" res="-7.0891189388930798e-03" rms="3.9207461476325989e-01" purity="3.4856402873992920e-01" nType="-99"/>
            <Node pos="r" depth="3" NCoef="0" IVar="-1" Cut="0.0000000000000000e+00" cType="1" res="-2.3245073854923248e-02" rms="3.5141354799270630e-01" purity="2.1040500700473785e-01" nType="-99"/>
          </Node>
          <Node pos="r" depth="2" NCoef="0" IVar="9" Cut="-1.3331788778305054e-01" cType="1" res="5.7174176909029484e-03" rms="3.6411571502685547e-01" purity="7.1649849414825439e-01" nType="0">
            <Node pos="l" depth="3" NCoef="0" IVar="-1" Cut="0.0000000000000000e+00" cType="1" res="-1.0403024964034557e-02" rms="3.5833749175071716e-01" purity="7.2540956735610962e-01" nType="-99"/>
            <Node pos="r" depth="3" NCoef="0" IVar="-1" Cut="0.0000000000000000e+00" cType="1" res="1.3719814829528332e-02" rms="3.6759722232818604e-01" purity="7.1013039350509644e-01" nType="-99"/>
          </Node>
        </Node>
      </Node>
    </BinaryTree>
    <BinaryTree type="DecisionTree" boostWeight="1.0000000000000000e+00" itree="551">
      <Node pos="s" depth="0" NCoef="0" IVar="9" Cut="-6.6666269302368164e-01" cType="1" res="-5.9318839339539409e-04" rms="3.8357794284820557e-01" purity="5.0171697139739990e-01" nType="0">
        <Node pos="l" depth="1" NCoef="0" IVar="4" Cut="1.3517434692382812e+02" cType="1" res="6.7345853894948959e-03" rms="3.8263815641403198e-01" purity="4.7273427248001099e-01" nType="0">
          <Node pos="l" depth="2" NCoef="0" IVar="2" Cut="3.2889096069335938e+02" cType="1" res="1.2687114998698235e-02" rms="3.8374665379524231e-01" purity="3.4044662117958069e-01" nType="0">
            <Node pos="l" depth="3" NCoef="0" IVar="-1" Cut="0.0000000000000000e+00" cType="1" res="-1.0881643975153565e-03" rms="3.8333332538604736e-01" purity="2.9891827702522278e-01" nType="-99"/>
            <Node pos="r" depth="3" NCoef="0" IVar="-1" Cut="0.0000000000000000e+00" cType="1" res="1.7841232940554619e-02" rms="3.8362637162208557e-01" purity="3.8183724880218506e-01" nType="-99"/>
          </Node>
          <Node pos="r" depth="2" NCoef="0" IVar="8" Cut="-1.3297498226165771e-01" cType="1" res="-1.7037312500178814e-03" rms="3.8090187311172485e-01" purity="6.6026544570922852e-01" nType="0">
            <Node pos="l" depth="3" NCoef="0" IVar="-1" Cut="0.0000000000000000e+00" cType="1" res="-6.9248420186340809e-03" rms="3.8989713788032532e-01" purity="6.2112545967102051e-01" nType="-99"/>
            <Node pos="r" depth="3" NCoef="0" IVar="-1" Cut="0.0000000000000000e+00" cType="1" res="4.4242539443075657e-03" rms="3.7206825613975525e-01" purity="6.9705796241760254e-01" nType="-99"/>
          </Node>
        </Node>
        <Node pos="r" depth="1" NCoef="0" IVar="6" Cut="1.7436885833740234e+00" cType="1" res="-3.8449540734291077e-03" rms="3.8394945859909058e-01" purity="5.1457828283309937e-01" nType="0">
          <Node pos="l" depth="2" NCoef="0" IVar="3" Cut="1.4619770812988281e+02" cType="1" res="-2.7380238752812147e-03" rms="3.8755068182945251e-01" purity="5.3054350614547729e-01" nType="0">
            <Node pos="l" depth="3" NCoef="0" IVar="-1" Cut="0.0000000000000000e+00" cType="1" res="-8.2119302824139595e-03" rms="3.7490537762641907e-01" purity="2.5550210475921631e-01" nType="-99"/>
            <Node pos="r" depth="3" NCoef="0" IVar="-1" Cut="0.0000000000000000e+00" cType="1" res="4.1207549656974152e-05" rms="3.9117893576622009e-01" purity="6.1212205886840820e-01" nType="-99"/>
          </Node>
          <Node pos="r" depth="2" NCoef="0" IVar="-1" Cut="0.0000000000000000e+00" cType="1" res="-3.0603829771280289e-02" rms="2.8395783901214600e-01" purity="1.3495904207229614e-01" nType="-99"/>
        </Node>
      </Node>
    </BinaryTree>
    <BinaryTree type="DecisionTree" boostWeight="1.0000000000000000e+00" itree="552">
      <Node pos="s" depth="0" NCoef="0" IVar="1" Cut="2.0801176757812500e+03" cType="1" res="-8.7292719399556518e-04" rms="3.8473823666572571e-01" purity="4.9818289279937744e-01" nType="0">
        <Node pos="l" depth="1" NCoef="0" IVar="2" Cut="5.0086853027343750e+02" cType="1" res="-3.3856551453936845e-05" rms="3.8634437322616577e-01" purity="4.8515456914901733e-01" nType="0">
          <Node pos="l" depth="2" NCoef="0" IVar="2" Cut="4.4355920410156250e+02" cType="1" res="-2.9567291494458914e-03" rms="3.8487461209297180e-01" purity="4.8159763216972351e-01" nType="0">
            <Node pos="l" depth="3" NCoef="0" IVar="-1" Cut="0.0000000000000000e+00" cType="1" res="-6.9867400452494621e-04" rms="3.8606920838356018e-01" purity="4.7905430197715759e-01" nType="-99"/>
            <Node pos="r" depth="3" NCoef="0" IVar="-1" Cut="0.0000000000000000e+00" cType="1" res="-1.4444217085838318e-02" rms="3.7302491068840027e-01" purity="5.0542581081390381e-01" nType="-99"/>
          </Node>
          <Node pos="r" depth="2" NCoef="0" IVar="1" Cut="1.4265976562500000e+03" cType="1" res="1.7917837947607040e-02" rms="3.9477723836898804e-01" purity="5.0700080394744873e-01" nType="0">
            <Node pos="l" depth="3" NCoef="0" IVar="-1" Cut="0.0000000000000000e+00" cType="1" res="-1.4508551917970181e-02" rms="3.3754396438598633e-01" purity="1.7111814022064209e-01" nType="-99"/>
            <Node pos="r" depth="3" NCoef="0" IVar="-1" Cut="0.0000000000000000e+00" cType="1" res="1.6964823007583618e-02" rms="4.0831914544105530e-01" purity="5.9767895936965942e-01" nType="-99"/>
          </Node>
        </Node>
        <Node pos="r" depth="1" NCoef="0" IVar="-1" Cut="0.0000000000000000e+00" cType="1" res="-1.6123067587614059e-02" rms="3.4690642356872559e-01" purity="7.8559660911560059e-01" nType="-99"/>
      </Node>
    </BinaryTree>
    <BinaryTree type="DecisionTree" boostWeight="1.0000000000000000e+00" itree="553">
      <Node pos="s" depth="0" NCoef="0" IVar="9" Cut="9.3332934379577637e-01" cType="1" res="-4.3272299808450043e-04" rms="3.8544645905494690e-01" purity="4.9638545513153076e-01" nType="0">
        <Node pos="l" depth="1" NCoef="0" IVar="8" Cut="-1.4666403532028198e+00" cType="1" res="3.3822744153439999e-03" rms="3.8827961683273315e-01" purity="5.1839441061019897e-01" nType="0">
          <Node pos="l" depth="2" NCoef="0" IVar="5" Cut="8.6065628051757812e+01" cType="1" res="2.2423341870307922e-02" rms="3.8184928894042969e-01" purity="3.5053780674934387e-01" nType="0">
            <Node pos="l" depth="3" NCoef="0" IVar="-1" Cut="0.0000000000000000e+00" cType="1" res="7.6232366263866425e-03" rms="3.6237826943397522e-01" purity="2.2974234819412231e-01" nType="-99"/>
            <Node pos="r" depth="3" NCoef="0" IVar="-1" Cut="0.0000000000000000e+00" cType="1" res="2.7219060808420181e-02" rms="4.1202393174171448e-01" purity="5.5661356449127197e-01" nType="-99"/>
          </Node>
          <Node pos="r" depth="2" NCoef="0" IVar="9" Cut="-6.6666895151138306e-01" cType="1" res="1.0040708584710956e-03" rms="3.8900983333587646e-01" purity="5.3935945034027100e-01" nType="0">
            <Node pos="l" depth="3" NCoef="0" IVar="-1" Cut="0.0000000000000000e+00" cType="1" res="-5.4358639754354954e-03" rms="3.8371804356575012e-01" purity="4.8302930593490601e-01" nType="-99"/>
            <Node pos="r" depth="3" NCoef="0" IVar="-1" Cut="0.0000000000000000e+00" cType="1" res="4.3362742289900780e-03" rms="3.9211952686309814e-01" purity="5.7397544384002686e-01" nType="-99"/>
          </Node>
        </Node>
        <Node pos="r" depth="1" NCoef="0" IVar="8" Cut="9.3337708711624146e-01" cType="1" res="-1.3270544819533825e-02" rms="3.7547108530998230e-01" purity="4.2232331633567810e-01" nType="0">
          <Node pos="l" depth="2" NCoef="0" IVar="6" Cut="-3.6834886670112610e-01" cType="1" res="-1.8231045454740524e-02" rms="3.7875694036483765e-01" purity="4.6415394544601440e-01" nType="0">
            <Node pos="l" depth="3" NCoef="0" IVar="-1" Cut="0.0000000000000000e+00" cType="1" res="-4.4474229216575623e-03" rms="3.7358739972114563e-01" purity="4.1726714372634888e-01" nType="-99"/>
            <Node pos="r" depth="3" NCoef="0" IVar="-1" Cut="0.0000000000000000e+00" cType="1" res="-1.5623099170625210e-02" rms="3.8104873895645142e-01" purity="4.8625683784484863e-01" nType="-99"/>
          </Node>
          <Node pos="r" depth="2" NCoef="0" IVar="7" Cut="1.3342197239398956e-01" cType="1" res="7.4473628774285316e-04" rms="3.6566448211669922e-01" purity="3.0413615703582764e-01" nType="0">
            <Node pos="l" depth="3" NCoef="0" IVar="-1" Cut="0.0000000000000000e+00" cType="1" res="1.1447741650044918e-02" rms="3.8761368393898010e-01" purity="3.4152927994728088e-01" nType="-99"/>
            <Node pos="r" depth="3" NCoef="0" IVar="-1" Cut="0.0000000000000000e+00" cType="1" res="-8.7340967729687691e-03" rms="3.4764450788497925e-01" purity="2.7579161524772644e-01" nType="-99"/>
          </Node>
        </Node>
      </Node>
    </BinaryTree>
    <BinaryTree type="DecisionTree" boostWeight="1.0000000000000000e+00" itree="554">
      <Node pos="s" depth="0" NCoef="0" IVar="2" Cut="5.0380249023437500e+02" cType="1" res="-7.5885019032284617e-04" rms="3.8348928093910217e-01" purity="4.9805352091789246e-01" nType="0">
        <Node pos="l" depth="1" NCoef="0" IVar="5" Cut="8.4886566162109375e+01" cType="1" res="-3.5559306852519512e-03" rms="3.8215959072113037e-01" purity="4.8285239934921265e-01" nType="0">
          <Node pos="l" depth="2" NCoef="0" IVar="6" Cut="-6.5114581584930420e-01" cType="1" res="-9.8696760833263397e-03" rms="3.8265943527221680e-01" purity="3.1444197893142700e-01" nType="0">
            <Node pos="l" depth="3" NCoef="0" IVar="-1" Cut="0.0000000000000000e+00" cType="1" res="-1.7724983394145966e-02" rms="3.4336993098258972e-01" purity="2.1513909101486206e-01" nType="-99"/>
            <Node pos="r" depth="3" NCoef="0" IVar="-1" Cut="0.0000000000000000e+00" cType="1" res="-3.2487434800714254e-03" rms="3.9569318294525146e-01" purity="3.5004758834838867e-01" nType="-99"/>
          </Node>
          <Node pos="r" depth="2" NCoef="0" IVar="3" Cut="1.6592515563964844e+02" cType="1" res="3.9696833118796349e-03" rms="3.8142642378807068e-01" purity="6.8358778953552246e-01" nType="0">
            <Node pos="l" depth="3" NCoef="0" IVar="-1" Cut="0.0000000000000000e+00" cType="1" res="-6.2103127129375935e-03" rms="4.2414832115173340e-01" purity="4.7627606987953186e-01" nType="-99"/>
            <Node pos="r" depth="3" NCoef="0" IVar="-1" Cut="0.0000000000000000e+00" cType="1" res="5.4773977026343346e-03" rms="3.7068977952003479e-01" purity="7.3183256387710571e-01" nType="-99"/>
          </Node>
        </Node>
        <Node pos="r" depth="1" NCoef="0" IVar="7" Cut="-9.3334752321243286e-01" cType="1" res="1.3070423156023026e-02" rms="3.8970214128494263e-01" purity="5.7321059703826904e-01" nType="0">
          <Node pos="l" depth="2" NCoef="0" IVar="-1" Cut="0.0000000000000000e+00" cType="1" res="3.0291756615042686e-02" rms="4.1180586814880371e-01" purity="4.4977745413780212e-01" nType="-99"/>
          <Node pos="r" depth="2" NCoef="0" IVar="0" Cut="6.7113299560546875e+02" cType="1" res="5.8226324617862701e-03" rms="3.8448297977447510e-01" purity="5.9926217794418335e-01" nType="0">
            <Node pos="l" depth="3" NCoef="0" IVar="-1" Cut="0.0000000000000000e+00" cType="1" res="-2.1958227443974465e-04" rms="3.8871535658836365e-01" purity="5.2868676185607910e-01" nType="-99"/>
            <Node pos="r" depth="3" NCoef="0" IVar="-1" Cut="0.0000000000000000e+00" cType="1" res="1.5356048010289669e-02" rms="3.7283065915107727e-01" purity="7.8196525573730469e-01" nType="-99"/>
          </Node>
        </Node>
      </Node>
    </BinaryTree>
    <BinaryTree type="DecisionTree" boostWeight="1.0000000000000000e+00" itree="555">
      <Node pos="s" depth="0" NCoef="0" IVar="8" Cut="-1.3338100910186768e-01" cType="1" res="-3.0075362883508205e-03" rms="3.8414576649665833e-01" purity="4.9583914875984192e-01" nType="0">
        <Node pos="l" depth="1" NCoef="0" IVar="6" Cut="-1.4584082365036011e+00" cType="1" res="-8.4067443385720253e-03" rms="3.8592141866683960e-01" purity="4.7775420546531677e-01" nType="0">
          <Node pos="l" depth="2" NCoef="0" IVar="-1" Cut="0.0000000000000000e+00" cType="1" res="2.1891672164201736e-02" rms="3.4636718034744263e-01" purity="2.0724029839038849e-01" nType="-99"/>
          <Node pos="r" depth="2" NCoef="0" IVar="7" Cut="6.6650307178497314e-01" cType="1" res="-1.1113290674984455e-02" rms="3.8897842168807983e-01" purity="5.0075101852416992e-01" nType="0">
            <Node pos="l" depth="3" NCoef="0" IVar="-1" Cut="0.0000000000000000e+00" cType="1" res="-4.6608876436948776e-03" rms="3.9026334881782532e-01" purity="5.3011244535446167e-01" nType="-99"/>
            <Node pos="r" depth="3" NCoef="0" IVar="-1" Cut="0.0000000000000000e+00" cType="1" res="-1.6384933143854141e-02" rms="3.8426434993743896e-01" purity="4.0083080530166626e-01" nType="-99"/>
          </Node>
        </Node>
        <Node pos="r" depth="1" NCoef="0" IVar="6" Cut="-1.4239511489868164e+00" cType="1" res="1.3588720466941595e-03" rms="3.8264808058738708e-01" purity="5.1046472787857056e-01" nType="0">
          <Node pos="l" depth="2" NCoef="0" IVar="-1" Cut="0.0000000000000000e+00" cType="1" res="-2.0501861348748207e-02" rms="3.2142019271850586e-01" purity="1.9608770310878754e-01" nType="-99"/>
          <Node pos="r" depth="2" NCoef="0" IVar="9" Cut="-1.9999960660934448e+00" cType="1" res="3.0181859619915485e-03" rms="3.8611996173858643e-01" purity="5.3026825189590454e-01" nType="0">
            <Node pos="l" depth="3" NCoef="0" IVar="-1" Cut="0.0000000000000000e+00" cType="1" res="1.7769517377018929e-02" rms="4.0090194344520569e-01" purity="4.2936554551124573e-01" nType="-99"/>
            <Node pos="r" depth="3" NCoef="0" IVar="-1" Cut="0.0000000000000000e+00" cType="1" res="1.1813659220933914e-03" rms="3.8530340790748596e-01" purity="5.3545683622360229e-01" nType="-99"/>
          </Node>
        </Node>
      </Node>
    </BinaryTree>
    <BinaryTree type="DecisionTree" boostWeight="1.0000000000000000e+00" itree="556">
      <Node pos="s" depth="0" NCoef="0" IVar="8" Cut="1.7333204746246338e+00" cType="1" res="2.1673163864761591e-03" rms="3.8409325480461121e-01" purity="5.0165647268295288e-01" nType="0">
        <Node pos="l" depth="1" NCoef="0" IVar="8" Cut="6.3386871479451656e-03" cType="1" res="7.9041405115276575e-04" rms="3.8530629873275757e-01" purity="5.1628446578979492e-01" nType="0">
          <Node pos="l" depth="2" NCoef="0" IVar="9" Cut="1.4667185544967651e+00" cType="1" res="6.2533775344491005e-03" rms="3.8503301143646240e-01" purity="5.0560110807418823e-01" nType="0">
            <Node pos="l" depth="3" NCoef="0" IVar="-1" Cut="0.0000000000000000e+00" cType="1" res="6.2348651699721813e-03" rms="3.8520100712776184e-01" purity="5.1968181133270264e-01" nType="-99"/>
            <Node pos="r" depth="3" NCoef="0" IVar="-1" Cut="0.0000000000000000e+00" cType="1" res="-1.2654092162847519e-02" rms="3.8269874453544617e-01" purity="3.8757562637329102e-01" nType="-99"/>
          </Node>
          <Node pos="r" depth="2" NCoef="0" IVar="6" Cut="1.2027733325958252e+00" cType="1" res="-5.7730562984943390e-03" rms="3.8553199172019958e-01" purity="5.2912002801895142e-01" nType="0">
            <Node pos="l" depth="3" NCoef="0" IVar="-1" Cut="0.0000000000000000e+00" cType="1" res="-2.1996491122990847e-03" rms="3.9077872037887573e-01" purity="5.6616204977035522e-01" nType="-99"/>
            <Node pos="r" depth="3" NCoef="0" IVar="-1" Cut="0.0000000000000000e+00" cType="1" res="-2.0150037482380867e-02" rms="3.3886292576789856e-01" purity="2.2552360594272614e-01" nType="-99"/>
          </Node>
        </Node>
        <Node pos="r" depth="1" NCoef="0" IVar="8" Cut="2.2412543296813965e+00" cType="1" res="2.0058147609233856e-02" rms="3.6749938130378723e-01" purity="3.1158632040023804e-01" nType="0">
          <Node pos="l" depth="2" NCoef="0" IVar="-1" Cut="0.0000000000000000e+00" cType="1" res="2.3731859400868416e-02" rms="3.8330098986625671e-01" purity="3.5697847604751587e-01" nType="-99"/>
          <Node pos="r" depth="2" NCoef="0" IVar="-1" Cut="0.0000000000000000e+00" cType="1" res="-3.0909683555364609e-03" rms="3.3599942922592163e-01" purity="2.3017364740371704e-01" nType="-99"/>
        </Node>
      </Node>
    </BinaryTree>
    <BinaryTree type="DecisionTree" boostWeight="1.0000000000000000e+00" itree="557">
      <Node pos="s" depth="0" NCoef="0" IVar="1" Cut="1.1200330810546875e+03" cType="1" res="8.7896012701094151e-04" rms="3.8576933741569519e-01" purity="5.0067365169525146e-01" nType="0">
        <Node pos="l" depth="1" NCoef="0" IVar="8" Cut="1.1999341249465942e+00" cType="1" res="9.1456044465303421e-03" rms="3.8209867477416992e-01" purity="2.5383290648460388e-01" nType="0">
          <Node pos="l" depth="2" NCoef="0" IVar="2" Cut="2.1821589660644531e+02" cType="1" res="3.4274226054549217e-03" rms="3.8513180613517761e-01" purity="2.6343065500259399e-01" nType="0">
            <Node pos="l" depth="3" NCoef="0" IVar="-1" Cut="0.0000000000000000e+00" cType="1" res="1.9787902012467384e-02" rms="4.2372918128967285e-01" purity="3.6610496044158936e-01" nType="-99"/>
            <Node pos="r" depth="3" NCoef="0" IVar="-1" Cut="0.0000000000000000e+00" cType="1" res="-9.7506225574761629e-04" rms="3.7856408953666687e-01" purity="2.4751733243465424e-01" nType="-99"/>
          </Node>
          <Node pos="r" depth="2" NCoef="0" IVar="-1" Cut="0.0000000000000000e+00" cType="1" res="2.8236152604222298e-02" rms="3.6765253543853760e-01" purity="2.1227429807186127e-01" nType="-99"/>
        </Node>
        <Node pos="r" depth="1" NCoef="0" IVar="7" Cut="-4.0006509423255920e-01" cType="1" res="-3.4439763985574245e-03" rms="3.8760483264923096e-01" purity="6.2975591421127319e-01" nType="0">
          <Node pos="l" depth="2" NCoef="0" IVar="6" Cut="9.5221233367919922e-01" cType="1" res="-1.2047978118062019e-02" rms="3.9478063583374023e-01" purity="5.7902950048446655e-01" nType="0">
            <Node pos="l" depth="3" NCoef="0" IVar="-1" Cut="0.0000000000000000e+00" cType="1" res="-1.0805567726492882e-02" rms="3.9458703994750977e-01" purity="6.1170274019241333e-01" nType="-99"/>
            <Node pos="r" depth="3" NCoef="0" IVar="-1" Cut="0.0000000000000000e+00" cType="1" res="1.3396107591688633e-02" rms="3.9457753300666809e-01" purity="3.6564260721206665e-01" nType="-99"/>
          </Node>
          <Node pos="r" depth="2" NCoef="0" IVar="4" Cut="1.0577787780761719e+02" cType="1" res="9.9517242051661015e-04" rms="3.8377466797828674e-01" purity="6.5592771768569946e-01" nType="0">
            <Node pos="l" depth="3" NCoef="0" IVar="-1" Cut="0.0000000000000000e+00" cType="1" res="6.5509979613125324e-03" rms="4.1698345541954041e-01" purity="4.4706922769546509e-01" nType="-99"/>
            <Node pos="r" depth="3" NCoef="0" IVar="-1" Cut="0.0000000000000000e+00" cType="1" res="-1.2232677545398474e-03" rms="3.7482675909996033e-01" purity="7.0895528793334961e-01" nType="-99"/>
          </Node>
        </Node>
      </Node>
    </BinaryTree>
    <BinaryTree type="DecisionTree" boostWeight="1.0000000000000000e+00" itree="558">
      <Node pos="s" depth="0" NCoef="0" IVar="3" Cut="1.4556855773925781e+02" cType="1" res="1.6764089232310653e-03" rms="3.8616377115249634e-01" purity="4.9956408143043518e-01" nType="0">
        <Node pos="l" depth="1" NCoef="0" IVar="4" Cut="6.3708305358886719e+01" cType="1" res="1.1822312138974667e-02" rms="3.7783828377723694e-01" purity="2.5616541504859924e-01" nType="0">
          <Node pos="l" depth="2" NCoef="0" IVar="-1" Cut="0.0000000000000000e+00" cType="1" res="-2.0425181835889816e-02" rms="2.7715802192687988e-01" purity="9.6538417041301727e-02" nType="-99"/>
          <Node pos="r" depth="2" NCoef="0" IVar="4" Cut="8.3133377075195312e+01" cType="1" res="1.5647575259208679e-02" rms="3.8846531510353088e-01" purity="2.7619534730911255e-01" nType="0">
            <Node pos="l" depth="3" NCoef="0" IVar="-1" Cut="0.0000000000000000e+00" cType="1" res="2.4576410651206970e-02" rms="3.5490989685058594e-01" purity="1.9450059533119202e-01" nType="-99"/>
            <Node pos="r" depth="3" NCoef="0" IVar="-1" Cut="0.0000000000000000e+00" cType="1" res="4.7632791101932526e-03" rms="4.0709328651428223e-01" purity="3.2526558637619019e-01" nType="-99"/>
          </Node>
        </Node>
        <Node pos="r" depth="1" NCoef="0" IVar="7" Cut="-1.2000645399093628e+00" cType="1" res="-1.6175196506083012e-03" rms="3.8877141475677490e-01" purity="5.7858490943908691e-01" nType="0">
          <Node pos="l" depth="2" NCoef="0" IVar="6" Cut="1.8687619268894196e-01" cType="1" res="-1.7424805089831352e-02" rms="3.7589299678802490e-01" purity="3.4551909565925598e-01" nType="0">
            <Node pos="l" depth="3" NCoef="0" IVar="-1" Cut="0.0000000000000000e+00" cType="1" res="-2.6402913499623537e-03" rms="3.9325276017189026e-01" purity="3.9859926700592041e-01" nType="-99"/>
            <Node pos="r" depth="3" NCoef="0" IVar="-1" Cut="0.0000000000000000e+00" cType="1" res="-2.8456075116991997e-02" rms="3.4633621573448181e-01" purity="2.6347991824150085e-01" nType="-99"/>
          </Node>
          <Node pos="r" depth="2" NCoef="0" IVar="9" Cut="1.1999920606613159e+00" cType="1" res="4.7411365085281432e-04" rms="3.9039573073387146e-01" purity="6.0942435264587402e-01" nType="0">
            <Node pos="l" depth="3" NCoef="0" IVar="-1" Cut="0.0000000000000000e+00" cType="1" res="-1.2894921237602830e-03" rms="3.9117455482482910e-01" purity="6.2360161542892456e-01" nType="-99"/>
            <Node pos="r" depth="3" NCoef="0" IVar="-1" Cut="0.0000000000000000e+00" cType="1" res="7.7946442179381847e-03" rms="3.8643509149551392e-01" purity="5.4164010286331177e-01" nType="-99"/>
          </Node>
        </Node>
      </Node>
    </BinaryTree>
    <BinaryTree type="DecisionTree" boostWeight="1.0000000000000000e+00" itree="559">
      <Node pos="s" depth="0" NCoef="0" IVar="9" Cut="-2.2666001319885254e+00" cType="1" res="6.8097835173830390e-04" rms="3.8690838217735291e-01" purity="4.9997901916503906e-01" nType="0">
        <Node pos="l" depth="1" NCoef="0" IVar="-1" Cut="0.0000000000000000e+00" cType="1" res="2.9319997876882553e-02" rms="3.7793508172035217e-01" purity="3.6002039909362793e-01" nType="-99"/>
        <Node pos="r" depth="1" NCoef="0" IVar="6" Cut="-3.9372941851615906e-01" cType="1" res="-7.2270364034920931e-04" rms="3.8713371753692627e-01" purity="5.0475388765335083e-01" nType="0">
          <Node pos="l" depth="2" NCoef="0" IVar="8" Cut="-3.9978098869323730e-01" cType="1" res="8.8173784315586090e-03" rms="3.8773518800735474e-01" purity="4.5471984148025513e-01" nType="0">
            <Node pos="l" depth="3" NCoef="0" IVar="-1" Cut="0.0000000000000000e+00" cType="1" res="-1.0094204917550087e-03" rms="3.7935149669647217e-01" purity="4.0842622518539429e-01" nType="-99"/>
            <Node pos="r" depth="3" NCoef="0" IVar="-1" Cut="0.0000000000000000e+00" cType="1" res="1.0591673664748669e-02" rms="3.9342817664146423e-01" purity="4.8765921592712402e-01" nType="-99"/>
          </Node>
          <Node pos="r" depth="2" NCoef="0" IVar="7" Cut="1.7332357168197632e+00" cType="1" res="-5.6137144565582275e-03" rms="3.8673377037048340e-01" purity="5.3040534257888794e-01" nType="0">
            <Node pos="l" depth="3" NCoef="0" IVar="-1" Cut="0.0000000000000000e+00" cType="1" res="-4.7085573896765709e-03" rms="3.8884261250495911e-01" purity="5.4679524898529053e-01" nType="-99"/>
            <Node pos="r" depth="3" NCoef="0" IVar="-1" Cut="0.0000000000000000e+00" cType="1" res="1.6205273568630219e-02" rms="3.4910544753074646e-01" purity="2.5972977280616760e-01" nType="-99"/>
          </Node>
        </Node>
      </Node>
    </BinaryTree>
    <BinaryTree type="DecisionTree" boostWeight="1.0000000000000000e+00" itree="560">
      <Node pos="s" depth="0" NCoef="0" IVar="9" Cut="-2.2666594982147217e+00" cType="1" res="2.6975228684023023e-04" rms="3.8528966903686523e-01" purity="4.9999302625656128e-01" nType="0">
        <Node pos="l" depth="1" NCoef="0" IVar="-1" Cut="0.0000000000000000e+00" cType="1" res="2.1238980814814568e-02" rms="3.8814362883567810e-01" purity="3.5408270359039307e-01" nType="-99"/>
        <Node pos="r" depth="1" NCoef="0" IVar="6" Cut="6.7565500736236572e-01" cType="1" res="-6.9215235998854041e-04" rms="3.8515862822532654e-01" purity="5.0471675395965576e-01" nType="0">
          <Node pos="l" depth="2" NCoef="0" IVar="8" Cut="-6.6665130853652954e-01" cType="1" res="-3.3811810426414013e-03" rms="3.8793659210205078e-01" purity="5.4228770732879639e-01" nType="0">
            <Node pos="l" depth="3" NCoef="0" IVar="-1" Cut="0.0000000000000000e+00" cType="1" res="4.8992135562002659e-03" rms="3.8791626691818237e-01" purity="4.8895850777626038e-01" nType="-99"/>
            <Node pos="r" depth="3" NCoef="0" IVar="-1" Cut="0.0000000000000000e+00" cType="1" res="-5.2651669830083847e-03" rms="3.8785108923912048e-01" purity="5.6519347429275513e-01" nType="-99"/>
          </Node>
          <Node pos="r" depth="2" NCoef="0" IVar="9" Cut="1.5936464071273804e+00" cType="1" res="7.8813293948769569e-03" rms="3.7603622674942017e-01" purity="3.8492855429649353e-01" nType="0">
            <Node pos="l" depth="3" NCoef="0" IVar="-1" Cut="0.0000000000000000e+00" cType="1" res="2.1771066822111607e-03" rms="3.7828397750854492e-01" purity="3.9658907055854797e-01" nType="-99"/>
            <Node pos="r" depth="3" NCoef="0" IVar="-1" Cut="0.0000000000000000e+00" cType="1" res="2.9357841238379478e-02" rms="3.6079874634742737e-01" purity="3.1438750028610229e-01" nType="-99"/>
          </Node>
        </Node>
      </Node>
    </BinaryTree>
    <BinaryTree type="DecisionTree" boostWeight="1.0000000000000000e+00" itree="561">
      <Node pos="s" depth="0" NCoef="0" IVar="7" Cut="6.6659396886825562e-01" cType="1" res="3.7236284697428346e-05" rms="3.8352128863334656e-01" purity="5.0074368715286255e-01" nType="0">
        <Node pos="l" depth="1" NCoef="0" IVar="7" Cut="1.7134441435337067e-01" cType="1" res="3.6383322440087795e-03" rms="3.8716107606887817e-01" purity="5.3797411918640137e-01" nType="0">
          <Node pos="l" depth="2" NCoef="0" IVar="0" Cut="6.0598901367187500e+02" cType="1" res="-7.7412562677636743e-04" rms="3.8342252373695374e-01" purity="5.1643782854080200e-01" nType="0">
            <Node pos="l" depth="3" NCoef="0" IVar="-1" Cut="0.0000000000000000e+00" cType="1" res="9.6643518190830946e-04" rms="3.8988998532295227e-01" purity="4.6810415387153625e-01" nType="-99"/>
            <Node pos="r" depth="3" NCoef="0" IVar="-1" Cut="0.0000000000000000e+00" cType="1" res="-1.2643394991755486e-02" rms="3.4189653396606445e-01" purity="8.0541574954986572e-01" nType="-99"/>
          </Node>
          <Node pos="r" depth="2" NCoef="0" IVar="0" Cut="4.2781671142578125e+02" cType="1" res="1.8120659515261650e-02" rms="3.9884272217750549e-01" purity="6.0865938663482666e-01" nType="0">
            <Node pos="l" depth="3" NCoef="0" IVar="-1" Cut="0.0000000000000000e+00" cType="1" res="1.9848352298140526e-02" rms="4.2894250154495239e-01" purity="4.6345373988151550e-01" nType="-99"/>
            <Node pos="r" depth="3" NCoef="0" IVar="-1" Cut="0.0000000000000000e+00" cType="1" res="6.2195537611842155e-04" rms="3.6492890119552612e-01" purity="7.5615423917770386e-01" nType="-99"/>
          </Node>
        </Node>
        <Node pos="r" depth="1" NCoef="0" IVar="9" Cut="6.6661435365676880e-01" cType="1" res="-1.0104219429194927e-02" rms="3.7289327383041382e-01" purity="3.9589470624923706e-01" nType="0">
          <Node pos="l" depth="2" NCoef="0" IVar="8" Cut="9.3282955884933472e-01" cType="1" res="-1.7209436045959592e-03" rms="3.8126206398010254e-01" purity="4.3434149026870728e-01" nType="0">
            <Node pos="l" depth="3" NCoef="0" IVar="-1" Cut="0.0000000000000000e+00" cType="1" res="2.7560754679143429e-03" rms="3.8744732737541199e-01" purity="4.6578186750411987e-01" nType="-99"/>
            <Node pos="r" depth="3" NCoef="0" IVar="-1" Cut="0.0000000000000000e+00" cType="1" res="-1.4007003046572208e-02" rms="3.6065492033958435e-01" purity="3.3615955710411072e-01" nType="-99"/>
          </Node>
          <Node pos="r" depth="2" NCoef="0" IVar="8" Cut="3.9965286850929260e-01" cType="1" res="-2.5016646832227707e-02" rms="3.5703662037849426e-01" purity="3.2750445604324341e-01" nType="0">
            <Node pos="l" depth="3" NCoef="0" IVar="-1" Cut="0.0000000000000000e+00" cType="1" res="-2.3939251899719238e-02" rms="3.6032557487487793e-01" purity="3.7292256951332092e-01" nType="-99"/>
            <Node pos="r" depth="3" NCoef="0" IVar="-1" Cut="0.0000000000000000e+00" cType="1" res="-1.1104930192232132e-02" rms="3.5309222340583801e-01" purity="2.7780848741531372e-01" nType="-99"/>
          </Node>
        </Node>
      </Node>
    </BinaryTree>
    <BinaryTree type="DecisionTree" boostWeight="1.0000000000000000e+00" itree="562">
      <Node pos="s" depth="0" NCoef="0" IVar="9" Cut="1.4666681289672852e+00" cType="1" res="6.2845315551385283e-04" rms="3.8444617390632629e-01" purity="5.0276821851730347e-01" nType="0">
        <Node pos="l" depth="1" NCoef="0" IVar="4" Cut="9.6874839782714844e+01" cType="1" res="2.9063650872558355e-03" rms="3.8563680648803711e-01" purity="5.2034485340118408e-01" nType="0">
          <Node pos="l" depth="2" NCoef="0" IVar="5" Cut="7.8803916931152344e+01" cType="1" res="-6.3495640642940998e-03" rms="3.7061321735382080e-01" purity="2.4315413832664490e-01" nType="0">
            <Node pos="l" depth="3" NCoef="0" IVar="-1" Cut="0.0000000000000000e+00" cType="1" res="-7.9102395102381706e-03" rms="3.6379882693290710e-01" purity="2.1741990745067596e-01" nType="-99"/>
            <Node pos="r" depth="3" NCoef="0" IVar="-1" Cut="0.0000000000000000e+00" cType="1" res="1.4454727061092854e-02" rms="4.1421681642532349e-01" purity="4.2524182796478271e-01" nType="-99"/>
          </Node>
          <Node pos="r" depth="2" NCoef="0" IVar="7" Cut="-1.7332967519760132e+00" cType="1" res="6.4140050671994686e-03" rms="3.9112219214439392e-01" purity="6.2538945674896240e-01" nType="0">
            <Node pos="l" depth="3" NCoef="0" IVar="-1" Cut="0.0000000000000000e+00" cType="1" res="-1.4246709644794464e-02" rms="3.6459931731224060e-01" purity="2.7387610077857971e-01" nType="-99"/>
            <Node pos="r" depth="3" NCoef="0" IVar="-1" Cut="0.0000000000000000e+00" cType="1" res="4.9802139401435852e-03" rms="3.9229914546012878e-01" purity="6.4218693971633911e-01" nType="-99"/>
          </Node>
        </Node>
        <Node pos="r" depth="1" NCoef="0" IVar="7" Cut="9.3415325880050659e-01" cType="1" res="-1.5961999073624611e-02" rms="3.7524393200874329e-01" purity="3.7475433945655823e-01" nType="0">
          <Node pos="l" depth="2" NCoef="0" IVar="4" Cut="1.2093346405029297e+02" cType="1" res="-2.7321718633174896e-02" rms="3.8457030057907104e-01" purity="4.1063493490219116e-01" nType="0">
            <Node pos="l" depth="3" NCoef="0" IVar="-1" Cut="0.0000000000000000e+00" cType="1" res="-7.8469626605510712e-03" rms="3.7322154641151428e-01" purity="2.7213326096534729e-01" nType="-99"/>
            <Node pos="r" depth="3" NCoef="0" IVar="-1" Cut="0.0000000000000000e+00" cType="1" res="-2.8670756146311760e-02" rms="3.9651387929916382e-01" purity="5.7038450241088867e-01" nType="-99"/>
          </Node>
          <Node pos="r" depth="2" NCoef="0" IVar="-1" Cut="0.0000000000000000e+00" cType="1" res="1.1472825892269611e-02" rms="3.4747132658958435e-01" purity="2.7946701645851135e-01" nType="-99"/>
        </Node>
      </Node>
    </BinaryTree>
    <BinaryTree type="DecisionTree" boostWeight="1.0000000000000000e+00" itree="563">
      <Node pos="s" depth="0" NCoef="0" IVar="1" Cut="1.6831158447265625e+03" cType="1" res="-2.1381643600761890e-03" rms="3.8241595029830933e-01" purity="4.9997898936271667e-01" nType="0">
        <Node pos="l" depth="1" NCoef="0" IVar="2" Cut="3.1070455932617188e+02" cType="1" res="-4.7734808176755905e-03" rms="3.9065140485763550e-01" purity="4.3815505504608154e-01" nType="0">
          <Node pos="l" depth="2" NCoef="0" IVar="4" Cut="1.2206098937988281e+02" cType="1" res="2.6387739926576614e-03" rms="3.9852875471115112e-01" purity="4.4142964482307434e-01" nType="0">
            <Node pos="l" depth="3" NCoef="0" IVar="-1" Cut="0.0000000000000000e+00" cType="1" res="6.6482024267315865e-03" rms="3.9707717299461365e-01" purity="3.0545958876609802e-01" nType="-99"/>
            <Node pos="r" depth="3" NCoef="0" IVar="-1" Cut="0.0000000000000000e+00" cType="1" res="-4.3679140508174896e-03" rms="4.0012651681900024e-01" purity="6.1166977882385254e-01" nType="-99"/>
          </Node>
          <Node pos="r" depth="2" NCoef="0" IVar="0" Cut="3.2813574218750000e+02" cType="1" res="-1.1195882223546505e-02" rms="3.8357946276664734e-01" purity="4.3531778454780579e-01" nType="0">
            <Node pos="l" depth="3" NCoef="0" IVar="-1" Cut="0.0000000000000000e+00" cType="1" res="-2.7060560882091522e-02" rms="3.3203390240669250e-01" purity="2.1389174461364746e-01" nType="-99"/>
            <Node pos="r" depth="3" NCoef="0" IVar="-1" Cut="0.0000000000000000e+00" cType="1" res="-4.2473999783396721e-03" rms="3.9238330721855164e-01" purity="4.7711840271949768e-01" nType="-99"/>
          </Node>
        </Node>
        <Node pos="r" depth="1" NCoef="0" IVar="6" Cut="4.4038349390029907e-01" cType="1" res="1.0760111734271049e-02" rms="3.3894115686416626e-01" purity="8.0256968736648560e-01" nType="0">
          <Node pos="l" depth="2" NCoef="0" IVar="8" Cut="-6.6669243574142456e-01" cType="1" res="4.5857471413910389e-03" rms="3.3313027024269104e-01" purity="8.1601756811141968e-01" nType="0">
            <Node pos="l" depth="3" NCoef="0" IVar="-1" Cut="0.0000000000000000e+00" cType="1" res="1.5495789237320423e-02" rms="3.5737597942352295e-01" purity="7.8700679540634155e-01" nType="-99"/>
            <Node pos="r" depth="3" NCoef="0" IVar="-1" Cut="0.0000000000000000e+00" cType="1" res="-9.9410407710820436e-04" rms="3.2364994287490845e-01" purity="8.2659906148910522e-01" nType="-99"/>
          </Node>
          <Node pos="r" depth="2" NCoef="0" IVar="-1" Cut="0.0000000000000000e+00" cType="1" res="1.9702974706888199e-02" rms="3.5273796319961548e-01" purity="7.6853573322296143e-01" nType="-99"/>
        </Node>
      </Node>
    </BinaryTree>
    <BinaryTree type="DecisionTree" boostWeight="1.0000000000000000e+00" itree="564">
      <Node pos="s" depth="0" NCoef="0" IVar="4" Cut="2.2917555236816406e+02" cType="1" res="-1.3262047104944941e-05" rms="3.8667407631874084e-01" purity="4.9791353940963745e-01" nType="0">
        <Node pos="l" depth="1" NCoef="0" IVar="5" Cut="5.8443019866943359e+01" cType="1" res="1.5746528515592217e-03" rms="3.9008274674415588e-01" purity="4.7365072369575500e-01" nType="0">
          <Node pos="l" depth="2" NCoef="0" IVar="5" Cut="5.3618427276611328e+01" cType="1" res="-8.7445126846432686e-03" rms="3.5861751437187195e-01" purity="2.3692761361598969e-01" nType="0">
            <Node pos="l" depth="3" NCoef="0" IVar="-1" Cut="0.0000000000000000e+00" cType="1" res="-1.7543455585837364e-02" rms="3.4811389446258545e-01" purity="2.0568405091762543e-01" nType="-99"/>
            <Node pos="r" depth="3" NCoef="0" IVar="-1" Cut="0.0000000000000000e+00" cType="1" res="2.0667498465627432e-03" rms="3.6664381623268127e-01" purity="2.6268965005874634e-01" nType="-99"/>
          </Node>
          <Node pos="r" depth="2" NCoef="0" IVar="4" Cut="7.4788429260253906e+01" cType="1" res="3.8225261960178614e-03" rms="3.9657035470008850e-01" purity="5.2521717548370361e-01" nType="0">
            <Node pos="l" depth="3" NCoef="0" IVar="-1" Cut="0.0000000000000000e+00" cType="1" res="-1.8192643299698830e-02" rms="3.3249679207801819e-01" purity="1.7480151355266571e-01" nType="-99"/>
            <Node pos="r" depth="3" NCoef="0" IVar="-1" Cut="0.0000000000000000e+00" cType="1" res="3.5580145195126534e-03" rms="4.0041401982307434e-01" purity="5.4858976602554321e-01" nType="-99"/>
          </Node>
        </Node>
        <Node pos="r" depth="1" NCoef="0" IVar="7" Cut="1.3391633331775665e-01" cType="1" res="-1.7751632258296013e-02" rms="3.4582790732383728e-01" purity="7.6895010471343994e-01" nType="0">
          <Node pos="l" depth="2" NCoef="0" IVar="-1" Cut="0.0000000000000000e+00" cType="1" res="-6.9671990349888802e-03" rms="3.3733552694320679e-01" purity="7.8873747587203979e-01" nType="-99"/>
          <Node pos="r" depth="2" NCoef="0" IVar="-1" Cut="0.0000000000000000e+00" cType="1" res="-2.6671951636672020e-02" rms="3.5793215036392212e-01" purity="7.3864424228668213e-01" nType="-99"/>
        </Node>
      </Node>
    </BinaryTree>
    <BinaryTree type="DecisionTree" boostWeight="1.0000000000000000e+00" itree="565">
      <Node pos="s" depth="0" NCoef="0" IVar="3" Cut="1.4131532287597656e+02" cType="1" res="9.6510321600362659e-04" rms="3.8372108340263367e-01" purity="4.9812889099121094e-01" nType="0">
        <Node pos="l" depth="1" NCoef="0" IVar="8" Cut="6.6647100448608398e-01" cType="1" res="-1.2569402344524860e-02" rms="3.6162382364273071e-01" purity="2.1680702269077301e-01" nType="0">
          <Node pos="l" depth="2" NCoef="0" IVar="6" Cut="-1.1219786405563354e+00" cType="1" res="-2.1674273535609245e-02" rms="3.5906705260276794e-01" purity="2.1862837672233582e-01" nType="0">
            <Node pos="l" depth="3" NCoef="0" IVar="-1" Cut="0.0000000000000000e+00" cType="1" res="9.6637010574340820e-03" rms="3.1981739401817322e-01" purity="1.3400407135486603e-01" nType="-99"/>
            <Node pos="r" depth="3" NCoef="0" IVar="-1" Cut="0.0000000000000000e+00" cType="1" res="-1.9017292186617851e-02" rms="3.6691591143608093e-01" purity="2.3753885924816132e-01" nType="-99"/>
          </Node>
          <Node pos="r" depth="2" NCoef="0" IVar="4" Cut="8.9066116333007812e+01" cType="1" res="5.9912870638072491e-03" rms="3.6608001589775085e-01" purity="2.1309415996074677e-01" nType="0">
            <Node pos="l" depth="3" NCoef="0" IVar="-1" Cut="0.0000000000000000e+00" cType="1" res="1.5132021158933640e-02" rms="3.3770594000816345e-01" purity="1.6294525563716888e-01" nType="-99"/>
            <Node pos="r" depth="3" NCoef="0" IVar="-1" Cut="0.0000000000000000e+00" cType="1" res="-5.4753459990024567e-03" rms="4.0225487947463989e-01" purity="2.8380876779556274e-01" nType="-99"/>
          </Node>
        </Node>
        <Node pos="r" depth="1" NCoef="0" IVar="7" Cut="-1.3341692090034485e-01" cType="1" res="4.8719798214733601e-03" rms="3.8977941870689392e-01" purity="5.7933533191680908e-01" nType="0">
          <Node pos="l" depth="2" NCoef="0" IVar="7" Cut="-1.7840858697891235e+00" cType="1" res="1.3203270733356476e-02" rms="3.9115777611732483e-01" purity="5.7638323307037354e-01" nType="0">
            <Node pos="l" depth="3" NCoef="0" IVar="-1" Cut="0.0000000000000000e+00" cType="1" res="-1.2601328082382679e-02" rms="3.4597980976104736e-01" purity="2.3135784268379211e-01" nType="-99"/>
            <Node pos="r" depth="3" NCoef="0" IVar="-1" Cut="0.0000000000000000e+00" cType="1" res="1.0158899240195751e-02" rms="3.9547720551490784e-01" purity="6.1258125305175781e-01" nType="-99"/>
          </Node>
          <Node pos="r" depth="2" NCoef="0" IVar="8" Cut="1.4662004709243774e+00" cType="1" res="-2.0023370161652565e-03" rms="3.8850393891334534e-01" purity="5.8177119493484497e-01" nType="0">
            <Node pos="l" depth="3" NCoef="0" IVar="-1" Cut="0.0000000000000000e+00" cType="1" res="-3.2933480106294155e-03" rms="3.8776183128356934e-01" purity="6.0176497697830200e-01" nType="-99"/>
            <Node pos="r" depth="3" NCoef="0" IVar="-1" Cut="0.0000000000000000e+00" cType="1" res="1.3995612971484661e-02" rms="3.9355728030204773e-01" purity="4.2246302962303162e-01" nType="-99"/>
          </Node>
        </Node>
      </Node>
    </BinaryTree>
    <BinaryTree type="DecisionTree" boostWeight="1.0000000000000000e+00" itree="566">
      <Node pos="s" depth="0" NCoef="0" IVar="9" Cut="-1.4666125774383545e+00" cType="1" res="1.5374677022919059e-03" rms="3.8395527005195618e-01" purity="5.0046175718307495e-01" nType="0">
        <Node pos="l" depth="1" NCoef="0" IVar="2" Cut="4.2558242797851562e+02" cType="1" res="-1.8340352922677994e-02" rms="3.7388494610786438e-01" purity="3.7383744120597839e-01" nType="0">
          <Node pos="l" depth="2" NCoef="0" IVar="5" Cut="7.6480987548828125e+01" cType="1" res="-1.0859905742108822e-02" rms="3.7055763602256775e-01" purity="3.7259739637374878e-01" nType="0">
            <Node pos="l" depth="3" NCoef="0" IVar="-1" Cut="0.0000000000000000e+00" cType="1" res="-1.1958563845837489e-04" rms="3.6108642816543579e-01" purity="2.5292432308197021e-01" nType="-99"/>
            <Node pos="r" depth="3" NCoef="0" IVar="-1" Cut="0.0000000000000000e+00" cType="1" res="-1.5202010050415993e-02" rms="3.8137340545654297e-01" purity="5.1839548349380493e-01" nType="-99"/>
          </Node>
          <Node pos="r" depth="2" NCoef="0" IVar="-1" Cut="0.0000000000000000e+00" cType="1" res="-2.6719396933913231e-02" rms="3.8244241476058960e-01" purity="3.7738746404647827e-01" nType="-99"/>
        </Node>
        <Node pos="r" depth="1" NCoef="0" IVar="6" Cut="-1.0740340501070023e-01" cType="1" res="4.2123119346797466e-03" rms="3.8521197438240051e-01" purity="5.1750087738037109e-01" nType="0">
          <Node pos="l" depth="2" NCoef="0" IVar="7" Cut="-6.6673392057418823e-01" cType="1" res="9.6293864771723747e-03" rms="3.8802945613861084e-01" purity="5.1690500974655151e-01" nType="0">
            <Node pos="l" depth="3" NCoef="0" IVar="-1" Cut="0.0000000000000000e+00" cType="1" res="1.4469834044575691e-02" rms="3.8980180025100708e-01" purity="4.4785317778587341e-01" nType="-99"/>
            <Node pos="r" depth="3" NCoef="0" IVar="-1" Cut="0.0000000000000000e+00" cType="1" res="3.2254462130367756e-03" rms="3.8721919059753418e-01" purity="5.4442095756530762e-01" nType="-99"/>
          </Node>
          <Node pos="r" depth="2" NCoef="0" IVar="4" Cut="1.4140336608886719e+02" cType="1" res="-2.4731486337259412e-04" rms="3.8281941413879395e-01" purity="5.1799142360687256e-01" nType="0">
            <Node pos="l" depth="3" NCoef="0" IVar="-1" Cut="0.0000000000000000e+00" cType="1" res="-3.7726098671555519e-03" rms="3.9521101117134094e-01" purity="3.6476972699165344e-01" nType="-99"/>
            <Node pos="r" depth="3" NCoef="0" IVar="-1" Cut="0.0000000000000000e+00" cType="1" res="5.8462359011173248e-03" rms="3.6458787322044373e-01" purity="7.3276603221893311e-01" nType="-99"/>
          </Node>
        </Node>
      </Node>
    </BinaryTree>
    <BinaryTree type="DecisionTree" boostWeight="1.0000000000000000e+00" itree="567">
      <Node pos="s" depth="0" NCoef="0" IVar="8" Cut="1.7330205440521240e+00" cType="1" res="5.6253455113619566e-04" rms="3.8266208767890930e-01" purity="5.0196456909179688e-01" nType="0">
        <Node pos="l" depth="1" NCoef="0" IVar="8" Cut="-1.5048500299453735e+00" cType="1" res="2.1512403618544340e-03" rms="3.8508859276771545e-01" purity="5.1953727006912231e-01" nType="0">
          <Node pos="l" depth="2" NCoef="0" IVar="7" Cut="-4.0198835730552673e-01" cType="1" res="-1.3926407322287560e-02" rms="3.5903647541999817e-01" purity="3.1051269173622131e-01" nType="0">
            <Node pos="l" depth="3" NCoef="0" IVar="-1" Cut="0.0000000000000000e+00" cType="1" res="2.3588261101394892e-03" rms="3.5241988301277161e-01" purity="2.8086516261100769e-01" nType="-99"/>
            <Node pos="r" depth="3" NCoef="0" IVar="-1" Cut="0.0000000000000000e+00" cType="1" res="-1.8910171464085579e-02" rms="3.6350190639495850e-01" purity="3.3326479792594910e-01" nType="-99"/>
          </Node>
          <Node pos="r" depth="2" NCoef="0" IVar="2" Cut="4.9193753051757812e+02" cType="1" res="4.0594316087663174e-03" rms="3.8802030682563782e-01" purity="5.4434549808502197e-01" nType="0">
            <Node pos="l" depth="3" NCoef="0" IVar="-1" Cut="0.0000000000000000e+00" cType="1" res="9.0510124573484063e-04" rms="3.8845384120941162e-01" purity="5.2934855222702026e-01" nType="-99"/>
            <Node pos="r" depth="3" NCoef="0" IVar="-1" Cut="0.0000000000000000e+00" cType="1" res="1.0148101486265659e-02" rms="3.8595622777938843e-01" purity="6.0829544067382812e-01" nType="-99"/>
          </Node>
        </Node>
        <Node pos="r" depth="1" NCoef="0" IVar="9" Cut="-1.3317129015922546e-01" cType="1" res="-2.0932724699378014e-02" rms="3.4745991230010986e-01" purity="2.6420503854751587e-01" nType="0">
          <Node pos="l" depth="2" NCoef="0" IVar="-1" Cut="0.0000000000000000e+00" cType="1" res="3.9517402183264494e-04" rms="3.7006250023841858e-01" purity="3.0774420499801636e-01" nType="-99"/>
          <Node pos="r" depth="2" NCoef="0" IVar="-1" Cut="0.0000000000000000e+00" cType="1" res="-2.7635704725980759e-02" rms="3.3100694417953491e-01" purity="2.3558819293975830e-01" nType="-99"/>
        </Node>
      </Node>
    </BinaryTree>
    <BinaryTree type="DecisionTree" boostWeight="1.0000000000000000e+00" itree="568">
      <Node pos="s" depth="0" NCoef="0" IVar="0" Cut="4.5299548339843750e+02" cType="1" res="-4.2181904427707195e-04" rms="3.8415285944938660e-01" purity="5.0200885534286499e-01" nType="0">
        <Node pos="l" depth="1" NCoef="0" IVar="8" Cut="-6.6665440797805786e-01" cType="1" res="3.3529556822031736e-03" rms="3.9154735207557678e-01" purity="3.6948925256729126e-01" nType="0">
          <Node pos="l" depth="2" NCoef="0" IVar="0" Cut="3.6556637573242188e+02" cType="1" res="1.8726646900177002e-02" rms="3.8492262363433838e-01" purity="3.3131927251815796e-01" nType="0">
            <Node pos="l" depth="3" NCoef="0" IVar="-1" Cut="0.0000000000000000e+00" cType="1" res="2.3448513820767403e-02" rms="3.8244202733039856e-01" purity="2.7996402978897095e-01" nType="-99"/>
            <Node pos="r" depth="3" NCoef="0" IVar="-1" Cut="0.0000000000000000e+00" cType="1" res="1.8282707314938307e-03" rms="3.8738313317298889e-01" purity="3.9480412006378174e-01" nType="-99"/>
          </Node>
          <Node pos="r" depth="2" NCoef="0" IVar="9" Cut="-3.9987215399742126e-01" cType="1" res="-3.2737192232161760e-03" rms="3.9418366551399231e-01" purity="3.8594207167625427e-01" nType="0">
            <Node pos="l" depth="3" NCoef="0" IVar="-1" Cut="0.0000000000000000e+00" cType="1" res="-1.1448570527136326e-02" rms="3.9188683032989502e-01" purity="3.7163388729095459e-01" nType="-99"/>
            <Node pos="r" depth="3" NCoef="0" IVar="-1" Cut="0.0000000000000000e+00" cType="1" res="3.1132912263274193e-03" rms="3.9518287777900696e-01" purity="3.9371031522750854e-01" nType="-99"/>
          </Node>
        </Node>
        <Node pos="r" depth="1" NCoef="0" IVar="8" Cut="-1.1999011039733887e+00" cType="1" res="-6.3284230418503284e-03" rms="3.7221086025238037e-01" purity="7.0936989784240723e-01" nType="0">
          <Node pos="l" depth="2" NCoef="0" IVar="-1" Cut="0.0000000000000000e+00" cType="1" res="-2.2741191089153290e-02" rms="3.9336511492729187e-01" purity="5.6926643848419189e-01" nType="-99"/>
          <Node pos="r" depth="2" NCoef="0" IVar="8" Cut="1.0857646465301514e+00" cType="1" res="-2.1402759011834860e-03" rms="3.6892294883728027e-01" purity="7.2922813892364502e-01" nType="0">
            <Node pos="l" depth="3" NCoef="0" IVar="-1" Cut="0.0000000000000000e+00" cType="1" res="-5.9260078705847263e-03" rms="3.6170980334281921e-01" purity="7.5491845607757568e-01" nType="-99"/>
            <Node pos="r" depth="3" NCoef="0" IVar="-1" Cut="0.0000000000000000e+00" cType="1" res="1.3561894185841084e-02" rms="3.9830818772315979e-01" purity="6.1574530601501465e-01" nType="-99"/>
          </Node>
        </Node>
      </Node>
    </BinaryTree>
    <BinaryTree type="DecisionTree" boostWeight="1.0000000000000000e+00" itree="569">
      <Node pos="s" depth="0" NCoef="0" IVar="6" Cut="-1.4581344127655029e+00" cType="1" res="1.6262925928458571e-03" rms="3.8516098260879517e-01" purity="5.0087457895278931e-01" nType="0">
        <Node pos="l" depth="1" NCoef="0" IVar="6" Cut="-1.7115818262100220e+00" cType="1" res="2.4987589567899704e-02" rms="3.4806302189826965e-01" purity="2.3056337237358093e-01" nType="0">
          <Node pos="l" depth="2" NCoef="0" IVar="-1" Cut="0.0000000000000000e+00" cType="1" res="8.1979967653751373e-03" rms="3.1586083769798279e-01" purity="1.8168105185031891e-01" nType="-99"/>
          <Node pos="r" depth="2" NCoef="0" IVar="-1" Cut="0.0000000000000000e+00" cType="1" res="3.7159889936447144e-02" rms="3.8788425922393799e-01" purity="2.9967606067657471e-01" nType="-99"/>
        </Node>
        <Node pos="r" depth="1" NCoef="0" IVar="1" Cut="1.4400612792968750e+03" cType="1" res="-1.4204213221091777e-04" rms="3.8776737451553345e-01" purity="5.2133584022521973e-01" nType="0">
          <Node pos="l" depth="2" NCoef="0" IVar="6" Cut="-1.0526511669158936e+00" cType="1" res="3.0604940839111805e-03" rms="4.0383902192115784e-01" purity="4.0546333789825439e-01" nType="0">
            <Node pos="l" depth="3" NCoef="0" IVar="-1" Cut="0.0000000000000000e+00" cType="1" res="-1.4722691848874092e-02" rms="3.7176966667175293e-01" purity="2.4705624580383301e-01" nType="-99"/>
            <Node pos="r" depth="3" NCoef="0" IVar="-1" Cut="0.0000000000000000e+00" cType="1" res="3.1073668505996466e-03" rms="4.0640372037887573e-01" purity="4.1905179619789124e-01" nType="-99"/>
          </Node>
          <Node pos="r" depth="2" NCoef="0" IVar="6" Cut="-4.4443029165267944e-01" cType="1" res="-6.6478569060564041e-03" rms="3.5278230905532837e-01" purity="7.5672566890716553e-01" nType="0">
            <Node pos="l" depth="3" NCoef="0" IVar="-1" Cut="0.0000000000000000e+00" cType="1" res="-1.1841204017400742e-02" rms="3.7044364213943481e-01" purity="7.1536338329315186e-01" nType="-99"/>
            <Node pos="r" depth="3" NCoef="0" IVar="-1" Cut="0.0000000000000000e+00" cType="1" res="-2.8888194356113672e-03" rms="3.4660735726356506e-01" purity="7.7058404684066772e-01" nType="-99"/>
          </Node>
        </Node>
      </Node>
    </BinaryTree>
    <BinaryTree type="DecisionTree" boostWeight="1.0000000000000000e+00" itree="570">
      <Node pos="s" depth="0" NCoef="0" IVar="3" Cut="2.4120411682128906e+02" cType="1" res="-3.8490947335958481e-03" rms="3.8363444805145264e-01" purity="4.9515244364738464e-01" nType="0">
        <Node pos="l" depth="1" NCoef="0" IVar="3" Cut="1.6873516845703125e+02" cType="1" res="-8.1079285591840744e-03" rms="3.8825404644012451e-01" purity="4.0869373083114624e-01" nType="0">
          <Node pos="l" depth="2" NCoef="0" IVar="4" Cut="1.1203533935546875e+02" cType="1" res="-7.6792581239715219e-04" rms="3.8048195838928223e-01" purity="2.9291543364524841e-01" nType="0">
            <Node pos="l" depth="3" NCoef="0" IVar="-1" Cut="0.0000000000000000e+00" cType="1" res="-5.2234693430364132e-03" rms="3.6202839016914368e-01" purity="2.1894945204257965e-01" nType="-99"/>
            <Node pos="r" depth="3" NCoef="0" IVar="-1" Cut="0.0000000000000000e+00" cType="1" res="8.7942192330956459e-03" rms="4.2427137494087219e-01" purity="4.8518088459968567e-01" nType="-99"/>
          </Node>
          <Node pos="r" depth="2" NCoef="0" IVar="5" Cut="5.8712337493896484e+01" cType="1" res="-1.6117572784423828e-02" rms="3.9640641212463379e-01" purity="5.3503465652465820e-01" nType="0">
            <Node pos="l" depth="3" NCoef="0" IVar="-1" Cut="0.0000000000000000e+00" cType="1" res="8.7175248190760612e-03" rms="4.0151622891426086e-01" purity="3.3110693097114563e-01" nType="-99"/>
            <Node pos="r" depth="3" NCoef="0" IVar="-1" Cut="0.0000000000000000e+00" cType="1" res="-1.3329396024346352e-02" rms="3.9531162381172180e-01" purity="5.6938505172729492e-01" nType="-99"/>
          </Node>
        </Node>
        <Node pos="r" depth="1" NCoef="0" IVar="6" Cut="-1.1322782039642334e+00" cType="1" res="5.0563858821988106e-03" rms="3.7363320589065552e-01" purity="6.7594295740127563e-01" nType="0">
          <Node pos="l" depth="2" NCoef="0" IVar="-1" Cut="0.0000000000000000e+00" cType="1" res="-1.8915710970759392e-02" rms="3.7807849049568176e-01" purity="3.6963534355163574e-01" nType="-99"/>
          <Node pos="r" depth="2" NCoef="0" IVar="4" Cut="1.0534871673583984e+02" cType="1" res="8.1706205382943153e-03" rms="3.7307235598564148e-01" purity="7.0359325408935547e-01" nType="0">
            <Node pos="l" depth="3" NCoef="0" IVar="-1" Cut="0.0000000000000000e+00" cType="1" res="2.3535739630460739e-02" rms="4.2517253756523132e-01" purity="4.7666540741920471e-01" nType="-99"/>
            <Node pos="r" depth="3" NCoef="0" IVar="-1" Cut="0.0000000000000000e+00" cType="1" res="1.5631217975169420e-03" rms="3.6237624287605286e-01" purity="7.4520820379257202e-01" nType="-99"/>
          </Node>
        </Node>
      </Node>
    </BinaryTree>
    <BinaryTree type="DecisionTree" boostWeight="1.0000000000000000e+00" itree="571">
      <Node pos="s" depth="0" NCoef="0" IVar="3" Cut="1.4608894348144531e+02" cType="1" res="3.9669638499617577e-03" rms="3.8786333799362183e-01" purity="5.0223010778427124e-01" nType="0">
        <Node pos="l" depth="1" NCoef="0" IVar="7" Cut="6.6652709245681763e-01" cType="1" res="1.3386024162173271e-02" rms="3.7774130702018738e-01" purity="2.5950402021408081e-01" nType="0">
          <Node pos="l" depth="2" NCoef="0" IVar="7" Cut="-8.1913858652114868e-01" cType="1" res="2.1508861333131790e-02" rms="3.8924947381019592e-01" purity="2.8262609243392944e-01" nType="0">
            <Node pos="l" depth="3" NCoef="0" IVar="-1" Cut="0.0000000000000000e+00" cType="1" res="4.8505573067814112e-04" rms="3.4452897310256958e-01" purity="2.0153793692588806e-01" nType="-99"/>
            <Node pos="r" depth="3" NCoef="0" IVar="-1" Cut="0.0000000000000000e+00" cType="1" res="2.1164581179618835e-02" rms="4.1405355930328369e-01" purity="3.3295097947120667e-01" nType="-99"/>
          </Node>
          <Node pos="r" depth="2" NCoef="0" IVar="8" Cut="-1.3301761448383331e-01" cType="1" res="-4.9568046815693378e-03" rms="3.4967246651649475e-01" purity="2.0729018747806549e-01" nType="0">
            <Node pos="l" depth="3" NCoef="0" IVar="-1" Cut="0.0000000000000000e+00" cType="1" res="1.3918901793658733e-02" rms="3.6892506480216980e-01" purity="2.4080601334571838e-01" nType="-99"/>
            <Node pos="r" depth="3" NCoef="0" IVar="-1" Cut="0.0000000000000000e+00" cType="1" res="-1.7630768939852715e-02" rms="3.3446097373962402e-01" purity="1.8363161385059357e-01" nType="-99"/>
          </Node>
        </Node>
        <Node pos="r" depth="1" NCoef="0" IVar="4" Cut="1.0560948944091797e+02" cType="1" res="8.2993955584242940e-04" rms="3.9112600684165955e-01" purity="5.8307015895843506e-01" nType="0">
          <Node pos="l" depth="2" NCoef="0" IVar="6" Cut="-6.3272345066070557e-01" cType="1" res="-8.4833409637212753e-03" rms="4.0354907512664795e-01" purity="3.3318740129470825e-01" nType="0">
            <Node pos="l" depth="3" NCoef="0" IVar="-1" Cut="0.0000000000000000e+00" cType="1" res="7.6639512553811073e-03" rms="3.9013943076133728e-01" purity="2.6641780138015747e-01" nType="-99"/>
            <Node pos="r" depth="3" NCoef="0" IVar="-1" Cut="0.0000000000000000e+00" cType="1" res="-9.3466443940997124e-03" rms="4.0824806690216064e-01" purity="3.5835766792297363e-01" nType="-99"/>
          </Node>
          <Node pos="r" depth="2" NCoef="0" IVar="8" Cut="-1.7330340147018433e+00" cType="1" res="3.4446362406015396e-03" rms="3.8752642273902893e-01" purity="6.5322452783584595e-01" nType="0">
            <Node pos="l" depth="3" NCoef="0" IVar="-1" Cut="0.0000000000000000e+00" cType="1" res="1.8661573529243469e-02" rms="4.0030661225318909e-01" purity="4.7233700752258301e-01" nType="-99"/>
            <Node pos="r" depth="3" NCoef="0" IVar="-1" Cut="0.0000000000000000e+00" cType="1" res="1.2686065165325999e-03" rms="3.8672110438346863e-01" purity="6.6363894939422607e-01" nType="-99"/>
          </Node>
        </Node>
      </Node>
    </BinaryTree>
    <BinaryTree type="DecisionTree" boostWeight="1.0000000000000000e+00" itree="572">
      <Node pos="s" depth="0" NCoef="0" IVar="6" Cut="4.0447258949279785e-01" cType="1" res="-1.1510696494951844e-03" rms="3.8513731956481934e-01" purity="4.9808391928672791e-01" nType="0">
        <Node pos="l" depth="1" NCoef="0" IVar="3" Cut="2.4140266418457031e+02" cType="1" res="2.5220562238246202e-03" rms="3.8904258608818054e-01" purity="5.3534078598022461e-01" nType="0">
          <Node pos="l" depth="2" NCoef="0" IVar="4" Cut="7.7363319396972656e+01" cType="1" res="6.2804003246128559e-03" rms="3.9679861068725586e-01" purity="4.5821622014045715e-01" nType="0">
            <Node pos="l" depth="3" NCoef="0" IVar="-1" Cut="0.0000000000000000e+00" cType="1" res="1.7904579639434814e-02" rms="3.6148080229759216e-01" purity="2.0936855673789978e-01" nType="-99"/>
            <Node pos="r" depth="3" NCoef="0" IVar="-1" Cut="0.0000000000000000e+00" cType="1" res="1.6561181982979178e-03" rms="4.0395677089691162e-01" purity="5.1212686300277710e-01" nType="-99"/>
          </Node>
          <Node pos="r" depth="2" NCoef="0" IVar="8" Cut="6.6665506362915039e-01" cType="1" res="-5.2893906831741333e-03" rms="3.7228447198867798e-01" purity="6.9563865661621094e-01" nType="0">
            <Node pos="l" depth="3" NCoef="0" IVar="-1" Cut="0.0000000000000000e+00" cType="1" res="-7.8950906172394753e-03" rms="3.6981984972953796e-01" purity="7.0803701877593994e-01" nType="-99"/>
            <Node pos="r" depth="3" NCoef="0" IVar="-1" Cut="0.0000000000000000e+00" cType="1" res="7.8208716586232185e-03" rms="3.7916898727416992e-01" purity="6.5805035829544067e-01" nType="-99"/>
          </Node>
        </Node>
        <Node pos="r" depth="1" NCoef="0" IVar="4" Cut="1.0511654663085938e+02" cType="1" res="-8.5966512560844421e-03" rms="3.7698733806610107e-01" purity="4.2256265878677368e-01" nType="0">
          <Node pos="l" depth="2" NCoef="0" IVar="6" Cut="1.4308294057846069e+00" cType="1" res="-2.0453717559576035e-02" rms="3.4258890151977539e-01" purity="1.8734693527221680e-01" nType="0">
            <Node pos="l" depth="3" NCoef="0" IVar="-1" Cut="0.0000000000000000e+00" cType="1" res="-2.2244051098823547e-02" rms="3.6046841740608215e-01" purity="2.1544463932514191e-01" nType="-99"/>
            <Node pos="r" depth="3" NCoef="0" IVar="-1" Cut="0.0000000000000000e+00" cType="1" res="1.4006068930029869e-02" rms="2.8698700666427612e-01" purity="1.1214943975210190e-01" nType="-99"/>
          </Node>
          <Node pos="r" depth="2" NCoef="0" IVar="8" Cut="-6.6663753986358643e-01" cType="1" res="-1.5979360323399305e-03" rms="3.9572426676750183e-01" purity="5.6140035390853882e-01" nType="0">
            <Node pos="l" depth="3" NCoef="0" IVar="-1" Cut="0.0000000000000000e+00" cType="1" res="-1.7471754923462868e-02" rms="3.8726252317428589e-01" purity="4.7819864749908447e-01" nType="-99"/>
            <Node pos="r" depth="3" NCoef="0" IVar="-1" Cut="0.0000000000000000e+00" cType="1" res="3.9352201856672764e-03" rms="3.9794537425041199e-01" purity="5.8672595024108887e-01" nType="-99"/>
          </Node>
        </Node>
      </Node>
    </BinaryTree>
    <BinaryTree type="DecisionTree" boostWeight="1.0000000000000000e+00" itree="573">
      <Node pos="s" depth="0" NCoef="0" IVar="4" Cut="1.4138114929199219e+02" cType="1" res="9.8630134016275406e-04" rms="3.8309121131896973e-01" purity="5.0086599588394165e-01" nType="0">
        <Node pos="l" depth="1" NCoef="0" IVar="4" Cut="7.1842002868652344e+01" cType="1" res="4.5226737856864929e-03" rms="3.9251592755317688e-01" purity="3.6215949058532715e-01" nType="0">
          <Node pos="l" depth="2" NCoef="0" IVar="7" Cut="1.3341142237186432e-01" cType="1" res="-1.0258847847580910e-02" rms="3.1857857108116150e-01" purity="1.5509998798370361e-01" nType="0">
            <Node pos="l" depth="3" NCoef="0" IVar="-1" Cut="0.0000000000000000e+00" cType="1" res="6.1596157029271126e-03" rms="3.3456185460090637e-01" purity="1.7639799416065216e-01" nType="-99"/>
            <Node pos="r" depth="3" NCoef="0" IVar="-1" Cut="0.0000000000000000e+00" cType="1" res="-2.7693485841155052e-02" rms="2.9702666401863098e-01" purity="1.2962611019611359e-01" nType="-99"/>
          </Node>
          <Node pos="r" depth="2" NCoef="0" IVar="9" Cut="-1.9999896287918091e+00" cType="1" res="7.3370779864490032e-03" rms="4.0500593185424805e-01" purity="4.0158367156982422e-01" nType="0">
            <Node pos="l" depth="3" NCoef="0" IVar="-1" Cut="0.0000000000000000e+00" cType="1" res="2.4167502298951149e-02" rms="3.9118194580078125e-01" purity="3.5031548142433167e-01" nType="-99"/>
            <Node pos="r" depth="3" NCoef="0" IVar="-1" Cut="0.0000000000000000e+00" cType="1" res="3.2186030875891447e-03" rms="4.0586197376251221e-01" purity="4.0509787201881409e-01" nType="-99"/>
          </Node>
        </Node>
        <Node pos="r" depth="1" NCoef="0" IVar="8" Cut="6.6661274433135986e-01" cType="1" res="-4.2908755131065845e-03" rms="3.6851614713668823e-01" purity="7.0785176753997803e-01" nType="0">
          <Node pos="l" depth="2" NCoef="0" IVar="8" Cut="-3.2364782691001892e-01" cType="1" res="2.8024584753438830e-04" rms="3.6559027433395386e-01" purity="7.3357069492340088e-01" nType="0">
            <Node pos="l" depth="3" NCoef="0" IVar="-1" Cut="0.0000000000000000e+00" cType="1" res="-6.8929553963243961e-03" rms="3.7042242288589478e-01" purity="6.8830955028533936e-01" nType="-99"/>
            <Node pos="r" depth="3" NCoef="0" IVar="-1" Cut="0.0000000000000000e+00" cType="1" res="7.6479469425976276e-03" rms="3.6060854792594910e-01" purity="7.7719235420227051e-01" nType="-99"/>
          </Node>
          <Node pos="r" depth="2" NCoef="0" IVar="5" Cut="1.4537657165527344e+02" cType="1" res="-1.8432615324854851e-02" rms="3.7707358598709106e-01" purity="6.2828469276428223e-01" nType="0">
            <Node pos="l" depth="3" NCoef="0" IVar="-1" Cut="0.0000000000000000e+00" cType="1" res="-1.8812440335750580e-02" rms="3.8924422860145569e-01" purity="5.5440706014633179e-01" nType="-99"/>
            <Node pos="r" depth="3" NCoef="0" IVar="-1" Cut="0.0000000000000000e+00" cType="1" res="5.5180396884679794e-03" rms="3.4565824270248413e-01" purity="8.0102574825286865e-01" nType="-99"/>
          </Node>
        </Node>
      </Node>
    </BinaryTree>
    <BinaryTree type="DecisionTree" boostWeight="1.0000000000000000e+00" itree="574">
      <Node pos="s" depth="0" NCoef="0" IVar="6" Cut="-1.4474635124206543e+00" cType="1" res="1.1343053774908185e-03" rms="3.8476639986038208e-01" purity="5.0024479627609253e-01" nType="0">
        <Node pos="l" depth="1" NCoef="0" IVar="5" Cut="6.8732467651367188e+01" cType="1" res="-1.5732884407043457e-02" rms="3.2788425683975220e-01" purity="1.9813729822635651e-01" nType="0">
          <Node pos="l" depth="2" NCoef="0" IVar="-1" Cut="0.0000000000000000e+00" cType="1" res="6.2737553380429745e-03" rms="2.8918567299842834e-01" purity="1.1580915749073029e-01" nType="-99"/>
          <Node pos="r" depth="2" NCoef="0" IVar="-1" Cut="0.0000000000000000e+00" cType="1" res="-2.2344645112752914e-02" rms="3.5505816340446472e-01" purity="2.6429730653762817e-01" nType="-99"/>
        </Node>
        <Node pos="r" depth="1" NCoef="0" IVar="6" Cut="5.7499128580093384e-01" cType="1" res="2.3534882348030806e-03" rms="3.8852697610855103e-01" purity="5.2208155393600464e-01" nType="0">
          <Node pos="l" depth="2" NCoef="0" IVar="6" Cut="4.7867512702941895e-01" cType="1" res="5.8421171270310879e-03" rms="3.9291700720787048e-01" purity="5.7904160022735596e-01" nType="0">
            <Node pos="l" depth="3" NCoef="0" IVar="-1" Cut="0.0000000000000000e+00" cType="1" res="2.7145741041749716e-03" rms="3.9229786396026611e-01" purity="5.7653105258941650e-01" nType="-99"/>
            <Node pos="r" depth="3" NCoef="0" IVar="-1" Cut="0.0000000000000000e+00" cType="1" res="2.3167010396718979e-02" rms="4.0306633710861206e-01" purity="6.2576347589492798e-01" nType="-99"/>
          </Node>
          <Node pos="r" depth="2" NCoef="0" IVar="3" Cut="2.6987506103515625e+02" cType="1" res="-6.4511122182011604e-03" rms="3.7707680463790894e-01" purity="3.7832570075988770e-01" nType="0">
            <Node pos="l" depth="3" NCoef="0" IVar="-1" Cut="0.0000000000000000e+00" cType="1" res="-9.5615402096882463e-04" rms="3.7742105126380920e-01" purity="3.3771082758903503e-01" nType="-99"/>
            <Node pos="r" depth="3" NCoef="0" IVar="-1" Cut="0.0000000000000000e+00" cType="1" res="-1.9118415191769600e-02" rms="3.7490347027778625e-01" purity="5.4672485589981079e-01" nType="-99"/>
          </Node>
        </Node>
      </Node>
    </BinaryTree>
    <BinaryTree type="DecisionTree" boostWeight="1.0000000000000000e+00" itree="575">
      <Node pos="s" depth="0" NCoef="0" IVar="7" Cut="1.3331982493400574e-01" cType="1" res="1.0818736627697945e-03" rms="3.8482904434204102e-01" purity="5.0392967462539673e-01" nType="0">
        <Node pos="l" depth="1" NCoef="0" IVar="8" Cut="-2.0000097751617432e+00" cType="1" res="-4.3792631477117538e-03" rms="3.8520944118499756e-01" purity="5.0699847936630249e-01" nType="0">
          <Node pos="l" depth="2" NCoef="0" IVar="-1" Cut="0.0000000000000000e+00" cType="1" res="2.1755296736955643e-02" rms="3.6849266290664673e-01" purity="2.6920390129089355e-01" nType="-99"/>
          <Node pos="r" depth="2" NCoef="0" IVar="0" Cut="4.5206835937500000e+02" cType="1" res="-5.9270500205457211e-03" rms="3.8594910502433777e-01" purity="5.1872617006301880e-01" nType="0">
            <Node pos="l" depth="3" NCoef="0" IVar="-1" Cut="0.0000000000000000e+00" cType="1" res="-6.9803693331778049e-03" rms="3.9449441432952881e-01" purity="3.7685534358024597e-01" nType="-99"/>
            <Node pos="r" depth="3" NCoef="0" IVar="-1" Cut="0.0000000000000000e+00" cType="1" res="1.3915179297327995e-03" rms="3.7287572026252747e-01" purity="7.2754925489425659e-01" nType="-99"/>
          </Node>
        </Node>
        <Node pos="r" depth="1" NCoef="0" IVar="8" Cut="1.4665578603744507e+00" cType="1" res="7.6731899753212929e-03" rms="3.8426604866981506e-01" purity="5.0022584199905396e-01" nType="0">
          <Node pos="l" depth="2" NCoef="0" IVar="2" Cut="3.2724703979492188e+02" cType="1" res="4.4270744547247887e-03" rms="3.8454595208168030e-01" purity="5.2081203460693359e-01" nType="0">
            <Node pos="l" depth="3" NCoef="0" IVar="-1" Cut="0.0000000000000000e+00" cType="1" res="7.3052030056715012e-03" rms="3.9908298850059509e-01" purity="4.8221150040626526e-01" nType="-99"/>
            <Node pos="r" depth="3" NCoef="0" IVar="-1" Cut="0.0000000000000000e+00" cType="1" res="-1.0826966026797891e-03" rms="3.7212312221527100e-01" purity="5.5239623785018921e-01" nType="-99"/>
          </Node>
          <Node pos="r" depth="2" NCoef="0" IVar="8" Cut="1.9110199213027954e+00" cType="1" res="3.0684277415275574e-02" rms="3.8148495554924011e-01" purity="3.5429409146308899e-01" nType="0">
            <Node pos="l" depth="3" NCoef="0" IVar="-1" Cut="0.0000000000000000e+00" cType="1" res="2.8892518952488899e-02" rms="3.9361318945884705e-01" purity="4.2119407653808594e-01" nType="-99"/>
            <Node pos="r" depth="3" NCoef="0" IVar="-1" Cut="0.0000000000000000e+00" cType="1" res="1.3213219121098518e-02" rms="3.6637201905250549e-01" purity="2.7647882699966431e-01" nType="-99"/>
          </Node>
        </Node>
      </Node>
    </BinaryTree>
    <BinaryTree type="DecisionTree" boostWeight="1.0000000000000000e+00" itree="576">
      <Node pos="s" depth="0" NCoef="0" IVar="9" Cut="-2.2666561603546143e+00" cType="1" res="-2.5687152519822121e-03" rms="3.8373833894729614e-01" purity="4.9832352995872498e-01" nType="0">
        <Node pos="l" depth="1" NCoef="0" IVar="-1" Cut="0.0000000000000000e+00" cType="1" res="-2.6185011491179466e-02" rms="3.5700705647468567e-01" purity="2.8860169649124146e-01" nType="-99"/>
        <Node pos="r" depth="1" NCoef="0" IVar="8" Cut="1.4665887355804443e+00" cType="1" res="-1.5270585427060723e-03" rms="3.8447773456573486e-01" purity="5.0472748279571533e-01" nType="0">
          <Node pos="l" depth="2" NCoef="0" IVar="9" Cut="1.1111100912094116e+00" cType="1" res="4.0302306297235191e-04" rms="3.8583487272262573e-01" purity="5.2795225381851196e-01" nType="0">
            <Node pos="l" depth="3" NCoef="0" IVar="-1" Cut="0.0000000000000000e+00" cType="1" res="-1.7651180969551206e-03" rms="3.8400441408157349e-01" purity="5.4287630319595337e-01" nType="-99"/>
            <Node pos="r" depth="3" NCoef="0" IVar="-1" Cut="0.0000000000000000e+00" cType="1" res="8.6340410634875298e-03" rms="3.9319846034049988e-01" purity="4.6502885222434998e-01" nType="-99"/>
          </Node>
          <Node pos="r" depth="2" NCoef="0" IVar="9" Cut="8.7021374702453613e-01" cType="1" res="-1.8345013260841370e-02" rms="3.7201967835426331e-01" purity="3.0235612392425537e-01" nType="0">
            <Node pos="l" depth="3" NCoef="0" IVar="-1" Cut="0.0000000000000000e+00" cType="1" res="-4.1889832355082035e-03" rms="3.9068809151649475e-01" purity="3.6040881276130676e-01" nType="-99"/>
            <Node pos="r" depth="3" NCoef="0" IVar="-1" Cut="0.0000000000000000e+00" cType="1" res="-3.6505300551652908e-02" rms="3.2745632529258728e-01" purity="1.7917922139167786e-01" nType="-99"/>
          </Node>
        </Node>
      </Node>
    </BinaryTree>
    <BinaryTree type="DecisionTree" boostWeight="1.0000000000000000e+00" itree="577">
      <Node pos="s" depth="0" NCoef="0" IVar="9" Cut="4.0000125765800476e-01" cType="1" res="1.2640326167456806e-04" rms="3.8457468152046204e-01" purity="4.9917373061180115e-01" nType="0">
        <Node pos="l" depth="1" NCoef="0" IVar="2" Cut="5.0379714965820312e+02" cType="1" res="4.9164397642016411e-03" rms="3.8505411148071289e-01" purity="5.1825314760208130e-01" nType="0">
          <Node pos="l" depth="2" NCoef="0" IVar="8" Cut="9.3326544761657715e-01" cType="1" res="8.6454050615429878e-03" rms="3.8526508212089539e-01" purity="5.1030009984970093e-01" nType="0">
            <Node pos="l" depth="3" NCoef="0" IVar="-1" Cut="0.0000000000000000e+00" cType="1" res="8.5737314075231552e-03" rms="3.8617467880249023e-01" purity="5.2885073423385620e-01" nType="-99"/>
            <Node pos="r" depth="3" NCoef="0" IVar="-1" Cut="0.0000000000000000e+00" cType="1" res="-5.8492454700171947e-03" rms="3.8094404339790344e-01" purity="4.3265172839164734e-01" nType="-99"/>
          </Node>
          <Node pos="r" depth="2" NCoef="0" IVar="6" Cut="-5.2704149484634399e-01" cType="1" res="-1.4216845855116844e-02" rms="3.8339975476264954e-01" purity="5.5905991792678833e-01" nType="0">
            <Node pos="l" depth="3" NCoef="0" IVar="-1" Cut="0.0000000000000000e+00" cType="1" res="6.9175614044070244e-03" rms="4.0239289402961731e-01" purity="4.9073100090026855e-01" nType="-99"/>
            <Node pos="r" depth="3" NCoef="0" IVar="-1" Cut="0.0000000000000000e+00" cType="1" res="-1.7367577180266380e-02" rms="3.7436538934707642e-01" purity="5.8860808610916138e-01" nType="-99"/>
          </Node>
        </Node>
        <Node pos="r" depth="1" NCoef="0" IVar="8" Cut="-3.9991164207458496e-01" cType="1" res="-7.9512465745210648e-03" rms="3.8362935185432434e-01" purity="4.6699938178062439e-01" nType="0">
          <Node pos="l" depth="2" NCoef="0" IVar="9" Cut="1.4285676479339600e+00" cType="1" res="3.8498570211231709e-03" rms="3.8479346036911011e-01" purity="4.9037852883338928e-01" nType="0">
            <Node pos="l" depth="3" NCoef="0" IVar="-1" Cut="0.0000000000000000e+00" cType="1" res="7.1382066234946251e-03" rms="3.8631656765937805e-01" purity="5.4213809967041016e-01" nType="-99"/>
            <Node pos="r" depth="3" NCoef="0" IVar="-1" Cut="0.0000000000000000e+00" cType="1" res="-7.4129858985543251e-03" rms="3.8105636835098267e-01" purity="3.7857285141944885e-01" nType="-99"/>
          </Node>
          <Node pos="r" depth="2" NCoef="0" IVar="8" Cut="1.4285991191864014e+00" cType="1" res="-1.3901555910706520e-02" rms="3.8290315866470337e-01" purity="4.5521119236946106e-01" nType="0">
            <Node pos="l" depth="3" NCoef="0" IVar="-1" Cut="0.0000000000000000e+00" cType="1" res="-1.2992406263947487e-02" rms="3.8745731115341187e-01" purity="4.9950513243675232e-01" nType="-99"/>
            <Node pos="r" depth="3" NCoef="0" IVar="-1" Cut="0.0000000000000000e+00" cType="1" res="6.3176751136779785e-03" rms="3.6378780007362366e-01" purity="2.8276494145393372e-01" nType="-99"/>
          </Node>
        </Node>
      </Node>
    </BinaryTree>
    <BinaryTree type="DecisionTree" boostWeight="1.0000000000000000e+00" itree="578">
      <Node pos="s" depth="0" NCoef="0" IVar="3" Cut="4.2482812500000000e+02" cType="1" res="1.9396555144339800e-03" rms="3.8574677705764771e-01" purity="5.0054144859313965e-01" nType="0">
        <Node pos="l" depth="1" NCoef="0" IVar="3" Cut="1.5830187988281250e+02" cType="1" res="2.5579715147614479e-03" rms="3.8523828983306885e-01" purity="4.9663344025611877e-01" nType="0">
          <Node pos="l" depth="2" NCoef="0" IVar="9" Cut="-6.6664373874664307e-01" cType="1" res="-3.1209453009068966e-03" rms="3.7675487995147705e-01" purity="2.6773530244827271e-01" nType="0">
            <Node pos="l" depth="3" NCoef="0" IVar="-1" Cut="0.0000000000000000e+00" cType="1" res="7.0710573345422745e-03" rms="3.8145962357521057e-01" purity="2.5741741061210632e-01" nType="-99"/>
            <Node pos="r" depth="3" NCoef="0" IVar="-1" Cut="0.0000000000000000e+00" cType="1" res="-6.3262041658163071e-03" rms="3.7429252266883850e-01" purity="2.7274203300476074e-01" nType="-99"/>
          </Node>
          <Node pos="r" depth="2" NCoef="0" IVar="7" Cut="-1.4664573669433594e+00" cType="1" res="5.1121958531439304e-03" rms="3.8896656036376953e-01" purity="5.9958565235137939e-01" nType="0">
            <Node pos="l" depth="3" NCoef="0" IVar="-1" Cut="0.0000000000000000e+00" cType="1" res="1.6831589862704277e-02" rms="3.8343009352684021e-01" purity="3.3919206261634827e-01" nType="-99"/>
            <Node pos="r" depth="3" NCoef="0" IVar="-1" Cut="0.0000000000000000e+00" cType="1" res="2.3707591462880373e-03" rms="3.8938364386558533e-01" purity="6.2114298343658447e-01" nType="-99"/>
          </Node>
        </Node>
        <Node pos="r" depth="1" NCoef="0" IVar="-1" Cut="0.0000000000000000e+00" cType="1" res="-1.2009648606181145e-02" rms="4.0179005265235901e-01" purity="6.3085788488388062e-01" nType="-99"/>
      </Node>
    </BinaryTree>
    <BinaryTree type="DecisionTree" boostWeight="1.0000000000000000e+00" itree="579">
      <Node pos="s" depth="0" NCoef="0" IVar="6" Cut="-1.1916617155075073e+00" cType="1" res="2.1372807677835226e-03" rms="3.8787111639976501e-01" purity="5.0055760145187378e-01" nType="0">
        <Node pos="l" depth="1" NCoef="0" IVar="0" Cut="3.9968798828125000e+02" cType="1" res="2.2570097818970680e-02" rms="3.7354102730751038e-01" purity="2.8344628214836121e-01" nType="0">
          <Node pos="l" depth="2" NCoef="0" IVar="0" Cut="3.3797912597656250e+02" cType="1" res="1.1421100236475468e-02" rms="3.3542883396148682e-01" purity="1.6496482491493225e-01" nType="0">
            <Node pos="l" depth="3" NCoef="0" IVar="-1" Cut="0.0000000000000000e+00" cType="1" res="-9.6704093739390373e-03" rms="2.9189181327819824e-01" purity="1.2158353626728058e-01" nType="-99"/>
            <Node pos="r" depth="3" NCoef="0" IVar="-1" Cut="0.0000000000000000e+00" cType="1" res="2.5061056017875671e-02" rms="3.6931371688842773e-01" purity="2.0401419699192047e-01" nType="-99"/>
          </Node>
          <Node pos="r" depth="2" NCoef="0" IVar="9" Cut="-1.3270708918571472e-01" cType="1" res="3.6638241261243820e-02" rms="4.1626107692718506e-01" purity="4.3294987082481384e-01" nType="0">
            <Node pos="l" depth="3" NCoef="0" IVar="-1" Cut="0.0000000000000000e+00" cType="1" res="1.2632786296308041e-02" rms="4.1282576322555542e-01" purity="3.8700523972511292e-01" nType="-99"/>
            <Node pos="r" depth="3" NCoef="0" IVar="-1" Cut="0.0000000000000000e+00" cType="1" res="3.0985971912741661e-02" rms="4.1906729340553284e-01" purity="4.7902289032936096e-01" nType="-99"/>
          </Node>
        </Node>
        <Node pos="r" depth="1" NCoef="0" IVar="9" Cut="-1.9999637603759766e+00" cType="1" res="-4.7028964036144316e-04" rms="3.8958483934402466e-01" purity="5.2826458215713501e-01" nType="0">
          <Node pos="l" depth="2" NCoef="0" IVar="-1" Cut="0.0000000000000000e+00" cType="1" res="-2.2257100790739059e-02" rms="3.7352469563484192e-01" purity="3.6177128553390503e-01" nType="-99"/>
          <Node pos="r" depth="2" NCoef="0" IVar="7" Cut="-1.7332574129104614e+00" cType="1" res="1.2162429047748446e-03" rms="3.9031195640563965e-01" purity="5.3676390647888184e-01" nType="0">
            <Node pos="l" depth="3" NCoef="0" IVar="-1" Cut="0.0000000000000000e+00" cType="1" res="1.6265330836176872e-02" rms="3.6074361205101013e-01" purity="2.7434909343719482e-01" nType="-99"/>
            <Node pos="r" depth="3" NCoef="0" IVar="-1" Cut="0.0000000000000000e+00" cType="1" res="5.8470519434195012e-05" rms="3.9191088080406189e-01" purity="5.5181932449340820e-01" nType="-99"/>
          </Node>
        </Node>
      </Node>
    </BinaryTree>
    <BinaryTree type="DecisionTree" boostWeight="1.0000000000000000e+00" itree="580">
      <Node pos="s" depth="0" NCoef="0" IVar="6" Cut="4.2127606272697449e-01" cType="1" res="-3.1493774149566889e-03" rms="3.8492295145988464e-01" purity="4.9411469697952271e-01" nType="0">
        <Node pos="l" depth="1" NCoef="0" IVar="6" Cut="-1.8438746929168701e+00" cType="1" res="-9.1908788308501244e-03" rms="3.8720843195915222e-01" purity="5.2348071336746216e-01" nType="0">
          <Node pos="l" depth="2" NCoef="0" IVar="-1" Cut="0.0000000000000000e+00" cType="1" res="-4.6066340059041977e-02" rms="2.8732725977897644e-01" purity="1.1851082742214203e-01" nType="-99"/>
          <Node pos="r" depth="2" NCoef="0" IVar="8" Cut="1.7332657575607300e+00" cType="1" res="-7.5099770911037922e-03" rms="3.9089378714561462e-01" purity="5.4112392663955688e-01" nType="0">
            <Node pos="l" depth="3" NCoef="0" IVar="-1" Cut="0.0000000000000000e+00" cType="1" res="-6.1464780010282993e-03" rms="3.8991677761077881e-01" purity="5.5439221858978271e-01" nType="-99"/>
            <Node pos="r" depth="3" NCoef="0" IVar="-1" Cut="0.0000000000000000e+00" cType="1" res="1.3172150589525700e-02" rms="4.0368428826332092e-01" purity="3.5050904750823975e-01" nType="-99"/>
          </Node>
        </Node>
        <Node pos="r" depth="1" NCoef="0" IVar="6" Cut="5.3453999757766724e-01" cType="1" res="9.0022385120391846e-03" rms="3.7999361753463745e-01" purity="4.3504929542541504e-01" nType="0">
          <Node pos="l" depth="2" NCoef="0" IVar="-1" Cut="0.0000000000000000e+00" cType="1" res="1.7638117074966431e-02" rms="3.8703513145446777e-01" purity="6.2132060527801514e-01" nType="-99"/>
          <Node pos="r" depth="2" NCoef="0" IVar="6" Cut="1.1817357540130615e+00" cType="1" res="6.1478381976485252e-03" rms="3.7882602214813232e-01" purity="4.0661549568176270e-01" nType="0">
            <Node pos="l" depth="3" NCoef="0" IVar="-1" Cut="0.0000000000000000e+00" cType="1" res="-1.5554430428892374e-03" rms="3.9446231722831726e-01" purity="4.9942186474800110e-01" nType="-99"/>
            <Node pos="r" depth="3" NCoef="0" IVar="-1" Cut="0.0000000000000000e+00" cType="1" res="1.5344848856329918e-02" rms="3.5399305820465088e-01" purity="2.6901289820671082e-01" nType="-99"/>
          </Node>
        </Node>
      </Node>
    </BinaryTree>
    <BinaryTree type="DecisionTree" boostWeight="1.0000000000000000e+00" itree="581">
      <Node pos="s" depth="0" NCoef="0" IVar="3" Cut="1.4500955200195312e+02" cType="1" res="-4.2822369141504169e-04" rms="3.8239738345146179e-01" purity="4.9930360913276672e-01" nType="0">
        <Node pos="l" depth="1" NCoef="0" IVar="1" Cut="1.0460084228515625e+03" cType="1" res="-1.1934339068830013e-02" rms="3.6464110016822815e-01" purity="2.2590361535549164e-01" nType="0">
          <Node pos="l" depth="2" NCoef="0" IVar="4" Cut="9.0422714233398438e+01" cType="1" res="-1.3032181886956096e-03" rms="3.3848294615745544e-01" purity="1.6248174011707306e-01" nType="0">
            <Node pos="l" depth="3" NCoef="0" IVar="-1" Cut="0.0000000000000000e+00" cType="1" res="-1.3056287541985512e-02" rms="2.9928818345069885e-01" purity="1.0952173918485641e-01" nType="-99"/>
            <Node pos="r" depth="3" NCoef="0" IVar="-1" Cut="0.0000000000000000e+00" cType="1" res="1.2352388352155685e-02" rms="3.9911675453186035e-01" purity="2.5862228870391846e-01" nType="-99"/>
          </Node>
          <Node pos="r" depth="2" NCoef="0" IVar="5" Cut="6.7336730957031250e+01" cType="1" res="-2.9474658891558647e-02" rms="4.0350306034088135e-01" purity="3.3054354786872864e-01" nType="0">
            <Node pos="l" depth="3" NCoef="0" IVar="-1" Cut="0.0000000000000000e+00" cType="1" res="-6.7482688464224339e-03" rms="3.7848863005638123e-01" purity="2.2996488213539124e-01" nType="-99"/>
            <Node pos="r" depth="3" NCoef="0" IVar="-1" Cut="0.0000000000000000e+00" cType="1" res="-2.3843973875045776e-02" rms="4.2152836918830872e-01" purity="4.0971794724464417e-01" nType="-99"/>
          </Node>
        </Node>
        <Node pos="r" depth="1" NCoef="0" IVar="6" Cut="-1.1920399665832520e+00" cType="1" res="3.1473189592361450e-03" rms="3.8768005371093750e-01" purity="5.8426302671432495e-01" nType="0">
          <Node pos="l" depth="2" NCoef="0" IVar="8" Cut="1.3312470912933350e-01" cType="1" res="-1.2412089854478836e-02" rms="3.7110111117362976e-01" purity="2.9887020587921143e-01" nType="0">
            <Node pos="l" depth="3" NCoef="0" IVar="-1" Cut="0.0000000000000000e+00" cType="1" res="-1.7275972291827202e-02" rms="3.6889097094535828e-01" purity="3.0060812830924988e-01" nType="-99"/>
            <Node pos="r" depth="3" NCoef="0" IVar="-1" Cut="0.0000000000000000e+00" cType="1" res="5.2653355523943901e-03" rms="3.7357747554779053e-01" purity="2.9621550440788269e-01" nType="-99"/>
          </Node>
          <Node pos="r" depth="2" NCoef="0" IVar="7" Cut="4.0017083287239075e-01" cType="1" res="4.7694868408143520e-03" rms="3.8933208584785461e-01" purity="6.1401706933975220e-01" nType="0">
            <Node pos="l" depth="3" NCoef="0" IVar="-1" Cut="0.0000000000000000e+00" cType="1" res="5.9648561291396618e-03" rms="3.8854196667671204e-01" purity="6.4610517024993896e-01" nType="-99"/>
            <Node pos="r" depth="3" NCoef="0" IVar="-1" Cut="0.0000000000000000e+00" cType="1" res="-2.4162984918802977e-03" rms="3.9071395993232727e-01" purity="5.5200898647308350e-01" nType="-99"/>
          </Node>
        </Node>
      </Node>
    </BinaryTree>
    <BinaryTree type="DecisionTree" boostWeight="1.0000000000000000e+00" itree="582">
      <Node pos="s" depth="0" NCoef="0" IVar="6" Cut="-9.1667431592941284e-01" cType="1" res="5.0689838826656342e-03" rms="3.8592061400413513e-01" purity="5.0586646795272827e-01" nType="0">
        <Node pos="l" depth="1" NCoef="0" IVar="8" Cut="-4.0006843209266663e-01" cType="1" res="1.9565375521779060e-02" rms="3.8005146384239197e-01" purity="3.4075078368186951e-01" nType="0">
          <Node pos="l" depth="2" NCoef="0" IVar="3" Cut="1.9841261291503906e+02" cType="1" res="1.7839781939983368e-03" rms="3.5937872529029846e-01" purity="2.9670980572700500e-01" nType="0">
            <Node pos="l" depth="3" NCoef="0" IVar="-1" Cut="0.0000000000000000e+00" cType="1" res="-1.6367064788937569e-02" rms="3.1475645303726196e-01" purity="1.7775726318359375e-01" nType="-99"/>
            <Node pos="r" depth="3" NCoef="0" IVar="-1" Cut="0.0000000000000000e+00" cType="1" res="1.8350725993514061e-02" rms="4.0816679596900940e-01" purity="4.4973361492156982e-01" nType="-99"/>
          </Node>
          <Node pos="r" depth="2" NCoef="0" IVar="7" Cut="3.9985570311546326e-01" cType="1" res="3.3630698919296265e-02" rms="3.9507296681404114e-01" purity="3.7558779120445251e-01" nType="0">
            <Node pos="l" depth="3" NCoef="0" IVar="-1" Cut="0.0000000000000000e+00" cType="1" res="1.1622824706137180e-02" rms="3.9600768685340881e-01" purity="3.8319826126098633e-01" nType="-99"/>
            <Node pos="r" depth="3" NCoef="0" IVar="-1" Cut="0.0000000000000000e+00" cType="1" res="4.5789498835802078e-02" rms="3.9208367466926575e-01" purity="3.6318883299827576e-01" nType="-99"/>
          </Node>
        </Node>
        <Node pos="r" depth="1" NCoef="0" IVar="9" Cut="1.7333378791809082e+00" cType="1" res="2.1940565202385187e-03" rms="3.8700950145721436e-01" purity="5.3861218690872192e-01" nType="0">
          <Node pos="l" depth="2" NCoef="0" IVar="3" Cut="1.4697917175292969e+02" cType="1" res="3.7019600858911872e-04" rms="3.8660487532615662e-01" purity="5.4845309257507324e-01" nType="0">
            <Node pos="l" depth="3" NCoef="0" IVar="-1" Cut="0.0000000000000000e+00" cType="1" res="-7.9855890944600105e-03" rms="3.7903720140457153e-01" purity="2.6093658804893494e-01" nType="-99"/>
            <Node pos="r" depth="3" NCoef="0" IVar="-1" Cut="0.0000000000000000e+00" cType="1" res="2.6429663412272930e-03" rms="3.8872718811035156e-01" purity="6.3301998376846313e-01" nType="-99"/>
          </Node>
          <Node pos="r" depth="2" NCoef="0" IVar="8" Cut="1.3322702050209045e-01" cType="1" res="2.1061945706605911e-02" rms="3.9067155122756958e-01" purity="4.3680784106254578e-01" nType="0">
            <Node pos="l" depth="3" NCoef="0" IVar="-1" Cut="0.0000000000000000e+00" cType="1" res="5.4453844204545021e-03" rms="3.8890796899795532e-01" purity="4.7035256028175354e-01" nType="-99"/>
            <Node pos="r" depth="3" NCoef="0" IVar="-1" Cut="0.0000000000000000e+00" cType="1" res="2.2095728665590286e-02" rms="3.9195886254310608e-01" purity="4.0501061081886292e-01" nType="-99"/>
          </Node>
        </Node>
      </Node>
    </BinaryTree>
    <BinaryTree type="DecisionTree" boostWeight="1.0000000000000000e+00" itree="583">
      <Node pos="s" depth="0" NCoef="0" IVar="9" Cut="1.4666588306427002e+00" cType="1" res="-8.5745973046869040e-04" rms="3.8431406021118164e-01" purity="4.9705737829208374e-01" nType="0">
        <Node pos="l" depth="1" NCoef="0" IVar="6" Cut="1.2031272649765015e+00" cType="1" res="-2.8947407845407724e-03" rms="3.8485363125801086e-01" purity="5.0920635461807251e-01" nType="0">
          <Node pos="l" depth="2" NCoef="0" IVar="9" Cut="-1.5873646736145020e-01" cType="1" res="-1.1201334418728948e-03" rms="3.8962671160697937e-01" purity="5.3942376375198364e-01" nType="0">
            <Node pos="l" depth="3" NCoef="0" IVar="-1" Cut="0.0000000000000000e+00" cType="1" res="2.6758175808936357e-03" rms="3.9193278551101685e-01" purity="5.1954591274261475e-01" nType="-99"/>
            <Node pos="r" depth="3" NCoef="0" IVar="-1" Cut="0.0000000000000000e+00" cType="1" res="-4.5186760835349560e-03" rms="3.8696551322937012e-01" purity="5.6151932477951050e-01" nType="-99"/>
          </Node>
          <Node pos="r" depth="2" NCoef="0" IVar="8" Cut="3.9971309900283813e-01" cType="1" res="-1.8904358148574829e-02" rms="3.3834603428840637e-01" purity="2.3659990727901459e-01" nType="0">
            <Node pos="l" depth="3" NCoef="0" IVar="-1" Cut="0.0000000000000000e+00" cType="1" res="-2.5495572015643120e-02" rms="3.3649897575378418e-01" purity="2.5327828526496887e-01" nType="-99"/>
            <Node pos="r" depth="3" NCoef="0" IVar="-1" Cut="0.0000000000000000e+00" cType="1" res="4.5367363782133907e-05" rms="3.3980908989906311e-01" purity="2.1483215689659119e-01" nType="-99"/>
          </Node>
        </Node>
        <Node pos="r" depth="1" NCoef="0" IVar="0" Cut="4.0631109619140625e+02" cType="1" res="1.3171331025660038e-02" rms="3.8028162717819214e-01" purity="4.1339913010597229e-01" nType="0">
          <Node pos="l" depth="2" NCoef="0" IVar="9" Cut="1.9746159315109253e+00" cType="1" res="2.4337375536561012e-02" rms="3.7372660636901855e-01" purity="2.8424534201622009e-01" nType="0">
            <Node pos="l" depth="3" NCoef="0" IVar="-1" Cut="0.0000000000000000e+00" cType="1" res="2.4161258712410927e-02" rms="3.7975502014160156e-01" purity="3.1539374589920044e-01" nType="-99"/>
            <Node pos="r" depth="3" NCoef="0" IVar="-1" Cut="0.0000000000000000e+00" cType="1" res="1.0393163189291954e-02" rms="3.6661231517791748e-01" purity="2.4966685473918915e-01" nType="-99"/>
          </Node>
          <Node pos="r" depth="2" NCoef="0" IVar="0" Cut="5.0756988525390625e+02" cType="1" res="7.5783737702295184e-04" rms="3.8706088066101074e-01" purity="5.5698174238204956e-01" nType="0">
            <Node pos="l" depth="3" NCoef="0" IVar="-1" Cut="0.0000000000000000e+00" cType="1" res="-1.0591533966362476e-02" rms="3.8980814814567566e-01" purity="4.0370926260948181e-01" nType="-99"/>
            <Node pos="r" depth="3" NCoef="0" IVar="-1" Cut="0.0000000000000000e+00" cType="1" res="1.1530105024576187e-02" rms="3.8371932506561279e-01" purity="6.9988763332366943e-01" nType="-99"/>
          </Node>
        </Node>
      </Node>
    </BinaryTree>
    <BinaryTree type="DecisionTree" boostWeight="1.0000000000000000e+00" itree="584">
      <Node pos="s" depth="0" NCoef="0" IVar="7" Cut="-1.4666905403137207e+00" cType="1" res="5.6759605649858713e-04" rms="3.8629677891731262e-01" purity="4.9878597259521484e-01" nType="0">
        <Node pos="l" depth="1" NCoef="0" IVar="7" Cut="-1.7841582298278809e+00" cType="1" res="1.5989154577255249e-02" rms="3.5903778672218323e-01" purity="2.6525554060935974e-01" nType="0">
          <Node pos="l" depth="2" NCoef="0" IVar="6" Cut="-1.0624624788761139e-01" cType="1" res="2.0242368336766958e-03" rms="3.3696210384368896e-01" purity="2.1606342494487762e-01" nType="0">
            <Node pos="l" depth="3" NCoef="0" IVar="-1" Cut="0.0000000000000000e+00" cType="1" res="-2.3752121254801750e-02" rms="3.1309956312179565e-01" purity="1.8943819403648376e-01" nType="-99"/>
            <Node pos="r" depth="3" NCoef="0" IVar="-1" Cut="0.0000000000000000e+00" cType="1" res="2.3309620097279549e-02" rms="3.5456982254981995e-01" purity="2.3934395611286163e-01" nType="-99"/>
          </Node>
          <Node pos="r" depth="2" NCoef="0" IVar="-1" Cut="0.0000000000000000e+00" cType="1" res="2.6131641119718552e-02" rms="3.8811323046684265e-01" purity="3.3704823255538940e-01" nType="-99"/>
        </Node>
        <Node pos="r" depth="1" NCoef="0" IVar="8" Cut="-1.9999942779541016e+00" cType="1" res="-9.8932266701012850e-04" rms="3.8890862464904785e-01" purity="5.2236253023147583e-01" nType="0">
          <Node pos="l" depth="2" NCoef="0" IVar="-1" Cut="0.0000000000000000e+00" cType="1" res="1.8582325428724289e-02" rms="3.8031408190727234e-01" purity="2.8884148597717285e-01" nType="-99"/>
          <Node pos="r" depth="2" NCoef="0" IVar="8" Cut="-6.2855362892150879e-01" cType="1" res="-2.0789853297173977e-03" rms="3.8923209905624390e-01" purity="5.3228294849395752e-01" nType="0">
            <Node pos="l" depth="3" NCoef="0" IVar="-1" Cut="0.0000000000000000e+00" cType="1" res="-8.6214616894721985e-03" rms="3.9513707160949707e-01" purity="4.8729023337364197e-01" nType="-99"/>
            <Node pos="r" depth="3" NCoef="0" IVar="-1" Cut="0.0000000000000000e+00" cType="1" res="1.1629748623818159e-03" rms="3.8714796304702759e-01" purity="5.4743236303329468e-01" nType="-99"/>
          </Node>
        </Node>
      </Node>
    </BinaryTree>
    <BinaryTree type="DecisionTree" boostWeight="1.0000000000000000e+00" itree="585">
      <Node pos="s" depth="0" NCoef="0" IVar="6" Cut="6.7092859745025635e-01" cType="1" res="-2.4096763227134943e-03" rms="3.8730388879776001e-01" purity="4.9268865585327148e-01" nType="0">
        <Node pos="l" depth="1" NCoef="0" IVar="8" Cut="-1.3333879411220551e-01" cType="1" res="-6.1067510396242142e-03" rms="3.9007318019866943e-01" purity="5.2918666601181030e-01" nType="0">
          <Node pos="l" depth="2" NCoef="0" IVar="8" Cut="-8.9523041248321533e-01" cType="1" res="1.0174275375902653e-03" rms="3.9237210154533386e-01" purity="5.1989060640335083e-01" nType="0">
            <Node pos="l" depth="3" NCoef="0" IVar="-1" Cut="0.0000000000000000e+00" cType="1" res="-4.5310771092772484e-03" rms="3.8624089956283569e-01" purity="4.3696424365043640e-01" nType="-99"/>
            <Node pos="r" depth="3" NCoef="0" IVar="-1" Cut="0.0000000000000000e+00" cType="1" res="5.4688253439962864e-03" rms="3.9802384376525879e-01" purity="5.9946119785308838e-01" nType="-99"/>
          </Node>
          <Node pos="r" depth="2" NCoef="0" IVar="0" Cut="4.3904486083984375e+02" cType="1" res="-1.2547506950795650e-02" rms="3.8787049055099487e-01" purity="5.3759086132049561e-01" nType="0">
            <Node pos="l" depth="3" NCoef="0" IVar="-1" Cut="0.0000000000000000e+00" cType="1" res="-1.2468181550502777e-02" rms="3.9888596534729004e-01" purity="3.8496586680412292e-01" nType="-99"/>
            <Node pos="r" depth="3" NCoef="0" IVar="-1" Cut="0.0000000000000000e+00" cType="1" res="-1.9647928420454264e-03" rms="3.7360078096389771e-01" purity="7.2586977481842041e-01" nType="-99"/>
          </Node>
        </Node>
        <Node pos="r" depth="1" NCoef="0" IVar="7" Cut="1.4665184020996094e+00" cType="1" res="9.0487115085124969e-03" rms="3.7836295366287231e-01" purity="3.7957009673118591e-01" nType="0">
          <Node pos="l" depth="2" NCoef="0" IVar="6" Cut="1.1777670383453369e+00" cType="1" res="4.4368742965161800e-03" rms="3.8229039311408997e-01" purity="3.9955461025238037e-01" nType="0">
            <Node pos="l" depth="3" NCoef="0" IVar="-1" Cut="0.0000000000000000e+00" cType="1" res="-2.1319065708667040e-03" rms="3.9668282866477966e-01" purity="4.9826645851135254e-01" nType="-99"/>
            <Node pos="r" depth="3" NCoef="0" IVar="-1" Cut="0.0000000000000000e+00" cType="1" res="1.0434283874928951e-02" rms="3.6469447612762451e-01" purity="2.8518161177635193e-01" nType="-99"/>
          </Node>
          <Node pos="r" depth="2" NCoef="0" IVar="-1" Cut="0.0000000000000000e+00" cType="1" res="4.6756677329540253e-02" rms="3.4467297792434692e-01" purity="2.2610250115394592e-01" nType="-99"/>
        </Node>
      </Node>
    </BinaryTree>
    <BinaryTree type="DecisionTree" boostWeight="1.0000000000000000e+00" itree="586">
      <Node pos="s" depth="0" NCoef="0" IVar="7" Cut="1.1998152732849121e+00" cType="1" res="6.3594791572540998e-04" rms="3.8794296979904175e-01" purity="4.9911174178123474e-01" nType="0">
        <Node pos="l" depth="1" NCoef="0" IVar="8" Cut="1.4666476249694824e+00" cType="1" res="-2.3249760270118713e-03" rms="3.9048802852630615e-01" purity="5.2802979946136475e-01" nType="0">
          <Node pos="l" depth="2" NCoef="0" IVar="8" Cut="8.5712516307830811e-01" cType="1" res="-5.6411104742437601e-04" rms="3.9190649986267090e-01" purity="5.4700946807861328e-01" nType="0">
            <Node pos="l" depth="3" NCoef="0" IVar="-1" Cut="0.0000000000000000e+00" cType="1" res="-2.1160368341952562e-03" rms="3.9155933260917664e-01" purity="5.4646694660186768e-01" nType="-99"/>
            <Node pos="r" depth="3" NCoef="0" IVar="-1" Cut="0.0000000000000000e+00" cType="1" res="9.9097453057765961e-03" rms="3.9363735914230347e-01" purity="5.5032604932785034e-01" nType="-99"/>
          </Node>
          <Node pos="r" depth="2" NCoef="0" IVar="8" Cut="1.8476462364196777e+00" cType="1" res="-1.9268870353698730e-02" rms="3.7614482641220093e-01" purity="3.4539788961410522e-01" nType="0">
            <Node pos="l" depth="3" NCoef="0" IVar="-1" Cut="0.0000000000000000e+00" cType="1" res="-2.3412870243191719e-02" rms="3.8490694761276245e-01" purity="3.9719772338867188e-01" nType="-99"/>
            <Node pos="r" depth="3" NCoef="0" IVar="-1" Cut="0.0000000000000000e+00" cType="1" res="-3.8794521242380142e-03" rms="3.6855396628379822e-01" purity="3.0483400821685791e-01" nType="-99"/>
          </Node>
        </Node>
        <Node pos="r" depth="1" NCoef="0" IVar="1" Cut="1.2836938476562500e+03" cType="1" res="1.9279763102531433e-02" rms="3.7097477912902832e-01" purity="3.1702575087547302e-01" nType="0">
          <Node pos="l" depth="2" NCoef="0" IVar="1" Cut="1.0533635253906250e+03" cType="1" res="2.9774691909551620e-02" rms="3.5806459188461304e-01" purity="2.2365112602710724e-01" nType="0">
            <Node pos="l" depth="3" NCoef="0" IVar="-1" Cut="0.0000000000000000e+00" cType="1" res="9.9061625078320503e-03" rms="3.1477600336074829e-01" purity="1.3047637045383453e-01" nType="-99"/>
            <Node pos="r" depth="3" NCoef="0" IVar="-1" Cut="0.0000000000000000e+00" cType="1" res="3.5175435245037079e-02" rms="3.9915290474891663e-01" purity="3.2630234956741333e-01" nType="-99"/>
          </Node>
          <Node pos="r" depth="2" NCoef="0" IVar="-1" Cut="0.0000000000000000e+00" cType="1" res="-2.2583008103538305e-04" rms="3.9322480559349060e-01" purity="4.9157437682151794e-01" nType="-99"/>
        </Node>
      </Node>
    </BinaryTree>
    <BinaryTree type="DecisionTree" boostWeight="1.0000000000000000e+00" itree="587">
      <Node pos="s" depth="0" NCoef="0" IVar="1" Cut="1.0959008789062500e+03" cType="1" res="2.6363693177700043e-03" rms="3.8455352187156677e-01" purity="5.0394523143768311e-01" nType="0">
        <Node pos="l" depth="1" NCoef="0" IVar="9" Cut="-1.3319389522075653e-01" cType="1" res="-5.7063498534262180e-03" rms="3.7199026346206665e-01" purity="2.2649547457695007e-01" nType="0">
          <Node pos="l" depth="2" NCoef="0" IVar="3" Cut="1.3721806335449219e+02" cType="1" res="-2.0929718390107155e-02" rms="3.5925689339637756e-01" purity="2.0973289012908936e-01" nType="0">
            <Node pos="l" depth="3" NCoef="0" IVar="-1" Cut="0.0000000000000000e+00" cType="1" res="-4.9577411264181137e-03" rms="3.2860192656517029e-01" purity="1.6126319766044617e-01" nType="-99"/>
            <Node pos="r" depth="3" NCoef="0" IVar="-1" Cut="0.0000000000000000e+00" cType="1" res="-2.1386917680501938e-02" rms="3.8571166992187500e-01" purity="2.5601258873939514e-01" nType="-99"/>
          </Node>
          <Node pos="r" depth="2" NCoef="0" IVar="6" Cut="-1.2760688364505768e-01" cType="1" res="7.1907946839928627e-03" rms="3.8197186589241028e-01" purity="2.4069665372371674e-01" nType="0">
            <Node pos="l" depth="3" NCoef="0" IVar="-1" Cut="0.0000000000000000e+00" cType="1" res="1.4174112118780613e-02" rms="3.8627383112907410e-01" purity="2.6476636528968811e-01" nType="-99"/>
            <Node pos="r" depth="3" NCoef="0" IVar="-1" Cut="0.0000000000000000e+00" cType="1" res="-1.2988386442884803e-03" rms="3.7885072827339172e-01" purity="2.2489799559116364e-01" nType="-99"/>
          </Node>
        </Node>
        <Node pos="r" depth="1" NCoef="0" IVar="1" Cut="1.3777161865234375e+03" cType="1" res="6.2727550975978374e-03" rms="3.8984701037406921e-01" purity="6.2487876415252686e-01" nType="0">
          <Node pos="l" depth="2" NCoef="0" IVar="1" Cut="1.1361646728515625e+03" cType="1" res="1.2959504500031471e-02" rms="4.1914600133895874e-01" purity="5.0128394365310669e-01" nType="0">
            <Node pos="l" depth="3" NCoef="0" IVar="-1" Cut="0.0000000000000000e+00" cType="1" res="-8.0419341102242470e-03" rms="4.2853391170501709e-01" purity="3.8765040040016174e-01" nType="-99"/>
            <Node pos="r" depth="3" NCoef="0" IVar="-1" Cut="0.0000000000000000e+00" cType="1" res="1.0343090631067753e-02" rms="4.1709765791893005e-01" purity="5.2322620153427124e-01" nType="-99"/>
          </Node>
          <Node pos="r" depth="2" NCoef="0" IVar="1" Cut="2.1828886718750000e+03" cType="1" res="4.7702383017167449e-04" rms="3.6244183778762817e-01" purity="7.3200446367263794e-01" nType="0">
            <Node pos="l" depth="3" NCoef="0" IVar="-1" Cut="0.0000000000000000e+00" cType="1" res="-1.6873701242730021e-03" rms="3.6332839727401733e-01" purity="7.2402423620223999e-01" nType="-99"/>
            <Node pos="r" depth="3" NCoef="0" IVar="-1" Cut="0.0000000000000000e+00" cType="1" res="2.0398005843162537e-02" rms="3.5250771045684814e-01" purity="8.1050229072570801e-01" nType="-99"/>
          </Node>
        </Node>
      </Node>
    </BinaryTree>
    <BinaryTree type="DecisionTree" boostWeight="1.0000000000000000e+00" itree="588">
      <Node pos="s" depth="0" NCoef="0" IVar="8" Cut="6.6665613651275635e-01" cType="1" res="-8.0614918260835111e-05" rms="3.8311225175857544e-01" purity="5.0126373767852783e-01" nType="0">
        <Node pos="l" depth="1" NCoef="0" IVar="6" Cut="-9.0005987882614136e-01" cType="1" res="3.6675136070698500e-03" rms="3.8473030924797058e-01" purity="5.3159314393997192e-01" nType="0">
          <Node pos="l" depth="2" NCoef="0" IVar="7" Cut="-4.0018612146377563e-01" cType="1" res="1.7862761393189430e-02" rms="3.8403913378715515e-01" purity="3.5724282264709473e-01" nType="0">
            <Node pos="l" depth="3" NCoef="0" IVar="-1" Cut="0.0000000000000000e+00" cType="1" res="2.8069186955690384e-02" rms="3.7708607316017151e-01" purity="3.4617224335670471e-01" nType="-99"/>
            <Node pos="r" depth="3" NCoef="0" IVar="-1" Cut="0.0000000000000000e+00" cType="1" res="1.2704452965408564e-03" rms="3.8860711455345154e-01" purity="3.6585175991058350e-01" nType="-99"/>
          </Node>
          <Node pos="r" depth="2" NCoef="0" IVar="6" Cut="-7.2387617826461792e-01" cType="1" res="5.6457764003425837e-04" rms="3.8481152057647705e-01" purity="5.6970441341400146e-01" nType="0">
            <Node pos="l" depth="3" NCoef="0" IVar="-1" Cut="0.0000000000000000e+00" cType="1" res="-1.8392018973827362e-02" rms="3.8886845111846924e-01" purity="5.2698355913162231e-01" nType="-99"/>
            <Node pos="r" depth="3" NCoef="0" IVar="-1" Cut="0.0000000000000000e+00" cType="1" res="1.6308906488120556e-03" rms="3.8447305560112000e-01" purity="5.7243865728378296e-01" nType="-99"/>
          </Node>
        </Node>
        <Node pos="r" depth="1" NCoef="0" IVar="9" Cut="-4.0010890364646912e-01" cType="1" res="-9.9021820351481438e-03" rms="3.7866356968879700e-01" purity="4.2178863286972046e-01" nType="0">
          <Node pos="l" depth="2" NCoef="0" IVar="9" Cut="-8.5723477602005005e-01" cType="1" res="4.2896782979369164e-03" rms="3.9354079961776733e-01" purity="4.4725650548934937e-01" nType="0">
            <Node pos="l" depth="3" NCoef="0" IVar="-1" Cut="0.0000000000000000e+00" cType="1" res="-2.3555809166282415e-03" rms="3.8744854927062988e-01" purity="4.0990135073661804e-01" nType="-99"/>
            <Node pos="r" depth="3" NCoef="0" IVar="-1" Cut="0.0000000000000000e+00" cType="1" res="1.2367373332381248e-02" rms="4.0412586927413940e-01" purity="5.1607042551040649e-01" nType="-99"/>
          </Node>
          <Node pos="r" depth="2" NCoef="0" IVar="6" Cut="-8.3995088934898376e-02" cType="1" res="-1.6976833343505859e-02" rms="3.7082168459892273e-01" purity="4.0909290313720703e-01" nType="0">
            <Node pos="l" depth="3" NCoef="0" IVar="-1" Cut="0.0000000000000000e+00" cType="1" res="-2.5691337883472443e-02" rms="3.7049674987792969e-01" purity="3.9426967501640320e-01" nType="-99"/>
            <Node pos="r" depth="3" NCoef="0" IVar="-1" Cut="0.0000000000000000e+00" cType="1" res="-3.2425399404019117e-03" rms="3.7045121192932129e-01" purity="4.1771578788757324e-01" nType="-99"/>
          </Node>
        </Node>
      </Node>
    </BinaryTree>
    <BinaryTree type="DecisionTree" boostWeight="1.0000000000000000e+00" itree="589">
      <Node pos="s" depth="0" NCoef="0" IVar="9" Cut="1.1999951601028442e+00" cType="1" res="-4.7643962316215038e-03" rms="3.8453331589698792e-01" purity="4.9265712499618530e-01" nType="0">
        <Node pos="l" depth="1" NCoef="0" IVar="8" Cut="6.6660892963409424e-01" cType="1" res="-2.7203264180570841e-03" rms="3.8723894953727722e-01" purity="5.1279723644256592e-01" nType="0">
          <Node pos="l" depth="2" NCoef="0" IVar="6" Cut="6.7096471786499023e-01" cType="1" res="-6.6449805162847042e-03" rms="3.8476628065109253e-01" purity="5.2975928783416748e-01" nType="0">
            <Node pos="l" depth="3" NCoef="0" IVar="-1" Cut="0.0000000000000000e+00" cType="1" res="-6.6971182823181152e-03" rms="3.8453212380409241e-01" purity="5.5785298347473145e-01" nType="-99"/>
            <Node pos="r" depth="3" NCoef="0" IVar="-1" Cut="0.0000000000000000e+00" cType="1" res="4.3706074357032776e-03" rms="3.8539323210716248e-01" purity="4.2129355669021606e-01" nType="-99"/>
          </Node>
          <Node pos="r" depth="2" NCoef="0" IVar="5" Cut="8.1792190551757812e+01" cType="1" res="7.9105468466877937e-03" rms="3.9366230368614197e-01" purity="4.6685123443603516e-01" nType="0">
            <Node pos="l" depth="3" NCoef="0" IVar="-1" Cut="0.0000000000000000e+00" cType="1" res="1.4421548694372177e-02" rms="3.9823970198631287e-01" purity="3.1066903471946716e-01" nType="-99"/>
            <Node pos="r" depth="3" NCoef="0" IVar="-1" Cut="0.0000000000000000e+00" cType="1" res="-4.2640473693609238e-03" rms="3.8813886046409607e-01" purity="6.3566988706588745e-01" nType="-99"/>
          </Node>
        </Node>
        <Node pos="r" depth="1" NCoef="0" IVar="6" Cut="6.8747770786285400e-01" cType="1" res="-1.4576885849237442e-02" rms="3.7111392617225647e-01" purity="3.9597535133361816e-01" nType="0">
          <Node pos="l" depth="2" NCoef="0" IVar="9" Cut="1.8857138156890869e+00" cType="1" res="-7.2784116491675377e-03" rms="3.8722866773605347e-01" purity="4.5088407397270203e-01" nType="0">
            <Node pos="l" depth="3" NCoef="0" IVar="-1" Cut="0.0000000000000000e+00" cType="1" res="2.8950942214578390e-03" rms="3.8940626382827759e-01" purity="5.0660759210586548e-01" nType="-99"/>
            <Node pos="r" depth="3" NCoef="0" IVar="-1" Cut="0.0000000000000000e+00" cType="1" res="-1.7611721530556679e-02" rms="3.8270530104637146e-01" purity="3.5693940520286560e-01" nType="-99"/>
          </Node>
          <Node pos="r" depth="2" NCoef="0" IVar="9" Cut="1.7334252595901489e+00" cType="1" res="-3.1282134354114532e-02" rms="3.3068636059761047e-01" purity="2.7029648423194885e-01" nType="0">
            <Node pos="l" depth="3" NCoef="0" IVar="-1" Cut="0.0000000000000000e+00" cType="1" res="-3.4402266144752502e-02" rms="3.3135595917701721e-01" purity="2.7501767873764038e-01" nType="-99"/>
            <Node pos="r" depth="3" NCoef="0" IVar="-1" Cut="0.0000000000000000e+00" cType="1" res="-1.5114289708435535e-02" rms="3.2956257462501526e-01" purity="2.6572880148887634e-01" nType="-99"/>
          </Node>
        </Node>
      </Node>
    </BinaryTree>
    <BinaryTree type="DecisionTree" boostWeight="1.0000000000000000e+00" itree="590">
      <Node pos="s" depth="0" NCoef="0" IVar="9" Cut="6.6666209697723389e-01" cType="1" res="5.6370411766692996e-04" rms="3.8458642363548279e-01" purity="4.9952039122581482e-01" nType="0">
        <Node pos="l" depth="1" NCoef="0" IVar="9" Cut="-3.2381087541580200e-01" cType="1" res="-2.8365475591272116e-03" rms="3.8394042849540710e-01" purity="5.1297909021377563e-01" nType="0">
          <Node pos="l" depth="2" NCoef="0" IVar="8" Cut="-1.3337151706218719e-01" cType="1" res="1.9700287375599146e-03" rms="3.8355219364166260e-01" purity="4.8838987946510315e-01" nType="0">
            <Node pos="l" depth="3" NCoef="0" IVar="-1" Cut="0.0000000000000000e+00" cType="1" res="5.7695214636623859e-03" rms="3.8533025979995728e-01" purity="4.6197667717933655e-01" nType="-99"/>
            <Node pos="r" depth="3" NCoef="0" IVar="-1" Cut="0.0000000000000000e+00" cType="1" res="-3.0660873744636774e-03" rms="3.8167914748191833e-01" purity="5.1440382003784180e-01" nType="-99"/>
          </Node>
          <Node pos="r" depth="2" NCoef="0" IVar="7" Cut="-6.6677212715148926e-01" cType="1" res="-9.4741405919194221e-03" rms="3.8437712192535400e-01" purity="5.4693526029586792e-01" nType="0">
            <Node pos="l" depth="3" NCoef="0" IVar="-1" Cut="0.0000000000000000e+00" cType="1" res="-1.5018796548247337e-02" rms="3.8784104585647583e-01" purity="4.4429370760917664e-01" nType="-99"/>
            <Node pos="r" depth="3" NCoef="0" IVar="-1" Cut="0.0000000000000000e+00" cType="1" res="-3.4503987990319729e-03" rms="3.8317000865936279e-01" purity="5.7961630821228027e-01" nType="-99"/>
          </Node>
        </Node>
        <Node pos="r" depth="1" NCoef="0" IVar="8" Cut="-1.3332217931747437e-01" cType="1" res="8.3788912743330002e-03" rms="3.8595354557037354e-01" purity="4.6858665347099304e-01" nType="0">
          <Node pos="l" depth="2" NCoef="0" IVar="0" Cut="5.3834429931640625e+02" cType="1" res="1.9346700981259346e-02" rms="3.8965174555778503e-01" purity="5.0424253940582275e-01" nType="0">
            <Node pos="l" depth="3" NCoef="0" IVar="-1" Cut="0.0000000000000000e+00" cType="1" res="1.5536959283053875e-02" rms="3.9505729079246521e-01" purity="4.3234869837760925e-01" nType="-99"/>
            <Node pos="r" depth="3" NCoef="0" IVar="-1" Cut="0.0000000000000000e+00" cType="1" res="5.9180095558986068e-04" rms="3.6876237392425537e-01" purity="7.6531267166137695e-01" nType="-99"/>
          </Node>
          <Node pos="r" depth="2" NCoef="0" IVar="5" Cut="1.0679331970214844e+02" cType="1" res="5.9680006233975291e-04" rms="3.8311749696731567e-01" purity="4.4328740239143372e-01" nType="0">
            <Node pos="l" depth="3" NCoef="0" IVar="-1" Cut="0.0000000000000000e+00" cType="1" res="4.9911034293472767e-03" rms="3.8451001048088074e-01" purity="3.6322560906410217e-01" nType="-99"/>
            <Node pos="r" depth="3" NCoef="0" IVar="-1" Cut="0.0000000000000000e+00" cType="1" res="-1.5076547861099243e-02" rms="3.7795132398605347e-01" purity="6.9292706251144409e-01" nType="-99"/>
          </Node>
        </Node>
      </Node>
    </BinaryTree>
    <BinaryTree type="DecisionTree" boostWeight="1.0000000000000000e+00" itree="591">
      <Node pos="s" depth="0" NCoef="0" IVar="0" Cut="4.5206753540039062e+02" cType="1" res="2.9014528263360262e-03" rms="3.8408553600311279e-01" purity="5.0356680154800415e-01" nType="0">
        <Node pos="l" depth="1" NCoef="0" IVar="6" Cut="-1.2733156979084015e-01" cType="1" res="7.5540938414633274e-03" rms="3.9081111550331116e-01" purity="3.7440118193626404e-01" nType="0">
          <Node pos="l" depth="2" NCoef="0" IVar="5" Cut="9.3071990966796875e+01" cType="1" res="-8.3368370542302728e-04" rms="3.8400661945343018e-01" purity="3.5346215963363647e-01" nType="0">
            <Node pos="l" depth="3" NCoef="0" IVar="-1" Cut="0.0000000000000000e+00" cType="1" res="-7.0759025402367115e-03" rms="3.6457413434982300e-01" purity="2.3907601833343506e-01" nType="-99"/>
            <Node pos="r" depth="3" NCoef="0" IVar="-1" Cut="0.0000000000000000e+00" cType="1" res="1.0246988385915756e-02" rms="4.2029091715812683e-01" purity="5.8724516630172729e-01" nType="-99"/>
          </Node>
          <Node pos="r" depth="2" NCoef="0" IVar="4" Cut="1.6177818298339844e+02" cType="1" res="1.4284617267549038e-02" rms="3.9605823159217834e-01" purity="3.9120307564735413e-01" nType="0">
            <Node pos="l" depth="3" NCoef="0" IVar="-1" Cut="0.0000000000000000e+00" cType="1" res="1.2631754390895367e-02" rms="3.9663621783256531e-01" purity="3.1771388649940491e-01" nType="-99"/>
            <Node pos="r" depth="3" NCoef="0" IVar="-1" Cut="0.0000000000000000e+00" cType="1" res="-1.7489546444267035e-03" rms="3.9364865422248840e-01" purity="6.3501965999603271e-01" nType="-99"/>
          </Node>
        </Node>
        <Node pos="r" depth="1" NCoef="0" IVar="4" Cut="1.0566080474853516e+02" cType="1" res="-4.4577368535101414e-03" rms="3.7308171391487122e-01" purity="7.0787096023559570e-01" nType="0">
          <Node pos="l" depth="2" NCoef="0" IVar="4" Cut="9.5080421447753906e+01" cType="1" res="-1.7019459977746010e-02" rms="4.2403918504714966e-01" purity="4.4641453027725220e-01" nType="0">
            <Node pos="l" depth="3" NCoef="0" IVar="-1" Cut="0.0000000000000000e+00" cType="1" res="-1.4151116833090782e-02" rms="4.1978561878204346e-01" purity="3.8799661397933960e-01" nType="-99"/>
            <Node pos="r" depth="3" NCoef="0" IVar="-1" Cut="0.0000000000000000e+00" cType="1" res="5.0062108784914017e-03" rms="4.3438190221786499e-01" purity="6.0646122694015503e-01" nType="-99"/>
          </Node>
          <Node pos="r" depth="2" NCoef="0" IVar="8" Cut="-6.6623288393020630e-01" cType="1" res="-2.9057919164188206e-04" rms="3.5446497797966003e-01" purity="7.9460507631301880e-01" nType="0">
            <Node pos="l" depth="3" NCoef="0" IVar="-1" Cut="0.0000000000000000e+00" cType="1" res="8.1739956513047218e-03" rms="3.7422686815261841e-01" purity="7.6499778032302856e-01" nType="-99"/>
            <Node pos="r" depth="3" NCoef="0" IVar="-1" Cut="0.0000000000000000e+00" cType="1" res="-3.7874965928494930e-03" rms="3.4710359573364258e-01" purity="8.0508351325988770e-01" nType="-99"/>
          </Node>
        </Node>
      </Node>
    </BinaryTree>
    <BinaryTree type="DecisionTree" boostWeight="1.0000000000000000e+00" itree="592">
      <Node pos="s" depth="0" NCoef="0" IVar="6" Cut="1.4692428112030029e+00" cType="1" res="-1.6047522658482194e-03" rms="3.8423222303390503e-01" purity="5.0054061412811279e-01" nType="0">
        <Node pos="l" depth="1" NCoef="0" IVar="5" Cut="8.0216247558593750e+01" cType="1" res="-2.2509334667120129e-04" rms="3.8866916298866272e-01" purity="5.2363568544387817e-01" nType="0">
          <Node pos="l" depth="2" NCoef="0" IVar="4" Cut="1.4131970214843750e+02" cType="1" res="5.6817466393113136e-03" rms="3.9830636978149414e-01" purity="3.4964123368263245e-01" nType="0">
            <Node pos="l" depth="3" NCoef="0" IVar="-1" Cut="0.0000000000000000e+00" cType="1" res="6.2655126675963402e-03" rms="3.9367571473121643e-01" purity="3.0759352445602417e-01" nType="-99"/>
            <Node pos="r" depth="3" NCoef="0" IVar="-1" Cut="0.0000000000000000e+00" cType="1" res="-7.3318118229508400e-03" rms="4.1878548264503479e-01" purity="5.4631555080413818e-01" nType="-99"/>
          </Node>
          <Node pos="r" depth="2" NCoef="0" IVar="4" Cut="1.3381433105468750e+02" cType="1" res="-5.6344955228269100e-03" rms="3.7954840064048767e-01" purity="6.8297737836837769e-01" nType="0">
            <Node pos="l" depth="3" NCoef="0" IVar="-1" Cut="0.0000000000000000e+00" cType="1" res="-9.0246554464101791e-03" rms="4.1464218497276306e-01" purity="5.1826840639114380e-01" nType="-99"/>
            <Node pos="r" depth="3" NCoef="0" IVar="-1" Cut="0.0000000000000000e+00" cType="1" res="-6.2667555175721645e-04" rms="3.6235293745994568e-01" purity="7.5793164968490601e-01" nType="-99"/>
          </Node>
        </Node>
        <Node pos="r" depth="1" NCoef="0" IVar="2" Cut="3.0579968261718750e+02" cType="1" res="-2.1271476522088051e-02" rms="3.1358629465103149e-01" purity="1.7132504284381866e-01" nType="0">
          <Node pos="l" depth="2" NCoef="0" IVar="-1" Cut="0.0000000000000000e+00" cType="1" res="-3.2349997200071812e-03" rms="3.3983743190765381e-01" purity="1.9504681229591370e-01" nType="-99"/>
          <Node pos="r" depth="2" NCoef="0" IVar="-1" Cut="0.0000000000000000e+00" cType="1" res="-3.7566632032394409e-02" rms="2.8555727005004883e-01" purity="1.4886495471000671e-01" nType="-99"/>
        </Node>
      </Node>
    </BinaryTree>
    <BinaryTree type="DecisionTree" boostWeight="1.0000000000000000e+00" itree="593">
      <Node pos="s" depth="0" NCoef="0" IVar="8" Cut="-1.4666715860366821e+00" cType="1" res="2.6373206637799740e-03" rms="3.8421571254730225e-01" purity="5.0103050470352173e-01" nType="0">
        <Node pos="l" depth="1" NCoef="0" IVar="5" Cut="7.0123115539550781e+01" cType="1" res="-1.6065465286374092e-02" rms="3.5269984602928162e-01" purity="3.1415101885795593e-01" nType="0">
          <Node pos="l" depth="2" NCoef="0" IVar="-1" Cut="0.0000000000000000e+00" cType="1" res="-2.2926399484276772e-02" rms="3.1291538476943970e-01" purity="1.5899476408958435e-01" nType="-99"/>
          <Node pos="r" depth="2" NCoef="0" IVar="0" Cut="4.0834906005859375e+02" cType="1" res="-8.3838822320103645e-03" rms="3.8148072361946106e-01" purity="4.3873268365859985e-01" nType="0">
            <Node pos="l" depth="3" NCoef="0" IVar="-1" Cut="0.0000000000000000e+00" cType="1" res="5.0389762036502361e-03" rms="3.6748671531677246e-01" purity="2.9297393560409546e-01" nType="-99"/>
            <Node pos="r" depth="3" NCoef="0" IVar="-1" Cut="0.0000000000000000e+00" cType="1" res="-1.5898451209068298e-02" rms="3.9538377523422241e-01" purity="5.9702163934707642e-01" nType="-99"/>
          </Node>
        </Node>
        <Node pos="r" depth="1" NCoef="0" IVar="6" Cut="-9.1667431592941284e-01" cType="1" res="4.7846464440226555e-03" rms="3.8761249184608459e-01" purity="5.2248674631118774e-01" nType="0">
          <Node pos="l" depth="2" NCoef="0" IVar="5" Cut="7.5031616210937500e+01" cType="1" res="-8.1684645265340805e-03" rms="3.7457635998725891e-01" purity="3.3913925290107727e-01" nType="0">
            <Node pos="l" depth="3" NCoef="0" IVar="-1" Cut="0.0000000000000000e+00" cType="1" res="-1.8663056194782257e-02" rms="3.3160740137100220e-01" purity="1.8177954852581024e-01" nType="-99"/>
            <Node pos="r" depth="3" NCoef="0" IVar="-1" Cut="0.0000000000000000e+00" cType="1" res="2.9349129181355238e-03" rms="4.0845680236816406e-01" purity="4.7858735918998718e-01" nType="-99"/>
          </Node>
          <Node pos="r" depth="2" NCoef="0" IVar="9" Cut="1.4666403532028198e+00" cType="1" res="7.2229057550430298e-03" rms="3.8996952772140503e-01" purity="5.5699962377548218e-01" nType="0">
            <Node pos="l" depth="3" NCoef="0" IVar="-1" Cut="0.0000000000000000e+00" cType="1" res="3.1183876562863588e-03" rms="3.8942146301269531e-01" purity="5.7182055711746216e-01" nType="-99"/>
            <Node pos="r" depth="3" NCoef="0" IVar="-1" Cut="0.0000000000000000e+00" cType="1" res="1.5103694051504135e-02" rms="3.9321005344390869e-01" purity="4.5840713381767273e-01" nType="-99"/>
          </Node>
        </Node>
      </Node>
    </BinaryTree>
    <BinaryTree type="DecisionTree" boostWeight="1.0000000000000000e+00" itree="594">
      <Node pos="s" depth="0" NCoef="0" IVar="1" Cut="1.4400571289062500e+03" cType="1" res="-3.0493875965476036e-03" rms="3.8150855898857117e-01" purity="4.9811387062072754e-01" nType="0">
        <Node pos="l" depth="1" NCoef="0" IVar="9" Cut="-1.1999696493148804e+00" cType="1" res="-6.4957370050251484e-03" rms="3.9305299520492554e-01" purity="3.7569028139114380e-01" nType="0">
          <Node pos="l" depth="2" NCoef="0" IVar="3" Cut="1.5744309997558594e+02" cType="1" res="-1.7698528245091438e-02" rms="3.7319883704185486e-01" purity="3.0521073937416077e-01" nType="0">
            <Node pos="l" depth="3" NCoef="0" IVar="-1" Cut="0.0000000000000000e+00" cType="1" res="-3.3251058310270309e-02" rms="3.2293334603309631e-01" purity="1.6329932212829590e-01" nType="-99"/>
            <Node pos="r" depth="3" NCoef="0" IVar="-1" Cut="0.0000000000000000e+00" cType="1" res="-2.7216353919357061e-04" rms="4.0548381209373474e-01" purity="4.1001212596893311e-01" nType="-99"/>
          </Node>
          <Node pos="r" depth="2" NCoef="0" IVar="4" Cut="6.4131744384765625e+01" cType="1" res="-3.9719846099615097e-03" rms="3.9734524488449097e-01" purity="3.9156785607337952e-01" nType="0">
            <Node pos="l" depth="3" NCoef="0" IVar="-1" Cut="0.0000000000000000e+00" cType="1" res="-3.2763119786977768e-02" rms="2.7819886803627014e-01" purity="1.0135140269994736e-01" nType="-99"/>
            <Node pos="r" depth="3" NCoef="0" IVar="-1" Cut="0.0000000000000000e+00" cType="1" res="-1.2715487973764539e-03" rms="4.0376484394073486e-01" purity="4.1031447052955627e-01" nType="-99"/>
          </Node>
        </Node>
        <Node pos="r" depth="1" NCoef="0" IVar="9" Cut="9.3330913782119751e-01" cType="1" res="4.0515488944947720e-03" rms="3.5644051432609558e-01" purity="7.5035822391510010e-01" nType="0">
          <Node pos="l" depth="2" NCoef="0" IVar="4" Cut="1.0579412078857422e+02" cType="1" res="6.1154481954872608e-05" rms="3.5163089632987976e-01" purity="7.6079773902893066e-01" nType="0">
            <Node pos="l" depth="3" NCoef="0" IVar="-1" Cut="0.0000000000000000e+00" cType="1" res="-1.5578267164528370e-02" rms="4.1733419895172119e-01" purity="4.8684674501419067e-01" nType="-99"/>
            <Node pos="r" depth="3" NCoef="0" IVar="-1" Cut="0.0000000000000000e+00" cType="1" res="2.8079294133931398e-03" rms="3.4309160709381104e-01" purity="7.9239690303802490e-01" nType="-99"/>
          </Node>
          <Node pos="r" depth="2" NCoef="0" IVar="0" Cut="5.3835675048828125e+02" cType="1" res="1.9202329218387604e-02" rms="3.7375134229660034e-01" purity="7.1072119474411011e-01" nType="0">
            <Node pos="l" depth="3" NCoef="0" IVar="-1" Cut="0.0000000000000000e+00" cType="1" res="3.0235746875405312e-02" rms="3.9337164163589478e-01" purity="6.4708012342453003e-01" nType="-99"/>
            <Node pos="r" depth="3" NCoef="0" IVar="-1" Cut="0.0000000000000000e+00" cType="1" res="-4.8936824314296246e-03" rms="3.5242623090744019e-01" purity="7.7062386274337769e-01" nType="-99"/>
          </Node>
        </Node>
      </Node>
    </BinaryTree>
    <BinaryTree type="DecisionTree" boostWeight="1.0000000000000000e+00" itree="595">
      <Node pos="s" depth="0" NCoef="0" IVar="3" Cut="1.4678045654296875e+02" cType="1" res="2.4284834507852793e-03" rms="3.8550269603729248e-01" purity="5.0155407190322876e-01" nType="0">
        <Node pos="l" depth="1" NCoef="0" IVar="1" Cut="1.0503153076171875e+03" cType="1" res="1.2018111534416676e-02" rms="3.7574982643127441e-01" purity="2.5719457864761353e-01" nType="0">
          <Node pos="l" depth="2" NCoef="0" IVar="1" Cut="9.5495452880859375e+02" cType="1" res="3.3257282339036465e-03" rms="3.4477236866950989e-01" purity="1.6987201571464539e-01" nType="0">
            <Node pos="l" depth="3" NCoef="0" IVar="-1" Cut="0.0000000000000000e+00" cType="1" res="-4.6434416435658932e-03" rms="3.1458976864814758e-01" purity="1.3159486651420593e-01" nType="-99"/>
            <Node pos="r" depth="3" NCoef="0" IVar="-1" Cut="0.0000000000000000e+00" cType="1" res="1.2324485927820206e-02" rms="3.9108350872993469e-01" purity="2.3602975904941559e-01" nType="-99"/>
          </Node>
          <Node pos="r" depth="2" NCoef="0" IVar="8" Cut="6.6695475578308105e-01" cType="1" res="2.5429809466004372e-02" rms="4.1872364282608032e-01" purity="3.9192679524421692e-01" nType="0">
            <Node pos="l" depth="3" NCoef="0" IVar="-1" Cut="0.0000000000000000e+00" cType="1" res="2.2921422496438026e-02" rms="4.2740410566329956e-01" purity="4.1968134045600891e-01" nType="-99"/>
            <Node pos="r" depth="3" NCoef="0" IVar="-1" Cut="0.0000000000000000e+00" cType="1" res="-6.5159471705555916e-03" rms="3.9471539855003357e-01" purity="3.2510119676589966e-01" nType="-99"/>
          </Node>
        </Node>
        <Node pos="r" depth="1" NCoef="0" IVar="9" Cut="1.1999732255935669e+00" cType="1" res="-7.9047220060601830e-04" rms="3.8866853713989258e-01" purity="5.8357834815979004e-01" nType="0">
          <Node pos="l" depth="2" NCoef="0" IVar="9" Cut="6.2852251529693604e-01" cType="1" res="1.5701538650318980e-03" rms="3.8788726925849915e-01" purity="6.0351455211639404e-01" nType="0">
            <Node pos="l" depth="3" NCoef="0" IVar="-1" Cut="0.0000000000000000e+00" cType="1" res="-8.1063958350569010e-04" rms="3.8663321733474731e-01" purity="5.9959638118743896e-01" nType="-99"/>
            <Node pos="r" depth="3" NCoef="0" IVar="-1" Cut="0.0000000000000000e+00" cType="1" res="9.6944747492671013e-03" rms="3.9356586337089539e-01" purity="6.2229788303375244e-01" nType="-99"/>
          </Node>
          <Node pos="r" depth="2" NCoef="0" IVar="8" Cut="9.3280959129333496e-01" cType="1" res="-1.3258044607937336e-02" rms="3.9253363013267517e-01" purity="4.7828575968742371e-01" nType="0">
            <Node pos="l" depth="3" NCoef="0" IVar="-1" Cut="0.0000000000000000e+00" cType="1" res="-1.4145386405289173e-02" rms="3.9405742287635803e-01" purity="5.2032339572906494e-01" nType="-99"/>
            <Node pos="r" depth="3" NCoef="0" IVar="-1" Cut="0.0000000000000000e+00" cType="1" res="8.1468885764479637e-03" rms="3.8711804151535034e-01" purity="3.6100742220878601e-01" nType="-99"/>
          </Node>
        </Node>
      </Node>
    </BinaryTree>
    <BinaryTree type="DecisionTree" boostWeight="1.0000000000000000e+00" itree="596">
      <Node pos="s" depth="0" NCoef="0" IVar="8" Cut="-1.9999969005584717e+00" cType="1" res="-4.9865519395098090e-04" rms="3.8637259602546692e-01" purity="4.9790528416633606e-01" nType="0">
        <Node pos="l" depth="1" NCoef="0" IVar="-1" Cut="0.0000000000000000e+00" cType="1" res="-1.9739130511879921e-02" rms="3.3225888013839722e-01" purity="2.0945993065834045e-01" nType="-99"/>
        <Node pos="r" depth="1" NCoef="0" IVar="9" Cut="-1.9999617338180542e+00" cType="1" res="5.0473073497414589e-04" rms="3.8853818178176880e-01" purity="5.1053071022033691e-01" nType="0">
          <Node pos="l" depth="2" NCoef="0" IVar="6" Cut="-9.4025328755378723e-02" cType="1" res="2.2492222487926483e-02" rms="3.8807857036590576e-01" purity="4.0270557999610901e-01" nType="0">
            <Node pos="l" depth="3" NCoef="0" IVar="-1" Cut="0.0000000000000000e+00" cType="1" res="2.5956362485885620e-02" rms="3.9611092209815979e-01" purity="4.1452327370643616e-01" nType="-99"/>
            <Node pos="r" depth="3" NCoef="0" IVar="-1" Cut="0.0000000000000000e+00" cType="1" res="3.9193048141896725e-03" rms="3.7890371680259705e-01" purity="3.9051407575607300e-01" nType="-99"/>
          </Node>
          <Node pos="r" depth="2" NCoef="0" IVar="6" Cut="1.2153693437576294e+00" cType="1" res="-7.3609920218586922e-04" rms="3.8852700591087341e-01" purity="5.1661568880081177e-01" nType="0">
            <Node pos="l" depth="3" NCoef="0" IVar="-1" Cut="0.0000000000000000e+00" cType="1" res="-1.4974294463172555e-03" rms="3.9210465550422668e-01" purity="5.4614794254302979e-01" nType="-99"/>
            <Node pos="r" depth="3" NCoef="0" IVar="-1" Cut="0.0000000000000000e+00" cType="1" res="9.6888784319162369e-03" rms="3.5731449723243713e-01" purity="2.7242916822433472e-01" nType="-99"/>
          </Node>
        </Node>
      </Node>
    </BinaryTree>
    <BinaryTree type="DecisionTree" boostWeight="1.0000000000000000e+00" itree="597">
      <Node pos="s" depth="0" NCoef="0" IVar="6" Cut="1.7378406524658203e+00" cType="1" res="1.6325057949870825e-03" rms="3.8556829094886780e-01" purity="4.9901065230369568e-01" nType="0">
        <Node pos="l" depth="1" NCoef="0" IVar="7" Cut="3.9988294243812561e-01" cType="1" res="5.5191875435411930e-04" rms="3.8770702481269836e-01" purity="5.1193863153457642e-01" nType="0">
          <Node pos="l" depth="2" NCoef="0" IVar="6" Cut="1.0931788682937622e+00" cType="1" res="-3.5663868766278028e-03" rms="3.8672012090682983e-01" purity="5.3315508365631104e-01" nType="0">
            <Node pos="l" depth="3" NCoef="0" IVar="-1" Cut="0.0000000000000000e+00" cType="1" res="-1.0208252351731062e-03" rms="3.8861650228500366e-01" purity="5.5093526840209961e-01" nType="-99"/>
            <Node pos="r" depth="3" NCoef="0" IVar="-1" Cut="0.0000000000000000e+00" cType="1" res="-1.8738901242613792e-02" rms="3.6339426040649414e-01" purity="3.2865351438522339e-01" nType="-99"/>
          </Node>
          <Node pos="r" depth="2" NCoef="0" IVar="3" Cut="2.1030456542968750e+02" cType="1" res="8.1312051042914391e-03" rms="3.8940292596817017e-01" purity="4.7289201617240906e-01" nType="0">
            <Node pos="l" depth="3" NCoef="0" IVar="-1" Cut="0.0000000000000000e+00" cType="1" res="1.1306372471153736e-02" rms="3.9388057589530945e-01" purity="3.7215271592140198e-01" nType="-99"/>
            <Node pos="r" depth="3" NCoef="0" IVar="-1" Cut="0.0000000000000000e+00" cType="1" res="-2.6793784927576780e-03" rms="3.8293656706809998e-01" purity="6.0900199413299561e-01" nType="-99"/>
          </Node>
        </Node>
        <Node pos="r" depth="1" NCoef="0" IVar="-1" Cut="0.0000000000000000e+00" cType="1" res="2.4575412273406982e-02" rms="3.3290296792984009e-01" purity="2.0805567502975464e-01" nType="-99"/>
      </Node>
    </BinaryTree>
    <BinaryTree type="DecisionTree" boostWeight="1.0000000000000000e+00" itree="598">
      <Node pos="s" depth="0" NCoef="0" IVar="7" Cut="1.1999784708023071e+00" cType="1" res="-3.1079126056283712e-03" rms="3.8152503967285156e-01" purity="4.9745294451713562e-01" nType="0">
        <Node pos="l" depth="1" NCoef="0" IVar="1" Cut="1.1148233642578125e+03" cType="1" res="-4.6025126357562840e-04" rms="3.8620433211326599e-01" purity="5.2954769134521484e-01" nType="0">
          <Node pos="l" depth="2" NCoef="0" IVar="8" Cut="-1.4665528535842896e+00" cType="1" res="-1.0301912203431129e-02" rms="3.8475361466407776e-01" purity="2.5001627206802368e-01" nType="0">
            <Node pos="l" depth="3" NCoef="0" IVar="-1" Cut="0.0000000000000000e+00" cType="1" res="1.9110547378659248e-02" rms="3.4141838550567627e-01" purity="1.8218421936035156e-01" nType="-99"/>
            <Node pos="r" depth="3" NCoef="0" IVar="-1" Cut="0.0000000000000000e+00" cType="1" res="-9.6764620393514633e-03" rms="3.9134377241134644e-01" purity="2.6146218180656433e-01" nType="-99"/>
          </Node>
          <Node pos="r" depth="2" NCoef="0" IVar="6" Cut="1.4803510904312134e+00" cType="1" res="4.0802229195833206e-03" rms="3.8678738474845886e-01" purity="6.5851020812988281e-01" nType="0">
            <Node pos="l" depth="3" NCoef="0" IVar="-1" Cut="0.0000000000000000e+00" cType="1" res="3.5403289366513491e-03" rms="3.8731211423873901e-01" purity="6.7634284496307373e-01" nType="-99"/>
            <Node pos="r" depth="3" NCoef="0" IVar="-1" Cut="0.0000000000000000e+00" cType="1" res="-1.5282463282346725e-02" rms="3.7500247359275818e-01" purity="2.9666075110435486e-01" nType="-99"/>
          </Node>
        </Node>
        <Node pos="r" depth="1" NCoef="0" IVar="8" Cut="-9.3352180719375610e-01" cType="1" res="-2.0222354680299759e-02" rms="3.4928756952285767e-01" purity="2.8999298810958862e-01" nType="0">
          <Node pos="l" depth="2" NCoef="0" IVar="-1" Cut="0.0000000000000000e+00" cType="1" res="5.2334610372781754e-03" rms="3.5182479023933411e-01" purity="2.3635002970695496e-01" nType="-99"/>
          <Node pos="r" depth="2" NCoef="0" IVar="8" Cut="-4.4641278684139252e-02" cType="1" res="-2.6821581646800041e-02" rms="3.4834212064743042e-01" purity="3.0325946211814880e-01" nType="0">
            <Node pos="l" depth="3" NCoef="0" IVar="-1" Cut="0.0000000000000000e+00" cType="1" res="-3.4875869750976562e-02" rms="3.5981249809265137e-01" purity="3.3283123373985291e-01" nType="-99"/>
            <Node pos="r" depth="3" NCoef="0" IVar="-1" Cut="0.0000000000000000e+00" cType="1" res="-1.3739748857915401e-02" rms="3.4362623095512390e-01" purity="2.9249632358551025e-01" nType="-99"/>
          </Node>
        </Node>
      </Node>
    </BinaryTree>
    <BinaryTree type="DecisionTree" boostWeight="1.0000000000000000e+00" itree="599">
      <Node pos="s" depth="0" NCoef="0" IVar="2" Cut="3.3293597412109375e+02" cType="1" res="1.4639364089816809e-03" rms="3.8649088144302368e-01" purity="5.0199538469314575e-01" nType="0">
        <Node pos="l" depth="1" NCoef="0" IVar="3" Cut="1.5836903381347656e+02" cType="1" res="-4.0814150124788284e-03" rms="3.9338621497154236e-01" purity="4.5536211133003235e-01" nType="0">
          <Node pos="l" depth="2" NCoef="0" IVar="1" Cut="1.0201825561523438e+03" cType="1" res="7.9754572361707687e-03" rms="3.8698625564575195e-01" purity="2.7470868825912476e-01" nType="0">
            <Node pos="l" depth="3" NCoef="0" IVar="-1" Cut="0.0000000000000000e+00" cType="1" res="-1.2810179032385349e-03" rms="3.5769373178482056e-01" purity="1.8246608972549438e-01" nType="-99"/>
            <Node pos="r" depth="3" NCoef="0" IVar="-1" Cut="0.0000000000000000e+00" cType="1" res="1.7251124605536461e-02" rms="4.5523625612258911e-01" purity="5.2165412902832031e-01" nType="-99"/>
          </Node>
          <Node pos="r" depth="2" NCoef="0" IVar="1" Cut="1.1812183837890625e+03" cType="1" res="-1.1343563906848431e-02" rms="3.9701464772224426e-01" purity="5.6417417526245117e-01" nType="0">
            <Node pos="l" depth="3" NCoef="0" IVar="-1" Cut="0.0000000000000000e+00" cType="1" res="-1.3147301971912384e-02" rms="4.2079624533653259e-01" purity="3.6366105079650879e-01" nType="-99"/>
            <Node pos="r" depth="3" NCoef="0" IVar="-1" Cut="0.0000000000000000e+00" cType="1" res="4.8387623974122107e-04" rms="3.7218034267425537e-01" purity="7.5809007883071899e-01" nType="-99"/>
          </Node>
        </Node>
        <Node pos="r" depth="1" NCoef="0" IVar="9" Cut="-6.6666561365127563e-01" cType="1" res="6.2438040040433407e-03" rms="3.8038226962089539e-01" purity="5.4219138622283936e-01" nType="0">
          <Node pos="l" depth="2" NCoef="0" IVar="9" Cut="-1.9872997999191284e+00" cType="1" res="1.8578546121716499e-02" rms="3.8094177842140198e-01" purity="5.2388703823089600e-01" nType="0">
            <Node pos="l" depth="3" NCoef="0" IVar="-1" Cut="0.0000000000000000e+00" cType="1" res="-8.5354698821902275e-03" rms="3.6763870716094971e-01" purity="3.5642281174659729e-01" nType="-99"/>
            <Node pos="r" depth="3" NCoef="0" IVar="-1" Cut="0.0000000000000000e+00" cType="1" res="1.6691479831933975e-02" rms="3.8312193751335144e-01" purity="5.5548852682113647e-01" nType="-99"/>
          </Node>
          <Node pos="r" depth="2" NCoef="0" IVar="2" Cut="5.8614758300781250e+02" cType="1" res="7.2615192038938403e-04" rms="3.8000211119651794e-01" purity="5.5037945508956909e-01" nType="0">
            <Node pos="l" depth="3" NCoef="0" IVar="-1" Cut="0.0000000000000000e+00" cType="1" res="2.9785786755383015e-03" rms="3.7866470217704773e-01" purity="5.4820579290390015e-01" nType="-99"/>
            <Node pos="r" depth="3" NCoef="0" IVar="-1" Cut="0.0000000000000000e+00" cType="1" res="-1.0773381218314171e-02" rms="3.8634559512138367e-01" purity="5.6160217523574829e-01" nType="-99"/>
          </Node>
        </Node>
      </Node>
    </BinaryTree>
    <BinaryTree type="DecisionTree" boostWeight="1.0000000000000000e+00" itree="600">
      <Node pos="s" depth="0" NCoef="0" IVar="7" Cut="-1.9999976158142090e+00" cType="1" res="2.1078248973935843e-03" rms="3.8495731353759766e-01" purity="5.0042086839675903e-01" nType="0">
        <Node pos="l" depth="1" NCoef="0" IVar="-1" Cut="0.0000000000000000e+00" cType="1" res="-2.8100518509745598e-02" rms="2.7536264061927795e-01" purity="1.7344993352890015e-01" nType="-99"/>
        <Node pos="r" depth="1" NCoef="0" IVar="4" Cut="1.0560662841796875e+02" cType="1" res="3.2762829214334488e-03" rms="3.8839718699455261e-01" purity="5.1261204481124878e-01" nType="0">
          <Node pos="l" depth="2" NCoef="0" IVar="1" Cut="1.3096433105468750e+03" cType="1" res="9.6233841031789780e-03" rms="3.8732168078422546e-01" purity="2.8234294056892395e-01" nType="0">
            <Node pos="l" depth="3" NCoef="0" IVar="-1" Cut="0.0000000000000000e+00" cType="1" res="4.5923274010419846e-03" rms="3.7836024165153503e-01" purity="2.3507794737815857e-01" nType="-99"/>
            <Node pos="r" depth="3" NCoef="0" IVar="-1" Cut="0.0000000000000000e+00" cType="1" res="1.3519108295440674e-02" rms="4.2506527900695801e-01" purity="4.9532192945480347e-01" nType="-99"/>
          </Node>
          <Node pos="r" depth="2" NCoef="0" IVar="7" Cut="-8.5699534416198730e-01" cType="1" res="-2.1855103841517121e-04" rms="3.8894391059875488e-01" purity="6.3940250873565674e-01" nType="0">
            <Node pos="l" depth="3" NCoef="0" IVar="-1" Cut="0.0000000000000000e+00" cType="1" res="9.1340886428952217e-03" rms="4.1040584444999695e-01" purity="5.4977810382843018e-01" nType="-99"/>
            <Node pos="r" depth="3" NCoef="0" IVar="-1" Cut="0.0000000000000000e+00" cType="1" res="-2.2622388787567616e-03" rms="3.8424530625343323e-01" purity="6.5807503461837769e-01" nType="-99"/>
          </Node>
        </Node>
      </Node>
    </BinaryTree>
    <BinaryTree type="DecisionTree" boostWeight="1.0000000000000000e+00" itree="601">
      <Node pos="s" depth="0" NCoef="0" IVar="6" Cut="1.4527206122875214e-01" cType="1" res="9.5267721917480230e-04" rms="3.8487884402275085e-01" purity="5.0098615884780884e-01" nType="0">
        <Node pos="l" depth="1" NCoef="0" IVar="9" Cut="-1.1998053789138794e+00" cType="1" res="5.6732315570116043e-03" rms="3.8663184642791748e-01" purity="5.2381002902984619e-01" nType="0">
          <Node pos="l" depth="2" NCoef="0" IVar="8" Cut="-6.6687774658203125e-01" cType="1" res="1.9589237868785858e-02" rms="3.8390195369720459e-01" purity="4.5824462175369263e-01" nType="0">
            <Node pos="l" depth="3" NCoef="0" IVar="-1" Cut="0.0000000000000000e+00" cType="1" res="-1.2944039190188050e-03" rms="3.5920277237892151e-01" purity="3.4428387880325317e-01" nType="-99"/>
            <Node pos="r" depth="3" NCoef="0" IVar="-1" Cut="0.0000000000000000e+00" cType="1" res="2.0519137382507324e-02" rms="3.9707550406455994e-01" purity="5.2473425865173340e-01" nType="-99"/>
          </Node>
          <Node pos="r" depth="2" NCoef="0" IVar="7" Cut="6.6660678386688232e-01" cType="1" res="2.3634945973753929e-03" rms="3.8720467686653137e-01" purity="5.3940385580062866e-01" nType="0">
            <Node pos="l" depth="3" NCoef="0" IVar="-1" Cut="0.0000000000000000e+00" cType="1" res="4.0751155465841293e-03" rms="3.8986212015151978e-01" purity="5.7295429706573486e-01" nType="-99"/>
            <Node pos="r" depth="3" NCoef="0" IVar="-1" Cut="0.0000000000000000e+00" cType="1" res="-6.0833031311631203e-03" rms="3.7910994887351990e-01" purity="4.4145470857620239e-01" nType="-99"/>
          </Node>
        </Node>
        <Node pos="r" depth="1" NCoef="0" IVar="1" Cut="1.1200372314453125e+03" cType="1" res="-5.2128382958471775e-03" rms="3.8248947262763977e-01" purity="4.7117602825164795e-01" nType="0">
          <Node pos="l" depth="2" NCoef="0" IVar="8" Cut="3.9989522099494934e-01" cType="1" res="5.9440275654196739e-03" rms="3.7485316395759583e-01" purity="2.3788990080356598e-01" nType="0">
            <Node pos="l" depth="3" NCoef="0" IVar="-1" Cut="0.0000000000000000e+00" cType="1" res="1.3707974925637245e-02" rms="3.8853093981742859e-01" purity="2.7457311749458313e-01" nType="-99"/>
            <Node pos="r" depth="3" NCoef="0" IVar="-1" Cut="0.0000000000000000e+00" cType="1" res="-9.9770426750183105e-03" rms="3.5547330975532532e-01" purity="1.9038797914981842e-01" nType="-99"/>
          </Node>
          <Node pos="r" depth="2" NCoef="0" IVar="7" Cut="1.2000874280929565e+00" cType="1" res="-1.1377546004951000e-02" rms="3.8650608062744141e-01" purity="6.0007780790328979e-01" nType="0">
            <Node pos="l" depth="3" NCoef="0" IVar="-1" Cut="0.0000000000000000e+00" cType="1" res="-4.8270681872963905e-03" rms="3.8786453008651733e-01" purity="6.3000994920730591e-01" nType="-99"/>
            <Node pos="r" depth="3" NCoef="0" IVar="-1" Cut="0.0000000000000000e+00" cType="1" res="-2.8619864955544472e-02" rms="3.7448558211326599e-01" purity="3.7126028537750244e-01" nType="-99"/>
          </Node>
        </Node>
      </Node>
    </BinaryTree>
    <BinaryTree type="DecisionTree" boostWeight="1.0000000000000000e+00" itree="602">
      <Node pos="s" depth="0" NCoef="0" IVar="9" Cut="-1.4666197299957275e+00" cType="1" res="3.9170733653008938e-03" rms="3.8419398665428162e-01" purity="5.0621682405471802e-01" nType="0">
        <Node pos="l" depth="1" NCoef="0" IVar="4" Cut="1.3999531555175781e+02" cType="1" res="1.6847571358084679e-02" rms="3.8196280598640442e-01" purity="4.2057219147682190e-01" nType="0">
          <Node pos="l" depth="2" NCoef="0" IVar="2" Cut="3.1700402832031250e+02" cType="1" res="4.5733200386166573e-03" rms="3.7274366617202759e-01" purity="2.9584062099456787e-01" nType="0">
            <Node pos="l" depth="3" NCoef="0" IVar="-1" Cut="0.0000000000000000e+00" cType="1" res="2.0827716216444969e-02" rms="3.9383757114410400e-01" purity="3.0790665745735168e-01" nType="-99"/>
            <Node pos="r" depth="3" NCoef="0" IVar="-1" Cut="0.0000000000000000e+00" cType="1" res="-1.4220008626580238e-02" rms="3.4964963793754578e-01" purity="2.8427624702453613e-01" nType="-99"/>
          </Node>
          <Node pos="r" depth="2" NCoef="0" IVar="-1" Cut="0.0000000000000000e+00" cType="1" res="2.4508506059646606e-02" rms="3.9679956436157227e-01" purity="6.4090460538864136e-01" nType="-99"/>
        </Node>
        <Node pos="r" depth="1" NCoef="0" IVar="9" Cut="-8.5708779096603394e-01" cType="1" res="2.0764395594596863e-03" rms="3.8447520136833191e-01" purity="5.1840817928314209e-01" nType="0">
          <Node pos="l" depth="2" NCoef="0" IVar="9" Cut="-1.0602605342864990e+00" cType="1" res="-9.5145637169480324e-03" rms="3.8382250070571899e-01" purity="4.8608499765396118e-01" nType="0">
            <Node pos="l" depth="3" NCoef="0" IVar="-1" Cut="0.0000000000000000e+00" cType="1" res="3.4556214814074337e-04" rms="3.8844534754753113e-01" purity="4.9254569411277771e-01" nType="-99"/>
            <Node pos="r" depth="3" NCoef="0" IVar="-1" Cut="0.0000000000000000e+00" cType="1" res="-1.7901170998811722e-02" rms="3.7499472498893738e-01" purity="4.7483327984809875e-01" nType="-99"/>
          </Node>
          <Node pos="r" depth="2" NCoef="0" IVar="9" Cut="-5.0879311561584473e-01" cType="1" res="4.0099225006997585e-03" rms="3.8454994559288025e-01" purity="5.2380001544952393e-01" nType="0">
            <Node pos="l" depth="3" NCoef="0" IVar="-1" Cut="0.0000000000000000e+00" cType="1" res="1.4061714522540569e-02" rms="3.9220821857452393e-01" purity="5.6897962093353271e-01" nType="-99"/>
            <Node pos="r" depth="3" NCoef="0" IVar="-1" Cut="0.0000000000000000e+00" cType="1" res="9.6992391627281904e-04" rms="3.8331109285354614e-01" purity="5.1695114374160767e-01" nType="-99"/>
          </Node>
        </Node>
      </Node>
    </BinaryTree>
    <BinaryTree type="DecisionTree" boostWeight="1.0000000000000000e+00" itree="603">
      <Node pos="s" depth="0" NCoef="0" IVar="6" Cut="1.4781278371810913e+00" cType="1" res="2.5755309034138918e-03" rms="3.8721090555191040e-01" purity="5.0090056657791138e-01" nType="0">
        <Node pos="l" depth="1" NCoef="0" IVar="9" Cut="-1.4666607379913330e+00" cType="1" res="1.2866405304521322e-03" rms="3.8978931307792664e-01" purity="5.2170801162719727e-01" nType="0">
          <Node pos="l" depth="2" NCoef="0" IVar="5" Cut="1.0409587097167969e+02" cType="1" res="1.3383348472416401e-02" rms="3.9035001397132874e-01" purity="4.3180763721466064e-01" nType="0">
            <Node pos="l" depth="3" NCoef="0" IVar="-1" Cut="0.0000000000000000e+00" cType="1" res="1.4550819993019104e-02" rms="3.8856232166290283e-01" purity="3.6905452609062195e-01" nType="-99"/>
            <Node pos="r" depth="3" NCoef="0" IVar="-1" Cut="0.0000000000000000e+00" cType="1" res="-1.0299181565642357e-02" rms="3.9539512991905212e-01" purity="6.5869110822677612e-01" nType="-99"/>
          </Node>
          <Node pos="r" depth="2" NCoef="0" IVar="9" Cut="-8.5711956024169922e-01" cType="1" res="-4.3538247700780630e-04" rms="3.8967889547348022e-01" purity="5.3450566530227661e-01" nType="0">
            <Node pos="l" depth="3" NCoef="0" IVar="-1" Cut="0.0000000000000000e+00" cType="1" res="-7.2922767139971256e-03" rms="3.8236245512962341e-01" purity="5.0414961576461792e-01" nType="-99"/>
            <Node pos="r" depth="3" NCoef="0" IVar="-1" Cut="0.0000000000000000e+00" cType="1" res="8.8083860464394093e-04" rms="3.9085584878921509e-01" purity="5.3956300020217896e-01" nType="-99"/>
          </Node>
        </Node>
        <Node pos="r" depth="1" NCoef="0" IVar="4" Cut="1.1239759063720703e+02" cType="1" res="2.0403213798999786e-02" rms="3.4911382198333740e-01" purity="2.1309635043144226e-01" nType="0">
          <Node pos="l" depth="2" NCoef="0" IVar="-1" Cut="0.0000000000000000e+00" cType="1" res="4.7024536877870560e-02" rms="3.2513511180877686e-01" purity="1.5044388175010681e-01" nType="-99"/>
          <Node pos="r" depth="2" NCoef="0" IVar="-1" Cut="0.0000000000000000e+00" cType="1" res="-2.8241551481187344e-03" rms="3.7573826313018799e-01" purity="2.9204648733139038e-01" nType="-99"/>
        </Node>
      </Node>
    </BinaryTree>
    <BinaryTree type="DecisionTree" boostWeight="1.0000000000000000e+00" itree="604">
      <Node pos="s" depth="0" NCoef="0" IVar="7" Cut="1.7332185506820679e+00" cType="1" res="-2.9428489506244659e-03" rms="3.8469001650810242e-01" purity="4.9635758996009827e-01" nType="0">
        <Node pos="l" depth="1" NCoef="0" IVar="9" Cut="-1.9998197555541992e+00" cType="1" res="-4.4697830453515053e-03" rms="3.8700729608535767e-01" purity="5.1323390007019043e-01" nType="0">
          <Node pos="l" depth="2" NCoef="0" IVar="-1" Cut="0.0000000000000000e+00" cType="1" res="-1.7395364120602608e-02" rms="3.6699390411376953e-01" purity="3.5154533386230469e-01" nType="-99"/>
          <Node pos="r" depth="2" NCoef="0" IVar="5" Cut="7.8846595764160156e+01" cType="1" res="-3.2924809493124485e-03" rms="3.8806334137916565e-01" purity="5.2228415012359619e-01" nType="0">
            <Node pos="l" depth="3" NCoef="0" IVar="-1" Cut="0.0000000000000000e+00" cType="1" res="1.5357846859842539e-03" rms="3.9567521214485168e-01" purity="3.4271058440208435e-01" nType="-99"/>
            <Node pos="r" depth="3" NCoef="0" IVar="-1" Cut="0.0000000000000000e+00" cType="1" res="-5.5884285829961300e-03" rms="3.8137745857238770e-01" purity="6.7557132244110107e-01" nType="-99"/>
          </Node>
        </Node>
        <Node pos="r" depth="1" NCoef="0" IVar="9" Cut="1.3331982493400574e-01" cType="1" res="2.1138906478881836e-02" rms="3.4520509839057922e-01" purity="2.3019665479660034e-01" nType="0">
          <Node pos="l" depth="2" NCoef="0" IVar="-1" Cut="0.0000000000000000e+00" cType="1" res="3.9953917264938354e-02" rms="3.6771067976951599e-01" purity="2.8537920117378235e-01" nType="-99"/>
          <Node pos="r" depth="2" NCoef="0" IVar="-1" Cut="0.0000000000000000e+00" cType="1" res="-2.4859968107193708e-03" rms="3.2115066051483154e-01" purity="1.7910142242908478e-01" nType="-99"/>
        </Node>
      </Node>
    </BinaryTree>
    <BinaryTree type="DecisionTree" boostWeight="1.0000000000000000e+00" itree="605">
      <Node pos="s" depth="0" NCoef="0" IVar="8" Cut="3.9999049901962280e-01" cType="1" res="-2.8285258449614048e-03" rms="3.8253244757652283e-01" purity="4.9643236398696899e-01" nType="0">
        <Node pos="l" depth="1" NCoef="0" IVar="8" Cut="-9.7143650054931641e-01" cType="1" res="-6.9254413247108459e-03" rms="3.8199707865715027e-01" purity="5.1136022806167603e-01" nType="0">
          <Node pos="l" depth="2" NCoef="0" IVar="9" Cut="-3.9959689974784851e-01" cType="1" res="5.9479949995875359e-03" rms="3.7695392966270447e-01" purity="4.0925648808479309e-01" nType="0">
            <Node pos="l" depth="3" NCoef="0" IVar="-1" Cut="0.0000000000000000e+00" cType="1" res="-3.8393938448280096e-03" rms="3.6722052097320557e-01" purity="3.5000735521316528e-01" nType="-99"/>
            <Node pos="r" depth="3" NCoef="0" IVar="-1" Cut="0.0000000000000000e+00" cType="1" res="9.7188008949160576e-03" rms="3.8400554656982422e-01" purity="4.5457139611244202e-01" nType="-99"/>
          </Node>
          <Node pos="r" depth="2" NCoef="0" IVar="6" Cut="9.4128918647766113e-01" cType="1" res="-1.3237473554909229e-02" rms="3.8428813219070435e-01" purity="5.6142312288284302e-01" nType="0">
            <Node pos="l" depth="3" NCoef="0" IVar="-1" Cut="0.0000000000000000e+00" cType="1" res="-5.9224809519946575e-03" rms="3.8674232363700867e-01" purity="5.9486657381057739e-01" nType="-99"/>
            <Node pos="r" depth="3" NCoef="0" IVar="-1" Cut="0.0000000000000000e+00" cType="1" res="-2.6320558041334152e-02" rms="3.6763644218444824e-01" purity="3.5421961545944214e-01" nType="-99"/>
          </Node>
        </Node>
        <Node pos="r" depth="1" NCoef="0" IVar="9" Cut="-1.7333736419677734e+00" cType="1" res="4.2446851730346680e-03" rms="3.8335195183753967e-01" purity="4.7065973281860352e-01" nType="0">
          <Node pos="l" depth="2" NCoef="0" IVar="-1" Cut="0.0000000000000000e+00" cType="1" res="2.3098221048712730e-02" rms="3.9999455213546753e-01" purity="4.1750475764274597e-01" nType="-99"/>
          <Node pos="r" depth="2" NCoef="0" IVar="4" Cut="1.4148664855957031e+02" cType="1" res="1.6702454304322600e-03" rms="3.8178503513336182e-01" purity="4.7520491480827332e-01" nType="0">
            <Node pos="l" depth="3" NCoef="0" IVar="-1" Cut="0.0000000000000000e+00" cType="1" res="-3.8911008741706610e-03" rms="3.8834196329116821e-01" purity="3.3529987931251526e-01" nType="-99"/>
            <Node pos="r" depth="3" NCoef="0" IVar="-1" Cut="0.0000000000000000e+00" cType="1" res="9.6376193687319756e-03" rms="3.7087371945381165e-01" purity="6.9620120525360107e-01" nType="-99"/>
          </Node>
        </Node>
      </Node>
    </BinaryTree>
    <BinaryTree type="DecisionTree" boostWeight="1.0000000000000000e+00" itree="606">
      <Node pos="s" depth="0" NCoef="0" IVar="6" Cut="1.4693398475646973e+00" cType="1" res="-4.4209364568814635e-04" rms="3.8274109363555908e-01" purity="5.0037193298339844e-01" nType="0">
        <Node pos="l" depth="1" NCoef="0" IVar="8" Cut="-6.6666960716247559e-01" cType="1" res="8.9280906831845641e-04" rms="3.8781732320785522e-01" purity="5.2274745702743530e-01" nType="0">
          <Node pos="l" depth="2" NCoef="0" IVar="6" Cut="-1.5259525179862976e-01" cType="1" res="-6.0555385425686836e-03" rms="3.8516300916671753e-01" purity="4.5420265197753906e-01" nType="0">
            <Node pos="l" depth="3" NCoef="0" IVar="-1" Cut="0.0000000000000000e+00" cType="1" res="4.1485743713565171e-04" rms="3.8045287132263184e-01" purity="4.1800329089164734e-01" nType="-99"/>
            <Node pos="r" depth="3" NCoef="0" IVar="-1" Cut="0.0000000000000000e+00" cType="1" res="-8.6450455710291862e-03" rms="3.9026424288749695e-01" purity="4.9497550725936890e-01" nType="-99"/>
          </Node>
          <Node pos="r" depth="2" NCoef="0" IVar="5" Cut="7.7733741760253906e+01" cType="1" res="3.6313487216830254e-03" rms="3.8882437348365784e-01" purity="5.4976290464401245e-01" nType="0">
            <Node pos="l" depth="3" NCoef="0" IVar="-1" Cut="0.0000000000000000e+00" cType="1" res="6.5834596753120422e-03" rms="4.0385714173316956e-01" purity="3.6331701278686523e-01" nType="-99"/>
            <Node pos="r" depth="3" NCoef="0" IVar="-1" Cut="0.0000000000000000e+00" cType="1" res="-1.3103995006531477e-03" rms="3.7649649381637573e-01" purity="6.9629508256912231e-01" nType="-99"/>
          </Node>
        </Node>
        <Node pos="r" depth="1" NCoef="0" IVar="8" Cut="-1.3353103399276733e-01" cType="1" res="-1.8759189173579216e-02" rms="3.0406892299652100e-01" purity="1.9334165751934052e-01" nType="0">
          <Node pos="l" depth="2" NCoef="0" IVar="-1" Cut="0.0000000000000000e+00" cType="1" res="-1.8006794853135943e-03" rms="3.2648026943206787e-01" purity="2.3111748695373535e-01" nType="-99"/>
          <Node pos="r" depth="2" NCoef="0" IVar="-1" Cut="0.0000000000000000e+00" cType="1" res="-2.8916742652654648e-02" rms="2.8628006577491760e-01" purity="1.6617871820926666e-01" nType="-99"/>
        </Node>
      </Node>
    </BinaryTree>
    <BinaryTree type="DecisionTree" boostWeight="1.0000000000000000e+00" itree="607">
      <Node pos="s" depth="0" NCoef="0" IVar="1" Cut="1.1148211669921875e+03" cType="1" res="8.6673488840460777e-04" rms="3.8188475370407104e-01" purity="5.0410485267639160e-01" nType="0">
        <Node pos="l" depth="1" NCoef="0" IVar="1" Cut="1.0398642578125000e+03" cType="1" res="-5.8323461562395096e-03" rms="3.7246838212013245e-01" purity="2.3800994455814362e-01" nType="0">
          <Node pos="l" depth="2" NCoef="0" IVar="0" Cut="3.5851080322265625e+02" cType="1" res="-1.4563256874680519e-02" rms="3.5063737630844116e-01" purity="1.8191730976104736e-01" nType="0">
            <Node pos="l" depth="3" NCoef="0" IVar="-1" Cut="0.0000000000000000e+00" cType="1" res="-2.8368895873427391e-03" rms="3.3998215198516846e-01" purity="1.6976489126682281e-01" nType="-99"/>
            <Node pos="r" depth="3" NCoef="0" IVar="-1" Cut="0.0000000000000000e+00" cType="1" res="-2.1200928837060928e-02" rms="3.6563491821289062e-01" purity="2.0044891536235809e-01" nType="-99"/>
          </Node>
          <Node pos="r" depth="2" NCoef="0" IVar="1" Cut="1.0755577392578125e+03" cType="1" res="1.4502979815006256e-02" rms="4.1822168231010437e-01" purity="3.6865633726119995e-01" nType="0">
            <Node pos="l" depth="3" NCoef="0" IVar="-1" Cut="0.0000000000000000e+00" cType="1" res="2.2274877410382032e-03" rms="4.0664902329444885e-01" purity="3.3770814538002014e-01" nType="-99"/>
            <Node pos="r" depth="3" NCoef="0" IVar="-1" Cut="0.0000000000000000e+00" cType="1" res="1.3254147954285145e-02" rms="4.2824041843414307e-01" purity="3.9677962660789490e-01" nType="-99"/>
          </Node>
        </Node>
        <Node pos="r" depth="1" NCoef="0" IVar="1" Cut="1.7144682617187500e+03" cType="1" res="4.1848970577120781e-03" rms="3.8642087578773499e-01" purity="6.3590592145919800e-01" nType="0">
          <Node pos="l" depth="2" NCoef="0" IVar="2" Cut="5.9295269775390625e+02" cType="1" res="7.9090008512139320e-03" rms="3.9925006031990051e-01" purity="5.9277766942977905e-01" nType="0">
            <Node pos="l" depth="3" NCoef="0" IVar="-1" Cut="0.0000000000000000e+00" cType="1" res="3.7486774381250143e-03" rms="3.9905878901481628e-01" purity="6.0548585653305054e-01" nType="-99"/>
            <Node pos="r" depth="3" NCoef="0" IVar="-1" Cut="0.0000000000000000e+00" cType="1" res="2.6295673102140427e-02" rms="4.0128406882286072e-01" purity="3.4800305962562561e-01" nType="-99"/>
          </Node>
          <Node pos="r" depth="2" NCoef="0" IVar="4" Cut="1.8709870910644531e+02" cType="1" res="-9.2875612899661064e-03" rms="3.3559697866439819e-01" purity="7.9192829132080078e-01" nType="0">
            <Node pos="l" depth="3" NCoef="0" IVar="-1" Cut="0.0000000000000000e+00" cType="1" res="-1.4771042391657829e-02" rms="3.6305525898933411e-01" purity="7.1974903345108032e-01" nType="-99"/>
            <Node pos="r" depth="3" NCoef="0" IVar="-1" Cut="0.0000000000000000e+00" cType="1" res="-1.7300284234806895e-03" rms="3.1482246518135071e-01" purity="8.4224045276641846e-01" nType="-99"/>
          </Node>
        </Node>
      </Node>
    </BinaryTree>
    <BinaryTree type="DecisionTree" boostWeight="1.0000000000000000e+00" itree="608">
      <Node pos="s" depth="0" NCoef="0" IVar="7" Cut="1.3337238132953644e-01" cType="1" res="-4.5304594095796347e-04" rms="3.8482499122619629e-01" purity="4.9890488386154175e-01" nType="0">
        <Node pos="l" depth="1" NCoef="0" IVar="6" Cut="1.4792897701263428e+00" cType="1" res="4.4923834502696991e-03" rms="3.8732287287712097e-01" purity="5.1515537500381470e-01" nType="0">
          <Node pos="l" depth="2" NCoef="0" IVar="6" Cut="-1.2990680336952209e-01" cType="1" res="2.7068008203059435e-03" rms="3.8884419202804565e-01" purity="5.3396677970886230e-01" nType="0">
            <Node pos="l" depth="3" NCoef="0" IVar="-1" Cut="0.0000000000000000e+00" cType="1" res="7.1267057210206985e-03" rms="3.8718283176422119e-01" purity="5.0598543882369995e-01" nType="-99"/>
            <Node pos="r" depth="3" NCoef="0" IVar="-1" Cut="0.0000000000000000e+00" cType="1" res="-3.5419948399066925e-03" rms="3.9036369323730469e-01" purity="5.6253433227539062e-01" nType="-99"/>
          </Node>
          <Node pos="r" depth="2" NCoef="0" IVar="-1" Cut="0.0000000000000000e+00" cType="1" res="2.5627629831433296e-02" rms="3.6331835389137268e-01" purity="2.3972757160663605e-01" nType="-99"/>
        </Node>
        <Node pos="r" depth="1" NCoef="0" IVar="1" Cut="1.0974132080078125e+03" cType="1" res="-6.6010276786983013e-03" rms="3.8160759210586548e-01" purity="4.7870287299156189e-01" nType="0">
          <Node pos="l" depth="2" NCoef="0" IVar="6" Cut="6.7057067155838013e-01" cType="1" res="-2.1555513143539429e-02" rms="3.5686242580413818e-01" purity="2.0324358344078064e-01" nType="0">
            <Node pos="l" depth="3" NCoef="0" IVar="-1" Cut="0.0000000000000000e+00" cType="1" res="-6.0335271991789341e-03" rms="3.8469740748405457e-01" purity="2.5029844045639038e-01" nType="-99"/>
            <Node pos="r" depth="3" NCoef="0" IVar="-1" Cut="0.0000000000000000e+00" cType="1" res="-4.2906597256660461e-02" rms="2.8991612792015076e-01" purity="1.0667447000741959e-01" nType="-99"/>
          </Node>
          <Node pos="r" depth="2" NCoef="0" IVar="8" Cut="-4.0005618333816528e-01" cType="1" res="1.9407234503887594e-04" rms="3.9214766025543213e-01" purity="6.0386753082275391e-01" nType="0">
            <Node pos="l" depth="3" NCoef="0" IVar="-1" Cut="0.0000000000000000e+00" cType="1" res="9.2711746692657471e-03" rms="4.0514853596687317e-01" purity="5.8583134412765503e-01" nType="-99"/>
            <Node pos="r" depth="3" NCoef="0" IVar="-1" Cut="0.0000000000000000e+00" cType="1" res="-4.4403141364455223e-03" rms="3.8552981615066528e-01" purity="6.1256974935531616e-01" nType="-99"/>
          </Node>
        </Node>
      </Node>
    </BinaryTree>
    <BinaryTree type="DecisionTree" boostWeight="1.0000000000000000e+00" itree="609">
      <Node pos="s" depth="0" NCoef="0" IVar="9" Cut="2.2666563987731934e+00" cType="1" res="-3.7436336278915405e-03" rms="3.8409236073493958e-01" purity="4.9852672219276428e-01" nType="0">
        <Node pos="l" depth="1" NCoef="0" IVar="6" Cut="1.3885906338691711e-01" cType="1" res="-4.5686410740017891e-03" rms="3.8411417603492737e-01" purity="5.0318080186843872e-01" nType="0">
          <Node pos="l" depth="2" NCoef="0" IVar="9" Cut="-1.4607900381088257e-01" cType="1" res="-8.1029199063777924e-03" rms="3.8668936491012573e-01" purity="5.1396322250366211e-01" nType="0">
            <Node pos="l" depth="3" NCoef="0" IVar="-1" Cut="0.0000000000000000e+00" cType="1" res="-1.0785484686493874e-02" rms="3.8552793860435486e-01" purity="4.8440334200859070e-01" nType="-99"/>
            <Node pos="r" depth="3" NCoef="0" IVar="-1" Cut="0.0000000000000000e+00" cType="1" res="4.5112683437764645e-05" rms="3.8770809769630432e-01" purity="5.4430902004241943e-01" nType="-99"/>
          </Node>
          <Node pos="r" depth="2" NCoef="0" IVar="3" Cut="3.0415106201171875e+02" cType="1" res="-1.7422280507162213e-04" rms="3.8084223866462708e-01" purity="4.8977419734001160e-01" nType="0">
            <Node pos="l" depth="3" NCoef="0" IVar="-1" Cut="0.0000000000000000e+00" cType="1" res="-2.2333348169922829e-03" rms="3.8206386566162109e-01" purity="4.5391544699668884e-01" nType="-99"/>
            <Node pos="r" depth="3" NCoef="0" IVar="-1" Cut="0.0000000000000000e+00" cType="1" res="1.2135026976466179e-02" rms="3.7353590130805969e-01" purity="6.8806821107864380e-01" nType="-99"/>
          </Node>
        </Node>
        <Node pos="r" depth="1" NCoef="0" IVar="-1" Cut="0.0000000000000000e+00" cType="1" res="1.4790325425565243e-02" rms="3.8259160518646240e-01" purity="3.5767650604248047e-01" nType="-99"/>
      </Node>
    </BinaryTree>
    <BinaryTree type="DecisionTree" boostWeight="1.0000000000000000e+00" itree="610">
      <Node pos="s" depth="0" NCoef="0" IVar="9" Cut="-1.3333413004875183e-01" cType="1" res="-7.9953449312597513e-04" rms="3.8112884759902954e-01" purity="4.9828505516052246e-01" nType="0">
        <Node pos="l" depth="1" NCoef="0" IVar="4" Cut="1.4374237060546875e+02" cType="1" res="-8.1244874745607376e-03" rms="3.7957370281219482e-01" purity="4.8880860209465027e-01" nType="0">
          <Node pos="l" depth="2" NCoef="0" IVar="4" Cut="9.9156097412109375e+01" cType="1" res="-1.3926148414611816e-02" rms="3.8545465469360352e-01" purity="3.4642648696899414e-01" nType="0">
            <Node pos="l" depth="3" NCoef="0" IVar="-1" Cut="0.0000000000000000e+00" cType="1" res="-1.4209649525582790e-03" rms="3.6547335982322693e-01" purity="2.4509657919406891e-01" nType="-99"/>
            <Node pos="r" depth="3" NCoef="0" IVar="-1" Cut="0.0000000000000000e+00" cType="1" res="-1.5385444276034832e-02" rms="4.0524667501449585e-01" purity="4.5422947406768799e-01" nType="-99"/>
          </Node>
          <Node pos="r" depth="2" NCoef="0" IVar="9" Cut="-1.5299389362335205e+00" cType="1" res="8.6455396376550198e-04" rms="3.7009778618812561e-01" purity="7.0941406488418579e-01" nType="0">
            <Node pos="l" depth="3" NCoef="0" IVar="-1" Cut="0.0000000000000000e+00" cType="1" res="-1.1587614193558693e-02" rms="3.8786756992340088e-01" purity="6.0257357358932495e-01" nType="-99"/>
            <Node pos="r" depth="3" NCoef="0" IVar="-1" Cut="0.0000000000000000e+00" cType="1" res="4.2075426317751408e-03" rms="3.6512517929077148e-01" purity="7.3753499984741211e-01" nType="-99"/>
          </Node>
        </Node>
        <Node pos="r" depth="1" NCoef="0" IVar="6" Cut="9.5142346620559692e-01" cType="1" res="5.3519601933658123e-03" rms="3.8232156634330750e-01" purity="5.0624346733093262e-01" nType="0">
          <Node pos="l" depth="2" NCoef="0" IVar="6" Cut="-1.3361111879348755e+00" cType="1" res="8.8938595727086067e-03" rms="3.8876101374626160e-01" purity="5.5553215742111206e-01" nType="0">
            <Node pos="l" depth="3" NCoef="0" IVar="-1" Cut="0.0000000000000000e+00" cType="1" res="-1.5920106321573257e-02" rms="3.4519109129905701e-01" purity="2.1602335572242737e-01" nType="-99"/>
            <Node pos="r" depth="3" NCoef="0" IVar="-1" Cut="0.0000000000000000e+00" cType="1" res="7.3568802326917648e-03" rms="3.9243850111961365e-01" purity="5.8694142103195190e-01" nType="-99"/>
          </Node>
          <Node pos="r" depth="2" NCoef="0" IVar="7" Cut="-1.3242308795452118e-01" cType="1" res="-1.1029290966689587e-02" rms="3.5054054856300354e-01" purity="2.7828359603881836e-01" nType="0">
            <Node pos="l" depth="3" NCoef="0" IVar="-1" Cut="0.0000000000000000e+00" cType="1" res="-2.5352947413921356e-02" rms="3.4874022006988525e-01" purity="2.3514170944690704e-01" nType="-99"/>
            <Node pos="r" depth="3" NCoef="0" IVar="-1" Cut="0.0000000000000000e+00" cType="1" res="1.5226640971377492e-03" rms="3.5093438625335693e-01" purity="3.0335325002670288e-01" nType="-99"/>
          </Node>
        </Node>
      </Node>
    </BinaryTree>
    <BinaryTree type="DecisionTree" boostWeight="1.0000000000000000e+00" itree="611">
      <Node pos="s" depth="0" NCoef="0" IVar="7" Cut="-1.7333507537841797e+00" cType="1" res="3.2786966767162085e-03" rms="3.8707622885704041e-01" purity="4.9979868531227112e-01" nType="0">
        <Node pos="l" depth="1" NCoef="0" IVar="5" Cut="7.0126235961914062e+01" cType="1" res="2.9080830514431000e-02" rms="3.4582033753395081e-01" purity="2.5470387935638428e-01" nType="0">
          <Node pos="l" depth="2" NCoef="0" IVar="-1" Cut="0.0000000000000000e+00" cType="1" res="1.7269244417548180e-02" rms="2.7866092324256897e-01" purity="1.2311141937971115e-01" nType="-99"/>
          <Node pos="r" depth="2" NCoef="0" IVar="-1" Cut="0.0000000000000000e+00" cType="1" res="2.7982270345091820e-02" rms="3.9137613773345947e-01" purity="3.6113876104354858e-01" nType="-99"/>
        </Node>
        <Node pos="r" depth="1" NCoef="0" IVar="3" Cut="4.3152694702148438e+02" cType="1" res="1.6169705195352435e-03" rms="3.8952490687370300e-01" purity="5.1558345556259155e-01" nType="0">
          <Node pos="l" depth="2" NCoef="0" IVar="2" Cut="5.6923071289062500e+02" cType="1" res="4.1152760968543589e-04" rms="3.8940566778182983e-01" purity="5.0954681634902954e-01" nType="0">
            <Node pos="l" depth="3" NCoef="0" IVar="-1" Cut="0.0000000000000000e+00" cType="1" res="-7.6551939127966762e-04" rms="3.8858476281166077e-01" purity="5.0328546762466431e-01" nType="-99"/>
            <Node pos="r" depth="3" NCoef="0" IVar="-1" Cut="0.0000000000000000e+00" cType="1" res="1.0222969576716423e-02" rms="3.9724752306938171e-01" purity="5.7270807027816772e-01" nType="-99"/>
          </Node>
          <Node pos="r" depth="2" NCoef="0" IVar="-1" Cut="0.0000000000000000e+00" cType="1" res="2.2067364305257797e-02" rms="3.9134940505027771e-01" purity="6.8712377548217773e-01" nType="-99"/>
        </Node>
      </Node>
    </BinaryTree>
    <BinaryTree type="DecisionTree" boostWeight="1.0000000000000000e+00" itree="612">
      <Node pos="s" depth="0" NCoef="0" IVar="7" Cut="-4.0009403228759766e-01" cType="1" res="1.0154272604268044e-04" rms="3.8461571931838989e-01" purity="4.9546769261360168e-01" nType="0">
        <Node pos="l" depth="1" NCoef="0" IVar="4" Cut="9.5740562438964844e+01" cType="1" res="-1.0063821449875832e-02" rms="3.8206624984741211e-01" purity="4.4118803739547729e-01" nType="0">
          <Node pos="l" depth="2" NCoef="0" IVar="4" Cut="8.0526985168457031e+01" cType="1" res="5.4639847949147224e-03" rms="3.5502704977989197e-01" purity="2.0626083016395569e-01" nType="0">
            <Node pos="l" depth="3" NCoef="0" IVar="-1" Cut="0.0000000000000000e+00" cType="1" res="-1.0132409632205963e-02" rms="3.1619223952293396e-01" purity="1.4755716919898987e-01" nType="-99"/>
            <Node pos="r" depth="3" NCoef="0" IVar="-1" Cut="0.0000000000000000e+00" cType="1" res="1.9312815740704536e-02" rms="4.0182605385780334e-01" purity="2.8806468844413757e-01" nType="-99"/>
          </Node>
          <Node pos="r" depth="2" NCoef="0" IVar="8" Cut="1.2000422477722168e+00" cType="1" res="-1.6926290467381477e-02" rms="3.9322912693023682e-01" purity="5.4501342773437500e-01" nType="0">
            <Node pos="l" depth="3" NCoef="0" IVar="-1" Cut="0.0000000000000000e+00" cType="1" res="-1.3180207461118698e-02" rms="3.9128085970878601e-01" purity="5.6302350759506226e-01" nType="-99"/>
            <Node pos="r" depth="3" NCoef="0" IVar="-1" Cut="0.0000000000000000e+00" cType="1" res="5.8707976713776588e-03" rms="4.0606111288070679e-01" purity="4.1479894518852234e-01" nType="-99"/>
          </Node>
        </Node>
        <Node pos="r" depth="1" NCoef="0" IVar="7" Cut="2.0940996706485748e-01" cType="1" res="5.6333285756409168e-03" rms="3.8588351011276245e-01" purity="5.2500557899475098e-01" nType="0">
          <Node pos="l" depth="2" NCoef="0" IVar="8" Cut="1.1993666887283325e+00" cType="1" res="1.4048244804143906e-02" rms="3.8677513599395752e-01" purity="6.1884826421737671e-01" nType="0">
            <Node pos="l" depth="3" NCoef="0" IVar="-1" Cut="0.0000000000000000e+00" cType="1" res="1.2297789566218853e-02" rms="3.8617137074470520e-01" purity="6.4197158813476562e-01" nType="-99"/>
            <Node pos="r" depth="3" NCoef="0" IVar="-1" Cut="0.0000000000000000e+00" cType="1" res="-1.0962154716253281e-02" rms="3.8936355710029602e-01" purity="4.6077513694763184e-01" nType="-99"/>
          </Node>
          <Node pos="r" depth="2" NCoef="0" IVar="7" Cut="3.3276486396789551e-01" cType="1" res="1.1048656888306141e-03" rms="3.8532680273056030e-01" purity="4.7450444102287292e-01" nType="0">
            <Node pos="l" depth="3" NCoef="0" IVar="-1" Cut="0.0000000000000000e+00" cType="1" res="-1.4821745455265045e-02" rms="3.8502854108810425e-01" purity="5.9163075685501099e-01" nType="-99"/>
            <Node pos="r" depth="3" NCoef="0" IVar="-1" Cut="0.0000000000000000e+00" cType="1" res="2.5948653928935528e-03" rms="3.8526672124862671e-01" purity="4.6099394559860229e-01" nType="-99"/>
          </Node>
        </Node>
      </Node>
    </BinaryTree>
    <BinaryTree type="DecisionTree" boostWeight="1.0000000000000000e+00" itree="613">
      <Node pos="s" depth="0" NCoef="0" IVar="7" Cut="-6.6659241914749146e-01" cType="1" res="-2.0571558270603418e-03" rms="3.8448038697242737e-01" purity="4.9457353353500366e-01" nType="0">
        <Node pos="l" depth="1" NCoef="0" IVar="9" Cut="-1.1998517513275146e+00" cType="1" res="9.5052933320403099e-03" rms="3.8306778669357300e-01" purity="4.1609883308410645e-01" nType="0">
          <Node pos="l" depth="2" NCoef="0" IVar="0" Cut="4.1030200195312500e+02" cType="1" res="2.8672017157077789e-02" rms="3.7839114665985107e-01" purity="3.4834668040275574e-01" nType="0">
            <Node pos="l" depth="3" NCoef="0" IVar="-1" Cut="0.0000000000000000e+00" cType="1" res="3.6028053145855665e-03" rms="3.3690717816352844e-01" purity="1.9909322261810303e-01" nType="-99"/>
            <Node pos="r" depth="3" NCoef="0" IVar="-1" Cut="0.0000000000000000e+00" cType="1" res="3.5683985799551010e-02" rms="4.2220959067344666e-01" purity="5.3318738937377930e-01" nType="-99"/>
          </Node>
          <Node pos="r" depth="2" NCoef="0" IVar="8" Cut="6.6693091392517090e-01" cType="1" res="3.9651640690863132e-03" rms="3.8423088192939758e-01" purity="4.3568256497383118e-01" nType="0">
            <Node pos="l" depth="3" NCoef="0" IVar="-1" Cut="0.0000000000000000e+00" cType="1" res="-1.4391625300049782e-03" rms="3.8250142335891724e-01" purity="4.5529806613922119e-01" nType="-99"/>
            <Node pos="r" depth="3" NCoef="0" IVar="-1" Cut="0.0000000000000000e+00" cType="1" res="1.5529518947005272e-02" rms="3.8880106806755066e-01" purity="3.7674230337142944e-01" nType="-99"/>
          </Node>
        </Node>
        <Node pos="r" depth="1" NCoef="0" IVar="3" Cut="4.2693081665039062e+02" cType="1" res="-6.3364868983626366e-03" rms="3.8491383194923401e-01" purity="5.2361750602722168e-01" nType="0">
          <Node pos="l" depth="2" NCoef="0" IVar="2" Cut="4.5912387084960938e+02" cType="1" res="-7.3831849731504917e-03" rms="3.8480111956596375e-01" purity="5.1709878444671631e-01" nType="0">
            <Node pos="l" depth="3" NCoef="0" IVar="-1" Cut="0.0000000000000000e+00" cType="1" res="-2.8198924846947193e-03" rms="3.8593876361846924e-01" purity="5.1150482892990112e-01" nType="-99"/>
            <Node pos="r" depth="3" NCoef="0" IVar="-1" Cut="0.0000000000000000e+00" cType="1" res="-1.3521269895136356e-02" rms="3.8000109791755676e-01" purity="5.3928220272064209e-01" nType="-99"/>
          </Node>
          <Node pos="r" depth="2" NCoef="0" IVar="-1" Cut="0.0000000000000000e+00" cType="1" res="1.3892130926251411e-02" rms="3.8687792420387268e-01" purity="6.9999778270721436e-01" nType="-99"/>
        </Node>
      </Node>
    </BinaryTree>
    <BinaryTree type="DecisionTree" boostWeight="1.0000000000000000e+00" itree="614">
      <Node pos="s" depth="0" NCoef="0" IVar="7" Cut="-1.3338091969490051e-01" cType="1" res="2.2634917404502630e-03" rms="3.8390943408012390e-01" purity="5.0281947851181030e-01" nType="0">
        <Node pos="l" depth="1" NCoef="0" IVar="3" Cut="1.4791281127929688e+02" cType="1" res="-3.6935068201273680e-03" rms="3.8455808162689209e-01" purity="4.8338818550109863e-01" nType="0">
          <Node pos="l" depth="2" NCoef="0" IVar="7" Cut="-7.6825016736984253e-01" cType="1" res="1.2420380488038063e-02" rms="3.7318375706672668e-01" purity="2.5514817237854004e-01" nType="0">
            <Node pos="l" depth="3" NCoef="0" IVar="-1" Cut="0.0000000000000000e+00" cType="1" res="-2.9333070870052325e-06" rms="3.4864476323127747e-01" purity="2.0861747860908508e-01" nType="-99"/>
            <Node pos="r" depth="3" NCoef="0" IVar="-1" Cut="0.0000000000000000e+00" cType="1" res="1.9873263314366341e-02" rms="4.0791121125221252e-01" purity="3.2803493738174438e-01" nType="-99"/>
          </Node>
          <Node pos="r" depth="2" NCoef="0" IVar="8" Cut="9.3309813737869263e-01" cType="1" res="-9.4978846609592438e-03" rms="3.8840991258621216e-01" purity="5.6560248136520386e-01" nType="0">
            <Node pos="l" depth="3" NCoef="0" IVar="-1" Cut="0.0000000000000000e+00" cType="1" res="-3.3005503937602043e-03" rms="3.8953244686126709e-01" purity="5.9140169620513916e-01" nType="-99"/>
            <Node pos="r" depth="3" NCoef="0" IVar="-1" Cut="0.0000000000000000e+00" cType="1" res="-2.0539946854114532e-02" rms="3.8205763697624207e-01" purity="4.3831750750541687e-01" nType="-99"/>
          </Node>
        </Node>
        <Node pos="r" depth="1" NCoef="0" IVar="1" Cut="1.0769810791015625e+03" cType="1" res="7.0723067037761211e-03" rms="3.8331747055053711e-01" purity="5.1850551366806030e-01" nType="0">
          <Node pos="l" depth="2" NCoef="0" IVar="5" Cut="5.5720245361328125e+01" cType="1" res="1.8093964084982872e-02" rms="3.8328689336776733e-01" purity="2.3915503919124603e-01" nType="0">
            <Node pos="l" depth="3" NCoef="0" IVar="-1" Cut="0.0000000000000000e+00" cType="1" res="5.0824552774429321e-02" rms="3.6370691657066345e-01" purity="2.0359753072261810e-01" nType="-99"/>
            <Node pos="r" depth="3" NCoef="0" IVar="-1" Cut="0.0000000000000000e+00" cType="1" res="4.6406416222453117e-03" rms="3.8828364014625549e-01" purity="2.4983368813991547e-01" nType="-99"/>
          </Node>
          <Node pos="r" depth="2" NCoef="0" IVar="4" Cut="9.5366706848144531e+01" cType="1" res="2.8032744303345680e-03" rms="3.8324418663978577e-01" purity="6.2670665979385376e-01" nType="0">
            <Node pos="l" depth="3" NCoef="0" IVar="-1" Cut="0.0000000000000000e+00" cType="1" res="-7.1941819041967392e-03" rms="4.0583500266075134e-01" purity="3.4132429957389832e-01" nType="-99"/>
            <Node pos="r" depth="3" NCoef="0" IVar="-1" Cut="0.0000000000000000e+00" cType="1" res="3.6833037156611681e-03" rms="3.7905478477478027e-01" purity="6.7707186937332153e-01" nType="-99"/>
          </Node>
        </Node>
      </Node>
    </BinaryTree>
    <BinaryTree type="DecisionTree" boostWeight="1.0000000000000000e+00" itree="615">
      <Node pos="s" depth="0" NCoef="0" IVar="1" Cut="1.1148148193359375e+03" cType="1" res="-1.3163810945115983e-04" rms="3.8502106070518494e-01" purity="4.9854961037635803e-01" nType="0">
        <Node pos="l" depth="1" NCoef="0" IVar="0" Cut="3.3183621215820312e+02" cType="1" res="7.8656971454620361e-03" rms="3.8272044062614441e-01" purity="2.4900993704795837e-01" nType="0">
          <Node pos="l" depth="2" NCoef="0" IVar="5" Cut="6.2143558502197266e+01" cType="1" res="2.7257589623332024e-02" rms="3.6513519287109375e-01" purity="2.1952709555625916e-01" nType="0">
            <Node pos="l" depth="3" NCoef="0" IVar="-1" Cut="0.0000000000000000e+00" cType="1" res="9.6005173400044441e-03" rms="3.1413233280181885e-01" purity="1.2822651863098145e-01" nType="-99"/>
            <Node pos="r" depth="3" NCoef="0" IVar="-1" Cut="0.0000000000000000e+00" cType="1" res="2.5700414553284645e-02" rms="3.9118996262550354e-01" purity="2.7227613329887390e-01" nType="-99"/>
          </Node>
          <Node pos="r" depth="2" NCoef="0" IVar="1" Cut="9.6490435791015625e+02" cType="1" res="-1.8533436814323068e-03" rms="3.9087501168251038e-01" purity="2.6378646492958069e-01" nType="0">
            <Node pos="l" depth="3" NCoef="0" IVar="-1" Cut="0.0000000000000000e+00" cType="1" res="-1.6193170100450516e-02" rms="3.3390218019485474e-01" purity="1.4839337766170502e-01" nType="-99"/>
            <Node pos="r" depth="3" NCoef="0" IVar="-1" Cut="0.0000000000000000e+00" cType="1" res="4.8070778138935566e-03" rms="4.1919201612472534e-01" purity="3.2870009541511536e-01" nType="-99"/>
          </Node>
        </Node>
        <Node pos="r" depth="1" NCoef="0" IVar="1" Cut="1.4146394042968750e+03" cType="1" res="-4.1813920252025127e-03" rms="3.8611766695976257e-01" purity="6.2491351366043091e-01" nType="0">
          <Node pos="l" depth="2" NCoef="0" IVar="4" Cut="1.3109005737304688e+02" cType="1" res="-1.3193003833293915e-02" rms="4.1258266568183899e-01" purity="4.9600011110305786e-01" nType="0">
            <Node pos="l" depth="3" NCoef="0" IVar="-1" Cut="0.0000000000000000e+00" cType="1" res="-1.5142671763896942e-02" rms="4.1205796599388123e-01" purity="3.9387124776840210e-01" nType="-99"/>
            <Node pos="r" depth="3" NCoef="0" IVar="-1" Cut="0.0000000000000000e+00" cType="1" res="1.8015346722677350e-04" rms="4.1268491744995117e-01" purity="6.0088872909545898e-01" nType="-99"/>
          </Node>
          <Node pos="r" depth="2" NCoef="0" IVar="6" Cut="9.5743179321289062e-01" cType="1" res="4.0854518301784992e-03" rms="3.5993513464927673e-01" purity="7.4317270517349243e-01" nType="0">
            <Node pos="l" depth="3" NCoef="0" IVar="-1" Cut="0.0000000000000000e+00" cType="1" res="7.2125572478398681e-04" rms="3.5633400082588196e-01" purity="7.6243627071380615e-01" nType="-99"/>
            <Node pos="r" depth="3" NCoef="0" IVar="-1" Cut="0.0000000000000000e+00" cType="1" res="1.7436362802982330e-02" rms="3.8385036587715149e-01" purity="6.0601198673248291e-01" nType="-99"/>
          </Node>
        </Node>
      </Node>
    </BinaryTree>
    <BinaryTree type="DecisionTree" boostWeight="1.0000000000000000e+00" itree="616">
      <Node pos="s" depth="0" NCoef="0" IVar="7" Cut="6.6663306951522827e-01" cType="1" res="6.5185461426153779e-04" rms="3.8458770513534546e-01" purity="4.9771410226821899e-01" nType="0">
        <Node pos="l" depth="1" NCoef="0" IVar="6" Cut="-6.5126192569732666e-01" cType="1" res="4.2266501113772392e-03" rms="3.8953751325607300e-01" purity="5.3295022249221802e-01" nType="0">
          <Node pos="l" depth="2" NCoef="0" IVar="9" Cut="-6.6649997234344482e-01" cType="1" res="1.5171109698712826e-02" rms="3.9574345946311951e-01" purity="4.3169862031936646e-01" nType="0">
            <Node pos="l" depth="3" NCoef="0" IVar="-1" Cut="0.0000000000000000e+00" cType="1" res="2.5044094771146774e-02" rms="3.9569506049156189e-01" purity="3.8727691769599915e-01" nType="-99"/>
            <Node pos="r" depth="3" NCoef="0" IVar="-1" Cut="0.0000000000000000e+00" cType="1" res="1.6604947159066796e-03" rms="3.9525285363197327e-01" purity="4.5964249968528748e-01" nType="-99"/>
          </Node>
          <Node pos="r" depth="2" NCoef="0" IVar="7" Cut="-1.9745208024978638e+00" cType="1" res="4.4117352808825672e-04" rms="3.8729590177536011e-01" purity="5.6797122955322266e-01" nType="0">
            <Node pos="l" depth="3" NCoef="0" IVar="-1" Cut="0.0000000000000000e+00" cType="1" res="-3.2506439834833145e-02" rms="2.9315352439880371e-01" purity="1.7390844225883484e-01" nType="-99"/>
            <Node pos="r" depth="3" NCoef="0" IVar="-1" Cut="0.0000000000000000e+00" cType="1" res="1.4781297650188208e-03" rms="3.9127638936042786e-01" purity="5.8747828006744385e-01" nType="-99"/>
          </Node>
        </Node>
        <Node pos="r" depth="1" NCoef="0" IVar="3" Cut="2.0441950988769531e+02" cType="1" res="-9.3156024813652039e-03" rms="3.7025493383407593e-01" purity="3.9946654438972473e-01" nType="0">
          <Node pos="l" depth="2" NCoef="0" IVar="4" Cut="7.2219100952148438e+01" cType="1" res="-1.6500631347298622e-02" rms="3.6180520057678223e-01" purity="2.7932390570640564e-01" nType="0">
            <Node pos="l" depth="3" NCoef="0" IVar="-1" Cut="0.0000000000000000e+00" cType="1" res="1.1335248127579689e-02" rms="2.9734843969345093e-01" purity="1.2085465341806412e-01" nType="-99"/>
            <Node pos="r" depth="3" NCoef="0" IVar="-1" Cut="0.0000000000000000e+00" cType="1" res="-1.4872012659907341e-02" rms="3.7358176708221436e-01" purity="3.1228095293045044e-01" nType="-99"/>
          </Node>
          <Node pos="r" depth="2" NCoef="0" IVar="8" Cut="3.9954271912574768e-01" cType="1" res="1.8322252435609698e-04" rms="3.8093039393424988e-01" purity="5.5829882621765137e-01" nType="0">
            <Node pos="l" depth="3" NCoef="0" IVar="-1" Cut="0.0000000000000000e+00" cType="1" res="7.0896195247769356e-03" rms="3.8502514362335205e-01" purity="5.9669822454452515e-01" nType="-99"/>
            <Node pos="r" depth="3" NCoef="0" IVar="-1" Cut="0.0000000000000000e+00" cType="1" res="-1.0843622498214245e-02" rms="3.7398502230644226e-01" purity="4.9933785200119019e-01" nType="-99"/>
          </Node>
        </Node>
      </Node>
    </BinaryTree>
    <BinaryTree type="DecisionTree" boostWeight="1.0000000000000000e+00" itree="617">
      <Node pos="s" depth="0" NCoef="0" IVar="8" Cut="-1.4666659832000732e+00" cType="1" res="9.5826131291687489e-04" rms="3.8425451517105103e-01" purity="4.9999931454658508e-01" nType="0">
        <Node pos="l" depth="1" NCoef="0" IVar="6" Cut="-3.3779290318489075e-01" cType="1" res="-2.2249978035688400e-02" rms="3.5729902982711792e-01" purity="3.0283239483833313e-01" nType="0">
          <Node pos="l" depth="2" NCoef="0" IVar="-1" Cut="0.0000000000000000e+00" cType="1" res="-3.7408422213047743e-03" rms="3.5121074318885803e-01" purity="2.8799492120742798e-01" nType="-99"/>
          <Node pos="r" depth="2" NCoef="0" IVar="8" Cut="-1.9746043682098389e+00" cType="1" res="-3.5943310707807541e-02" rms="3.6139944195747375e-01" purity="3.1443855166435242e-01" nType="0">
            <Node pos="l" depth="3" NCoef="0" IVar="-1" Cut="0.0000000000000000e+00" cType="1" res="-1.6239983960986137e-02" rms="3.4507018327713013e-01" purity="2.5457108020782471e-01" nType="-99"/>
            <Node pos="r" depth="3" NCoef="0" IVar="-1" Cut="0.0000000000000000e+00" cType="1" res="-3.1631667166948318e-02" rms="3.7401071190834045e-01" purity="3.6429899930953979e-01" nType="-99"/>
          </Node>
        </Node>
        <Node pos="r" depth="1" NCoef="0" IVar="7" Cut="1.4666014909744263e+00" cType="1" res="3.5561460535973310e-03" rms="3.8706848025321960e-01" purity="5.2206981182098389e-01" nType="0">
          <Node pos="l" depth="2" NCoef="0" IVar="9" Cut="6.6666859388351440e-01" cType="1" res="1.1165179312229156e-03" rms="3.8894751667976379e-01" purity="5.4518002271652222e-01" nType="0">
            <Node pos="l" depth="3" NCoef="0" IVar="-1" Cut="0.0000000000000000e+00" cType="1" res="3.5921393427997828e-03" rms="3.9107102155685425e-01" purity="5.6415212154388428e-01" nType="-99"/>
            <Node pos="r" depth="3" NCoef="0" IVar="-1" Cut="0.0000000000000000e+00" cType="1" res="-5.9772334061563015e-03" rms="3.8370862603187561e-01" purity="5.0053954124450684e-01" nType="-99"/>
          </Node>
          <Node pos="r" depth="2" NCoef="0" IVar="8" Cut="9.7150939702987671e-01" cType="1" res="2.7370309457182884e-02" rms="3.6737322807312012e-01" purity="2.9648166894912720e-01" nType="0">
            <Node pos="l" depth="3" NCoef="0" IVar="-1" Cut="0.0000000000000000e+00" cType="1" res="2.7369337156414986e-02" rms="3.8607755303382874e-01" purity="3.3861452341079712e-01" nType="-99"/>
            <Node pos="r" depth="3" NCoef="0" IVar="-1" Cut="0.0000000000000000e+00" cType="1" res="3.8599122781306505e-03" rms="3.1997096538543701e-01" purity="2.0141814649105072e-01" nType="-99"/>
          </Node>
        </Node>
      </Node>
    </BinaryTree>
    <BinaryTree type="DecisionTree" boostWeight="1.0000000000000000e+00" itree="618">
      <Node pos="s" depth="0" NCoef="0" IVar="8" Cut="-1.4666719436645508e+00" cType="1" res="3.7490117829293013e-03" rms="3.8462874293327332e-01" purity="5.0492882728576660e-01" nType="0">
        <Node pos="l" depth="1" NCoef="0" IVar="0" Cut="4.1629409790039062e+02" cType="1" res="2.1512752398848534e-02" rms="3.8382109999656677e-01" purity="3.3580309152603149e-01" nType="0">
          <Node pos="l" depth="2" NCoef="0" IVar="0" Cut="3.4984512329101562e+02" cType="1" res="1.0715899989008904e-02" rms="3.5191801190376282e-01" purity="2.0503337681293488e-01" nType="0">
            <Node pos="l" depth="3" NCoef="0" IVar="-1" Cut="0.0000000000000000e+00" cType="1" res="-7.7069937251508236e-03" rms="3.1233599781990051e-01" purity="1.4713473618030548e-01" nType="-99"/>
            <Node pos="r" depth="3" NCoef="0" IVar="-1" Cut="0.0000000000000000e+00" cType="1" res="2.2163296118378639e-02" rms="3.8831183314323425e-01" purity="2.6599934697151184e-01" nType="-99"/>
          </Node>
          <Node pos="r" depth="2" NCoef="0" IVar="-1" Cut="0.0000000000000000e+00" cType="1" res="2.1866785362362862e-02" rms="4.2400351166725159e-01" purity="5.1882803440093994e-01" nType="-99"/>
        </Node>
        <Node pos="r" depth="1" NCoef="0" IVar="9" Cut="1.1999665498733521e+00" cType="1" res="1.6812046524137259e-03" rms="3.8466933369636536e-01" purity="5.2461606264114380e-01" nType="0">
          <Node pos="l" depth="2" NCoef="0" IVar="6" Cut="4.1074204444885254e-01" cType="1" res="-1.4855614863336086e-03" rms="3.8491949439048767e-01" purity="5.3979438543319702e-01" nType="0">
            <Node pos="l" depth="3" NCoef="0" IVar="-1" Cut="0.0000000000000000e+00" cType="1" res="1.1111368658021092e-03" rms="3.8543379306793213e-01" purity="5.7684129476547241e-01" nType="-99"/>
            <Node pos="r" depth="3" NCoef="0" IVar="-1" Cut="0.0000000000000000e+00" cType="1" res="-5.7340646162629128e-03" rms="3.8367813825607300e-01" purity="4.5731696486473083e-01" nType="-99"/>
          </Node>
          <Node pos="r" depth="2" NCoef="0" IVar="8" Cut="1.5833128988742828e-01" cType="1" res="1.5958366915583611e-02" rms="3.8321468234062195e-01" purity="4.5618548989295959e-01" nType="0">
            <Node pos="l" depth="3" NCoef="0" IVar="-1" Cut="0.0000000000000000e+00" cType="1" res="3.8678423152305186e-04" rms="3.8561472296714783e-01" purity="5.1555413007736206e-01" nType="-99"/>
            <Node pos="r" depth="3" NCoef="0" IVar="-1" Cut="0.0000000000000000e+00" cType="1" res="1.9676858559250832e-02" rms="3.8085317611694336e-01" purity="4.0897074341773987e-01" nType="-99"/>
          </Node>
        </Node>
      </Node>
    </BinaryTree>
    <BinaryTree type="DecisionTree" boostWeight="1.0000000000000000e+00" itree="619">
      <Node pos="s" depth="0" NCoef="0" IVar="6" Cut="-1.7241818904876709e+00" cType="1" res="-1.9724853336811066e-03" rms="3.8560551404953003e-01" purity="4.9614518880844116e-01" nType="0">
        <Node pos="l" depth="1" NCoef="0" IVar="-1" Cut="0.0000000000000000e+00" cType="1" res="2.4576758965849876e-02" rms="3.4308719635009766e-01" purity="1.8810921907424927e-01" nType="-99"/>
        <Node pos="r" depth="1" NCoef="0" IVar="3" Cut="1.4608894348144531e+02" cType="1" res="-3.1006920617073774e-03" rms="3.8720718026161194e-01" purity="5.0877273082733154e-01" nType="0">
          <Node pos="l" depth="2" NCoef="0" IVar="4" Cut="1.1388829040527344e+02" cType="1" res="-1.1599291115999222e-02" rms="3.6770677566528320e-01" purity="2.3987260460853577e-01" nType="0">
            <Node pos="l" depth="3" NCoef="0" IVar="-1" Cut="0.0000000000000000e+00" cType="1" res="-5.6143151596188545e-03" rms="3.5920807719230652e-01" purity="2.1260444819927216e-01" nType="-99"/>
            <Node pos="r" depth="3" NCoef="0" IVar="-1" Cut="0.0000000000000000e+00" cType="1" res="-2.0225048065185547e-02" rms="4.1731366515159607e-01" purity="4.1504985094070435e-01" nType="-99"/>
          </Node>
          <Node pos="r" depth="2" NCoef="0" IVar="3" Cut="2.3667587280273438e+02" cType="1" res="-4.4809220707975328e-04" rms="3.9305800199508667e-01" purity="5.9270244836807251e-01" nType="0">
            <Node pos="l" depth="3" NCoef="0" IVar="-1" Cut="0.0000000000000000e+00" cType="1" res="2.9596190433949232e-03" rms="4.0699121356010437e-01" purity="5.2620643377304077e-01" nType="-99"/>
            <Node pos="r" depth="3" NCoef="0" IVar="-1" Cut="0.0000000000000000e+00" cType="1" res="-5.0738439895212650e-03" rms="3.7452843785285950e-01" purity="6.7706286907196045e-01" nType="-99"/>
          </Node>
        </Node>
      </Node>
    </BinaryTree>
    <BinaryTree type="DecisionTree" boostWeight="1.0000000000000000e+00" itree="620">
      <Node pos="s" depth="0" NCoef="0" IVar="7" Cut="-1.3332949578762054e-01" cType="1" res="-1.3146279379725456e-03" rms="3.8306707143783569e-01" purity="5.0015413761138916e-01" nType="0">
        <Node pos="l" depth="1" NCoef="0" IVar="8" Cut="-1.4666841030120850e+00" cType="1" res="-6.2265549786388874e-03" rms="3.8007971644401550e-01" purity="4.8619028925895691e-01" nType="0">
          <Node pos="l" depth="2" NCoef="0" IVar="8" Cut="-1.9111357927322388e+00" cType="1" res="-2.8266457840800285e-02" rms="3.4033969044685364e-01" purity="2.8199100494384766e-01" nType="0">
            <Node pos="l" depth="3" NCoef="0" IVar="-1" Cut="0.0000000000000000e+00" cType="1" res="-1.3923806138336658e-02" rms="3.3129253983497620e-01" purity="2.2898204624652863e-01" nType="-99"/>
            <Node pos="r" depth="3" NCoef="0" IVar="-1" Cut="0.0000000000000000e+00" cType="1" res="-2.7997478842735291e-02" rms="3.4867444634437561e-01" purity="3.3429038524627686e-01" nType="-99"/>
          </Node>
          <Node pos="r" depth="2" NCoef="0" IVar="6" Cut="-1.1821041107177734e+00" cType="1" res="-3.3284556120634079e-03" rms="3.8490635156631470e-01" purity="5.1304107904434204e-01" nType="0">
            <Node pos="l" depth="3" NCoef="0" IVar="-1" Cut="0.0000000000000000e+00" cType="1" res="1.4255691319704056e-02" rms="3.7183931469917297e-01" purity="3.0436912178993225e-01" nType="-99"/>
            <Node pos="r" depth="3" NCoef="0" IVar="-1" Cut="0.0000000000000000e+00" cType="1" res="-4.0654768235981464e-03" rms="3.8649120926856995e-01" purity="5.4040652513504028e-01" nType="-99"/>
          </Node>
        </Node>
        <Node pos="r" depth="1" NCoef="0" IVar="1" Cut="1.3228637695312500e+03" cType="1" res="2.6978889945894480e-03" rms="3.8544377684593201e-01" purity="5.1156115531921387e-01" nType="0">
          <Node pos="l" depth="2" NCoef="0" IVar="3" Cut="2.1960716247558594e+02" cType="1" res="-4.7280928120017052e-03" rms="3.9761099219322205e-01" purity="3.4045949578285217e-01" nType="0">
            <Node pos="l" depth="3" NCoef="0" IVar="-1" Cut="0.0000000000000000e+00" cType="1" res="-1.2308757868595421e-04" rms="3.9338606595993042e-01" purity="3.2305786013603210e-01" nType="-99"/>
            <Node pos="r" depth="3" NCoef="0" IVar="-1" Cut="0.0000000000000000e+00" cType="1" res="-1.5614021569490433e-02" rms="4.1775664687156677e-01" purity="4.2933362722396851e-01" nType="-99"/>
          </Node>
          <Node pos="r" depth="2" NCoef="0" IVar="9" Cut="-1.2000118494033813e+00" cType="1" res="1.2082461267709732e-02" rms="3.6928129196166992e-01" purity="7.2779053449630737e-01" nType="0">
            <Node pos="l" depth="3" NCoef="0" IVar="-1" Cut="0.0000000000000000e+00" cType="1" res="2.7408959344029427e-02" rms="4.0048483014106750e-01" purity="6.7533749341964722e-01" nType="-99"/>
            <Node pos="r" depth="3" NCoef="0" IVar="-1" Cut="0.0000000000000000e+00" cType="1" res="5.5066184140741825e-03" rms="3.6379799246788025e-01" purity="7.3620462417602539e-01" nType="-99"/>
          </Node>
        </Node>
      </Node>
    </BinaryTree>
    <BinaryTree type="DecisionTree" boostWeight="1.0000000000000000e+00" itree="621">
      <Node pos="s" depth="0" NCoef="0" IVar="6" Cut="6.7089605331420898e-01" cType="1" res="-2.2538525518029928e-03" rms="3.8198626041412354e-01" purity="4.9844864010810852e-01" nType="0">
        <Node pos="l" depth="1" NCoef="0" IVar="8" Cut="1.7332718372344971e+00" cType="1" res="-5.9529896825551987e-03" rms="3.8578286767005920e-01" purity="5.3608191013336182e-01" nType="0">
          <Node pos="l" depth="2" NCoef="0" IVar="7" Cut="1.1997028589248657e+00" cType="1" res="-4.3358840048313141e-03" rms="3.8693356513977051e-01" purity="5.5266171693801880e-01" nType="0">
            <Node pos="l" depth="3" NCoef="0" IVar="-1" Cut="0.0000000000000000e+00" cType="1" res="-1.1860691010951996e-03" rms="3.8975942134857178e-01" purity="5.8134287595748901e-01" nType="-99"/>
            <Node pos="r" depth="3" NCoef="0" IVar="-1" Cut="0.0000000000000000e+00" cType="1" res="-1.6479704529047012e-02" rms="3.6402985453605652e-01" purity="3.3341121673583984e-01" nType="-99"/>
          </Node>
          <Node pos="r" depth="2" NCoef="0" IVar="-1" Cut="0.0000000000000000e+00" cType="1" res="-2.0239729434251785e-02" rms="3.6755245923995972e-01" purity="2.9133641719818115e-01" nType="-99"/>
        </Node>
        <Node pos="r" depth="1" NCoef="0" IVar="5" Cut="7.7055168151855469e+01" cType="1" res="9.2967273667454720e-03" rms="3.6964240670204163e-01" purity="3.8093847036361694e-01" nType="0">
          <Node pos="l" depth="2" NCoef="0" IVar="5" Cut="6.6748275756835938e+01" cType="1" res="-4.3785427697002888e-03" rms="3.3883708715438843e-01" purity="1.9984963536262512e-01" nType="0">
            <Node pos="l" depth="3" NCoef="0" IVar="-1" Cut="0.0000000000000000e+00" cType="1" res="-1.1867157183587551e-02" rms="3.1663668155670166e-01" purity="1.6068260371685028e-01" nType="-99"/>
            <Node pos="r" depth="3" NCoef="0" IVar="-1" Cut="0.0000000000000000e+00" cType="1" res="1.0542122647166252e-02" rms="3.8470503687858582e-01" purity="2.9065811634063721e-01" nType="-99"/>
          </Node>
          <Node pos="r" depth="2" NCoef="0" IVar="5" Cut="1.2858895874023438e+02" cType="1" res="2.2104358300566673e-02" rms="3.9589968323707581e-01" purity="5.5053788423538208e-01" nType="0">
            <Node pos="l" depth="3" NCoef="0" IVar="-1" Cut="0.0000000000000000e+00" cType="1" res="1.7170416191220284e-02" rms="4.0792238712310791e-01" purity="4.7468504309654236e-01" nType="-99"/>
            <Node pos="r" depth="3" NCoef="0" IVar="-1" Cut="0.0000000000000000e+00" cType="1" res="3.6069455090910196e-03" rms="3.6397090554237366e-01" purity="7.3768901824951172e-01" nType="-99"/>
          </Node>
        </Node>
      </Node>
    </BinaryTree>
    <BinaryTree type="DecisionTree" boostWeight="1.0000000000000000e+00" itree="622">
      <Node pos="s" depth="0" NCoef="0" IVar="7" Cut="6.6664916276931763e-01" cType="1" res="-1.7382160294800997e-03" rms="3.8401407003402710e-01" purity="4.9820667505264282e-01" nType="0">
        <Node pos="l" depth="1" NCoef="0" IVar="2" Cut="3.3999157714843750e+02" cType="1" res="-5.3612077608704567e-03" rms="3.8556462526321411e-01" purity="5.2823084592819214e-01" nType="0">
          <Node pos="l" depth="2" NCoef="0" IVar="2" Cut="2.2666461181640625e+02" cType="1" res="-2.5374666438437998e-04" rms="3.9573264122009277e-01" purity="4.8970746994018555e-01" nType="0">
            <Node pos="l" depth="3" NCoef="0" IVar="-1" Cut="0.0000000000000000e+00" cType="1" res="1.4424482360482216e-02" rms="4.3339422345161438e-01" purity="4.4084507226943970e-01" nType="-99"/>
            <Node pos="r" depth="3" NCoef="0" IVar="-1" Cut="0.0000000000000000e+00" cType="1" res="-3.5412698052823544e-03" rms="3.8726750016212463e-01" purity="4.9982848763465881e-01" nType="-99"/>
          </Node>
          <Node pos="r" depth="2" NCoef="0" IVar="9" Cut="4.0001407265663147e-01" cType="1" res="-1.0176584124565125e-02" rms="3.7566253542900085e-01" purity="5.6455117464065552e-01" nType="0">
            <Node pos="l" depth="3" NCoef="0" IVar="-1" Cut="0.0000000000000000e+00" cType="1" res="-3.2186645548790693e-03" rms="3.7489417195320129e-01" purity="5.7745307683944702e-01" nType="-99"/>
            <Node pos="r" depth="3" NCoef="0" IVar="-1" Cut="0.0000000000000000e+00" cType="1" res="-1.4415320008993149e-02" rms="3.7689155340194702e-01" purity="5.4002946615219116e-01" nType="-99"/>
          </Node>
        </Node>
        <Node pos="r" depth="1" NCoef="0" IVar="9" Cut="1.7331955432891846e+00" cType="1" res="8.3151366561651230e-03" rms="3.7949728965759277e-01" purity="4.1489332914352417e-01" nType="0">
          <Node pos="l" depth="2" NCoef="0" IVar="8" Cut="-9.3356961011886597e-01" cType="1" res="1.3582723215222359e-02" rms="3.8341489434242249e-01" purity="4.3390327692031860e-01" nType="0">
            <Node pos="l" depth="3" NCoef="0" IVar="-1" Cut="0.0000000000000000e+00" cType="1" res="-7.1866619400680065e-03" rms="3.6017411947250366e-01" purity="3.3771681785583496e-01" nType="-99"/>
            <Node pos="r" depth="3" NCoef="0" IVar="-1" Cut="0.0000000000000000e+00" cType="1" res="1.2962155044078827e-02" rms="3.8835817575454712e-01" purity="4.5600372552871704e-01" nType="-99"/>
          </Node>
          <Node pos="r" depth="2" NCoef="0" IVar="-1" Cut="0.0000000000000000e+00" cType="1" res="-2.8070945292711258e-02" rms="3.4116110205650330e-01" purity="2.5340774655342102e-01" nType="-99"/>
        </Node>
      </Node>
    </BinaryTree>
    <BinaryTree type="DecisionTree" boostWeight="1.0000000000000000e+00" itree="623">
      <Node pos="s" depth="0" NCoef="0" IVar="8" Cut="1.1998987197875977e+00" cType="1" res="5.5473891552537680e-04" rms="3.8543242216110229e-01" purity="4.9746149778366089e-01" nType="0">
        <Node pos="l" depth="1" NCoef="0" IVar="7" Cut="1.9999409914016724e+00" cType="1" res="-1.8176129087805748e-03" rms="3.8469853997230530e-01" purity="5.2190572023391724e-01" nType="0">
          <Node pos="l" depth="2" NCoef="0" IVar="6" Cut="-1.1920399665832520e+00" cType="1" res="-2.9386163223534822e-03" rms="3.8558760285377502e-01" purity="5.3169918060302734e-01" nType="0">
            <Node pos="l" depth="3" NCoef="0" IVar="-1" Cut="0.0000000000000000e+00" cType="1" res="-1.6606241464614868e-02" rms="3.6191496253013611e-01" purity="2.5962984561920166e-01" nType="-99"/>
            <Node pos="r" depth="3" NCoef="0" IVar="-1" Cut="0.0000000000000000e+00" cType="1" res="-4.1925007826648653e-04" rms="3.8819998502731323e-01" purity="5.6355249881744385e-01" nType="-99"/>
          </Node>
          <Node pos="r" depth="2" NCoef="0" IVar="-1" Cut="0.0000000000000000e+00" cType="1" res="3.0777778476476669e-02" rms="3.5411748290061951e-01" purity="2.1681214869022369e-01" nType="-99"/>
        </Node>
        <Node pos="r" depth="1" NCoef="0" IVar="7" Cut="-6.6605657339096069e-01" cType="1" res="1.3553674332797527e-02" rms="3.8917249441146851e-01" purity="3.6352300643920898e-01" nType="0">
          <Node pos="l" depth="2" NCoef="0" IVar="-1" Cut="0.0000000000000000e+00" cType="1" res="4.2571406811475754e-02" rms="3.9880934357643127e-01" purity="3.3732888102531433e-01" nType="-99"/>
          <Node pos="r" depth="2" NCoef="0" IVar="6" Cut="-5.7584774494171143e-01" cType="1" res="-1.7223694594576955e-03" rms="3.8471665978431702e-01" purity="3.7217625975608826e-01" nType="0">
            <Node pos="l" depth="3" NCoef="0" IVar="-1" Cut="0.0000000000000000e+00" cType="1" res="1.8865685909986496e-02" rms="3.8753980398178101e-01" purity="3.4410327672958374e-01" nType="-99"/>
            <Node pos="r" depth="3" NCoef="0" IVar="-1" Cut="0.0000000000000000e+00" cType="1" res="-7.5335563160479069e-03" rms="3.8330000638961792e-01" purity="3.8146212697029114e-01" nType="-99"/>
          </Node>
        </Node>
      </Node>
    </BinaryTree>
    <BinaryTree type="DecisionTree" boostWeight="1.0000000000000000e+00" itree="624">
      <Node pos="s" depth="0" NCoef="0" IVar="3" Cut="1.4697917175292969e+02" cType="1" res="-1.1991664068773389e-03" rms="3.8219237327575684e-01" purity="4.9660935997962952e-01" nType="0">
        <Node pos="l" depth="1" NCoef="0" IVar="3" Cut="1.2434290313720703e+02" cType="1" res="-1.1583113111555576e-02" rms="3.6058548092842102e-01" purity="2.2917199134826660e-01" nType="0">
          <Node pos="l" depth="2" NCoef="0" IVar="2" Cut="3.2726223754882812e+02" cType="1" res="-1.1954973451793194e-03" rms="3.4361112117767334e-01" purity="1.8553206324577332e-01" nType="0">
            <Node pos="l" depth="3" NCoef="0" IVar="-1" Cut="0.0000000000000000e+00" cType="1" res="9.9837947636842728e-03" rms="3.5739257931709290e-01" purity="1.9479459524154663e-01" nType="-99"/>
            <Node pos="r" depth="3" NCoef="0" IVar="-1" Cut="0.0000000000000000e+00" cType="1" res="-1.4745613560080528e-02" rms="3.2549160718917847e-01" purity="1.7437905073165894e-01" nType="-99"/>
          </Node>
          <Node pos="r" depth="2" NCoef="0" IVar="4" Cut="1.0507109832763672e+02" cType="1" res="-2.8418844565749168e-02" rms="3.8592341542243958e-01" purity="2.9990139603614807e-01" nType="0">
            <Node pos="l" depth="3" NCoef="0" IVar="-1" Cut="0.0000000000000000e+00" cType="1" res="-9.7368014976382256e-03" rms="3.6568945646286011e-01" purity="2.3625354468822479e-01" nType="-99"/>
            <Node pos="r" depth="3" NCoef="0" IVar="-1" Cut="0.0000000000000000e+00" cType="1" res="-2.4666011333465576e-02" rms="4.0783149003982544e-01" purity="3.7473988533020020e-01" nType="-99"/>
          </Node>
        </Node>
        <Node pos="r" depth="1" NCoef="0" IVar="6" Cut="-1.2765263020992279e-01" cType="1" res="2.1896036341786385e-03" rms="3.8892406225204468e-01" purity="5.8388674259185791e-01" nType="0">
          <Node pos="l" depth="2" NCoef="0" IVar="7" Cut="3.9982748031616211e-01" cType="1" res="-3.6118063144385815e-03" rms="3.8814020156860352e-01" purity="5.6772732734680176e-01" nType="0">
            <Node pos="l" depth="3" NCoef="0" IVar="-1" Cut="0.0000000000000000e+00" cType="1" res="8.0098991747945547e-04" rms="3.8995671272277832e-01" purity="6.0407525300979614e-01" nType="-99"/>
            <Node pos="r" depth="3" NCoef="0" IVar="-1" Cut="0.0000000000000000e+00" cType="1" res="-9.2589762061834335e-03" rms="3.8399127125740051e-01" purity="4.8944807052612305e-01" nType="-99"/>
          </Node>
          <Node pos="r" depth="2" NCoef="0" IVar="8" Cut="6.6600805521011353e-01" cType="1" res="6.8550268188118935e-03" rms="3.8949060440063477e-01" purity="5.9688186645507812e-01" nType="0">
            <Node pos="l" depth="3" NCoef="0" IVar="-1" Cut="0.0000000000000000e+00" cType="1" res="9.6766120987012982e-04" rms="3.8716894388198853e-01" purity="6.1876547336578369e-01" nType="-99"/>
            <Node pos="r" depth="3" NCoef="0" IVar="-1" Cut="0.0000000000000000e+00" cType="1" res="1.2367282062768936e-02" rms="3.9445942640304565e-01" purity="5.4695540666580200e-01" nType="-99"/>
          </Node>
        </Node>
      </Node>
    </BinaryTree>
    <BinaryTree type="DecisionTree" boostWeight="1.0000000000000000e+00" itree="625">
      <Node pos="s" depth="0" NCoef="0" IVar="6" Cut="1.4692428112030029e+00" cType="1" res="5.4687852971255779e-03" rms="3.8371023535728455e-01" purity="5.0457519292831421e-01" nType="0">
        <Node pos="l" depth="1" NCoef="0" IVar="6" Cut="1.2664787769317627e+00" cType="1" res="6.8159322254359722e-03" rms="3.8798782229423523e-01" purity="5.2776569128036499e-01" nType="0">
          <Node pos="l" depth="2" NCoef="0" IVar="4" Cut="1.4369297790527344e+02" cType="1" res="5.8551044203341007e-03" rms="3.8796728849411011e-01" purity="5.3352862596511841e-01" nType="0">
            <Node pos="l" depth="3" NCoef="0" IVar="-1" Cut="0.0000000000000000e+00" cType="1" res="6.3936333172023296e-03" rms="4.0036398172378540e-01" purity="3.9757412672042847e-01" nType="-99"/>
            <Node pos="r" depth="3" NCoef="0" IVar="-1" Cut="0.0000000000000000e+00" cType="1" res="-7.3608814273029566e-04" rms="3.6867004632949829e-01" purity="7.3555678129196167e-01" nType="-99"/>
          </Node>
          <Node pos="r" depth="2" NCoef="0" IVar="-1" Cut="0.0000000000000000e+00" cType="1" res="2.5407316163182259e-02" rms="3.8749435544013977e-01" purity="3.5454744100570679e-01" nType="-99"/>
        </Node>
        <Node pos="r" depth="1" NCoef="0" IVar="3" Cut="1.5606941223144531e+02" cType="1" res="-1.3598410412669182e-02" rms="3.1642141938209534e-01" purity="1.7634250223636627e-01" nType="0">
          <Node pos="l" depth="2" NCoef="0" IVar="-1" Cut="0.0000000000000000e+00" cType="1" res="-1.7074068309739232e-03" rms="2.7595105767250061e-01" purity="1.0308283567428589e-01" nType="-99"/>
          <Node pos="r" depth="2" NCoef="0" IVar="-1" Cut="0.0000000000000000e+00" cType="1" res="-1.6981281340122223e-02" rms="3.4155276417732239e-01" purity="2.2741279006004333e-01" nType="-99"/>
        </Node>
      </Node>
    </BinaryTree>
    <BinaryTree type="DecisionTree" boostWeight="1.0000000000000000e+00" itree="626">
      <Node pos="s" depth="0" NCoef="0" IVar="8" Cut="1.1999899148941040e+00" cType="1" res="3.2389059197157621e-03" rms="3.8455674052238464e-01" purity="5.0216555595397949e-01" nType="0">
        <Node pos="l" depth="1" NCoef="0" IVar="2" Cut="3.3999176025390625e+02" cType="1" res="5.7392595335841179e-03" rms="3.8620081543922424e-01" purity="5.2840638160705566e-01" nType="0">
          <Node pos="l" depth="2" NCoef="0" IVar="6" Cut="1.4689292907714844e+00" cType="1" res="1.0371541604399681e-02" rms="3.9562451839447021e-01" purity="4.9105671048164368e-01" nType="0">
            <Node pos="l" depth="3" NCoef="0" IVar="-1" Cut="0.0000000000000000e+00" cType="1" res="4.9522989429533482e-03" rms="3.9767479896545410e-01" purity="5.0968253612518311e-01" nType="-99"/>
            <Node pos="r" depth="3" NCoef="0" IVar="-1" Cut="0.0000000000000000e+00" cType="1" res="3.0717462301254272e-02" rms="3.6937218904495239e-01" purity="2.7176901698112488e-01" nType="-99"/>
          </Node>
          <Node pos="r" depth="2" NCoef="0" IVar="9" Cut="6.6665905714035034e-01" cType="1" res="1.3786384370177984e-03" rms="3.7706264853477478e-01" purity="5.6356567144393921e-01" nType="0">
            <Node pos="l" depth="3" NCoef="0" IVar="-1" Cut="0.0000000000000000e+00" cType="1" res="-3.2437769696116447e-03" rms="3.7555608153343201e-01" purity="5.6890815496444702e-01" nType="-99"/>
            <Node pos="r" depth="3" NCoef="0" IVar="-1" Cut="0.0000000000000000e+00" cType="1" res="1.1170336976647377e-02" rms="3.8033333420753479e-01" purity="5.5043226480484009e-01" nType="-99"/>
          </Node>
        </Node>
        <Node pos="r" depth="1" NCoef="0" IVar="7" Cut="9.3355989456176758e-01" cType="1" res="-1.1368242092430592e-02" rms="3.7447443604469299e-01" purity="3.4886574745178223e-01" nType="0">
          <Node pos="l" depth="2" NCoef="0" IVar="8" Cut="1.4285820722579956e+00" cType="1" res="-1.6836548224091530e-02" rms="3.8289797306060791e-01" purity="3.9079612493515015e-01" nType="0">
            <Node pos="l" depth="3" NCoef="0" IVar="-1" Cut="0.0000000000000000e+00" cType="1" res="-2.6344470679759979e-02" rms="3.8730362057685852e-01" purity="4.4828379154205322e-01" nType="-99"/>
            <Node pos="r" depth="3" NCoef="0" IVar="-1" Cut="0.0000000000000000e+00" cType="1" res="-4.9004149623215199e-03" rms="3.8083961606025696e-01" purity="3.6958259344100952e-01" nType="-99"/>
          </Node>
          <Node pos="r" depth="2" NCoef="0" IVar="-1" Cut="0.0000000000000000e+00" cType="1" res="3.5474605392664671e-03" rms="3.4883874654769897e-01" purity="2.2915862500667572e-01" nType="-99"/>
        </Node>
      </Node>
    </BinaryTree>
    <BinaryTree type="DecisionTree" boostWeight="1.0000000000000000e+00" itree="627">
      <Node pos="s" depth="0" NCoef="0" IVar="7" Cut="1.4665691852569580e+00" cType="1" res="2.9006889089941978e-03" rms="3.8449445366859436e-01" purity="5.0051152706146240e-01" nType="0">
        <Node pos="l" depth="1" NCoef="0" IVar="9" Cut="2.2666633129119873e+00" cType="1" res="4.8273922875523567e-03" rms="3.8858237862586975e-01" purity="5.2701312303543091e-01" nType="0">
          <Node pos="l" depth="2" NCoef="0" IVar="7" Cut="-7.6825201511383057e-01" cType="1" res="3.9313365705311298e-03" rms="3.8821500539779663e-01" purity="5.3090202808380127e-01" nType="0">
            <Node pos="l" depth="3" NCoef="0" IVar="-1" Cut="0.0000000000000000e+00" cType="1" res="-4.5257327146828175e-03" rms="3.7670165300369263e-01" purity="3.8521713018417358e-01" nType="-99"/>
            <Node pos="r" depth="3" NCoef="0" IVar="-1" Cut="0.0000000000000000e+00" cType="1" res="4.8715942539274693e-03" rms="3.9202931523323059e-01" purity="5.8097207546234131e-01" nType="-99"/>
          </Node>
          <Node pos="r" depth="2" NCoef="0" IVar="-1" Cut="0.0000000000000000e+00" cType="1" res="2.2316670045256615e-02" rms="3.9923724532127380e-01" purity="4.0072926878929138e-01" nType="-99"/>
        </Node>
        <Node pos="r" depth="1" NCoef="0" IVar="6" Cut="-5.7723903656005859e-01" cType="1" res="-1.6379168257117271e-02" rms="3.4029868245124817e-01" purity="2.3531962931156158e-01" nType="0">
          <Node pos="l" depth="2" NCoef="0" IVar="-1" Cut="0.0000000000000000e+00" cType="1" res="7.7458047308027744e-03" rms="3.2389649748802185e-01" purity="1.7738971114158630e-01" nType="-99"/>
          <Node pos="r" depth="2" NCoef="0" IVar="6" Cut="5.4769003391265869e-01" cType="1" res="-2.6478713378310204e-02" rms="3.4637194871902466e-01" purity="2.5934541225433350e-01" nType="0">
            <Node pos="l" depth="3" NCoef="0" IVar="-1" Cut="0.0000000000000000e+00" cType="1" res="-3.0711933970451355e-02" rms="3.5950055718421936e-01" purity="3.1542441248893738e-01" nType="-99"/>
            <Node pos="r" depth="3" NCoef="0" IVar="-1" Cut="0.0000000000000000e+00" cType="1" res="-3.8551187608391047e-03" rms="3.3019632101058960e-01" purity="1.9898921251296997e-01" nType="-99"/>
          </Node>
        </Node>
      </Node>
    </BinaryTree>
    <BinaryTree type="DecisionTree" boostWeight="1.0000000000000000e+00" itree="628">
      <Node pos="s" depth="0" NCoef="0" IVar="8" Cut="-1.2000035047531128e+00" cType="1" res="-1.5103773912414908e-03" rms="3.8469129800796509e-01" purity="4.9900785088539124e-01" nType="0">
        <Node pos="l" depth="1" NCoef="0" IVar="9" Cut="9.3327188491821289e-01" cType="1" res="1.1037061922252178e-02" rms="3.7841096520423889e-01" purity="3.8055288791656494e-01" nType="0">
          <Node pos="l" depth="2" NCoef="0" IVar="0" Cut="5.1838073730468750e+02" cType="1" res="4.1852146387100220e-03" rms="3.7483343482017517e-01" purity="3.8432192802429199e-01" nType="0">
            <Node pos="l" depth="3" NCoef="0" IVar="-1" Cut="0.0000000000000000e+00" cType="1" res="7.2439475916326046e-03" rms="3.7409609556198120e-01" purity="3.0250874161720276e-01" nType="-99"/>
            <Node pos="r" depth="3" NCoef="0" IVar="-1" Cut="0.0000000000000000e+00" cType="1" res="-1.0884080082178116e-02" rms="3.7672063708305359e-01" purity="6.7322242259979248e-01" nType="-99"/>
          </Node>
          <Node pos="r" depth="2" NCoef="0" IVar="-1" Cut="0.0000000000000000e+00" cType="1" res="2.7306303381919861e-02" rms="3.9089965820312500e-01" purity="3.6586120724678040e-01" nType="-99"/>
        </Node>
        <Node pos="r" depth="1" NCoef="0" IVar="7" Cut="-3.9993786811828613e-01" cType="1" res="-3.8219324778765440e-03" rms="3.8579261302947998e-01" purity="5.2083027362823486e-01" nType="0">
          <Node pos="l" depth="2" NCoef="0" IVar="6" Cut="-1.1424044370651245e+00" cType="1" res="4.8794406466186047e-03" rms="3.8907244801521301e-01" purity="4.9040949344635010e-01" nType="0">
            <Node pos="l" depth="3" NCoef="0" IVar="-1" Cut="0.0000000000000000e+00" cType="1" res="2.6267925277352333e-02" rms="3.8797408342361450e-01" purity="3.0622524023056030e-01" nType="-99"/>
            <Node pos="r" depth="3" NCoef="0" IVar="-1" Cut="0.0000000000000000e+00" cType="1" res="1.7234815459232777e-04" rms="3.8903313875198364e-01" purity="5.1849865913391113e-01" nType="-99"/>
          </Node>
          <Node pos="r" depth="2" NCoef="0" IVar="4" Cut="1.0496535491943359e+02" cType="1" res="-8.4326425567269325e-03" rms="3.8396340608596802e-01" purity="5.3694963455200195e-01" nType="0">
            <Node pos="l" depth="3" NCoef="0" IVar="-1" Cut="0.0000000000000000e+00" cType="1" res="-1.2030563317239285e-02" rms="3.8269507884979248e-01" purity="2.6950329542160034e-01" nType="-99"/>
            <Node pos="r" depth="3" NCoef="0" IVar="-1" Cut="0.0000000000000000e+00" cType="1" res="-2.4582820478826761e-03" rms="3.8448745012283325e-01" purity="6.6702336072921753e-01" nType="-99"/>
          </Node>
        </Node>
      </Node>
    </BinaryTree>
    <BinaryTree type="DecisionTree" boostWeight="1.0000000000000000e+00" itree="629">
      <Node pos="s" depth="0" NCoef="0" IVar="8" Cut="-1.7333492040634155e+00" cType="1" res="3.6739760544151068e-03" rms="3.8417854905128479e-01" purity="5.0582081079483032e-01" nType="0">
        <Node pos="l" depth="1" NCoef="0" IVar="6" Cut="-1.1135400831699371e-01" cType="1" res="-1.5133258886635303e-02" rms="3.5451903939247131e-01" purity="2.7143502235412598e-01" nType="0">
          <Node pos="l" depth="2" NCoef="0" IVar="-1" Cut="0.0000000000000000e+00" cType="1" res="1.5290286391973495e-03" rms="3.6248266696929932e-01" purity="2.9068270325660706e-01" nType="-99"/>
          <Node pos="r" depth="2" NCoef="0" IVar="-1" Cut="0.0000000000000000e+00" cType="1" res="-2.5851817801594734e-02" rms="3.4441959857940674e-01" purity="2.4997325241565704e-01" nType="-99"/>
        </Node>
        <Node pos="r" depth="1" NCoef="0" IVar="9" Cut="-6.6666591167449951e-01" cType="1" res="5.0592031329870224e-03" rms="3.8623684644699097e-01" purity="5.2308422327041626e-01" nType="0">
          <Node pos="l" depth="2" NCoef="0" IVar="2" Cut="3.2889657592773438e+02" cType="1" res="-1.7748802201822400e-03" rms="3.8751235604286194e-01" purity="4.8428562283515930e-01" nType="0">
            <Node pos="l" depth="3" NCoef="0" IVar="-1" Cut="0.0000000000000000e+00" cType="1" res="-8.3309262990951538e-03" rms="3.9125460386276245e-01" purity="4.2953372001647949e-01" nType="-99"/>
            <Node pos="r" depth="3" NCoef="0" IVar="-1" Cut="0.0000000000000000e+00" cType="1" res="5.0627351738512516e-03" rms="3.8420292735099792e-01" purity="5.2870422601699829e-01" nType="-99"/>
          </Node>
          <Node pos="r" depth="2" NCoef="0" IVar="9" Cut="1.3142832517623901e+00" cType="1" res="7.9183299094438553e-03" rms="3.8566604256629944e-01" purity="5.3931617736816406e-01" nType="0">
            <Node pos="l" depth="3" NCoef="0" IVar="-1" Cut="0.0000000000000000e+00" cType="1" res="7.8684184700250626e-03" rms="3.8816812634468079e-01" purity="5.7166659832000732e-01" nType="-99"/>
            <Node pos="r" depth="3" NCoef="0" IVar="-1" Cut="0.0000000000000000e+00" cType="1" res="-4.5698168687522411e-03" rms="3.7589189410209656e-01" purity="4.1952547430992126e-01" nType="-99"/>
          </Node>
        </Node>
      </Node>
    </BinaryTree>
    <BinaryTree type="DecisionTree" boostWeight="1.0000000000000000e+00" itree="630">
      <Node pos="s" depth="0" NCoef="0" IVar="9" Cut="1.9999957084655762e+00" cType="1" res="2.7049560230807401e-05" rms="3.8430598378181458e-01" purity="5.0074517726898193e-01" nType="0">
        <Node pos="l" depth="1" NCoef="0" IVar="5" Cut="1.1043246459960938e+02" cType="1" res="1.6817067516967654e-03" rms="3.8537901639938354e-01" purity="5.1053464412689209e-01" nType="0">
          <Node pos="l" depth="2" NCoef="0" IVar="2" Cut="5.8667205810546875e+02" cType="1" res="5.4732323624193668e-03" rms="3.9691188931465149e-01" purity="4.1539782285690308e-01" nType="0">
            <Node pos="l" depth="3" NCoef="0" IVar="-1" Cut="0.0000000000000000e+00" cType="1" res="4.6100998297333717e-03" rms="3.9604356884956360e-01" purity="4.1116401553153992e-01" nType="-99"/>
            <Node pos="r" depth="3" NCoef="0" IVar="-1" Cut="0.0000000000000000e+00" cType="1" res="-8.7914513424038887e-03" rms="4.0626892447471619e-01" purity="4.6447238326072693e-01" nType="-99"/>
          </Node>
          <Node pos="r" depth="2" NCoef="0" IVar="5" Cut="1.3777105712890625e+02" cType="1" res="-8.6530083790421486e-03" rms="3.5182270407676697e-01" purity="7.6985287666320801e-01" nType="0">
            <Node pos="l" depth="3" NCoef="0" IVar="-1" Cut="0.0000000000000000e+00" cType="1" res="-1.3228512369096279e-02" rms="3.7628403306007385e-01" purity="7.0387017726898193e-01" nType="-99"/>
            <Node pos="r" depth="3" NCoef="0" IVar="-1" Cut="0.0000000000000000e+00" cType="1" res="5.6743848836049438e-04" rms="3.2800504565238953e-01" purity="8.2916736602783203e-01" nType="-99"/>
          </Node>
        </Node>
        <Node pos="r" depth="1" NCoef="0" IVar="7" Cut="1.3400262594223022e-01" cType="1" res="-2.9214110225439072e-02" rms="3.6358287930488586e-01" purity="3.2774645090103149e-01" nType="0">
          <Node pos="l" depth="2" NCoef="0" IVar="-1" Cut="0.0000000000000000e+00" cType="1" res="-2.6416510343551636e-02" rms="3.6684936285018921e-01" purity="3.2980591058731079e-01" nType="-99"/>
          <Node pos="r" depth="2" NCoef="0" IVar="-1" Cut="0.0000000000000000e+00" cType="1" res="-1.3668299652636051e-02" rms="3.5999482870101929e-01" purity="3.2567918300628662e-01" nType="-99"/>
        </Node>
      </Node>
    </BinaryTree>
    <BinaryTree type="DecisionTree" boostWeight="1.0000000000000000e+00" itree="631">
      <Node pos="s" depth="0" NCoef="0" IVar="3" Cut="1.4608894348144531e+02" cType="1" res="-3.5324003547430038e-03" rms="3.8424614071846008e-01" purity="4.9729335308074951e-01" nType="0">
        <Node pos="l" depth="1" NCoef="0" IVar="5" Cut="6.3446903228759766e+01" cType="1" res="4.1757156141102314e-03" rms="3.7115034461021423e-01" purity="2.4732127785682678e-01" nType="0">
          <Node pos="l" depth="2" NCoef="0" IVar="7" Cut="-9.3359255790710449e-01" cType="1" res="1.8381170928478241e-02" rms="3.4067991375923157e-01" purity="1.7126609385013580e-01" nType="0">
            <Node pos="l" depth="3" NCoef="0" IVar="-1" Cut="0.0000000000000000e+00" cType="1" res="-2.5309724733233452e-02" rms="2.5915631651878357e-01" purity="8.7440051138401031e-02" nType="-99"/>
            <Node pos="r" depth="3" NCoef="0" IVar="-1" Cut="0.0000000000000000e+00" cType="1" res="2.6176510378718376e-02" rms="3.6204263567924500e-01" purity="1.9814822077751160e-01" nType="-99"/>
          </Node>
          <Node pos="r" depth="2" NCoef="0" IVar="5" Cut="7.4972946166992188e+01" cType="1" res="-7.9072033986449242e-03" rms="3.9482134580612183e-01" purity="3.1201249361038208e-01" nType="0">
            <Node pos="l" depth="3" NCoef="0" IVar="-1" Cut="0.0000000000000000e+00" cType="1" res="-2.1958475932478905e-02" rms="3.5043504834175110e-01" purity="1.9703824818134308e-01" nType="-99"/>
            <Node pos="r" depth="3" NCoef="0" IVar="-1" Cut="0.0000000000000000e+00" cType="1" res="5.1940674893558025e-03" rms="4.2425948381423950e-01" purity="3.9825415611267090e-01" nType="-99"/>
          </Node>
        </Node>
        <Node pos="r" depth="1" NCoef="0" IVar="9" Cut="9.3334656953811646e-01" cType="1" res="-6.0564726591110229e-03" rms="3.8840523362159729e-01" purity="5.7914835214614868e-01" nType="0">
          <Node pos="l" depth="2" NCoef="0" IVar="9" Cut="-1.1999747753143311e+00" cType="1" res="-2.8325379826128483e-03" rms="3.8908445835113525e-01" purity="5.9928822517395020e-01" nType="0">
            <Node pos="l" depth="3" NCoef="0" IVar="-1" Cut="0.0000000000000000e+00" cType="1" res="-9.1964267194271088e-03" rms="3.9758640527725220e-01" purity="4.8432216048240662e-01" nType="-99"/>
            <Node pos="r" depth="3" NCoef="0" IVar="-1" Cut="0.0000000000000000e+00" cType="1" res="5.6784334447002038e-05" rms="3.8683488965034485e-01" purity="6.2857097387313843e-01" nType="-99"/>
          </Node>
          <Node pos="r" depth="2" NCoef="0" IVar="5" Cut="7.4767646789550781e+01" cType="1" res="-1.7631694674491882e-02" rms="3.8573473691940308e-01" purity="5.0683790445327759e-01" nType="0">
            <Node pos="l" depth="3" NCoef="0" IVar="-1" Cut="0.0000000000000000e+00" cType="1" res="-2.1851073950529099e-02" rms="3.6912000179290771e-01" purity="3.2520648837089539e-01" nType="-99"/>
            <Node pos="r" depth="3" NCoef="0" IVar="-1" Cut="0.0000000000000000e+00" cType="1" res="-5.3578531369566917e-03" rms="3.9475357532501221e-01" purity="6.1220276355743408e-01" nType="-99"/>
          </Node>
        </Node>
      </Node>
    </BinaryTree>
    <BinaryTree type="DecisionTree" boostWeight="1.0000000000000000e+00" itree="632">
      <Node pos="s" depth="0" NCoef="0" IVar="1" Cut="1.0998944091796875e+03" cType="1" res="-2.5484873913228512e-03" rms="3.8016241788864136e-01" purity="4.9976992607116699e-01" nType="0">
        <Node pos="l" depth="1" NCoef="0" IVar="9" Cut="-9.3327420949935913e-01" cType="1" res="-9.9674696102738380e-03" rms="3.6906927824020386e-01" purity="2.2642895579338074e-01" nType="0">
          <Node pos="l" depth="2" NCoef="0" IVar="2" Cut="2.6676248168945312e+02" cType="1" res="6.7293709143996239e-03" rms="3.5913816094398499e-01" purity="2.1771641075611115e-01" nType="0">
            <Node pos="l" depth="3" NCoef="0" IVar="-1" Cut="0.0000000000000000e+00" cType="1" res="-5.1524927839636803e-03" rms="3.7443020939826965e-01" purity="2.4518810212612152e-01" nType="-99"/>
            <Node pos="r" depth="3" NCoef="0" IVar="-1" Cut="0.0000000000000000e+00" cType="1" res="1.7082337290048599e-02" rms="3.4414112567901611e-01" purity="1.9277514517307281e-01" nType="-99"/>
          </Node>
          <Node pos="r" depth="2" NCoef="0" IVar="7" Cut="-9.3337017297744751e-01" cType="1" res="-1.5712765976786613e-02" rms="3.7225216627120972e-01" purity="2.2942687571048737e-01" nType="0">
            <Node pos="l" depth="3" NCoef="0" IVar="-1" Cut="0.0000000000000000e+00" cType="1" res="4.1261436417698860e-03" rms="3.5178309679031372e-01" purity="1.8712186813354492e-01" nType="-99"/>
            <Node pos="r" depth="3" NCoef="0" IVar="-1" Cut="0.0000000000000000e+00" cType="1" res="-1.4007464982569218e-02" rms="3.7773865461349487e-01" purity="2.4163426458835602e-01" nType="-99"/>
          </Node>
        </Node>
        <Node pos="r" depth="1" NCoef="0" IVar="6" Cut="9.3642657995223999e-01" cType="1" res="8.2278688205406070e-04" rms="3.8505047559738159e-01" purity="6.2397933006286621e-01" nType="0">
          <Node pos="l" depth="2" NCoef="0" IVar="9" Cut="1.2000179290771484e+00" cType="1" res="2.8930376283824444e-03" rms="3.8489812612533569e-01" purity="6.5872842073440552e-01" nType="0">
            <Node pos="l" depth="3" NCoef="0" IVar="-1" Cut="0.0000000000000000e+00" cType="1" res="3.7955984589643776e-04" rms="3.8087412714958191e-01" purity="6.7144441604614258e-01" nType="-99"/>
            <Node pos="r" depth="3" NCoef="0" IVar="-1" Cut="0.0000000000000000e+00" cType="1" res="9.5912395045161247e-03" rms="4.0597304701805115e-01" purity="5.8915704488754272e-01" nType="-99"/>
          </Node>
          <Node pos="r" depth="2" NCoef="0" IVar="6" Cut="1.2911921739578247e+00" cType="1" res="-1.1987724341452122e-02" rms="3.8574483990669250e-01" purity="4.0895512700080872e-01" nType="0">
            <Node pos="l" depth="3" NCoef="0" IVar="-1" Cut="0.0000000000000000e+00" cType="1" res="1.6088407719507813e-03" rms="4.1138741374015808e-01" purity="5.1478528976440430e-01" nType="-99"/>
            <Node pos="r" depth="3" NCoef="0" IVar="-1" Cut="0.0000000000000000e+00" cType="1" res="-1.7821924760937691e-02" rms="3.6043390631675720e-01" purity="3.1307744979858398e-01" nType="-99"/>
          </Node>
        </Node>
      </Node>
    </BinaryTree>
    <BinaryTree type="DecisionTree" boostWeight="1.0000000000000000e+00" itree="633">
      <Node pos="s" depth="0" NCoef="0" IVar="8" Cut="-4.0000414848327637e-01" cType="1" res="-1.4119982952252030e-03" rms="3.8266798853874207e-01" purity="4.9985218048095703e-01" nType="0">
        <Node pos="l" depth="1" NCoef="0" IVar="1" Cut="1.3997928466796875e+03" cType="1" res="-1.0304669849574566e-02" rms="3.8113948702812195e-01" purity="4.5713710784912109e-01" nType="0">
          <Node pos="l" depth="2" NCoef="0" IVar="1" Cut="9.9993145751953125e+02" cType="1" res="-1.6878534108400345e-02" rms="3.8657268881797791e-01" purity="3.2168316841125488e-01" nType="0">
            <Node pos="l" depth="3" NCoef="0" IVar="-1" Cut="0.0000000000000000e+00" cType="1" res="3.4519308246672153e-03" rms="3.3852562308311462e-01" purity="1.6569188237190247e-01" nType="-99"/>
            <Node pos="r" depth="3" NCoef="0" IVar="-1" Cut="0.0000000000000000e+00" cType="1" res="-1.5359489247202873e-02" rms="4.0543380379676819e-01" purity="3.8979262113571167e-01" nType="-99"/>
          </Node>
          <Node pos="r" depth="2" NCoef="0" IVar="8" Cut="-6.2856012582778931e-01" cType="1" res="2.3941777180880308e-03" rms="3.7008798122406006e-01" purity="7.1879601478576660e-01" nType="0">
            <Node pos="l" depth="3" NCoef="0" IVar="-1" Cut="0.0000000000000000e+00" cType="1" res="6.7923767492175102e-03" rms="3.7447649240493774e-01" purity="7.0544725656509399e-01" nType="-99"/>
            <Node pos="r" depth="3" NCoef="0" IVar="-1" Cut="0.0000000000000000e+00" cType="1" res="-2.0289661362767220e-02" rms="3.5242599248886108e-01" purity="7.6723158359527588e-01" nType="-99"/>
          </Node>
        </Node>
        <Node pos="r" depth="1" NCoef="0" IVar="9" Cut="1.4666291475296021e+00" cType="1" res="3.5883656237274408e-03" rms="3.8343423604965210e-01" purity="5.2387094497680664e-01" nType="0">
          <Node pos="l" depth="2" NCoef="0" IVar="3" Cut="3.6728918457031250e+02" cType="1" res="1.2071535456925631e-03" rms="3.8326406478881836e-01" purity="5.3992325067520142e-01" nType="0">
            <Node pos="l" depth="3" NCoef="0" IVar="-1" Cut="0.0000000000000000e+00" cType="1" res="2.0645009353756905e-03" rms="3.8389575481414795e-01" purity="5.3033912181854248e-01" nType="-99"/>
            <Node pos="r" depth="3" NCoef="0" IVar="-1" Cut="0.0000000000000000e+00" cType="1" res="-1.7742762342095375e-02" rms="3.7342840433120728e-01" purity="6.7249625921249390e-01" nType="-99"/>
          </Node>
          <Node pos="r" depth="2" NCoef="0" IVar="9" Cut="1.7840852737426758e+00" cType="1" res="1.9145954400300980e-02" rms="3.8418096303939819e-01" purity="4.1899326443672180e-01" nType="0">
            <Node pos="l" depth="3" NCoef="0" IVar="-1" Cut="0.0000000000000000e+00" cType="1" res="2.3716019466519356e-02" rms="3.9689791202545166e-01" purity="4.7586014866828918e-01" nType="-99"/>
            <Node pos="r" depth="3" NCoef="0" IVar="-1" Cut="0.0000000000000000e+00" cType="1" res="6.5479176118969917e-03" rms="3.7596929073333740e-01" purity="3.8471016287803650e-01" nType="-99"/>
          </Node>
        </Node>
      </Node>
    </BinaryTree>
    <BinaryTree type="DecisionTree" boostWeight="1.0000000000000000e+00" itree="634">
      <Node pos="s" depth="0" NCoef="0" IVar="9" Cut="1.7333118915557861e+00" cType="1" res="1.0414973367005587e-03" rms="3.8404995203018188e-01" purity="4.9899584054946899e-01" nType="0">
        <Node pos="l" depth="1" NCoef="0" IVar="6" Cut="1.4692332744598389e+00" cType="1" res="2.9202399309724569e-03" rms="3.8570147752761841e-01" purity="5.1266843080520630e-01" nType="0">
          <Node pos="l" depth="2" NCoef="0" IVar="7" Cut="1.1999148130416870e+00" cType="1" res="1.0985070839524269e-03" rms="3.8784983754158020e-01" purity="5.3267014026641846e-01" nType="0">
            <Node pos="l" depth="3" NCoef="0" IVar="-1" Cut="0.0000000000000000e+00" cType="1" res="-1.1554013472050428e-03" rms="3.8824081420898438e-01" purity="5.5920696258544922e-01" nType="-99"/>
            <Node pos="r" depth="3" NCoef="0" IVar="-1" Cut="0.0000000000000000e+00" cType="1" res="1.4734348282217979e-02" rms="3.8457894325256348e-01" purity="3.5043281316757202e-01" nType="-99"/>
          </Node>
          <Node pos="r" depth="2" NCoef="0" IVar="0" Cut="3.7612442016601562e+02" cType="1" res="2.8194302693009377e-02" rms="3.5358855128288269e-01" purity="2.3517163097858429e-01" nType="0">
            <Node pos="l" depth="3" NCoef="0" IVar="-1" Cut="0.0000000000000000e+00" cType="1" res="2.4265614338219166e-03" rms="3.0476468801498413e-01" purity="1.1646369844675064e-01" nType="-99"/>
            <Node pos="r" depth="3" NCoef="0" IVar="-1" Cut="0.0000000000000000e+00" cType="1" res="3.6024417728185654e-02" rms="3.9122149348258972e-01" purity="3.4304344654083252e-01" nType="-99"/>
          </Node>
        </Node>
        <Node pos="r" depth="1" NCoef="0" IVar="9" Cut="2.0888712406158447e+00" cType="1" res="-2.0084649324417114e-02" rms="3.6429816484451294e-01" purity="3.4525012969970703e-01" nType="0">
          <Node pos="l" depth="2" NCoef="0" IVar="-1" Cut="0.0000000000000000e+00" cType="1" res="-2.7843299321830273e-03" rms="3.7300086021423340e-01" purity="3.8735911250114441e-01" nType="-99"/>
          <Node pos="r" depth="2" NCoef="0" IVar="-1" Cut="0.0000000000000000e+00" cType="1" res="-2.4482961744070053e-02" rms="3.5594835877418518e-01" purity="3.0853030085563660e-01" nType="-99"/>
        </Node>
      </Node>
    </BinaryTree>
    <BinaryTree type="DecisionTree" boostWeight="1.0000000000000000e+00" itree="635">
      <Node pos="s" depth="0" NCoef="0" IVar="7" Cut="-1.4666894674301147e+00" cType="1" res="1.4703180640935898e-03" rms="3.8317856192588806e-01" purity="4.9964979290962219e-01" nType="0">
        <Node pos="l" depth="1" NCoef="0" IVar="6" Cut="-3.6831539869308472e-01" cType="1" res="-1.4699859544634819e-02" rms="3.3668434619903564e-01" purity="2.4027311801910400e-01" nType="0">
          <Node pos="l" depth="2" NCoef="0" IVar="-1" Cut="0.0000000000000000e+00" cType="1" res="-3.4705013036727905e-02" rms="2.9955410957336426e-01" purity="1.8422903120517731e-01" nType="-99"/>
          <Node pos="r" depth="2" NCoef="0" IVar="7" Cut="-1.9112006425857544e+00" cType="1" res="8.3905021892860532e-04" rms="3.5695964097976685e-01" purity="2.7513149380683899e-01" nType="0">
            <Node pos="l" depth="3" NCoef="0" IVar="-1" Cut="0.0000000000000000e+00" cType="1" res="1.4467478729784489e-02" rms="3.4879130125045776e-01" purity="2.2353729605674744e-01" nType="-99"/>
            <Node pos="r" depth="3" NCoef="0" IVar="-1" Cut="0.0000000000000000e+00" cType="1" res="-1.0038681328296661e-02" rms="3.6407652497291565e-01" purity="3.2519605755805969e-01" nType="-99"/>
          </Node>
        </Node>
        <Node pos="r" depth="1" NCoef="0" IVar="7" Cut="5.6501048803329468e-01" cType="1" res="3.0764662660658360e-03" rms="3.8745540380477905e-01" purity="5.2541309595108032e-01" nType="0">
          <Node pos="l" depth="2" NCoef="0" IVar="7" Cut="-1.0796970129013062e+00" cType="1" res="-3.1840504379943013e-04" rms="3.9085739850997925e-01" purity="5.6896013021469116e-01" nType="0">
            <Node pos="l" depth="3" NCoef="0" IVar="-1" Cut="0.0000000000000000e+00" cType="1" res="1.2536391615867615e-02" rms="4.0449240803718567e-01" purity="4.5010080933570862e-01" nType="-99"/>
            <Node pos="r" depth="3" NCoef="0" IVar="-1" Cut="0.0000000000000000e+00" cType="1" res="-1.8709829309955239e-03" rms="3.8897886872291565e-01" purity="5.8438247442245483e-01" nType="-99"/>
          </Node>
          <Node pos="r" depth="2" NCoef="0" IVar="8" Cut="-1.4666719436645508e+00" cType="1" res="9.8474891856312752e-03" rms="3.8048893213272095e-01" purity="4.3855908513069153e-01" nType="0">
            <Node pos="l" depth="3" NCoef="0" IVar="-1" Cut="0.0000000000000000e+00" cType="1" res="3.2589342445135117e-02" rms="3.7540692090988159e-01" purity="3.1071525812149048e-01" nType="-99"/>
            <Node pos="r" depth="3" NCoef="0" IVar="-1" Cut="0.0000000000000000e+00" cType="1" res="4.2109070345759392e-03" rms="3.8089185953140259e-01" purity="4.5313057303428650e-01" nType="-99"/>
          </Node>
        </Node>
      </Node>
    </BinaryTree>
    <BinaryTree type="DecisionTree" boostWeight="1.0000000000000000e+00" itree="636">
      <Node pos="s" depth="0" NCoef="0" IVar="7" Cut="1.7332357168197632e+00" cType="1" res="9.0877572074532509e-04" rms="3.8683477044105530e-01" purity="4.9865174293518066e-01" nType="0">
        <Node pos="l" depth="1" NCoef="0" IVar="0" Cut="4.3640008544921875e+02" cType="1" res="2.0403554663062096e-03" rms="3.9060604572296143e-01" purity="5.1703947782516479e-01" nType="0">
          <Node pos="l" depth="2" NCoef="0" IVar="1" Cut="1.0892778320312500e+03" cType="1" res="6.8763629533350468e-03" rms="3.9831775426864624e-01" purity="3.7429592013359070e-01" nType="0">
            <Node pos="l" depth="3" NCoef="0" IVar="-1" Cut="0.0000000000000000e+00" cType="1" res="-1.5038450947031379e-03" rms="3.7626081705093384e-01" purity="2.2827479243278503e-01" nType="-99"/>
            <Node pos="r" depth="3" NCoef="0" IVar="-1" Cut="0.0000000000000000e+00" cType="1" res="8.5110384970903397e-03" rms="4.1627871990203857e-01" purity="5.0047236680984497e-01" nType="-99"/>
          </Node>
          <Node pos="r" depth="2" NCoef="0" IVar="7" Cut="6.5398657321929932e-01" cType="1" res="-4.1459449566900730e-03" rms="3.8042369484901428e-01" purity="6.9963926076889038e-01" nType="0">
            <Node pos="l" depth="3" NCoef="0" IVar="-1" Cut="0.0000000000000000e+00" cType="1" res="-7.7520762570202351e-03" rms="3.7357696890830994e-01" purity="7.0797866582870483e-01" nType="-99"/>
            <Node pos="r" depth="3" NCoef="0" IVar="-1" Cut="0.0000000000000000e+00" cType="1" res="1.2821505777537823e-02" rms="4.0317973494529724e-01" purity="6.6966903209686279e-01" nType="-99"/>
          </Node>
        </Node>
        <Node pos="r" depth="1" NCoef="0" IVar="7" Cut="2.0379915237426758e+00" cType="1" res="-1.7487086355686188e-02" rms="3.1877613067626953e-01" purity="1.9972637295722961e-01" nType="0">
          <Node pos="l" depth="2" NCoef="0" IVar="-1" Cut="0.0000000000000000e+00" cType="1" res="-2.4828402325510979e-02" rms="3.3634939789772034e-01" purity="2.1327824890613556e-01" nType="-99"/>
          <Node pos="r" depth="2" NCoef="0" IVar="-1" Cut="0.0000000000000000e+00" cType="1" res="-6.9657475687563419e-03" rms="3.0412420630455017e-01" purity="1.8926715850830078e-01" nType="-99"/>
        </Node>
      </Node>
    </BinaryTree>
    <BinaryTree type="DecisionTree" boostWeight="1.0000000000000000e+00" itree="637">
      <Node pos="s" depth="0" NCoef="0" IVar="6" Cut="-1.1820858716964722e+00" cType="1" res="-1.9440791802480817e-03" rms="3.8297507166862488e-01" purity="4.9832603335380554e-01" nType="0">
        <Node pos="l" depth="1" NCoef="0" IVar="7" Cut="-6.6708242893218994e-01" cType="1" res="-2.1167626604437828e-02" rms="3.3849740028381348e-01" purity="2.4543265998363495e-01" nType="0">
          <Node pos="l" depth="2" NCoef="0" IVar="-1" Cut="0.0000000000000000e+00" cType="1" res="-6.5777665004134178e-03" rms="3.2435080409049988e-01" purity="2.1763376891613007e-01" nType="-99"/>
          <Node pos="r" depth="2" NCoef="0" IVar="5" Cut="6.8864532470703125e+01" cType="1" res="-2.8550149872899055e-02" rms="3.4583643078804016e-01" purity="2.6077598333358765e-01" nType="0">
            <Node pos="l" depth="3" NCoef="0" IVar="-1" Cut="0.0000000000000000e+00" cType="1" res="-1.1656556278467178e-02" rms="3.1369447708129883e-01" purity="1.4318688213825226e-01" nType="-99"/>
            <Node pos="r" depth="3" NCoef="0" IVar="-1" Cut="0.0000000000000000e+00" cType="1" res="-2.5458298623561859e-02" rms="3.6578661203384399e-01" purity="3.4122890233993530e-01" nType="-99"/>
          </Node>
        </Node>
        <Node pos="r" depth="1" NCoef="0" IVar="7" Cut="1.3331982493400574e-01" cType="1" res="4.1629423503763974e-04" rms="3.8801941275596619e-01" purity="5.2937763929367065e-01" nType="0">
          <Node pos="l" depth="2" NCoef="0" IVar="6" Cut="-2.3411276936531067e-01" cType="1" res="6.9506829604506493e-03" rms="3.8965967297554016e-01" purity="5.4860544204711914e-01" nType="0">
            <Node pos="l" depth="3" NCoef="0" IVar="-1" Cut="0.0000000000000000e+00" cType="1" res="1.1484254151582718e-02" rms="3.9665898680686951e-01" purity="5.8193969726562500e-01" nType="-99"/>
            <Node pos="r" depth="3" NCoef="0" IVar="-1" Cut="0.0000000000000000e+00" cType="1" res="4.0396300028078258e-04" rms="3.8548451662063599e-01" purity="5.2967619895935059e-01" nType="-99"/>
          </Node>
          <Node pos="r" depth="2" NCoef="0" IVar="6" Cut="9.0349733829498291e-01" cType="1" res="-7.7076787129044533e-03" rms="3.8581612706184387e-01" purity="5.0547248125076294e-01" nType="0">
            <Node pos="l" depth="3" NCoef="0" IVar="-1" Cut="0.0000000000000000e+00" cType="1" res="-7.0908302441239357e-03" rms="3.9269587397575378e-01" purity="5.6113028526306152e-01" nType="-99"/>
            <Node pos="r" depth="3" NCoef="0" IVar="-1" Cut="0.0000000000000000e+00" cType="1" res="3.3303720410913229e-03" rms="3.5962450504302979e-01" purity="3.0448025465011597e-01" nType="-99"/>
          </Node>
        </Node>
      </Node>
    </BinaryTree>
    <BinaryTree type="DecisionTree" boostWeight="1.0000000000000000e+00" itree="638">
      <Node pos="s" depth="0" NCoef="0" IVar="9" Cut="-2.2666587829589844e+00" cType="1" res="1.7473617335781455e-03" rms="3.8427746295928955e-01" purity="5.0209742784500122e-01" nType="0">
        <Node pos="l" depth="1" NCoef="0" IVar="-1" Cut="0.0000000000000000e+00" cType="1" res="-2.5292800739407539e-02" rms="3.5481169819831848e-01" purity="2.7007725834846497e-01" nType="-99"/>
        <Node pos="r" depth="1" NCoef="0" IVar="6" Cut="-1.2751729786396027e-01" cType="1" res="2.8284809086471796e-03" rms="3.8508918881416321e-01" purity="5.0917178392410278e-01" nType="0">
          <Node pos="l" depth="2" NCoef="0" IVar="6" Cut="-1.0145481824874878e+00" cType="1" res="8.8722798973321915e-03" rms="3.8778975605964661e-01" purity="5.0714468955993652e-01" nType="0">
            <Node pos="l" depth="3" NCoef="0" IVar="-1" Cut="0.0000000000000000e+00" cType="1" res="-2.5615852791815996e-03" rms="3.6155217885971069e-01" purity="3.0162230134010315e-01" nType="-99"/>
            <Node pos="r" depth="3" NCoef="0" IVar="-1" Cut="0.0000000000000000e+00" cType="1" res="9.2544425278902054e-03" rms="3.9913254976272583e-01" purity="6.0152834653854370e-01" nType="-99"/>
          </Node>
          <Node pos="r" depth="2" NCoef="0" IVar="7" Cut="6.6656476259231567e-01" cType="1" res="-2.1585270296782255e-03" rms="3.8277462124824524e-01" purity="5.1084446907043457e-01" nType="0">
            <Node pos="l" depth="3" NCoef="0" IVar="-1" Cut="0.0000000000000000e+00" cType="1" res="2.3369735572487116e-03" rms="3.8722252845764160e-01" purity="5.5155438184738159e-01" nType="-99"/>
            <Node pos="r" depth="3" NCoef="0" IVar="-1" Cut="0.0000000000000000e+00" cType="1" res="-1.1647079139947891e-02" rms="3.7090942263603210e-01" purity="4.0800407528877258e-01" nType="-99"/>
          </Node>
        </Node>
      </Node>
    </BinaryTree>
    <BinaryTree type="DecisionTree" boostWeight="1.0000000000000000e+00" itree="639">
      <Node pos="s" depth="0" NCoef="0" IVar="3" Cut="1.4608894348144531e+02" cType="1" res="-4.2061816202476621e-04" rms="3.8418570160865784e-01" purity="5.0035601854324341e-01" nType="0">
        <Node pos="l" depth="1" NCoef="0" IVar="6" Cut="1.2065368890762329e+00" cType="1" res="8.0599552020430565e-03" rms="3.7066492438316345e-01" purity="2.4906961619853973e-01" nType="0">
          <Node pos="l" depth="2" NCoef="0" IVar="7" Cut="3.9998382329940796e-01" cType="1" res="1.2298472225666046e-02" rms="3.8551878929138184e-01" purity="2.7235925197601318e-01" nType="0">
            <Node pos="l" depth="3" NCoef="0" IVar="-1" Cut="0.0000000000000000e+00" cType="1" res="1.0496524628251791e-03" rms="3.8085478544235229e-01" purity="2.6205882430076599e-01" nType="-99"/>
            <Node pos="r" depth="3" NCoef="0" IVar="-1" Cut="0.0000000000000000e+00" cType="1" res="2.0869109779596329e-02" rms="3.9251449704170227e-01" purity="2.8952085971832275e-01" nType="-99"/>
          </Node>
          <Node pos="r" depth="2" NCoef="0" IVar="-1" Cut="0.0000000000000000e+00" cType="1" res="-2.0322367548942566e-02" rms="2.6068708300590515e-01" purity="1.0671866685152054e-01" nType="-99"/>
        </Node>
        <Node pos="r" depth="1" NCoef="0" IVar="8" Cut="-1.9998790025711060e+00" cType="1" res="-3.1982299406081438e-03" rms="3.8847160339355469e-01" purity="5.8265900611877441e-01" nType="0">
          <Node pos="l" depth="2" NCoef="0" IVar="-1" Cut="0.0000000000000000e+00" cType="1" res="1.7796484753489494e-02" rms="3.9905095100402832e-01" purity="3.4948125481605530e-01" nType="-99"/>
          <Node pos="r" depth="2" NCoef="0" IVar="7" Cut="1.4666694402694702e+00" cType="1" res="-4.3079094029963017e-03" rms="3.8802567124366760e-01" purity="5.9139567613601685e-01" nType="0">
            <Node pos="l" depth="3" NCoef="0" IVar="-1" Cut="0.0000000000000000e+00" cType="1" res="-1.7948679160326719e-03" rms="3.9111411571502686e-01" purity="6.1641991138458252e-01" nType="-99"/>
            <Node pos="r" depth="3" NCoef="0" IVar="-1" Cut="0.0000000000000000e+00" cType="1" res="-1.7115153372287750e-02" rms="3.4774422645568848e-01" purity="2.8716483712196350e-01" nType="-99"/>
          </Node>
        </Node>
      </Node>
    </BinaryTree>
    <BinaryTree type="DecisionTree" boostWeight="1.0000000000000000e+00" itree="640">
      <Node pos="s" depth="0" NCoef="0" IVar="7" Cut="3.9998450875282288e-01" cType="1" res="-2.3758150637149811e-03" rms="3.8426822423934937e-01" purity="4.9648964405059814e-01" nType="0">
        <Node pos="l" depth="1" NCoef="0" IVar="8" Cut="1.4665949344635010e+00" cType="1" res="-5.8624730445444584e-03" rms="3.8416358828544617e-01" purity="5.2039194107055664e-01" nType="0">
          <Node pos="l" depth="2" NCoef="0" IVar="8" Cut="1.0602501630783081e+00" cType="1" res="-7.7607356943190098e-03" rms="3.8358280062675476e-01" purity="5.3601139783859253e-01" nType="0">
            <Node pos="l" depth="3" NCoef="0" IVar="-1" Cut="0.0000000000000000e+00" cType="1" res="-3.9832079783082008e-03" rms="3.8348799943923950e-01" purity="5.4044157266616821e-01" nType="-99"/>
            <Node pos="r" depth="3" NCoef="0" IVar="-1" Cut="0.0000000000000000e+00" cType="1" res="-1.9296359270811081e-02" rms="3.8407123088836670e-01" purity="4.8116779327392578e-01" nType="-99"/>
          </Node>
          <Node pos="r" depth="2" NCoef="0" IVar="9" Cut="4.0039914846420288e-01" cType="1" res="1.2933338060975075e-02" rms="3.8936847448348999e-01" purity="3.6573404073715210e-01" nType="0">
            <Node pos="l" depth="3" NCoef="0" IVar="-1" Cut="0.0000000000000000e+00" cType="1" res="-1.4095628866925836e-03" rms="3.8513809442520142e-01" purity="3.7552872300148010e-01" nType="-99"/>
            <Node pos="r" depth="3" NCoef="0" IVar="-1" Cut="0.0000000000000000e+00" cType="1" res="2.1742317825555801e-02" rms="3.9384731650352478e-01" purity="3.5328051447868347e-01" nType="-99"/>
          </Node>
        </Node>
        <Node pos="r" depth="1" NCoef="0" IVar="4" Cut="9.2140731811523438e+01" cType="1" res="3.9692930877208710e-03" rms="3.8437741994857788e-01" purity="4.5299151539802551e-01" nType="0">
          <Node pos="l" depth="2" NCoef="0" IVar="6" Cut="6.8487638235092163e-01" cType="1" res="2.1585250273346901e-02" rms="3.5795649886131287e-01" purity="2.2643318772315979e-01" nType="0">
            <Node pos="l" depth="3" NCoef="0" IVar="-1" Cut="0.0000000000000000e+00" cType="1" res="2.3105639964342117e-02" rms="3.8305410742759705e-01" purity="2.7635839581489563e-01" nType="-99"/>
            <Node pos="r" depth="3" NCoef="0" IVar="-1" Cut="0.0000000000000000e+00" cType="1" res="-6.9310823455452919e-03" rms="2.8792306780815125e-01" purity="1.0789037495851517e-01" nType="-99"/>
          </Node>
          <Node pos="r" depth="2" NCoef="0" IVar="4" Cut="1.3215623474121094e+02" cType="1" res="-2.8510899282991886e-03" rms="3.9391997456550598e-01" purity="5.4070830345153809e-01" nType="0">
            <Node pos="l" depth="3" NCoef="0" IVar="-1" Cut="0.0000000000000000e+00" cType="1" res="-7.5122183188796043e-03" rms="4.0246570110321045e-01" purity="3.7323698401451111e-01" nType="-99"/>
            <Node pos="r" depth="3" NCoef="0" IVar="-1" Cut="0.0000000000000000e+00" cType="1" res="2.1434596274048090e-03" rms="3.8817381858825684e-01" purity="6.4900213479995728e-01" nType="-99"/>
          </Node>
        </Node>
      </Node>
    </BinaryTree>
    <BinaryTree type="DecisionTree" boostWeight="1.0000000000000000e+00" itree="641">
      <Node pos="s" depth="0" NCoef="0" IVar="5" Cut="7.8846466064453125e+01" cType="1" res="1.5603578649461269e-03" rms="3.8565865159034729e-01" purity="5.0068897008895874e-01" nType="0">
        <Node pos="l" depth="1" NCoef="0" IVar="6" Cut="-6.5957444906234741e-01" cType="1" res="7.1179666556417942e-03" rms="3.8672259449958801e-01" purity="3.2746627926826477e-01" nType="0">
          <Node pos="l" depth="2" NCoef="0" IVar="0" Cut="4.1629656982421875e+02" cType="1" res="-5.1644975319504738e-03" rms="3.6363908648490906e-01" purity="2.3041595518589020e-01" nType="0">
            <Node pos="l" depth="3" NCoef="0" IVar="-1" Cut="0.0000000000000000e+00" cType="1" res="3.1485827639698982e-03" rms="3.2979512214660645e-01" purity="1.5587225556373596e-01" nType="-99"/>
            <Node pos="r" depth="3" NCoef="0" IVar="-1" Cut="0.0000000000000000e+00" cType="1" res="-1.1468090116977692e-02" rms="4.1538229584693909e-01" purity="3.5954356193542480e-01" nType="-99"/>
          </Node>
          <Node pos="r" depth="2" NCoef="0" IVar="5" Cut="7.1978019714355469e+01" cType="1" res="1.1449730023741722e-02" rms="3.9445042610168457e-01" purity="3.6169385910034180e-01" nType="0">
            <Node pos="l" depth="3" NCoef="0" IVar="-1" Cut="0.0000000000000000e+00" cType="1" res="5.1957084797322750e-03" rms="3.8878211379051208e-01" purity="3.3037528395652771e-01" nType="-99"/>
            <Node pos="r" depth="3" NCoef="0" IVar="-1" Cut="0.0000000000000000e+00" cType="1" res="1.4644109643995762e-02" rms="4.1754591464996338e-01" purity="4.9588614702224731e-01" nType="-99"/>
          </Node>
        </Node>
        <Node pos="r" depth="1" NCoef="0" IVar="7" Cut="3.9985045790672302e-01" cType="1" res="-3.3973988611251116e-03" rms="3.8463932275772095e-01" purity="6.5521514415740967e-01" nType="0">
          <Node pos="l" depth="2" NCoef="0" IVar="7" Cut="-9.7146433591842651e-01" cType="1" res="4.4977088691666722e-04" rms="3.8213008642196655e-01" purity="6.7907494306564331e-01" nType="0">
            <Node pos="l" depth="3" NCoef="0" IVar="-1" Cut="0.0000000000000000e+00" cType="1" res="-8.5191689431667328e-03" rms="4.0132278203964233e-01" purity="5.0546139478683472e-01" nType="-99"/>
            <Node pos="r" depth="3" NCoef="0" IVar="-1" Cut="0.0000000000000000e+00" cType="1" res="3.6080833524465561e-03" rms="3.7540170550346375e-01" purity="7.3691570758819580e-01" nType="-99"/>
          </Node>
          <Node pos="r" depth="2" NCoef="0" IVar="6" Cut="-6.3073885440826416e-01" cType="1" res="-1.1013213545084000e-02" rms="3.8944679498672485e-01" purity="6.0798251628875732e-01" nType="0">
            <Node pos="l" depth="3" NCoef="0" IVar="-1" Cut="0.0000000000000000e+00" cType="1" res="-2.3851986974477768e-02" rms="3.9586558938026428e-01" purity="4.4128751754760742e-01" nType="-99"/>
            <Node pos="r" depth="3" NCoef="0" IVar="-1" Cut="0.0000000000000000e+00" cType="1" res="-2.7637318708002567e-03" rms="3.8749036192893982e-01" purity="6.5044546127319336e-01" nType="-99"/>
          </Node>
        </Node>
      </Node>
    </BinaryTree>
    <BinaryTree type="DecisionTree" boostWeight="1.0000000000000000e+00" itree="642">
      <Node pos="s" depth="0" NCoef="0" IVar="2" Cut="4.7358276367187500e+02" cType="1" res="1.0078264167532325e-03" rms="3.8346925377845764e-01" purity="5.0084322690963745e-01" nType="0">
        <Node pos="l" depth="1" NCoef="0" IVar="7" Cut="-1.4665633440017700e+00" cType="1" res="-2.4024008307605982e-03" rms="3.8231590390205383e-01" purity="4.8380324244499207e-01" nType="0">
          <Node pos="l" depth="2" NCoef="0" IVar="4" Cut="1.0658500671386719e+02" cType="1" res="1.7129587009549141e-02" rms="3.4618401527404785e-01" purity="2.6538538932800293e-01" nType="0">
            <Node pos="l" depth="3" NCoef="0" IVar="-1" Cut="0.0000000000000000e+00" cType="1" res="-1.2115099234506488e-03" rms="2.9632657766342163e-01" purity="1.2277764081954956e-01" nType="-99"/>
            <Node pos="r" depth="3" NCoef="0" IVar="-1" Cut="0.0000000000000000e+00" cType="1" res="2.2551016882061958e-02" rms="3.8667759299278259e-01" purity="4.0021353960037231e-01" nType="-99"/>
          </Node>
          <Node pos="r" depth="2" NCoef="0" IVar="1" Cut="1.1965240478515625e+03" cType="1" res="-4.5203911140561104e-03" rms="3.8597136735916138e-01" purity="5.0748777389526367e-01" nType="0">
            <Node pos="l" depth="3" NCoef="0" IVar="-1" Cut="0.0000000000000000e+00" cType="1" res="-7.2222193703055382e-03" rms="3.9768651127815247e-01" purity="2.9205110669136047e-01" nType="-99"/>
            <Node pos="r" depth="3" NCoef="0" IVar="-1" Cut="0.0000000000000000e+00" cType="1" res="2.1772235631942749e-03" rms="3.7302449345588684e-01" purity="7.3547166585922241e-01" nType="-99"/>
          </Node>
        </Node>
        <Node pos="r" depth="1" NCoef="0" IVar="9" Cut="3.9994007349014282e-01" cType="1" res="1.3889953494071960e-02" rms="3.8752439618110657e-01" purity="5.6521189212799072e-01" nType="0">
          <Node pos="l" depth="2" NCoef="0" IVar="8" Cut="-9.3345260620117188e-01" cType="1" res="2.1712839603424072e-02" rms="3.9185503125190735e-01" purity="5.8731359243392944e-01" nType="0">
            <Node pos="l" depth="3" NCoef="0" IVar="-1" Cut="0.0000000000000000e+00" cType="1" res="3.3114816993474960e-02" rms="4.1032177209854126e-01" purity="5.0779443979263306e-01" nType="-99"/>
            <Node pos="r" depth="3" NCoef="0" IVar="-1" Cut="0.0000000000000000e+00" cType="1" res="8.7762894108891487e-03" rms="3.8586536049842834e-01" purity="6.1055690050125122e-01" nType="-99"/>
          </Node>
          <Node pos="r" depth="2" NCoef="0" IVar="7" Cut="1.3332250714302063e-01" cType="1" res="-1.2404947483446449e-04" rms="3.7923967838287354e-01" purity="5.2561861276626587e-01" nType="0">
            <Node pos="l" depth="3" NCoef="0" IVar="-1" Cut="0.0000000000000000e+00" cType="1" res="7.1737947873771191e-03" rms="3.7587720155715942e-01" purity="5.7367283105850220e-01" nType="-99"/>
            <Node pos="r" depth="3" NCoef="0" IVar="-1" Cut="0.0000000000000000e+00" cType="1" res="-8.3762733265757561e-03" rms="3.8268113136291504e-01" purity="4.7040551900863647e-01" nType="-99"/>
          </Node>
        </Node>
      </Node>
    </BinaryTree>
    <BinaryTree type="DecisionTree" boostWeight="1.0000000000000000e+00" itree="643">
      <Node pos="s" depth="0" NCoef="0" IVar="7" Cut="-1.3338731229305267e-01" cType="1" res="2.9595443047583103e-03" rms="3.8499462604522705e-01" purity="5.0408387184143066e-01" nType="0">
        <Node pos="l" depth="1" NCoef="0" IVar="9" Cut="1.7333260774612427e+00" cType="1" res="-3.3663886133581400e-03" rms="3.8388779759407043e-01" purity="4.8490071296691895e-01" nType="0">
          <Node pos="l" depth="2" NCoef="0" IVar="8" Cut="-9.3336319923400879e-01" cType="1" res="-5.3910957649350166e-03" rms="3.8311511278152466e-01" purity="4.9406349658966064e-01" nType="0">
            <Node pos="l" depth="3" NCoef="0" IVar="-1" Cut="0.0000000000000000e+00" cType="1" res="5.3691104985773563e-03" rms="3.7494507431983948e-01" purity="4.0613126754760742e-01" nType="-99"/>
            <Node pos="r" depth="3" NCoef="0" IVar="-1" Cut="0.0000000000000000e+00" cType="1" res="-6.4362306147813797e-03" rms="3.8573887944221497e-01" purity="5.2379935979843140e-01" nType="-99"/>
          </Node>
          <Node pos="r" depth="2" NCoef="0" IVar="-1" Cut="0.0000000000000000e+00" cType="1" res="1.5066764317452908e-02" rms="3.9263975620269775e-01" purity="3.6886078119277954e-01" nType="-99"/>
        </Node>
        <Node pos="r" depth="1" NCoef="0" IVar="6" Cut="-1.1821110248565674e+00" cType="1" res="8.1140287220478058e-03" rms="3.8581746816635132e-01" purity="5.1971465349197388e-01" nType="0">
          <Node pos="l" depth="2" NCoef="0" IVar="5" Cut="7.7221641540527344e+01" cType="1" res="3.2702621072530746e-02" rms="3.7023285031318665e-01" purity="3.0147036910057068e-01" nType="0">
            <Node pos="l" depth="3" NCoef="0" IVar="-1" Cut="0.0000000000000000e+00" cType="1" res="8.1769367679953575e-03" rms="3.3543780446052551e-01" purity="1.7318266630172729e-01" nType="-99"/>
            <Node pos="r" depth="3" NCoef="0" IVar="-1" Cut="0.0000000000000000e+00" cType="1" res="3.6154810339212418e-02" rms="4.0283307433128357e-01" purity="4.3979996442794800e-01" nType="-99"/>
          </Node>
          <Node pos="r" depth="2" NCoef="0" IVar="6" Cut="1.4722927808761597e+00" cType="1" res="5.3412257693707943e-03" rms="3.8743770122528076e-01" purity="5.4432559013366699e-01" nType="0">
            <Node pos="l" depth="3" NCoef="0" IVar="-1" Cut="0.0000000000000000e+00" cType="1" res="2.0969524048268795e-03" rms="3.9007759094238281e-01" purity="5.7116061449050903e-01" nType="-99"/>
            <Node pos="r" depth="3" NCoef="0" IVar="-1" Cut="0.0000000000000000e+00" cType="1" res="2.8584184125065804e-02" rms="3.5342240333557129e-01" purity="2.2388380765914917e-01" nType="-99"/>
          </Node>
        </Node>
      </Node>
    </BinaryTree>
    <BinaryTree type="DecisionTree" boostWeight="1.0000000000000000e+00" itree="644">
      <Node pos="s" depth="0" NCoef="0" IVar="0" Cut="4.5299719238281250e+02" cType="1" res="-6.4518570434302092e-04" rms="3.8612958788871765e-01" purity="4.9883747100830078e-01" nType="0">
        <Node pos="l" depth="1" NCoef="0" IVar="9" Cut="-1.9999636411666870e+00" cType="1" res="2.7205352671444416e-03" rms="3.9390179514884949e-01" purity="3.6736699938774109e-01" nType="0">
          <Node pos="l" depth="2" NCoef="0" IVar="-1" Cut="0.0000000000000000e+00" cType="1" res="2.0354310050606728e-02" rms="3.7321656942367554e-01" purity="2.7468731999397278e-01" nType="-99"/>
          <Node pos="r" depth="2" NCoef="0" IVar="8" Cut="-1.4663677215576172e+00" cType="1" res="1.1772818397730589e-03" rms="3.9514994621276855e-01" purity="3.7334877252578735e-01" nType="0">
            <Node pos="l" depth="3" NCoef="0" IVar="-1" Cut="0.0000000000000000e+00" cType="1" res="-1.7303377389907837e-02" rms="3.3928874135017395e-01" purity="2.0209015905857086e-01" nType="-99"/>
            <Node pos="r" depth="3" NCoef="0" IVar="-1" Cut="0.0000000000000000e+00" cType="1" res="2.5036898441612720e-03" rms="4.0137058496475220e-01" purity="3.9434039592742920e-01" nType="-99"/>
          </Node>
        </Node>
        <Node pos="r" depth="1" NCoef="0" IVar="4" Cut="2.3261651611328125e+02" cType="1" res="-5.9812441468238831e-03" rms="3.7341392040252686e-01" purity="7.0727258920669556e-01" nType="0">
          <Node pos="l" depth="2" NCoef="0" IVar="6" Cut="-1.1568039655685425e+00" cType="1" res="-8.8184243068099022e-03" rms="3.8311895728111267e-01" purity="6.8143177032470703e-01" nType="0">
            <Node pos="l" depth="3" NCoef="0" IVar="-1" Cut="0.0000000000000000e+00" cType="1" res="-1.5045032836496830e-02" rms="3.9459231495857239e-01" purity="4.5593640208244324e-01" nType="-99"/>
            <Node pos="r" depth="3" NCoef="0" IVar="-1" Cut="0.0000000000000000e+00" cType="1" res="-5.0274315290153027e-03" rms="3.8200876116752625e-01" purity="7.0215845108032227e-01" nType="-99"/>
          </Node>
          <Node pos="r" depth="2" NCoef="0" IVar="6" Cut="-8.6622126400470734e-02" cType="1" res="1.2660648673772812e-02" rms="3.0132263898849487e-01" purity="8.7706130743026733e-01" nType="0">
            <Node pos="l" depth="3" NCoef="0" IVar="-1" Cut="0.0000000000000000e+00" cType="1" res="2.4292109534144402e-02" rms="2.9854974150657654e-01" purity="8.8326990604400635e-01" nType="-99"/>
            <Node pos="r" depth="3" NCoef="0" IVar="-1" Cut="0.0000000000000000e+00" cType="1" res="1.6512201400473714e-03" rms="3.0368125438690186e-01" purity="8.7080633640289307e-01" nType="-99"/>
          </Node>
        </Node>
      </Node>
    </BinaryTree>
    <BinaryTree type="DecisionTree" boostWeight="1.0000000000000000e+00" itree="645">
      <Node pos="s" depth="0" NCoef="0" IVar="2" Cut="3.5189852905273438e+02" cType="1" res="5.0397193990647793e-04" rms="3.8478112220764160e-01" purity="4.9940010905265808e-01" nType="0">
        <Node pos="l" depth="1" NCoef="0" IVar="8" Cut="-1.1999884843826294e+00" cType="1" res="4.8072175122797489e-03" rms="3.9207285642623901e-01" purity="4.6868661046028137e-01" nType="0">
          <Node pos="l" depth="2" NCoef="0" IVar="2" Cut="2.7956610107421875e+02" cType="1" res="-1.2867994606494904e-02" rms="3.6044025421142578e-01" purity="3.1350028514862061e-01" nType="0">
            <Node pos="l" depth="3" NCoef="0" IVar="-1" Cut="0.0000000000000000e+00" cType="1" res="-5.5575335863977671e-05" rms="3.6823734641075134e-01" purity="3.0757811665534973e-01" nType="-99"/>
            <Node pos="r" depth="3" NCoef="0" IVar="-1" Cut="0.0000000000000000e+00" cType="1" res="-2.2132620215415955e-02" rms="3.4952187538146973e-01" purity="3.2108238339424133e-01" nType="-99"/>
          </Node>
          <Node pos="r" depth="2" NCoef="0" IVar="3" Cut="2.2254257202148438e+02" cType="1" res="8.0921771004796028e-03" rms="3.9758804440498352e-01" purity="4.9752819538116455e-01" nType="0">
            <Node pos="l" depth="3" NCoef="0" IVar="-1" Cut="0.0000000000000000e+00" cType="1" res="7.4379299767315388e-03" rms="4.0663111209869385e-01" purity="4.2799830436706543e-01" nType="-99"/>
            <Node pos="r" depth="3" NCoef="0" IVar="-1" Cut="0.0000000000000000e+00" cType="1" res="-2.5986402761191130e-03" rms="3.7033516168594360e-01" purity="6.9584465026855469e-01" nType="-99"/>
          </Node>
        </Node>
        <Node pos="r" depth="1" NCoef="0" IVar="0" Cut="7.5898583984375000e+02" cType="1" res="-4.3530301190912724e-03" rms="3.7632229924201965e-01" purity="5.3406590223312378e-01" nType="0">
          <Node pos="l" depth="2" NCoef="0" IVar="5" Cut="1.6455276489257812e+02" cType="1" res="-3.0483996961265802e-03" rms="3.7716662883758545e-01" purity="5.1420670747756958e-01" nType="0">
            <Node pos="l" depth="3" NCoef="0" IVar="-1" Cut="0.0000000000000000e+00" cType="1" res="-6.9038261426612735e-04" rms="3.8138827681541443e-01" purity="4.8580795526504517e-01" nType="-99"/>
            <Node pos="r" depth="3" NCoef="0" IVar="-1" Cut="0.0000000000000000e+00" cType="1" res="-2.5783337652683258e-02" rms="3.2667931914329529e-01" purity="8.2467329502105713e-01" nType="-99"/>
          </Node>
          <Node pos="r" depth="2" NCoef="0" IVar="-1" Cut="0.0000000000000000e+00" cType="1" res="-1.5962753444910049e-02" rms="3.6566454172134399e-01" purity="7.7260845899581909e-01" nType="-99"/>
        </Node>
      </Node>
    </BinaryTree>
    <BinaryTree type="DecisionTree" boostWeight="1.0000000000000000e+00" itree="646">
      <Node pos="s" depth="0" NCoef="0" IVar="7" Cut="-1.1999247074127197e+00" cType="1" res="-2.6518211234360933e-03" rms="3.8537836074829102e-01" purity="4.9527755379676819e-01" nType="0">
        <Node pos="l" depth="1" NCoef="0" IVar="2" Cut="4.5040298461914062e+02" cType="1" res="1.6290573403239250e-02" rms="3.7644502520561218e-01" purity="3.2021859288215637e-01" nType="0">
          <Node pos="l" depth="2" NCoef="0" IVar="0" Cut="4.4694848632812500e+02" cType="1" res="2.2480702027678490e-02" rms="3.7395495176315308e-01" purity="3.1797763705253601e-01" nType="0">
            <Node pos="l" depth="3" NCoef="0" IVar="-1" Cut="0.0000000000000000e+00" cType="1" res="1.1852520518004894e-02" rms="3.5451552271842957e-01" purity="2.2440461814403534e-01" nType="-99"/>
            <Node pos="r" depth="3" NCoef="0" IVar="-1" Cut="0.0000000000000000e+00" cType="1" res="2.6376161724328995e-02" rms="4.2219203710556030e-01" purity="5.7596844434738159e-01" nType="-99"/>
          </Node>
          <Node pos="r" depth="2" NCoef="0" IVar="-1" Cut="0.0000000000000000e+00" cType="1" res="-7.3126829229295254e-03" rms="3.8586029410362244e-01" purity="3.2987827062606812e-01" nType="-99"/>
        </Node>
        <Node pos="r" depth="1" NCoef="0" IVar="7" Cut="1.2762043476104736e+00" cType="1" res="-5.6958310306072235e-03" rms="3.8670817017555237e-01" purity="5.2340924739837646e-01" nType="0">
          <Node pos="l" depth="2" NCoef="0" IVar="6" Cut="9.4786041975021362e-01" cType="1" res="-7.7647343277931213e-03" rms="3.9140379428863525e-01" purity="5.6086570024490356e-01" nType="0">
            <Node pos="l" depth="3" NCoef="0" IVar="-1" Cut="0.0000000000000000e+00" cType="1" res="-6.8106940016150475e-03" rms="3.9245215058326721e-01" purity="5.9432983398437500e-01" nType="-99"/>
            <Node pos="r" depth="3" NCoef="0" IVar="-1" Cut="0.0000000000000000e+00" cType="1" res="5.1816594786942005e-03" rms="3.8526690006256104e-01" purity="3.7832093238830566e-01" nType="-99"/>
          </Node>
          <Node pos="r" depth="2" NCoef="0" IVar="9" Cut="9.3317037820816040e-01" cType="1" res="6.7777289077639580e-03" rms="3.5683792829513550e-01" purity="2.9758161306381226e-01" nType="0">
            <Node pos="l" depth="3" NCoef="0" IVar="-1" Cut="0.0000000000000000e+00" cType="1" res="1.2839694507420063e-02" rms="3.7197139859199524e-01" purity="3.4334638714790344e-01" nType="-99"/>
            <Node pos="r" depth="3" NCoef="0" IVar="-1" Cut="0.0000000000000000e+00" cType="1" res="-1.8116245046257973e-02" rms="3.1573805212974548e-01" purity="1.8713285028934479e-01" nType="-99"/>
          </Node>
        </Node>
      </Node>
    </BinaryTree>
    <BinaryTree type="DecisionTree" boostWeight="1.0000000000000000e+00" itree="647">
      <Node pos="s" depth="0" NCoef="0" IVar="8" Cut="2.0000047683715820e+00" cType="1" res="4.1866051033139229e-03" rms="3.8417521119117737e-01" purity="5.0446248054504395e-01" nType="0">
        <Node pos="l" depth="1" NCoef="0" IVar="6" Cut="1.4692428112030029e+00" cType="1" res="5.2739311940968037e-03" rms="3.8575831055641174e-01" purity="5.1672714948654175e-01" nType="0">
          <Node pos="l" depth="2" NCoef="0" IVar="7" Cut="-1.3330353796482086e-01" cType="1" res="6.6896211355924606e-03" rms="3.8963863253593445e-01" purity="5.3881168365478516e-01" nType="0">
            <Node pos="l" depth="3" NCoef="0" IVar="-1" Cut="0.0000000000000000e+00" cType="1" res="7.6153590343892574e-03" rms="3.9231947064399719e-01" purity="5.2668941020965576e-01" nType="-99"/>
            <Node pos="r" depth="3" NCoef="0" IVar="-1" Cut="0.0000000000000000e+00" cType="1" res="1.6147256828844547e-03" rms="3.8732993602752686e-01" purity="5.4895788431167603e-01" nType="-99"/>
          </Node>
          <Node pos="r" depth="2" NCoef="0" IVar="4" Cut="1.2048654174804688e+02" cType="1" res="-1.5106610953807831e-02" rms="3.2411402463912964e-01" purity="1.9879461824893951e-01" nType="0">
            <Node pos="l" depth="3" NCoef="0" IVar="-1" Cut="0.0000000000000000e+00" cType="1" res="-1.5392283676192164e-03" rms="2.9356476664543152e-01" purity="1.3285480439662933e-01" nType="-99"/>
            <Node pos="r" depth="3" NCoef="0" IVar="-1" Cut="0.0000000000000000e+00" cType="1" res="-2.3932507261633873e-02" rms="3.6243027448654175e-01" purity="2.9297533631324768e-01" nType="-99"/>
          </Node>
        </Node>
        <Node pos="r" depth="1" NCoef="0" IVar="-1" Cut="0.0000000000000000e+00" cType="1" res="-1.6223419457674026e-02" rms="3.4492602944374084e-01" purity="2.2305141389369965e-01" nType="-99"/>
      </Node>
    </BinaryTree>
    <BinaryTree type="DecisionTree" boostWeight="1.0000000000000000e+00" itree="648">
      <Node pos="s" depth="0" NCoef="0" IVar="6" Cut="-3.8572266697883606e-01" cType="1" res="1.3250029878690839e-03" rms="3.8377466797828674e-01" purity="5.0088518857955933e-01" nType="0">
        <Node pos="l" depth="1" NCoef="0" IVar="5" Cut="1.3386584472656250e+02" cType="1" res="-7.1844453923404217e-03" rms="3.8330537080764771e-01" purity="4.3316847085952759e-01" nType="0">
          <Node pos="l" depth="2" NCoef="0" IVar="9" Cut="-1.7330509424209595e+00" cType="1" res="-1.1408749036490917e-02" rms="3.8800102472305298e-01" purity="3.7002494931221008e-01" nType="0">
            <Node pos="l" depth="3" NCoef="0" IVar="-1" Cut="0.0000000000000000e+00" cType="1" res="9.3778464943170547e-03" rms="3.6668744683265686e-01" purity="2.9745027422904968e-01" nType="-99"/>
            <Node pos="r" depth="3" NCoef="0" IVar="-1" Cut="0.0000000000000000e+00" cType="1" res="-9.2709576711058617e-03" rms="3.9045122265815735e-01" purity="3.7898579239845276e-01" nType="-99"/>
          </Node>
          <Node pos="r" depth="2" NCoef="0" IVar="-1" Cut="0.0000000000000000e+00" cType="1" res="1.3504466041922569e-02" rms="3.5436499118804932e-01" purity="7.9346084594726562e-01" nType="-99"/>
        </Node>
        <Node pos="r" depth="1" NCoef="0" IVar="3" Cut="1.4608894348144531e+02" cType="1" res="5.6314482353627682e-03" rms="3.8394007086753845e-01" purity="5.3515517711639404e-01" nType="0">
          <Node pos="l" depth="2" NCoef="0" IVar="3" Cut="1.0079566192626953e+02" cType="1" res="1.7156776040792465e-02" rms="3.9002248644828796e-01" purity="2.7368754148483276e-01" nType="0">
            <Node pos="l" depth="3" NCoef="0" IVar="-1" Cut="0.0000000000000000e+00" cType="1" res="-1.4402407221496105e-02" rms="3.1252253055572510e-01" purity="1.2738850712776184e-01" nType="-99"/>
            <Node pos="r" depth="3" NCoef="0" IVar="-1" Cut="0.0000000000000000e+00" cType="1" res="1.8131110817193985e-02" rms="4.1401809453964233e-01" purity="3.2693377137184143e-01" nType="-99"/>
          </Node>
          <Node pos="r" depth="2" NCoef="0" IVar="7" Cut="-1.1998232603073120e+00" cType="1" res="2.0896694622933865e-03" rms="3.8198164105415344e-01" purity="6.1550515890121460e-01" nType="0">
            <Node pos="l" depth="3" NCoef="0" IVar="-1" Cut="0.0000000000000000e+00" cType="1" res="-1.2693775817751884e-02" rms="3.8000831007957458e-01" purity="3.5734239220619202e-01" nType="-99"/>
            <Node pos="r" depth="3" NCoef="0" IVar="-1" Cut="0.0000000000000000e+00" cType="1" res="3.0501084402203560e-03" rms="3.8214299082756042e-01" purity="6.4657258987426758e-01" nType="-99"/>
          </Node>
        </Node>
      </Node>
    </BinaryTree>
    <BinaryTree type="DecisionTree" boostWeight="1.0000000000000000e+00" itree="649">
      <Node pos="s" depth="0" NCoef="0" IVar="9" Cut="6.6666722297668457e-01" cType="1" res="1.7361478239763528e-04" rms="3.8475129008293152e-01" purity="4.9570456147193909e-01" nType="0">
        <Node pos="l" depth="1" NCoef="0" IVar="7" Cut="4.0006175637245178e-01" cType="1" res="2.9656512197107077e-03" rms="3.8688153028488159e-01" purity="5.1553654670715332e-01" nType="0">
          <Node pos="l" depth="2" NCoef="0" IVar="6" Cut="1.4721772670745850e+00" cType="1" res="7.1510598063468933e-03" rms="3.8965785503387451e-01" purity="5.3334289789199829e-01" nType="0">
            <Node pos="l" depth="3" NCoef="0" IVar="-1" Cut="0.0000000000000000e+00" cType="1" res="3.4396850969642401e-03" rms="3.9006412029266357e-01" purity="5.4924106597900391e-01" nType="-99"/>
            <Node pos="r" depth="3" NCoef="0" IVar="-1" Cut="0.0000000000000000e+00" cType="1" res="2.7722744271159172e-02" rms="3.8171964883804321e-01" purity="2.7750056982040405e-01" nType="-99"/>
          </Node>
          <Node pos="r" depth="2" NCoef="0" IVar="0" Cut="5.7809051513671875e+02" cType="1" res="-5.8553335256874561e-03" rms="3.8081339001655579e-01" purity="4.7800871729850769e-01" nType="0">
            <Node pos="l" depth="3" NCoef="0" IVar="-1" Cut="0.0000000000000000e+00" cType="1" res="-7.6126647181808949e-03" rms="3.8727265596389771e-01" purity="4.0600109100341797e-01" nType="-99"/>
            <Node pos="r" depth="3" NCoef="0" IVar="-1" Cut="0.0000000000000000e+00" cType="1" res="1.6684398055076599e-02" rms="3.4871077537536621e-01" purity="8.0509644746780396e-01" nType="-99"/>
          </Node>
        </Node>
        <Node pos="r" depth="1" NCoef="0" IVar="9" Cut="2.1904752254486084e+00" cType="1" res="-6.3730021938681602e-03" rms="3.7962910532951355e-01" purity="4.4920346140861511e-01" nType="0">
          <Node pos="l" depth="2" NCoef="0" IVar="5" Cut="1.2018183135986328e+02" cType="1" res="-1.0997985489666462e-02" rms="3.7934526801109314e-01" purity="4.6021234989166260e-01" nType="0">
            <Node pos="l" depth="3" NCoef="0" IVar="-1" Cut="0.0000000000000000e+00" cType="1" res="-4.3013533577322960e-03" rms="3.8293147087097168e-01" purity="3.9977213740348816e-01" nType="-99"/>
            <Node pos="r" depth="3" NCoef="0" IVar="-1" Cut="0.0000000000000000e+00" cType="1" res="-2.3310581222176552e-02" rms="3.6244770884513855e-01" purity="7.2729325294494629e-01" nType="-99"/>
          </Node>
          <Node pos="r" depth="2" NCoef="0" IVar="-1" Cut="0.0000000000000000e+00" cType="1" res="1.7706878483295441e-02" rms="3.8006204366683960e-01" purity="3.7418693304061890e-01" nType="-99"/>
        </Node>
      </Node>
    </BinaryTree>
    <BinaryTree type="DecisionTree" boostWeight="1.0000000000000000e+00" itree="650">
      <Node pos="s" depth="0" NCoef="0" IVar="6" Cut="9.4163662195205688e-01" cType="1" res="1.1043462436646223e-03" rms="3.8459447026252747e-01" purity="5.0048214197158813e-01" nType="0">
        <Node pos="l" depth="1" NCoef="0" IVar="7" Cut="-1.3328702747821808e-01" cType="1" res="3.0993404798209667e-03" rms="3.8879156112670898e-01" purity="5.3987073898315430e-01" nType="0">
          <Node pos="l" depth="2" NCoef="0" IVar="9" Cut="-1.4666124582290649e+00" cType="1" res="7.6865260489284992e-03" rms="3.8895440101623535e-01" purity="5.3225934505462646e-01" nType="0">
            <Node pos="l" depth="3" NCoef="0" IVar="-1" Cut="0.0000000000000000e+00" cType="1" res="-1.1126316152513027e-02" rms="3.8545641303062439e-01" purity="3.8301429152488708e-01" nType="-99"/>
            <Node pos="r" depth="3" NCoef="0" IVar="-1" Cut="0.0000000000000000e+00" cType="1" res="7.4573433957993984e-03" rms="3.8936620950698853e-01" purity="5.5587452650070190e-01" nType="-99"/>
          </Node>
          <Node pos="r" depth="2" NCoef="0" IVar="7" Cut="8.4447783231735229e-01" cType="1" res="-8.6105300579220057e-04" rms="3.8860738277435303e-01" purity="5.4644209146499634e-01" nType="0">
            <Node pos="l" depth="3" NCoef="0" IVar="-1" Cut="0.0000000000000000e+00" cType="1" res="-3.4443128388375044e-03" rms="3.8951632380485535e-01" purity="6.2489068508148193e-01" nType="-99"/>
            <Node pos="r" depth="3" NCoef="0" IVar="-1" Cut="0.0000000000000000e+00" cType="1" res="4.1086976416409016e-03" rms="3.8705840706825256e-01" purity="4.2221650481224060e-01" nType="-99"/>
          </Node>
        </Node>
        <Node pos="r" depth="1" NCoef="0" IVar="0" Cut="3.9185971069335938e+02" cType="1" res="-9.4133112579584122e-03" rms="3.6148086190223694e-01" purity="2.9282450675964355e-01" nType="0">
          <Node pos="l" depth="2" NCoef="0" IVar="3" Cut="1.6502542114257812e+02" cType="1" res="6.7657330073416233e-03" rms="3.3722594380378723e-01" purity="1.8726524710655212e-01" nType="0">
            <Node pos="l" depth="3" NCoef="0" IVar="-1" Cut="0.0000000000000000e+00" cType="1" res="-1.3453732244670391e-02" rms="2.7829405665397644e-01" purity="9.7039319574832916e-02" nType="-99"/>
            <Node pos="r" depth="3" NCoef="0" IVar="-1" Cut="0.0000000000000000e+00" cType="1" res="1.6035027801990509e-02" rms="3.7917152047157288e-01" purity="2.6327058672904968e-01" nType="-99"/>
          </Node>
          <Node pos="r" depth="2" NCoef="0" IVar="8" Cut="-1.3353727757930756e-01" cType="1" res="-2.7532951906323433e-02" rms="3.8603979349136353e-01" purity="4.1104504466056824e-01" nType="0">
            <Node pos="l" depth="3" NCoef="0" IVar="-1" Cut="0.0000000000000000e+00" cType="1" res="-3.0739052221179008e-02" rms="3.7700110673904419e-01" purity="4.0186929702758789e-01" nType="-99"/>
            <Node pos="r" depth="3" NCoef="0" IVar="-1" Cut="0.0000000000000000e+00" cType="1" res="-1.0097101330757141e-02" rms="3.9109385013580322e-01" purity="4.1678109765052795e-01" nType="-99"/>
          </Node>
        </Node>
      </Node>
    </BinaryTree>
    <BinaryTree type="DecisionTree" boostWeight="1.0000000000000000e+00" itree="651">
      <Node pos="s" depth="0" NCoef="0" IVar="6" Cut="1.7380012273788452e+00" cType="1" res="3.6250462289899588e-03" rms="3.8635694980621338e-01" purity="5.0280624628067017e-01" nType="0">
        <Node pos="l" depth="1" NCoef="0" IVar="9" Cut="6.6666281223297119e-01" cType="1" res="4.8528187908232212e-03" rms="3.8957893848419189e-01" purity="5.1739007234573364e-01" nType="0">
          <Node pos="l" depth="2" NCoef="0" IVar="6" Cut="1.3082170486450195e+00" cType="1" res="8.2999235019087791e-04" rms="3.8959163427352905e-01" purity="5.2646428346633911e-01" nType="0">
            <Node pos="l" depth="3" NCoef="0" IVar="-1" Cut="0.0000000000000000e+00" cType="1" res="1.3998249778524041e-03" rms="3.9110288023948669e-01" purity="5.3796815872192383e-01" nType="-99"/>
            <Node pos="r" depth="3" NCoef="0" IVar="-1" Cut="0.0000000000000000e+00" cType="1" res="-2.0637022331357002e-02" rms="3.5368120670318604e-01" purity="2.7460885047912598e-01" nType="-99"/>
          </Node>
          <Node pos="r" depth="2" NCoef="0" IVar="9" Cut="8.6986255645751953e-01" cType="1" res="1.3990306295454502e-02" rms="3.8939568400382996e-01" purity="4.9677881598472595e-01" nType="0">
            <Node pos="l" depth="3" NCoef="0" IVar="-1" Cut="0.0000000000000000e+00" cType="1" res="-3.9351023733615875e-03" rms="3.9028516411781311e-01" purity="5.7216370105743408e-01" nType="-99"/>
            <Node pos="r" depth="3" NCoef="0" IVar="-1" Cut="0.0000000000000000e+00" cType="1" res="1.1813227087259293e-02" rms="3.8908630609512329e-01" purity="4.8137509822845459e-01" nType="-99"/>
          </Node>
        </Node>
        <Node pos="r" depth="1" NCoef="0" IVar="-1" Cut="0.0000000000000000e+00" cType="1" res="-2.5086626410484314e-02" rms="2.9566991329193115e-01" purity="1.4743919670581818e-01" nType="-99"/>
      </Node>
    </BinaryTree>
    <BinaryTree type="DecisionTree" boostWeight="1.0000000000000000e+00" itree="652">
      <Node pos="s" depth="0" NCoef="0" IVar="6" Cut="4.1066208481788635e-01" cType="1" res="-2.0748072711285204e-04" rms="3.8502991199493408e-01" purity="4.9972775578498840e-01" nType="0">
        <Node pos="l" depth="1" NCoef="0" IVar="0" Cut="5.5700878906250000e+02" cType="1" res="3.5227152984589338e-03" rms="3.8915523886680603e-01" purity="5.3792822360992432e-01" nType="0">
          <Node pos="l" depth="2" NCoef="0" IVar="4" Cut="9.9202049255371094e+01" cType="1" res="6.1561670154333115e-03" rms="3.9921912550926208e-01" purity="4.7106227278709412e-01" nType="0">
            <Node pos="l" depth="3" NCoef="0" IVar="-1" Cut="0.0000000000000000e+00" cType="1" res="-2.6060480158776045e-03" rms="3.7650930881500244e-01" purity="2.3333540558815002e-01" nType="-99"/>
            <Node pos="r" depth="3" NCoef="0" IVar="-1" Cut="0.0000000000000000e+00" cType="1" res="6.5363952890038490e-03" rms="4.0987691283226013e-01" purity="5.8840024471282959e-01" nType="-99"/>
          </Node>
          <Node pos="r" depth="2" NCoef="0" IVar="4" Cut="1.0575643920898438e+02" cType="1" res="-6.7014941014349461e-03" rms="3.4714064002037048e-01" purity="7.9753112792968750e-01" nType="0">
            <Node pos="l" depth="3" NCoef="0" IVar="-1" Cut="0.0000000000000000e+00" cType="1" res="-1.7775835469365120e-02" rms="4.5066630840301514e-01" purity="5.3318691253662109e-01" nType="-99"/>
            <Node pos="r" depth="3" NCoef="0" IVar="-1" Cut="0.0000000000000000e+00" cType="1" res="-3.8191600469872355e-04" rms="3.1900891661643982e-01" purity="8.5681229829788208e-01" nType="-99"/>
          </Node>
        </Node>
        <Node pos="r" depth="1" NCoef="0" IVar="2" Cut="5.5309814453125000e+02" cType="1" res="-7.9626161605119705e-03" rms="3.7619024515151978e-01" purity="4.2030847072601318e-01" nType="0">
          <Node pos="l" depth="2" NCoef="0" IVar="2" Cut="2.5044479370117188e+02" cType="1" res="-4.8943688161671162e-03" rms="3.7497353553771973e-01" purity="4.1946977376937866e-01" nType="0">
            <Node pos="l" depth="3" NCoef="0" IVar="-1" Cut="0.0000000000000000e+00" cType="1" res="-1.6419725492596626e-02" rms="3.7950068712234497e-01" purity="3.3318054676055908e-01" nType="-99"/>
            <Node pos="r" depth="3" NCoef="0" IVar="-1" Cut="0.0000000000000000e+00" cType="1" res="-3.6264751543058082e-05" rms="3.7373068928718567e-01" purity="4.3987980484962463e-01" nType="-99"/>
          </Node>
          <Node pos="r" depth="2" NCoef="0" IVar="-1" Cut="0.0000000000000000e+00" cType="1" res="-2.4354854598641396e-02" rms="3.8632032275199890e-01" purity="4.2825353145599365e-01" nType="-99"/>
        </Node>
      </Node>
    </BinaryTree>
    <BinaryTree type="DecisionTree" boostWeight="1.0000000000000000e+00" itree="653">
      <Node pos="s" depth="0" NCoef="0" IVar="6" Cut="4.0428185462951660e-01" cType="1" res="-4.5225005596876144e-03" rms="3.8341143727302551e-01" purity="4.9284115433692932e-01" nType="0">
        <Node pos="l" depth="1" NCoef="0" IVar="9" Cut="-6.6666543483734131e-01" cType="1" res="-8.2290284335613251e-03" rms="3.8397866487503052e-01" purity="5.2652770280838013e-01" nType="0">
          <Node pos="l" depth="2" NCoef="0" IVar="5" Cut="8.1792343139648438e+01" cType="1" res="-1.7508016899228096e-02" rms="3.7590941786766052e-01" purity="4.6601271629333496e-01" nType="0">
            <Node pos="l" depth="3" NCoef="0" IVar="-1" Cut="0.0000000000000000e+00" cType="1" res="-1.8395014107227325e-02" rms="3.7103393673896790e-01" purity="2.9902094602584839e-01" nType="-99"/>
            <Node pos="r" depth="3" NCoef="0" IVar="-1" Cut="0.0000000000000000e+00" cType="1" res="-4.2023016139864922e-03" rms="3.8105034828186035e-01" purity="6.5559393167495728e-01" nType="-99"/>
          </Node>
          <Node pos="r" depth="2" NCoef="0" IVar="7" Cut="1.4663993120193481e+00" cType="1" res="-3.9098015986382961e-03" rms="3.8760173320770264e-01" purity="5.5469655990600586e-01" nType="0">
            <Node pos="l" depth="3" NCoef="0" IVar="-1" Cut="0.0000000000000000e+00" cType="1" res="-9.8005274776369333e-04" rms="3.9067840576171875e-01" purity="5.8290493488311768e-01" nType="-99"/>
            <Node pos="r" depth="3" NCoef="0" IVar="-1" Cut="0.0000000000000000e+00" cType="1" res="-2.1973710507154465e-02" rms="3.5235425829887390e-01" purity="2.5575363636016846e-01" nType="-99"/>
          </Node>
        </Node>
        <Node pos="r" depth="1" NCoef="0" IVar="8" Cut="1.3324102759361267e-01" cType="1" res="2.8613994363695383e-03" rms="3.8217180967330933e-01" purity="4.2573302984237671e-01" nType="0">
          <Node pos="l" depth="2" NCoef="0" IVar="4" Cut="1.3407897949218750e+02" cType="1" res="1.1804983019828796e-02" rms="3.8789179921150208e-01" purity="4.5864766836166382e-01" nType="0">
            <Node pos="l" depth="3" NCoef="0" IVar="-1" Cut="0.0000000000000000e+00" cType="1" res="1.7828086391091347e-02" rms="3.8988226652145386e-01" purity="3.2775032520294189e-01" nType="-99"/>
            <Node pos="r" depth="3" NCoef="0" IVar="-1" Cut="0.0000000000000000e+00" cType="1" res="-5.4567926563322544e-03" rms="3.8428780436515808e-01" purity="6.3623732328414917e-01" nType="-99"/>
          </Node>
          <Node pos="r" depth="2" NCoef="0" IVar="7" Cut="-9.3325525522232056e-01" cType="1" res="-6.0282405465841293e-03" rms="3.7618952989578247e-01" purity="3.9301690459251404e-01" nType="0">
            <Node pos="l" depth="3" NCoef="0" IVar="-1" Cut="0.0000000000000000e+00" cType="1" res="1.5806201845407486e-02" rms="3.8643670082092285e-01" purity="2.6007235050201416e-01" nType="-99"/>
            <Node pos="r" depth="3" NCoef="0" IVar="-1" Cut="0.0000000000000000e+00" cType="1" res="-7.6649566181004047e-03" rms="3.7396746873855591e-01" purity="4.1866073012351990e-01" nType="-99"/>
          </Node>
        </Node>
      </Node>
    </BinaryTree>
    <BinaryTree type="DecisionTree" boostWeight="1.0000000000000000e+00" itree="654">
      <Node pos="s" depth="0" NCoef="0" IVar="7" Cut="-1.7331869602203369e+00" cType="1" res="8.5139856673777103e-04" rms="3.8206762075424194e-01" purity="5.0276070833206177e-01" nType="0">
        <Node pos="l" depth="1" NCoef="0" IVar="6" Cut="-1.0449216514825821e-01" cType="1" res="-2.8318881988525391e-02" rms="3.0956593155860901e-01" purity="1.9170556962490082e-01" nType="0">
          <Node pos="l" depth="2" NCoef="0" IVar="-1" Cut="0.0000000000000000e+00" cType="1" res="-7.0819160901010036e-03" rms="3.2168954610824585e-01" purity="2.2085168957710266e-01" nType="-99"/>
          <Node pos="r" depth="2" NCoef="0" IVar="-1" Cut="0.0000000000000000e+00" cType="1" res="-4.2094152420759201e-02" rms="2.9576462507247925e-01" purity="1.6295909881591797e-01" nType="-99"/>
        </Node>
        <Node pos="r" depth="1" NCoef="0" IVar="7" Cut="-6.2690405175089836e-03" cType="1" res="2.6231049560010433e-03" rms="3.8596174120903015e-01" purity="5.2165317535400391e-01" nType="0">
          <Node pos="l" depth="2" NCoef="0" IVar="6" Cut="4.0430489182472229e-01" cType="1" res="-2.1619405597448349e-03" rms="3.9189356565475464e-01" purity="5.3652697801589966e-01" nType="0">
            <Node pos="l" depth="3" NCoef="0" IVar="-1" Cut="0.0000000000000000e+00" cType="1" res="-4.8386449925601482e-03" rms="3.9305055141448975e-01" purity="5.6009787321090698e-01" nType="-99"/>
            <Node pos="r" depth="3" NCoef="0" IVar="-1" Cut="0.0000000000000000e+00" cType="1" res="6.4580221660435200e-03" rms="3.8896048069000244e-01" purity="4.8257601261138916e-01" nType="-99"/>
          </Node>
          <Node pos="r" depth="2" NCoef="0" IVar="8" Cut="4.0006488561630249e-01" cType="1" res="6.7449868656694889e-03" rms="3.8072973489761353e-01" purity="5.0884068012237549e-01" nType="0">
            <Node pos="l" depth="3" NCoef="0" IVar="-1" Cut="0.0000000000000000e+00" cType="1" res="8.0919219180941582e-03" rms="3.8259273767471313e-01" purity="5.4571449756622314e-01" nType="-99"/>
            <Node pos="r" depth="3" NCoef="0" IVar="-1" Cut="0.0000000000000000e+00" cType="1" res="-1.0578370420262218e-03" rms="3.7773287296295166e-01" purity="4.5284989476203918e-01" nType="-99"/>
          </Node>
        </Node>
      </Node>
    </BinaryTree>
    <BinaryTree type="DecisionTree" boostWeight="1.0000000000000000e+00" itree="655">
      <Node pos="s" depth="0" NCoef="0" IVar="8" Cut="-1.2000005245208740e+00" cType="1" res="2.5106030516326427e-03" rms="3.8589265942573547e-01" purity="5.0004327297210693e-01" nType="0">
        <Node pos="l" depth="1" NCoef="0" IVar="8" Cut="-1.3523930311203003e+00" cType="1" res="1.5491202473640442e-02" rms="3.8005259633064270e-01" purity="3.7558716535568237e-01" nType="0">
          <Node pos="l" depth="2" NCoef="0" IVar="7" Cut="-9.3403220176696777e-01" cType="1" res="7.3922323063015938e-03" rms="3.7689745426177979e-01" purity="3.3488166332244873e-01" nType="0">
            <Node pos="l" depth="3" NCoef="0" IVar="-1" Cut="0.0000000000000000e+00" cType="1" res="-1.7270764335989952e-02" rms="3.2287967205047607e-01" purity="1.8632645905017853e-01" nType="-99"/>
            <Node pos="r" depth="3" NCoef="0" IVar="-1" Cut="0.0000000000000000e+00" cType="1" res="1.0965776629745960e-02" rms="3.9336144924163818e-01" purity="3.8594460487365723e-01" nType="-99"/>
          </Node>
          <Node pos="r" depth="2" NCoef="0" IVar="-1" Cut="0.0000000000000000e+00" cType="1" res="3.0502481386065483e-02" rms="3.9065814018249512e-01" purity="5.3688228130340576e-01" nType="-99"/>
        </Node>
        <Node pos="r" depth="1" NCoef="0" IVar="7" Cut="6.6671174764633179e-01" cType="1" res="1.1484466085676104e-04" rms="3.8691326975822449e-01" purity="5.2301347255706787e-01" nType="0">
          <Node pos="l" depth="2" NCoef="0" IVar="7" Cut="3.3655357360839844e-01" cType="1" res="-4.1248598136007786e-03" rms="3.8792723417282104e-01" purity="5.5557614564895630e-01" nType="0">
            <Node pos="l" depth="3" NCoef="0" IVar="-1" Cut="0.0000000000000000e+00" cType="1" res="-4.8578824498690665e-04" rms="3.8835617899894714e-01" purity="5.4997003078460693e-01" nType="-99"/>
            <Node pos="r" depth="3" NCoef="0" IVar="-1" Cut="0.0000000000000000e+00" cType="1" res="-1.4983204193413258e-02" rms="3.8496294617652893e-01" purity="5.8701497316360474e-01" nType="-99"/>
          </Node>
          <Node pos="r" depth="2" NCoef="0" IVar="6" Cut="-8.9569762349128723e-02" cType="1" res="1.1263921856880188e-02" rms="3.8401076197624207e-01" purity="4.3738389015197754e-01" nType="0">
            <Node pos="l" depth="3" NCoef="0" IVar="-1" Cut="0.0000000000000000e+00" cType="1" res="1.6035698354244232e-02" rms="3.9222145080566406e-01" purity="4.4577956199645996e-01" nType="-99"/>
            <Node pos="r" depth="3" NCoef="0" IVar="-1" Cut="0.0000000000000000e+00" cType="1" res="1.3836408033967018e-03" rms="3.7764623761177063e-01" purity="4.3126723170280457e-01" nType="-99"/>
          </Node>
        </Node>
      </Node>
    </BinaryTree>
    <BinaryTree type="DecisionTree" boostWeight="1.0000000000000000e+00" itree="656">
      <Node pos="s" depth="0" NCoef="0" IVar="6" Cut="1.4725463390350342e+00" cType="1" res="-3.3526693005114794e-04" rms="3.8266515731811523e-01" purity="5.0134015083312988e-01" nType="0">
        <Node pos="l" depth="1" NCoef="0" IVar="0" Cut="4.5299456787109375e+02" cType="1" res="-1.6319241840392351e-03" rms="3.8578963279724121e-01" purity="5.2278858423233032e-01" nType="0">
          <Node pos="l" depth="2" NCoef="0" IVar="8" Cut="9.3329238891601562e-01" cType="1" res="-5.1580173894762993e-03" rms="3.9298343658447266e-01" purity="3.8695177435874939e-01" nType="0">
            <Node pos="l" depth="3" NCoef="0" IVar="-1" Cut="0.0000000000000000e+00" cType="1" res="-1.1312570422887802e-03" rms="3.9837110042572021e-01" purity="4.1167268157005310e-01" nType="-99"/>
            <Node pos="r" depth="3" NCoef="0" IVar="-1" Cut="0.0000000000000000e+00" cType="1" res="-1.1455272324383259e-02" rms="3.7257543206214905e-01" purity="2.9742908477783203e-01" nType="-99"/>
          </Node>
          <Node pos="r" depth="2" NCoef="0" IVar="7" Cut="1.4663187265396118e+00" cType="1" res="3.6087126936763525e-03" rms="3.7478160858154297e-01" purity="7.2467529773712158e-01" nType="0">
            <Node pos="l" depth="3" NCoef="0" IVar="-1" Cut="0.0000000000000000e+00" cType="1" res="8.9290546020492911e-04" rms="3.7164735794067383e-01" purity="7.3960465192794800e-01" nType="-99"/>
            <Node pos="r" depth="3" NCoef="0" IVar="-1" Cut="0.0000000000000000e+00" cType="1" res="2.1483372896909714e-02" rms="4.1436168551445007e-01" purity="5.1793915033340454e-01" nType="-99"/>
          </Node>
        </Node>
        <Node pos="r" depth="1" NCoef="0" IVar="0" Cut="3.8262905883789062e+02" cType="1" res="1.7217542976140976e-02" rms="3.3704501390457153e-01" purity="2.1099312603473663e-01" nType="0">
          <Node pos="l" depth="2" NCoef="0" IVar="-1" Cut="0.0000000000000000e+00" cType="1" res="-2.5229528546333313e-03" rms="2.7991160750389099e-01" purity="1.1038488894701004e-01" nType="-99"/>
          <Node pos="r" depth="2" NCoef="0" IVar="-1" Cut="0.0000000000000000e+00" cType="1" res="2.7330558747053146e-02" rms="3.8809213042259216e-01" purity="3.1902250647544861e-01" nType="-99"/>
        </Node>
      </Node>
    </BinaryTree>
    <BinaryTree type="DecisionTree" boostWeight="1.0000000000000000e+00" itree="657">
      <Node pos="s" depth="0" NCoef="0" IVar="7" Cut="-1.9998900890350342e+00" cType="1" res="-1.4944258145987988e-03" rms="3.8109222054481506e-01" purity="5.0361937284469604e-01" nType="0">
        <Node pos="l" depth="1" NCoef="0" IVar="-1" Cut="0.0000000000000000e+00" cType="1" res="2.7720559388399124e-02" rms="3.3869150280952454e-01" purity="2.2120872139930725e-01" nType="-99"/>
        <Node pos="r" depth="1" NCoef="0" IVar="7" Cut="-1.5427525043487549e+00" cType="1" res="-2.6631930377334356e-03" rms="3.8255244493484497e-01" purity="5.1428520679473877e-01" nType="0">
          <Node pos="l" depth="2" NCoef="0" IVar="-1" Cut="0.0000000000000000e+00" cType="1" res="-1.8737558275461197e-02" rms="3.5646924376487732e-01" purity="2.3644937574863434e-01" nType="-99"/>
          <Node pos="r" depth="2" NCoef="0" IVar="7" Cut="1.1456108093261719e+00" cType="1" res="-1.6850676620379090e-03" rms="3.8366302847862244e-01" purity="5.2686858177185059e-01" nType="0">
            <Node pos="l" depth="3" NCoef="0" IVar="-1" Cut="0.0000000000000000e+00" cType="1" res="1.3949359708931297e-04" rms="3.8874620199203491e-01" purity="5.6655967235565186e-01" nType="-99"/>
            <Node pos="r" depth="3" NCoef="0" IVar="-1" Cut="0.0000000000000000e+00" cType="1" res="-9.0400204062461853e-03" rms="3.5437703132629395e-01" purity="3.0966234207153320e-01" nType="-99"/>
          </Node>
        </Node>
      </Node>
    </BinaryTree>
    <BinaryTree type="DecisionTree" boostWeight="1.0000000000000000e+00" itree="658">
      <Node pos="s" depth="0" NCoef="0" IVar="8" Cut="9.3332082033157349e-01" cType="1" res="3.1235797796398401e-03" rms="3.8407123088836670e-01" purity="5.0405299663543701e-01" nType="0">
        <Node pos="l" depth="1" NCoef="0" IVar="1" Cut="1.7003863525390625e+03" cType="1" res="-6.4441288122907281e-04" rms="3.8337230682373047e-01" purity="5.2977198362350464e-01" nType="0">
          <Node pos="l" depth="2" NCoef="0" IVar="9" Cut="1.4667174816131592e+00" cType="1" res="-3.6785171832889318e-03" rms="3.9360350370407104e-01" purity="4.6836942434310913e-01" nType="0">
            <Node pos="l" depth="3" NCoef="0" IVar="-1" Cut="0.0000000000000000e+00" cType="1" res="-8.4612349746748805e-04" rms="3.9679807424545288e-01" purity="4.7890034317970276e-01" nType="-99"/>
            <Node pos="r" depth="3" NCoef="0" IVar="-1" Cut="0.0000000000000000e+00" cType="1" res="-1.3797253370285034e-02" rms="3.6856076121330261e-01" purity="3.9019465446472168e-01" nType="-99"/>
          </Node>
          <Node pos="r" depth="2" NCoef="0" IVar="6" Cut="-3.6118164658546448e-01" cType="1" res="1.3895715586841106e-02" rms="3.2958078384399414e-01" purity="8.2402700185775757e-01" nType="0">
            <Node pos="l" depth="3" NCoef="0" IVar="-1" Cut="0.0000000000000000e+00" cType="1" res="-1.5198842156678438e-03" rms="3.4804394841194153e-01" purity="7.8541034460067749e-01" nType="-99"/>
            <Node pos="r" depth="3" NCoef="0" IVar="-1" Cut="0.0000000000000000e+00" cType="1" res="1.8698321655392647e-02" rms="3.2113093137741089e-01" purity="8.4052991867065430e-01" nType="-99"/>
          </Node>
        </Node>
        <Node pos="r" depth="1" NCoef="0" IVar="6" Cut="1.4527206122875214e-01" cType="1" res="1.7032952979207039e-02" rms="3.8632214069366455e-01" purity="4.0911254286766052e-01" nType="0">
          <Node pos="l" depth="2" NCoef="0" IVar="3" Cut="2.3859925842285156e+02" cType="1" res="5.3046727553009987e-03" rms="3.9063268899917603e-01" purity="4.2693430185317993e-01" nType="0">
            <Node pos="l" depth="3" NCoef="0" IVar="-1" Cut="0.0000000000000000e+00" cType="1" res="1.3374317437410355e-02" rms="3.8816848397254944e-01" purity="3.9028355479240417e-01" nType="-99"/>
            <Node pos="r" depth="3" NCoef="0" IVar="-1" Cut="0.0000000000000000e+00" cType="1" res="-2.3203197866678238e-02" rms="3.9444535970687866e-01" purity="5.2908992767333984e-01" nType="-99"/>
          </Node>
          <Node pos="r" depth="2" NCoef="0" IVar="7" Cut="1.3344523310661316e-01" cType="1" res="2.8281519189476967e-02" rms="3.8180390000343323e-01" purity="3.9201980829238892e-01" nType="0">
            <Node pos="l" depth="3" NCoef="0" IVar="-1" Cut="0.0000000000000000e+00" cType="1" res="7.3211337439715862e-03" rms="3.8770622014999390e-01" purity="3.8971960544586182e-01" nType="-99"/>
            <Node pos="r" depth="3" NCoef="0" IVar="-1" Cut="0.0000000000000000e+00" cType="1" res="3.0014265328645706e-02" rms="3.7671223282814026e-01" purity="3.9376649260520935e-01" nType="-99"/>
          </Node>
        </Node>
      </Node>
    </BinaryTree>
    <BinaryTree type="DecisionTree" boostWeight="1.0000000000000000e+00" itree="659">
      <Node pos="s" depth="0" NCoef="0" IVar="6" Cut="6.7105138301849365e-01" cType="1" res="-2.3909513838589191e-03" rms="3.8527005910873413e-01" purity="4.9740502238273621e-01" nType="0">
        <Node pos="l" depth="1" NCoef="0" IVar="3" Cut="1.4518180847167969e+02" cType="1" res="1.9734352827072144e-03" rms="3.9163652062416077e-01" purity="5.4166197776794434e-01" nType="0">
          <Node pos="l" depth="2" NCoef="0" IVar="5" Cut="7.6099571228027344e+01" cType="1" res="1.3181732967495918e-02" rms="3.9614325761795044e-01" purity="2.8351190686225891e-01" nType="0">
            <Node pos="l" depth="3" NCoef="0" IVar="-1" Cut="0.0000000000000000e+00" cType="1" res="2.7627970557659864e-03" rms="3.7168830633163452e-01" purity="2.0637905597686768e-01" nType="-99"/>
            <Node pos="r" depth="3" NCoef="0" IVar="-1" Cut="0.0000000000000000e+00" cType="1" res="1.8674235790967941e-02" rms="4.4672828912734985e-01" purity="4.6146491169929504e-01" nType="-99"/>
          </Node>
          <Node pos="r" depth="2" NCoef="0" IVar="8" Cut="-1.7332206964492798e+00" cType="1" res="-1.3959442730993032e-03" rms="3.9020860195159912e-01" purity="6.1926567554473877e-01" nType="0">
            <Node pos="l" depth="3" NCoef="0" IVar="-1" Cut="0.0000000000000000e+00" cType="1" res="-2.0651729777455330e-02" rms="3.8753703236579895e-01" purity="3.6467167735099792e-01" nType="-99"/>
            <Node pos="r" depth="3" NCoef="0" IVar="-1" Cut="0.0000000000000000e+00" cType="1" res="3.6231015110388398e-04" rms="3.9029514789581299e-01" purity="6.3536632061004639e-01" nType="-99"/>
          </Node>
        </Node>
        <Node pos="r" depth="1" NCoef="0" IVar="5" Cut="7.3980834960937500e+01" cType="1" res="-1.6657572239637375e-02" rms="3.6331653594970703e-01" purity="3.5273474454879761e-01" nType="0">
          <Node pos="l" depth="2" NCoef="0" IVar="7" Cut="6.6629272699356079e-01" cType="1" res="-5.0679384730756283e-03" rms="3.3168029785156250e-01" purity="1.9627556204795837e-01" nType="0">
            <Node pos="l" depth="3" NCoef="0" IVar="-1" Cut="0.0000000000000000e+00" cType="1" res="5.2843233570456505e-03" rms="3.5382276773452759e-01" purity="2.4078376591205597e-01" nType="-99"/>
            <Node pos="r" depth="3" NCoef="0" IVar="-1" Cut="0.0000000000000000e+00" cType="1" res="-3.0692394822835922e-02" rms="2.8237587213516235e-01" purity="1.0990236699581146e-01" nType="-99"/>
          </Node>
          <Node pos="r" depth="2" NCoef="0" IVar="4" Cut="1.1440406036376953e+02" cType="1" res="-2.6460535824298859e-02" rms="3.8779726624488831e-01" purity="4.8507401347160339e-01" nType="0">
            <Node pos="l" depth="3" NCoef="0" IVar="-1" Cut="0.0000000000000000e+00" cType="1" res="-3.3519968390464783e-02" rms="3.7469705939292908e-01" purity="2.4403412640094757e-01" nType="-99"/>
            <Node pos="r" depth="3" NCoef="0" IVar="-1" Cut="0.0000000000000000e+00" cType="1" res="-1.1334875598549843e-02" rms="3.9173585176467896e-01" purity="5.6648224592208862e-01" nType="-99"/>
          </Node>
        </Node>
      </Node>
    </BinaryTree>
    <BinaryTree type="DecisionTree" boostWeight="1.0000000000000000e+00" itree="660">
      <Node pos="s" depth="0" NCoef="0" IVar="9" Cut="2.2665078639984131e+00" cType="1" res="3.7524371873587370e-03" rms="3.8552802801132202e-01" purity="5.0510305166244507e-01" nType="0">
        <Node pos="l" depth="1" NCoef="0" IVar="6" Cut="-6.5116810798645020e-01" cType="1" res="2.5858588051050901e-03" rms="3.8518247008323669e-01" purity="5.0945061445236206e-01" nType="0">
          <Node pos="l" depth="2" NCoef="0" IVar="9" Cut="9.5198765397071838e-02" cType="1" res="-7.3714442551136017e-03" rms="3.7395071983337402e-01" purity="3.8917896151542664e-01" nType="0">
            <Node pos="l" depth="3" NCoef="0" IVar="-1" Cut="0.0000000000000000e+00" cType="1" res="-1.3201323337852955e-02" rms="3.6871060729026794e-01" purity="3.6812144517898560e-01" nType="-99"/>
            <Node pos="r" depth="3" NCoef="0" IVar="-1" Cut="0.0000000000000000e+00" cType="1" res="6.6524115391075611e-03" rms="3.8109067082405090e-01" purity="4.2110165953636169e-01" nType="-99"/>
          </Node>
          <Node pos="r" depth="2" NCoef="0" IVar="1" Cut="1.1148148193359375e+03" cType="1" res="5.7536014355719090e-03" rms="3.8863414525985718e-01" purity="5.4771292209625244e-01" nType="0">
            <Node pos="l" depth="3" NCoef="0" IVar="-1" Cut="0.0000000000000000e+00" cType="1" res="1.0152982547879219e-02" rms="4.0410721302032471e-01" purity="2.8698459267616272e-01" nType="-99"/>
            <Node pos="r" depth="3" NCoef="0" IVar="-1" Cut="0.0000000000000000e+00" cType="1" res="7.4090249836444855e-04" rms="3.8131245970726013e-01" purity="6.6606438159942627e-01" nType="-99"/>
          </Node>
        </Node>
        <Node pos="r" depth="1" NCoef="0" IVar="-1" Cut="0.0000000000000000e+00" cType="1" res="2.7841245755553246e-02" rms="3.9430853724479675e-01" purity="3.7173101305961609e-01" nType="-99"/>
      </Node>
    </BinaryTree>
    <BinaryTree type="DecisionTree" boostWeight="1.0000000000000000e+00" itree="661">
      <Node pos="s" depth="0" NCoef="0" IVar="6" Cut="-9.0098547935485840e-01" cType="1" res="-5.5998982861638069e-04" rms="3.8583666086196899e-01" purity="4.9782258272171021e-01" nType="0">
        <Node pos="l" depth="1" NCoef="0" IVar="5" Cut="1.0444018554687500e+02" cType="1" res="1.4845397323369980e-02" rms="3.8019916415214539e-01" purity="3.4021115303039551e-01" nType="0">
          <Node pos="l" depth="2" NCoef="0" IVar="9" Cut="6.6604506969451904e-01" cType="1" res="2.3603666573762894e-02" rms="3.7248730659484863e-01" purity="2.6553472876548767e-01" nType="0">
            <Node pos="l" depth="3" NCoef="0" IVar="-1" Cut="0.0000000000000000e+00" cType="1" res="2.6587044820189476e-02" rms="3.8103601336479187e-01" purity="2.8279611468315125e-01" nType="-99"/>
            <Node pos="r" depth="3" NCoef="0" IVar="-1" Cut="0.0000000000000000e+00" cType="1" res="-1.0345927439630032e-02" rms="3.4296980500221252e-01" purity="2.1374811232089996e-01" nType="-99"/>
          </Node>
          <Node pos="r" depth="2" NCoef="0" IVar="-1" Cut="0.0000000000000000e+00" cType="1" res="-7.7217011712491512e-03" rms="4.0224072337150574e-01" purity="5.7493561506271362e-01" nType="-99"/>
        </Node>
        <Node pos="r" depth="1" NCoef="0" IVar="8" Cut="-1.2000212669372559e+00" cType="1" res="-3.8188237231224775e-03" rms="3.8694012165069580e-01" purity="5.3116351366043091e-01" nType="0">
          <Node pos="l" depth="2" NCoef="0" IVar="3" Cut="2.0689929199218750e+02" cType="1" res="-1.6401138156652451e-02" rms="3.8715064525604248e-01" purity="3.8216072320938110e-01" nType="0">
            <Node pos="l" depth="3" NCoef="0" IVar="-1" Cut="0.0000000000000000e+00" cType="1" res="3.0072120716795325e-04" rms="3.8166117668151855e-01" purity="2.9939031600952148e-01" nType="-99"/>
            <Node pos="r" depth="3" NCoef="0" IVar="-1" Cut="0.0000000000000000e+00" cType="1" res="-2.5816069915890694e-02" rms="3.9383423328399658e-01" purity="5.0502151250839233e-01" nType="-99"/>
          </Node>
          <Node pos="r" depth="2" NCoef="0" IVar="3" Cut="2.4120411682128906e+02" cType="1" res="-1.8581447657197714e-03" rms="3.8687044382095337e-01" purity="5.5438238382339478e-01" nType="0">
            <Node pos="l" depth="3" NCoef="0" IVar="-1" Cut="0.0000000000000000e+00" cType="1" res="-4.7754729166626930e-03" rms="3.9806017279624939e-01" purity="4.6205759048461914e-01" nType="-99"/>
            <Node pos="r" depth="3" NCoef="0" IVar="-1" Cut="0.0000000000000000e+00" cType="1" res="6.5808077342808247e-03" rms="3.6491888761520386e-01" purity="7.2594887018203735e-01" nType="-99"/>
          </Node>
        </Node>
      </Node>
    </BinaryTree>
    <BinaryTree type="DecisionTree" boostWeight="1.0000000000000000e+00" itree="662">
      <Node pos="s" depth="0" NCoef="0" IVar="9" Cut="-2.2666587829589844e+00" cType="1" res="-1.3285491149872541e-03" rms="3.8606271147727966e-01" purity="4.9843704700469971e-01" nType="0">
        <Node pos="l" depth="1" NCoef="0" IVar="-1" Cut="0.0000000000000000e+00" cType="1" res="2.4268291890621185e-02" rms="3.9698925614356995e-01" purity="3.3921104669570923e-01" nType="-99"/>
        <Node pos="r" depth="1" NCoef="0" IVar="7" Cut="-9.3326067924499512e-01" cType="1" res="-2.4327000137418509e-03" rms="3.8566520810127258e-01" purity="5.0339472293853760e-01" nType="0">
          <Node pos="l" depth="2" NCoef="0" IVar="5" Cut="7.4767646789550781e+01" cType="1" res="-1.1155500076711178e-02" rms="3.7240573763847351e-01" purity="3.5800674557685852e-01" nType="0">
            <Node pos="l" depth="3" NCoef="0" IVar="-1" Cut="0.0000000000000000e+00" cType="1" res="-2.2229505702853203e-02" rms="3.2100489735603333e-01" purity="1.7836810648441315e-01" nType="-99"/>
            <Node pos="r" depth="3" NCoef="0" IVar="-1" Cut="0.0000000000000000e+00" cType="1" res="1.3812093529850245e-03" rms="4.1077175736427307e-01" purity="5.1140993833541870e-01" nType="-99"/>
          </Node>
          <Node pos="r" depth="2" NCoef="0" IVar="9" Cut="-8.1902545690536499e-01" cType="1" res="-4.0907991933636367e-04" rms="3.8864865899085999e-01" purity="5.3712356090545654e-01" nType="0">
            <Node pos="l" depth="3" NCoef="0" IVar="-1" Cut="0.0000000000000000e+00" cType="1" res="4.2923879809677601e-03" rms="3.9198654890060425e-01" purity="5.2732694149017334e-01" nType="-99"/>
            <Node pos="r" depth="3" NCoef="0" IVar="-1" Cut="0.0000000000000000e+00" cType="1" res="-1.6759255668148398e-03" rms="3.8762524724006653e-01" purity="5.4003804922103882e-01" nType="-99"/>
          </Node>
        </Node>
      </Node>
    </BinaryTree>
    <BinaryTree type="DecisionTree" boostWeight="1.0000000000000000e+00" itree="663">
      <Node pos="s" depth="0" NCoef="0" IVar="9" Cut="-2.2666270732879639e+00" cType="1" res="1.2862856965512037e-03" rms="3.8186246156692505e-01" purity="5.0601500272750854e-01" nType="0">
        <Node pos="l" depth="1" NCoef="0" IVar="-1" Cut="0.0000000000000000e+00" cType="1" res="2.8121020644903183e-02" rms="3.7635102868080139e-01" purity="3.6947825551033020e-01" nType="-99"/>
        <Node pos="r" depth="1" NCoef="0" IVar="6" Cut="-8.9660906791687012e-01" cType="1" res="1.5859177437960170e-05" rms="3.8197636604309082e-01" purity="5.1051169633865356e-01" nType="0">
          <Node pos="l" depth="2" NCoef="0" IVar="1" Cut="1.2652073974609375e+03" cType="1" res="-1.1949083767831326e-02" rms="3.6299976706504822e-01" purity="3.2977294921875000e-01" nType="0">
            <Node pos="l" depth="3" NCoef="0" IVar="-1" Cut="0.0000000000000000e+00" cType="1" res="-1.7826685681939125e-02" rms="3.4318009018898010e-01" purity="1.8477204442024231e-01" nType="-99"/>
            <Node pos="r" depth="3" NCoef="0" IVar="-1" Cut="0.0000000000000000e+00" cType="1" res="2.3523459676653147e-03" rms="3.8994109630584717e-01" purity="5.4418861865997314e-01" nType="-99"/>
          </Node>
          <Node pos="r" depth="2" NCoef="0" IVar="2" Cut="6.1037036132812500e+02" cType="1" res="2.4786768481135368e-03" rms="3.8572055101394653e-01" purity="5.4771429300308228e-01" nType="0">
            <Node pos="l" depth="3" NCoef="0" IVar="-1" Cut="0.0000000000000000e+00" cType="1" res="5.7498423848301172e-04" rms="3.8507759571075439e-01" purity="5.4163408279418945e-01" nType="-99"/>
            <Node pos="r" depth="3" NCoef="0" IVar="-1" Cut="0.0000000000000000e+00" cType="1" res="1.2929098680615425e-02" rms="3.9268806576728821e-01" purity="6.1906594038009644e-01" nType="-99"/>
          </Node>
        </Node>
      </Node>
    </BinaryTree>
    <BinaryTree type="DecisionTree" boostWeight="1.0000000000000000e+00" itree="664">
      <Node pos="s" depth="0" NCoef="0" IVar="6" Cut="9.3701165914535522e-01" cType="1" res="-3.0262235086411238e-03" rms="3.8390871882438660e-01" purity="4.9981036782264709e-01" nType="0">
        <Node pos="l" depth="1" NCoef="0" IVar="2" Cut="5.0379733276367188e+02" cType="1" res="-5.7604643516242504e-03" rms="3.8763096928596497e-01" purity="5.3493136167526245e-01" nType="0">
          <Node pos="l" depth="2" NCoef="0" IVar="2" Cut="2.2893307495117188e+02" cType="1" res="-2.7902300935238600e-03" rms="3.8815394043922424e-01" purity="5.2635759115219116e-01" nType="0">
            <Node pos="l" depth="3" NCoef="0" IVar="-1" Cut="0.0000000000000000e+00" cType="1" res="8.0408696085214615e-03" rms="4.2476081848144531e-01" purity="4.4318491220474243e-01" nType="-99"/>
            <Node pos="r" depth="3" NCoef="0" IVar="-1" Cut="0.0000000000000000e+00" cType="1" res="-3.2000022474676371e-03" rms="3.8354295492172241e-01" purity="5.3619873523712158e-01" nType="-99"/>
          </Node>
          <Node pos="r" depth="2" NCoef="0" IVar="7" Cut="3.9977487921714783e-01" cType="1" res="-2.0362602546811104e-02" rms="3.8471639156341553e-01" purity="5.7708108425140381e-01" nType="0">
            <Node pos="l" depth="3" NCoef="0" IVar="-1" Cut="0.0000000000000000e+00" cType="1" res="-3.0983618926256895e-03" rms="3.8801923394203186e-01" purity="6.2549537420272827e-01" nType="-99"/>
            <Node pos="r" depth="3" NCoef="0" IVar="-1" Cut="0.0000000000000000e+00" cType="1" res="-3.5775203257799149e-02" rms="3.7516486644744873e-01" purity="4.7140002250671387e-01" nType="-99"/>
          </Node>
        </Node>
        <Node pos="r" depth="1" NCoef="0" IVar="7" Cut="1.1994972229003906e+00" cType="1" res="1.0875185951590538e-02" rms="3.6407896876335144e-01" purity="3.2124868035316467e-01" nType="0">
          <Node pos="l" depth="2" NCoef="0" IVar="8" Cut="-4.0013930201530457e-01" cType="1" res="1.7115006223320961e-02" rms="3.7847459316253662e-01" purity="3.6134284734725952e-01" nType="0">
            <Node pos="l" depth="3" NCoef="0" IVar="-1" Cut="0.0000000000000000e+00" cType="1" res="2.6039157062768936e-02" rms="3.8511931896209717e-01" purity="3.3978885412216187e-01" nType="-99"/>
            <Node pos="r" depth="3" NCoef="0" IVar="-1" Cut="0.0000000000000000e+00" cType="1" res="5.1864162087440491e-03" rms="3.7469828128814697e-01" purity="3.7220382690429688e-01" nType="-99"/>
          </Node>
          <Node pos="r" depth="2" NCoef="0" IVar="-1" Cut="0.0000000000000000e+00" cType="1" res="-2.2228900343179703e-02" rms="2.8251433372497559e-01" purity="1.2754884362220764e-01" nType="-99"/>
        </Node>
      </Node>
    </BinaryTree>
    <BinaryTree type="DecisionTree" boostWeight="1.0000000000000000e+00" itree="665">
      <Node pos="s" depth="0" NCoef="0" IVar="9" Cut="2.2666497230529785e+00" cType="1" res="3.8861422799527645e-03" rms="3.8499245047569275e-01" purity="5.0493562221527100e-01" nType="0">
        <Node pos="l" depth="1" NCoef="0" IVar="8" Cut="-9.3333059549331665e-01" cType="1" res="4.8754317685961723e-03" rms="3.8584277033805847e-01" purity="5.1147097349166870e-01" nType="0">
          <Node pos="l" depth="2" NCoef="0" IVar="6" Cut="4.0447959303855896e-01" cType="1" res="-4.9101188778877258e-03" rms="3.7418603897094727e-01" purity="4.0856063365936279e-01" nType="0">
            <Node pos="l" depth="3" NCoef="0" IVar="-1" Cut="0.0000000000000000e+00" cType="1" res="3.9413498598150909e-04" rms="3.8363814353942871e-01" purity="4.4073373079299927e-01" nType="-99"/>
            <Node pos="r" depth="3" NCoef="0" IVar="-1" Cut="0.0000000000000000e+00" cType="1" res="-1.3514514081180096e-02" rms="3.4950253367424011e-01" purity="3.2948160171508789e-01" nType="-99"/>
          </Node>
          <Node pos="r" depth="2" NCoef="0" IVar="7" Cut="-6.6667419672012329e-01" cType="1" res="7.5436253100633621e-03" rms="3.8891786336898804e-01" purity="5.3953117132186890e-01" nType="0">
            <Node pos="l" depth="3" NCoef="0" IVar="-1" Cut="0.0000000000000000e+00" cType="1" res="1.1693377047777176e-02" rms="3.8967272639274597e-01" purity="4.7079396247863770e-01" nType="-99"/>
            <Node pos="r" depth="3" NCoef="0" IVar="-1" Cut="0.0000000000000000e+00" cType="1" res="2.6050424203276634e-03" rms="3.8859194517135620e-01" purity="5.6320661306381226e-01" nType="-99"/>
          </Node>
        </Node>
        <Node pos="r" depth="1" NCoef="0" IVar="-1" Cut="0.0000000000000000e+00" cType="1" res="-1.9047711044549942e-02" rms="3.5653659701347351e-01" purity="3.0406770110130310e-01" nType="-99"/>
      </Node>
    </BinaryTree>
    <BinaryTree type="DecisionTree" boostWeight="1.0000000000000000e+00" itree="666">
      <Node pos="s" depth="0" NCoef="0" IVar="6" Cut="1.7351278066635132e+00" cType="1" res="-2.3102888371795416e-03" rms="3.8320744037628174e-01" purity="4.9767041206359863e-01" nType="0">
        <Node pos="l" depth="1" NCoef="0" IVar="8" Cut="1.3325789570808411e-01" cType="1" res="-1.1702071642503142e-03" rms="3.8685461878776550e-01" purity="5.1238596439361572e-01" nType="0">
          <Node pos="l" depth="2" NCoef="0" IVar="2" Cut="3.3545721435546875e+02" cType="1" res="-6.1395508237183094e-03" rms="3.8472121953964233e-01" purity="5.1304858922958374e-01" nType="0">
            <Node pos="l" depth="3" NCoef="0" IVar="-1" Cut="0.0000000000000000e+00" cType="1" res="-9.1370884329080582e-03" rms="3.9185839891433716e-01" purity="4.5436629652976990e-01" nType="-99"/>
            <Node pos="r" depth="3" NCoef="0" IVar="-1" Cut="0.0000000000000000e+00" cType="1" res="7.0909096393734217e-04" rms="3.7826105952262878e-01" purity="5.6406384706497192e-01" nType="-99"/>
          </Node>
          <Node pos="r" depth="2" NCoef="0" IVar="9" Cut="-9.3319326639175415e-01" cType="1" res="4.8234094865620136e-03" rms="3.8932782411575317e-01" purity="5.1158672571182251e-01" nType="0">
            <Node pos="l" depth="3" NCoef="0" IVar="-1" Cut="0.0000000000000000e+00" cType="1" res="1.2715884484350681e-02" rms="4.0142655372619629e-01" purity="4.8407733440399170e-01" nType="-99"/>
            <Node pos="r" depth="3" NCoef="0" IVar="-1" Cut="0.0000000000000000e+00" cType="1" res="5.6539633078500628e-04" rms="3.8596627116203308e-01" purity="5.1886403560638428e-01" nType="-99"/>
          </Node>
        </Node>
        <Node pos="r" depth="1" NCoef="0" IVar="-1" Cut="0.0000000000000000e+00" cType="1" res="-2.9356148093938828e-02" rms="2.8115776181221008e-01" purity="1.4647954702377319e-01" nType="-99"/>
      </Node>
    </BinaryTree>
    <BinaryTree type="DecisionTree" boostWeight="1.0000000000000000e+00" itree="667">
      <Node pos="s" depth="0" NCoef="0" IVar="6" Cut="1.7423530817031860e+00" cType="1" res="8.0484611680731177e-04" rms="3.8387387990951538e-01" purity="5.0029265880584717e-01" nType="0">
        <Node pos="l" depth="1" NCoef="0" IVar="9" Cut="1.4666693210601807e+00" cType="1" res="2.0180623978376389e-03" rms="3.8792988657951355e-01" purity="5.1534223556518555e-01" nType="0">
          <Node pos="l" depth="2" NCoef="0" IVar="8" Cut="-1.4666715860366821e+00" cType="1" res="-2.1348230075091124e-04" rms="3.8722205162048340e-01" purity="5.2737265825271606e-01" nType="0">
            <Node pos="l" depth="3" NCoef="0" IVar="-1" Cut="0.0000000000000000e+00" cType="1" res="9.9375043064355850e-03" rms="3.7750539183616638e-01" purity="3.5055729746818542e-01" nType="-99"/>
            <Node pos="r" depth="3" NCoef="0" IVar="-1" Cut="0.0000000000000000e+00" cType="1" res="-1.2586655793711543e-03" rms="3.8833841681480408e-01" purity="5.4862076044082642e-01" nType="-99"/>
          </Node>
          <Node pos="r" depth="2" NCoef="0" IVar="5" Cut="1.0071202850341797e+02" cType="1" res="1.8044028431177139e-02" rms="3.9260345697402954e-01" purity="4.2894500494003296e-01" nType="0">
            <Node pos="l" depth="3" NCoef="0" IVar="-1" Cut="0.0000000000000000e+00" cType="1" res="1.7835311591625214e-02" rms="3.9180371165275574e-01" purity="3.6149993538856506e-01" nType="-99"/>
            <Node pos="r" depth="3" NCoef="0" IVar="-1" Cut="0.0000000000000000e+00" cType="1" res="-7.3588285595178604e-03" rms="3.9374700188636780e-01" purity="6.4597284793853760e-01" nType="-99"/>
          </Node>
        </Node>
        <Node pos="r" depth="1" NCoef="0" IVar="-1" Cut="0.0000000000000000e+00" cType="1" res="-2.8082864359021187e-02" rms="2.7063497900962830e-01" purity="1.4802421629428864e-01" nType="-99"/>
      </Node>
    </BinaryTree>
    <BinaryTree type="DecisionTree" boostWeight="1.0000000000000000e+00" itree="668">
      <Node pos="s" depth="0" NCoef="0" IVar="9" Cut="-1.1999764442443848e+00" cType="1" res="2.4222127103712410e-04" rms="3.8622063398361206e-01" purity="4.9793922901153564e-01" nType="0">
        <Node pos="l" depth="1" NCoef="0" IVar="8" Cut="3.9994862675666809e-01" cType="1" res="-1.3067686930298805e-02" rms="3.7639713287353516e-01" purity="4.1032192111015320e-01" nType="0">
          <Node pos="l" depth="2" NCoef="0" IVar="9" Cut="-1.6571505069732666e+00" cType="1" res="-6.6969296894967556e-03" rms="3.7769731879234314e-01" purity="4.2122879624366760e-01" nType="0">
            <Node pos="l" depth="3" NCoef="0" IVar="-1" Cut="0.0000000000000000e+00" cType="1" res="3.4988804254680872e-03" rms="3.7806060910224915e-01" purity="3.7789365649223328e-01" nType="-99"/>
            <Node pos="r" depth="3" NCoef="0" IVar="-1" Cut="0.0000000000000000e+00" cType="1" res="-1.4339421875774860e-02" rms="3.7674432992935181e-01" purity="4.7520834207534790e-01" nType="-99"/>
          </Node>
          <Node pos="r" depth="2" NCoef="0" IVar="6" Cut="-7.0840850472450256e-02" cType="1" res="-2.7150347828865051e-02" rms="3.7312120199203491e-01" purity="3.8621196150779724e-01" nType="0">
            <Node pos="l" depth="3" NCoef="0" IVar="-1" Cut="0.0000000000000000e+00" cType="1" res="-2.1723644807934761e-02" rms="3.6705079674720764e-01" purity="3.9694863557815552e-01" nType="-99"/>
            <Node pos="r" depth="3" NCoef="0" IVar="-1" Cut="0.0000000000000000e+00" cType="1" res="-1.5248234383761883e-02" rms="3.7848052382469177e-01" purity="3.7647804617881775e-01" nType="-99"/>
          </Node>
        </Node>
        <Node pos="r" depth="1" NCoef="0" IVar="1" Cut="1.4400653076171875e+03" cType="1" res="2.9676044359803200e-03" rms="3.8814514875411987e-01" purity="5.1588004827499390e-01" nType="0">
          <Node pos="l" depth="2" NCoef="0" IVar="9" Cut="-2.4757272005081177e-01" cType="1" res="6.9206953048706055e-03" rms="4.0356689691543579e-01" purity="3.9943861961364746e-01" nType="0">
            <Node pos="l" depth="3" NCoef="0" IVar="-1" Cut="0.0000000000000000e+00" cType="1" res="1.2176680378615856e-02" rms="4.1585308313369751e-01" purity="4.2985484004020691e-01" nType="-99"/>
            <Node pos="r" depth="3" NCoef="0" IVar="-1" Cut="0.0000000000000000e+00" cType="1" res="6.6758430330082774e-04" rms="3.9797961711883545e-01" purity="3.8625103235244751e-01" nType="-99"/>
          </Node>
          <Node pos="r" depth="2" NCoef="0" IVar="0" Cut="4.3641159057617188e+02" cType="1" res="-5.1723211072385311e-03" rms="3.5414284467697144e-01" purity="7.5564795732498169e-01" nType="0">
            <Node pos="l" depth="3" NCoef="0" IVar="-1" Cut="0.0000000000000000e+00" cType="1" res="-1.8077362328767776e-02" rms="3.9454311132431030e-01" purity="5.8082789182662964e-01" nType="-99"/>
            <Node pos="r" depth="3" NCoef="0" IVar="-1" Cut="0.0000000000000000e+00" cType="1" res="1.3542298693209887e-03" rms="3.4149244427680969e-01" purity="8.0532997846603394e-01" nType="-99"/>
          </Node>
        </Node>
      </Node>
    </BinaryTree>
    <BinaryTree type="DecisionTree" boostWeight="1.0000000000000000e+00" itree="669">
      <Node pos="s" depth="0" NCoef="0" IVar="6" Cut="1.7354359626770020e+00" cType="1" res="-1.7407377017661929e-03" rms="3.8228502869606018e-01" purity="5.0128555297851562e-01" nType="0">
        <Node pos="l" depth="1" NCoef="0" IVar="9" Cut="1.7333310842514038e+00" cType="1" res="-2.7984217740595341e-03" rms="3.8441964983940125e-01" purity="5.1477533578872681e-01" nType="0">
          <Node pos="l" depth="2" NCoef="0" IVar="6" Cut="-6.3409507274627686e-01" cType="1" res="-4.3816426768898964e-03" rms="3.8443204760551453e-01" purity="5.2409845590591431e-01" nType="0">
            <Node pos="l" depth="3" NCoef="0" IVar="-1" Cut="0.0000000000000000e+00" cType="1" res="3.1381871085613966e-03" rms="3.7948423624038696e-01" purity="4.1105508804321289e-01" nType="-99"/>
            <Node pos="r" depth="3" NCoef="0" IVar="-1" Cut="0.0000000000000000e+00" cType="1" res="-5.0257346592843533e-03" rms="3.8616064190864563e-01" purity="5.6511747837066650e-01" nType="-99"/>
          </Node>
          <Node pos="r" depth="2" NCoef="0" IVar="9" Cut="2.2412657737731934e+00" cType="1" res="1.4211569912731647e-02" rms="3.8387471437454224e-01" purity="4.1460752487182617e-01" nType="0">
            <Node pos="l" depth="3" NCoef="0" IVar="-1" Cut="0.0000000000000000e+00" cType="1" res="1.9650528207421303e-02" rms="3.8963350653648376e-01" purity="4.5969858765602112e-01" nType="-99"/>
            <Node pos="r" depth="3" NCoef="0" IVar="-1" Cut="0.0000000000000000e+00" cType="1" res="-9.0066036209464073e-03" rms="3.7226796150207520e-01" purity="3.3801457285881042e-01" nType="-99"/>
          </Node>
        </Node>
        <Node pos="r" depth="1" NCoef="0" IVar="-1" Cut="0.0000000000000000e+00" cType="1" res="2.2250929847359657e-02" rms="3.2880100607872009e-01" purity="1.9284573197364807e-01" nType="-99"/>
      </Node>
    </BinaryTree>
    <BinaryTree type="DecisionTree" boostWeight="1.0000000000000000e+00" itree="670">
      <Node pos="s" depth="0" NCoef="0" IVar="8" Cut="1.9999120235443115e+00" cType="1" res="1.0632830671966076e-03" rms="3.8500592112541199e-01" purity="5.0070184469223022e-01" nType="0">
        <Node pos="l" depth="1" NCoef="0" IVar="3" Cut="2.4120411682128906e+02" cType="1" res="-1.8603343050926924e-05" rms="3.8595473766326904e-01" purity="5.1120978593826294e-01" nType="0">
          <Node pos="l" depth="2" NCoef="0" IVar="9" Cut="6.6662132740020752e-01" cType="1" res="3.0628386884927750e-03" rms="3.9279389381408691e-01" purity="4.3405482172966003e-01" nType="0">
            <Node pos="l" depth="3" NCoef="0" IVar="-1" Cut="0.0000000000000000e+00" cType="1" res="4.7633363865315914e-03" rms="3.9519292116165161e-01" purity="4.5170292258262634e-01" nType="-99"/>
            <Node pos="r" depth="3" NCoef="0" IVar="-1" Cut="0.0000000000000000e+00" cType="1" res="-4.7996896319091320e-03" rms="3.8692131638526917e-01" purity="3.9275088906288147e-01" nType="-99"/>
          </Node>
          <Node pos="r" depth="2" NCoef="0" IVar="7" Cut="9.3257683515548706e-01" cType="1" res="-6.5792319364845753e-03" rms="3.7088865041732788e-01" purity="6.7547869682312012e-01" nType="0">
            <Node pos="l" depth="3" NCoef="0" IVar="-1" Cut="0.0000000000000000e+00" cType="1" res="-2.2578169591724873e-03" rms="3.7101528048515320e-01" purity="7.0585644245147705e-01" nType="-99"/>
            <Node pos="r" depth="3" NCoef="0" IVar="-1" Cut="0.0000000000000000e+00" cType="1" res="-1.8701259046792984e-02" rms="3.6946088075637817e-01" purity="4.9444249272346497e-01" nType="-99"/>
          </Node>
        </Node>
        <Node pos="r" depth="1" NCoef="0" IVar="-1" Cut="0.0000000000000000e+00" cType="1" res="1.9056160002946854e-02" rms="3.6300790309906006e-01" purity="2.7261909842491150e-01" nType="-99"/>
      </Node>
    </BinaryTree>
    <BinaryTree type="DecisionTree" boostWeight="1.0000000000000000e+00" itree="671">
      <Node pos="s" depth="0" NCoef="0" IVar="9" Cut="-6.6664081811904907e-01" cType="1" res="-1.2384088477119803e-03" rms="3.8548430800437927e-01" purity="4.9942329525947571e-01" nType="0">
        <Node pos="l" depth="1" NCoef="0" IVar="7" Cut="-6.6649341583251953e-01" cType="1" res="-1.1059136129915714e-02" rms="3.7934711575508118e-01" purity="4.5622059702873230e-01" nType="0">
          <Node pos="l" depth="2" NCoef="0" IVar="8" Cut="-4.0003916621208191e-01" cType="1" res="-2.9781641438603401e-02" rms="3.5791447758674622e-01" purity="3.2392129302024841e-01" nType="0">
            <Node pos="l" depth="3" NCoef="0" IVar="-1" Cut="0.0000000000000000e+00" cType="1" res="-1.1581605300307274e-02" rms="3.4250363707542419e-01" purity="2.8800237178802490e-01" nType="-99"/>
            <Node pos="r" depth="3" NCoef="0" IVar="-1" Cut="0.0000000000000000e+00" cType="1" res="-3.0074426904320717e-02" rms="3.7136957049369812e-01" purity="3.5799416899681091e-01" nType="-99"/>
          </Node>
          <Node pos="r" depth="2" NCoef="0" IVar="8" Cut="1.1997708082199097e+00" cType="1" res="-2.6765088550746441e-03" rms="3.8826772570610046e-01" purity="5.1545494794845581e-01" nType="0">
            <Node pos="l" depth="3" NCoef="0" IVar="-1" Cut="0.0000000000000000e+00" cType="1" res="1.6790519002825022e-03" rms="3.9030158519744873e-01" purity="5.3795564174652100e-01" nType="-99"/>
            <Node pos="r" depth="3" NCoef="0" IVar="-1" Cut="0.0000000000000000e+00" cType="1" res="-2.5772297754883766e-02" rms="3.7145677208900452e-01" purity="3.5640284419059753e-01" nType="-99"/>
          </Node>
        </Node>
        <Node pos="r" depth="1" NCoef="0" IVar="6" Cut="4.0449738502502441e-01" cType="1" res="2.9346877709031105e-03" rms="3.8798755407333374e-01" purity="5.1778131723403931e-01" nType="0">
          <Node pos="l" depth="2" NCoef="0" IVar="6" Cut="-1.2680816650390625e+00" cType="1" res="-2.5739299599081278e-03" rms="3.9053273200988770e-01" purity="5.5329704284667969e-01" nType="0">
            <Node pos="l" depth="3" NCoef="0" IVar="-1" Cut="0.0000000000000000e+00" cType="1" res="1.1416632682085037e-02" rms="3.7558454275131226e-01" purity="2.9082825779914856e-01" nType="-99"/>
            <Node pos="r" depth="3" NCoef="0" IVar="-1" Cut="0.0000000000000000e+00" cType="1" res="-3.4693877678364515e-03" rms="3.9271053671836853e-01" purity="5.9375292062759399e-01" nType="-99"/>
          </Node>
          <Node pos="r" depth="2" NCoef="0" IVar="8" Cut="1.1995602846145630e+00" cType="1" res="1.2945880182087421e-02" rms="3.8311600685119629e-01" purity="4.5323610305786133e-01" nType="0">
            <Node pos="l" depth="3" NCoef="0" IVar="-1" Cut="0.0000000000000000e+00" cType="1" res="5.7095615193247795e-03" rms="3.8582095503807068e-01" purity="4.8430195450782776e-01" nType="-99"/>
            <Node pos="r" depth="3" NCoef="0" IVar="-1" Cut="0.0000000000000000e+00" cType="1" res="2.3776046931743622e-02" rms="3.7131261825561523e-01" purity="3.2638257741928101e-01" nType="-99"/>
          </Node>
        </Node>
      </Node>
    </BinaryTree>
    <BinaryTree type="DecisionTree" boostWeight="1.0000000000000000e+00" itree="672">
      <Node pos="s" depth="0" NCoef="0" IVar="3" Cut="2.3910603332519531e+02" cType="1" res="-3.9938539266586304e-03" rms="3.8308528065681458e-01" purity="4.9498549103736877e-01" nType="0">
        <Node pos="l" depth="1" NCoef="0" IVar="3" Cut="2.3016052246093750e+02" cType="1" res="-8.5432566702365875e-03" rms="3.8896223902702332e-01" purity="4.0538290143013000e-01" nType="0">
          <Node pos="l" depth="2" NCoef="0" IVar="7" Cut="6.6663604974746704e-01" cType="1" res="-1.0295514948666096e-02" rms="3.8808926939964294e-01" purity="3.9407664537429810e-01" nType="0">
            <Node pos="l" depth="3" NCoef="0" IVar="-1" Cut="0.0000000000000000e+00" cType="1" res="-8.5331955924630165e-03" rms="3.9278894662857056e-01" purity="4.1910177469253540e-01" nType="-99"/>
            <Node pos="r" depth="3" NCoef="0" IVar="-1" Cut="0.0000000000000000e+00" cType="1" res="-1.6135370824486017e-03" rms="3.7608093023300171e-01" purity="3.3211851119995117e-01" nType="-99"/>
          </Node>
          <Node pos="r" depth="2" NCoef="0" IVar="-1" Cut="0.0000000000000000e+00" cType="1" res="1.5832521021366119e-02" rms="4.0366038680076599e-01" purity="6.1875194311141968e-01" nType="-99"/>
        </Node>
        <Node pos="r" depth="1" NCoef="0" IVar="7" Cut="1.1996871232986450e+00" cType="1" res="5.2169449627399445e-03" rms="3.7073081731796265e-01" purity="6.7639648914337158e-01" nType="0">
          <Node pos="l" depth="2" NCoef="0" IVar="4" Cut="9.7001571655273438e+01" cType="1" res="1.2126276269555092e-03" rms="3.6836978793144226e-01" purity="7.0106816291809082e-01" nType="0">
            <Node pos="l" depth="3" NCoef="0" IVar="-1" Cut="0.0000000000000000e+00" cType="1" res="-1.5423362143337727e-02" rms="4.0379267930984497e-01" purity="3.8203415274620056e-01" nType="-99"/>
            <Node pos="r" depth="3" NCoef="0" IVar="-1" Cut="0.0000000000000000e+00" cType="1" res="3.2913393806666136e-03" rms="3.6393409967422485e-01" purity="7.3777693510055542e-01" nType="-99"/>
          </Node>
          <Node pos="r" depth="2" NCoef="0" IVar="-1" Cut="0.0000000000000000e+00" cType="1" res="2.7311379089951515e-02" rms="3.8943293690681458e-01" purity="4.5512959361076355e-01" nType="-99"/>
        </Node>
      </Node>
    </BinaryTree>
    <BinaryTree type="DecisionTree" boostWeight="1.0000000000000000e+00" itree="673">
      <Node pos="s" depth="0" NCoef="0" IVar="8" Cut="1.3328483700752258e-01" cType="1" res="1.3332995586097240e-03" rms="3.8412579894065857e-01" purity="4.9855956435203552e-01" nType="0">
        <Node pos="l" depth="1" NCoef="0" IVar="9" Cut="1.4667776823043823e+00" cType="1" res="5.3570764139294624e-03" rms="3.8526067137718201e-01" purity="5.1305228471755981e-01" nType="0">
          <Node pos="l" depth="2" NCoef="0" IVar="4" Cut="1.3635734558105469e+02" cType="1" res="7.7930907718837261e-03" rms="3.8563245534896851e-01" purity="5.2632713317871094e-01" nType="0">
            <Node pos="l" depth="3" NCoef="0" IVar="-1" Cut="0.0000000000000000e+00" cType="1" res="9.0532228350639343e-03" rms="3.9771622419357300e-01" purity="3.7582105398178101e-01" nType="-99"/>
            <Node pos="r" depth="3" NCoef="0" IVar="-1" Cut="0.0000000000000000e+00" cType="1" res="-1.8928173813037574e-04" rms="3.6988410353660583e-01" purity="7.1364760398864746e-01" nType="-99"/>
          </Node>
          <Node pos="r" depth="2" NCoef="0" IVar="7" Cut="1.3556022942066193e-01" cType="1" res="-1.4859544113278389e-02" rms="3.8156163692474365e-01" purity="4.0288364887237549e-01" nType="0">
            <Node pos="l" depth="3" NCoef="0" IVar="-1" Cut="0.0000000000000000e+00" cType="1" res="-2.4699699133634567e-02" rms="3.8979440927505493e-01" purity="3.7104359269142151e-01" nType="-99"/>
            <Node pos="r" depth="3" NCoef="0" IVar="-1" Cut="0.0000000000000000e+00" cType="1" res="5.9994384646415710e-03" rms="3.7141427397727966e-01" purity="4.3568557500839233e-01" nType="-99"/>
          </Node>
        </Node>
        <Node pos="r" depth="1" NCoef="0" IVar="1" Cut="1.1148236083984375e+03" cType="1" res="-3.6310337018221617e-03" rms="3.8266268372535706e-01" purity="4.8067918419837952e-01" nType="0">
          <Node pos="l" depth="2" NCoef="0" IVar="5" Cut="6.2262290954589844e+01" cType="1" res="-1.5314390882849693e-02" rms="3.6801144480705261e-01" purity="2.1852372586727142e-01" nType="0">
            <Node pos="l" depth="3" NCoef="0" IVar="-1" Cut="0.0000000000000000e+00" cType="1" res="-2.0570154301822186e-03" rms="3.3274865150451660e-01" purity="1.6047888994216919e-01" nType="-99"/>
            <Node pos="r" depth="3" NCoef="0" IVar="-1" Cut="0.0000000000000000e+00" cType="1" res="-1.5331274829804897e-02" rms="3.9257296919822693e-01" purity="2.6293662190437317e-01" nType="-99"/>
          </Node>
          <Node pos="r" depth="2" NCoef="0" IVar="7" Cut="-6.6670203208923340e-01" cType="1" res="2.3608221672475338e-03" rms="3.8982734084129333e-01" purity="6.1512660980224609e-01" nType="0">
            <Node pos="l" depth="3" NCoef="0" IVar="-1" Cut="0.0000000000000000e+00" cType="1" res="-1.2250961735844612e-02" rms="3.8602977991104126e-01" purity="5.2103525400161743e-01" nType="-99"/>
            <Node pos="r" depth="3" NCoef="0" IVar="-1" Cut="0.0000000000000000e+00" cType="1" res="5.4672108963131905e-03" rms="3.9064666628837585e-01" purity="6.4077162742614746e-01" nType="-99"/>
          </Node>
        </Node>
      </Node>
    </BinaryTree>
    <BinaryTree type="DecisionTree" boostWeight="1.0000000000000000e+00" itree="674">
      <Node pos="s" depth="0" NCoef="0" IVar="4" Cut="2.7225109863281250e+02" cType="1" res="2.0592291839420795e-03" rms="3.8426774740219116e-01" purity="5.0381386280059814e-01" nType="0">
        <Node pos="l" depth="1" NCoef="0" IVar="5" Cut="6.0508605957031250e+01" cType="1" res="3.0568707734346390e-03" rms="3.8523289561271667e-01" purity="4.9545854330062866e-01" nType="0">
          <Node pos="l" depth="2" NCoef="0" IVar="7" Cut="-1.2001353502273560e+00" cType="1" res="-6.3285673968493938e-03" rms="3.6256518959999084e-01" purity="2.4531139433383942e-01" nType="0">
            <Node pos="l" depth="3" NCoef="0" IVar="-1" Cut="0.0000000000000000e+00" cType="1" res="3.2011892646551132e-02" rms="3.1177887320518494e-01" purity="1.5829105675220490e-01" nType="-99"/>
            <Node pos="r" depth="3" NCoef="0" IVar="-1" Cut="0.0000000000000000e+00" cType="1" res="-9.3756727874279022e-03" rms="3.7188178300857544e-01" purity="2.6349905133247375e-01" nType="-99"/>
          </Node>
          <Node pos="r" depth="2" NCoef="0" IVar="4" Cut="1.1099101257324219e+02" cType="1" res="5.4940986447036266e-03" rms="3.9086750149726868e-01" purity="5.6041717529296875e-01" nType="0">
            <Node pos="l" depth="3" NCoef="0" IVar="-1" Cut="0.0000000000000000e+00" cType="1" res="8.8466648012399673e-03" rms="4.0759685635566711e-01" purity="3.5013288259506226e-01" nType="-99"/>
            <Node pos="r" depth="3" NCoef="0" IVar="-1" Cut="0.0000000000000000e+00" cType="1" res="7.8368798131123185e-04" rms="3.8244470953941345e-01" purity="6.6205155849456787e-01" nType="-99"/>
          </Node>
        </Node>
        <Node pos="r" depth="1" NCoef="0" IVar="-1" Cut="0.0000000000000000e+00" cType="1" res="-2.4180324748158455e-02" rms="3.5186186432838440e-01" purity="7.6121819019317627e-01" nType="-99"/>
      </Node>
    </BinaryTree>
    <BinaryTree type="DecisionTree" boostWeight="1.0000000000000000e+00" itree="675">
      <Node pos="s" depth="0" NCoef="0" IVar="3" Cut="4.2960192871093750e+02" cType="1" res="1.0415144497528672e-03" rms="3.8310775160789490e-01" purity="5.0111490488052368e-01" nType="0">
        <Node pos="l" depth="1" NCoef="0" IVar="3" Cut="2.8547546386718750e+02" cType="1" res="-2.9380677005974576e-05" rms="3.8302317261695862e-01" purity="4.9466934800148010e-01" nType="0">
          <Node pos="l" depth="2" NCoef="0" IVar="7" Cut="-4.0000954270362854e-01" cType="1" res="2.4323542602360249e-03" rms="3.8739979267120361e-01" purity="4.5895898342132568e-01" nType="0">
            <Node pos="l" depth="3" NCoef="0" IVar="-1" Cut="0.0000000000000000e+00" cType="1" res="6.5549435093998909e-03" rms="3.8595563173294067e-01" purity="4.2759928107261658e-01" nType="-99"/>
            <Node pos="r" depth="3" NCoef="0" IVar="-1" Cut="0.0000000000000000e+00" cType="1" res="-1.1615327093750238e-03" rms="3.8815653324127197e-01" purity="4.7681602835655212e-01" nType="-99"/>
          </Node>
          <Node pos="r" depth="2" NCoef="0" IVar="5" Cut="6.6334754943847656e+01" cType="1" res="-1.2748989276587963e-02" rms="3.5929316282272339e-01" purity="6.7918235063552856e-01" nType="0">
            <Node pos="l" depth="3" NCoef="0" IVar="-1" Cut="0.0000000000000000e+00" cType="1" res="-2.7973378077149391e-02" rms="3.8476061820983887e-01" purity="4.0554776787757874e-01" nType="-99"/>
            <Node pos="r" depth="3" NCoef="0" IVar="-1" Cut="0.0000000000000000e+00" cType="1" res="-4.8004286363720894e-03" rms="3.5354188084602356e-01" purity="7.3465937376022339e-01" nType="-99"/>
          </Node>
        </Node>
        <Node pos="r" depth="1" NCoef="0" IVar="-1" Cut="0.0000000000000000e+00" cType="1" res="2.0386939868330956e-02" rms="3.8425332307815552e-01" purity="6.9224190711975098e-01" nType="-99"/>
      </Node>
    </BinaryTree>
    <BinaryTree type="DecisionTree" boostWeight="1.0000000000000000e+00" itree="676">
      <Node pos="s" depth="0" NCoef="0" IVar="9" Cut="-3.9999672770500183e-01" cType="1" res="7.4439862510189414e-04" rms="3.8266798853874207e-01" purity="5.0227534770965576e-01" nType="0">
        <Node pos="l" depth="1" NCoef="0" IVar="9" Cut="-6.2857043743133545e-01" cType="1" res="6.3320305198431015e-03" rms="3.8643693923950195e-01" purity="4.8745009303092957e-01" nType="0">
          <Node pos="l" depth="2" NCoef="0" IVar="8" Cut="1.3313901424407959e-01" cType="1" res="2.6534034404903650e-03" rms="3.8491666316986084e-01" purity="4.6622878313064575e-01" nType="0">
            <Node pos="l" depth="3" NCoef="0" IVar="-1" Cut="0.0000000000000000e+00" cType="1" res="7.1747428737580776e-03" rms="3.8817065954208374e-01" purity="4.6345713734626770e-01" nType="-99"/>
            <Node pos="r" depth="3" NCoef="0" IVar="-1" Cut="0.0000000000000000e+00" cType="1" res="-6.2782522290945053e-03" rms="3.7955543398857117e-01" purity="4.7047609090805054e-01" nType="-99"/>
          </Node>
          <Node pos="r" depth="2" NCoef="0" IVar="7" Cut="-1.3393175601959229e-01" cType="1" res="2.2609744220972061e-02" rms="3.9268013834953308e-01" purity="5.8135306835174561e-01" nType="0">
            <Node pos="l" depth="3" NCoef="0" IVar="-1" Cut="0.0000000000000000e+00" cType="1" res="2.7398647740483284e-02" rms="4.0279439091682434e-01" purity="5.7753860950469971e-01" nType="-99"/>
            <Node pos="r" depth="3" NCoef="0" IVar="-1" Cut="0.0000000000000000e+00" cType="1" res="2.7817348018288612e-03" rms="3.8204303383827209e-01" purity="5.8492153882980347e-01" nType="-99"/>
          </Node>
        </Node>
        <Node pos="r" depth="1" NCoef="0" IVar="7" Cut="-1.2000035047531128e+00" cType="1" res="-2.6553678326308727e-03" rms="3.8031631708145142e-01" purity="5.1129567623138428e-01" nType="0">
          <Node pos="l" depth="2" NCoef="0" IVar="8" Cut="-1.3334628939628601e-01" cType="1" res="-1.9715761765837669e-02" rms="3.6565634608268738e-01" purity="3.1934496760368347e-01" nType="0">
            <Node pos="l" depth="3" NCoef="0" IVar="-1" Cut="0.0000000000000000e+00" cType="1" res="-2.6275016716681421e-04" rms="3.7217611074447632e-01" purity="3.5099142789840698e-01" nType="-99"/>
            <Node pos="r" depth="3" NCoef="0" IVar="-1" Cut="0.0000000000000000e+00" cType="1" res="-2.7254708111286163e-02" rms="3.5796967148780823e-01" purity="2.8768256306648254e-01" nType="-99"/>
          </Node>
          <Node pos="r" depth="2" NCoef="0" IVar="4" Cut="1.0560662841796875e+02" cType="1" res="-4.3282218393869698e-04" rms="3.8212868571281433e-01" purity="5.3630208969116211e-01" nType="0">
            <Node pos="l" depth="3" NCoef="0" IVar="-1" Cut="0.0000000000000000e+00" cType="1" res="-5.4721985943615437e-03" rms="3.8203862309455872e-01" purity="2.7545380592346191e-01" nType="-99"/>
            <Node pos="r" depth="3" NCoef="0" IVar="-1" Cut="0.0000000000000000e+00" cType="1" res="2.3308475501835346e-03" rms="3.8211312890052795e-01" purity="6.6705048084259033e-01" nType="-99"/>
          </Node>
        </Node>
      </Node>
    </BinaryTree>
    <BinaryTree type="DecisionTree" boostWeight="1.0000000000000000e+00" itree="677">
      <Node pos="s" depth="0" NCoef="0" IVar="3" Cut="4.2993606567382812e+02" cType="1" res="-1.0530621511861682e-04" rms="3.8398641347885132e-01" purity="5.0015652179718018e-01" nType="0">
        <Node pos="l" depth="1" NCoef="0" IVar="6" Cut="-1.7242165803909302e+00" cType="1" res="7.3715782491490245e-04" rms="3.8382804393768311e-01" purity="4.9601927399635315e-01" nType="0">
          <Node pos="l" depth="2" NCoef="0" IVar="-1" Cut="0.0000000000000000e+00" cType="1" res="-2.1125992760062218e-02" rms="2.8521206974983215e-01" purity="1.4657752215862274e-01" nType="-99"/>
          <Node pos="r" depth="2" NCoef="0" IVar="6" Cut="-1.2933782339096069e+00" cType="1" res="1.6417165752500296e-03" rms="3.8725775480270386e-01" purity="5.1013749837875366e-01" nType="0">
            <Node pos="l" depth="3" NCoef="0" IVar="-1" Cut="0.0000000000000000e+00" cType="1" res="1.6279846429824829e-02" rms="3.9103353023529053e-01" purity="2.9555365443229675e-01" nType="-99"/>
            <Node pos="r" depth="3" NCoef="0" IVar="-1" Cut="0.0000000000000000e+00" cType="1" res="2.5509504484944046e-04" rms="3.8699504733085632e-01" purity="5.2294135093688965e-01" nType="-99"/>
          </Node>
        </Node>
        <Node pos="r" depth="1" NCoef="0" IVar="-1" Cut="0.0000000000000000e+00" cType="1" res="-1.8722610548138618e-02" rms="3.8822162151336670e-01" purity="6.3974100351333618e-01" nType="-99"/>
      </Node>
    </BinaryTree>
    <BinaryTree type="DecisionTree" boostWeight="1.0000000000000000e+00" itree="678">
      <Node pos="s" depth="0" NCoef="0" IVar="8" Cut="-1.4666647911071777e+00" cType="1" res="2.7678755577653646e-03" rms="3.8570654392242432e-01" purity="5.0433897972106934e-01" nType="0">
        <Node pos="l" depth="1" NCoef="0" IVar="0" Cut="4.2764266967773438e+02" cType="1" res="1.4234321191906929e-02" rms="3.7329560518264771e-01" purity="3.3608537912368774e-01" nType="0">
          <Node pos="l" depth="2" NCoef="0" IVar="0" Cut="3.4255364990234375e+02" cType="1" res="4.4115334749221802e-03" rms="3.4629774093627930e-01" purity="2.0374241471290588e-01" nType="0">
            <Node pos="l" depth="3" NCoef="0" IVar="-1" Cut="0.0000000000000000e+00" cType="1" res="-1.4153050258755684e-02" rms="2.8663784265518188e-01" purity="1.3473720848560333e-01" nType="-99"/>
            <Node pos="r" depth="3" NCoef="0" IVar="-1" Cut="0.0000000000000000e+00" cType="1" res="1.3389893807470798e-02" rms="3.8335272669792175e-01" purity="2.5392737984657288e-01" nType="-99"/>
          </Node>
          <Node pos="r" depth="2" NCoef="0" IVar="-1" Cut="0.0000000000000000e+00" cType="1" res="1.7352132126688957e-02" rms="4.0995347499847412e-01" purity="5.3413307666778564e-01" nType="-99"/>
        </Node>
        <Node pos="r" depth="1" NCoef="0" IVar="8" Cut="-1.2634437084197998e+00" cType="1" res="1.4093632344156504e-03" rms="3.8712808489799500e-01" purity="5.2427321672439575e-01" nType="0">
          <Node pos="l" depth="2" NCoef="0" IVar="-1" Cut="0.0000000000000000e+00" cType="1" res="-1.1766965501010418e-02" rms="3.8964203000068665e-01" purity="4.1704043745994568e-01" nType="-99"/>
          <Node pos="r" depth="2" NCoef="0" IVar="7" Cut="-1.9999029636383057e+00" cType="1" res="2.1847279276698828e-03" rms="3.8700649142265320e-01" purity="5.2858895063400269e-01" nType="0">
            <Node pos="l" depth="3" NCoef="0" IVar="-1" Cut="0.0000000000000000e+00" cType="1" res="-2.0290937274694443e-02" rms="3.0857849121093750e-01" purity="1.9227254390716553e-01" nType="-99"/>
            <Node pos="r" depth="3" NCoef="0" IVar="-1" Cut="0.0000000000000000e+00" cType="1" res="1.9869091920554638e-03" rms="3.8926887512207031e-01" purity="5.3955137729644775e-01" nType="-99"/>
          </Node>
        </Node>
      </Node>
    </BinaryTree>
    <BinaryTree type="DecisionTree" boostWeight="1.0000000000000000e+00" itree="679">
      <Node pos="s" depth="0" NCoef="0" IVar="6" Cut="-1.6928347349166870e+00" cType="1" res="-3.4876740537583828e-03" rms="3.8419809937477112e-01" purity="4.9323976039886475e-01" nType="0">
        <Node pos="l" depth="1" NCoef="0" IVar="-1" Cut="0.0000000000000000e+00" cType="1" res="1.9975619390606880e-02" rms="3.3841145038604736e-01" purity="1.9433407485485077e-01" nType="-99"/>
        <Node pos="r" depth="1" NCoef="0" IVar="9" Cut="1.9999907016754150e+00" cType="1" res="-4.5807496644556522e-03" rms="3.8607656955718994e-01" purity="5.0656479597091675e-01" nType="0">
          <Node pos="l" depth="2" NCoef="0" IVar="6" Cut="4.4653376936912537e-01" cType="1" res="-5.8006877079606056e-03" rms="3.8610172271728516e-01" purity="5.1411437988281250e-01" nType="0">
            <Node pos="l" depth="3" NCoef="0" IVar="-1" Cut="0.0000000000000000e+00" cType="1" res="-5.7128039188683033e-03" rms="3.8899007439613342e-01" purity="5.5545991659164429e-01" nType="-99"/>
            <Node pos="r" depth="3" NCoef="0" IVar="-1" Cut="0.0000000000000000e+00" cType="1" res="2.1693101734854281e-04" rms="3.7999713420867920e-01" purity="4.2876899242401123e-01" nType="-99"/>
          </Node>
          <Node pos="r" depth="2" NCoef="0" IVar="9" Cut="2.3428673744201660e+00" cType="1" res="1.6308216378092766e-02" rms="3.8504657149314880e-01" purity="3.7729325890541077e-01" nType="0">
            <Node pos="l" depth="3" NCoef="0" IVar="-1" Cut="0.0000000000000000e+00" cType="1" res="1.4104365836828947e-03" rms="3.8925585150718689e-01" purity="3.8693475723266602e-01" nType="-99"/>
            <Node pos="r" depth="3" NCoef="0" IVar="-1" Cut="0.0000000000000000e+00" cType="1" res="2.2162239998579025e-02" rms="3.7992140650749207e-01" purity="3.6699762940406799e-01" nType="-99"/>
          </Node>
        </Node>
      </Node>
    </BinaryTree>
    <BinaryTree type="DecisionTree" boostWeight="1.0000000000000000e+00" itree="680">
      <Node pos="s" depth="0" NCoef="0" IVar="7" Cut="1.7332569360733032e+00" cType="1" res="9.1551232617348433e-04" rms="3.8375729322433472e-01" purity="5.0038719177246094e-01" nType="0">
        <Node pos="l" depth="1" NCoef="0" IVar="9" Cut="6.6666418313980103e-01" cType="1" res="-3.3268454717472196e-04" rms="3.8589665293693542e-01" purity="5.1782864332199097e-01" nType="0">
          <Node pos="l" depth="2" NCoef="0" IVar="6" Cut="1.4518496394157410e-01" cType="1" res="3.7232225295156240e-03" rms="3.8732340931892395e-01" purity="5.3572088479995728e-01" nType="0">
            <Node pos="l" depth="3" NCoef="0" IVar="-1" Cut="0.0000000000000000e+00" cType="1" res="5.4083210416138172e-03" rms="3.9009830355644226e-01" purity="5.5018186569213867e-01" nType="-99"/>
            <Node pos="r" depth="3" NCoef="0" IVar="-1" Cut="0.0000000000000000e+00" cType="1" res="-2.0377410110086203e-03" rms="3.8307788968086243e-01" purity="5.1430958509445190e-01" nType="-99"/>
          </Node>
          <Node pos="r" depth="2" NCoef="0" IVar="9" Cut="8.6983895301818848e-01" cType="1" res="-1.0206183418631554e-02" rms="3.8222131133079529e-01" purity="4.7427272796630859e-01" nType="0">
            <Node pos="l" depth="3" NCoef="0" IVar="-1" Cut="0.0000000000000000e+00" cType="1" res="-2.0360471680760384e-02" rms="3.8418450951576233e-01" purity="5.1756972074508667e-01" nType="-99"/>
            <Node pos="r" depth="3" NCoef="0" IVar="-1" Cut="0.0000000000000000e+00" cType="1" res="-3.9648101665079594e-03" rms="3.8168290257453918e-01" purity="4.6551564335823059e-01" nType="-99"/>
          </Node>
        </Node>
        <Node pos="r" depth="1" NCoef="0" IVar="7" Cut="2.1396114826202393e+00" cType="1" res="2.0742055028676987e-02" rms="3.4741562604904175e-01" purity="2.2334510087966919e-01" nType="0">
          <Node pos="l" depth="2" NCoef="0" IVar="-1" Cut="0.0000000000000000e+00" cType="1" res="3.5523656755685806e-02" rms="3.7702161073684692e-01" purity="2.6794171333312988e-01" nType="-99"/>
          <Node pos="r" depth="2" NCoef="0" IVar="-1" Cut="0.0000000000000000e+00" cType="1" res="-7.7362847514450550e-03" rms="3.0188608169555664e-01" purity="1.6483727097511292e-01" nType="-99"/>
        </Node>
      </Node>
    </BinaryTree>
    <BinaryTree type="DecisionTree" boostWeight="1.0000000000000000e+00" itree="681">
      <Node pos="s" depth="0" NCoef="0" IVar="2" Cut="4.9193713378906250e+02" cType="1" res="3.1094526639208198e-04" rms="3.8376292586326599e-01" purity="4.9931704998016357e-01" nType="0">
        <Node pos="l" depth="1" NCoef="0" IVar="0" Cut="3.6825918579101562e+02" cType="1" res="-1.8282750388607383e-03" rms="3.8307648897171021e-01" purity="4.8491179943084717e-01" nType="0">
          <Node pos="l" depth="2" NCoef="0" IVar="5" Cut="9.1529335021972656e+01" cType="1" res="4.8253703862428665e-03" rms="3.8125866651535034e-01" purity="3.0962178111076355e-01" nType="0">
            <Node pos="l" depth="3" NCoef="0" IVar="-1" Cut="0.0000000000000000e+00" cType="1" res="-1.5046974876895547e-03" rms="3.6064690351486206e-01" purity="2.0508141815662384e-01" nType="-99"/>
            <Node pos="r" depth="3" NCoef="0" IVar="-1" Cut="0.0000000000000000e+00" cType="1" res="1.0745766572654247e-02" rms="4.2216059565544128e-01" purity="5.3645551204681396e-01" nType="-99"/>
          </Node>
          <Node pos="r" depth="2" NCoef="0" IVar="9" Cut="-6.6664373874664307e-01" cType="1" res="-5.9845331124961376e-03" rms="3.8414916396141052e-01" purity="5.9440827369689941e-01" nType="0">
            <Node pos="l" depth="3" NCoef="0" IVar="-1" Cut="0.0000000000000000e+00" cType="1" res="-1.0543405078351498e-02" rms="3.8708081841468811e-01" purity="5.4919552803039551e-01" nType="-99"/>
            <Node pos="r" depth="3" NCoef="0" IVar="-1" Cut="0.0000000000000000e+00" cType="1" res="-1.2957516591995955e-03" rms="3.8286703824996948e-01" purity="6.1292982101440430e-01" nType="-99"/>
          </Node>
        </Node>
        <Node pos="r" depth="1" NCoef="0" IVar="3" Cut="1.4677491760253906e+02" cType="1" res="9.9314879626035690e-03" rms="3.8668870925903320e-01" purity="5.6410044431686401e-01" nType="0">
          <Node pos="l" depth="2" NCoef="0" IVar="-1" Cut="0.0000000000000000e+00" cType="1" res="3.4232821315526962e-02" rms="4.1600918769836426e-01" purity="3.6305475234985352e-01" nType="-99"/>
          <Node pos="r" depth="2" NCoef="0" IVar="9" Cut="1.3341213762760162e-01" cType="1" res="2.2074305452406406e-03" rms="3.8094171881675720e-01" purity="5.9827739000320435e-01" nType="0">
            <Node pos="l" depth="3" NCoef="0" IVar="-1" Cut="0.0000000000000000e+00" cType="1" res="7.7352365478873253e-03" rms="3.8592720031738281e-01" purity="6.1750853061676025e-01" nType="-99"/>
            <Node pos="r" depth="3" NCoef="0" IVar="-1" Cut="0.0000000000000000e+00" cType="1" res="-6.7115547135472298e-03" rms="3.7405362725257874e-01" purity="5.7344329357147217e-01" nType="-99"/>
          </Node>
        </Node>
      </Node>
    </BinaryTree>
    <BinaryTree type="DecisionTree" boostWeight="1.0000000000000000e+00" itree="682">
      <Node pos="s" depth="0" NCoef="0" IVar="7" Cut="1.7333317995071411e+00" cType="1" res="-2.9697713907808065e-03" rms="3.8324189186096191e-01" purity="4.9642246961593628e-01" nType="0">
        <Node pos="l" depth="1" NCoef="0" IVar="8" Cut="-1.4666841030120850e+00" cType="1" res="-1.6223206184804440e-03" rms="3.8692548871040344e-01" purity="5.1519429683685303e-01" nType="0">
          <Node pos="l" depth="2" NCoef="0" IVar="6" Cut="-3.6673730611801147e-01" cType="1" res="1.3022669591009617e-02" rms="3.8305938243865967e-01" purity="3.3946314454078674e-01" nType="0">
            <Node pos="l" depth="3" NCoef="0" IVar="-1" Cut="0.0000000000000000e+00" cType="1" res="-8.9804539456963539e-03" rms="3.6153092980384827e-01" purity="2.7160418033599854e-01" nType="-99"/>
            <Node pos="r" depth="3" NCoef="0" IVar="-1" Cut="0.0000000000000000e+00" cType="1" res="2.0704997703433037e-02" rms="3.9633420109748840e-01" purity="3.8632658123970032e-01" nType="-99"/>
          </Node>
          <Node pos="r" depth="2" NCoef="0" IVar="7" Cut="-1.9364050626754761e+00" cType="1" res="-3.3360531087964773e-03" rms="3.8733920454978943e-01" purity="5.3575807809829712e-01" nType="0">
            <Node pos="l" depth="3" NCoef="0" IVar="-1" Cut="0.0000000000000000e+00" cType="1" res="2.4284601211547852e-02" rms="3.5588324069976807e-01" purity="2.4384403228759766e-01" nType="-99"/>
            <Node pos="r" depth="3" NCoef="0" IVar="-1" Cut="0.0000000000000000e+00" cType="1" res="-3.0485750176012516e-03" rms="3.8856762647628784e-01" purity="5.4822754859924316e-01" nType="-99"/>
          </Node>
        </Node>
        <Node pos="r" depth="1" NCoef="0" IVar="6" Cut="2.0154428482055664e-01" cType="1" res="-2.4759056046605110e-02" rms="3.1700751185417175e-01" purity="1.9286826252937317e-01" nType="0">
          <Node pos="l" depth="2" NCoef="0" IVar="-1" Cut="0.0000000000000000e+00" cType="1" res="-3.5723764449357986e-02" rms="3.1312641501426697e-01" purity="1.7051103711128235e-01" nType="-99"/>
          <Node pos="r" depth="2" NCoef="0" IVar="-1" Cut="0.0000000000000000e+00" cType="1" res="-5.6524425745010376e-03" rms="3.2037848234176636e-01" purity="2.1843047440052032e-01" nType="-99"/>
        </Node>
      </Node>
    </BinaryTree>
    <BinaryTree type="DecisionTree" boostWeight="1.0000000000000000e+00" itree="683">
      <Node pos="s" depth="0" NCoef="0" IVar="7" Cut="-1.4666053056716919e+00" cType="1" res="-1.4136830577626824e-03" rms="3.8428434729576111e-01" purity="4.9743193387985229e-01" nType="0">
        <Node pos="l" depth="1" NCoef="0" IVar="1" Cut="1.0999604492187500e+03" cType="1" res="1.4359139837324619e-02" rms="3.5720992088317871e-01" purity="2.7101394534111023e-01" nType="0">
          <Node pos="l" depth="2" NCoef="0" IVar="-1" Cut="0.0000000000000000e+00" cType="1" res="-3.3546534832566977e-03" rms="2.8665220737457275e-01" purity="1.0851621627807617e-01" nType="-99"/>
          <Node pos="r" depth="2" NCoef="0" IVar="9" Cut="-1.3434800505638123e-01" cType="1" res="2.7145013213157654e-02" rms="4.0116602182388306e-01" purity="3.9162415266036987e-01" nType="0">
            <Node pos="l" depth="3" NCoef="0" IVar="-1" Cut="0.0000000000000000e+00" cType="1" res="2.7555873617529869e-02" rms="4.0215998888015747e-01" purity="3.8305005431175232e-01" nType="-99"/>
            <Node pos="r" depth="3" NCoef="0" IVar="-1" Cut="0.0000000000000000e+00" cType="1" res="7.3168417438864708e-03" rms="3.9950051903724670e-01" purity="4.0103510022163391e-01" nType="-99"/>
          </Node>
        </Node>
        <Node pos="r" depth="1" NCoef="0" IVar="9" Cut="1.7333319187164307e+00" cType="1" res="-3.0328433495014906e-03" rms="3.8692009449005127e-01" purity="5.2067488431930542e-01" nType="0">
          <Node pos="l" depth="2" NCoef="0" IVar="7" Cut="-1.2634344100952148e+00" cType="1" res="-1.4257751172408462e-03" rms="3.8767436146736145e-01" purity="5.3440278768539429e-01" nType="0">
            <Node pos="l" depth="3" NCoef="0" IVar="-1" Cut="0.0000000000000000e+00" cType="1" res="-1.9069233909249306e-02" rms="3.8326179981231689e-01" purity="3.7305915355682373e-01" nType="-99"/>
            <Node pos="r" depth="3" NCoef="0" IVar="-1" Cut="0.0000000000000000e+00" cType="1" res="-2.7783648693002760e-04" rms="3.8779380917549133e-01" purity="5.4018002748489380e-01" nType="-99"/>
          </Node>
          <Node pos="r" depth="2" NCoef="0" IVar="8" Cut="1.3445188105106354e-01" cType="1" res="-2.1208003163337708e-02" rms="3.7780943512916565e-01" purity="3.6541923880577087e-01" nType="0">
            <Node pos="l" depth="3" NCoef="0" IVar="-1" Cut="0.0000000000000000e+00" cType="1" res="-2.5852365419268608e-02" rms="3.6668920516967773e-01" purity="3.7835675477981567e-01" nType="-99"/>
            <Node pos="r" depth="3" NCoef="0" IVar="-1" Cut="0.0000000000000000e+00" cType="1" res="-4.1888835839927197e-03" rms="3.8644850254058838e-01" purity="3.5432416200637817e-01" nType="-99"/>
          </Node>
        </Node>
      </Node>
    </BinaryTree>
    <BinaryTree type="DecisionTree" boostWeight="1.0000000000000000e+00" itree="684">
      <Node pos="s" depth="0" NCoef="0" IVar="5" Cut="7.8396499633789062e+01" cType="1" res="1.9245289731770754e-03" rms="3.8465636968612671e-01" purity="4.9964565038681030e-01" nType="0">
        <Node pos="l" depth="1" NCoef="0" IVar="8" Cut="6.6665828227996826e-01" cType="1" res="7.7668917365372181e-03" rms="3.8606128096580505e-01" purity="3.2466873526573181e-01" nType="0">
          <Node pos="l" depth="2" NCoef="0" IVar="9" Cut="-1.3313457369804382e-01" cType="1" res="1.3928797096014023e-02" rms="3.9451634883880615e-01" purity="3.5375899076461792e-01" nType="0">
            <Node pos="l" depth="3" NCoef="0" IVar="-1" Cut="0.0000000000000000e+00" cType="1" res="1.5487769618630409e-02" rms="3.9523425698280334e-01" purity="3.5205370187759399e-01" nType="-99"/>
            <Node pos="r" depth="3" NCoef="0" IVar="-1" Cut="0.0000000000000000e+00" cType="1" res="2.6395227760076523e-03" rms="3.9355888962745667e-01" purity="3.5545468330383301e-01" nType="-99"/>
          </Node>
          <Node pos="r" depth="2" NCoef="0" IVar="9" Cut="3.9987143874168396e-01" cType="1" res="-6.8972748704254627e-03" rms="3.6473485827445984e-01" purity="2.5543940067291260e-01" nType="0">
            <Node pos="l" depth="3" NCoef="0" IVar="-1" Cut="0.0000000000000000e+00" cType="1" res="-1.3047526590526104e-02" rms="3.7547802925109863e-01" purity="2.7002140879631042e-01" nType="-99"/>
            <Node pos="r" depth="3" NCoef="0" IVar="-1" Cut="0.0000000000000000e+00" cType="1" res="6.1685377731919289e-03" rms="3.5098102688789368e-01" purity="2.3811914026737213e-01" nType="-99"/>
          </Node>
        </Node>
        <Node pos="r" depth="1" NCoef="0" IVar="3" Cut="1.7344726562500000e+02" cType="1" res="-3.2635491807013750e-03" rms="3.8332986831665039e-01" purity="6.5502691268920898e-01" nType="0">
          <Node pos="l" depth="2" NCoef="0" IVar="3" Cut="1.5125555419921875e+02" cType="1" res="-1.4260138384997845e-02" rms="4.1809937357902527e-01" purity="4.6479836106300354e-01" nType="0">
            <Node pos="l" depth="3" NCoef="0" IVar="-1" Cut="0.0000000000000000e+00" cType="1" res="-1.5503757633268833e-02" rms="4.1544401645660400e-01" purity="4.0393763780593872e-01" nType="-99"/>
            <Node pos="r" depth="3" NCoef="0" IVar="-1" Cut="0.0000000000000000e+00" cType="1" res="2.8065496589988470e-03" rms="4.2100167274475098e-01" purity="5.4919666051864624e-01" nType="-99"/>
          </Node>
          <Node pos="r" depth="2" NCoef="0" IVar="1" Cut="1.4296577148437500e+03" cType="1" res="1.2998140300624073e-04" rms="3.7187868356704712e-01" purity="7.1373116970062256e-01" nType="0">
            <Node pos="l" depth="3" NCoef="0" IVar="-1" Cut="0.0000000000000000e+00" cType="1" res="3.5730223171412945e-03" rms="4.1486766934394836e-01" purity="5.9743022918701172e-01" nType="-99"/>
            <Node pos="r" depth="3" NCoef="0" IVar="-1" Cut="0.0000000000000000e+00" cType="1" res="-3.7709872703999281e-03" rms="3.3725330233573914e-01" purity="7.9800319671630859e-01" nType="-99"/>
          </Node>
        </Node>
      </Node>
    </BinaryTree>
    <BinaryTree type="DecisionTree" boostWeight="1.0000000000000000e+00" itree="685">
      <Node pos="s" depth="0" NCoef="0" IVar="8" Cut="-1.3334368169307709e-01" cType="1" res="9.3742983881384134e-04" rms="3.8453263044357300e-01" purity="4.9872738122940063e-01" nType="0">
        <Node pos="l" depth="1" NCoef="0" IVar="6" Cut="-6.5138775110244751e-01" cType="1" res="-5.4705557413399220e-03" rms="3.8546627759933472e-01" purity="4.8591241240501404e-01" nType="0">
          <Node pos="l" depth="2" NCoef="0" IVar="6" Cut="-1.0558341741561890e+00" cType="1" res="-2.4757111445069313e-02" rms="3.6829236149787903e-01" purity="3.4672680497169495e-01" nType="0">
            <Node pos="l" depth="3" NCoef="0" IVar="-1" Cut="0.0000000000000000e+00" cType="1" res="-4.3428707867860794e-03" rms="3.5013681650161743e-01" purity="2.7003204822540283e-01" nType="-99"/>
            <Node pos="r" depth="3" NCoef="0" IVar="-1" Cut="0.0000000000000000e+00" cType="1" res="-3.2559946179389954e-02" rms="3.9047983288764954e-01" purity="4.5285615324974060e-01" nType="-99"/>
          </Node>
          <Node pos="r" depth="2" NCoef="0" IVar="4" Cut="9.6880157470703125e+01" cType="1" res="1.7773772124201059e-03" rms="3.9148011803627014e-01" purity="5.3821867704391479e-01" nType="0">
            <Node pos="l" depth="3" NCoef="0" IVar="-1" Cut="0.0000000000000000e+00" cType="1" res="-7.4186418205499649e-03" rms="3.7874472141265869e-01" purity="2.5910010933876038e-01" nType="-99"/>
            <Node pos="r" depth="3" NCoef="0" IVar="-1" Cut="0.0000000000000000e+00" cType="1" res="4.3505602516233921e-03" rms="3.9610049128532410e-01" purity="6.4428263902664185e-01" nType="-99"/>
          </Node>
        </Node>
        <Node pos="r" depth="1" NCoef="0" IVar="6" Cut="1.5725070238113403e-01" cType="1" res="6.2416680157184601e-03" rms="3.8367709517478943e-01" purity="5.0933498144149780e-01" nType="0">
          <Node pos="l" depth="2" NCoef="0" IVar="1" Cut="1.1001358642578125e+03" cType="1" res="1.2645348906517029e-02" rms="3.8593134284019470e-01" purity="5.4686719179153442e-01" nType="0">
            <Node pos="l" depth="3" NCoef="0" IVar="-1" Cut="0.0000000000000000e+00" cType="1" res="1.8895810469985008e-02" rms="3.9361938834190369e-01" purity="2.9147797822952271e-01" nType="-99"/>
            <Node pos="r" depth="3" NCoef="0" IVar="-1" Cut="0.0000000000000000e+00" cType="1" res="3.6486801691353321e-03" rms="3.8241511583328247e-01" purity="6.5461200475692749e-01" nType="-99"/>
          </Node>
          <Node pos="r" depth="2" NCoef="0" IVar="7" Cut="6.6669696569442749e-01" cType="1" res="-1.1107556056231260e-03" rms="3.8093972206115723e-01" purity="4.6624207496643066e-01" nType="0">
            <Node pos="l" depth="3" NCoef="0" IVar="-1" Cut="0.0000000000000000e+00" cType="1" res="-4.7922125086188316e-03" rms="3.8345879316329956e-01" purity="5.0274109840393066e-01" nType="-99"/>
            <Node pos="r" depth="3" NCoef="0" IVar="-1" Cut="0.0000000000000000e+00" cType="1" res="9.0036969631910324e-03" rms="3.7508603930473328e-01" purity="3.8725075125694275e-01" nType="-99"/>
          </Node>
        </Node>
      </Node>
    </BinaryTree>
    <BinaryTree type="DecisionTree" boostWeight="1.0000000000000000e+00" itree="686">
      <Node pos="s" depth="0" NCoef="0" IVar="7" Cut="-1.7332438230514526e+00" cType="1" res="-9.0952357277274132e-04" rms="3.8536515831947327e-01" purity="4.9564188718795776e-01" nType="0">
        <Node pos="l" depth="1" NCoef="0" IVar="6" Cut="-1.0633639246225357e-01" cType="1" res="1.8902398645877838e-02" rms="3.4579837322235107e-01" purity="2.3983894288539886e-01" nType="0">
          <Node pos="l" depth="2" NCoef="0" IVar="-1" Cut="0.0000000000000000e+00" cType="1" res="2.7566224336624146e-02" rms="3.5502612590789795e-01" purity="2.6316061615943909e-01" nType="-99"/>
          <Node pos="r" depth="2" NCoef="0" IVar="-1" Cut="0.0000000000000000e+00" cType="1" res="4.7761034220457077e-03" rms="3.3617103099822998e-01" purity="2.1748957037925720e-01" nType="-99"/>
        </Node>
        <Node pos="r" depth="1" NCoef="0" IVar="6" Cut="1.4725548028945923e+00" cType="1" res="-2.1873200312256813e-03" rms="3.8774374127388000e-01" purity="5.1214021444320679e-01" nType="0">
          <Node pos="l" depth="2" NCoef="0" IVar="8" Cut="-1.3334119319915771e-01" cType="1" res="-9.1820064699277282e-04" rms="3.9199823141098022e-01" purity="5.3530669212341309e-01" nType="0">
            <Node pos="l" depth="3" NCoef="0" IVar="-1" Cut="0.0000000000000000e+00" cType="1" res="-4.3991613201797009e-03" rms="3.9014261960983276e-01" purity="5.2443289756774902e-01" nType="-99"/>
            <Node pos="r" depth="3" NCoef="0" IVar="-1" Cut="0.0000000000000000e+00" cType="1" res="2.5437660515308380e-03" rms="3.9347487688064575e-01" purity="5.4438656568527222e-01" nType="-99"/>
          </Node>
          <Node pos="r" depth="2" NCoef="0" IVar="7" Cut="2.0966461300849915e-01" cType="1" res="-2.0660432055592537e-02" rms="3.1889331340789795e-01" purity="1.7493298649787903e-01" nType="0">
            <Node pos="l" depth="3" NCoef="0" IVar="-1" Cut="0.0000000000000000e+00" cType="1" res="-3.7071526050567627e-02" rms="3.2362470030784607e-01" purity="1.8206015229225159e-01" nType="-99"/>
            <Node pos="r" depth="3" NCoef="0" IVar="-1" Cut="0.0000000000000000e+00" cType="1" res="5.1702554337680340e-03" rms="3.1212547421455383e-01" purity="1.6804295778274536e-01" nType="-99"/>
          </Node>
        </Node>
      </Node>
    </BinaryTree>
    <BinaryTree type="DecisionTree" boostWeight="1.0000000000000000e+00" itree="687">
      <Node pos="s" depth="0" NCoef="0" IVar="7" Cut="9.3312931060791016e-01" cType="1" res="2.4267570115625858e-03" rms="3.8408619165420532e-01" purity="5.0124198198318481e-01" nType="0">
        <Node pos="l" depth="1" NCoef="0" IVar="6" Cut="-1.6870281696319580e+00" cType="1" res="6.5068798139691353e-03" rms="3.8864806294441223e-01" purity="5.3757810592651367e-01" nType="0">
          <Node pos="l" depth="2" NCoef="0" IVar="-1" Cut="0.0000000000000000e+00" cType="1" res="-2.9474308714270592e-02" rms="3.0697071552276611e-01" purity="1.4344696700572968e-01" nType="-99"/>
          <Node pos="r" depth="2" NCoef="0" IVar="6" Cut="1.3041152954101562e+00" cType="1" res="8.0663627013564110e-03" rms="3.9147287607192993e-01" purity="5.5330461263656616e-01" nType="0">
            <Node pos="l" depth="3" NCoef="0" IVar="-1" Cut="0.0000000000000000e+00" cType="1" res="3.9843549020588398e-03" rms="3.9415383338928223e-01" purity="5.8022922277450562e-01" nType="-99"/>
            <Node pos="r" depth="3" NCoef="0" IVar="-1" Cut="0.0000000000000000e+00" cType="1" res="2.0405415445566177e-02" rms="3.6264786124229431e-01" purity="2.8000023961067200e-01" nType="-99"/>
          </Node>
        </Node>
        <Node pos="r" depth="1" NCoef="0" IVar="8" Cut="-6.6640216112136841e-01" cType="1" res="-1.4816082082688808e-02" rms="3.6367186903953552e-01" purity="3.4768337011337280e-01" nType="0">
          <Node pos="l" depth="2" NCoef="0" IVar="-1" Cut="0.0000000000000000e+00" cType="1" res="2.4475057143718004e-03" rms="3.5768237709999084e-01" purity="3.1747186183929443e-01" nType="-99"/>
          <Node pos="r" depth="2" NCoef="0" IVar="8" Cut="1.5894377231597900e-01" cType="1" res="-2.0919101312756538e-02" rms="3.6547046899795532e-01" purity="3.5788527131080627e-01" nType="0">
            <Node pos="l" depth="3" NCoef="0" IVar="-1" Cut="0.0000000000000000e+00" cType="1" res="-2.4748090654611588e-02" rms="3.8705745339393616e-01" purity="4.1272121667861938e-01" nType="-99"/>
            <Node pos="r" depth="3" NCoef="0" IVar="-1" Cut="0.0000000000000000e+00" cType="1" res="-1.0462033562362194e-02" rms="3.5544082522392273e-01" purity="3.3406111598014832e-01" nType="-99"/>
          </Node>
        </Node>
      </Node>
    </BinaryTree>
    <BinaryTree type="DecisionTree" boostWeight="1.0000000000000000e+00" itree="688">
      <Node pos="s" depth="0" NCoef="0" IVar="2" Cut="3.3999343872070312e+02" cType="1" res="2.0646851044148207e-03" rms="3.8401314616203308e-01" purity="5.0125014781951904e-01" nType="0">
        <Node pos="l" depth="1" NCoef="0" IVar="0" Cut="3.4553497314453125e+02" cType="1" res="-2.7235336601734161e-03" rms="3.9220756292343140e-01" purity="4.5477586984634399e-01" nType="0">
          <Node pos="l" depth="2" NCoef="0" IVar="8" Cut="1.3315458595752716e-01" cType="1" res="7.2762230411171913e-03" rms="3.9025545120239258e-01" purity="2.9426574707031250e-01" nType="0">
            <Node pos="l" depth="3" NCoef="0" IVar="-1" Cut="0.0000000000000000e+00" cType="1" res="-2.4311139713972807e-03" rms="3.8521459698677063e-01" purity="2.8987297415733337e-01" nType="-99"/>
            <Node pos="r" depth="3" NCoef="0" IVar="-1" Cut="0.0000000000000000e+00" cType="1" res="1.3854060322046280e-02" rms="3.9569970965385437e-01" purity="2.9941675066947937e-01" nType="-99"/>
          </Node>
          <Node pos="r" depth="2" NCoef="0" IVar="9" Cut="-9.3278354406356812e-01" cType="1" res="-7.1302442811429501e-03" rms="3.9298397302627563e-01" purity="5.2550977468490601e-01" nType="0">
            <Node pos="l" depth="3" NCoef="0" IVar="-1" Cut="0.0000000000000000e+00" cType="1" res="4.9554076977074146e-03" rms="3.9363238215446472e-01" purity="4.8646819591522217e-01" nType="-99"/>
            <Node pos="r" depth="3" NCoef="0" IVar="-1" Cut="0.0000000000000000e+00" cType="1" res="-7.5455582700669765e-03" rms="3.9266186952590942e-01" purity="5.3780186176300049e-01" nType="-99"/>
          </Node>
        </Node>
        <Node pos="r" depth="1" NCoef="0" IVar="6" Cut="-1.3577259778976440e+00" cType="1" res="6.5052462741732597e-03" rms="3.7619978189468384e-01" purity="5.4434996843338013e-01" nType="0">
          <Node pos="l" depth="2" NCoef="0" IVar="-1" Cut="0.0000000000000000e+00" cType="1" res="-1.7318168655037880e-02" rms="3.2481402158737183e-01" purity="1.9402725994586945e-01" nType="-99"/>
          <Node pos="r" depth="2" NCoef="0" IVar="8" Cut="1.3317105174064636e-01" cType="1" res="8.2407211884856224e-03" rms="3.7930101156234741e-01" purity="5.6760638952255249e-01" nType="0">
            <Node pos="l" depth="3" NCoef="0" IVar="-1" Cut="0.0000000000000000e+00" cType="1" res="9.4752740114927292e-03" rms="3.8064837455749512e-01" purity="5.8857917785644531e-01" nType="-99"/>
            <Node pos="r" depth="3" NCoef="0" IVar="-1" Cut="0.0000000000000000e+00" cType="1" res="7.0991681423038244e-04" rms="3.7747517228126526e-01" purity="5.4121524095535278e-01" nType="-99"/>
          </Node>
        </Node>
      </Node>
    </BinaryTree>
    <BinaryTree type="DecisionTree" boostWeight="1.0000000000000000e+00" itree="689">
      <Node pos="s" depth="0" NCoef="0" IVar="6" Cut="-1.2745065987110138e-01" cType="1" res="-3.2470321748405695e-03" rms="3.8306105136871338e-01" purity="4.9542310833930969e-01" nType="0">
        <Node pos="l" depth="1" NCoef="0" IVar="6" Cut="-7.6106470823287964e-01" cType="1" res="-7.9694837331771851e-03" rms="3.8174277544021606e-01" purity="4.7971642017364502e-01" nType="0">
          <Node pos="l" depth="2" NCoef="0" IVar="6" Cut="-1.3403655290603638e+00" cType="1" res="1.7592672957107425e-03" rms="3.7619090080261230e-01" purity="3.5804396867752075e-01" nType="0">
            <Node pos="l" depth="3" NCoef="0" IVar="-1" Cut="0.0000000000000000e+00" cType="1" res="-6.3925194554030895e-03" rms="3.3730459213256836e-01" purity="2.1595434844493866e-01" nType="-99"/>
            <Node pos="r" depth="3" NCoef="0" IVar="-1" Cut="0.0000000000000000e+00" cType="1" res="4.8879254609346390e-03" rms="3.9891469478607178e-01" purity="4.4872063398361206e-01" nType="-99"/>
          </Node>
          <Node pos="r" depth="2" NCoef="0" IVar="8" Cut="-6.6669541597366333e-01" cType="1" res="-1.6701962798833847e-02" rms="3.8644969463348389e-01" purity="5.8892899751663208e-01" nType="0">
            <Node pos="l" depth="3" NCoef="0" IVar="-1" Cut="0.0000000000000000e+00" cType="1" res="-2.1488666534423828e-02" rms="3.8868930935859680e-01" purity="5.1467883586883545e-01" nType="-99"/>
            <Node pos="r" depth="3" NCoef="0" IVar="-1" Cut="0.0000000000000000e+00" cType="1" res="-6.3490606844425201e-03" rms="3.8532531261444092e-01" purity="6.1887902021408081e-01" nType="-99"/>
          </Node>
        </Node>
        <Node pos="r" depth="1" NCoef="0" IVar="2" Cut="3.2353314208984375e+02" cType="1" res="5.2701722597703338e-04" rms="3.8406959176063538e-01" purity="5.0797539949417114e-01" nType="0">
          <Node pos="l" depth="2" NCoef="0" IVar="3" Cut="1.9335978698730469e+02" cType="1" res="7.1945236995816231e-03" rms="3.9909219741821289e-01" purity="4.6396011114120483e-01" nType="0">
            <Node pos="l" depth="3" NCoef="0" IVar="-1" Cut="0.0000000000000000e+00" cType="1" res="1.1383609846234322e-02" rms="4.0669202804565430e-01" purity="3.6826068162918091e-01" nType="-99"/>
            <Node pos="r" depth="3" NCoef="0" IVar="-1" Cut="0.0000000000000000e+00" cType="1" res="-7.2778705507516861e-03" rms="3.8550966978073120e-01" purity="6.2199455499649048e-01" nType="-99"/>
          </Node>
          <Node pos="r" depth="2" NCoef="0" IVar="3" Cut="1.4142408752441406e+02" cType="1" res="-4.5892372727394104e-03" rms="3.7205010652542114e-01" purity="5.4175019264221191e-01" nType="0">
            <Node pos="l" depth="3" NCoef="0" IVar="-1" Cut="0.0000000000000000e+00" cType="1" res="-2.8773572295904160e-02" rms="3.3138880133628845e-01" purity="1.9502781331539154e-01" nType="-99"/>
            <Node pos="r" depth="3" NCoef="0" IVar="-1" Cut="0.0000000000000000e+00" cType="1" res="1.6063916264101863e-03" rms="3.7980645895004272e-01" purity="6.1576616764068604e-01" nType="-99"/>
          </Node>
        </Node>
      </Node>
    </BinaryTree>
    <BinaryTree type="DecisionTree" boostWeight="1.0000000000000000e+00" itree="690">
      <Node pos="s" depth="0" NCoef="0" IVar="6" Cut="-1.1820021867752075e+00" cType="1" res="3.1419359147548676e-03" rms="3.8707360625267029e-01" purity="5.0160467624664307e-01" nType="0">
        <Node pos="l" depth="1" NCoef="0" IVar="8" Cut="-9.3295168876647949e-01" cType="1" res="1.7549799755215645e-02" rms="3.6685016751289368e-01" purity="2.8049641847610474e-01" nType="0">
          <Node pos="l" depth="2" NCoef="0" IVar="-1" Cut="0.0000000000000000e+00" cType="1" res="-1.0335680097341537e-02" rms="3.1685325503349304e-01" purity="1.7736940085887909e-01" nType="-99"/>
          <Node pos="r" depth="2" NCoef="0" IVar="9" Cut="-6.6649001836776733e-01" cType="1" res="2.8755104169249535e-02" rms="3.8428491353988647e-01" purity="3.2134059071540833e-01" nType="0">
            <Node pos="l" depth="3" NCoef="0" IVar="-1" Cut="0.0000000000000000e+00" cType="1" res="6.5800631418824196e-03" rms="3.7034836411476135e-01" purity="2.4108120799064636e-01" nType="-99"/>
            <Node pos="r" depth="3" NCoef="0" IVar="-1" Cut="0.0000000000000000e+00" cType="1" res="2.7031330391764641e-02" rms="3.9082986116409302e-01" purity="3.6249506473541260e-01" nType="-99"/>
          </Node>
        </Node>
        <Node pos="r" depth="1" NCoef="0" IVar="7" Cut="1.7332357168197632e+00" cType="1" res="1.3437991729006171e-03" rms="3.8948646187782288e-01" purity="5.2919954061508179e-01" nType="0">
          <Node pos="l" depth="2" NCoef="0" IVar="6" Cut="1.4725505113601685e+00" cType="1" res="-2.9501861718017608e-06" rms="3.9139989018440247e-01" purity="5.4666674137115479e-01" nType="0">
            <Node pos="l" depth="3" NCoef="0" IVar="-1" Cut="0.0000000000000000e+00" cType="1" res="-9.6185453003272414e-04" rms="3.9490845799446106e-01" purity="5.7209175825119019e-01" nType="-99"/>
            <Node pos="r" depth="3" NCoef="0" IVar="-1" Cut="0.0000000000000000e+00" cType="1" res="1.5992807224392891e-02" rms="3.4435567259788513e-01" purity="2.3120923340320587e-01" nType="-99"/>
          </Node>
          <Node pos="r" depth="2" NCoef="0" IVar="5" Cut="7.3819519042968750e+01" cType="1" res="2.3411426693201065e-02" rms="3.5594916343688965e-01" purity="2.4298463761806488e-01" nType="0">
            <Node pos="l" depth="3" NCoef="0" IVar="-1" Cut="0.0000000000000000e+00" cType="1" res="8.3463964983820915e-03" rms="2.9034450650215149e-01" purity="1.1634362488985062e-01" nType="-99"/>
            <Node pos="r" depth="3" NCoef="0" IVar="-1" Cut="0.0000000000000000e+00" cType="1" res="2.4795280769467354e-02" rms="4.1223946213722229e-01" purity="3.7382563948631287e-01" nType="-99"/>
          </Node>
        </Node>
      </Node>
    </BinaryTree>
    <BinaryTree type="DecisionTree" boostWeight="1.0000000000000000e+00" itree="691">
      <Node pos="s" depth="0" NCoef="0" IVar="2" Cut="6.5569573974609375e+02" cType="1" res="3.1057228334248066e-03" rms="3.8405227661132812e-01" purity="5.0203180313110352e-01" nType="0">
        <Node pos="l" depth="1" NCoef="0" IVar="5" Cut="7.0734512329101562e+01" cType="1" res="4.2949067428708076e-03" rms="3.8361102342605591e-01" purity="4.9893304705619812e-01" nType="0">
          <Node pos="l" depth="2" NCoef="0" IVar="1" Cut="9.2270001220703125e+02" cType="1" res="9.2543307691812515e-03" rms="3.7705153226852417e-01" purity="2.9307729005813599e-01" nType="0">
            <Node pos="l" depth="3" NCoef="0" IVar="-1" Cut="0.0000000000000000e+00" cType="1" res="-1.7390497028827667e-02" rms="2.9000434279441833e-01" purity="1.0453391820192337e-01" nType="-99"/>
            <Node pos="r" depth="3" NCoef="0" IVar="-1" Cut="0.0000000000000000e+00" cType="1" res="1.0465690866112709e-02" rms="3.9718246459960938e-01" purity="3.4445279836654663e-01" nType="-99"/>
          </Node>
          <Node pos="r" depth="2" NCoef="0" IVar="0" Cut="3.7360791015625000e+02" cType="1" res="1.3148383004590869e-03" rms="3.8746863603591919e-01" purity="6.2262976169586182e-01" nType="0">
            <Node pos="l" depth="3" NCoef="0" IVar="-1" Cut="0.0000000000000000e+00" cType="1" res="-3.6745432298630476e-03" rms="4.1484579443931580e-01" purity="4.1168785095214844e-01" nType="-99"/>
            <Node pos="r" depth="3" NCoef="0" IVar="-1" Cut="0.0000000000000000e+00" cType="1" res="3.7409651558846235e-03" rms="3.7274545431137085e-01" purity="7.2967809438705444e-01" nType="-99"/>
          </Node>
        </Node>
        <Node pos="r" depth="1" NCoef="0" IVar="-1" Cut="0.0000000000000000e+00" cType="1" res="-1.1586137115955353e-02" rms="3.9156082272529602e-01" purity="5.6009072065353394e-01" nType="-99"/>
      </Node>
    </BinaryTree>
    <BinaryTree type="DecisionTree" boostWeight="1.0000000000000000e+00" itree="692">
      <Node pos="s" depth="0" NCoef="0" IVar="4" Cut="1.5986909484863281e+02" cType="1" res="-5.7361478684470057e-04" rms="3.8397771120071411e-01" purity="5.0082552433013916e-01" nType="0">
        <Node pos="l" depth="1" NCoef="0" IVar="4" Cut="6.0514961242675781e+01" cType="1" res="2.2939995396882296e-03" rms="3.9378157258033752e-01" purity="3.9921674132347107e-01" nType="0">
          <Node pos="l" depth="2" NCoef="0" IVar="-1" Cut="0.0000000000000000e+00" cType="1" res="-2.5249646976590157e-02" rms="2.8718006610870361e-01" purity="1.0782598704099655e-01" nType="-99"/>
          <Node pos="r" depth="2" NCoef="0" IVar="7" Cut="3.9993080496788025e-01" cType="1" res="3.3680400811135769e-03" rms="3.9734917879104614e-01" purity="4.1066879034042358e-01" nType="0">
            <Node pos="l" depth="3" NCoef="0" IVar="-1" Cut="0.0000000000000000e+00" cType="1" res="-3.7189282011240721e-04" rms="3.9901846647262573e-01" purity="4.3311169743537903e-01" nType="-99"/>
            <Node pos="r" depth="3" NCoef="0" IVar="-1" Cut="0.0000000000000000e+00" cType="1" res="6.7563173361122608e-03" rms="3.9433842897415161e-01" purity="3.7169745564460754e-01" nType="-99"/>
          </Node>
        </Node>
        <Node pos="r" depth="1" NCoef="0" IVar="6" Cut="-8.9297008514404297e-01" cType="1" res="-7.0742266252636909e-03" rms="3.6068367958068848e-01" purity="7.3116314411163330e-01" nType="0">
          <Node pos="l" depth="2" NCoef="0" IVar="-1" Cut="0.0000000000000000e+00" cType="1" res="-1.6017487272620201e-02" rms="3.9612475037574768e-01" purity="5.4011970758438110e-01" nType="-99"/>
          <Node pos="r" depth="2" NCoef="0" IVar="8" Cut="-1.1995921134948730e+00" cType="1" res="-4.1199601255357265e-03" rms="3.5459113121032715e-01" purity="7.6175194978713989e-01" nType="0">
            <Node pos="l" depth="3" NCoef="0" IVar="-1" Cut="0.0000000000000000e+00" cType="1" res="-1.6812186688184738e-02" rms="3.8818904757499695e-01" purity="6.0714626312255859e-01" nType="-99"/>
            <Node pos="r" depth="3" NCoef="0" IVar="-1" Cut="0.0000000000000000e+00" cType="1" res="-1.3162111863493919e-03" rms="3.5053956508636475e-01" purity="7.7907264232635498e-01" nType="-99"/>
          </Node>
        </Node>
      </Node>
    </BinaryTree>
    <BinaryTree type="DecisionTree" boostWeight="1.0000000000000000e+00" itree="693">
      <Node pos="s" depth="0" NCoef="0" IVar="6" Cut="-1.6940076351165771e+00" cType="1" res="-1.3976480113342404e-03" rms="3.8470330834388733e-01" purity="4.9772170186042786e-01" nType="0">
        <Node pos="l" depth="1" NCoef="0" IVar="-1" Cut="0.0000000000000000e+00" cType="1" res="-2.6686387136578560e-02" rms="2.8462871909141541e-01" purity="1.3056889176368713e-01" nType="-99"/>
        <Node pos="r" depth="1" NCoef="0" IVar="7" Cut="1.4665979146957397e+00" cType="1" res="-3.6884876317344606e-04" rms="3.8824874162673950e-01" purity="5.1288896799087524e-01" nType="0">
          <Node pos="l" depth="2" NCoef="0" IVar="9" Cut="1.7333254814147949e+00" cType="1" res="-2.0004922989755869e-03" rms="3.9038789272308350e-01" purity="5.3644168376922607e-01" nType="0">
            <Node pos="l" depth="3" NCoef="0" IVar="-1" Cut="0.0000000000000000e+00" cType="1" res="-2.3756166920065880e-03" rms="3.9017593860626221e-01" purity="5.4525887966156006e-01" nType="-99"/>
            <Node pos="r" depth="3" NCoef="0" IVar="-1" Cut="0.0000000000000000e+00" cType="1" res="1.0279748588800430e-02" rms="3.9227211475372314e-01" purity="4.3832409381866455e-01" nType="-99"/>
          </Node>
          <Node pos="r" depth="2" NCoef="0" IVar="8" Cut="-1.3366328179836273e-01" cType="1" res="1.6066657379269600e-02" rms="3.6559832096099854e-01" purity="2.7564278244972229e-01" nType="0">
            <Node pos="l" depth="3" NCoef="0" IVar="-1" Cut="0.0000000000000000e+00" cType="1" res="3.9064746350049973e-02" rms="4.0369525551795959e-01" purity="2.9259282350540161e-01" nType="-99"/>
            <Node pos="r" depth="3" NCoef="0" IVar="-1" Cut="0.0000000000000000e+00" cType="1" res="-5.4856589995324612e-03" rms="3.3608761429786682e-01" purity="2.6442193984985352e-01" nType="-99"/>
          </Node>
        </Node>
      </Node>
    </BinaryTree>
    <BinaryTree type="DecisionTree" boostWeight="1.0000000000000000e+00" itree="694">
      <Node pos="s" depth="0" NCoef="0" IVar="6" Cut="-3.9356622099876404e-01" cType="1" res="-3.0432560015469790e-03" rms="3.8179552555084229e-01" purity="4.9770006537437439e-01" nType="0">
        <Node pos="l" depth="1" NCoef="0" IVar="8" Cut="6.6666525602340698e-01" cType="1" res="4.0548671968281269e-03" rms="3.8196957111358643e-01" purity="4.4883355498313904e-01" nType="0">
          <Node pos="l" depth="2" NCoef="0" IVar="3" Cut="2.0915753173828125e+02" cType="1" res="8.9803365990519524e-03" rms="3.8766214251518250e-01" purity="4.7080373764038086e-01" nType="0">
            <Node pos="l" depth="3" NCoef="0" IVar="-1" Cut="0.0000000000000000e+00" cType="1" res="1.3724233955144882e-02" rms="3.9549732208251953e-01" purity="3.6067548394203186e-01" nType="-99"/>
            <Node pos="r" depth="3" NCoef="0" IVar="-1" Cut="0.0000000000000000e+00" cType="1" res="-4.2264708317816257e-03" rms="3.7663912773132324e-01" purity="6.1458891630172729e-01" nType="-99"/>
          </Node>
          <Node pos="r" depth="2" NCoef="0" IVar="6" Cut="-1.0778734683990479e+00" cType="1" res="-1.0903743095695972e-02" rms="3.6372748017311096e-01" purity="3.8211038708686829e-01" nType="0">
            <Node pos="l" depth="3" NCoef="0" IVar="-1" Cut="0.0000000000000000e+00" cType="1" res="-2.6992626488208771e-02" rms="3.1314891576766968e-01" purity="1.8242116272449493e-01" nType="-99"/>
            <Node pos="r" depth="3" NCoef="0" IVar="-1" Cut="0.0000000000000000e+00" cType="1" res="1.1713615385815501e-03" rms="3.9080166816711426e-01" purity="5.0379055738449097e-01" nType="-99"/>
          </Node>
        </Node>
        <Node pos="r" depth="1" NCoef="0" IVar="9" Cut="-1.4666657447814941e+00" cType="1" res="-6.6846734844148159e-03" rms="3.8165497779846191e-01" purity="5.2276903390884399e-01" nType="0">
          <Node pos="l" depth="2" NCoef="0" IVar="8" Cut="-1.3331571221351624e-01" cType="1" res="-2.2877609357237816e-02" rms="3.7525847554206848e-01" purity="4.0889552235603333e-01" nType="0">
            <Node pos="l" depth="3" NCoef="0" IVar="-1" Cut="0.0000000000000000e+00" cType="1" res="-5.8830124326050282e-03" rms="3.7216076254844666e-01" purity="4.0620830655097961e-01" nType="-99"/>
            <Node pos="r" depth="3" NCoef="0" IVar="-1" Cut="0.0000000000000000e+00" cType="1" res="-2.4869548156857491e-02" rms="3.7783196568489075e-01" purity="4.1160455346107483e-01" nType="-99"/>
          </Node>
          <Node pos="r" depth="2" NCoef="0" IVar="6" Cut="-2.4149473011493683e-01" cType="1" res="-4.7129718586802483e-03" rms="3.8237971067428589e-01" purity="5.3663462400436401e-01" nType="0">
            <Node pos="l" depth="3" NCoef="0" IVar="-1" Cut="0.0000000000000000e+00" cType="1" res="-1.5191648155450821e-02" rms="3.7660378217697144e-01" purity="6.2371361255645752e-01" nType="-99"/>
            <Node pos="r" depth="3" NCoef="0" IVar="-1" Cut="0.0000000000000000e+00" cType="1" res="-1.9183689728379250e-03" rms="3.8291463255882263e-01" purity="5.2777767181396484e-01" nType="-99"/>
          </Node>
        </Node>
      </Node>
    </BinaryTree>
    <BinaryTree type="DecisionTree" boostWeight="1.0000000000000000e+00" itree="695">
      <Node pos="s" depth="0" NCoef="0" IVar="9" Cut="9.3332767486572266e-01" cType="1" res="-2.8557076584547758e-03" rms="3.8425469398498535e-01" purity="4.9354627728462219e-01" nType="0">
        <Node pos="l" depth="1" NCoef="0" IVar="8" Cut="1.4664938449859619e+00" cType="1" res="-6.1488603241741657e-03" rms="3.8435181975364685e-01" purity="5.0895130634307861e-01" nType="0">
          <Node pos="l" depth="2" NCoef="0" IVar="9" Cut="-1.0222023725509644e+00" cType="1" res="-7.7853002585470676e-03" rms="3.8493219017982483e-01" purity="5.2431941032409668e-01" nType="0">
            <Node pos="l" depth="3" NCoef="0" IVar="-1" Cut="0.0000000000000000e+00" cType="1" res="2.3004927788861096e-04" rms="3.8419434428215027e-01" purity="4.4517719745635986e-01" nType="-99"/>
            <Node pos="r" depth="3" NCoef="0" IVar="-1" Cut="0.0000000000000000e+00" cType="1" res="-7.2404565289616585e-03" rms="3.8517364859580994e-01" purity="5.5526256561279297e-01" nType="-99"/>
          </Node>
          <Node pos="r" depth="2" NCoef="0" IVar="8" Cut="1.9109215736389160e+00" cType="1" res="9.0925917029380798e-03" rms="3.7856388092041016e-01" purity="3.6581578850746155e-01" nType="0">
            <Node pos="l" depth="3" NCoef="0" IVar="-1" Cut="0.0000000000000000e+00" cType="1" res="1.5071271918714046e-02" rms="3.9248177409172058e-01" purity="4.3323552608489990e-01" nType="-99"/>
            <Node pos="r" depth="3" NCoef="0" IVar="-1" Cut="0.0000000000000000e+00" cType="1" res="-4.9389391206204891e-03" rms="3.6245912313461304e-01" purity="2.9394942522048950e-01" nType="-99"/>
          </Node>
        </Node>
        <Node pos="r" depth="1" NCoef="0" IVar="6" Cut="9.5142346620559692e-01" cType="1" res="7.8870793804526329e-03" rms="3.8374125957489014e-01" purity="4.4329276680946350e-01" nType="0">
          <Node pos="l" depth="2" NCoef="0" IVar="3" Cut="1.2486101531982422e+02" cType="1" res="1.3321454636752605e-02" rms="3.9631432294845581e-01" purity="4.9687191843986511e-01" nType="0">
            <Node pos="l" depth="3" NCoef="0" IVar="-1" Cut="0.0000000000000000e+00" cType="1" res="-5.6609297171235085e-03" rms="3.4622293710708618e-01" purity="1.8362750113010406e-01" nType="-99"/>
            <Node pos="r" depth="3" NCoef="0" IVar="-1" Cut="0.0000000000000000e+00" cType="1" res="1.0562139563262463e-02" rms="4.0533715486526489e-01" purity="5.5861127376556396e-01" nType="-99"/>
          </Node>
          <Node pos="r" depth="2" NCoef="0" IVar="-1" Cut="0.0000000000000000e+00" cType="1" res="-1.1227696202695370e-02" rms="3.2965931296348572e-01" purity="2.3557011783123016e-01" nType="-99"/>
        </Node>
      </Node>
    </BinaryTree>
    <BinaryTree type="DecisionTree" boostWeight="1.0000000000000000e+00" itree="696">
      <Node pos="s" depth="0" NCoef="0" IVar="2" Cut="6.3790734863281250e+02" cType="1" res="4.6902392059564590e-03" rms="3.8379421830177307e-01" purity="5.0430524349212646e-01" nType="0">
        <Node pos="l" depth="1" NCoef="0" IVar="3" Cut="1.8995289611816406e+02" cType="1" res="6.3349669799208641e-03" rms="3.8373348116874695e-01" purity="5.0138932466506958e-01" nType="0">
          <Node pos="l" depth="2" NCoef="0" IVar="1" Cut="8.8115258789062500e+02" cType="1" res="-9.8456931300461292e-04" rms="3.8538414239883423e-01" purity="3.2809758186340332e-01" nType="0">
            <Node pos="l" depth="3" NCoef="0" IVar="-1" Cut="0.0000000000000000e+00" cType="1" res="-2.5978680700063705e-02" rms="2.7471840381622314e-01" purity="9.4067163765430450e-02" nType="-99"/>
            <Node pos="r" depth="3" NCoef="0" IVar="-1" Cut="0.0000000000000000e+00" cType="1" res="1.5836518723517656e-03" rms="3.9883920550346375e-01" purity="3.6220961809158325e-01" nType="-99"/>
          </Node>
          <Node pos="r" depth="2" NCoef="0" IVar="4" Cut="7.6816841125488281e+01" cType="1" res="1.2639861553907394e-02" rms="3.8219356536865234e-01" purity="6.5065926313400269e-01" nType="0">
            <Node pos="l" depth="3" NCoef="0" IVar="-1" Cut="0.0000000000000000e+00" cType="1" res="3.6356601864099503e-02" rms="4.0998101234436035e-01" purity="3.4686201810836792e-01" nType="-99"/>
            <Node pos="r" depth="3" NCoef="0" IVar="-1" Cut="0.0000000000000000e+00" cType="1" res="6.8272561766207218e-03" rms="3.8029941916465759e-01" purity="6.6881036758422852e-01" nType="-99"/>
          </Node>
        </Node>
        <Node pos="r" depth="1" NCoef="0" IVar="4" Cut="1.6127203369140625e+02" cType="1" res="-2.2651024162769318e-02" rms="3.8377138972282410e-01" purity="5.5277734994888306e-01" nType="0">
          <Node pos="l" depth="2" NCoef="0" IVar="-1" Cut="0.0000000000000000e+00" cType="1" res="-3.0891412869095802e-02" rms="3.9141932129859924e-01" purity="4.0799391269683838e-01" nType="-99"/>
          <Node pos="r" depth="2" NCoef="0" IVar="-1" Cut="0.0000000000000000e+00" cType="1" res="7.3143080808222294e-03" rms="3.7234282493591309e-01" purity="7.0942765474319458e-01" nType="-99"/>
        </Node>
      </Node>
    </BinaryTree>
    <BinaryTree type="DecisionTree" boostWeight="1.0000000000000000e+00" itree="697">
      <Node pos="s" depth="0" NCoef="0" IVar="8" Cut="-1.4666715860366821e+00" cType="1" res="2.6092936750501394e-03" rms="3.8414335250854492e-01" purity="5.0316745042800903e-01" nType="0">
        <Node pos="l" depth="1" NCoef="0" IVar="6" Cut="4.2436423897743225e-01" cType="1" res="-1.9277937710285187e-02" rms="3.5983052849769592e-01" purity="2.9826137423515320e-01" nType="0">
          <Node pos="l" depth="2" NCoef="0" IVar="9" Cut="-4.0010097622871399e-01" cType="1" res="-2.7539044618606567e-02" rms="3.6356300115585327e-01" purity="3.2352566719055176e-01" nType="0">
            <Node pos="l" depth="3" NCoef="0" IVar="-1" Cut="0.0000000000000000e+00" cType="1" res="-3.6201667040586472e-02" rms="3.3945173025131226e-01" purity="2.4171373248100281e-01" nType="-99"/>
            <Node pos="r" depth="3" NCoef="0" IVar="-1" Cut="0.0000000000000000e+00" cType="1" res="-6.9433283060789108e-03" rms="3.8302502036094666e-01" purity="3.9660853147506714e-01" nType="-99"/>
          </Node>
          <Node pos="r" depth="2" NCoef="0" IVar="-1" Cut="0.0000000000000000e+00" cType="1" res="2.5065863155759871e-04" rms="3.5004472732543945e-01" purity="2.3836445808410645e-01" nType="-99"/>
        </Node>
        <Node pos="r" depth="1" NCoef="0" IVar="6" Cut="1.4723951816558838e+00" cType="1" res="5.0501809455454350e-03" rms="3.8668325543403625e-01" purity="5.2601879835128784e-01" nType="0">
          <Node pos="l" depth="2" NCoef="0" IVar="3" Cut="2.4044160461425781e+02" cType="1" res="3.7402461748570204e-03" rms="3.8959792256355286e-01" purity="5.4701858758926392e-01" nType="0">
            <Node pos="l" depth="3" NCoef="0" IVar="-1" Cut="0.0000000000000000e+00" cType="1" res="-7.0953232352621853e-05" rms="3.9990279078483582e-01" purity="4.5929694175720215e-01" nType="-99"/>
            <Node pos="r" depth="3" NCoef="0" IVar="-1" Cut="0.0000000000000000e+00" cType="1" res="7.8677963465452194e-03" rms="3.6910262703895569e-01" purity="7.1379780769348145e-01" nType="-99"/>
          </Node>
          <Node pos="r" depth="2" NCoef="0" IVar="6" Cut="1.8516051769256592e+00" cType="1" res="2.3037679493427277e-02" rms="3.4366780519485474e-01" purity="2.3765824735164642e-01" nType="0">
            <Node pos="l" depth="3" NCoef="0" IVar="-1" Cut="0.0000000000000000e+00" cType="1" res="2.8300538659095764e-02" rms="3.6558231711387634e-01" purity="2.8229483962059021e-01" nType="-99"/>
            <Node pos="r" depth="3" NCoef="0" IVar="-1" Cut="0.0000000000000000e+00" cType="1" res="6.7338631488382816e-03" rms="3.1423026323318481e-01" purity="1.8339490890502930e-01" nType="-99"/>
          </Node>
        </Node>
      </Node>
    </BinaryTree>
    <BinaryTree type="DecisionTree" boostWeight="1.0000000000000000e+00" itree="698">
      <Node pos="s" depth="0" NCoef="0" IVar="9" Cut="2.2666633129119873e+00" cType="1" res="5.8719946537166834e-04" rms="3.8457456231117249e-01" purity="4.9956360459327698e-01" nType="0">
        <Node pos="l" depth="1" NCoef="0" IVar="6" Cut="-1.7238140106201172e+00" cType="1" res="1.4281920157372952e-03" rms="3.8543933629989624e-01" purity="5.0560081005096436e-01" nType="0">
          <Node pos="l" depth="2" NCoef="0" IVar="-1" Cut="0.0000000000000000e+00" cType="1" res="2.6554759591817856e-02" rms="3.3354336023330688e-01" purity="1.8785034120082855e-01" nType="-99"/>
          <Node pos="r" depth="2" NCoef="0" IVar="2" Cut="6.5569537353515625e+02" cType="1" res="4.0642119711264968e-04" rms="3.8731664419174194e-01" purity="5.1818823814392090e-01" nType="0">
            <Node pos="l" depth="3" NCoef="0" IVar="-1" Cut="0.0000000000000000e+00" cType="1" res="-5.8639660710468888e-04" rms="3.8599038124084473e-01" purity="5.1402336359024048e-01" nType="-99"/>
            <Node pos="r" depth="3" NCoef="0" IVar="-1" Cut="0.0000000000000000e+00" cType="1" res="1.3088435865938663e-02" rms="4.0885329246520996e-01" purity="5.8994805812835693e-01" nType="-99"/>
          </Node>
        </Node>
        <Node pos="r" depth="1" NCoef="0" IVar="-1" Cut="0.0000000000000000e+00" cType="1" res="-1.9485222175717354e-02" rms="3.5407146811485291e-01" purity="3.0233907699584961e-01" nType="-99"/>
      </Node>
    </BinaryTree>
    <BinaryTree type="DecisionTree" boostWeight="1.0000000000000000e+00" itree="699">
      <Node pos="s" depth="0" NCoef="0" IVar="9" Cut="6.6666722297668457e-01" cType="1" res="-1.4369958080351353e-03" rms="3.8511005043983459e-01" purity="4.9762350320816040e-01" nType="0">
        <Node pos="l" depth="1" NCoef="0" IVar="8" Cut="-1.4666715860366821e+00" cType="1" res="-4.8189251683652401e-03" rms="3.8651618361473083e-01" purity="5.0970768928527832e-01" nType="0">
          <Node pos="l" depth="2" NCoef="0" IVar="9" Cut="-3.2373785972595215e-01" cType="1" res="9.1271875426173210e-03" rms="3.7434530258178711e-01" purity="3.2512038946151733e-01" nType="0">
            <Node pos="l" depth="3" NCoef="0" IVar="-1" Cut="0.0000000000000000e+00" cType="1" res="2.0622575655579567e-02" rms="3.7728777527809143e-01" purity="3.0146503448486328e-01" nType="-99"/>
            <Node pos="r" depth="3" NCoef="0" IVar="-1" Cut="0.0000000000000000e+00" cType="1" res="-1.6042729839682579e-02" rms="3.6659201979637146e-01" purity="3.6877769231796265e-01" nType="-99"/>
          </Node>
          <Node pos="r" depth="2" NCoef="0" IVar="6" Cut="6.7081564664840698e-01" cType="1" res="-6.5599852241575718e-03" rms="3.8797363638877869e-01" purity="5.3275203704833984e-01" nType="0">
            <Node pos="l" depth="3" NCoef="0" IVar="-1" Cut="0.0000000000000000e+00" cType="1" res="-6.4800628460943699e-03" rms="3.9054214954376221e-01" purity="5.6059205532073975e-01" nType="-99"/>
            <Node pos="r" depth="3" NCoef="0" IVar="-1" Cut="0.0000000000000000e+00" cType="1" res="3.3771840389817953e-03" rms="3.7856930494308472e-01" purity="4.3480864167213440e-01" nType="-99"/>
          </Node>
        </Node>
        <Node pos="r" depth="1" NCoef="0" IVar="7" Cut="1.4666107892990112e+00" cType="1" res="6.2566362321376801e-03" rms="3.8178032636642456e-01" purity="4.7013279795646667e-01" nType="0">
          <Node pos="l" depth="2" NCoef="0" IVar="1" Cut="1.1001440429687500e+03" cType="1" res="2.6940174866467714e-03" rms="3.8562008738517761e-01" purity="5.0036376714706421e-01" nType="0">
            <Node pos="l" depth="3" NCoef="0" IVar="-1" Cut="0.0000000000000000e+00" cType="1" res="-6.9013778120279312e-03" rms="3.7509006261825562e-01" purity="2.2961322963237762e-01" nType="-99"/>
            <Node pos="r" depth="3" NCoef="0" IVar="-1" Cut="0.0000000000000000e+00" cType="1" res="5.4985336028039455e-03" rms="3.9022126793861389e-01" purity="6.2473821640014648e-01" nType="-99"/>
          </Node>
          <Node pos="r" depth="2" NCoef="0" IVar="-1" Cut="0.0000000000000000e+00" cType="1" res="3.0413454398512840e-02" rms="3.4978041052818298e-01" purity="2.3859450221061707e-01" nType="-99"/>
        </Node>
      </Node>
    </BinaryTree>
    <BinaryTree type="DecisionTree" boostWeight="1.0000000000000000e+00" itree="700">
      <Node pos="s" depth="0" NCoef="0" IVar="6" Cut="4.2146962881088257e-01" cType="1" res="2.9404289089143276e-03" rms="3.8562986254692078e-01" purity="5.0234103202819824e-01" nType="0">
        <Node pos="l" depth="1" NCoef="0" IVar="2" Cut="6.3790661621093750e+02" cType="1" res="6.4472779631614685e-03" rms="3.8555523753166199e-01" purity="5.4192090034484863e-01" nType="0">
          <Node pos="l" depth="2" NCoef="0" IVar="3" Cut="3.0074844360351562e+02" cType="1" res="5.1849149167537689e-03" rms="3.8420855998992920e-01" purity="5.3702181577682495e-01" nType="0">
            <Node pos="l" depth="3" NCoef="0" IVar="-1" Cut="0.0000000000000000e+00" cType="1" res="5.1302402280271053e-03" rms="3.8853833079338074e-01" purity="5.0910198688507080e-01" nType="-99"/>
            <Node pos="r" depth="3" NCoef="0" IVar="-1" Cut="0.0000000000000000e+00" cType="1" res="-9.1859269887208939e-03" rms="3.5474890470504761e-01" purity="7.1578919887542725e-01" nType="-99"/>
          </Node>
          <Node pos="r" depth="2" NCoef="0" IVar="-1" Cut="0.0000000000000000e+00" cType="1" res="1.4301613904535770e-02" rms="4.0396231412887573e-01" purity="6.1226332187652588e-01" nType="-99"/>
        </Node>
        <Node pos="r" depth="1" NCoef="0" IVar="3" Cut="1.2837464904785156e+02" cType="1" res="-4.4968812726438046e-03" rms="3.8568261265754700e-01" purity="4.1840025782585144e-01" nType="0">
          <Node pos="l" depth="2" NCoef="0" IVar="8" Cut="1.3318701088428497e-01" cType="1" res="2.0864000543951988e-02" rms="3.3940637111663818e-01" purity="1.8657113611698151e-01" nType="0">
            <Node pos="l" depth="3" NCoef="0" IVar="-1" Cut="0.0000000000000000e+00" cType="1" res="6.0338890179991722e-03" rms="3.3105170726776123e-01" purity="1.9018292427062988e-01" nType="-99"/>
            <Node pos="r" depth="3" NCoef="0" IVar="-1" Cut="0.0000000000000000e+00" cType="1" res="3.1792834401130676e-02" rms="3.4631374478340149e-01" purity="1.8330866098403931e-01" nType="-99"/>
          </Node>
          <Node pos="r" depth="2" NCoef="0" IVar="4" Cut="9.1628738403320312e+01" cType="1" res="-1.0444891639053822e-02" rms="3.9551803469657898e-01" purity="4.7277227044105530e-01" nType="0">
            <Node pos="l" depth="3" NCoef="0" IVar="-1" Cut="0.0000000000000000e+00" cType="1" res="8.9132124558091164e-03" rms="3.7343645095825195e-01" purity="2.3982456326484680e-01" nType="-99"/>
            <Node pos="r" depth="3" NCoef="0" IVar="-1" Cut="0.0000000000000000e+00" cType="1" res="-9.6476674079895020e-03" rms="3.9993497729301453e-01" purity="5.2280151844024658e-01" nType="-99"/>
          </Node>
        </Node>
      </Node>
    </BinaryTree>
    <BinaryTree type="DecisionTree" boostWeight="1.0000000000000000e+00" itree="701">
      <Node pos="s" depth="0" NCoef="0" IVar="4" Cut="2.3227983093261719e+02" cType="1" res="-3.2813977450132370e-03" rms="3.8276156783103943e-01" purity="4.9785548448562622e-01" nType="0">
        <Node pos="l" depth="1" NCoef="0" IVar="5" Cut="5.8644153594970703e+01" cType="1" res="-5.5613797158002853e-03" rms="3.8677385449409485e-01" purity="4.6854045987129211e-01" nType="0">
          <Node pos="l" depth="2" NCoef="0" IVar="7" Cut="1.2001824378967285e+00" cType="1" res="-1.4657545834779739e-02" rms="3.5241001844406128e-01" purity="2.2694143652915955e-01" nType="0">
            <Node pos="l" depth="3" NCoef="0" IVar="-1" Cut="0.0000000000000000e+00" cType="1" res="-6.9347345270216465e-03" rms="3.6967468261718750e-01" purity="2.5493860244750977e-01" nType="-99"/>
            <Node pos="r" depth="3" NCoef="0" IVar="-1" Cut="0.0000000000000000e+00" cType="1" res="-4.7357928007841110e-02" rms="2.3785108327865601e-01" purity="7.6835878193378448e-02" nType="-99"/>
          </Node>
          <Node pos="r" depth="2" NCoef="0" IVar="7" Cut="-1.3338959217071533e-01" cType="1" res="-3.4994841553270817e-03" rms="3.9411786198616028e-01" purity="5.2330547571182251e-01" nType="0">
            <Node pos="l" depth="3" NCoef="0" IVar="-1" Cut="0.0000000000000000e+00" cType="1" res="-5.3259013220667839e-03" rms="3.9570730924606323e-01" purity="5.0173091888427734e-01" nType="-99"/>
            <Node pos="r" depth="3" NCoef="0" IVar="-1" Cut="0.0000000000000000e+00" cType="1" res="2.7882226277142763e-04" rms="3.9279323816299438e-01" purity="5.4062110185623169e-01" nType="-99"/>
          </Node>
        </Node>
        <Node pos="r" depth="1" NCoef="0" IVar="7" Cut="-3.9984744787216187e-01" cType="1" res="2.0931920036673546e-02" rms="3.3626586198806763e-01" purity="8.0917978286743164e-01" nType="0">
          <Node pos="l" depth="2" NCoef="0" IVar="-1" Cut="0.0000000000000000e+00" cType="1" res="3.4298080950975418e-02" rms="3.3825796842575073e-01" purity="7.9980689287185669e-01" nType="-99"/>
          <Node pos="r" depth="2" NCoef="0" IVar="9" Cut="-1.3255222141742706e-01" cType="1" res="8.9718839153647423e-03" rms="3.3461636304855347e-01" purity="8.1393402814865112e-01" nType="0">
            <Node pos="l" depth="3" NCoef="0" IVar="-1" Cut="0.0000000000000000e+00" cType="1" res="1.7414582893252373e-02" rms="3.2445788383483887e-01" purity="8.3149904012680054e-01" nType="-99"/>
            <Node pos="r" depth="3" NCoef="0" IVar="-1" Cut="0.0000000000000000e+00" cType="1" res="-2.5750379427336156e-04" rms="3.4288659691810608e-01" purity="7.9874742031097412e-01" nType="-99"/>
          </Node>
        </Node>
      </Node>
    </BinaryTree>
    <BinaryTree type="DecisionTree" boostWeight="1.0000000000000000e+00" itree="702">
      <Node pos="s" depth="0" NCoef="0" IVar="9" Cut="9.3330502510070801e-01" cType="1" res="3.1412005773745477e-04" rms="3.8404768705368042e-01" purity="5.0080025196075439e-01" nType="0">
        <Node pos="l" depth="1" NCoef="0" IVar="3" Cut="1.4697593688964844e+02" cType="1" res="3.1687263399362564e-03" rms="3.8621702790260315e-01" purity="5.2139520645141602e-01" nType="0">
          <Node pos="l" depth="2" NCoef="0" IVar="0" Cut="4.0940164184570312e+02" cType="1" res="1.1362848803400993e-02" rms="3.8319450616836548e-01" purity="2.6893773674964905e-01" nType="0">
            <Node pos="l" depth="3" NCoef="0" IVar="-1" Cut="0.0000000000000000e+00" cType="1" res="1.6113158315420151e-02" rms="3.5859128832817078e-01" purity="1.9842167198657990e-01" nType="-99"/>
            <Node pos="r" depth="3" NCoef="0" IVar="-1" Cut="0.0000000000000000e+00" cType="1" res="-1.3214973732829094e-03" rms="4.1997474431991577e-01" purity="3.8425266742706299e-01" nType="-99"/>
          </Node>
          <Node pos="r" depth="2" NCoef="0" IVar="8" Cut="1.3332445919513702e-01" cType="1" res="5.5088155204430223e-04" rms="3.8714113831520081e-01" purity="6.0204988718032837e-01" nType="0">
            <Node pos="l" depth="3" NCoef="0" IVar="-1" Cut="0.0000000000000000e+00" cType="1" res="-4.4410494156181812e-03" rms="3.8822042942047119e-01" purity="5.9564656019210815e-01" nType="-99"/>
            <Node pos="r" depth="3" NCoef="0" IVar="-1" Cut="0.0000000000000000e+00" cType="1" res="6.4842007122933865e-03" rms="3.8556501269340515e-01" purity="6.1019289493560791e-01" nType="-99"/>
          </Node>
        </Node>
        <Node pos="r" depth="1" NCoef="0" IVar="9" Cut="2.2666223049163818e+00" cType="1" res="-9.1930227354168892e-03" rms="3.7657666206359863e-01" purity="4.3220961093902588e-01" nType="0">
          <Node pos="l" depth="2" NCoef="0" IVar="6" Cut="-1.2055257707834244e-01" cType="1" res="-1.2700438499450684e-02" rms="3.7568169832229614e-01" purity="4.4582572579383850e-01" nType="0">
            <Node pos="l" depth="3" NCoef="0" IVar="-1" Cut="0.0000000000000000e+00" cType="1" res="-1.5837669372558594e-02" rms="3.6948725581169128e-01" purity="4.3163886666297913e-01" nType="-99"/>
            <Node pos="r" depth="3" NCoef="0" IVar="-1" Cut="0.0000000000000000e+00" cType="1" res="-3.9604343473911285e-03" rms="3.7936246395111084e-01" purity="4.5474892854690552e-01" nType="-99"/>
          </Node>
          <Node pos="r" depth="2" NCoef="0" IVar="-1" Cut="0.0000000000000000e+00" cType="1" res="1.0256812907755375e-02" rms="3.8165014982223511e-01" purity="3.4178352355957031e-01" nType="-99"/>
        </Node>
      </Node>
    </BinaryTree>
    <BinaryTree type="DecisionTree" boostWeight="1.0000000000000000e+00" itree="703">
      <Node pos="s" depth="0" NCoef="0" IVar="9" Cut="2.0000033378601074e+00" cType="1" res="2.6163188158534467e-04" rms="3.8147947192192078e-01" purity="5.0200420618057251e-01" nType="0">
        <Node pos="l" depth="1" NCoef="0" IVar="6" Cut="1.4690498113632202e+00" cType="1" res="1.5391838969662786e-03" rms="3.8249403238296509e-01" purity="5.1121091842651367e-01" nType="0">
          <Node pos="l" depth="2" NCoef="0" IVar="9" Cut="-7.4281221628189087e-01" cType="1" res="2.9950239695608616e-03" rms="3.8676404953002930e-01" purity="5.3341418504714966e-01" nType="0">
            <Node pos="l" depth="3" NCoef="0" IVar="-1" Cut="0.0000000000000000e+00" cType="1" res="7.9196812584996223e-03" rms="3.8730263710021973e-01" purity="4.8471188545227051e-01" nType="-99"/>
            <Node pos="r" depth="3" NCoef="0" IVar="-1" Cut="0.0000000000000000e+00" cType="1" res="-5.7899596868082881e-04" rms="3.8646554946899414e-01" purity="5.5458086729049683e-01" nType="-99"/>
          </Node>
          <Node pos="r" depth="2" NCoef="0" IVar="8" Cut="1.3317327201366425e-01" cType="1" res="-1.9730867817997932e-02" rms="3.1277415156364441e-01" purity="1.8681766092777252e-01" nType="0">
            <Node pos="l" depth="3" NCoef="0" IVar="-1" Cut="0.0000000000000000e+00" cType="1" res="-2.6238815858960152e-02" rms="3.0997213721275330e-01" purity="2.0560386776924133e-01" nType="-99"/>
            <Node pos="r" depth="3" NCoef="0" IVar="-1" Cut="0.0000000000000000e+00" cType="1" res="-7.6860967092216015e-03" rms="3.1492158770561218e-01" purity="1.6921694576740265e-01" nType="-99"/>
          </Node>
        </Node>
        <Node pos="r" depth="1" NCoef="0" IVar="8" Cut="1.3435757160186768e-01" cType="1" res="-2.2695718333125114e-02" rms="3.6199745535850525e-01" purity="3.3656069636344910e-01" nType="0">
          <Node pos="l" depth="2" NCoef="0" IVar="-1" Cut="0.0000000000000000e+00" cType="1" res="-4.7382735647261143e-03" rms="3.6739340424537659e-01" purity="3.7210300564765930e-01" nType="-99"/>
          <Node pos="r" depth="2" NCoef="0" IVar="-1" Cut="0.0000000000000000e+00" cType="1" res="-2.7614586055278778e-02" rms="3.5609740018844604e-01" purity="3.0258378386497498e-01" nType="-99"/>
        </Node>
      </Node>
    </BinaryTree>
    <BinaryTree type="DecisionTree" boostWeight="1.0000000000000000e+00" itree="704">
      <Node pos="s" depth="0" NCoef="0" IVar="6" Cut="9.3701165914535522e-01" cType="1" res="2.0811411086469889e-03" rms="3.8069128990173340e-01" purity="5.0355303287506104e-01" nType="0">
        <Node pos="l" depth="1" NCoef="0" IVar="6" Cut="5.8217430114746094e-01" cType="1" res="4.1113044135272503e-03" rms="3.8536351919174194e-01" purity="5.4263830184936523e-01" nType="0">
          <Node pos="l" depth="2" NCoef="0" IVar="1" Cut="1.1200374755859375e+03" cType="1" res="1.9350027432665229e-03" rms="3.8324573636054993e-01" purity="5.4296672344207764e-01" nType="0">
            <Node pos="l" depth="3" NCoef="0" IVar="-1" Cut="0.0000000000000000e+00" cType="1" res="-5.4221041500568390e-03" rms="3.8779595494270325e-01" purity="2.6466140151023865e-01" nType="-99"/>
            <Node pos="r" depth="3" NCoef="0" IVar="-1" Cut="0.0000000000000000e+00" cType="1" res="4.5235678553581238e-03" rms="3.8102480769157410e-01" purity="6.7177778482437134e-01" nType="-99"/>
          </Node>
          <Node pos="r" depth="2" NCoef="0" IVar="0" Cut="4.1905731201171875e+02" cType="1" res="1.9417731091380119e-02" rms="3.9960706233978271e-01" purity="5.4032808542251587e-01" nType="0">
            <Node pos="l" depth="3" NCoef="0" IVar="-1" Cut="0.0000000000000000e+00" cType="1" res="2.1914746612310410e-02" rms="4.1576719284057617e-01" purity="4.1484880447387695e-01" nType="-99"/>
            <Node pos="r" depth="3" NCoef="0" IVar="-1" Cut="0.0000000000000000e+00" cType="1" res="3.6420789547264576e-04" rms="3.8076743483543396e-01" purity="6.7375940084457397e-01" nType="-99"/>
          </Node>
        </Node>
        <Node pos="r" depth="1" NCoef="0" IVar="9" Cut="6.6637223958969116e-01" cType="1" res="-8.6046811193227768e-03" rms="3.5489544272422791e-01" purity="2.9782685637474060e-01" nType="0">
          <Node pos="l" depth="2" NCoef="0" IVar="8" Cut="-1.3294431567192078e-01" cType="1" res="2.9882141388952732e-03" rms="3.7068113684654236e-01" purity="3.3705893158912659e-01" nType="0">
            <Node pos="l" depth="3" NCoef="0" IVar="-1" Cut="0.0000000000000000e+00" cType="1" res="-1.0537421330809593e-02" rms="3.6517104506492615e-01" purity="2.9805496335029602e-01" nType="-99"/>
            <Node pos="r" depth="3" NCoef="0" IVar="-1" Cut="0.0000000000000000e+00" cType="1" res="1.0910479351878166e-02" rms="3.7397322058677673e-01" purity="3.6411821842193604e-01" nType="-99"/>
          </Node>
          <Node pos="r" depth="2" NCoef="0" IVar="6" Cut="1.3803180456161499e+00" cType="1" res="-2.8097117319703102e-02" rms="3.2570907473564148e-01" purity="2.3186157643795013e-01" nType="0">
            <Node pos="l" depth="3" NCoef="0" IVar="-1" Cut="0.0000000000000000e+00" cType="1" res="-2.9916750267148018e-02" rms="3.5863694548606873e-01" purity="2.9952839016914368e-01" nType="-99"/>
            <Node pos="r" depth="3" NCoef="0" IVar="-1" Cut="0.0000000000000000e+00" cType="1" res="-1.4191985130310059e-02" rms="2.8750488162040710e-01" purity="1.6267628967761993e-01" nType="-99"/>
          </Node>
        </Node>
      </Node>
    </BinaryTree>
    <BinaryTree type="DecisionTree" boostWeight="1.0000000000000000e+00" itree="705">
      <Node pos="s" depth="0" NCoef="0" IVar="9" Cut="-1.4666358232498169e+00" cType="1" res="2.0000834483653307e-03" rms="3.8767194747924805e-01" purity="5.0002098083496094e-01" nType="0">
        <Node pos="l" depth="1" NCoef="0" IVar="1" Cut="1.3948308105468750e+03" cType="1" res="-1.3252884149551392e-02" rms="3.6971193552017212e-01" purity="3.8938930630683899e-01" nType="0">
          <Node pos="l" depth="2" NCoef="0" IVar="3" Cut="1.5335517883300781e+02" cType="1" res="-2.7158122509717941e-02" rms="3.6303040385246277e-01" purity="2.6170599460601807e-01" nType="0">
            <Node pos="l" depth="3" NCoef="0" IVar="-1" Cut="0.0000000000000000e+00" cType="1" res="-6.5200086683034897e-03" rms="3.2586565613746643e-01" purity="1.7506754398345947e-01" nType="-99"/>
            <Node pos="r" depth="3" NCoef="0" IVar="-1" Cut="0.0000000000000000e+00" cType="1" res="-2.6227418333292007e-02" rms="3.8873416185379028e-01" purity="3.2886004447937012e-01" nType="-99"/>
          </Node>
          <Node pos="r" depth="2" NCoef="0" IVar="-1" Cut="0.0000000000000000e+00" cType="1" res="1.0751858353614807e-02" rms="3.8187205791473389e-01" purity="6.6136521100997925e-01" nType="-99"/>
        </Node>
        <Node pos="r" depth="1" NCoef="0" IVar="1" Cut="1.4400653076171875e+03" cType="1" res="4.1330521926283836e-03" rms="3.9007005095481873e-01" purity="5.1549166440963745e-01" nType="0">
          <Node pos="l" depth="2" NCoef="0" IVar="8" Cut="-9.3334060907363892e-01" cType="1" res="9.9027724936604500e-03" rms="4.0502342581748962e-01" purity="4.0397891402244568e-01" nType="0">
            <Node pos="l" depth="3" NCoef="0" IVar="-1" Cut="0.0000000000000000e+00" cType="1" res="1.5777178108692169e-02" rms="3.9794409275054932e-01" purity="3.5024553537368774e-01" nType="-99"/>
            <Node pos="r" depth="3" NCoef="0" IVar="-1" Cut="0.0000000000000000e+00" cType="1" res="3.5029929131269455e-03" rms="4.0697550773620605e-01" purity="4.1965800523757935e-01" nType="-99"/>
          </Node>
          <Node pos="r" depth="2" NCoef="0" IVar="9" Cut="1.5809346437454224e+00" cType="1" res="-8.0045806244015694e-03" rms="3.5626670718193054e-01" purity="7.5007855892181396e-01" nType="0">
            <Node pos="l" depth="3" NCoef="0" IVar="-1" Cut="0.0000000000000000e+00" cType="1" res="-9.5736291259527206e-03" rms="3.5097715258598328e-01" purity="7.6064193248748779e-01" nType="-99"/>
            <Node pos="r" depth="3" NCoef="0" IVar="-1" Cut="0.0000000000000000e+00" cType="1" res="1.7184948548674583e-02" rms="4.0025302767753601e-01" purity="6.5259289741516113e-01" nType="-99"/>
          </Node>
        </Node>
      </Node>
    </BinaryTree>
    <BinaryTree type="DecisionTree" boostWeight="1.0000000000000000e+00" itree="706">
      <Node pos="s" depth="0" NCoef="0" IVar="6" Cut="-6.3573938608169556e-01" cType="1" res="1.9359810976311564e-03" rms="3.8474148511886597e-01" purity="5.0170862674713135e-01" nType="0">
        <Node pos="l" depth="1" NCoef="0" IVar="7" Cut="-1.3347826898097992e-01" cType="1" res="1.0635520331561565e-02" rms="3.8729614019393921e-01" purity="4.0127968788146973e-01" nType="0">
          <Node pos="l" depth="2" NCoef="0" IVar="7" Cut="-5.1440066099166870e-01" cType="1" res="-3.0920417048037052e-03" rms="3.8230207562446594e-01" purity="3.7722089886665344e-01" nType="0">
            <Node pos="l" depth="3" NCoef="0" IVar="-1" Cut="0.0000000000000000e+00" cType="1" res="4.1612004861235619e-03" rms="3.7512761354446411e-01" purity="3.5108134150505066e-01" nType="-99"/>
            <Node pos="r" depth="3" NCoef="0" IVar="-1" Cut="0.0000000000000000e+00" cType="1" res="-1.8756899982690811e-02" rms="4.0234005451202393e-01" purity="4.5751988887786865e-01" nType="-99"/>
          </Node>
          <Node pos="r" depth="2" NCoef="0" IVar="9" Cut="6.6679310798645020e-01" cType="1" res="2.4029752239584923e-02" rms="3.9164415001869202e-01" purity="4.2475423216819763e-01" nType="0">
            <Node pos="l" depth="3" NCoef="0" IVar="-1" Cut="0.0000000000000000e+00" cType="1" res="9.5818834379315376e-03" rms="3.9536175131797791e-01" purity="4.3878725171089172e-01" nType="-99"/>
            <Node pos="r" depth="3" NCoef="0" IVar="-1" Cut="0.0000000000000000e+00" cType="1" res="3.3087007701396942e-02" rms="3.8151714205741882e-01" purity="3.9066001772880554e-01" nType="-99"/>
          </Node>
        </Node>
        <Node pos="r" depth="1" NCoef="0" IVar="8" Cut="-1.4667189121246338e+00" cType="1" res="-1.0823511984199286e-03" rms="3.8380506634712219e-01" purity="5.3655278682708740e-01" nType="0">
          <Node pos="l" depth="2" NCoef="0" IVar="8" Cut="-1.7841854095458984e+00" cType="1" res="-2.5280762463808060e-02" rms="3.6491575837135315e-01" purity="3.3699408173561096e-01" nType="0">
            <Node pos="l" depth="3" NCoef="0" IVar="-1" Cut="0.0000000000000000e+00" cType="1" res="-1.1067934334278107e-02" rms="3.5997360944747925e-01" purity="2.9820439219474792e-01" nType="-99"/>
            <Node pos="r" depth="3" NCoef="0" IVar="-1" Cut="0.0000000000000000e+00" cType="1" res="-2.6726972311735153e-02" rms="3.7213176488876343e-01" purity="3.9910826086997986e-01" nType="-99"/>
          </Node>
          <Node pos="r" depth="2" NCoef="0" IVar="8" Cut="5.6494522094726562e-01" cType="1" res="1.3632354093715549e-03" rms="3.8557815551757812e-01" purity="5.5672097206115723e-01" nType="0">
            <Node pos="l" depth="3" NCoef="0" IVar="-1" Cut="0.0000000000000000e+00" cType="1" res="-1.6531143337488174e-03" rms="3.8489580154418945e-01" purity="5.9970790147781372e-01" nType="-99"/>
            <Node pos="r" depth="3" NCoef="0" IVar="-1" Cut="0.0000000000000000e+00" cType="1" res="5.4651503451168537e-03" rms="3.8669297099113464e-01" purity="4.8030251264572144e-01" nType="-99"/>
          </Node>
        </Node>
      </Node>
    </BinaryTree>
    <BinaryTree type="DecisionTree" boostWeight="1.0000000000000000e+00" itree="707">
      <Node pos="s" depth="0" NCoef="0" IVar="3" Cut="3.3658288574218750e+02" cType="1" res="9.7023660782724619e-04" rms="3.8588261604309082e-01" purity="4.9719774723052979e-01" nType="0">
        <Node pos="l" depth="1" NCoef="0" IVar="4" Cut="7.7229339599609375e+01" cType="1" res="2.6462483219802380e-03" rms="3.8706696033477783e-01" purity="4.8040953278541565e-01" nType="0">
          <Node pos="l" depth="2" NCoef="0" IVar="4" Cut="7.3347076416015625e+01" cType="1" res="1.8207045271992683e-02" rms="3.4420076012611389e-01" purity="1.9662281870841980e-01" nType="0">
            <Node pos="l" depth="3" NCoef="0" IVar="-1" Cut="0.0000000000000000e+00" cType="1" res="6.3296896405518055e-03" rms="3.2832902669906616e-01" purity="1.7036755383014679e-01" nType="-99"/>
            <Node pos="r" depth="3" NCoef="0" IVar="-1" Cut="0.0000000000000000e+00" cType="1" res="4.0345109999179840e-02" rms="3.9210584759712219e-01" purity="2.8819948434829712e-01" nType="-99"/>
          </Node>
          <Node pos="r" depth="2" NCoef="0" IVar="4" Cut="1.2639897918701172e+02" cType="1" res="-1.5417888062074780e-04" rms="3.9422175288200378e-01" purity="5.3148174285888672e-01" nType="0">
            <Node pos="l" depth="3" NCoef="0" IVar="-1" Cut="0.0000000000000000e+00" cType="1" res="-4.8588099889457226e-03" rms="4.0269571542739868e-01" purity="3.6532378196716309e-01" nType="-99"/>
            <Node pos="r" depth="3" NCoef="0" IVar="-1" Cut="0.0000000000000000e+00" cType="1" res="4.3112589046359062e-03" rms="3.8698771595954895e-01" purity="6.6821056604385376e-01" nType="-99"/>
          </Node>
        </Node>
        <Node pos="r" depth="1" NCoef="0" IVar="4" Cut="1.6018528747558594e+02" cType="1" res="-1.4965343289077282e-02" rms="3.7405982613563538e-01" purity="6.5682029724121094e-01" nType="0">
          <Node pos="l" depth="2" NCoef="0" IVar="-1" Cut="0.0000000000000000e+00" cType="1" res="-1.9339026883244514e-02" rms="4.0493041276931763e-01" purity="4.7156190872192383e-01" nType="-99"/>
          <Node pos="r" depth="2" NCoef="0" IVar="7" Cut="1.3111117482185364e-01" cType="1" res="-5.8616856113076210e-03" rms="3.5676771402359009e-01" purity="7.5229924917221069e-01" nType="0">
            <Node pos="l" depth="3" NCoef="0" IVar="-1" Cut="0.0000000000000000e+00" cType="1" res="-1.6372933983802795e-02" rms="3.4434363245964050e-01" purity="7.6259589195251465e-01" nType="-99"/>
            <Node pos="r" depth="3" NCoef="0" IVar="-1" Cut="0.0000000000000000e+00" cType="1" res="8.9354617521166801e-03" rms="3.7103959918022156e-01" purity="7.3930168151855469e-01" nType="-99"/>
          </Node>
        </Node>
      </Node>
    </BinaryTree>
    <BinaryTree type="DecisionTree" boostWeight="1.0000000000000000e+00" itree="708">
      <Node pos="s" depth="0" NCoef="0" IVar="7" Cut="1.4666694402694702e+00" cType="1" res="-2.5015259161591530e-03" rms="3.8396233320236206e-01" purity="5.0006306171417236e-01" nType="0">
        <Node pos="l" depth="1" NCoef="0" IVar="9" Cut="-1.4666579961776733e+00" cType="1" res="-7.6845957664772868e-04" rms="3.8815742731094360e-01" purity="5.2559936046600342e-01" nType="0">
          <Node pos="l" depth="2" NCoef="0" IVar="8" Cut="-6.6688239574432373e-01" cType="1" res="-1.3512622565031052e-02" rms="3.7879890203475952e-01" purity="4.0200540423393250e-01" nType="0">
            <Node pos="l" depth="3" NCoef="0" IVar="-1" Cut="0.0000000000000000e+00" cType="1" res="1.1788700707256794e-02" rms="3.6932954192161560e-01" purity="3.2342141866683960e-01" nType="-99"/>
            <Node pos="r" depth="3" NCoef="0" IVar="-1" Cut="0.0000000000000000e+00" cType="1" res="-1.9124221056699753e-02" rms="3.8302898406982422e-01" purity="4.4616043567657471e-01" nType="-99"/>
          </Node>
          <Node pos="r" depth="2" NCoef="0" IVar="6" Cut="1.4716967344284058e+00" cType="1" res="9.7875797655433416e-04" rms="3.8939043879508972e-01" purity="5.4254394769668579e-01" nType="0">
            <Node pos="l" depth="3" NCoef="0" IVar="-1" Cut="0.0000000000000000e+00" cType="1" res="-3.3036665990948677e-04" rms="3.9153149724006653e-01" purity="5.6330984830856323e-01" nType="-99"/>
            <Node pos="r" depth="3" NCoef="0" IVar="-1" Cut="0.0000000000000000e+00" cType="1" res="1.7900513485074043e-02" rms="3.5700535774230957e-01" purity="2.4828031659126282e-01" nType="-99"/>
          </Node>
        </Node>
        <Node pos="r" depth="1" NCoef="0" IVar="5" Cut="6.8337570190429688e+01" cType="1" res="-2.0404187962412834e-02" rms="3.3706876635551453e-01" purity="2.3627234995365143e-01" nType="0">
          <Node pos="l" depth="2" NCoef="0" IVar="-1" Cut="0.0000000000000000e+00" cType="1" res="2.2467376766144298e-05" rms="2.9525381326675415e-01" purity="1.1444504559040070e-01" nType="-99"/>
          <Node pos="r" depth="2" NCoef="0" IVar="-1" Cut="0.0000000000000000e+00" cType="1" res="-2.3571940138936043e-02" rms="3.6416089534759521e-01" purity="3.2627525925636292e-01" nType="-99"/>
        </Node>
      </Node>
    </BinaryTree>
    <BinaryTree type="DecisionTree" boostWeight="1.0000000000000000e+00" itree="709">
      <Node pos="s" depth="0" NCoef="0" IVar="7" Cut="9.3336862325668335e-01" cType="1" res="-2.1965980995446444e-03" rms="3.8255852460861206e-01" purity="4.9660989642143250e-01" nType="0">
        <Node pos="l" depth="1" NCoef="0" IVar="9" Cut="-1.3333436846733093e-01" cType="1" res="6.3048669835552573e-04" rms="3.8683292269706726e-01" purity="5.3437274694442749e-01" nType="0">
          <Node pos="l" depth="2" NCoef="0" IVar="6" Cut="4.2168718576431274e-01" cType="1" res="-4.7013680450618267e-03" rms="3.8561227917671204e-01" purity="5.2056789398193359e-01" nType="0">
            <Node pos="l" depth="3" NCoef="0" IVar="-1" Cut="0.0000000000000000e+00" cType="1" res="-3.6682049540104344e-05" rms="3.8700509071350098e-01" purity="5.4879951477050781e-01" nType="-99"/>
            <Node pos="r" depth="3" NCoef="0" IVar="-1" Cut="0.0000000000000000e+00" cType="1" res="-1.1397304944694042e-02" rms="3.8157862424850464e-01" purity="4.4495853781700134e-01" nType="-99"/>
          </Node>
          <Node pos="r" depth="2" NCoef="0" IVar="8" Cut="-1.3342930376529694e-01" cType="1" res="5.4874257184565067e-03" rms="3.8787773251533508e-01" purity="5.4694795608520508e-01" nType="0">
            <Node pos="l" depth="3" NCoef="0" IVar="-1" Cut="0.0000000000000000e+00" cType="1" res="1.0057426989078522e-02" rms="3.8868281245231628e-01" purity="5.6190723180770874e-01" nType="-99"/>
            <Node pos="r" depth="3" NCoef="0" IVar="-1" Cut="0.0000000000000000e+00" cType="1" res="-1.6702037537470460e-03" rms="3.8703590631484985e-01" purity="5.3480565547943115e-01" nType="-99"/>
          </Node>
        </Node>
        <Node pos="r" depth="1" NCoef="0" IVar="9" Cut="3.9997389912605286e-01" cType="1" res="-1.4195550233125687e-02" rms="3.6361381411552429e-01" purity="3.3633375167846680e-01" nType="0">
          <Node pos="l" depth="2" NCoef="0" IVar="9" Cut="-2.0954695343971252e-01" cType="1" res="-2.8255069628357887e-02" rms="3.6229509115219116e-01" purity="3.4161326289176941e-01" nType="0">
            <Node pos="l" depth="3" NCoef="0" IVar="-1" Cut="0.0000000000000000e+00" cType="1" res="-1.2481163255870342e-02" rms="3.6180821061134338e-01" purity="3.3311355113983154e-01" nType="-99"/>
            <Node pos="r" depth="3" NCoef="0" IVar="-1" Cut="0.0000000000000000e+00" cType="1" res="-3.6632772535085678e-02" rms="3.6207044124603271e-01" purity="3.6229324340820312e-01" nType="-99"/>
          </Node>
          <Node pos="r" depth="2" NCoef="0" IVar="6" Cut="4.7779065370559692e-01" cType="1" res="1.5733959153294563e-03" rms="3.6444246768951416e-01" purity="3.3041232824325562e-01" nType="0">
            <Node pos="l" depth="3" NCoef="0" IVar="-1" Cut="0.0000000000000000e+00" cType="1" res="-9.2561021447181702e-03" rms="3.6886817216873169e-01" purity="3.6139705777168274e-01" nType="-99"/>
            <Node pos="r" depth="3" NCoef="0" IVar="-1" Cut="0.0000000000000000e+00" cType="1" res="2.0002573728561401e-02" rms="3.5686653852462769e-01" purity="2.8584793210029602e-01" nType="-99"/>
          </Node>
        </Node>
      </Node>
    </BinaryTree>
    <BinaryTree type="DecisionTree" boostWeight="1.0000000000000000e+00" itree="710">
      <Node pos="s" depth="0" NCoef="0" IVar="6" Cut="-1.7129386663436890e+00" cType="1" res="9.6886960091069341e-04" rms="3.8371714949607849e-01" purity="5.0050443410873413e-01" nType="0">
        <Node pos="l" depth="1" NCoef="0" IVar="-1" Cut="0.0000000000000000e+00" cType="1" res="2.7367347851395607e-02" rms="3.3530551195144653e-01" purity="1.9602581858634949e-01" nType="-99"/>
        <Node pos="r" depth="1" NCoef="0" IVar="2" Cut="7.5997033691406250e+02" cType="1" res="-1.9832108228001744e-04" rms="3.8558688759803772e-01" purity="5.1337987184524536e-01" nType="0">
          <Node pos="l" depth="2" NCoef="0" IVar="3" Cut="4.1777163696289062e+02" cType="1" res="-1.2249702122062445e-03" rms="3.8509920239448547e-01" purity="5.0921541452407837e-01" nType="0">
            <Node pos="l" depth="3" NCoef="0" IVar="-1" Cut="0.0000000000000000e+00" cType="1" res="-1.3622225960716605e-03" rms="3.8557156920433044e-01" purity="5.0271672010421753e-01" nType="-99"/>
            <Node pos="r" depth="3" NCoef="0" IVar="-1" Cut="0.0000000000000000e+00" cType="1" res="1.5562329441308975e-02" rms="3.6970055103302002e-01" purity="7.0515823364257812e-01" nType="-99"/>
          </Node>
          <Node pos="r" depth="2" NCoef="0" IVar="-1" Cut="0.0000000000000000e+00" cType="1" res="1.9065046682953835e-02" rms="4.0008926391601562e-01" purity="6.5317744016647339e-01" nType="-99"/>
        </Node>
      </Node>
    </BinaryTree>
    <BinaryTree type="DecisionTree" boostWeight="1.0000000000000000e+00" itree="711">
      <Node pos="s" depth="0" NCoef="0" IVar="4" Cut="1.0559147644042969e+02" cType="1" res="-2.4953349493443966e-03" rms="3.8532704114913940e-01" purity="4.9625977873802185e-01" nType="0">
        <Node pos="l" depth="1" NCoef="0" IVar="2" Cut="5.0379696655273438e+02" cType="1" res="4.3139760382473469e-03" rms="3.7813690304756165e-01" purity="2.7084359526634216e-01" nType="0">
          <Node pos="l" depth="2" NCoef="0" IVar="3" Cut="1.5860342407226562e+02" cType="1" res="8.1816520541906357e-03" rms="3.7767690420150757e-01" purity="2.6747506856918335e-01" nType="0">
            <Node pos="l" depth="3" NCoef="0" IVar="-1" Cut="0.0000000000000000e+00" cType="1" res="-4.5317882904782891e-04" rms="3.5366702079772949e-01" purity="1.9554588198661804e-01" nType="-99"/>
            <Node pos="r" depth="3" NCoef="0" IVar="-1" Cut="0.0000000000000000e+00" cType="1" res="1.3363307341933250e-02" rms="4.1321489214897156e-01" purity="3.8394165039062500e-01" nType="-99"/>
          </Node>
          <Node pos="r" depth="2" NCoef="0" IVar="-1" Cut="0.0000000000000000e+00" cType="1" res="-1.4762695878744125e-02" rms="3.8026890158653259e-01" purity="2.9500845074653625e-01" nType="-99"/>
        </Node>
        <Node pos="r" depth="1" NCoef="0" IVar="6" Cut="-1.4577512741088867e+00" cType="1" res="-6.3396408222615719e-03" rms="3.8927513360977173e-01" purity="6.2352210283279419e-01" nType="0">
          <Node pos="l" depth="2" NCoef="0" IVar="-1" Cut="0.0000000000000000e+00" cType="1" res="-2.1521445363759995e-02" rms="3.5842844843864441e-01" purity="2.8450432419776917e-01" nType="-99"/>
          <Node pos="r" depth="2" NCoef="0" IVar="9" Cut="-1.7332998514175415e+00" cType="1" res="-4.8923110589385033e-03" rms="3.9089933037757874e-01" purity="6.4272266626358032e-01" nType="0">
            <Node pos="l" depth="3" NCoef="0" IVar="-1" Cut="0.0000000000000000e+00" cType="1" res="1.0186152532696724e-02" rms="4.0333494544029236e-01" purity="5.3404581546783447e-01" nType="-99"/>
            <Node pos="r" depth="3" NCoef="0" IVar="-1" Cut="0.0000000000000000e+00" cType="1" res="-4.4095031917095184e-03" rms="3.8982281088829041e-01" purity="6.5151602029800415e-01" nType="-99"/>
          </Node>
        </Node>
      </Node>
    </BinaryTree>
    <BinaryTree type="DecisionTree" boostWeight="1.0000000000000000e+00" itree="712">
      <Node pos="s" depth="0" NCoef="0" IVar="1" Cut="1.1001314697265625e+03" cType="1" res="1.5911317896097898e-03" rms="3.8578018546104431e-01" purity="5.0058889389038086e-01" nType="0">
        <Node pos="l" depth="1" NCoef="0" IVar="9" Cut="-1.4663189649581909e+00" cType="1" res="8.5177505388855934e-03" rms="3.8023161888122559e-01" purity="2.3998330533504486e-01" nType="0">
          <Node pos="l" depth="2" NCoef="0" IVar="-1" Cut="0.0000000000000000e+00" cType="1" res="2.6183187961578369e-02" rms="3.6930888891220093e-01" purity="2.1487265825271606e-01" nType="-99"/>
          <Node pos="r" depth="2" NCoef="0" IVar="2" Cut="2.3886778259277344e+02" cType="1" res="4.3848440982401371e-03" rms="3.8197827339172363e-01" purity="2.4441578984260559e-01" nType="0">
            <Node pos="l" depth="3" NCoef="0" IVar="-1" Cut="0.0000000000000000e+00" cType="1" res="-6.2351068481802940e-03" rms="4.0887171030044556e-01" purity="2.8330570459365845e-01" nType="-99"/>
            <Node pos="r" depth="3" NCoef="0" IVar="-1" Cut="0.0000000000000000e+00" cType="1" res="7.6561560854315758e-03" rms="3.6996984481811523e-01" purity="2.2814287245273590e-01" nType="-99"/>
          </Node>
        </Node>
        <Node pos="r" depth="1" NCoef="0" IVar="4" Cut="1.0559147644042969e+02" cType="1" res="-1.6047962708398700e-03" rms="3.8827189803123474e-01" purity="6.2083178758621216e-01" nType="0">
          <Node pos="l" depth="2" NCoef="0" IVar="0" Cut="5.4230261230468750e+02" cType="1" res="-1.7480194568634033e-02" rms="4.1221258044242859e-01" purity="3.6808317899703979e-01" nType="0">
            <Node pos="l" depth="3" NCoef="0" IVar="-1" Cut="0.0000000000000000e+00" cType="1" res="-3.1340834684669971e-03" rms="4.0123111009597778e-01" purity="3.2088315486907959e-01" nType="-99"/>
            <Node pos="r" depth="3" NCoef="0" IVar="-1" Cut="0.0000000000000000e+00" cType="1" res="-2.5157585740089417e-02" rms="4.3728995323181152e-01" purity="4.8787161707878113e-01" nType="-99"/>
          </Node>
          <Node pos="r" depth="2" NCoef="0" IVar="8" Cut="-1.7330875396728516e+00" cType="1" res="2.4138379376381636e-03" rms="3.8186907768249512e-01" purity="6.8481153249740601e-01" nType="0">
            <Node pos="l" depth="3" NCoef="0" IVar="-1" Cut="0.0000000000000000e+00" cType="1" res="1.2868566438555717e-02" rms="3.9651268720626831e-01" purity="4.9640652537345886e-01" nType="-99"/>
            <Node pos="r" depth="3" NCoef="0" IVar="-1" Cut="0.0000000000000000e+00" cType="1" res="9.1130804503336549e-04" rms="3.8100638985633850e-01" purity="6.9532877206802368e-01" nType="-99"/>
          </Node>
        </Node>
      </Node>
    </BinaryTree>
    <BinaryTree type="DecisionTree" boostWeight="1.0000000000000000e+00" itree="713">
      <Node pos="s" depth="0" NCoef="0" IVar="7" Cut="-6.6664165258407593e-01" cType="1" res="-1.5408132458105683e-03" rms="3.8589867949485779e-01" purity="4.9773883819580078e-01" nType="0">
        <Node pos="l" depth="1" NCoef="0" IVar="7" Cut="-7.6824700832366943e-01" cType="1" res="5.3181061521172523e-03" rms="3.8156619668006897e-01" purity="4.2005714774131775e-01" nType="0">
          <Node pos="l" depth="2" NCoef="0" IVar="8" Cut="9.3328458070755005e-01" cType="1" res="1.7216885462403297e-03" rms="3.7871107459068298e-01" purity="3.9633557200431824e-01" nType="0">
            <Node pos="l" depth="3" NCoef="0" IVar="-1" Cut="0.0000000000000000e+00" cType="1" res="4.5607020147144794e-03" rms="3.8131746649742126e-01" purity="4.1921874880790710e-01" nType="-99"/>
            <Node pos="r" depth="3" NCoef="0" IVar="-1" Cut="0.0000000000000000e+00" cType="1" res="-1.4509298838675022e-02" rms="3.6658191680908203e-01" purity="2.9863181710243225e-01" nType="-99"/>
          </Node>
          <Node pos="r" depth="2" NCoef="0" IVar="-1" Cut="0.0000000000000000e+00" cType="1" res="1.9723866134881973e-02" rms="4.0062314271926880e-01" purity="5.9134531021118164e-01" nType="-99"/>
        </Node>
        <Node pos="r" depth="1" NCoef="0" IVar="8" Cut="1.3302266597747803e-01" cType="1" res="-4.0732724592089653e-03" rms="3.8745537400245667e-01" purity="5.2642059326171875e-01" nType="0">
          <Node pos="l" depth="2" NCoef="0" IVar="0" Cut="5.7280706787109375e+02" cType="1" res="-9.0939579531550407e-03" rms="3.9006534218788147e-01" purity="5.3562670946121216e-01" nType="0">
            <Node pos="l" depth="3" NCoef="0" IVar="-1" Cut="0.0000000000000000e+00" cType="1" res="-8.3878478035330772e-03" rms="3.9869633316993713e-01" purity="4.6984240412712097e-01" nType="-99"/>
            <Node pos="r" depth="3" NCoef="0" IVar="-1" Cut="0.0000000000000000e+00" cType="1" res="8.6168702691793442e-03" rms="3.5015329718589783e-01" purity="8.1669557094573975e-01" nType="-99"/>
          </Node>
          <Node pos="r" depth="2" NCoef="0" IVar="9" Cut="3.9994007349014282e-01" cType="1" res="1.2815495720133185e-03" rms="3.8457995653152466e-01" purity="5.1660174131393433e-01" nType="0">
            <Node pos="l" depth="3" NCoef="0" IVar="-1" Cut="0.0000000000000000e+00" cType="1" res="8.2379402592778206e-03" rms="3.8916414976119995e-01" purity="5.6472063064575195e-01" nType="-99"/>
            <Node pos="r" depth="3" NCoef="0" IVar="-1" Cut="0.0000000000000000e+00" cType="1" res="-9.4040930271148682e-03" rms="3.7772330641746521e-01" purity="4.5106849074363708e-01" nType="-99"/>
          </Node>
        </Node>
      </Node>
    </BinaryTree>
    <BinaryTree type="DecisionTree" boostWeight="1.0000000000000000e+00" itree="714">
      <Node pos="s" depth="0" NCoef="0" IVar="7" Cut="9.3322420120239258e-01" cType="1" res="1.3861398911103606e-03" rms="3.8362324237823486e-01" purity="4.9979987740516663e-01" nType="0">
        <Node pos="l" depth="1" NCoef="0" IVar="7" Cut="-2.0888040065765381e+00" cType="1" res="-1.1893878690898418e-03" rms="3.8614580035209656e-01" purity="5.3245532512664795e-01" nType="0">
          <Node pos="l" depth="2" NCoef="0" IVar="-1" Cut="0.0000000000000000e+00" cType="1" res="-2.6175830513238907e-02" rms="2.9300478100776672e-01" purity="1.7300851643085480e-01" nType="-99"/>
          <Node pos="r" depth="2" NCoef="0" IVar="7" Cut="-1.6570864915847778e+00" cType="1" res="-2.0632002269849181e-04" rms="3.8910353183746338e-01" purity="5.4564005136489868e-01" nType="0">
            <Node pos="l" depth="3" NCoef="0" IVar="-1" Cut="0.0000000000000000e+00" cType="1" res="1.8218886107206345e-02" rms="3.6803096532821655e-01" purity="2.9047244787216187e-01" nType="-99"/>
            <Node pos="r" depth="3" NCoef="0" IVar="-1" Cut="0.0000000000000000e+00" cType="1" res="-9.4311399152502418e-04" rms="3.9012232422828674e-01" purity="5.5884879827499390e-01" nType="-99"/>
          </Node>
        </Node>
        <Node pos="r" depth="1" NCoef="0" IVar="7" Cut="1.3776404857635498e+00" cType="1" res="1.2082858942449093e-02" rms="3.7277349829673767e-01" purity="3.6417475342750549e-01" nType="0">
          <Node pos="l" depth="2" NCoef="0" IVar="8" Cut="6.6525357961654663e-01" cType="1" res="2.8909135609865189e-02" rms="3.9859217405319214e-01" purity="4.8544171452522278e-01" nType="0">
            <Node pos="l" depth="3" NCoef="0" IVar="-1" Cut="0.0000000000000000e+00" cType="1" res="9.2822611331939697e-03" rms="3.9859527349472046e-01" purity="5.0452470779418945e-01" nType="-99"/>
            <Node pos="r" depth="3" NCoef="0" IVar="-1" Cut="0.0000000000000000e+00" cType="1" res="3.6866251379251480e-02" rms="3.9730080962181091e-01" purity="4.5085602998733521e-01" nType="-99"/>
          </Node>
          <Node pos="r" depth="2" NCoef="0" IVar="6" Cut="-3.0335232615470886e-01" cType="1" res="-2.7638266328722239e-03" rms="3.4773156046867371e-01" purity="2.5717473030090332e-01" nType="0">
            <Node pos="l" depth="3" NCoef="0" IVar="-1" Cut="0.0000000000000000e+00" cType="1" res="1.0180216282606125e-02" rms="3.4518560767173767e-01" purity="2.4095639586448669e-01" nType="-99"/>
            <Node pos="r" depth="3" NCoef="0" IVar="-1" Cut="0.0000000000000000e+00" cType="1" res="-9.3554640188813210e-03" rms="3.4896534681320190e-01" purity="2.6711046695709229e-01" nType="-99"/>
          </Node>
        </Node>
      </Node>
    </BinaryTree>
    <BinaryTree type="DecisionTree" boostWeight="1.0000000000000000e+00" itree="715">
      <Node pos="s" depth="0" NCoef="0" IVar="8" Cut="1.4665975570678711e+00" cType="1" res="3.1772858928889036e-03" rms="3.8316708803176880e-01" purity="5.0690102577209473e-01" nType="0">
        <Node pos="l" depth="1" NCoef="0" IVar="7" Cut="1.4666253328323364e+00" cType="1" res="5.2308896556496620e-03" rms="3.8609051704406738e-01" purity="5.2904373407363892e-01" nType="0">
          <Node pos="l" depth="2" NCoef="0" IVar="2" Cut="6.5569537353515625e+02" cType="1" res="2.9120696708559990e-03" rms="3.8744932413101196e-01" purity="5.5052387714385986e-01" nType="0">
            <Node pos="l" depth="3" NCoef="0" IVar="-1" Cut="0.0000000000000000e+00" cType="1" res="9.4849488232284784e-04" rms="3.8665062189102173e-01" purity="5.4506266117095947e-01" nType="-99"/>
            <Node pos="r" depth="3" NCoef="0" IVar="-1" Cut="0.0000000000000000e+00" cType="1" res="1.5555933117866516e-02" rms="3.9919951558113098e-01" purity="6.3730418682098389e-01" nType="-99"/>
          </Node>
          <Node pos="r" depth="2" NCoef="0" IVar="0" Cut="3.9972463989257812e+02" cType="1" res="2.9970623552799225e-02" rms="3.7038132548332214e-01" purity="2.9986956715583801e-01" nType="0">
            <Node pos="l" depth="3" NCoef="0" IVar="-1" Cut="0.0000000000000000e+00" cType="1" res="1.0668939910829067e-02" rms="3.3117392659187317e-01" purity="1.7443862557411194e-01" nType="-99"/>
            <Node pos="r" depth="3" NCoef="0" IVar="-1" Cut="0.0000000000000000e+00" cType="1" res="3.2606050372123718e-02" rms="4.1123393177986145e-01" purity="4.4947773218154907e-01" nType="-99"/>
          </Node>
        </Node>
        <Node pos="r" depth="1" NCoef="0" IVar="8" Cut="1.9745277166366577e+00" cType="1" res="-1.4889791607856750e-02" rms="3.5590511560440063e-01" purity="3.1209507584571838e-01" nType="0">
          <Node pos="l" depth="2" NCoef="0" IVar="0" Cut="3.9880310058593750e+02" cType="1" res="-2.6588654145598412e-02" rms="3.6043724417686462e-01" purity="3.6251947283744812e-01" nType="0">
            <Node pos="l" depth="3" NCoef="0" IVar="-1" Cut="0.0000000000000000e+00" cType="1" res="-3.1102338805794716e-02" rms="3.3546188473701477e-01" purity="1.9116456806659698e-01" nType="-99"/>
            <Node pos="r" depth="3" NCoef="0" IVar="-1" Cut="0.0000000000000000e+00" cType="1" res="-7.5563592836260796e-03" rms="3.8144963979721069e-01" purity="5.2026474475860596e-01" nType="-99"/>
          </Node>
          <Node pos="r" depth="2" NCoef="0" IVar="-1" Cut="0.0000000000000000e+00" cType="1" res="-6.7462526203598827e-05" rms="3.4952560067176819e-01" purity="2.4829120934009552e-01" nType="-99"/>
        </Node>
      </Node>
    </BinaryTree>
    <BinaryTree type="DecisionTree" boostWeight="1.0000000000000000e+00" itree="716">
      <Node pos="s" depth="0" NCoef="0" IVar="8" Cut="-1.7333295345306396e+00" cType="1" res="-2.5623615365475416e-03" rms="3.8403859734535217e-01" purity="4.9867069721221924e-01" nType="0">
        <Node pos="l" depth="1" NCoef="0" IVar="8" Cut="-1.9873099327087402e+00" cType="1" res="3.3145707100629807e-02" rms="3.7158808112144470e-01" purity="3.2351994514465332e-01" nType="0">
          <Node pos="l" depth="2" NCoef="0" IVar="-1" Cut="0.0000000000000000e+00" cType="1" res="8.1976857036352158e-03" rms="3.5035309195518494e-01" purity="2.5411072373390198e-01" nType="-99"/>
          <Node pos="r" depth="2" NCoef="0" IVar="-1" Cut="0.0000000000000000e+00" cType="1" res="4.4734824448823929e-02" rms="3.9863780140876770e-01" purity="4.2676103115081787e-01" nType="-99"/>
        </Node>
        <Node pos="r" depth="1" NCoef="0" IVar="9" Cut="-1.3331373035907745e-01" cType="1" res="-5.4019778035581112e-03" rms="3.8486924767494202e-01" purity="5.1259922981262207e-01" nType="0">
          <Node pos="l" depth="2" NCoef="0" IVar="1" Cut="1.1148211669921875e+03" cType="1" res="-1.0453021153807640e-02" rms="3.8192370533943176e-01" purity="5.1188957691192627e-01" nType="0">
            <Node pos="l" depth="3" NCoef="0" IVar="-1" Cut="0.0000000000000000e+00" cType="1" res="-1.4852945692837238e-02" rms="3.7341046333312988e-01" purity="2.3241522908210754e-01" nType="-99"/>
            <Node pos="r" depth="3" NCoef="0" IVar="-1" Cut="0.0000000000000000e+00" cType="1" res="-3.1525038648396730e-03" rms="3.8570854067802429e-01" purity="6.4266449213027954e-01" nType="-99"/>
          </Node>
          <Node pos="r" depth="2" NCoef="0" IVar="6" Cut="9.4111895561218262e-01" cType="1" res="-1.1432633036747575e-03" rms="3.8728415966033936e-01" purity="5.1319760084152222e-01" nType="0">
            <Node pos="l" depth="3" NCoef="0" IVar="-1" Cut="0.0000000000000000e+00" cType="1" res="-3.1989379785954952e-03" rms="3.9187991619110107e-01" purity="5.5510151386260986e-01" nType="-99"/>
            <Node pos="r" depth="3" NCoef="0" IVar="-1" Cut="0.0000000000000000e+00" cType="1" res="1.1441919021308422e-02" rms="3.6622628569602966e-01" purity="3.3141720294952393e-01" nType="-99"/>
          </Node>
        </Node>
      </Node>
    </BinaryTree>
    <BinaryTree type="DecisionTree" boostWeight="1.0000000000000000e+00" itree="717">
      <Node pos="s" depth="0" NCoef="0" IVar="9" Cut="-1.7333282232284546e+00" cType="1" res="-8.4763183258473873e-04" rms="3.8328567147254944e-01" purity="4.9811413884162903e-01" nType="0">
        <Node pos="l" depth="1" NCoef="0" IVar="7" Cut="1.3222035765647888e-01" cType="1" res="-2.0852465182542801e-02" rms="3.6120584607124329e-01" purity="3.4437718987464905e-01" nType="0">
          <Node pos="l" depth="2" NCoef="0" IVar="-1" Cut="0.0000000000000000e+00" cType="1" res="-6.5810297382995486e-04" rms="3.6958810687065125e-01" purity="3.7410306930541992e-01" nType="-99"/>
          <Node pos="r" depth="2" NCoef="0" IVar="-1" Cut="0.0000000000000000e+00" cType="1" res="-3.9182297885417938e-02" rms="3.4363296627998352e-01" purity="2.9326018691062927e-01" nType="-99"/>
        </Node>
        <Node pos="r" depth="1" NCoef="0" IVar="9" Cut="-1.5174219608306885e+00" cType="1" res="9.4985903706401587e-04" rms="3.8515678048133850e-01" purity="5.1192784309387207e-01" nType="0">
          <Node pos="l" depth="2" NCoef="0" IVar="-1" Cut="0.0000000000000000e+00" cType="1" res="2.1568201482295990e-02" rms="3.9666965603828430e-01" purity="4.8816972970962524e-01" nType="-99"/>
          <Node pos="r" depth="2" NCoef="0" IVar="9" Cut="-9.0063852071762085e-01" cType="1" res="-2.0777972531504929e-04" rms="3.8468959927558899e-01" purity="5.1277422904968262e-01" nType="0">
            <Node pos="l" depth="3" NCoef="0" IVar="-1" Cut="0.0000000000000000e+00" cType="1" res="-1.2110144831240177e-02" rms="3.8535979390144348e-01" purity="4.5852559804916382e-01" nType="-99"/>
            <Node pos="r" depth="3" NCoef="0" IVar="-1" Cut="0.0000000000000000e+00" cType="1" res="1.7653396353125572e-03" rms="3.8450533151626587e-01" purity="5.2129274606704712e-01" nType="-99"/>
          </Node>
        </Node>
      </Node>
    </BinaryTree>
    <BinaryTree type="DecisionTree" boostWeight="1.0000000000000000e+00" itree="718">
      <Node pos="s" depth="0" NCoef="0" IVar="3" Cut="4.2994076538085938e+02" cType="1" res="1.4799119671806693e-03" rms="3.8390886783599854e-01" purity="4.9989178776741028e-01" nType="0">
        <Node pos="l" depth="1" NCoef="0" IVar="4" Cut="8.6038505554199219e+01" cType="1" res="2.4526971392333508e-03" rms="3.8362309336662292e-01" purity="4.9628829956054688e-01" nType="0">
          <Node pos="l" depth="2" NCoef="0" IVar="6" Cut="-1.2066578865051270e-01" cType="1" res="1.2955914251506329e-02" rms="3.6282405257225037e-01" purity="2.2037646174430847e-01" nType="0">
            <Node pos="l" depth="3" NCoef="0" IVar="-1" Cut="0.0000000000000000e+00" cType="1" res="2.7604281902313232e-02" rms="3.7061613798141479e-01" purity="2.3571658134460449e-01" nType="-99"/>
            <Node pos="r" depth="3" NCoef="0" IVar="-1" Cut="0.0000000000000000e+00" cType="1" res="-5.3424248471856117e-03" rms="3.5451865196228027e-01" purity="2.0665223896503448e-01" nType="-99"/>
          </Node>
          <Node pos="r" depth="2" NCoef="0" IVar="2" Cut="3.2353701782226562e+02" cType="1" res="-3.9448682218790054e-04" rms="3.8902086019515991e-01" purity="5.7108175754547119e-01" nType="0">
            <Node pos="l" depth="3" NCoef="0" IVar="-1" Cut="0.0000000000000000e+00" cType="1" res="3.1306601595133543e-03" rms="4.0462711453437805e-01" purity="5.3411334753036499e-01" nType="-99"/>
            <Node pos="r" depth="3" NCoef="0" IVar="-1" Cut="0.0000000000000000e+00" cType="1" res="-3.2955226488411427e-03" rms="3.7615653872489929e-01" purity="6.0032856464385986e-01" nType="-99"/>
          </Node>
        </Node>
        <Node pos="r" depth="1" NCoef="0" IVar="-1" Cut="0.0000000000000000e+00" cType="1" res="-2.1547036245465279e-02" rms="3.9239138364791870e-01" purity="6.2840282917022705e-01" nType="-99"/>
      </Node>
    </BinaryTree>
    <BinaryTree type="DecisionTree" boostWeight="1.0000000000000000e+00" itree="719">
      <Node pos="s" depth="0" NCoef="0" IVar="5" Cut="1.1358435058593750e+02" cType="1" res="-3.4477936569601297e-03" rms="3.8073852658271790e-01" purity="4.9714580178260803e-01" nType="0">
        <Node pos="l" depth="1" NCoef="0" IVar="5" Cut="1.0450077056884766e+02" cType="1" res="-6.9620981812477112e-03" rms="3.9165362715721130e-01" purity="4.0029737353324890e-01" nType="0">
          <Node pos="l" depth="2" NCoef="0" IVar="9" Cut="1.2000106573104858e+00" cType="1" res="-5.1801982335746288e-03" rms="3.9042958617210388e-01" purity="3.8434857130050659e-01" nType="0">
            <Node pos="l" depth="3" NCoef="0" IVar="-1" Cut="0.0000000000000000e+00" cType="1" res="-5.1872418262064457e-03" rms="3.9380693435668945e-01" purity="3.9071071147918701e-01" nType="-99"/>
            <Node pos="r" depth="3" NCoef="0" IVar="-1" Cut="0.0000000000000000e+00" cType="1" res="5.3981770761311054e-03" rms="3.7575864791870117e-01" purity="3.5785987973213196e-01" nType="-99"/>
          </Node>
          <Node pos="r" depth="2" NCoef="0" IVar="-1" Cut="0.0000000000000000e+00" cType="1" res="-1.9177384674549103e-02" rms="4.0680235624313354e-01" purity="6.1181670427322388e-01" nType="-99"/>
        </Node>
        <Node pos="r" depth="1" NCoef="0" IVar="9" Cut="-1.1998802423477173e+00" cType="1" res="7.0031364448368549e-03" rms="3.4604087471961975e-01" purity="7.8515613079071045e-01" nType="0">
          <Node pos="l" depth="2" NCoef="0" IVar="-1" Cut="0.0000000000000000e+00" cType="1" res="1.4147307723760605e-02" rms="3.6846411228179932e-01" purity="7.2520607709884644e-01" nType="-99"/>
          <Node pos="r" depth="2" NCoef="0" IVar="7" Cut="-6.6686737537384033e-01" cType="1" res="4.8977294936776161e-03" rms="3.4236481785774231e-01" purity="7.9450231790542603e-01" nType="0">
            <Node pos="l" depth="3" NCoef="0" IVar="-1" Cut="0.0000000000000000e+00" cType="1" res="-5.7948948815464973e-03" rms="3.7291067838668823e-01" purity="7.1366262435913086e-01" nType="-99"/>
            <Node pos="r" depth="3" NCoef="0" IVar="-1" Cut="0.0000000000000000e+00" cType="1" res="7.2688241489231586e-03" rms="3.3343499898910522e-01" purity="8.1661361455917358e-01" nType="-99"/>
          </Node>
        </Node>
      </Node>
    </BinaryTree>
    <BinaryTree type="DecisionTree" boostWeight="1.0000000000000000e+00" itree="720">
      <Node pos="s" depth="0" NCoef="0" IVar="8" Cut="-1.7333745956420898e+00" cType="1" res="9.2867371859028935e-04" rms="3.8532841205596924e-01" purity="4.9651071429252625e-01" nType="0">
        <Node pos="l" depth="1" NCoef="0" IVar="9" Cut="1.3314828276634216e-01" cType="1" res="-1.6765525564551353e-02" rms="3.5545018315315247e-01" purity="2.7077591419219971e-01" nType="0">
          <Node pos="l" depth="2" NCoef="0" IVar="-1" Cut="0.0000000000000000e+00" cType="1" res="-3.8753254339098930e-03" rms="3.5954275727272034e-01" purity="2.6330444216728210e-01" nType="-99"/>
          <Node pos="r" depth="2" NCoef="0" IVar="-1" Cut="0.0000000000000000e+00" cType="1" res="-2.4353219196200371e-02" rms="3.4858158230781555e-01" purity="2.8179559111595154e-01" nType="-99"/>
        </Node>
        <Node pos="r" depth="1" NCoef="0" IVar="1" Cut="1.0999031982421875e+03" cType="1" res="2.2385390475392342e-03" rms="3.8741651177406311e-01" purity="5.1322144269943237e-01" nType="0">
          <Node pos="l" depth="2" NCoef="0" IVar="0" Cut="4.1722137451171875e+02" cType="1" res="8.2653546705842018e-03" rms="3.8548964262008667e-01" purity="2.5286743044853210e-01" nType="0">
            <Node pos="l" depth="3" NCoef="0" IVar="-1" Cut="0.0000000000000000e+00" cType="1" res="8.7529756128787994e-03" rms="3.8078656792640686e-01" purity="2.4230238795280457e-01" nType="-99"/>
            <Node pos="r" depth="3" NCoef="0" IVar="-1" Cut="0.0000000000000000e+00" cType="1" res="-9.2826345935463905e-03" rms="4.1065648198127747e-01" purity="3.1377166509628296e-01" nType="-99"/>
          </Node>
          <Node pos="r" depth="2" NCoef="0" IVar="1" Cut="1.3855169677734375e+03" cType="1" res="-4.3940631439909339e-04" rms="3.8823962211608887e-01" purity="6.2890666723251343e-01" nType="0">
            <Node pos="l" depth="3" NCoef="0" IVar="-1" Cut="0.0000000000000000e+00" cType="1" res="-4.6804831363260746e-03" rms="4.2215949296951294e-01" purity="4.8896652460098267e-01" nType="-99"/>
            <Node pos="r" depth="3" NCoef="0" IVar="-1" Cut="0.0000000000000000e+00" cType="1" res="4.6391286887228489e-03" rms="3.5743778944015503e-01" purity="7.4535346031188965e-01" nType="-99"/>
          </Node>
        </Node>
      </Node>
    </BinaryTree>
    <BinaryTree type="DecisionTree" boostWeight="1.0000000000000000e+00" itree="721">
      <Node pos="s" depth="0" NCoef="0" IVar="9" Cut="-2.2666554450988770e+00" cType="1" res="1.0895582381635904e-03" rms="3.8277751207351685e-01" purity="5.0192409753799438e-01" nType="0">
        <Node pos="l" depth="1" NCoef="0" IVar="-1" Cut="0.0000000000000000e+00" cType="1" res="2.3408506065607071e-02" rms="3.7483042478561401e-01" purity="3.5568293929100037e-01" nType="-99"/>
        <Node pos="r" depth="1" NCoef="0" IVar="6" Cut="-3.8563767075538635e-01" cType="1" res="1.5714864275651053e-05" rms="3.8299503922462463e-01" purity="5.0683248043060303e-01" nType="0">
          <Node pos="l" depth="2" NCoef="0" IVar="8" Cut="-1.4665426015853882e+00" cType="1" res="7.2676590643823147e-03" rms="3.8501965999603271e-01" purity="4.5802098512649536e-01" nType="0">
            <Node pos="l" depth="3" NCoef="0" IVar="-1" Cut="0.0000000000000000e+00" cType="1" res="-1.3954657129943371e-02" rms="3.4275975823402405e-01" purity="2.6888483762741089e-01" nType="-99"/>
            <Node pos="r" depth="3" NCoef="0" IVar="-1" Cut="0.0000000000000000e+00" cType="1" res="7.0015378296375275e-03" rms="3.9035093784332275e-01" purity="4.8404252529144287e-01" nType="-99"/>
          </Node>
          <Node pos="r" depth="2" NCoef="0" IVar="9" Cut="-3.3646446466445923e-01" cType="1" res="-3.7250542081892490e-03" rms="3.8189265131950378e-01" purity="5.3201091289520264e-01" nType="0">
            <Node pos="l" depth="3" NCoef="0" IVar="-1" Cut="0.0000000000000000e+00" cType="1" res="-7.4301864951848984e-03" rms="3.8473424315452576e-01" purity="5.2943885326385498e-01" nType="-99"/>
            <Node pos="r" depth="3" NCoef="0" IVar="-1" Cut="0.0000000000000000e+00" cType="1" res="1.9168955623172224e-04" rms="3.8031196594238281e-01" purity="5.3337872028350830e-01" nType="-99"/>
          </Node>
        </Node>
      </Node>
    </BinaryTree>
    <BinaryTree type="DecisionTree" boostWeight="1.0000000000000000e+00" itree="722">
      <Node pos="s" depth="0" NCoef="0" IVar="9" Cut="1.4666652679443359e+00" cType="1" res="3.7004242767579854e-04" rms="3.8479906320571899e-01" purity="4.9619629979133606e-01" nType="0">
        <Node pos="l" depth="1" NCoef="0" IVar="2" Cut="3.4596862792968750e+02" cType="1" res="2.5506422389298677e-03" rms="3.8631457090377808e-01" purity="5.1189011335372925e-01" nType="0">
          <Node pos="l" depth="2" NCoef="0" IVar="8" Cut="1.1998673677444458e+00" cType="1" res="-3.5097785294055939e-03" rms="3.8988792896270752e-01" purity="4.6938067674636841e-01" nType="0">
            <Node pos="l" depth="3" NCoef="0" IVar="-1" Cut="0.0000000000000000e+00" cType="1" res="2.6316265575587749e-04" rms="3.9194893836975098e-01" purity="4.9318602681159973e-01" nType="-99"/>
            <Node pos="r" depth="3" NCoef="0" IVar="-1" Cut="0.0000000000000000e+00" cType="1" res="-1.7492244020104408e-02" rms="3.7685623764991760e-01" purity="3.3078610897064209e-01" nType="-99"/>
          </Node>
          <Node pos="r" depth="2" NCoef="0" IVar="3" Cut="1.4654214477539062e+02" cType="1" res="8.6970888078212738e-03" rms="3.8255837559700012e-01" purity="5.5500304698944092e-01" nType="0">
            <Node pos="l" depth="3" NCoef="0" IVar="-1" Cut="0.0000000000000000e+00" cType="1" res="1.9313987344503403e-02" rms="3.8351038098335266e-01" purity="2.8249755501747131e-01" nType="-99"/>
            <Node pos="r" depth="3" NCoef="0" IVar="-1" Cut="0.0000000000000000e+00" cType="1" res="2.9777851887047291e-03" rms="3.8220241665840149e-01" purity="6.2021696567535400e-01" nType="-99"/>
          </Node>
        </Node>
        <Node pos="r" depth="1" NCoef="0" IVar="7" Cut="-4.0000960230827332e-01" cType="1" res="-1.5312001109123230e-02" rms="3.7334400415420532e-01" purity="3.8333216309547424e-01" nType="0">
          <Node pos="l" depth="2" NCoef="0" IVar="-1" Cut="0.0000000000000000e+00" cType="1" res="-2.2862900048494339e-02" rms="3.7429389357566833e-01" purity="3.2467710971832275e-01" nType="-99"/>
          <Node pos="r" depth="2" NCoef="0" IVar="8" Cut="-1.3357904553413391e-01" cType="1" res="-7.1741440333425999e-03" rms="3.7263211607933044e-01" purity="4.0942963957786560e-01" nType="0">
            <Node pos="l" depth="3" NCoef="0" IVar="-1" Cut="0.0000000000000000e+00" cType="1" res="-1.3534971512854099e-02" rms="3.6976388096809387e-01" purity="4.1331449151039124e-01" nType="-99"/>
            <Node pos="r" depth="3" NCoef="0" IVar="-1" Cut="0.0000000000000000e+00" cType="1" res="7.9871269917930476e-06" rms="3.7404924631118774e-01" purity="4.0723800659179688e-01" nType="-99"/>
          </Node>
        </Node>
      </Node>
    </BinaryTree>
    <BinaryTree type="DecisionTree" boostWeight="1.0000000000000000e+00" itree="723">
      <Node pos="s" depth="0" NCoef="0" IVar="9" Cut="1.1999951601028442e+00" cType="1" res="-1.1657741852104664e-03" rms="3.8370555639266968e-01" purity="4.9808397889137268e-01" nType="0">
        <Node pos="l" depth="1" NCoef="0" IVar="7" Cut="-9.3326526880264282e-01" cType="1" res="2.5833433028310537e-03" rms="3.8532745838165283e-01" purity="5.2025818824768066e-01" nType="0">
          <Node pos="l" depth="2" NCoef="0" IVar="9" Cut="-5.1422870159149170e-01" cType="1" res="1.7182651907205582e-02" rms="3.7905409932136536e-01" purity="3.9313319325447083e-01" nType="0">
            <Node pos="l" depth="3" NCoef="0" IVar="-1" Cut="0.0000000000000000e+00" cType="1" res="2.5125589221715927e-02" rms="3.7563219666481018e-01" purity="3.6111274361610413e-01" nType="-99"/>
            <Node pos="r" depth="3" NCoef="0" IVar="-1" Cut="0.0000000000000000e+00" cType="1" res="1.1597371485549957e-04" rms="3.8169953227043152e-01" purity="4.2524799704551697e-01" nType="-99"/>
          </Node>
          <Node pos="r" depth="2" NCoef="0" IVar="6" Cut="1.2070914506912231e+00" cType="1" res="-1.1514314683154225e-03" rms="3.8682746887207031e-01" purity="5.5277913808822632e-01" nType="0">
            <Node pos="l" depth="3" NCoef="0" IVar="-1" Cut="0.0000000000000000e+00" cType="1" res="-2.4713047314435244e-03" rms="3.8755708932876587e-01" purity="5.7844853401184082e-01" nType="-99"/>
            <Node pos="r" depth="3" NCoef="0" IVar="-1" Cut="0.0000000000000000e+00" cType="1" res="1.5689501538872719e-02" rms="3.7948831915855408e-01" purity="3.2458665966987610e-01" nType="-99"/>
          </Node>
        </Node>
        <Node pos="r" depth="1" NCoef="0" IVar="6" Cut="1.9914925098419189e-01" cType="1" res="-1.9743613898754120e-02" rms="3.7501272559165955e-01" purity="3.8820505142211914e-01" nType="0">
          <Node pos="l" depth="2" NCoef="0" IVar="5" Cut="6.9387779235839844e+01" cType="1" res="-3.4712977707386017e-02" rms="3.8476204872131348e-01" purity="3.9708378911018372e-01" nType="0">
            <Node pos="l" depth="3" NCoef="0" IVar="-1" Cut="0.0000000000000000e+00" cType="1" res="-3.5441513173282146e-03" rms="3.6123186349868774e-01" purity="2.6710826158523560e-01" nType="-99"/>
            <Node pos="r" depth="3" NCoef="0" IVar="-1" Cut="0.0000000000000000e+00" cType="1" res="-3.4653771668672562e-02" rms="3.9907869696617126e-01" purity="4.8801547288894653e-01" nType="-99"/>
          </Node>
          <Node pos="r" depth="2" NCoef="0" IVar="2" Cut="4.1255899047851562e+02" cType="1" res="-4.9464828334748745e-03" rms="3.6451616883277893e-01" purity="3.7942844629287720e-01" nType="0">
            <Node pos="l" depth="3" NCoef="0" IVar="-1" Cut="0.0000000000000000e+00" cType="1" res="-1.0413134470582008e-02" rms="3.6166766285896301e-01" purity="3.4995990991592407e-01" nType="-99"/>
            <Node pos="r" depth="3" NCoef="0" IVar="-1" Cut="0.0000000000000000e+00" cType="1" res="1.2665679678320885e-02" rms="3.7008079886436462e-01" purity="4.4765749573707581e-01" nType="-99"/>
          </Node>
        </Node>
      </Node>
    </BinaryTree>
    <BinaryTree type="DecisionTree" boostWeight="1.0000000000000000e+00" itree="724">
      <Node pos="s" depth="0" NCoef="0" IVar="7" Cut="6.6669124364852905e-01" cType="1" res="2.4645028170198202e-03" rms="3.8527369499206543e-01" purity="4.9963974952697754e-01" nType="0">
        <Node pos="l" depth="1" NCoef="0" IVar="2" Cut="6.5569537353515625e+02" cType="1" res="5.0144642591476440e-03" rms="3.8766857981681824e-01" purity="5.3494489192962646e-01" nType="0">
          <Node pos="l" depth="2" NCoef="0" IVar="2" Cut="5.9059393310546875e+02" cType="1" res="6.0392543673515320e-03" rms="3.8760957121849060e-01" purity="5.3085446357727051e-01" nType="0">
            <Node pos="l" depth="3" NCoef="0" IVar="-1" Cut="0.0000000000000000e+00" cType="1" res="3.1237085349857807e-03" rms="3.8696342706680298e-01" purity="5.2765858173370361e-01" nType="-99"/>
            <Node pos="r" depth="3" NCoef="0" IVar="-1" Cut="0.0000000000000000e+00" cType="1" res="2.5970859453082085e-02" rms="4.0245285630226135e-01" purity="6.1312347650527954e-01" nType="-99"/>
          </Node>
          <Node pos="r" depth="2" NCoef="0" IVar="-1" Cut="0.0000000000000000e+00" cType="1" res="-7.4597457423806190e-03" rms="3.8825574517250061e-01" purity="6.0411769151687622e-01" nType="-99"/>
        </Node>
        <Node pos="r" depth="1" NCoef="0" IVar="7" Cut="9.7147446870803833e-01" cType="1" res="-4.6204356476664543e-03" rms="3.7844985723495483e-01" purity="4.0154623985290527e-01" nType="0">
          <Node pos="l" depth="2" NCoef="0" IVar="4" Cut="1.3408245849609375e+02" cType="1" res="-2.4318156763911247e-02" rms="3.8813245296478271e-01" purity="5.1954519748687744e-01" nType="0">
            <Node pos="l" depth="3" NCoef="0" IVar="-1" Cut="0.0000000000000000e+00" cType="1" res="-2.3360043764114380e-02" rms="4.0332534909248352e-01" purity="3.2257363200187683e-01" nType="-99"/>
            <Node pos="r" depth="3" NCoef="0" IVar="-1" Cut="0.0000000000000000e+00" cType="1" res="-6.2821013852953911e-03" rms="3.7108111381530762e-01" purity="7.2391158342361450e-01" nType="-99"/>
          </Node>
          <Node pos="r" depth="2" NCoef="0" IVar="6" Cut="1.5615269541740417e-01" cType="1" res="3.8590538315474987e-03" rms="3.7388515472412109e-01" purity="3.5074996948242188e-01" nType="0">
            <Node pos="l" depth="3" NCoef="0" IVar="-1" Cut="0.0000000000000000e+00" cType="1" res="-5.9651536867022514e-03" rms="3.7654647231101990e-01" purity="3.4332999587059021e-01" nType="-99"/>
            <Node pos="r" depth="3" NCoef="0" IVar="-1" Cut="0.0000000000000000e+00" cType="1" res="1.2369937263429165e-02" rms="3.7072148919105530e-01" purity="3.5833173990249634e-01" nType="-99"/>
          </Node>
        </Node>
      </Node>
    </BinaryTree>
    <BinaryTree type="DecisionTree" boostWeight="1.0000000000000000e+00" itree="725">
      <Node pos="s" depth="0" NCoef="0" IVar="6" Cut="-1.4580618143081665e+00" cType="1" res="5.3302594460546970e-04" rms="3.8380339741706848e-01" purity="4.9961075186729431e-01" nType="0">
        <Node pos="l" depth="1" NCoef="0" IVar="8" Cut="-6.6631907224655151e-01" cType="1" res="-2.5547817349433899e-02" rms="3.1464317440986633e-01" purity="1.8338640034198761e-01" nType="0">
          <Node pos="l" depth="2" NCoef="0" IVar="-1" Cut="0.0000000000000000e+00" cType="1" res="2.2265424486249685e-03" rms="3.0999779701232910e-01" purity="1.7451623082160950e-01" nType="-99"/>
          <Node pos="r" depth="2" NCoef="0" IVar="-1" Cut="0.0000000000000000e+00" cType="1" res="-3.4884870052337646e-02" rms="3.1627583503723145e-01" purity="1.8895542621612549e-01" nType="-99"/>
        </Node>
        <Node pos="r" depth="1" NCoef="0" IVar="9" Cut="-1.1999942064285278e+00" cType="1" res="2.3724657949060202e-03" rms="3.8815015554428101e-01" purity="5.2191352844238281e-01" nType="0">
          <Node pos="l" depth="2" NCoef="0" IVar="4" Cut="1.4373213195800781e+02" cType="1" res="1.5841275453567505e-02" rms="3.9351066946983337e-01" purity="4.6279653906822205e-01" nType="0">
            <Node pos="l" depth="3" NCoef="0" IVar="-1" Cut="0.0000000000000000e+00" cType="1" res="1.6792250797152519e-02" rms="3.9445170760154724e-01" purity="3.6278617382049561e-01" nType="-99"/>
            <Node pos="r" depth="3" NCoef="0" IVar="-1" Cut="0.0000000000000000e+00" cType="1" res="-2.7563397306948900e-03" rms="3.9089709520339966e-01" purity="6.5783345699310303e-01" nType="-99"/>
          </Node>
          <Node pos="r" depth="2" NCoef="0" IVar="8" Cut="6.6667580604553223e-01" cType="1" res="-3.7765514571219683e-04" rms="3.8698887825012207e-01" purity="5.3398424386978149e-01" nType="0">
            <Node pos="l" depth="3" NCoef="0" IVar="-1" Cut="0.0000000000000000e+00" cType="1" res="2.2865822538733482e-03" rms="3.8930243253707886e-01" purity="5.6724739074707031e-01" nType="-99"/>
            <Node pos="r" depth="3" NCoef="0" IVar="-1" Cut="0.0000000000000000e+00" cType="1" res="-6.8016145378351212e-03" rms="3.8090759515762329e-01" purity="4.4999346137046814e-01" nType="-99"/>
          </Node>
        </Node>
      </Node>
    </BinaryTree>
    <BinaryTree type="DecisionTree" boostWeight="1.0000000000000000e+00" itree="726">
      <Node pos="s" depth="0" NCoef="0" IVar="5" Cut="7.8396522521972656e+01" cType="1" res="3.5976897925138474e-04" rms="3.8382050395011902e-01" purity="4.9997514486312866e-01" nType="0">
        <Node pos="l" depth="1" NCoef="0" IVar="8" Cut="-9.3333858251571655e-01" cType="1" res="-4.9387905746698380e-03" rms="3.8381159305572510e-01" purity="3.1261602044105530e-01" nType="0">
          <Node pos="l" depth="2" NCoef="0" IVar="9" Cut="-1.1994924545288086e+00" cType="1" res="-1.7525047063827515e-02" rms="3.4674695134162903e-01" purity="2.4400644004344940e-01" nType="0">
            <Node pos="l" depth="3" NCoef="0" IVar="-1" Cut="0.0000000000000000e+00" cType="1" res="1.3708151876926422e-02" rms="3.3688563108444214e-01" purity="2.2486293315887451e-01" nType="-99"/>
            <Node pos="r" depth="3" NCoef="0" IVar="-1" Cut="0.0000000000000000e+00" cType="1" res="-2.0483005791902542e-02" rms="3.4923833608627319e-01" purity="2.5032281875610352e-01" nType="-99"/>
          </Node>
          <Node pos="r" depth="2" NCoef="0" IVar="9" Cut="1.3346275687217712e-01" cType="1" res="-1.0120022343471646e-03" rms="3.9458146691322327e-01" purity="3.3402156829833984e-01" nType="0">
            <Node pos="l" depth="3" NCoef="0" IVar="-1" Cut="0.0000000000000000e+00" cType="1" res="-4.1380729526281357e-03" rms="4.0186077356338501e-01" purity="3.4119424223899841e-01" nType="-99"/>
            <Node pos="r" depth="3" NCoef="0" IVar="-1" Cut="0.0000000000000000e+00" cType="1" res="3.3824020065367222e-03" rms="3.8651776313781738e-01" purity="3.2631859183311462e-01" nType="-99"/>
          </Node>
        </Node>
        <Node pos="r" depth="1" NCoef="0" IVar="9" Cut="-1.7333977222442627e+00" cType="1" res="4.9086096696555614e-03" rms="3.8376981019973755e-01" purity="6.6082388162612915e-01" nType="0">
          <Node pos="l" depth="2" NCoef="0" IVar="-1" Cut="0.0000000000000000e+00" cType="1" res="1.9040552899241447e-02" rms="4.0507823228836060e-01" purity="5.3906422853469849e-01" nType="-99"/>
          <Node pos="r" depth="2" NCoef="0" IVar="8" Cut="6.6667574644088745e-01" cType="1" res="2.9504769481718540e-03" rms="3.8205417990684509e-01" purity="6.6994249820709229e-01" nType="0">
            <Node pos="l" depth="3" NCoef="0" IVar="-1" Cut="0.0000000000000000e+00" cType="1" res="-8.8992808014154434e-04" rms="3.8010016083717346e-01" purity="6.8718761205673218e-01" nType="-99"/>
            <Node pos="r" depth="3" NCoef="0" IVar="-1" Cut="0.0000000000000000e+00" cType="1" res="9.0111326426267624e-03" rms="3.8688832521438599e-01" purity="6.2492656707763672e-01" nType="-99"/>
          </Node>
        </Node>
      </Node>
    </BinaryTree>
    <BinaryTree type="DecisionTree" boostWeight="1.0000000000000000e+00" itree="727">
      <Node pos="s" depth="0" NCoef="0" IVar="9" Cut="1.2000041007995605e+00" cType="1" res="3.5509438021108508e-04" rms="3.8314345479011536e-01" purity="4.9812158942222595e-01" nType="0">
        <Node pos="l" depth="1" NCoef="0" IVar="7" Cut="-1.7333848476409912e+00" cType="1" res="-3.0039635021239519e-03" rms="3.8294434547424316e-01" purity="5.1190215349197388e-01" nType="0">
          <Node pos="l" depth="2" NCoef="0" IVar="-1" Cut="0.0000000000000000e+00" cType="1" res="-2.4054469540715218e-02" rms="3.1480634212493896e-01" purity="1.9383238255977631e-01" nType="-99"/>
          <Node pos="r" depth="2" NCoef="0" IVar="6" Cut="6.7609512805938721e-01" cType="1" res="-1.4361493522301316e-03" rms="3.8678970932960510e-01" purity="5.3198105096817017e-01" nType="0">
            <Node pos="l" depth="3" NCoef="0" IVar="-1" Cut="0.0000000000000000e+00" cType="1" res="1.0425483342260122e-03" rms="3.9000424742698669e-01" purity="5.7025527954101562e-01" nType="-99"/>
            <Node pos="r" depth="3" NCoef="0" IVar="-1" Cut="0.0000000000000000e+00" cType="1" res="-8.4401760250329971e-03" rms="3.7467446923255920e-01" purity="3.9296293258666992e-01" nType="-99"/>
          </Node>
        </Node>
        <Node pos="r" depth="1" NCoef="0" IVar="1" Cut="1.2851711425781250e+03" cType="1" res="1.6193591058254242e-02" rms="3.8368484377861023e-01" purity="4.3314403295516968e-01" nType="0">
          <Node pos="l" depth="2" NCoef="0" IVar="8" Cut="-1.3367782533168793e-01" cType="1" res="8.2352533936500549e-03" rms="3.7852552533149719e-01" purity="2.8248304128646851e-01" nType="0">
            <Node pos="l" depth="3" NCoef="0" IVar="-1" Cut="0.0000000000000000e+00" cType="1" res="1.8790792673826218e-02" rms="3.8854947686195374e-01" purity="3.2041490077972412e-01" nType="-99"/>
            <Node pos="r" depth="3" NCoef="0" IVar="-1" Cut="0.0000000000000000e+00" cType="1" res="-4.1719032451510429e-03" rms="3.7057307362556458e-01" purity="2.5546559691429138e-01" nType="-99"/>
          </Node>
          <Node pos="r" depth="2" NCoef="0" IVar="9" Cut="1.8095126152038574e+00" cType="1" res="2.7344116941094398e-02" rms="3.9052635431289673e-01" purity="6.4423698186874390e-01" nType="0">
            <Node pos="l" depth="3" NCoef="0" IVar="-1" Cut="0.0000000000000000e+00" cType="1" res="1.0598388500511646e-02" rms="3.7877175211906433e-01" purity="6.6400003433227539e-01" nType="-99"/>
            <Node pos="r" depth="3" NCoef="0" IVar="-1" Cut="0.0000000000000000e+00" cType="1" res="2.8355786576867104e-02" rms="4.0659219026565552e-01" purity="6.1516183614730835e-01" nType="-99"/>
          </Node>
        </Node>
      </Node>
    </BinaryTree>
    <BinaryTree type="DecisionTree" boostWeight="1.0000000000000000e+00" itree="728">
      <Node pos="s" depth="0" NCoef="0" IVar="6" Cut="-1.1916617155075073e+00" cType="1" res="2.4428293108940125e-03" rms="3.8280400633811951e-01" purity="5.0335186719894409e-01" nType="0">
        <Node pos="l" depth="1" NCoef="0" IVar="1" Cut="1.0269553222656250e+03" cType="1" res="1.6647910699248314e-02" rms="3.6363461613655090e-01" purity="2.7494075894355774e-01" nType="0">
          <Node pos="l" depth="2" NCoef="0" IVar="-1" Cut="0.0000000000000000e+00" cType="1" res="-1.1677703820168972e-02" rms="2.6920431852340698e-01" purity="9.0925469994544983e-02" nType="-99"/>
          <Node pos="r" depth="2" NCoef="0" IVar="0" Cut="3.9968322753906250e+02" cType="1" res="2.8029648587107658e-02" rms="3.9739999175071716e-01" purity="3.5537931323051453e-01" nType="0">
            <Node pos="l" depth="3" NCoef="0" IVar="-1" Cut="0.0000000000000000e+00" cType="1" res="1.1523496359586716e-02" rms="3.5952919721603394e-01" purity="2.0966242253780365e-01" nType="-99"/>
            <Node pos="r" depth="3" NCoef="0" IVar="-1" Cut="0.0000000000000000e+00" cType="1" res="2.2373514249920845e-02" rms="4.2189171910285950e-01" purity="4.5854556560516357e-01" nType="-99"/>
          </Node>
        </Node>
        <Node pos="r" depth="1" NCoef="0" IVar="6" Cut="1.2791801691055298e+00" cType="1" res="6.9055141648277640e-04" rms="3.8506624102592468e-01" purity="5.3152763843536377e-01" nType="0">
          <Node pos="l" depth="2" NCoef="0" IVar="2" Cut="3.5189874267578125e+02" cType="1" res="2.2885166108608246e-03" rms="3.9040422439575195e-01" purity="5.6788498163223267e-01" nType="0">
            <Node pos="l" depth="3" NCoef="0" IVar="-1" Cut="0.0000000000000000e+00" cType="1" res="4.5802970416843891e-03" rms="3.9856651425361633e-01" purity="5.4038470983505249e-01" nType="-99"/>
            <Node pos="r" depth="3" NCoef="0" IVar="-1" Cut="0.0000000000000000e+00" cType="1" res="-2.0853050518780947e-03" rms="3.8156035542488098e-01" purity="5.9679633378982544e-01" nType="-99"/>
          </Node>
          <Node pos="r" depth="2" NCoef="0" IVar="6" Cut="1.9308246374130249e+00" cType="1" res="-1.2869424186646938e-02" rms="3.3607125282287598e-01" purity="2.2300754487514496e-01" nType="0">
            <Node pos="l" depth="3" NCoef="0" IVar="-1" Cut="0.0000000000000000e+00" cType="1" res="-2.0176885649561882e-02" rms="3.3841297030448914e-01" purity="2.4065606296062469e-01" nType="-99"/>
            <Node pos="r" depth="3" NCoef="0" IVar="-1" Cut="0.0000000000000000e+00" cType="1" res="1.9427832216024399e-02" rms="3.2783931493759155e-01" purity="1.7857438325881958e-01" nType="-99"/>
          </Node>
        </Node>
      </Node>
    </BinaryTree>
    <BinaryTree type="DecisionTree" boostWeight="1.0000000000000000e+00" itree="729">
      <Node pos="s" depth="0" NCoef="0" IVar="9" Cut="-1.1999968290328979e+00" cType="1" res="-1.0686124442145228e-03" rms="3.8221299648284912e-01" purity="4.9664357304573059e-01" nType="0">
        <Node pos="l" depth="1" NCoef="0" IVar="3" Cut="1.2205509185791016e+02" cType="1" res="-1.7861770465970039e-02" rms="3.7504419684410095e-01" purity="4.0125882625579834e-01" nType="0">
          <Node pos="l" depth="2" NCoef="0" IVar="-1" Cut="0.0000000000000000e+00" cType="1" res="-3.7244193255901337e-02" rms="2.8503480553627014e-01" purity="1.2038731575012207e-01" nType="-99"/>
          <Node pos="r" depth="2" NCoef="0" IVar="9" Cut="-2.1904788017272949e+00" cType="1" res="-1.3551295734941959e-02" rms="3.9013290405273438e-01" purity="4.5637485384941101e-01" nType="0">
            <Node pos="l" depth="3" NCoef="0" IVar="-1" Cut="0.0000000000000000e+00" cType="1" res="-2.4187907576560974e-02" rms="3.7233442068099976e-01" purity="3.5759371519088745e-01" nType="-99"/>
            <Node pos="r" depth="3" NCoef="0" IVar="-1" Cut="0.0000000000000000e+00" cType="1" res="-4.7451523132622242e-03" rms="3.9430251717567444e-01" purity="4.8154836893081665e-01" nType="-99"/>
          </Node>
        </Node>
        <Node pos="r" depth="1" NCoef="0" IVar="6" Cut="-6.5975737571716309e-01" cType="1" res="2.3572791833430529e-03" rms="3.8356870412826538e-01" purity="5.1610255241394043e-01" nType="0">
          <Node pos="l" depth="2" NCoef="0" IVar="3" Cut="2.8768051147460938e+02" cType="1" res="-9.8026040941476822e-03" rms="3.8205492496490479e-01" purity="3.8815212249755859e-01" nType="0">
            <Node pos="l" depth="3" NCoef="0" IVar="-1" Cut="0.0000000000000000e+00" cType="1" res="-9.1583253815770149e-03" rms="3.8243207335472107e-01" purity="3.5120895504951477e-01" nType="-99"/>
            <Node pos="r" depth="3" NCoef="0" IVar="-1" Cut="0.0000000000000000e+00" cType="1" res="6.2014064751565456e-03" rms="3.7948405742645264e-01" purity="5.8161914348602295e-01" nType="-99"/>
          </Node>
          <Node pos="r" depth="2" NCoef="0" IVar="1" Cut="1.1200372314453125e+03" cType="1" res="5.8941990137100220e-03" rms="3.8393560051918030e-01" purity="5.5331921577453613e-01" nType="0">
            <Node pos="l" depth="3" NCoef="0" IVar="-1" Cut="0.0000000000000000e+00" cType="1" res="9.2430366203188896e-03" rms="3.9485603570938110e-01" purity="2.9095390439033508e-01" nType="-99"/>
            <Node pos="r" depth="3" NCoef="0" IVar="-1" Cut="0.0000000000000000e+00" cType="1" res="1.2744972482323647e-03" rms="3.7871769070625305e-01" purity="6.7450588941574097e-01" nType="-99"/>
          </Node>
        </Node>
      </Node>
    </BinaryTree>
    <BinaryTree type="DecisionTree" boostWeight="1.0000000000000000e+00" itree="730">
      <Node pos="s" depth="0" NCoef="0" IVar="7" Cut="-1.9999095201492310e+00" cType="1" res="-1.1093537323176861e-03" rms="3.8490375876426697e-01" purity="4.9597713351249695e-01" nType="0">
        <Node pos="l" depth="1" NCoef="0" IVar="-1" Cut="0.0000000000000000e+00" cType="1" res="2.5724794715642929e-02" rms="3.3811402320861816e-01" purity="2.2720846533775330e-01" nType="-99"/>
        <Node pos="r" depth="1" NCoef="0" IVar="7" Cut="-1.5426937341690063e+00" cType="1" res="-2.2289277985692024e-03" rms="3.8653621077537537e-01" purity="5.0625270605087280e-01" nType="0">
          <Node pos="l" depth="2" NCoef="0" IVar="-1" Cut="0.0000000000000000e+00" cType="1" res="-1.7476823180913925e-02" rms="3.6038419604301453e-01" purity="2.5168099999427795e-01" nType="-99"/>
          <Node pos="r" depth="2" NCoef="0" IVar="7" Cut="1.5591206550598145e+00" cType="1" res="-1.2663120869547129e-03" rms="3.8768115639686584e-01" purity="5.1807731389999390e-01" nType="0">
            <Node pos="l" depth="3" NCoef="0" IVar="-1" Cut="0.0000000000000000e+00" cType="1" res="3.3039139816537499e-04" rms="3.9235499501228333e-01" purity="5.4612535238265991e-01" nType="-99"/>
            <Node pos="r" depth="3" NCoef="0" IVar="-1" Cut="0.0000000000000000e+00" cType="1" res="-1.8123442307114601e-02" rms="3.3088627457618713e-01" purity="2.0736178755760193e-01" nType="-99"/>
          </Node>
        </Node>
      </Node>
    </BinaryTree>
    <BinaryTree type="DecisionTree" boostWeight="1.0000000000000000e+00" itree="731">
      <Node pos="s" depth="0" NCoef="0" IVar="3" Cut="1.4090675354003906e+02" cType="1" res="-1.4022859977558255e-03" rms="3.8151377439498901e-01" purity="4.9841722846031189e-01" nType="0">
        <Node pos="l" depth="1" NCoef="0" IVar="3" Cut="1.1547512817382812e+02" cType="1" res="-8.6695235222578049e-03" rms="3.5780304670333862e-01" purity="2.2130702435970306e-01" nType="0">
          <Node pos="l" depth="2" NCoef="0" IVar="4" Cut="8.1076446533203125e+01" cType="1" res="1.7308497335761786e-03" rms="3.2974156737327576e-01" purity="1.7066740989685059e-01" nType="0">
            <Node pos="l" depth="3" NCoef="0" IVar="-1" Cut="0.0000000000000000e+00" cType="1" res="-1.7014324665069580e-02" rms="2.8031030297279358e-01" purity="1.0906855762004852e-01" nType="-99"/>
            <Node pos="r" depth="3" NCoef="0" IVar="-1" Cut="0.0000000000000000e+00" cType="1" res="1.8490003421902657e-02" rms="3.8647294044494629e-01" purity="2.5581607222557068e-01" nType="-99"/>
          </Node>
          <Node pos="r" depth="2" NCoef="0" IVar="8" Cut="3.9995107054710388e-01" cType="1" res="-2.0592363551259041e-02" rms="3.8713654875755310e-01" purity="2.7935957908630371e-01" nType="0">
            <Node pos="l" depth="3" NCoef="0" IVar="-1" Cut="0.0000000000000000e+00" cType="1" res="-2.0997373387217522e-02" rms="3.8455617427825928e-01" purity="2.7035531401634216e-01" nType="-99"/>
            <Node pos="r" depth="3" NCoef="0" IVar="-1" Cut="0.0000000000000000e+00" cType="1" res="2.2851540052215569e-05" rms="3.9013293385505676e-01" purity="2.9307800531387329e-01" nType="-99"/>
          </Node>
        </Node>
        <Node pos="r" depth="1" NCoef="0" IVar="7" Cut="1.3330237567424774e-01" cType="1" res="6.5017008455470204e-04" rms="3.8792330026626587e-01" purity="5.7668036222457886e-01" nType="0">
          <Node pos="l" depth="2" NCoef="0" IVar="9" Cut="-3.9986827969551086e-01" cType="1" res="-3.2855481840670109e-03" rms="3.9037352800369263e-01" purity="5.8339977264404297e-01" nType="0">
            <Node pos="l" depth="3" NCoef="0" IVar="-1" Cut="0.0000000000000000e+00" cType="1" res="-8.7792258709669113e-03" rms="3.9298227429389954e-01" purity="5.4283064603805542e-01" nType="-99"/>
            <Node pos="r" depth="3" NCoef="0" IVar="-1" Cut="0.0000000000000000e+00" cType="1" res="2.3439177311956882e-03" rms="3.8845887780189514e-01" purity="6.1067116260528564e-01" nType="-99"/>
          </Node>
          <Node pos="r" depth="2" NCoef="0" IVar="9" Cut="-1.1999908685684204e+00" cType="1" res="5.4297321476042271e-03" rms="3.8487264513969421e-01" purity="5.6852024793624878e-01" nType="0">
            <Node pos="l" depth="3" NCoef="0" IVar="-1" Cut="0.0000000000000000e+00" cType="1" res="1.6057897359132767e-02" rms="3.9052093029022217e-01" purity="5.2214527130126953e-01" nType="-99"/>
            <Node pos="r" depth="3" NCoef="0" IVar="-1" Cut="0.0000000000000000e+00" cType="1" res="1.3891216367483139e-03" rms="3.8377204537391663e-01" purity="5.7669353485107422e-01" nType="-99"/>
          </Node>
        </Node>
      </Node>
    </BinaryTree>
    <BinaryTree type="DecisionTree" boostWeight="1.0000000000000000e+00" itree="732">
      <Node pos="s" depth="0" NCoef="0" IVar="6" Cut="-3.8569763302803040e-01" cType="1" res="-7.5734790880233049e-04" rms="3.8321277499198914e-01" purity="4.9648359417915344e-01" nType="0">
        <Node pos="l" depth="1" NCoef="0" IVar="7" Cut="6.6649597883224487e-01" cType="1" res="-9.9429981783032417e-03" rms="3.8031804561614990e-01" purity="4.3359890580177307e-01" nType="0">
          <Node pos="l" depth="2" NCoef="0" IVar="2" Cut="4.4882843017578125e+02" cType="1" res="-1.5813313424587250e-02" rms="3.8259321451187134e-01" purity="4.5895689725875854e-01" nType="0">
            <Node pos="l" depth="3" NCoef="0" IVar="-1" Cut="0.0000000000000000e+00" cType="1" res="-6.0663903132081032e-03" rms="3.8382661342620850e-01" purity="4.4881901144981384e-01" nType="-99"/>
            <Node pos="r" depth="3" NCoef="0" IVar="-1" Cut="0.0000000000000000e+00" cType="1" res="-2.5599740445613861e-02" rms="3.7742787599563599e-01" purity="4.9364715814590454e-01" nType="-99"/>
          </Node>
          <Node pos="r" depth="2" NCoef="0" IVar="9" Cut="6.6688758134841919e-01" cType="1" res="7.3453742079436779e-03" rms="3.7300074100494385e-01" purity="3.5891821980476379e-01" nType="0">
            <Node pos="l" depth="3" NCoef="0" IVar="-1" Cut="0.0000000000000000e+00" cType="1" res="-4.8322747461497784e-03" rms="3.6770057678222656e-01" purity="3.7584242224693298e-01" nType="-99"/>
            <Node pos="r" depth="3" NCoef="0" IVar="-1" Cut="0.0000000000000000e+00" cType="1" res="2.6891289278864861e-02" rms="3.8202849030494690e-01" purity="3.2413834333419800e-01" nType="-99"/>
          </Node>
        </Node>
        <Node pos="r" depth="1" NCoef="0" IVar="9" Cut="-6.6665011644363403e-01" cType="1" res="3.9299456402659416e-03" rms="3.8459697365760803e-01" purity="5.2857267856597900e-01" nType="0">
          <Node pos="l" depth="2" NCoef="0" IVar="9" Cut="-1.4793407917022705e+00" cType="1" res="1.3557421974837780e-02" rms="3.8568928837776184e-01" purity="5.1937466859817505e-01" nType="0">
            <Node pos="l" depth="3" NCoef="0" IVar="-1" Cut="0.0000000000000000e+00" cType="1" res="-1.8078283173963428e-03" rms="3.7811625003814697e-01" purity="4.3052479624748230e-01" nType="-99"/>
            <Node pos="r" depth="3" NCoef="0" IVar="-1" Cut="0.0000000000000000e+00" cType="1" res="1.5440925024449825e-02" rms="3.9004451036453247e-01" purity="5.7544958591461182e-01" nType="-99"/>
          </Node>
          <Node pos="r" depth="2" NCoef="0" IVar="9" Cut="4.8889267444610596e-01" cType="1" res="1.3906016829423606e-04" rms="3.8409984111785889e-01" purity="5.3219449520111084e-01" nType="0">
            <Node pos="l" depth="3" NCoef="0" IVar="-1" Cut="0.0000000000000000e+00" cType="1" res="-6.5535982139408588e-03" rms="3.8088992238044739e-01" purity="5.7136023044586182e-01" nType="-99"/>
            <Node pos="r" depth="3" NCoef="0" IVar="-1" Cut="0.0000000000000000e+00" cType="1" res="6.0794870369136333e-03" rms="3.8675194978713989e-01" purity="4.9688562750816345e-01" nType="-99"/>
          </Node>
        </Node>
      </Node>
    </BinaryTree>
    <BinaryTree type="DecisionTree" boostWeight="1.0000000000000000e+00" itree="733">
      <Node pos="s" depth="0" NCoef="0" IVar="7" Cut="1.9999904632568359e+00" cType="1" res="-1.6870424151420593e-03" rms="3.8031819462776184e-01" purity="4.9847602844238281e-01" nType="0">
        <Node pos="l" depth="1" NCoef="0" IVar="4" Cut="1.0496289062500000e+02" cType="1" res="-6.2340521253645420e-04" rms="3.8321778178215027e-01" purity="5.1067566871643066e-01" nType="0">
          <Node pos="l" depth="2" NCoef="0" IVar="0" Cut="5.5456335449218750e+02" cType="1" res="-7.4358014389872551e-03" rms="3.7247273325920105e-01" purity="2.6553130149841309e-01" nType="0">
            <Node pos="l" depth="3" NCoef="0" IVar="-1" Cut="0.0000000000000000e+00" cType="1" res="-7.2584790177643299e-03" rms="3.6351510882377625e-01" purity="2.2742167115211487e-01" nType="-99"/>
            <Node pos="r" depth="3" NCoef="0" IVar="-1" Cut="0.0000000000000000e+00" cType="1" res="7.4199885129928589e-03" rms="4.3532904982566833e-01" purity="5.6222051382064819e-01" nType="-99"/>
          </Node>
          <Node pos="r" depth="2" NCoef="0" IVar="7" Cut="-5.1422864198684692e-01" cType="1" res="2.9849477577954531e-03" rms="3.8874050974845886e-01" purity="6.4052236080169678e-01" nType="0">
            <Node pos="l" depth="3" NCoef="0" IVar="-1" Cut="0.0000000000000000e+00" cType="1" res="8.3362208679318428e-03" rms="3.9279359579086304e-01" purity="5.7911413908004761e-01" nType="-99"/>
            <Node pos="r" depth="3" NCoef="0" IVar="-1" Cut="0.0000000000000000e+00" cType="1" res="-1.0939086787402630e-03" rms="3.8679718971252441e-01" purity="6.6840535402297974e-01" nType="-99"/>
          </Node>
        </Node>
        <Node pos="r" depth="1" NCoef="0" IVar="-1" Cut="0.0000000000000000e+00" cType="1" res="-3.3435586839914322e-02" rms="2.8060531616210938e-01" purity="1.4086629450321198e-01" nType="-99"/>
      </Node>
    </BinaryTree>
    <BinaryTree type="DecisionTree" boostWeight="1.0000000000000000e+00" itree="734">
      <Node pos="s" depth="0" NCoef="0" IVar="3" Cut="1.4142408752441406e+02" cType="1" res="-1.5181087655946612e-03" rms="3.8368827104568481e-01" purity="4.9611622095108032e-01" nType="0">
        <Node pos="l" depth="1" NCoef="0" IVar="5" Cut="7.1155212402343750e+01" cType="1" res="7.0866863243281841e-03" rms="3.6501818895339966e-01" purity="2.3862856626510620e-01" nType="0">
          <Node pos="l" depth="2" NCoef="0" IVar="9" Cut="1.2000128030776978e+00" cType="1" res="-2.5708354078233242e-03" rms="3.2930141687393188e-01" purity="1.5521848201751709e-01" nType="0">
            <Node pos="l" depth="3" NCoef="0" IVar="-1" Cut="0.0000000000000000e+00" cType="1" res="-7.4918060563504696e-03" rms="3.2850402593612671e-01" purity="1.5351580083370209e-01" nType="-99"/>
            <Node pos="r" depth="3" NCoef="0" IVar="-1" Cut="0.0000000000000000e+00" cType="1" res="1.9629975780844688e-02" rms="3.3130043745040894e-01" purity="1.6162140667438507e-01" nType="-99"/>
          </Node>
          <Node pos="r" depth="2" NCoef="0" IVar="9" Cut="1.3312396407127380e-01" cType="1" res="2.3923143744468689e-02" rms="4.1955375671386719e-01" purity="3.8404169678688049e-01" nType="0">
            <Node pos="l" depth="3" NCoef="0" IVar="-1" Cut="0.0000000000000000e+00" cType="1" res="2.8839943930506706e-02" rms="4.1806367039680481e-01" purity="4.1497656702995300e-01" nType="-99"/>
            <Node pos="r" depth="3" NCoef="0" IVar="-1" Cut="0.0000000000000000e+00" cType="1" res="-6.4790612086653709e-03" rms="4.1892752051353455e-01" purity="3.4313407540321350e-01" nType="-99"/>
          </Node>
        </Node>
        <Node pos="r" depth="1" NCoef="0" IVar="7" Cut="-1.2000195980072021e+00" cType="1" res="-4.0240995585918427e-03" rms="3.8892135024070740e-01" purity="5.7110482454299927e-01" nType="0">
          <Node pos="l" depth="2" NCoef="0" IVar="4" Cut="1.1614294433593750e+02" cType="1" res="-1.8661025911569595e-02" rms="3.7242612242698669e-01" purity="3.4761789441108704e-01" nType="0">
            <Node pos="l" depth="3" NCoef="0" IVar="-1" Cut="0.0000000000000000e+00" cType="1" res="-3.0005622655153275e-02" rms="3.2209786772727966e-01" purity="1.7020247876644135e-01" nType="-99"/>
            <Node pos="r" depth="3" NCoef="0" IVar="-1" Cut="0.0000000000000000e+00" cType="1" res="-5.4025929421186447e-03" rms="3.9737847447395325e-01" purity="4.4658312201499939e-01" nType="-99"/>
          </Node>
          <Node pos="r" depth="2" NCoef="0" IVar="8" Cut="1.4665970802307129e+00" cType="1" res="-2.0779459737241268e-03" rms="3.9102089405059814e-01" purity="6.0082006454467773e-01" nType="0">
            <Node pos="l" depth="3" NCoef="0" IVar="-1" Cut="0.0000000000000000e+00" cType="1" res="-2.3809670528862625e-04" rms="3.9115449786186218e-01" purity="6.2271976470947266e-01" nType="-99"/>
            <Node pos="r" depth="3" NCoef="0" IVar="-1" Cut="0.0000000000000000e+00" cType="1" res="-1.2067582458257675e-02" rms="3.8927191495895386e-01" purity="3.8221162557601929e-01" nType="-99"/>
          </Node>
        </Node>
      </Node>
    </BinaryTree>
    <BinaryTree type="DecisionTree" boostWeight="1.0000000000000000e+00" itree="735">
      <Node pos="s" depth="0" NCoef="0" IVar="1" Cut="1.0998944091796875e+03" cType="1" res="1.5516518615186214e-03" rms="3.8113501667976379e-01" purity="4.9989849328994751e-01" nType="0">
        <Node pos="l" depth="1" NCoef="0" IVar="4" Cut="1.1910868072509766e+02" cType="1" res="-1.0754740796983242e-02" rms="3.6925247311592102e-01" purity="2.1817666292190552e-01" nType="0">
          <Node pos="l" depth="2" NCoef="0" IVar="6" Cut="-6.5140956640243530e-01" cType="1" res="-4.9286540597677231e-03" rms="3.5760575532913208e-01" purity="1.9285897910594940e-01" nType="0">
            <Node pos="l" depth="3" NCoef="0" IVar="-1" Cut="0.0000000000000000e+00" cType="1" res="1.2416712939739227e-02" rms="3.3558377623558044e-01" purity="1.6148589551448822e-01" nType="-99"/>
            <Node pos="r" depth="3" NCoef="0" IVar="-1" Cut="0.0000000000000000e+00" cType="1" res="-8.6237564682960510e-03" rms="3.6574590206146240e-01" purity="2.0533663034439087e-01" nType="-99"/>
          </Node>
          <Node pos="r" depth="2" NCoef="0" IVar="-1" Cut="0.0000000000000000e+00" cType="1" res="-1.8953615799546242e-02" rms="4.1348984837532043e-01" purity="3.2392856478691101e-01" nType="-99"/>
        </Node>
        <Node pos="r" depth="1" NCoef="0" IVar="6" Cut="1.4810197353363037e+00" cType="1" res="7.0393430069088936e-03" rms="3.8618946075439453e-01" purity="6.2552446126937866e-01" nType="0">
          <Node pos="l" depth="2" NCoef="0" IVar="4" Cut="1.6131666564941406e+02" cType="1" res="9.3210078775882721e-03" rms="3.8838556408882141e-01" purity="6.4534354209899902e-01" nType="0">
            <Node pos="l" depth="3" NCoef="0" IVar="-1" Cut="0.0000000000000000e+00" cType="1" res="9.1639906167984009e-03" rms="4.0967878699302673e-01" purity="5.5904436111450195e-01" nType="-99"/>
            <Node pos="r" depth="3" NCoef="0" IVar="-1" Cut="0.0000000000000000e+00" cType="1" res="5.1553809316828847e-04" rms="3.5758087038993835e-01" purity="7.6137840747833252e-01" nType="-99"/>
          </Node>
          <Node pos="r" depth="2" NCoef="0" IVar="-1" Cut="0.0000000000000000e+00" cType="1" res="-2.9174601659178734e-02" rms="3.3566704392433167e-01" purity="2.2642447054386139e-01" nType="-99"/>
        </Node>
      </Node>
    </BinaryTree>
    <BinaryTree type="DecisionTree" boostWeight="1.0000000000000000e+00" itree="736">
      <Node pos="s" depth="0" NCoef="0" IVar="9" Cut="-1.7333282232284546e+00" cType="1" res="5.5963285267353058e-03" rms="3.8602590560913086e-01" purity="5.0022405385971069e-01" nType="0">
        <Node pos="l" depth="1" NCoef="0" IVar="7" Cut="-6.6658228635787964e-01" cType="1" res="-1.6212986782193184e-02" rms="3.6401578783988953e-01" purity="3.4564927220344543e-01" nType="0">
          <Node pos="l" depth="2" NCoef="0" IVar="-1" Cut="0.0000000000000000e+00" cType="1" res="-4.0997531265020370e-02" rms="3.3401820063591003e-01" purity="2.3080272972583771e-01" nType="-99"/>
          <Node pos="r" depth="2" NCoef="0" IVar="4" Cut="1.2024447631835938e+02" cType="1" res="5.5685563711449504e-04" rms="3.7641975283622742e-01" purity="4.0077868103981018e-01" nType="0">
            <Node pos="l" depth="3" NCoef="0" IVar="-1" Cut="0.0000000000000000e+00" cType="1" res="-1.1963360942900181e-02" rms="3.4969386458396912e-01" purity="2.3396721482276917e-01" nType="-99"/>
            <Node pos="r" depth="3" NCoef="0" IVar="-1" Cut="0.0000000000000000e+00" cType="1" res="1.1859752237796783e-02" rms="4.0377056598663330e-01" purity="5.9028774499893188e-01" nType="-99"/>
          </Node>
        </Node>
        <Node pos="r" depth="1" NCoef="0" IVar="1" Cut="1.4296374511718750e+03" cType="1" res="7.6062413863837719e-03" rms="3.8792979717254639e-01" purity="5.1446938514709473e-01" nType="0">
          <Node pos="l" depth="2" NCoef="0" IVar="1" Cut="8.5997369384765625e+02" cType="1" res="1.0683050379157066e-02" rms="4.0213206410408020e-01" purity="3.9616551995277405e-01" nType="0">
            <Node pos="l" depth="3" NCoef="0" IVar="-1" Cut="0.0000000000000000e+00" cType="1" res="-1.4394194819033146e-02" rms="2.9188400506973267e-01" purity="1.0367031395435333e-01" nType="-99"/>
            <Node pos="r" depth="3" NCoef="0" IVar="-1" Cut="0.0000000000000000e+00" cType="1" res="7.3705231770873070e-03" rms="4.0769305825233459e-01" purity="4.1352486610412598e-01" nType="-99"/>
          </Node>
          <Node pos="r" depth="2" NCoef="0" IVar="3" Cut="3.3739492797851562e+02" cType="1" res="1.4683988410979509e-03" rms="3.5783952474594116e-01" purity="7.5047069787979126e-01" nType="0">
            <Node pos="l" depth="3" NCoef="0" IVar="-1" Cut="0.0000000000000000e+00" cType="1" res="-3.0538686551153660e-03" rms="3.5208219289779663e-01" purity="7.6491034030914307e-01" nType="-99"/>
            <Node pos="r" depth="3" NCoef="0" IVar="-1" Cut="0.0000000000000000e+00" cType="1" res="1.0229320265352726e-02" rms="3.7197497487068176e-01" purity="7.1314638853073120e-01" nType="-99"/>
          </Node>
        </Node>
      </Node>
    </BinaryTree>
    <BinaryTree type="DecisionTree" boostWeight="1.0000000000000000e+00" itree="737">
      <Node pos="s" depth="0" NCoef="0" IVar="9" Cut="-1.7333328723907471e+00" cType="1" res="1.9877487793564796e-03" rms="3.8372236490249634e-01" purity="5.0425887107849121e-01" nType="0">
        <Node pos="l" depth="1" NCoef="0" IVar="2" Cut="3.1700964355468750e+02" cType="1" res="2.1068736910820007e-02" rms="3.8212510943412781e-01" purity="3.8514500856399536e-01" nType="0">
          <Node pos="l" depth="2" NCoef="0" IVar="-1" Cut="0.0000000000000000e+00" cType="1" res="2.6522615924477577e-02" rms="3.9200407266616821e-01" purity="3.6815217137336731e-01" nType="-99"/>
          <Node pos="r" depth="2" NCoef="0" IVar="-1" Cut="0.0000000000000000e+00" cType="1" res="5.3525366820394993e-03" rms="3.7338909506797791e-01" purity="3.9890938997268677e-01" nType="-99"/>
        </Node>
        <Node pos="r" depth="1" NCoef="0" IVar="8" Cut="-1.7333295345306396e+00" cType="1" res="1.7141453281510621e-04" rms="3.8382461667060852e-01" purity="5.1559740304946899e-01" nType="0">
          <Node pos="l" depth="2" NCoef="0" IVar="9" Cut="-6.6206511110067368e-03" cType="1" res="2.0209129899740219e-02" rms="3.7539365887641907e-01" purity="3.3015111088752747e-01" nType="0">
            <Node pos="l" depth="3" NCoef="0" IVar="-1" Cut="0.0000000000000000e+00" cType="1" res="2.4005065206438303e-03" rms="3.6498680710792542e-01" purity="3.0263411998748779e-01" nType="-99"/>
            <Node pos="r" depth="3" NCoef="0" IVar="-1" Cut="0.0000000000000000e+00" cType="1" res="2.5461677461862564e-02" rms="3.8436189293861389e-01" purity="3.5640585422515869e-01" nType="-99"/>
          </Node>
          <Node pos="r" depth="2" NCoef="0" IVar="8" Cut="1.7206137180328369e+00" cType="1" res="-1.2856981484219432e-03" rms="3.8438975811004639e-01" purity="5.2908277511596680e-01" nType="0">
            <Node pos="l" depth="3" NCoef="0" IVar="-1" Cut="0.0000000000000000e+00" cType="1" res="-1.8774288473650813e-03" rms="3.8633304834365845e-01" purity="5.4758369922637939e-01" nType="-99"/>
            <Node pos="r" depth="3" NCoef="0" IVar="-1" Cut="0.0000000000000000e+00" cType="1" res="1.2239320203661919e-02" rms="3.6049509048461914e-01" purity="3.1357330083847046e-01" nType="-99"/>
          </Node>
        </Node>
      </Node>
    </BinaryTree>
    <BinaryTree type="DecisionTree" boostWeight="1.0000000000000000e+00" itree="738">
      <Node pos="s" depth="0" NCoef="0" IVar="6" Cut="-1.4581464529037476e+00" cType="1" res="2.7062576264142990e-03" rms="3.8116237521171570e-01" purity="5.0469458103179932e-01" nType="0">
        <Node pos="l" depth="1" NCoef="0" IVar="0" Cut="3.7205413818359375e+02" cType="1" res="-2.0184021443128586e-02" rms="3.1733182072639465e-01" purity="1.7696312069892883e-01" nType="0">
          <Node pos="l" depth="2" NCoef="0" IVar="-1" Cut="0.0000000000000000e+00" cType="1" res="-1.0874560102820396e-03" rms="2.8353449702262878e-01" purity="1.0524867475032806e-01" nType="-99"/>
          <Node pos="r" depth="2" NCoef="0" IVar="-1" Cut="0.0000000000000000e+00" cType="1" res="-2.7243081480264664e-02" rms="3.4561297297477722e-01" purity="2.4564480781555176e-01" nType="-99"/>
        </Node>
        <Node pos="r" depth="1" NCoef="0" IVar="7" Cut="-1.3333176076412201e-01" cType="1" res="4.2666322551667690e-03" rms="3.8507905602455139e-01" purity="5.2703529596328735e-01" nType="0">
          <Node pos="l" depth="2" NCoef="0" IVar="9" Cut="6.6666418313980103e-01" cType="1" res="-1.3780000153928995e-03" rms="3.8421168923377991e-01" purity="5.0953221321105957e-01" nType="0">
            <Node pos="l" depth="3" NCoef="0" IVar="-1" Cut="0.0000000000000000e+00" cType="1" res="-4.6385973691940308e-03" rms="3.8376903533935547e-01" purity="5.1370227336883545e-01" nType="-99"/>
            <Node pos="r" depth="3" NCoef="0" IVar="-1" Cut="0.0000000000000000e+00" cType="1" res="8.8385613635182381e-03" rms="3.8497954607009888e-01" purity="4.9851495027542114e-01" nType="-99"/>
          </Node>
          <Node pos="r" depth="2" NCoef="0" IVar="6" Cut="3.6641150712966919e-01" cType="1" res="8.7784575298428535e-03" rms="3.8571155071258545e-01" purity="5.4102563858032227e-01" nType="0">
            <Node pos="l" depth="3" NCoef="0" IVar="-1" Cut="0.0000000000000000e+00" cType="1" res="1.0488279163837433e-02" rms="3.9146444201469421e-01" purity="6.0036432743072510e-01" nType="-99"/>
            <Node pos="r" depth="3" NCoef="0" IVar="-1" Cut="0.0000000000000000e+00" cType="1" res="-2.3713151458650827e-03" rms="3.7588113546371460e-01" purity="4.4485056400299072e-01" nType="-99"/>
          </Node>
        </Node>
      </Node>
    </BinaryTree>
    <BinaryTree type="DecisionTree" boostWeight="1.0000000000000000e+00" itree="739">
      <Node pos="s" depth="0" NCoef="0" IVar="7" Cut="1.7330822944641113e+00" cType="1" res="-1.8583022756502032e-03" rms="3.8408070802688599e-01" purity="4.9876654148101807e-01" nType="0">
        <Node pos="l" depth="1" NCoef="0" IVar="9" Cut="1.1999932527542114e+00" cType="1" res="-3.6140203010290861e-03" rms="3.8586342334747314e-01" purity="5.1567214727401733e-01" nType="0">
          <Node pos="l" depth="2" NCoef="0" IVar="7" Cut="8.6965501308441162e-01" cType="1" res="-1.0722706792876124e-03" rms="3.8576582074165344e-01" purity="5.3389626741409302e-01" nType="0">
            <Node pos="l" depth="3" NCoef="0" IVar="-1" Cut="0.0000000000000000e+00" cType="1" res="4.5931281056255102e-04" rms="3.8630622625350952e-01" purity="5.4830521345138550e-01" nType="-99"/>
            <Node pos="r" depth="3" NCoef="0" IVar="-1" Cut="0.0000000000000000e+00" cType="1" res="-7.2171865031123161e-03" rms="3.8252609968185425e-01" purity="4.5202267169952393e-01" nType="-99"/>
          </Node>
          <Node pos="r" depth="2" NCoef="0" IVar="8" Cut="-4.0010976791381836e-01" cType="1" res="-1.6529282554984093e-02" rms="3.8610053062438965e-01" purity="4.2307066917419434e-01" nType="0">
            <Node pos="l" depth="3" NCoef="0" IVar="-1" Cut="0.0000000000000000e+00" cType="1" res="3.0537240672856569e-03" rms="3.8944837450981140e-01" purity="4.5017269253730774e-01" nType="-99"/>
            <Node pos="r" depth="3" NCoef="0" IVar="-1" Cut="0.0000000000000000e+00" cType="1" res="-1.8267739564180374e-02" rms="3.8386839628219604e-01" purity="4.0885999798774719e-01" nType="-99"/>
          </Node>
        </Node>
        <Node pos="r" depth="1" NCoef="0" IVar="5" Cut="7.3818687438964844e+01" cType="1" res="2.5412647053599358e-02" rms="3.5412794351577759e-01" purity="2.3617851734161377e-01" nType="0">
          <Node pos="l" depth="2" NCoef="0" IVar="-1" Cut="0.0000000000000000e+00" cType="1" res="5.2711620926856995e-02" rms="3.2207977771759033e-01" purity="1.4550040662288666e-01" nType="-99"/>
          <Node pos="r" depth="2" NCoef="0" IVar="-1" Cut="0.0000000000000000e+00" cType="1" res="5.4433974437415600e-03" rms="3.8422289490699768e-01" purity="3.3165419101715088e-01" nType="-99"/>
        </Node>
      </Node>
    </BinaryTree>
    <BinaryTree type="DecisionTree" boostWeight="1.0000000000000000e+00" itree="740">
      <Node pos="s" depth="0" NCoef="0" IVar="9" Cut="1.4666606187820435e+00" cType="1" res="1.4919532695785165e-03" rms="3.8582801818847656e-01" purity="4.9891197681427002e-01" nType="0">
        <Node pos="l" depth="1" NCoef="0" IVar="2" Cut="4.9193872070312500e+02" cType="1" res="2.8657109942287207e-03" rms="3.8709241151809692e-01" purity="5.1526272296905518e-01" nType="0">
          <Node pos="l" depth="2" NCoef="0" IVar="8" Cut="-1.7333035469055176e+00" cType="1" res="7.3323096148669720e-04" rms="3.8669928908348083e-01" purity="5.0085461139678955e-01" nType="0">
            <Node pos="l" depth="3" NCoef="0" IVar="-1" Cut="0.0000000000000000e+00" cType="1" res="-1.5802213922142982e-02" rms="3.5672029852867126e-01" purity="2.4478918313980103e-01" nType="-99"/>
            <Node pos="r" depth="3" NCoef="0" IVar="-1" Cut="0.0000000000000000e+00" cType="1" res="1.5556238358840346e-03" rms="3.8884490728378296e-01" purity="5.2039331197738647e-01" nType="-99"/>
          </Node>
          <Node pos="r" depth="2" NCoef="0" IVar="6" Cut="-9.6165433526039124e-02" cType="1" res="1.2360240332782269e-02" rms="3.8869592547416687e-01" purity="5.7941269874572754e-01" nType="0">
            <Node pos="l" depth="3" NCoef="0" IVar="-1" Cut="0.0000000000000000e+00" cType="1" res="-5.9658908285200596e-03" rms="3.8280886411666870e-01" purity="5.5401414632797241e-01" nType="-99"/>
            <Node pos="r" depth="3" NCoef="0" IVar="-1" Cut="0.0000000000000000e+00" cType="1" res="1.9854988902807236e-02" rms="3.9257058501243591e-01" purity="6.0016417503356934e-01" nType="-99"/>
          </Node>
        </Node>
        <Node pos="r" depth="1" NCoef="0" IVar="7" Cut="-6.6613948345184326e-01" cType="1" res="-8.2589620724320412e-03" rms="3.7658759951591492e-01" purity="3.8285443186759949e-01" nType="0">
          <Node pos="l" depth="2" NCoef="0" IVar="-1" Cut="0.0000000000000000e+00" cType="1" res="9.4573367387056351e-03" rms="3.7325409054756165e-01" purity="3.4645670652389526e-01" nType="-99"/>
          <Node pos="r" depth="2" NCoef="0" IVar="7" Cut="9.8426914215087891e-01" cType="1" res="-1.5226300805807114e-02" rms="3.7739250063896179e-01" purity="3.9459049701690674e-01" nType="0">
            <Node pos="l" depth="3" NCoef="0" IVar="-1" Cut="0.0000000000000000e+00" cType="1" res="-1.7168484628200531e-02" rms="3.8887006044387817e-01" purity="4.6397206187248230e-01" nType="-99"/>
            <Node pos="r" depth="3" NCoef="0" IVar="-1" Cut="0.0000000000000000e+00" cType="1" res="7.4968510307371616e-03" rms="3.5203263163566589e-01" purity="2.5557363033294678e-01" nType="-99"/>
          </Node>
        </Node>
      </Node>
    </BinaryTree>
    <BinaryTree type="DecisionTree" boostWeight="1.0000000000000000e+00" itree="741">
      <Node pos="s" depth="0" NCoef="0" IVar="9" Cut="4.0000125765800476e-01" cType="1" res="-2.3445209953933954e-03" rms="3.8303685188293457e-01" purity="4.9794012308120728e-01" nType="0">
        <Node pos="l" depth="1" NCoef="0" IVar="9" Cut="-2.0380878448486328e+00" cType="1" res="2.0963968709111214e-03" rms="3.8427248597145081e-01" purity="5.1317811012268066e-01" nType="0">
          <Node pos="l" depth="2" NCoef="0" IVar="-1" Cut="0.0000000000000000e+00" cType="1" res="-1.4415329322218895e-02" rms="3.5815581679344177e-01" purity="3.3912900090217590e-01" nType="-99"/>
          <Node pos="r" depth="2" NCoef="0" IVar="4" Cut="9.6916053771972656e+01" cType="1" res="4.0450245141983032e-03" rms="3.8637453317642212e-01" purity="5.2814966440200806e-01" nType="0">
            <Node pos="l" depth="3" NCoef="0" IVar="-1" Cut="0.0000000000000000e+00" cType="1" res="1.0726502165198326e-02" rms="3.8503989577293396e-01" purity="2.6647898554801941e-01" nType="-99"/>
            <Node pos="r" depth="3" NCoef="0" IVar="-1" Cut="0.0000000000000000e+00" cType="1" res="-2.1488957281690091e-04" rms="3.8679787516593933e-01" purity="6.2881624698638916e-01" nType="-99"/>
          </Node>
        </Node>
        <Node pos="r" depth="1" NCoef="0" IVar="2" Cut="4.7091494750976562e+02" cType="1" res="-9.8199434578418732e-03" rms="3.8083091378211975e-01" purity="4.7228994965553284e-01" nType="0">
          <Node pos="l" depth="2" NCoef="0" IVar="5" Cut="6.4959465026855469e+01" cType="1" res="-5.1871356554329395e-03" rms="3.8140571117401123e-01" purity="4.6878701448440552e-01" nType="0">
            <Node pos="l" depth="3" NCoef="0" IVar="-1" Cut="0.0000000000000000e+00" cType="1" res="8.5624959319829941e-03" rms="3.6928659677505493e-01" purity="2.5769078731536865e-01" nType="-99"/>
            <Node pos="r" depth="3" NCoef="0" IVar="-1" Cut="0.0000000000000000e+00" cType="1" res="-7.9535860568284988e-03" rms="3.8621070981025696e-01" purity="5.5828511714935303e-01" nType="-99"/>
          </Node>
          <Node pos="r" depth="2" NCoef="0" IVar="1" Cut="1.5549454345703125e+03" cType="1" res="-2.8927519917488098e-02" rms="3.7785115838050842e-01" purity="4.8673745989799500e-01" nType="0">
            <Node pos="l" depth="3" NCoef="0" IVar="-1" Cut="0.0000000000000000e+00" cType="1" res="-3.5963721573352814e-02" rms="3.6271989345550537e-01" purity="2.2293509542942047e-01" nType="-99"/>
            <Node pos="r" depth="3" NCoef="0" IVar="-1" Cut="0.0000000000000000e+00" cType="1" res="-1.0328638367354870e-02" rms="3.8604483008384705e-01" purity="6.4477413892745972e-01" nType="-99"/>
          </Node>
        </Node>
      </Node>
    </BinaryTree>
    <BinaryTree type="DecisionTree" boostWeight="1.0000000000000000e+00" itree="742">
      <Node pos="s" depth="0" NCoef="0" IVar="6" Cut="-1.4581344127655029e+00" cType="1" res="-1.1121184797957540e-03" rms="3.8165414333343506e-01" purity="4.9992009997367859e-01" nType="0">
        <Node pos="l" depth="1" NCoef="0" IVar="9" Cut="1.3336989283561707e-01" cType="1" res="1.7389710992574692e-02" rms="3.4137582778930664e-01" purity="2.1727161109447479e-01" nType="0">
          <Node pos="l" depth="2" NCoef="0" IVar="-1" Cut="0.0000000000000000e+00" cType="1" res="-5.0770379602909088e-03" rms="3.2464560866355896e-01" purity="1.7699572443962097e-01" nType="-99"/>
          <Node pos="r" depth="2" NCoef="0" IVar="-1" Cut="0.0000000000000000e+00" cType="1" res="4.1143279522657394e-02" rms="3.6113110184669495e-01" purity="2.7384346723556519e-01" nType="-99"/>
        </Node>
        <Node pos="r" depth="1" NCoef="0" IVar="6" Cut="-8.4987789392471313e-01" cType="1" res="-2.4214864242821932e-03" rms="3.8431096076965332e-01" purity="5.1992303133010864e-01" nType="0">
          <Node pos="l" depth="2" NCoef="0" IVar="6" Cut="-9.9470019340515137e-01" cType="1" res="-2.0955603569746017e-02" rms="3.8206604123115540e-01" purity="4.0057671070098877e-01" nType="0">
            <Node pos="l" depth="3" NCoef="0" IVar="-1" Cut="0.0000000000000000e+00" cType="1" res="-6.0034184716641903e-03" rms="3.8236656785011292e-01" purity="3.7429824471473694e-01" nType="-99"/>
            <Node pos="r" depth="3" NCoef="0" IVar="-1" Cut="0.0000000000000000e+00" cType="1" res="-2.9964268207550049e-02" rms="3.8009679317474365e-01" purity="4.5892453193664551e-01" nType="-99"/>
          </Node>
          <Node pos="r" depth="2" NCoef="0" IVar="2" Cut="5.0379873657226562e+02" cType="1" res="2.3097722441889346e-04" rms="3.8455811142921448e-01" purity="5.3700298070907593e-01" nType="0">
            <Node pos="l" depth="3" NCoef="0" IVar="-1" Cut="0.0000000000000000e+00" cType="1" res="-1.1958502000197768e-03" rms="3.8440939784049988e-01" purity="5.2454841136932373e-01" nType="-99"/>
            <Node pos="r" depth="3" NCoef="0" IVar="-1" Cut="0.0000000000000000e+00" cType="1" res="6.5021226182579994e-03" rms="3.8512614369392395e-01" purity="5.9729391336441040e-01" nType="-99"/>
          </Node>
        </Node>
      </Node>
    </BinaryTree>
    <BinaryTree type="DecisionTree" boostWeight="1.0000000000000000e+00" itree="743">
      <Node pos="s" depth="0" NCoef="0" IVar="0" Cut="5.5456256103515625e+02" cType="1" res="2.8869425877928734e-03" rms="3.8433548808097839e-01" purity="5.0303739309310913e-01" nType="0">
        <Node pos="l" depth="1" NCoef="0" IVar="0" Cut="5.1819622802734375e+02" cType="1" res="5.0784684717655182e-03" rms="3.9128097891807556e-01" purity="4.3505173921585083e-01" nType="0">
          <Node pos="l" depth="2" NCoef="0" IVar="7" Cut="-1.7332314252853394e+00" cType="1" res="3.5874219611287117e-03" rms="3.9224070310592651e-01" purity="4.1391476988792419e-01" nType="0">
            <Node pos="l" depth="3" NCoef="0" IVar="-1" Cut="0.0000000000000000e+00" cType="1" res="-1.9720202311873436e-02" rms="2.9822754859924316e-01" purity="1.4000864326953888e-01" nType="-99"/>
            <Node pos="r" depth="3" NCoef="0" IVar="-1" Cut="0.0000000000000000e+00" cType="1" res="3.2672910019755363e-03" rms="3.9774841070175171e-01" purity="4.3244689702987671e-01" nType="-99"/>
          </Node>
          <Node pos="r" depth="2" NCoef="0" IVar="8" Cut="-1.3366658985614777e-01" cType="1" res="2.4820826947689056e-02" rms="3.7778982520103455e-01" purity="7.1491807699203491e-01" nType="0">
            <Node pos="l" depth="3" NCoef="0" IVar="-1" Cut="0.0000000000000000e+00" cType="1" res="3.0934380367398262e-02" rms="3.7445232272148132e-01" purity="7.3753899335861206e-01" nType="-99"/>
            <Node pos="r" depth="3" NCoef="0" IVar="-1" Cut="0.0000000000000000e+00" cType="1" res="2.0449652802199125e-03" rms="3.7964928150177002e-01" purity="6.9345676898956299e-01" nType="-99"/>
          </Node>
        </Node>
        <Node pos="r" depth="1" NCoef="0" IVar="1" Cut="1.5893170166015625e+03" cType="1" res="-6.0228304937481880e-03" rms="3.5456103086471558e-01" purity="7.7943706512451172e-01" nType="0">
          <Node pos="l" depth="2" NCoef="0" IVar="1" Cut="1.4525698242187500e+03" cType="1" res="-2.1038809791207314e-02" rms="3.8875049352645874e-01" purity="6.9595730304718018e-01" nType="0">
            <Node pos="l" depth="3" NCoef="0" IVar="-1" Cut="0.0000000000000000e+00" cType="1" res="-2.6585906744003296e-02" rms="4.1192635893821716e-01" purity="6.1133271455764771e-01" nType="-99"/>
            <Node pos="r" depth="3" NCoef="0" IVar="-1" Cut="0.0000000000000000e+00" cType="1" res="2.9196657706052065e-03" rms="3.6073225736618042e-01" purity="7.8631258010864258e-01" nType="-99"/>
          </Node>
          <Node pos="r" depth="2" NCoef="0" IVar="4" Cut="1.6127203369140625e+02" cType="1" res="2.1811830811202526e-03" rms="3.3412325382232666e-01" purity="8.2504642009735107e-01" nType="0">
            <Node pos="l" depth="3" NCoef="0" IVar="-1" Cut="0.0000000000000000e+00" cType="1" res="8.3324676379561424e-03" rms="3.9099699258804321e-01" purity="7.2971278429031372e-01" nType="-99"/>
            <Node pos="r" depth="3" NCoef="0" IVar="-1" Cut="0.0000000000000000e+00" cType="1" res="-6.0851401649415493e-03" rms="2.9045310616493225e-01" purity="8.8780987262725830e-01" nType="-99"/>
          </Node>
        </Node>
      </Node>
    </BinaryTree>
    <BinaryTree type="DecisionTree" boostWeight="1.0000000000000000e+00" itree="744">
      <Node pos="s" depth="0" NCoef="0" IVar="2" Cut="3.5189874267578125e+02" cType="1" res="1.3951052678748965e-03" rms="3.8396555185317993e-01" purity="4.9666008353233337e-01" nType="0">
        <Node pos="l" depth="1" NCoef="0" IVar="2" Cut="2.1446662902832031e+02" cType="1" res="6.6529833711683750e-03" rms="3.9304745197296143e-01" purity="4.6558508276939392e-01" nType="0">
          <Node pos="l" depth="2" NCoef="0" IVar="-1" Cut="0.0000000000000000e+00" cType="1" res="-1.0000952519476414e-02" rms="4.0771546959877014e-01" purity="3.6717900633811951e-01" nType="-99"/>
          <Node pos="r" depth="2" NCoef="0" IVar="6" Cut="1.4689526557922363e+00" cType="1" res="8.7396670132875443e-03" rms="3.9164388179779053e-01" purity="4.7436726093292236e-01" nType="0">
            <Node pos="l" depth="3" NCoef="0" IVar="-1" Cut="0.0000000000000000e+00" cType="1" res="7.0918835699558258e-03" rms="3.9727497100830078e-01" purity="4.9976670742034912e-01" nType="-99"/>
            <Node pos="r" depth="3" NCoef="0" IVar="-1" Cut="0.0000000000000000e+00" cType="1" res="-1.6775446012616158e-02" rms="3.1702318787574768e-01" purity="1.7679889500141144e-01" nType="-99"/>
          </Node>
        </Node>
        <Node pos="r" depth="1" NCoef="0" IVar="9" Cut="-3.9989688992500305e-01" cType="1" res="-4.5330259017646313e-03" rms="3.7337231636047363e-01" purity="5.3169631958007812e-01" nType="0">
          <Node pos="l" depth="2" NCoef="0" IVar="8" Cut="9.3326544761657715e-01" cType="1" res="-1.5822023153305054e-02" rms="3.7670233845710754e-01" purity="5.0220465660095215e-01" nType="0">
            <Node pos="l" depth="3" NCoef="0" IVar="-1" Cut="0.0000000000000000e+00" cType="1" res="-1.5088039450347424e-02" rms="3.7653893232345581e-01" purity="5.1291155815124512e-01" nType="-99"/>
            <Node pos="r" depth="3" NCoef="0" IVar="-1" Cut="0.0000000000000000e+00" cType="1" res="6.7003499716520309e-03" rms="3.7635663151741028e-01" purity="4.5470893383026123e-01" nType="-99"/>
          </Node>
          <Node pos="r" depth="2" NCoef="0" IVar="8" Cut="-6.6660660505294800e-01" cType="1" res="1.9579574000090361e-03" rms="3.7128868699073792e-01" purity="5.4865360260009766e-01" nType="0">
            <Node pos="l" depth="3" NCoef="0" IVar="-1" Cut="0.0000000000000000e+00" cType="1" res="-1.0399860329926014e-02" rms="3.6106806993484497e-01" purity="5.0141286849975586e-01" nType="-99"/>
            <Node pos="r" depth="3" NCoef="0" IVar="-1" Cut="0.0000000000000000e+00" cType="1" res="5.3611332550644875e-03" rms="3.7455391883850098e-01" purity="5.6484943628311157e-01" nType="-99"/>
          </Node>
        </Node>
      </Node>
    </BinaryTree>
    <BinaryTree type="DecisionTree" boostWeight="1.0000000000000000e+00" itree="745">
      <Node pos="s" depth="0" NCoef="0" IVar="9" Cut="-1.1999921798706055e+00" cType="1" res="1.0267588077113032e-03" rms="3.8528710603713989e-01" purity="5.0077611207962036e-01" nType="0">
        <Node pos="l" depth="1" NCoef="0" IVar="6" Cut="-8.7666474282741547e-02" cType="1" res="1.4077416621148586e-02" rms="3.8509500026702881e-01" purity="4.3296223878860474e-01" nType="0">
          <Node pos="l" depth="2" NCoef="0" IVar="1" Cut="1.2784211425781250e+03" cType="1" res="-2.7353914920240641e-03" rms="3.7501454353332520e-01" purity="4.1500309109687805e-01" nType="0">
            <Node pos="l" depth="3" NCoef="0" IVar="-1" Cut="0.0000000000000000e+00" cType="1" res="-1.4400633051991463e-02" rms="3.5852524638175964e-01" purity="2.5064259767532349e-01" nType="-99"/>
            <Node pos="r" depth="3" NCoef="0" IVar="-1" Cut="0.0000000000000000e+00" cType="1" res="1.3707493431866169e-02" rms="3.9499270915985107e-01" purity="6.3744151592254639e-01" nType="-99"/>
          </Node>
          <Node pos="r" depth="2" NCoef="0" IVar="7" Cut="-1.3381007313728333e-01" cType="1" res="3.2774619758129120e-02" rms="3.9516487717628479e-01" purity="4.5293429493904114e-01" nType="0">
            <Node pos="l" depth="3" NCoef="0" IVar="-1" Cut="0.0000000000000000e+00" cType="1" res="3.1765807420015335e-02" rms="4.0173003077507019e-01" purity="4.4021508097648621e-01" nType="-99"/>
            <Node pos="r" depth="3" NCoef="0" IVar="-1" Cut="0.0000000000000000e+00" cType="1" res="1.2507197447121143e-02" rms="3.8791203498840332e-01" purity="4.6577200293540955e-01" nType="-99"/>
          </Node>
        </Node>
        <Node pos="r" depth="1" NCoef="0" IVar="7" Cut="-1.1998099088668823e+00" cType="1" res="-1.7279377207159996e-03" rms="3.8527113199234009e-01" purity="5.1509004831314087e-01" nType="0">
          <Node pos="l" depth="2" NCoef="0" IVar="9" Cut="5.1430356502532959e-01" cType="1" res="1.7393290996551514e-02" rms="3.8204881548881531e-01" purity="3.4078010916709900e-01" nType="0">
            <Node pos="l" depth="3" NCoef="0" IVar="-1" Cut="0.0000000000000000e+00" cType="1" res="1.7370456829667091e-02" rms="3.8527503609657288e-01" purity="3.6872038245201111e-01" nType="-99"/>
            <Node pos="r" depth="3" NCoef="0" IVar="-1" Cut="0.0000000000000000e+00" cType="1" res="3.3904490992426872e-03" rms="3.7626364827156067e-01" purity="2.9422074556350708e-01" nType="-99"/>
          </Node>
          <Node pos="r" depth="2" NCoef="0" IVar="7" Cut="1.0857237577438354e+00" cType="1" res="-4.4899536296725273e-03" rms="3.8565602898597717e-01" purity="5.4026871919631958e-01" nType="0">
            <Node pos="l" depth="3" NCoef="0" IVar="-1" Cut="0.0000000000000000e+00" cType="1" res="-1.2071516830474138e-03" rms="3.9028012752532959e-01" purity="5.8825409412384033e-01" nType="-99"/>
            <Node pos="r" depth="3" NCoef="0" IVar="-1" Cut="0.0000000000000000e+00" cType="1" res="-1.2071069329977036e-02" rms="3.6322790384292603e-01" purity="3.1805399060249329e-01" nType="-99"/>
          </Node>
        </Node>
      </Node>
    </BinaryTree>
    <BinaryTree type="DecisionTree" boostWeight="1.0000000000000000e+00" itree="746">
      <Node pos="s" depth="0" NCoef="0" IVar="0" Cut="7.5620208740234375e+02" cType="1" res="2.8978514019399881e-03" rms="3.8371753692626953e-01" purity="5.0357896089553833e-01" nType="0">
        <Node pos="l" depth="1" NCoef="0" IVar="1" Cut="1.5157709960937500e+03" cType="1" res="1.7238557338714600e-03" rms="3.8522881269454956e-01" purity="4.8713999986648560e-01" nType="0">
          <Node pos="l" depth="2" NCoef="0" IVar="8" Cut="1.7333145141601562e+00" cType="1" res="-8.6123851360753179e-04" rms="3.9572438597679138e-01" purity="4.0323227643966675e-01" nType="0">
            <Node pos="l" depth="3" NCoef="0" IVar="-1" Cut="0.0000000000000000e+00" cType="1" res="-1.5755586791783571e-03" rms="3.9847692847251892e-01" purity="4.1684162616729736e-01" nType="-99"/>
            <Node pos="r" depth="3" NCoef="0" IVar="-1" Cut="0.0000000000000000e+00" cType="1" res="1.3787764124572277e-02" rms="3.6286398768424988e-01" purity="2.5042861700057983e-01" nType="-99"/>
          </Node>
          <Node pos="r" depth="2" NCoef="0" IVar="4" Cut="2.5235037231445312e+02" cType="1" res="1.0256848298013210e-02" rms="3.4821096062660217e-01" purity="7.6410633325576782e-01" nType="0">
            <Node pos="l" depth="3" NCoef="0" IVar="-1" Cut="0.0000000000000000e+00" cType="1" res="1.2025571428239346e-02" rms="3.4976443648338318e-01" purity="7.5694668292999268e-01" nType="-99"/>
            <Node pos="r" depth="3" NCoef="0" IVar="-1" Cut="0.0000000000000000e+00" cType="1" res="-1.1410035192966461e-02" rms="3.4011653065681458e-01" purity="7.9660063982009888e-01" nType="-99"/>
          </Node>
        </Node>
        <Node pos="r" depth="1" NCoef="0" IVar="-1" Cut="0.0000000000000000e+00" cType="1" res="2.0873401314020157e-02" rms="3.5247185826301575e-01" purity="8.2131600379943848e-01" nType="-99"/>
      </Node>
    </BinaryTree>
    <BinaryTree type="DecisionTree" boostWeight="1.0000000000000000e+00" itree="747">
      <Node pos="s" depth="0" NCoef="0" IVar="9" Cut="-1.4665076732635498e+00" cType="1" res="-3.7790168425999582e-04" rms="3.8338997960090637e-01" purity="5.0159806013107300e-01" nType="0">
        <Node pos="l" depth="1" NCoef="0" IVar="4" Cut="9.5023506164550781e+01" cType="1" res="-1.5589118003845215e-02" rms="3.6815121769905090e-01" purity="3.9132103323936462e-01" nType="0">
          <Node pos="l" depth="2" NCoef="0" IVar="-1" Cut="0.0000000000000000e+00" cType="1" res="6.3933664932847023e-03" rms="3.3202877640724182e-01" purity="1.9957564771175385e-01" nType="-99"/>
          <Node pos="r" depth="2" NCoef="0" IVar="4" Cut="1.3780860900878906e+02" cType="1" res="-2.7292145416140556e-02" rms="3.8478946685791016e-01" purity="4.8936432600021362e-01" nType="0">
            <Node pos="l" depth="3" NCoef="0" IVar="-1" Cut="0.0000000000000000e+00" cType="1" res="-3.1902492046356201e-02" rms="3.7117546796798706e-01" purity="3.3626967668533325e-01" nType="-99"/>
            <Node pos="r" depth="3" NCoef="0" IVar="-1" Cut="0.0000000000000000e+00" cType="1" res="-5.4086241871118546e-03" rms="3.9442595839500427e-01" purity="6.1321109533309937e-01" nType="-99"/>
          </Node>
        </Node>
        <Node pos="r" depth="1" NCoef="0" IVar="8" Cut="-6.6666662693023682e-01" cType="1" res="1.7477258807048202e-03" rms="3.8542366027832031e-01" purity="5.1700830459594727e-01" nType="0">
          <Node pos="l" depth="2" NCoef="0" IVar="6" Cut="-6.3622021675109863e-01" cType="1" res="9.5635410398244858e-03" rms="3.8835248351097107e-01" purity="4.7220134735107422e-01" nType="0">
            <Node pos="l" depth="3" NCoef="0" IVar="-1" Cut="0.0000000000000000e+00" cType="1" res="1.6293223947286606e-02" rms="3.8267526030540466e-01" purity="3.9512634277343750e-01" nType="-99"/>
            <Node pos="r" depth="3" NCoef="0" IVar="-1" Cut="0.0000000000000000e+00" cType="1" res="2.1260872017592192e-03" rms="3.9067959785461426e-01" purity="5.0637555122375488e-01" nType="-99"/>
          </Node>
          <Node pos="r" depth="2" NCoef="0" IVar="6" Cut="1.3838267326354980e-01" cType="1" res="-1.2551307445392013e-03" rms="3.8425019383430481e-01" purity="5.3422319889068604e-01" nType="0">
            <Node pos="l" depth="3" NCoef="0" IVar="-1" Cut="0.0000000000000000e+00" cType="1" res="-5.3044809028506279e-03" rms="3.8602599501609802e-01" purity="5.4980331659317017e-01" nType="-99"/>
            <Node pos="r" depth="3" NCoef="0" IVar="-1" Cut="0.0000000000000000e+00" cType="1" res="4.2516393586993217e-03" rms="3.8212034106254578e-01" purity="5.1685941219329834e-01" nType="-99"/>
          </Node>
        </Node>
      </Node>
    </BinaryTree>
    <BinaryTree type="DecisionTree" boostWeight="1.0000000000000000e+00" itree="748">
      <Node pos="s" depth="0" NCoef="0" IVar="8" Cut="1.4666540622711182e+00" cType="1" res="-6.0369929997250438e-04" rms="3.8238123059272766e-01" purity="5.0250816345214844e-01" nType="0">
        <Node pos="l" depth="1" NCoef="0" IVar="8" Cut="1.2634764909744263e+00" cType="1" res="1.0659425752237439e-03" rms="3.8493233919143677e-01" purity="5.2537345886230469e-01" nType="0">
          <Node pos="l" depth="2" NCoef="0" IVar="9" Cut="1.9999651908874512e+00" cType="1" res="-2.0138650143053383e-04" rms="3.8447442650794983e-01" purity="5.2765798568725586e-01" nType="0">
            <Node pos="l" depth="3" NCoef="0" IVar="-1" Cut="0.0000000000000000e+00" cType="1" res="-9.7856426145881414e-04" rms="3.8436067104339600e-01" purity="5.3357052803039551e-01" nType="-99"/>
            <Node pos="r" depth="3" NCoef="0" IVar="-1" Cut="0.0000000000000000e+00" cType="1" res="1.5555715188384056e-02" rms="3.8582235574722290e-01" purity="4.1924804449081421e-01" nType="-99"/>
          </Node>
          <Node pos="r" depth="2" NCoef="0" IVar="-1" Cut="0.0000000000000000e+00" cType="1" res="1.9860703498125076e-02" rms="3.9445719122886658e-01" purity="4.7111558914184570e-01" nType="-99"/>
        </Node>
        <Node pos="r" depth="1" NCoef="0" IVar="5" Cut="8.8775062561035156e+01" cType="1" res="-1.5193926170468330e-02" rms="3.5898792743682861e-01" purity="3.0269944667816162e-01" nType="0">
          <Node pos="l" depth="2" NCoef="0" IVar="5" Cut="6.2924640655517578e+01" cType="1" res="-2.5202365592122078e-02" rms="3.3185756206512451e-01" purity="1.9028542935848236e-01" nType="0">
            <Node pos="l" depth="3" NCoef="0" IVar="-1" Cut="0.0000000000000000e+00" cType="1" res="-4.3180182576179504e-02" rms="2.7246302366256714e-01" purity="1.1304858326911926e-01" nType="-99"/>
            <Node pos="r" depth="3" NCoef="0" IVar="-1" Cut="0.0000000000000000e+00" cType="1" res="-6.3728736713528633e-03" rms="3.7341544032096863e-01" purity="2.5455895066261292e-01" nType="-99"/>
          </Node>
          <Node pos="r" depth="2" NCoef="0" IVar="-1" Cut="0.0000000000000000e+00" cType="1" res="2.7823748532682657e-03" rms="4.0673184394836426e-01" purity="5.2551668882369995e-01" nType="-99"/>
        </Node>
      </Node>
    </BinaryTree>
    <BinaryTree type="DecisionTree" boostWeight="1.0000000000000000e+00" itree="749">
      <Node pos="s" depth="0" NCoef="0" IVar="1" Cut="1.1200286865234375e+03" cType="1" res="-1.1269721435382962e-03" rms="3.8230538368225098e-01" purity="5.0189489126205444e-01" nType="0">
        <Node pos="l" depth="1" NCoef="0" IVar="3" Cut="1.8989535522460938e+02" cType="1" res="-7.3980456218123436e-03" rms="3.7519463896751404e-01" purity="2.3520347476005554e-01" nType="0">
          <Node pos="l" depth="2" NCoef="0" IVar="2" Cut="2.7469253540039062e+02" cType="1" res="-2.1831428166478872e-03" rms="3.6886256933212280e-01" purity="2.2117912769317627e-01" nType="0">
            <Node pos="l" depth="3" NCoef="0" IVar="-1" Cut="0.0000000000000000e+00" cType="1" res="-6.9714444689452648e-03" rms="3.8390573859214783e-01" purity="2.5116866827011108e-01" nType="-99"/>
            <Node pos="r" depth="3" NCoef="0" IVar="-1" Cut="0.0000000000000000e+00" cType="1" res="5.1515097729861736e-03" rms="3.5321298241615295e-01" purity="1.9163803756237030e-01" nType="-99"/>
          </Node>
          <Node pos="r" depth="2" NCoef="0" IVar="-1" Cut="0.0000000000000000e+00" cType="1" res="-1.7746279016137123e-02" rms="4.0189969539642334e-01" purity="2.9902100563049316e-01" nType="-99"/>
        </Node>
        <Node pos="r" depth="1" NCoef="0" IVar="7" Cut="-6.6663986444473267e-01" cType="1" res="1.9945509266108274e-03" rms="3.8575801253318787e-01" purity="6.3464462757110596e-01" nType="0">
          <Node pos="l" depth="2" NCoef="0" IVar="3" Cut="2.0971969604492188e+02" cType="1" res="1.2772466987371445e-02" rms="3.9742010831832886e-01" purity="5.5786973237991333e-01" nType="0">
            <Node pos="l" depth="3" NCoef="0" IVar="-1" Cut="0.0000000000000000e+00" cType="1" res="1.6838269308209419e-02" rms="4.1039392352104187e-01" purity="5.0869393348693848e-01" nType="-99"/>
            <Node pos="r" depth="3" NCoef="0" IVar="-1" Cut="0.0000000000000000e+00" cType="1" res="1.3701714342460036e-03" rms="3.8776662945747375e-01" purity="5.9212589263916016e-01" nType="-99"/>
          </Node>
          <Node pos="r" depth="2" NCoef="0" IVar="4" Cut="2.6984292602539062e+02" cType="1" res="-1.5645505627617240e-03" rms="3.8176187872886658e-01" purity="6.5999728441238403e-01" nType="0">
            <Node pos="l" depth="3" NCoef="0" IVar="-1" Cut="0.0000000000000000e+00" cType="1" res="-2.3106706794351339e-03" rms="3.8514456152915955e-01" purity="6.4809834957122803e-01" nType="-99"/>
            <Node pos="r" depth="3" NCoef="0" IVar="-1" Cut="0.0000000000000000e+00" cType="1" res="2.1749954670667648e-02" rms="3.2774519920349121e-01" purity="8.3217275142669678e-01" nType="-99"/>
          </Node>
        </Node>
      </Node>
    </BinaryTree>
    <BinaryTree type="DecisionTree" boostWeight="1.0000000000000000e+00" itree="750">
      <Node pos="s" depth="0" NCoef="0" IVar="6" Cut="1.7424663305282593e+00" cType="1" res="1.2810177868232131e-03" rms="3.8339105248451233e-01" purity="5.0189608335494995e-01" nType="0">
        <Node pos="l" depth="1" NCoef="0" IVar="6" Cut="8.8650929927825928e-01" cType="1" res="2.3171303328126669e-03" rms="3.8703516125679016e-01" purity="5.1647728681564331e-01" nType="0">
          <Node pos="l" depth="2" NCoef="0" IVar="7" Cut="-9.3338149785995483e-01" cType="1" res="-4.8026055446825922e-04" rms="3.8702246546745300e-01" purity="5.3828567266464233e-01" nType="0">
            <Node pos="l" depth="3" NCoef="0" IVar="-1" Cut="0.0000000000000000e+00" cType="1" res="-7.8248959034681320e-03" rms="3.7771585583686829e-01" purity="3.8356617093086243e-01" nType="-99"/>
            <Node pos="r" depth="3" NCoef="0" IVar="-1" Cut="0.0000000000000000e+00" cType="1" res="1.3707592152059078e-03" rms="3.8911187648773193e-01" purity="5.7429760694503784e-01" nType="-99"/>
          </Node>
          <Node pos="r" depth="2" NCoef="0" IVar="9" Cut="1.1991769075393677e+00" cType="1" res="1.8567301332950592e-02" rms="3.8670891523361206e-01" purity="3.8979125022888184e-01" nType="0">
            <Node pos="l" depth="3" NCoef="0" IVar="-1" Cut="0.0000000000000000e+00" cType="1" res="5.6344615295529366e-03" rms="3.8542881608009338e-01" purity="4.0081211924552917e-01" nType="-99"/>
            <Node pos="r" depth="3" NCoef="0" IVar="-1" Cut="0.0000000000000000e+00" cType="1" res="3.9268881082534790e-02" rms="3.8896036148071289e-01" purity="3.5314568877220154e-01" nType="-99"/>
          </Node>
        </Node>
        <Node pos="r" depth="1" NCoef="0" IVar="-1" Cut="0.0000000000000000e+00" cType="1" res="-2.5934064760804176e-02" rms="2.7378407120704651e-01" purity="1.3153433799743652e-01" nType="-99"/>
      </Node>
    </BinaryTree>
    <BinaryTree type="DecisionTree" boostWeight="1.0000000000000000e+00" itree="751">
      <Node pos="s" depth="0" NCoef="0" IVar="2" Cut="6.3790563964843750e+02" cType="1" res="-1.3384621124714613e-03" rms="3.8495263457298279e-01" purity="4.9605724215507507e-01" nType="0">
        <Node pos="l" depth="1" NCoef="0" IVar="0" Cut="4.4754754638671875e+02" cType="1" res="-2.8901384212076664e-04" rms="3.8427293300628662e-01" purity="4.9265348911285400e-01" nType="0">
          <Node pos="l" depth="2" NCoef="0" IVar="0" Cut="3.3513040161132812e+02" cType="1" res="2.5844178162515163e-03" rms="3.9237108826637268e-01" purity="3.6326882243156433e-01" nType="0">
            <Node pos="l" depth="3" NCoef="0" IVar="-1" Cut="0.0000000000000000e+00" cType="1" res="-6.9570336490869522e-03" rms="3.7203961610794067e-01" purity="2.5725871324539185e-01" nType="-99"/>
            <Node pos="r" depth="3" NCoef="0" IVar="-1" Cut="0.0000000000000000e+00" cType="1" res="5.2294563502073288e-03" rms="4.0143078565597534e-01" purity="4.1303589940071106e-01" nType="-99"/>
          </Node>
          <Node pos="r" depth="2" NCoef="0" IVar="9" Cut="1.2001172304153442e+00" cType="1" res="-5.0844633951783180e-03" rms="3.7031421065330505e-01" purity="7.0858263969421387e-01" nType="0">
            <Node pos="l" depth="3" NCoef="0" IVar="-1" Cut="0.0000000000000000e+00" cType="1" res="-1.4878169167786837e-03" rms="3.6556729674339294e-01" purity="7.2676223516464233e-01" nType="-99"/>
            <Node pos="r" depth="3" NCoef="0" IVar="-1" Cut="0.0000000000000000e+00" cType="1" res="-1.4341701753437519e-02" rms="3.9474633336067200e-01" purity="6.0958743095397949e-01" nType="-99"/>
          </Node>
        </Node>
        <Node pos="r" depth="1" NCoef="0" IVar="5" Cut="8.5091270446777344e+01" cType="1" res="-1.8281271681189537e-02" rms="3.9537930488586426e-01" purity="5.5100905895233154e-01" nType="0">
          <Node pos="l" depth="2" NCoef="0" IVar="-1" Cut="0.0000000000000000e+00" cType="1" res="-2.4975564330816269e-02" rms="3.9475029706954956e-01" purity="3.9261430501937866e-01" nType="-99"/>
          <Node pos="r" depth="2" NCoef="0" IVar="-1" Cut="0.0000000000000000e+00" cType="1" res="1.9361407030373812e-03" rms="3.9462950825691223e-01" purity="6.8196135759353638e-01" nType="-99"/>
        </Node>
      </Node>
    </BinaryTree>
    <BinaryTree type="DecisionTree" boostWeight="1.0000000000000000e+00" itree="752">
      <Node pos="s" depth="0" NCoef="0" IVar="6" Cut="-1.7239084243774414e+00" cType="1" res="1.1885268613696098e-03" rms="3.8617125153541565e-01" purity="4.9928379058837891e-01" nType="0">
        <Node pos="l" depth="1" NCoef="0" IVar="-1" Cut="0.0000000000000000e+00" cType="1" res="2.7192221954464912e-02" rms="3.4204548597335815e-01" purity="1.8737238645553589e-01" nType="-99"/>
        <Node pos="r" depth="1" NCoef="0" IVar="9" Cut="1.7333244085311890e+00" cType="1" res="1.0629641474224627e-04" rms="3.8781991600990295e-01" purity="5.1196116209030151e-01" nType="0">
          <Node pos="l" depth="2" NCoef="0" IVar="7" Cut="-3.9991566538810730e-01" cType="1" res="-1.2985800858587027e-03" rms="3.8738033175468445e-01" purity="5.2290266752243042e-01" nType="0">
            <Node pos="l" depth="3" NCoef="0" IVar="-1" Cut="0.0000000000000000e+00" cType="1" res="-4.9043837934732437e-03" rms="3.8102746009826660e-01" purity="4.7632563114166260e-01" nType="-99"/>
            <Node pos="r" depth="3" NCoef="0" IVar="-1" Cut="0.0000000000000000e+00" cType="1" res="1.3376342831179500e-03" rms="3.9076459407806396e-01" purity="5.4832768440246582e-01" nType="-99"/>
          </Node>
          <Node pos="r" depth="2" NCoef="0" IVar="7" Cut="6.6650503873825073e-01" cType="1" res="1.5031922608613968e-02" rms="3.9214894175529480e-01" purity="3.9571690559387207e-01" nType="0">
            <Node pos="l" depth="3" NCoef="0" IVar="-1" Cut="0.0000000000000000e+00" cType="1" res="1.8111305311322212e-02" rms="4.0466168522834778e-01" purity="4.4893032312393188e-01" nType="-99"/>
            <Node pos="r" depth="3" NCoef="0" IVar="-1" Cut="0.0000000000000000e+00" cType="1" res="-1.0722661390900612e-02" rms="3.6293387413024902e-01" purity="2.8462293744087219e-01" nType="-99"/>
          </Node>
        </Node>
      </Node>
    </BinaryTree>
    <BinaryTree type="DecisionTree" boostWeight="1.0000000000000000e+00" itree="753">
      <Node pos="s" depth="0" NCoef="0" IVar="9" Cut="-3.9999774098396301e-01" cType="1" res="-2.1778494119644165e-03" rms="3.8367927074432373e-01" purity="4.9722805619239807e-01" nType="0">
        <Node pos="l" depth="1" NCoef="0" IVar="9" Cut="-6.2857329845428467e-01" cType="1" res="-7.2802412323653698e-03" rms="3.8182151317596436e-01" purity="4.7263851761817932e-01" nType="0">
          <Node pos="l" depth="2" NCoef="0" IVar="9" Cut="-2.2829902172088623e+00" cType="1" res="-3.7601890508085489e-03" rms="3.8368126749992371e-01" purity="4.5851022005081177e-01" nType="0">
            <Node pos="l" depth="3" NCoef="0" IVar="-1" Cut="0.0000000000000000e+00" cType="1" res="-1.7887931317090988e-02" rms="3.5733777284622192e-01" purity="3.0407461524009705e-01" nType="-99"/>
            <Node pos="r" depth="3" NCoef="0" IVar="-1" Cut="0.0000000000000000e+00" cType="1" res="-1.1336657917127013e-03" rms="3.8622424006462097e-01" purity="4.7436848282814026e-01" nType="-99"/>
          </Node>
          <Node pos="r" depth="2" NCoef="0" IVar="9" Cut="-5.0884330272674561e-01" cType="1" res="-2.3687519133090973e-02" rms="3.7259221076965332e-01" purity="5.3849178552627563e-01" nType="0">
            <Node pos="l" depth="3" NCoef="0" IVar="-1" Cut="0.0000000000000000e+00" cType="1" res="-3.1065035611391068e-02" rms="3.7369883060455322e-01" purity="5.0684434175491333e-01" nType="-99"/>
            <Node pos="r" depth="3" NCoef="0" IVar="-1" Cut="0.0000000000000000e+00" cType="1" res="-2.0145112648606300e-03" rms="3.7035048007965088e-01" purity="5.6908857822418213e-01" nType="-99"/>
          </Node>
        </Node>
        <Node pos="r" depth="1" NCoef="0" IVar="9" Cut="2.1904706954956055e+00" cType="1" res="9.2761882115155458e-04" rms="3.8477247953414917e-01" purity="5.1219391822814941e-01" nType="0">
          <Node pos="l" depth="2" NCoef="0" IVar="7" Cut="1.4664014577865601e+00" cType="1" res="2.0520461257547140e-03" rms="3.8550147414207458e-01" purity="5.2409332990646362e-01" nType="0">
            <Node pos="l" depth="3" NCoef="0" IVar="-1" Cut="0.0000000000000000e+00" cType="1" res="1.9168222206644714e-04" rms="3.8823348283767700e-01" purity="5.4913061857223511e-01" nType="-99"/>
            <Node pos="r" depth="3" NCoef="0" IVar="-1" Cut="0.0000000000000000e+00" cType="1" res="1.4276943169534206e-02" rms="3.5870754718780518e-01" purity="2.9142683744430542e-01" nType="-99"/>
          </Node>
          <Node pos="r" depth="2" NCoef="0" IVar="-1" Cut="0.0000000000000000e+00" cType="1" res="-1.2572634965181351e-02" rms="3.7190884351730347e-01" purity="3.1381943821907043e-01" nType="-99"/>
        </Node>
      </Node>
    </BinaryTree>
    <BinaryTree type="DecisionTree" boostWeight="1.0000000000000000e+00" itree="754">
      <Node pos="s" depth="0" NCoef="0" IVar="9" Cut="-1.4666358232498169e+00" cType="1" res="-2.8100081253796816e-03" rms="3.8061502575874329e-01" purity="4.9896544218063354e-01" nType="0">
        <Node pos="l" depth="1" NCoef="0" IVar="0" Cut="4.2277069091796875e+02" cType="1" res="1.0877014137804508e-02" rms="3.7576273083686829e-01" purity="4.0132784843444824e-01" nType="0">
          <Node pos="l" depth="2" NCoef="0" IVar="1" Cut="1.1005417480468750e+03" cType="1" res="1.7151994397863746e-03" rms="3.5816103219985962e-01" purity="2.5283214449882507e-01" nType="0">
            <Node pos="l" depth="3" NCoef="0" IVar="-1" Cut="0.0000000000000000e+00" cType="1" res="1.1218301020562649e-02" rms="3.3436658978462219e-01" purity="1.8685007095336914e-01" nType="-99"/>
            <Node pos="r" depth="3" NCoef="0" IVar="-1" Cut="0.0000000000000000e+00" cType="1" res="-8.7324939668178558e-03" rms="3.8760700821876526e-01" purity="3.4233865141868591e-01" nType="-99"/>
          </Node>
          <Node pos="r" depth="2" NCoef="0" IVar="8" Cut="-1.3325607776641846e-01" cType="1" res="2.2720199078321457e-02" rms="3.9704903960227966e-01" purity="5.9328353404998779e-01" nType="0">
            <Node pos="l" depth="3" NCoef="0" IVar="-1" Cut="0.0000000000000000e+00" cType="1" res="2.7847178280353546e-02" rms="3.9918661117553711e-01" purity="5.8968496322631836e-01" nType="-99"/>
            <Node pos="r" depth="3" NCoef="0" IVar="-1" Cut="0.0000000000000000e+00" cType="1" res="-1.4429820002987981e-03" rms="3.9315810799598694e-01" purity="5.9728527069091797e-01" nType="-99"/>
          </Node>
        </Node>
        <Node pos="r" depth="1" NCoef="0" IVar="9" Cut="1.7841254472732544e+00" cType="1" res="-4.7022588551044464e-03" rms="3.8124233484268188e-01" purity="5.1246398687362671e-01" nType="0">
          <Node pos="l" depth="2" NCoef="0" IVar="9" Cut="1.3197311162948608e+00" cType="1" res="-3.3008875325322151e-03" rms="3.8266199827194214e-01" purity="5.2809345722198486e-01" nType="0">
            <Node pos="l" depth="3" NCoef="0" IVar="-1" Cut="0.0000000000000000e+00" cType="1" res="-3.8339053280651569e-03" rms="3.8294011354446411e-01" purity="5.3309869766235352e-01" nType="-99"/>
            <Node pos="r" depth="3" NCoef="0" IVar="-1" Cut="0.0000000000000000e+00" cType="1" res="1.4004419557750225e-02" rms="3.7901338934898376e-01" purity="4.7795525193214417e-01" nType="-99"/>
          </Node>
          <Node pos="r" depth="2" NCoef="0" IVar="9" Cut="2.2678699493408203e+00" cType="1" res="-1.9414259120821953e-02" rms="3.6568230390548706e-01" purity="3.4838110208511353e-01" nType="0">
            <Node pos="l" depth="3" NCoef="0" IVar="-1" Cut="0.0000000000000000e+00" cType="1" res="-2.2682735696434975e-02" rms="3.6449721455574036e-01" purity="3.5983887314796448e-01" nType="-99"/>
            <Node pos="r" depth="3" NCoef="0" IVar="-1" Cut="0.0000000000000000e+00" cType="1" res="6.6302821505814791e-04" rms="3.6645016074180603e-01" purity="3.3170214295387268e-01" nType="-99"/>
          </Node>
        </Node>
      </Node>
    </BinaryTree>
    <BinaryTree type="DecisionTree" boostWeight="1.0000000000000000e+00" itree="755">
      <Node pos="s" depth="0" NCoef="0" IVar="0" Cut="4.5299490356445312e+02" cType="1" res="4.0573249571025372e-03" rms="3.8494655489921570e-01" purity="5.0081634521484375e-01" nType="0">
        <Node pos="l" depth="1" NCoef="0" IVar="2" Cut="2.4330268859863281e+02" cType="1" res="8.8265547528862953e-03" rms="3.9058059453964233e-01" purity="3.7371617555618286e-01" nType="0">
          <Node pos="l" depth="2" NCoef="0" IVar="3" Cut="1.4623120117187500e+02" cType="1" res="2.5626610964536667e-02" rms="4.1670176386833191e-01" purity="3.5854637622833252e-01" nType="0">
            <Node pos="l" depth="3" NCoef="0" IVar="-1" Cut="0.0000000000000000e+00" cType="1" res="3.6787796765565872e-02" rms="4.0319126844406128e-01" purity="2.8049585223197937e-01" nType="-99"/>
            <Node pos="r" depth="3" NCoef="0" IVar="-1" Cut="0.0000000000000000e+00" cType="1" res="4.2389915324747562e-03" rms="4.2407193779945374e-01" purity="4.0824458003044128e-01" nType="-99"/>
          </Node>
          <Node pos="r" depth="2" NCoef="0" IVar="3" Cut="1.5206300354003906e+02" cType="1" res="4.8621827736496925e-03" rms="3.8405060768127441e-01" purity="3.7729588150978088e-01" nType="0">
            <Node pos="l" depth="3" NCoef="0" IVar="-1" Cut="0.0000000000000000e+00" cType="1" res="-6.8762246519327164e-03" rms="3.4035974740982056e-01" purity="1.7671042680740356e-01" nType="-99"/>
            <Node pos="r" depth="3" NCoef="0" IVar="-1" Cut="0.0000000000000000e+00" cType="1" res="6.6067096777260303e-03" rms="4.0255400538444519e-01" purity="4.7028815746307373e-01" nType="-99"/>
          </Node>
        </Node>
        <Node pos="r" depth="1" NCoef="0" IVar="3" Cut="1.4697917175292969e+02" cType="1" res="-3.6787111312150955e-03" rms="3.7549924850463867e-01" purity="7.0698189735412598e-01" nType="0">
          <Node pos="l" depth="2" NCoef="0" IVar="7" Cut="1.3335134088993073e-01" cType="1" res="2.8261246159672737e-02" rms="4.4095808267593384e-01" purity="4.4560012221336365e-01" nType="0">
            <Node pos="l" depth="3" NCoef="0" IVar="-1" Cut="0.0000000000000000e+00" cType="1" res="2.6639141142368317e-02" rms="4.3830555677413940e-01" purity="4.7635102272033691e-01" nType="-99"/>
            <Node pos="r" depth="3" NCoef="0" IVar="-1" Cut="0.0000000000000000e+00" cType="1" res="5.6968809803947806e-04" rms="4.4277182221412659e-01" purity="4.0693673491477966e-01" nType="-99"/>
          </Node>
          <Node pos="r" depth="2" NCoef="0" IVar="7" Cut="6.6662120819091797e-01" cType="1" res="-9.6767386421561241e-03" rms="3.6157405376434326e-01" purity="7.5606703758239746e-01" nType="0">
            <Node pos="l" depth="3" NCoef="0" IVar="-1" Cut="0.0000000000000000e+00" cType="1" res="-1.8457189435139298e-03" rms="3.5561993718147278e-01" purity="7.8334891796112061e-01" nType="-99"/>
            <Node pos="r" depth="3" NCoef="0" IVar="-1" Cut="0.0000000000000000e+00" cType="1" res="-2.5341315194964409e-02" rms="3.8121348619461060e-01" purity="6.5710037946701050e-01" nType="-99"/>
          </Node>
        </Node>
      </Node>
    </BinaryTree>
    <BinaryTree type="DecisionTree" boostWeight="1.0000000000000000e+00" itree="756">
      <Node pos="s" depth="0" NCoef="0" IVar="8" Cut="1.9999766349792480e+00" cType="1" res="-1.2591789709404111e-03" rms="3.8223099708557129e-01" purity="4.9891504645347595e-01" nType="0">
        <Node pos="l" depth="1" NCoef="0" IVar="7" Cut="-4.0000954270362854e-01" cType="1" res="-2.3314224090427160e-03" rms="3.8279488682746887e-01" purity="5.0908303260803223e-01" nType="0">
          <Node pos="l" depth="2" NCoef="0" IVar="9" Cut="-1.4666596651077271e+00" cType="1" res="3.9167455397546291e-03" rms="3.8694134354591370e-01" purity="4.6737608313560486e-01" nType="0">
            <Node pos="l" depth="3" NCoef="0" IVar="-1" Cut="0.0000000000000000e+00" cType="1" res="1.5652177855372429e-02" rms="3.8202252984046936e-01" purity="3.7578478455543518e-01" nType="-99"/>
            <Node pos="r" depth="3" NCoef="0" IVar="-1" Cut="0.0000000000000000e+00" cType="1" res="5.0933158490806818e-04" rms="3.8771951198577881e-01" purity="4.8357066512107849e-01" nType="-99"/>
          </Node>
          <Node pos="r" depth="2" NCoef="0" IVar="4" Cut="9.5786270141601562e+01" cType="1" res="-5.8377892710268497e-03" rms="3.8040322065353394e-01" purity="5.3248822689056396e-01" nType="0">
            <Node pos="l" depth="3" NCoef="0" IVar="-1" Cut="0.0000000000000000e+00" cType="1" res="-1.1329418048262596e-02" rms="3.6709889769554138e-01" purity="2.4267707765102386e-01" nType="-99"/>
            <Node pos="r" depth="3" NCoef="0" IVar="-1" Cut="0.0000000000000000e+00" cType="1" res="-1.2978393351659179e-03" rms="3.8502287864685059e-01" purity="6.3718903064727783e-01" nType="-99"/>
          </Node>
        </Node>
        <Node pos="r" depth="1" NCoef="0" IVar="-1" Cut="0.0000000000000000e+00" cType="1" res="1.7282295972108841e-02" rms="3.6897960305213928e-01" purity="2.7770435810089111e-01" nType="-99"/>
      </Node>
    </BinaryTree>
    <BinaryTree type="DecisionTree" boostWeight="1.0000000000000000e+00" itree="757">
      <Node pos="s" depth="0" NCoef="0" IVar="7" Cut="6.6656917333602905e-01" cType="1" res="-2.3988410830497742e-03" rms="3.8363143801689148e-01" purity="4.9446654319763184e-01" nType="0">
        <Node pos="l" depth="1" NCoef="0" IVar="7" Cut="-1.5877947211265564e-01" cType="1" res="3.3607185469008982e-04" rms="3.8770085573196411e-01" purity="5.3117889165878296e-01" nType="0">
          <Node pos="l" depth="2" NCoef="0" IVar="8" Cut="3.9994087815284729e-01" cType="1" res="-5.8163213543593884e-03" rms="3.8395744562149048e-01" purity="4.7577899694442749e-01" nType="0">
            <Node pos="l" depth="3" NCoef="0" IVar="-1" Cut="0.0000000000000000e+00" cType="1" res="-7.9767107963562012e-03" rms="3.8169980049133301e-01" purity="4.8197451233863831e-01" nType="-99"/>
            <Node pos="r" depth="3" NCoef="0" IVar="-1" Cut="0.0000000000000000e+00" cType="1" res="4.4599347747862339e-03" rms="3.8828590512275696e-01" purity="4.6295794844627380e-01" nType="-99"/>
          </Node>
          <Node pos="r" depth="2" NCoef="0" IVar="6" Cut="9.3935817480087280e-01" cType="1" res="9.3067986890673637e-03" rms="3.9292258024215698e-01" purity="6.1195677518844604e-01" nType="0">
            <Node pos="l" depth="3" NCoef="0" IVar="-1" Cut="0.0000000000000000e+00" cType="1" res="3.5642327275127172e-03" rms="3.9179506897926331e-01" purity="6.4208889007568359e-01" nType="-99"/>
            <Node pos="r" depth="3" NCoef="0" IVar="-1" Cut="0.0000000000000000e+00" cType="1" res="1.8750222399830818e-02" rms="3.9824143052101135e-01" purity="4.5245862007141113e-01" nType="-99"/>
          </Node>
        </Node>
        <Node pos="r" depth="1" NCoef="0" IVar="6" Cut="-1.0790363699197769e-01" cType="1" res="-1.0057993233203888e-02" rms="3.7189120054244995e-01" purity="3.9165323972702026e-01" nType="0">
          <Node pos="l" depth="2" NCoef="0" IVar="9" Cut="9.3325924873352051e-01" cType="1" res="-2.8670420870184898e-02" rms="3.6110687255859375e-01" purity="3.5531112551689148e-01" nType="0">
            <Node pos="l" depth="3" NCoef="0" IVar="-1" Cut="0.0000000000000000e+00" cType="1" res="-1.4915565028786659e-02" rms="3.7066254019737244e-01" purity="3.9285063743591309e-01" nType="-99"/>
            <Node pos="r" depth="3" NCoef="0" IVar="-1" Cut="0.0000000000000000e+00" cType="1" res="-3.7414465099573135e-02" rms="3.3020529150962830e-01" purity="2.4350158870220184e-01" nType="-99"/>
          </Node>
          <Node pos="r" depth="2" NCoef="0" IVar="0" Cut="4.3904656982421875e+02" cType="1" res="2.8100314084440470e-03" rms="3.7863326072692871e-01" purity="4.1677895188331604e-01" nType="0">
            <Node pos="l" depth="3" NCoef="0" IVar="-1" Cut="0.0000000000000000e+00" cType="1" res="8.8073862716555595e-03" rms="3.7731146812438965e-01" purity="3.0012422800064087e-01" nType="-99"/>
            <Node pos="r" depth="3" NCoef="0" IVar="-1" Cut="0.0000000000000000e+00" cType="1" res="-8.3633381873369217e-03" rms="3.8023653626441956e-01" purity="6.0254961252212524e-01" nType="-99"/>
          </Node>
        </Node>
      </Node>
    </BinaryTree>
    <BinaryTree type="DecisionTree" boostWeight="1.0000000000000000e+00" itree="758">
      <Node pos="s" depth="0" NCoef="0" IVar="7" Cut="6.6659396886825562e-01" cType="1" res="4.3683387339115143e-03" rms="3.8460275530815125e-01" purity="5.0315970182418823e-01" nType="0">
        <Node pos="l" depth="1" NCoef="0" IVar="2" Cut="3.2724810791015625e+02" cType="1" res="-6.7318411311134696e-04" rms="3.8766235113143921e-01" purity="5.3055316209793091e-01" nType="0">
          <Node pos="l" depth="2" NCoef="0" IVar="8" Cut="-1.3340017199516296e-01" cType="1" res="7.6944935135543346e-03" rms="3.9887210726737976e-01" purity="4.8916473984718323e-01" nType="0">
            <Node pos="l" depth="3" NCoef="0" IVar="-1" Cut="0.0000000000000000e+00" cType="1" res="-1.2249117717146873e-03" rms="3.9684405922889709e-01" purity="4.5477351546287537e-01" nType="-99"/>
            <Node pos="r" depth="3" NCoef="0" IVar="-1" Cut="0.0000000000000000e+00" cType="1" res="9.8236175253987312e-03" rms="4.0042412281036377e-01" purity="5.1877707242965698e-01" nType="-99"/>
          </Node>
          <Node pos="r" depth="2" NCoef="0" IVar="3" Cut="1.4646311950683594e+02" cType="1" res="-7.3040584102272987e-03" rms="3.7841224670410156e-01" purity="5.6335091590881348e-01" nType="0">
            <Node pos="l" depth="3" NCoef="0" IVar="-1" Cut="0.0000000000000000e+00" cType="1" res="-1.8315959721803665e-02" rms="3.5196667909622192e-01" purity="2.2600117325782776e-01" nType="-99"/>
            <Node pos="r" depth="3" NCoef="0" IVar="-1" Cut="0.0000000000000000e+00" cType="1" res="-2.4129808880388737e-03" rms="3.8365814089775085e-01" purity="6.3462513685226440e-01" nType="-99"/>
          </Node>
        </Node>
