<?xml version="1.0"?>
<MethodSetup Method="BDT::BDTG">
  <GeneralInfo>
    <Info name="TMVA Release" value="4.2.1 [262657]"/>
    <Info name="ROOT Release" value="6.14/04 [396804]"/>
    <Info name="Creator" value="unok"/>
    <Info name="Date" value="Mon Jan 14 15:38:18 2019"/>
    <Info name="Host" value="Linux lcgapp-slc6-x86-64-39.cern.ch 2.6.32-696.30.1.el6.x86_64 #1 SMP Tue May 22 06:09:36 CEST 2018 x86_64 x86_64 x86_64 GNU/Linux"/>
    <Info name="Dir" value="/gpfs/fs6001/unok/TMVA/2018/v142/V2/TMVA-0L"/>
    <Info name="Training events" value="122211"/>
    <Info name="TrainingTime" value="8.18492701e+01"/>
    <Info name="AnalysisType" value="Classification"/>
  </GeneralInfo>
  <Options>
    <Option name="V" modified="Yes">False</Option>
    <Option name="VerbosityLevel" modified="No">Default</Option>
    <Option name="VarTransform" modified="No">None</Option>
    <Option name="H" modified="Yes">False</Option>
    <Option name="CreateMVAPdfs" modified="No">False</Option>
    <Option name="IgnoreNegWeightsInTraining" modified="No">False</Option>
    <Option name="NTrees" modified="Yes">800</Option>
    <Option name="MaxDepth" modified="Yes">3</Option>
    <Option name="MinNodeSize" modified="Yes">2.500000%</Option>
    <Option name="nCuts" modified="Yes">20</Option>
    <Option name="BoostType" modified="Yes">Grad</Option>
    <Option name="AdaBoostR2Loss" modified="No">quadratic</Option>
    <Option name="UseBaggedBoost" modified="Yes">True</Option>
    <Option name="Shrinkage" modified="Yes">2.000000e-01</Option>
    <Option name="AdaBoostBeta" modified="No">5.000000e-01</Option>
    <Option name="UseRandomisedTrees" modified="No">False</Option>
    <Option name="UseNvars" modified="No">4</Option>
    <Option name="UsePoissonNvars" modified="No">True</Option>
    <Option name="BaggedSampleFraction" modified="Yes">5.000000e-01</Option>
    <Option name="UseYesNoLeaf" modified="No">True</Option>
    <Option name="NegWeightTreatment" modified="Yes">pray</Option>
    <Option name="Css" modified="No">1.000000e+00</Option>
    <Option name="Cts_sb" modified="No">1.000000e+00</Option>
    <Option name="Ctb_ss" modified="No">1.000000e+00</Option>
    <Option name="Cbb" modified="No">1.000000e+00</Option>
    <Option name="NodePurityLimit" modified="No">5.000000e-01</Option>
    <Option name="SeparationType" modified="No">giniindex</Option>
    <Option name="RegressionLossFunctionBDTG" modified="No">huber</Option>
    <Option name="HuberQuantile" modified="No">7.000000e-01</Option>
    <Option name="DoBoostMonitor" modified="No">False</Option>
    <Option name="UseFisherCuts" modified="No">False</Option>
    <Option name="MinLinCorrForFisher" modified="No">8.000000e-01</Option>
    <Option name="UseExclusiveVars" modified="No">False</Option>
    <Option name="DoPreselection" modified="No">False</Option>
    <Option name="SigToBkgFraction" modified="No">1.000000e+00</Option>
    <Option name="PruneMethod" modified="No">nopruning</Option>
    <Option name="PruneStrength" modified="No">0.000000e+00</Option>
    <Option name="PruningValFraction" modified="No">5.000000e-01</Option>
    <Option name="SkipNormalization" modified="No">False</Option>
    <Option name="nEventsMin" modified="No">0</Option>
    <Option name="UseBaggedGrad" modified="No">False</Option>
    <Option name="GradBaggingFraction" modified="No">5.000000e-01</Option>
    <Option name="UseNTrainEvents" modified="No">0</Option>
    <Option name="NNodesMax" modified="No">0</Option>
  </Options>
  <Variables NVar="12">
    <Variable VarIndex="0" Expression="meff" Label="meff" Title="m_{eff}(incl.)" Unit="GeV" Internal="meff" Type="F" Min="1.40000916e+03" Max="6.99169531e+03"/>
    <Variable VarIndex="1" Expression="Ap" Label="Ap" Title="Aplanarity" Unit="" Internal="Ap" Type="F" Min="2.12942377e-05" Max="4.54854876e-01"/>
    <Variable VarIndex="2" Expression="jetPt0" Label="jetPt0" Title="p_{T}(j_{1})" Unit="GeV" Internal="jetPt0" Type="F" Min="2.00231079e+02" Max="2.75622241e+03"/>
    <Variable VarIndex="3" Expression="jetPt1" Label="jetPt1" Title="p_{T}(j_{2})" Unit="GeV" Internal="jetPt1" Type="F" Min="6.03761902e+01" Max="1.94071338e+03"/>
    <Variable VarIndex="4" Expression="jetPt2" Label="jetPt2" Title="p_{T}(j_{3})" Unit="GeV" Internal="jetPt2" Type="F" Min="5.43429680e+01" Max="1.13479065e+03"/>
    <Variable VarIndex="5" Expression="jetPt3" Label="jetPt3" Title="p_{T}(j_{4})" Unit="GeV" Internal="jetPt3" Type="F" Min="5.11299973e+01" Max="9.53616760e+02"/>
    <Variable VarIndex="6" Expression="jetPt4" Label="jetPt4" Title="p_{T}(j_{5})" Unit="GeV" Internal="jetPt4" Type="F" Min="5.01486092e+01" Max="7.02992188e+02"/>
    <Variable VarIndex="7" Expression="jetEta0" Label="jetEta0" Title="#eta(j_{1})" Unit="" Internal="jetEta0" Type="F" Min="-2.71708536e+00" Max="2.79742193e+00"/>
    <Variable VarIndex="8" Expression="jetEta1" Label="jetEta1" Title="#eta(j_{2})" Unit="" Internal="jetEta1" Type="F" Min="-2.79975271e+00" Max="2.79999733e+00"/>
    <Variable VarIndex="9" Expression="jetEta2" Label="jetEta2" Title="#eta(j_{3})" Unit="" Internal="jetEta2" Type="F" Min="-2.79979849e+00" Max="2.79921389e+00"/>
    <Variable VarIndex="10" Expression="jetEta3" Label="jetEta3" Title="#eta(j_{4})" Unit="" Internal="jetEta3" Type="F" Min="-2.79890251e+00" Max="2.79940987e+00"/>
    <Variable VarIndex="11" Expression="jetEta4" Label="jetEta4" Title="#eta(j_{5})" Unit="" Internal="jetEta4" Type="F" Min="-2.79999471e+00" Max="2.79995656e+00"/>
  </Variables>
  <Spectators NSpec="0">
  </Spectators>
  <Classes NClass="2">
    <Class Name="Signal" Index="0"/>
    <Class Name="Background" Index="1"/>
  </Classes>
  <Transformations NTransformations="0"/>
  <MVAPdfs/>
  <Weights NTrees="800" AnalysisType="1">
    <BinaryTree type="DecisionTree" boostWeight="1.0000000000000000e+00" itree="0">
      <Node pos="s" depth="0" NCoef="0" IVar="0" Cut="2.1988310546875000e+03" cType="1" res="-1.9082158105447888e-03" rms="4.9999636411666870e-01" purity="4.9809175729751587e-01" nType="0">
        <Node pos="l" depth="1" NCoef="0" IVar="0" Cut="1.9705911865234375e+03" cType="1" res="-4.4488131999969482e-01" rms="2.2821177542209625e-01" purity="5.5118680000305176e-02" nType="0">
          <Node pos="l" depth="2" NCoef="0" IVar="0" Cut="1.8075500488281250e+03" cType="1" res="-4.7520208358764648e-01" rms="1.5550878643989563e-01" purity="2.4797916412353516e-02" nType="0">
            <Node pos="l" depth="3" NCoef="0" IVar="-1" Cut="0.0000000000000000e+00" cType="1" res="-1.9516584277153015e-01" rms="1.0926720499992371e-01" purity="1.2085377238690853e-02" nType="-99"/>
            <Node pos="r" depth="3" NCoef="0" IVar="-1" Cut="0.0000000000000000e+00" cType="1" res="-1.5908749401569366e-01" rms="3.0301785469055176e-01" purity="1.0228128731250763e-01" nType="-99"/>
          </Node>
          <Node pos="r" depth="2" NCoef="0" IVar="2" Cut="5.3199340820312500e+02" cType="1" res="-2.1095342934131622e-01" rms="4.5331957936286926e-01" purity="2.8904658555984497e-01" nType="0">
            <Node pos="l" depth="3" NCoef="0" IVar="-1" Cut="0.0000000000000000e+00" cType="1" res="-2.7428677305579185e-02" rms="4.9527561664581299e-01" purity="4.3142831325531006e-01" nType="-99"/>
            <Node pos="r" depth="3" NCoef="0" IVar="-1" Cut="0.0000000000000000e+00" cType="1" res="-1.3697353005409241e-01" rms="3.6433374881744385e-01" purity="1.5756618976593018e-01" nType="-99"/>
          </Node>
        </Node>
        <Node pos="r" depth="1" NCoef="0" IVar="5" Cut="1.5645040893554688e+02" cType="1" res="4.2170673608779907e-01" rms="2.6863250136375427e-01" purity="9.2170679569244385e-01" nType="0">
          <Node pos="l" depth="2" NCoef="0" IVar="0" Cut="2.7276672363281250e+03" cType="1" res="1.2398020178079605e-01" rms="4.8438507318496704e-01" purity="6.2398016452789307e-01" nType="0">
            <Node pos="l" depth="3" NCoef="0" IVar="-1" Cut="0.0000000000000000e+00" cType="1" res="-1.8853915855288506e-02" rms="4.9777334928512573e-01" purity="4.5286521315574646e-01" nType="-99"/>
            <Node pos="r" depth="3" NCoef="0" IVar="-1" Cut="0.0000000000000000e+00" cType="1" res="1.3469202816486359e-01" rms="3.6961176991462708e-01" purity="8.3673006296157837e-01" nType="-99"/>
          </Node>
          <Node pos="r" depth="2" NCoef="0" IVar="0" Cut="2.4271047363281250e+03" cType="1" res="4.5990601181983948e-01" rms="1.9617968797683716e-01" purity="9.5990604162216187e-01" nType="0">
            <Node pos="l" depth="3" NCoef="0" IVar="-1" Cut="0.0000000000000000e+00" cType="1" res="9.5782428979873657e-02" rms="4.3893140554428101e-01" purity="7.3945611715316772e-01" nType="-99"/>
            <Node pos="r" depth="3" NCoef="0" IVar="-1" Cut="0.0000000000000000e+00" cType="1" res="1.9020813703536987e-01" rms="1.5453286468982697e-01" purity="9.7552031278610229e-01" nType="-99"/>
          </Node>
        </Node>
      </Node>
    </BinaryTree>
    <BinaryTree type="DecisionTree" boostWeight="1.0000000000000000e+00" itree="1">
      <Node pos="s" depth="0" NCoef="0" IVar="0" Cut="2.1988215332031250e+03" cType="1" res="1.5529530355706811e-03" rms="4.2162096500396729e-01" purity="5.0184243917465210e-01" nType="0">
        <Node pos="l" depth="1" NCoef="0" IVar="0" Cut="2.0084398193359375e+03" cType="1" res="-3.5732564330101013e-01" rms="2.1939073503017426e-01" purity="5.4591074585914612e-02" nType="0">
          <Node pos="l" depth="2" NCoef="0" IVar="0" Cut="1.8345721435546875e+03" cType="1" res="-3.7939313054084778e-01" rms="1.6333423554897308e-01" purity="2.8154244646430016e-02" nType="0">
            <Node pos="l" depth="3" NCoef="0" IVar="-1" Cut="0.0000000000000000e+00" cType="1" res="-1.6236045956611633e-01" rms="1.1409825831651688e-01" purity="1.3234151527285576e-02" nType="-99"/>
            <Node pos="r" depth="3" NCoef="0" IVar="-1" Cut="0.0000000000000000e+00" cType="1" res="-1.2570476531982422e-01" rms="3.2478371262550354e-01" purity="1.2081294506788254e-01" nType="-99"/>
          </Node>
          <Node pos="r" depth="2" NCoef="0" IVar="-1" Cut="0.0000000000000000e+00" cType="1" res="-5.3411889821290970e-02" rms="4.5976933836936951e-01" purity="3.2437711954116821e-01" nType="-99"/>
        </Node>
        <Node pos="r" depth="1" NCoef="0" IVar="1" Cut="2.1924363449215889e-02" cType="1" res="3.4069642424583435e-01" rms="2.5206732749938965e-01" purity="9.2449885606765747e-01" nType="0">
          <Node pos="l" depth="2" NCoef="0" IVar="-1" Cut="0.0000000000000000e+00" cType="1" res="-3.6691334098577499e-03" rms="4.7284281253814697e-01" purity="5.4550570249557495e-01" nType="-99"/>
          <Node pos="r" depth="2" NCoef="0" IVar="0" Cut="2.6553962402343750e+03" cType="1" res="3.6394301056861877e-01" rms="2.1030734479427338e-01" purity="9.4969356060028076e-01" nType="0">
            <Node pos="l" depth="3" NCoef="0" IVar="-1" Cut="0.0000000000000000e+00" cType="1" res="9.5422528684139252e-02" rms="3.9660215377807617e-01" purity="7.9016518592834473e-01" nType="-99"/>
            <Node pos="r" depth="3" NCoef="0" IVar="-1" Cut="0.0000000000000000e+00" cType="1" res="1.6187995672225952e-01" rms="1.2873472273349762e-01" purity="9.8275423049926758e-01" nType="-99"/>
          </Node>
        </Node>
      </Node>
    </BinaryTree>
    <BinaryTree type="DecisionTree" boostWeight="1.0000000000000000e+00" itree="2">
      <Node pos="s" depth="0" NCoef="0" IVar="0" Cut="2.1418649902343750e+03" cType="1" res="-1.0869954712688923e-03" rms="3.6443853378295898e-01" purity="4.9864706397056580e-01" nType="0">
        <Node pos="l" depth="1" NCoef="0" IVar="0" Cut="1.8944755859375000e+03" cType="1" res="-2.9601183533668518e-01" rms="1.9823458790779114e-01" purity="4.5109502971172333e-02" nType="0">
          <Node pos="l" depth="2" NCoef="0" IVar="6" Cut="1.2203567504882812e+02" cType="1" res="-3.1275999546051025e-01" rms="1.3226181268692017e-01" purity="1.8086602911353111e-02" nType="0">
            <Node pos="l" depth="3" NCoef="0" IVar="-1" Cut="0.0000000000000000e+00" cType="1" res="-1.4395709335803986e-01" rms="1.0885567963123322e-01" purity="1.2105228379368782e-02" nType="-99"/>
            <Node pos="r" depth="3" NCoef="0" IVar="-1" Cut="0.0000000000000000e+00" cType="1" res="-1.2183538079261780e-01" rms="2.3901446163654327e-01" purity="6.2262330204248428e-02" nType="-99"/>
          </Node>
          <Node pos="r" depth="2" NCoef="0" IVar="1" Cut="5.3283628076314926e-02" cType="1" res="-1.9762791693210602e-01" rms="3.9503407478332520e-01" purity="2.0385041832923889e-01" nType="0">
            <Node pos="l" depth="3" NCoef="0" IVar="-1" Cut="0.0000000000000000e+00" cType="1" res="-1.2823562324047089e-01" rms="2.8036186099052429e-01" purity="8.8792145252227783e-02" nType="-99"/>
            <Node pos="r" depth="3" NCoef="0" IVar="-1" Cut="0.0000000000000000e+00" cType="1" res="-2.5832572951912880e-02" rms="4.7057268023490906e-01" purity="3.4975969791412354e-01" nType="-99"/>
          </Node>
        </Node>
        <Node pos="r" depth="1" NCoef="0" IVar="5" Cut="1.3799719238281250e+02" cType="1" res="2.6669359207153320e-01" rms="2.5893065333366394e-01" purity="9.1044205427169800e-01" nType="0">
          <Node pos="l" depth="2" NCoef="0" IVar="-1" Cut="0.0000000000000000e+00" cType="1" res="-1.8612027168273926e-02" rms="4.6578732132911682e-01" purity="5.0357955694198608e-01" nType="-99"/>
          <Node pos="r" depth="2" NCoef="0" IVar="0" Cut="2.5657912597656250e+03" cType="1" res="2.9432037472724915e-01" rms="2.1067816019058228e-01" purity="9.4648885726928711e-01" nType="0">
            <Node pos="l" depth="3" NCoef="0" IVar="-1" Cut="0.0000000000000000e+00" cType="1" res="6.9099925458431244e-02" rms="4.1915380954742432e-01" purity="7.4736642837524414e-01" nType="-99"/>
            <Node pos="r" depth="3" NCoef="0" IVar="-1" Cut="0.0000000000000000e+00" cType="1" res="1.4169770479202271e-01" rms="1.3911511003971100e-01" purity="9.7957044839859009e-01" nType="-99"/>
          </Node>
        </Node>
      </Node>
    </BinaryTree>
    <BinaryTree type="DecisionTree" boostWeight="1.0000000000000000e+00" itree="3">
      <Node pos="s" depth="0" NCoef="0" IVar="0" Cut="2.1418779296875000e+03" cType="1" res="-4.3089824612252414e-04" rms="3.2155382633209229e-01" purity="4.9921497702598572e-01" nType="0">
        <Node pos="l" depth="1" NCoef="0" IVar="0" Cut="1.7886158447265625e+03" cType="1" res="-2.3903326690196991e-01" rms="1.9774140417575836e-01" purity="4.6293918043375015e-02" nType="0">
          <Node pos="l" depth="2" NCoef="0" IVar="0" Cut="1.5850202636718750e+03" cType="1" res="-2.5834551453590393e-01" rms="1.0498733073472977e-01" purity="1.1160642839968204e-02" nType="0">
            <Node pos="l" depth="3" NCoef="0" IVar="-1" Cut="0.0000000000000000e+00" cType="1" res="-1.3526637852191925e-01" rms="5.5829234421253204e-02" purity="3.1163876410573721e-03" nType="-99"/>
            <Node pos="r" depth="3" NCoef="0" IVar="-1" Cut="0.0000000000000000e+00" cType="1" res="-1.2545737624168396e-01" rms="1.4878185093402863e-01" purity="2.2684497758746147e-02" nType="-99"/>
          </Node>
          <Node pos="r" depth="2" NCoef="0" IVar="1" Cut="7.0610858500003815e-02" cType="1" res="-1.7865402996540070e-01" rms="3.4939834475517273e-01" purity="1.5613715350627899e-01" nType="0">
            <Node pos="l" depth="3" NCoef="0" IVar="-1" Cut="0.0000000000000000e+00" cType="1" res="-1.0842221230268478e-01" rms="2.7310270071029663e-01" purity="8.6683586239814758e-02" nType="-99"/>
            <Node pos="r" depth="3" NCoef="0" IVar="-1" Cut="0.0000000000000000e+00" cType="1" res="-2.4221703410148621e-02" rms="4.5210990309715271e-01" purity="3.0890682339668274e-01" nType="-99"/>
          </Node>
        </Node>
        <Node pos="r" depth="1" NCoef="0" IVar="4" Cut="2.0973562622070312e+02" cType="1" res="2.1786236763000488e-01" rms="2.4996440112590790e-01" purity="9.1358476877212524e-01" nType="0">
          <Node pos="l" depth="2" NCoef="0" IVar="-1" Cut="0.0000000000000000e+00" cType="1" res="-1.2439501471817493e-02" rms="4.4874921441078186e-01" purity="5.6027048826217651e-01" nType="-99"/>
          <Node pos="r" depth="2" NCoef="0" IVar="0" Cut="2.3538854980468750e+03" cType="1" res="2.3752187192440033e-01" rms="2.1489347517490387e-01" purity="9.4173157215118408e-01" nType="0">
            <Node pos="l" depth="3" NCoef="0" IVar="-1" Cut="0.0000000000000000e+00" cType="1" res="2.4834934622049332e-02" rms="4.6785300970077515e-01" purity="6.2847369909286499e-01" nType="-99"/>
            <Node pos="r" depth="3" NCoef="0" IVar="-1" Cut="0.0000000000000000e+00" cType="1" res="1.2280490994453430e-01" rms="1.8018332123756409e-01" purity="9.6253865957260132e-01" nType="-99"/>
          </Node>
        </Node>
      </Node>
    </BinaryTree>
    <BinaryTree type="DecisionTree" boostWeight="1.0000000000000000e+00" itree="4">
      <Node pos="s" depth="0" NCoef="0" IVar="0" Cut="2.4651076660156250e+03" cType="1" res="-2.0429410506039858e-03" rms="2.9018756747245789e-01" purity="4.9840429425239563e-01" nType="0">
        <Node pos="l" depth="1" NCoef="0" IVar="0" Cut="2.1100690917968750e+03" cType="1" res="-1.7418512701988220e-01" rms="2.4951997399330139e-01" purity="1.0894475132226944e-01" nType="0">
          <Node pos="l" depth="2" NCoef="0" IVar="0" Cut="1.9409931640625000e+03" cType="1" res="-1.9862474501132965e-01" rms="1.8441681563854218e-01" purity="4.0405441075563431e-02" nType="0">
            <Node pos="l" depth="3" NCoef="0" IVar="-1" Cut="0.0000000000000000e+00" cType="1" res="-1.1794342845678329e-01" rms="1.3990873098373413e-01" purity="2.0881051197648048e-02" nType="-99"/>
            <Node pos="r" depth="3" NCoef="0" IVar="-1" Cut="0.0000000000000000e+00" cType="1" res="-5.4085519164800644e-02" rms="4.0083196759223938e-01" purity="2.2107285261154175e-01" nType="-99"/>
          </Node>
          <Node pos="r" depth="2" NCoef="0" IVar="1" Cut="5.3463101387023926e-02" cType="1" res="-2.0910834893584251e-02" rms="4.6064800024032593e-01" purity="5.3879237174987793e-01" nType="0">
            <Node pos="l" depth="3" NCoef="0" IVar="-1" Cut="0.0000000000000000e+00" cType="1" res="-1.0100543498992920e-01" rms="4.2313829064369202e-01" purity="2.7455785870552063e-01" nType="-99"/>
            <Node pos="r" depth="3" NCoef="0" IVar="-1" Cut="0.0000000000000000e+00" cType="1" res="6.1917036771774292e-02" rms="4.1769254207611084e-01" purity="7.3797142505645752e-01" nType="-99"/>
          </Node>
        </Node>
        <Node pos="r" depth="1" NCoef="0" IVar="6" Cut="1.1267314147949219e+02" cType="1" res="2.0168577134609222e-01" rms="1.8332783877849579e-01" purity="9.5932614803314209e-01" nType="0">
          <Node pos="l" depth="2" NCoef="0" IVar="1" Cut="5.7000935077667236e-02" cType="1" res="1.0995606333017349e-01" rms="3.5884743928909302e-01" purity="8.1438016891479492e-01" nType="0">
            <Node pos="l" depth="3" NCoef="0" IVar="-1" Cut="0.0000000000000000e+00" cType="1" res="-1.1821661610156298e-03" rms="4.3606609106063843e-01" purity="6.6719007492065430e-01" nType="-99"/>
            <Node pos="r" depth="3" NCoef="0" IVar="-1" Cut="0.0000000000000000e+00" cType="1" res="1.0312565416097641e-01" rms="2.5089511275291443e-01" purity="9.2978954315185547e-01" nType="-99"/>
          </Node>
          <Node pos="r" depth="2" NCoef="0" IVar="0" Cut="2.8962160644531250e+03" cType="1" res="2.1515515446662903e-01" rms="1.3497664034366608e-01" purity="9.8060965538024902e-01" nType="0">
            <Node pos="l" depth="3" NCoef="0" IVar="-1" Cut="0.0000000000000000e+00" cType="1" res="1.0318132489919662e-01" rms="2.3260910809040070e-01" purity="9.4020402431488037e-01" nType="-99"/>
            <Node pos="r" depth="3" NCoef="0" IVar="-1" Cut="0.0000000000000000e+00" cType="1" res="1.2540802359580994e-01" rms="8.9560836553573608e-02" purity="9.9188703298568726e-01" nType="-99"/>
          </Node>
        </Node>
      </Node>
    </BinaryTree>
    <BinaryTree type="DecisionTree" boostWeight="1.0000000000000000e+00" itree="5">
      <Node pos="s" depth="0" NCoef="0" IVar="0" Cut="2.3833178710937500e+03" cType="1" res="-2.3030738811939955e-03" rms="2.6360139250755310e-01" purity="4.9608197808265686e-01" nType="0">
        <Node pos="l" depth="1" NCoef="0" IVar="1" Cut="9.4987362623214722e-02" cType="1" res="-1.4774522185325623e-01" rms="2.3079365491867065e-01" purity="8.8379517197608948e-02" nType="0">
          <Node pos="l" depth="2" NCoef="0" IVar="1" Cut="4.0719509124755859e-02" cType="1" res="-1.6877931356430054e-01" rms="1.9668892025947571e-01" purity="5.3528867661952972e-02" nType="0">
            <Node pos="l" depth="3" NCoef="0" IVar="-1" Cut="0.0000000000000000e+00" cType="1" res="-1.1731576919555664e-01" rms="1.4282052218914032e-01" purity="2.2458760067820549e-02" nType="-99"/>
            <Node pos="r" depth="3" NCoef="0" IVar="-1" Cut="0.0000000000000000e+00" cType="1" res="-7.8550703823566437e-02" rms="2.6430439949035645e-01" purity="1.1012502759695053e-01" nType="-99"/>
          </Node>
          <Node pos="r" depth="2" NCoef="0" IVar="0" Cut="2.0087601318359375e+03" cType="1" res="-5.2624814212322235e-02" rms="3.2885709404945374e-01" purity="2.4598111212253571e-01" nType="0">
            <Node pos="l" depth="3" NCoef="0" IVar="-1" Cut="0.0000000000000000e+00" cType="1" res="-8.1532418727874756e-02" rms="2.4716559052467346e-01" purity="7.2277352213859558e-02" nType="-99"/>
            <Node pos="r" depth="3" NCoef="0" IVar="-1" Cut="0.0000000000000000e+00" cType="1" res="6.6611014306545258e-02" rms="4.1851267218589783e-01" purity="7.1196156740188599e-01" nType="-99"/>
          </Node>
        </Node>
        <Node pos="r" depth="1" NCoef="0" IVar="6" Cut="1.0435879516601562e+02" cType="1" res="1.5958873927593231e-01" rms="1.9438450038433075e-01" purity="9.4989603757858276e-01" nType="0">
          <Node pos="l" depth="2" NCoef="0" IVar="-1" Cut="0.0000000000000000e+00" cType="1" res="1.9661275669932365e-02" rms="3.8547638058662415e-01" purity="7.4274468421936035e-01" nType="-99"/>
          <Node pos="r" depth="2" NCoef="0" IVar="1" Cut="4.0826711803674698e-02" cType="1" res="1.7372898757457733e-01" rms="1.5135648846626282e-01" purity="9.7413975000381470e-01" nType="0">
            <Node pos="l" depth="3" NCoef="0" IVar="-1" Cut="0.0000000000000000e+00" cType="1" res="7.2329871356487274e-02" rms="2.8505811095237732e-01" purity="8.9391952753067017e-01" nType="-99"/>
            <Node pos="r" depth="3" NCoef="0" IVar="-1" Cut="0.0000000000000000e+00" cType="1" res="1.1470689624547958e-01" rms="1.2490215897560120e-01" purity="9.8375034332275391e-01" nType="-99"/>
          </Node>
        </Node>
      </Node>
    </BinaryTree>
    <BinaryTree type="DecisionTree" boostWeight="1.0000000000000000e+00" itree="6">
      <Node pos="s" depth="0" NCoef="0" IVar="0" Cut="2.1988249511718750e+03" cType="1" res="-3.1211745226755738e-04" rms="2.4574932456016541e-01" purity="4.9923267960548401e-01" nType="0">
        <Node pos="l" depth="1" NCoef="0" IVar="0" Cut="2.0846621093750000e+03" cType="1" res="-1.2752141058444977e-01" rms="2.0014426112174988e-01" purity="5.3319554775953293e-02" nType="0">
          <Node pos="l" depth="2" NCoef="0" IVar="6" Cut="1.2934736633300781e+02" cType="1" res="-1.3371601700782776e-01" rms="1.7754197120666504e-01" purity="3.6906827241182327e-02" nType="0">
            <Node pos="l" depth="3" NCoef="0" IVar="-1" Cut="0.0000000000000000e+00" cType="1" res="-1.0246299952268600e-01" rms="1.5039043128490448e-01" purity="2.5391530245542526e-02" nType="-99"/>
            <Node pos="r" depth="3" NCoef="0" IVar="-1" Cut="0.0000000000000000e+00" cType="1" res="-5.1627043634653091e-02" rms="3.1058496236801147e-01" purity="1.2482494115829468e-01" nType="-99"/>
          </Node>
          <Node pos="r" depth="2" NCoef="0" IVar="-1" Cut="0.0000000000000000e+00" cType="1" res="-6.1295577324926853e-03" rms="4.2835339903831482e-01" purity="3.5543823242187500e-01" nType="-99"/>
        </Node>
        <Node pos="r" depth="1" NCoef="0" IVar="1" Cut="2.0002720877528191e-02" cType="1" res="1.2070757895708084e-01" rms="2.2292983531951904e-01" purity="9.2344909906387329e-01" nType="0">
          <Node pos="l" depth="2" NCoef="0" IVar="-1" Cut="0.0000000000000000e+00" cType="1" res="-4.9783546477556229e-02" rms="4.2044234275817871e-01" purity="5.1142925024032593e-01" nType="-99"/>
          <Node pos="r" depth="2" NCoef="0" IVar="5" Cut="1.3729949951171875e+02" cType="1" res="1.3313148915767670e-01" rms="1.9943013787269592e-01" purity="9.4597685337066650e-01" nType="0">
            <Node pos="l" depth="3" NCoef="0" IVar="-1" Cut="0.0000000000000000e+00" cType="1" res="1.0766856372356415e-02" rms="4.3463250994682312e-01" purity="6.5778052806854248e-01" nType="-99"/>
            <Node pos="r" depth="3" NCoef="0" IVar="-1" Cut="0.0000000000000000e+00" cType="1" res="9.8224528133869171e-02" rms="1.7366667091846466e-01" purity="9.6309810876846313e-01" nType="-99"/>
          </Node>
        </Node>
      </Node>
    </BinaryTree>
    <BinaryTree type="DecisionTree" boostWeight="1.0000000000000000e+00" itree="7">
      <Node pos="s" depth="0" NCoef="0" IVar="0" Cut="2.3891926269531250e+03" cType="1" res="-1.5841280110180378e-03" rms="2.3551316559314728e-01" purity="4.9915820360183716e-01" nType="0">
        <Node pos="l" depth="1" NCoef="0" IVar="5" Cut="2.1332881164550781e+02" cType="1" res="-9.8309084773063660e-02" rms="2.2613264620304108e-01" purity="9.1124013066291809e-02" nType="0">
          <Node pos="l" depth="2" NCoef="0" IVar="1" Cut="1.3305975496768951e-01" cType="1" res="-1.0646378993988037e-01" rms="2.0918107032775879e-01" purity="6.9769933819770813e-02" nType="0">
            <Node pos="l" depth="3" NCoef="0" IVar="-1" Cut="0.0000000000000000e+00" cType="1" res="-8.8470190763473511e-02" rms="1.9380475580692291e-01" purity="5.4538767784833908e-02" nType="-99"/>
            <Node pos="r" depth="3" NCoef="0" IVar="-1" Cut="0.0000000000000000e+00" cType="1" res="-7.4858460575342178e-03" rms="3.2026004791259766e-01" purity="2.3865859210491180e-01" nType="-99"/>
          </Node>
          <Node pos="r" depth="2" NCoef="0" IVar="-1" Cut="0.0000000000000000e+00" cType="1" res="2.9642594978213310e-02" rms="4.0809026360511780e-01" purity="4.9893197417259216e-01" nType="-99"/>
        </Node>
        <Node pos="r" depth="1" NCoef="0" IVar="1" Cut="4.3648686259984970e-02" cType="1" res="1.0475604981184006e-01" rms="1.9655387103557587e-01" purity="9.4775420427322388e-01" nType="0">
          <Node pos="l" depth="2" NCoef="0" IVar="0" Cut="2.9810573730468750e+03" cType="1" res="2.3341428488492966e-02" rms="3.5429954528808594e-01" purity="7.8928995132446289e-01" nType="0">
            <Node pos="l" depth="3" NCoef="0" IVar="-1" Cut="0.0000000000000000e+00" cType="1" res="-6.2118601053953171e-02" rms="4.3737035989761353e-01" purity="5.8795112371444702e-01" nType="-99"/>
            <Node pos="r" depth="3" NCoef="0" IVar="-1" Cut="0.0000000000000000e+00" cType="1" res="7.8561373054981232e-02" rms="2.4399152398109436e-01" purity="9.2417353391647339e-01" nType="-99"/>
          </Node>
          <Node pos="r" depth="2" NCoef="0" IVar="0" Cut="2.7896140136718750e+03" cType="1" res="1.1888886988162994e-01" rms="1.4899310469627380e-01" purity="9.7526210546493530e-01" nType="0">
            <Node pos="l" depth="3" NCoef="0" IVar="-1" Cut="0.0000000000000000e+00" cType="1" res="6.2351085245609283e-02" rms="2.7632564306259155e-01" purity="9.0979498624801636e-01" nType="-99"/>
            <Node pos="r" depth="3" NCoef="0" IVar="-1" Cut="0.0000000000000000e+00" cType="1" res="1.0815589129924774e-01" rms="9.5744222402572632e-02" purity="9.9070793390274048e-01" nType="-99"/>
          </Node>
        </Node>
      </Node>
    </BinaryTree>
    <BinaryTree type="DecisionTree" boostWeight="1.0000000000000000e+00" itree="8">
      <Node pos="s" depth="0" NCoef="0" IVar="0" Cut="2.3860678710937500e+03" cType="1" res="-5.5416621034964919e-04" rms="2.2313831746578217e-01" purity="4.9682822823524475e-01" nType="0">
        <Node pos="l" depth="1" NCoef="0" IVar="6" Cut="1.2766121673583984e+02" cType="1" res="-8.1791058182716370e-02" rms="2.2335433959960938e-01" purity="8.9564584195613861e-02" nType="0">
          <Node pos="l" depth="2" NCoef="0" IVar="1" Cut="5.5696800351142883e-02" cType="1" res="-9.7512498497962952e-02" rms="1.8043401837348938e-01" purity="4.7572631388902664e-02" nType="0">
            <Node pos="l" depth="3" NCoef="0" IVar="-1" Cut="0.0000000000000000e+00" cType="1" res="-1.0147143155336380e-01" rms="1.3331970572471619e-01" purity="1.9340127706527710e-02" nType="-99"/>
            <Node pos="r" depth="3" NCoef="0" IVar="-1" Cut="0.0000000000000000e+00" cType="1" res="-5.3814135491847992e-02" rms="2.5557667016983032e-01" purity="1.1243928223848343e-01" nType="-99"/>
          </Node>
          <Node pos="r" depth="2" NCoef="0" IVar="0" Cut="1.8229880371093750e+03" cType="1" res="-6.4796455262694508e-05" rms="3.6333879828453064e-01" purity="3.0785536766052246e-01" nType="0">
            <Node pos="l" depth="3" NCoef="0" IVar="-1" Cut="0.0000000000000000e+00" cType="1" res="-8.8487982749938965e-02" rms="1.7084178328514099e-01" purity="3.0605630949139595e-02" nType="-99"/>
            <Node pos="r" depth="3" NCoef="0" IVar="-1" Cut="0.0000000000000000e+00" cType="1" res="3.5409118980169296e-02" rms="4.3784549832344055e-01" purity="5.0128751993179321e-01" nType="-99"/>
          </Node>
        </Node>
        <Node pos="r" depth="1" NCoef="0" IVar="1" Cut="4.0644180029630661e-02" cType="1" res="9.0204514563083649e-02" rms="1.8458834290504456e-01" purity="9.5182728767395020e-01" nType="0">
          <Node pos="l" depth="2" NCoef="0" IVar="0" Cut="2.9785759277343750e+03" cType="1" res="2.4091225117444992e-02" rms="3.4914889931678772e-01" purity="7.8641170263290405e-01" nType="0">
            <Node pos="l" depth="3" NCoef="0" IVar="-1" Cut="0.0000000000000000e+00" cType="1" res="-4.1184429079294205e-02" rms="4.3757477402687073e-01" purity="5.9378141164779663e-01" nType="-99"/>
            <Node pos="r" depth="3" NCoef="0" IVar="-1" Cut="0.0000000000000000e+00" cType="1" res="7.5498484075069427e-02" rms="2.3410180211067200e-01" purity="9.3123912811279297e-01" nType="-99"/>
          </Node>
          <Node pos="r" depth="2" NCoef="0" IVar="1" Cut="9.5310434699058533e-02" cType="1" res="1.0072912275791168e-01" rms="1.3886769115924835e-01" purity="9.7815990447998047e-01" nType="0">
            <Node pos="l" depth="3" NCoef="0" IVar="-1" Cut="0.0000000000000000e+00" cType="1" res="7.9020328819751740e-02" rms="1.8937848508358002e-01" purity="9.5695668458938599e-01" nType="-99"/>
            <Node pos="r" depth="3" NCoef="0" IVar="-1" Cut="0.0000000000000000e+00" cType="1" res="1.0434194654226303e-01" rms="1.0137952119112015e-01" purity="9.8949229717254639e-01" nType="-99"/>
          </Node>
        </Node>
      </Node>
    </BinaryTree>
    <BinaryTree type="DecisionTree" boostWeight="1.0000000000000000e+00" itree="9">
      <Node pos="s" depth="0" NCoef="0" IVar="0" Cut="2.1395627441406250e+03" cType="1" res="2.0908748265355825e-03" rms="2.1767629683017731e-01" purity="4.9764195084571838e-01" nType="0">
        <Node pos="l" depth="1" NCoef="0" IVar="0" Cut="1.7873663330078125e+03" cType="1" res="-7.0285357534885406e-02" rms="1.9091431796550751e-01" purity="4.5446865260601044e-02" nType="0">
          <Node pos="l" depth="2" NCoef="0" IVar="0" Cut="1.6951359863281250e+03" cType="1" res="-8.4711536765098572e-02" rms="1.0972405225038528e-01" purity="1.2414695695042610e-02" nType="0">
            <Node pos="l" depth="3" NCoef="0" IVar="-1" Cut="0.0000000000000000e+00" cType="1" res="-1.0165289789438248e-01" rms="8.8661208748817444e-02" purity="7.9809119924902916e-03" nType="-99"/>
            <Node pos="r" depth="3" NCoef="0" IVar="-1" Cut="0.0000000000000000e+00" cType="1" res="-7.1392841637134552e-02" rms="1.8325936794281006e-01" purity="3.5809598863124847e-02" nType="-99"/>
          </Node>
          <Node pos="r" depth="2" NCoef="0" IVar="2" Cut="4.4853543090820312e+02" cType="1" res="-2.7278825640678406e-02" rms="3.2671824097633362e-01" purity="1.4392055571079254e-01" nType="0">
            <Node pos="l" depth="3" NCoef="0" IVar="-1" Cut="0.0000000000000000e+00" cType="1" res="4.2884722352027893e-02" rms="4.1199702024459839e-01" purity="2.6340594887733459e-01" nType="-99"/>
            <Node pos="r" depth="3" NCoef="0" IVar="-1" Cut="0.0000000000000000e+00" cType="1" res="-4.9652107059955597e-02" rms="2.7708831429481506e-01" purity="9.6004813909530640e-02" nType="-99"/>
          </Node>
        </Node>
        <Node pos="r" depth="1" NCoef="0" IVar="6" Cut="8.0154197692871094e+01" cType="1" res="6.8747401237487793e-02" rms="2.1951329708099365e-01" purity="9.1410124301910400e-01" nType="0">
          <Node pos="l" depth="2" NCoef="0" IVar="-1" Cut="0.0000000000000000e+00" cType="1" res="-4.6887367963790894e-02" rms="3.9058712124824524e-01" purity="5.2878659963607788e-01" nType="-99"/>
          <Node pos="r" depth="2" NCoef="0" IVar="1" Cut="2.1725820377469063e-02" cType="1" res="7.6858289539813995e-02" rms="2.0358684659004211e-01" purity="9.3404227495193481e-01" nType="0">
            <Node pos="l" depth="3" NCoef="0" IVar="-1" Cut="0.0000000000000000e+00" cType="1" res="-2.2026181686669588e-03" rms="3.8144677877426147e-01" purity="5.9657448530197144e-01" nType="-99"/>
            <Node pos="r" depth="3" NCoef="0" IVar="-1" Cut="0.0000000000000000e+00" cType="1" res="7.9311348497867584e-02" rms="1.8806076049804688e-01" purity="9.5252752304077148e-01" nType="-99"/>
          </Node>
        </Node>
      </Node>
    </BinaryTree>
    <BinaryTree type="DecisionTree" boostWeight="1.0000000000000000e+00" itree="10">
      <Node pos="s" depth="0" NCoef="0" IVar="0" Cut="2.6062060546875000e+03" cType="1" res="-1.1959928087890148e-03" rms="2.0793411135673523e-01" purity="4.9577948451042175e-01" nType="0">
        <Node pos="l" depth="1" NCoef="0" IVar="6" Cut="1.3367092895507812e+02" cType="1" res="-5.2260171622037888e-02" rms="2.2763477265834808e-01" purity="1.4497393369674683e-01" nType="0">
          <Node pos="l" depth="2" NCoef="0" IVar="2" Cut="7.2834277343750000e+02" cType="1" res="-6.7260548472404480e-02" rms="1.9453147053718567e-01" purity="7.3153562843799591e-02" nType="0">
            <Node pos="l" depth="3" NCoef="0" IVar="-1" Cut="0.0000000000000000e+00" cType="1" res="-6.7050725221633911e-02" rms="1.8589447438716888e-01" purity="6.8787053227424622e-02" nType="-99"/>
            <Node pos="r" depth="3" NCoef="0" IVar="-1" Cut="0.0000000000000000e+00" cType="1" res="-1.0267021507024765e-01" rms="2.8427696228027344e-01" purity="1.4338999986648560e-01" nType="-99"/>
          </Node>
          <Node pos="r" depth="2" NCoef="0" IVar="1" Cut="5.6259967386722565e-02" cType="1" res="2.3339144885540009e-02" rms="3.3970633149147034e-01" purity="5.0693625211715698e-01" nType="0">
            <Node pos="l" depth="3" NCoef="0" IVar="-1" Cut="0.0000000000000000e+00" cType="1" res="-3.3979658037424088e-02" rms="3.4823697805404663e-01" purity="2.7276235818862915e-01" nType="-99"/>
            <Node pos="r" depth="3" NCoef="0" IVar="-1" Cut="0.0000000000000000e+00" cType="1" res="4.4150430709123611e-02" rms="3.2851460576057434e-01" purity="6.3333410024642944e-01" nType="-99"/>
          </Node>
        </Node>
        <Node pos="r" depth="1" NCoef="0" IVar="4" Cut="2.3972253417968750e+02" cType="1" res="6.7960225045681000e-02" rms="1.5264782309532166e-01" purity="9.7087550163269043e-01" nType="0">
          <Node pos="l" depth="2" NCoef="0" IVar="-1" Cut="0.0000000000000000e+00" cType="1" res="1.8004821613430977e-02" rms="3.0962079763412476e-01" purity="8.5092836618423462e-01" nType="-99"/>
          <Node pos="r" depth="2" NCoef="0" IVar="0" Cut="3.1577382812500000e+03" cType="1" res="7.1649439632892609e-02" rms="1.3116218149662018e-01" purity="9.8065680265426636e-01" nType="0">
            <Node pos="l" depth="3" NCoef="0" IVar="-1" Cut="0.0000000000000000e+00" cType="1" res="6.8054921925067902e-02" rms="1.8800385296344757e-01" purity="9.5919656753540039e-01" nType="-99"/>
            <Node pos="r" depth="3" NCoef="0" IVar="-1" Cut="0.0000000000000000e+00" cType="1" res="1.0099990665912628e-01" rms="8.3390228450298309e-02" purity="9.9263173341751099e-01" nType="-99"/>
          </Node>
        </Node>
      </Node>
    </BinaryTree>
    <BinaryTree type="DecisionTree" boostWeight="1.0000000000000000e+00" itree="11">
      <Node pos="s" depth="0" NCoef="0" IVar="0" Cut="1.9325506591796875e+03" cType="1" res="3.6093082744628191e-03" rms="2.0909616351127625e-01" purity="5.0371617078781128e-01" nType="0">
        <Node pos="l" depth="1" NCoef="0" IVar="0" Cut="1.7043112792968750e+03" cType="1" res="-5.5575203150510788e-02" rms="1.4582192897796631e-01" purity="2.3629451170563698e-02" nType="0">
          <Node pos="l" depth="2" NCoef="0" IVar="0" Cut="1.5304195556640625e+03" cType="1" res="-6.4847216010093689e-02" rms="8.2447439432144165e-02" purity="6.8707340396940708e-03" nType="0">
            <Node pos="l" depth="3" NCoef="0" IVar="-1" Cut="0.0000000000000000e+00" cType="1" res="-1.0493590682744980e-01" rms="4.3040454387664795e-02" purity="1.8025793833658099e-03" nType="-99"/>
            <Node pos="r" depth="3" NCoef="0" IVar="-1" Cut="0.0000000000000000e+00" cType="1" res="-9.0224109590053558e-02" rms="1.0866627097129822e-01" purity="1.2037056498229504e-02" nType="-99"/>
          </Node>
          <Node pos="r" depth="2" NCoef="0" IVar="1" Cut="3.3145889639854431e-02" cType="1" res="-2.8077999129891396e-02" rms="2.5130635499954224e-01" purity="7.3329307138919830e-02" nType="0">
            <Node pos="l" depth="3" NCoef="0" IVar="-1" Cut="0.0000000000000000e+00" cType="1" res="-8.8743247091770172e-02" rms="1.2297153472900391e-01" purity="1.5531918033957481e-02" nType="-99"/>
            <Node pos="r" depth="3" NCoef="0" IVar="-1" Cut="0.0000000000000000e+00" cType="1" res="4.6955565921962261e-03" rms="3.1881043314933777e-01" purity="1.2246467918157578e-01" nType="-99"/>
          </Node>
        </Node>
        <Node pos="r" depth="1" NCoef="0" IVar="5" Cut="1.2104685211181641e+02" cType="1" res="4.5685399323701859e-02" rms="2.3542737960815430e-01" purity="8.4502458572387695e-01" nType="0">
          <Node pos="l" depth="2" NCoef="0" IVar="-1" Cut="0.0000000000000000e+00" cType="1" res="-4.3502088636159897e-02" rms="3.6471712589263916e-01" purity="3.0108940601348877e-01" nType="-99"/>
          <Node pos="r" depth="2" NCoef="0" IVar="1" Cut="6.0574185103178024e-02" cType="1" res="5.4889824241399765e-02" rms="2.1954545378684998e-01" purity="8.8747483491897583e-01" nType="0">
            <Node pos="l" depth="3" NCoef="0" IVar="-1" Cut="0.0000000000000000e+00" cType="1" res="1.9253157079219818e-02" rms="3.0447843670845032e-01" purity="7.2799187898635864e-01" nType="-99"/>
            <Node pos="r" depth="3" NCoef="0" IVar="-1" Cut="0.0000000000000000e+00" cType="1" res="7.9057678580284119e-02" rms="1.7871607840061188e-01" purity="9.4407582283020020e-01" nType="-99"/>
          </Node>
        </Node>
      </Node>
    </BinaryTree>
    <BinaryTree type="DecisionTree" boostWeight="1.0000000000000000e+00" itree="12">
      <Node pos="s" depth="0" NCoef="0" IVar="0" Cut="2.6364296875000000e+03" cType="1" res="-3.4994599409401417e-03" rms="2.0768702030181885e-01" purity="4.9489253759384155e-01" nType="0">
        <Node pos="l" depth="1" NCoef="0" IVar="1" Cut="1.1361030489206314e-01" cType="1" res="-3.8804341107606888e-02" rms="2.3235833644866943e-01" purity="1.5779587626457214e-01" nType="0">
          <Node pos="l" depth="2" NCoef="0" IVar="2" Cut="6.7563366699218750e+02" cType="1" res="-4.9775190651416779e-02" rms="2.1873846650123596e-01" purity="1.0652905702590942e-01" nType="0">
            <Node pos="l" depth="3" NCoef="0" IVar="-1" Cut="0.0000000000000000e+00" cType="1" res="-5.1987987011671066e-02" rms="2.0707635581493378e-01" purity="9.7679942846298218e-02" nType="-99"/>
            <Node pos="r" depth="3" NCoef="0" IVar="-1" Cut="0.0000000000000000e+00" cType="1" res="-8.4060847759246826e-02" rms="2.9219996929168701e-01" purity="1.8240770697593689e-01" nType="-99"/>
          </Node>
          <Node pos="r" depth="2" NCoef="0" IVar="0" Cut="1.8122324218750000e+03" cType="1" res="2.6046877726912498e-02" rms="2.9221767187118530e-01" purity="4.6084585785865784e-01" nType="0">
            <Node pos="l" depth="3" NCoef="0" IVar="-1" Cut="0.0000000000000000e+00" cType="1" res="-6.4012043178081512e-02" rms="1.7614625394344330e-01" purity="3.2734390348196030e-02" nType="-99"/>
            <Node pos="r" depth="3" NCoef="0" IVar="-1" Cut="0.0000000000000000e+00" cType="1" res="5.0348874181509018e-02" rms="3.3987909555435181e-01" purity="7.4358284473419189e-01" nType="-99"/>
          </Node>
        </Node>
        <Node pos="r" depth="1" NCoef="0" IVar="0" Cut="3.0133120117187500e+03" cType="1" res="4.6254567801952362e-02" rms="1.5362995862960815e-01" purity="9.6995204687118530e-01" nType="0">
          <Node pos="l" depth="2" NCoef="0" IVar="1" Cut="6.0816824436187744e-02" cType="1" res="2.0449783653020859e-02" rms="2.4172458052635193e-01" purity="9.2066627740859985e-01" nType="0">
            <Node pos="l" depth="3" NCoef="0" IVar="-1" Cut="0.0000000000000000e+00" cType="1" res="-2.9799291864037514e-02" rms="3.7939247488975525e-01" purity="7.7415806055068970e-01" nType="-99"/>
            <Node pos="r" depth="3" NCoef="0" IVar="-1" Cut="0.0000000000000000e+00" cType="1" res="6.2304690480232239e-02" rms="1.6808891296386719e-01" purity="9.6956402063369751e-01" nType="-99"/>
          </Node>
          <Node pos="r" depth="2" NCoef="0" IVar="7" Cut="-6.5560406446456909e-01" cType="1" res="5.5242702364921570e-02" rms="1.0563236474990845e-01" purity="9.8711889982223511e-01" nType="0">
            <Node pos="l" depth="3" NCoef="0" IVar="-1" Cut="0.0000000000000000e+00" cType="1" res="5.8008532971143723e-02" rms="1.6193360090255737e-01" purity="9.6456891298294067e-01" nType="-99"/>
            <Node pos="r" depth="3" NCoef="0" IVar="-1" Cut="0.0000000000000000e+00" cType="1" res="9.3167372047901154e-02" rms="9.6211954951286316e-02" purity="9.8990380764007568e-01" nType="-99"/>
          </Node>
        </Node>
      </Node>
    </BinaryTree>
    <BinaryTree type="DecisionTree" boostWeight="1.0000000000000000e+00" itree="13">
      <Node pos="s" depth="0" NCoef="0" IVar="0" Cut="1.8930559082031250e+03" cType="1" res="2.4809769820421934e-03" rms="1.9881965219974518e-01" purity="5.0757247209548950e-01" nType="0">
        <Node pos="l" depth="1" NCoef="0" IVar="0" Cut="1.7521730957031250e+03" cType="1" res="-4.4762384146451950e-02" rms="1.2245801091194153e-01" purity="1.6074161976575851e-02" nType="0">
          <Node pos="l" depth="2" NCoef="0" IVar="4" Cut="2.1755630493164062e+02" cType="1" res="-4.7117192298173904e-02" rms="9.0059824287891388e-02" purity="8.2307914271950722e-03" nType="0">
            <Node pos="l" depth="3" NCoef="0" IVar="-1" Cut="0.0000000000000000e+00" cType="1" res="-9.3798421323299408e-02" rms="7.8870311379432678e-02" purity="6.2609091401100159e-03" nType="-99"/>
            <Node pos="r" depth="3" NCoef="0" IVar="-1" Cut="0.0000000000000000e+00" cType="1" res="-6.9743514060974121e-02" rms="1.4050728082656860e-01" purity="2.0437389612197876e-02" nType="-99"/>
          </Node>
          <Node pos="r" depth="2" NCoef="0" IVar="1" Cut="4.5953616499900818e-02" cType="1" res="-3.3071782439947128e-02" rms="2.2139050066471100e-01" purity="5.5013090372085571e-02" nType="0">
            <Node pos="l" depth="3" NCoef="0" IVar="-1" Cut="0.0000000000000000e+00" cType="1" res="-7.6243072748184204e-02" rms="1.3884063065052032e-01" purity="1.9849086180329323e-02" nType="-99"/>
            <Node pos="r" depth="3" NCoef="0" IVar="-1" Cut="0.0000000000000000e+00" cType="1" res="-9.9748792126774788e-03" rms="3.0598694086074829e-01" purity="1.0878715664148331e-01" nType="-99"/>
          </Node>
        </Node>
        <Node pos="r" depth="1" NCoef="0" IVar="4" Cut="1.5871694946289062e+02" cType="1" res="3.3627551048994064e-02" rms="2.3078553378582001e-01" purity="8.3160728216171265e-01" nType="0">
          <Node pos="l" depth="2" NCoef="0" IVar="-1" Cut="0.0000000000000000e+00" cType="1" res="-5.4241340607404709e-02" rms="3.1081092357635498e-01" purity="1.8171437084674835e-01" nType="-99"/>
          <Node pos="r" depth="2" NCoef="0" IVar="1" Cut="2.1772729232907295e-02" cType="1" res="3.9712682366371155e-02" rms="2.2395625710487366e-01" purity="8.6759102344512939e-01" nType="0">
            <Node pos="l" depth="3" NCoef="0" IVar="-1" Cut="0.0000000000000000e+00" cType="1" res="-1.9541462883353233e-02" rms="3.4530073404312134e-01" purity="4.5071572065353394e-01" nType="-99"/>
            <Node pos="r" depth="3" NCoef="0" IVar="-1" Cut="0.0000000000000000e+00" cType="1" res="5.6198019534349442e-02" rms="2.1235370635986328e-01" purity="8.9600020647048950e-01" nType="-99"/>
          </Node>
        </Node>
      </Node>
    </BinaryTree>
    <BinaryTree type="DecisionTree" boostWeight="1.0000000000000000e+00" itree="14">
      <Node pos="s" depth="0" NCoef="0" IVar="5" Cut="1.5546881103515625e+02" cType="1" res="7.1223539998754859e-04" rms="2.0301018655300140e-01" purity="4.9835449457168579e-01" nType="0">
        <Node pos="l" depth="1" NCoef="0" IVar="6" Cut="8.9747314453125000e+01" cType="1" res="-3.3832646906375885e-02" rms="1.9127148389816284e-01" purity="1.0649922490119934e-01" nType="0">
          <Node pos="l" depth="2" NCoef="0" IVar="2" Cut="7.1539556884765625e+02" cType="1" res="-4.6060882508754730e-02" rms="1.6079097986221313e-01" purity="5.2524205297231674e-02" nType="0">
            <Node pos="l" depth="3" NCoef="0" IVar="-1" Cut="0.0000000000000000e+00" cType="1" res="-7.3680736124515533e-02" rms="1.3195337355136871e-01" purity="2.8132243081927299e-02" nType="-99"/>
            <Node pos="r" depth="3" NCoef="0" IVar="-1" Cut="0.0000000000000000e+00" cType="1" res="-6.8040378391742706e-02" rms="2.9896670579910278e-01" purity="2.4248673021793365e-01" nType="-99"/>
          </Node>
          <Node pos="r" depth="2" NCoef="0" IVar="0" Cut="1.8375169677734375e+03" cType="1" res="-1.6567446291446686e-02" rms="2.2633352875709534e-01" purity="1.8270727992057800e-01" nType="0">
            <Node pos="l" depth="3" NCoef="0" IVar="-1" Cut="0.0000000000000000e+00" cType="1" res="-7.4986182153224945e-02" rms="1.1730642616748810e-01" purity="1.4331237412989140e-02" nType="-99"/>
            <Node pos="r" depth="3" NCoef="0" IVar="-1" Cut="0.0000000000000000e+00" cType="1" res="1.4112116768956184e-02" rms="3.4896001219749451e-01" purity="5.0853830575942993e-01" nType="-99"/>
          </Node>
        </Node>
        <Node pos="r" depth="1" NCoef="0" IVar="0" Cut="1.8887481689453125e+03" cType="1" res="2.7425365522503853e-02" rms="2.0773971080780029e-01" purity="8.0137127637863159e-01" nType="0">
          <Node pos="l" depth="2" NCoef="0" IVar="0" Cut="1.6792425537109375e+03" cType="1" res="-2.4315506219863892e-02" rms="1.9741155207157135e-01" purity="4.3350569903850555e-02" nType="0">
            <Node pos="l" depth="3" NCoef="0" IVar="-1" Cut="0.0000000000000000e+00" cType="1" res="-8.5766896605491638e-02" rms="9.6388243138790131e-02" purity="9.5027964562177658e-03" nType="-99"/>
            <Node pos="r" depth="3" NCoef="0" IVar="-1" Cut="0.0000000000000000e+00" cType="1" res="-3.3291648142039776e-03" rms="2.7583900094032288e-01" purity="8.6632363498210907e-02" nType="-99"/>
          </Node>
          <Node pos="r" depth="2" NCoef="0" IVar="2" Cut="4.2291748046875000e+02" cType="1" res="3.5050995647907257e-02" rms="2.0813408493995667e-01" purity="9.1308933496475220e-01" nType="0">
            <Node pos="l" depth="3" NCoef="0" IVar="-1" Cut="0.0000000000000000e+00" cType="1" res="6.2096934765577316e-02" rms="3.5824990272521973e-01" purity="7.3845881223678589e-01" nType="-99"/>
            <Node pos="r" depth="3" NCoef="0" IVar="-1" Cut="0.0000000000000000e+00" cType="1" res="4.7081120312213898e-02" rms="1.9456158578395844e-01" purity="9.2391878366470337e-01" nType="-99"/>
          </Node>
        </Node>
      </Node>
    </BinaryTree>
    <BinaryTree type="DecisionTree" boostWeight="1.0000000000000000e+00" itree="15">
      <Node pos="s" depth="0" NCoef="0" IVar="6" Cut="1.0973118591308594e+02" cType="1" res="1.3688904000446200e-03" rms="2.0048919320106506e-01" purity="5.0693750381469727e-01" nType="0">
        <Node pos="l" depth="1" NCoef="0" IVar="4" Cut="3.2438372802734375e+02" cType="1" res="-2.8443379327654839e-02" rms="1.9696484506130219e-01" purity="1.3720095157623291e-01" nType="0">
          <Node pos="l" depth="2" NCoef="0" IVar="2" Cut="6.8723114013671875e+02" cType="1" res="-3.2761931419372559e-02" rms="1.8975377082824707e-01" purity="8.1018902361392975e-02" nType="0">
            <Node pos="l" depth="3" NCoef="0" IVar="-1" Cut="0.0000000000000000e+00" cType="1" res="-4.8844184726476669e-02" rms="1.6396188735961914e-01" purity="5.1401991397142410e-02" nType="-99"/>
            <Node pos="r" depth="3" NCoef="0" IVar="-1" Cut="0.0000000000000000e+00" cType="1" res="-6.6910549998283386e-02" rms="3.1428331136703491e-01" purity="2.9382109642028809e-01" nType="-99"/>
          </Node>
          <Node pos="r" depth="2" NCoef="0" IVar="-1" Cut="0.0000000000000000e+00" cType="1" res="2.3379296064376831e-02" rms="2.6329824328422546e-01" purity="8.1081247329711914e-01" nType="-99"/>
        </Node>
        <Node pos="r" depth="1" NCoef="0" IVar="0" Cut="1.8930911865234375e+03" cType="1" res="2.4020761251449585e-02" rms="2.0017950236797333e-01" purity="7.8786963224411011e-01" nType="0">
          <Node pos="l" depth="2" NCoef="0" IVar="0" Cut="1.7052353515625000e+03" cType="1" res="-1.8544794991612434e-02" rms="1.9579616189002991e-01" purity="4.3498799204826355e-02" nType="0">
            <Node pos="l" depth="3" NCoef="0" IVar="-1" Cut="0.0000000000000000e+00" cType="1" res="-7.1812875568866730e-02" rms="1.1743951588869095e-01" purity="1.4063505455851555e-02" nType="-99"/>
            <Node pos="r" depth="3" NCoef="0" IVar="-1" Cut="0.0000000000000000e+00" cType="1" res="4.0200995281338692e-03" rms="2.8656935691833496e-01" purity="9.6898697316646576e-02" nType="-99"/>
          </Node>
          <Node pos="r" depth="2" NCoef="0" IVar="7" Cut="6.8279838562011719e-01" cType="1" res="3.1512226909399033e-02" rms="2.0000576972961426e-01" purity="9.1887760162353516e-01" nType="0">
            <Node pos="l" depth="3" NCoef="0" IVar="-1" Cut="0.0000000000000000e+00" cType="1" res="5.6084681302309036e-02" rms="1.9009494781494141e-01" purity="9.3344724178314209e-01" nType="-99"/>
            <Node pos="r" depth="3" NCoef="0" IVar="-1" Cut="0.0000000000000000e+00" cType="1" res="1.7390378052368760e-03" rms="2.5156000256538391e-01" purity="8.2719159126281738e-01" nType="-99"/>
          </Node>
        </Node>
      </Node>
    </BinaryTree>
    <BinaryTree type="DecisionTree" boostWeight="1.0000000000000000e+00" itree="16">
      <Node pos="s" depth="0" NCoef="0" IVar="0" Cut="2.7313735351562500e+03" cType="1" res="-4.7060899669304490e-04" rms="1.9726783037185669e-01" purity="4.9299630522727966e-01" nType="0">
        <Node pos="l" depth="1" NCoef="0" IVar="1" Cut="7.5700953602790833e-02" cType="1" res="-2.0168954506516457e-02" rms="2.2703641653060913e-01" purity="1.8547600507736206e-01" nType="0">
          <Node pos="l" depth="2" NCoef="0" IVar="2" Cut="6.7563366699218750e+02" cType="1" res="-3.1513713300228119e-02" rms="2.0564302802085876e-01" purity="9.3821913003921509e-02" nType="0">
            <Node pos="l" depth="3" NCoef="0" IVar="-1" Cut="0.0000000000000000e+00" cType="1" res="-4.3274242430925369e-02" rms="1.9058135151863098e-01" purity="8.2517765462398529e-02" nType="-99"/>
            <Node pos="r" depth="3" NCoef="0" IVar="-1" Cut="0.0000000000000000e+00" cType="1" res="-6.9188788533210754e-02" rms="2.9292145371437073e-01" purity="1.8120399117469788e-01" nType="-99"/>
          </Node>
          <Node pos="r" depth="2" NCoef="0" IVar="0" Cut="2.0340223388671875e+03" cType="1" res="7.0491302758455276e-03" rms="2.6963654160499573e-01" purity="4.0537041425704956e-01" nType="0">
            <Node pos="l" depth="3" NCoef="0" IVar="-1" Cut="0.0000000000000000e+00" cType="1" res="-2.4537058547139168e-02" rms="2.2899757325649261e-01" purity="6.7572347819805145e-02" nType="-99"/>
            <Node pos="r" depth="3" NCoef="0" IVar="-1" Cut="0.0000000000000000e+00" cType="1" res="3.4320399165153503e-02" rms="3.1344178318977356e-01" purity="8.6102259159088135e-01" nType="-99"/>
          </Node>
        </Node>
        <Node pos="r" depth="1" NCoef="0" IVar="7" Cut="-8.3432197570800781e-01" cType="1" res="3.0657714232802391e-02" rms="1.3180436193943024e-01" purity="9.7895538806915283e-01" nType="0">
          <Node pos="l" depth="2" NCoef="0" IVar="-1" Cut="0.0000000000000000e+00" cType="1" res="-2.2198243532329798e-03" rms="2.1379403769969940e-01" purity="9.3504309654235840e-01" nType="-99"/>
          <Node pos="r" depth="2" NCoef="0" IVar="1" Cut="4.0683556348085403e-02" cType="1" res="3.3221010118722916e-02" rms="1.2249317765235901e-01" purity="9.8248809576034546e-01" nType="0">
            <Node pos="l" depth="3" NCoef="0" IVar="-1" Cut="0.0000000000000000e+00" cType="1" res="5.7457994669675827e-02" rms="2.2912417352199554e-01" purity="9.2841631174087524e-01" nType="-99"/>
            <Node pos="r" depth="3" NCoef="0" IVar="-1" Cut="0.0000000000000000e+00" cType="1" res="7.7795527875423431e-02" rms="1.0128632932901382e-01" purity="9.8922896385192871e-01" nType="-99"/>
          </Node>
        </Node>
      </Node>
    </BinaryTree>
    <BinaryTree type="DecisionTree" boostWeight="1.0000000000000000e+00" itree="17">
      <Node pos="s" depth="0" NCoef="0" IVar="1" Cut="4.2836129665374756e-02" cType="1" res="-1.0533442255109549e-03" rms="1.9774563610553741e-01" purity="4.9484169483184814e-01" nType="0">
        <Node pos="l" depth="1" NCoef="0" IVar="0" Cut="2.8662016601562500e+03" cType="1" res="-2.6894016191363335e-02" rms="1.9361834228038788e-01" purity="1.7370735108852386e-01" nType="0">
          <Node pos="l" depth="2" NCoef="0" IVar="0" Cut="2.1679379882812500e+03" cType="1" res="-3.3005181699991226e-02" rms="1.8250900506973267e-01" purity="6.3576407730579376e-02" nType="0">
            <Node pos="l" depth="3" NCoef="0" IVar="-1" Cut="0.0000000000000000e+00" cType="1" res="-6.4975626766681671e-02" rms="1.2141498923301697e-01" purity="1.6997242346405983e-02" nType="-99"/>
            <Node pos="r" depth="3" NCoef="0" IVar="-1" Cut="0.0000000000000000e+00" cType="1" res="-4.8000819981098175e-02" rms="4.1407936811447144e-01" purity="4.1881906986236572e-01" nType="-99"/>
          </Node>
          <Node pos="r" depth="2" NCoef="0" IVar="-1" Cut="0.0000000000000000e+00" cType="1" res="1.8142893910408020e-02" rms="2.5245559215545654e-01" purity="9.1692203283309937e-01" nType="-99"/>
        </Node>
        <Node pos="r" depth="1" NCoef="0" IVar="0" Cut="1.6663681640625000e+03" cType="1" res="1.3544513843953609e-02" rms="1.9855859875679016e-01" purity="6.7625629901885986e-01" nType="0">
          <Node pos="l" depth="2" NCoef="0" IVar="0" Cut="1.5648889160156250e+03" cType="1" res="-2.4558447301387787e-02" rms="1.0745616257190704e-01" purity="1.1739046312868595e-02" nType="0">
            <Node pos="l" depth="3" NCoef="0" IVar="-1" Cut="0.0000000000000000e+00" cType="1" res="-8.9152567088603973e-02" rms="7.0899561047554016e-02" purity="5.0371587276458740e-03" nType="-99"/>
            <Node pos="r" depth="3" NCoef="0" IVar="-1" Cut="0.0000000000000000e+00" cType="1" res="-2.7770221233367920e-02" rms="1.6293789446353912e-01" purity="2.7469428256154060e-02" nType="-99"/>
          </Node>
          <Node pos="r" depth="2" NCoef="0" IVar="6" Cut="8.1428604125976562e+01" cType="1" res="2.2327926009893417e-02" rms="2.1316713094711304e-01" purity="8.2943928241729736e-01" nType="0">
            <Node pos="l" depth="3" NCoef="0" IVar="-1" Cut="0.0000000000000000e+00" cType="1" res="-1.3636005111038685e-02" rms="2.8644686937332153e-01" purity="3.3626061677932739e-01" nType="-99"/>
            <Node pos="r" depth="3" NCoef="0" IVar="-1" Cut="0.0000000000000000e+00" cType="1" res="4.2584303766489029e-02" rms="2.0656959712505341e-01" purity="8.6540466547012329e-01" nType="-99"/>
          </Node>
        </Node>
      </Node>
    </BinaryTree>
    <BinaryTree type="DecisionTree" boostWeight="1.0000000000000000e+00" itree="18">
      <Node pos="s" depth="0" NCoef="0" IVar="5" Cut="1.8033215332031250e+02" cType="1" res="-2.1758911316283047e-04" rms="1.9599519670009613e-01" purity="4.9570852518081665e-01" nType="0">
        <Node pos="l" depth="1" NCoef="0" IVar="2" Cut="6.8708654785156250e+02" cType="1" res="-1.6813240945339203e-02" rms="2.0415125787258148e-01" purity="1.5340259671211243e-01" nType="0">
          <Node pos="l" depth="2" NCoef="0" IVar="0" Cut="2.0836445312500000e+03" cType="1" res="-1.0813814587891102e-02" rms="1.8103921413421631e-01" purity="9.5201671123504639e-02" nType="0">
            <Node pos="l" depth="3" NCoef="0" IVar="-1" Cut="0.0000000000000000e+00" cType="1" res="-4.5692685991525650e-02" rms="1.4900852739810944e-01" purity="2.6008538901805878e-02" nType="-99"/>
            <Node pos="r" depth="3" NCoef="0" IVar="-1" Cut="0.0000000000000000e+00" cType="1" res="4.0217459201812744e-02" rms="3.5258141160011292e-01" purity="7.2755920886993408e-01" nType="-99"/>
          </Node>
          <Node pos="r" depth="2" NCoef="0" IVar="0" Cut="2.9478623046875000e+03" cType="1" res="-5.0193481147289276e-02" rms="2.9982683062553406e-01" purity="4.7722709178924561e-01" nType="0">
            <Node pos="l" depth="3" NCoef="0" IVar="-1" Cut="0.0000000000000000e+00" cType="1" res="-6.6615059971809387e-02" rms="3.1322836875915527e-01" purity="2.6572608947753906e-01" nType="-99"/>
            <Node pos="r" depth="3" NCoef="0" IVar="-1" Cut="0.0000000000000000e+00" cType="1" res="4.7744712792336941e-03" rms="2.6238468289375305e-01" purity="9.0739196538925171e-01" nType="-99"/>
          </Node>
        </Node>
        <Node pos="r" depth="1" NCoef="0" IVar="7" Cut="9.8396831750869751e-01" cType="1" res="1.8582029268145561e-02" rms="1.8453091382980347e-01" purity="8.8347393274307251e-01" nType="0">
          <Node pos="l" depth="2" NCoef="0" IVar="7" Cut="-9.0270870923995972e-01" cType="1" res="2.1363425999879837e-02" rms="1.7671827971935272e-01" purity="9.0577328205108643e-01" nType="0">
            <Node pos="l" depth="3" NCoef="0" IVar="-1" Cut="0.0000000000000000e+00" cType="1" res="-1.0642846114933491e-02" rms="2.4231146275997162e-01" purity="7.1106153726577759e-01" nType="-99"/>
            <Node pos="r" depth="3" NCoef="0" IVar="-1" Cut="0.0000000000000000e+00" cType="1" res="5.0559025257825851e-02" rms="1.6871838271617889e-01" purity="9.2470312118530273e-01" nType="-99"/>
          </Node>
          <Node pos="r" depth="2" NCoef="0" IVar="-1" Cut="0.0000000000000000e+00" cType="1" res="-2.3240499198436737e-02" rms="2.6287201046943665e-01" purity="5.9556066989898682e-01" nType="-99"/>
        </Node>
      </Node>
    </BinaryTree>
    <BinaryTree type="DecisionTree" boostWeight="1.0000000000000000e+00" itree="19">
      <Node pos="s" depth="0" NCoef="0" IVar="1" Cut="4.3455436825752258e-02" cType="1" res="9.8385638557374477e-04" rms="1.9929885864257812e-01" purity="5.0208449363708496e-01" nType="0">
        <Node pos="l" depth="1" NCoef="0" IVar="0" Cut="3.3184582519531250e+03" cType="1" res="-1.9403958693146706e-02" rms="1.9125182926654816e-01" purity="1.7524364590644836e-01" nType="0">
          <Node pos="l" depth="2" NCoef="0" IVar="2" Cut="7.5732769775390625e+02" cType="1" res="-2.4224374443292618e-02" rms="1.9249816238880157e-01" purity="1.1292906105518341e-01" nType="0">
            <Node pos="l" depth="3" NCoef="0" IVar="-1" Cut="0.0000000000000000e+00" cType="1" res="-4.0176104754209518e-02" rms="1.7317189276218414e-01" purity="8.4926202893257141e-02" nType="-99"/>
            <Node pos="r" depth="3" NCoef="0" IVar="-1" Cut="0.0000000000000000e+00" cType="1" res="-5.7843245565891266e-02" rms="3.0877831578254700e-01" purity="3.5096004605293274e-01" nType="-99"/>
          </Node>
          <Node pos="r" depth="2" NCoef="0" IVar="-1" Cut="0.0000000000000000e+00" cType="1" res="6.4765237271785736e-02" rms="1.6265398263931274e-01" purity="9.6685940027236938e-01" nType="-99"/>
        </Node>
        <Node pos="r" depth="1" NCoef="0" IVar="0" Cut="1.6458494873046875e+03" cType="1" res="1.2810033746063709e-02" rms="2.0288437604904175e-01" purity="6.9167214632034302e-01" nType="0">
          <Node pos="l" depth="2" NCoef="0" IVar="0" Cut="1.5521821289062500e+03" cType="1" res="-1.9225437194108963e-02" rms="9.8993338644504547e-02" purity="9.9874204024672508e-03" nType="0">
            <Node pos="l" depth="3" NCoef="0" IVar="-1" Cut="0.0000000000000000e+00" cType="1" res="-8.7473087012767792e-02" rms="6.4313657581806183e-02" purity="4.1514229960739613e-03" nType="-99"/>
            <Node pos="r" depth="3" NCoef="0" IVar="-1" Cut="0.0000000000000000e+00" cType="1" res="-3.1981673091650009e-02" rms="1.4735244214534760e-01" purity="2.2391764447093010e-02" nType="-99"/>
          </Node>
          <Node pos="r" depth="2" NCoef="0" IVar="2" Cut="4.2492333984375000e+02" cType="1" res="1.9231667742133141e-02" rms="2.1725980937480927e-01" purity="8.2831847667694092e-01" nType="0">
            <Node pos="l" depth="3" NCoef="0" IVar="-1" Cut="0.0000000000000000e+00" cType="1" res="5.6083783507347107e-02" rms="3.2840844988822937e-01" purity="4.7223389148712158e-01" nType="-99"/>
            <Node pos="r" depth="3" NCoef="0" IVar="-1" Cut="0.0000000000000000e+00" cType="1" res="2.8921810910105705e-02" rms="2.0026947557926178e-01" purity="8.6890864372253418e-01" nType="-99"/>
          </Node>
        </Node>
      </Node>
    </BinaryTree>
    <BinaryTree type="DecisionTree" boostWeight="1.0000000000000000e+00" itree="20">
      <Node pos="s" depth="0" NCoef="0" IVar="0" Cut="2.8629724121093750e+03" cType="1" res="-1.2299764202907681e-03" rms="1.9441467523574829e-01" purity="4.9891877174377441e-01" nType="0">
        <Node pos="l" depth="1" NCoef="0" IVar="2" Cut="7.1238311767578125e+02" cType="1" res="-1.2737838551402092e-02" rms="2.2449004650115967e-01" purity="2.2912184894084930e-01" nType="0">
          <Node pos="l" depth="2" NCoef="0" IVar="1" Cut="1.6103605926036835e-01" cType="1" res="-8.5653495043516159e-03" rms="2.1490617096424103e-01" purity="2.1706752479076385e-01" nType="0">
            <Node pos="l" depth="3" NCoef="0" IVar="-1" Cut="0.0000000000000000e+00" cType="1" res="-2.2003756836056709e-02" rms="2.1215014159679413e-01" purity="1.7571741342544556e-01" nType="-99"/>
            <Node pos="r" depth="3" NCoef="0" IVar="-1" Cut="0.0000000000000000e+00" cType="1" res="4.3511472642421722e-02" rms="2.3764443397521973e-01" purity="6.3857847452163696e-01" nType="-99"/>
          </Node>
          <Node pos="r" depth="2" NCoef="0" IVar="0" Cut="2.4232490234375000e+03" cType="1" res="-5.9101037681102753e-02" rms="3.0796948075294495e-01" purity="3.6306503415107727e-01" nType="0">
            <Node pos="l" depth="3" NCoef="0" IVar="-1" Cut="0.0000000000000000e+00" cType="1" res="-7.6650030910968781e-02" rms="2.3213556408882141e-01" purity="7.5830087065696716e-02" nType="-99"/>
            <Node pos="r" depth="3" NCoef="0" IVar="-1" Cut="0.0000000000000000e+00" cType="1" res="-4.0033217519521713e-02" rms="3.7357816100120544e-01" purity="6.7789220809936523e-01" nType="-99"/>
          </Node>
        </Node>
        <Node pos="r" depth="1" NCoef="0" IVar="4" Cut="2.6200891113281250e+02" cType="1" res="1.9399639219045639e-02" rms="1.2061902135610580e-01" purity="9.8257136344909668e-01" nType="0">
          <Node pos="l" depth="2" NCoef="0" IVar="-1" Cut="0.0000000000000000e+00" cType="1" res="-6.4018424600362778e-03" rms="2.4088418483734131e-01" purity="9.1446703672409058e-01" nType="-99"/>
          <Node pos="r" depth="2" NCoef="0" IVar="1" Cut="4.0147416293621063e-02" cType="1" res="2.1780181676149368e-02" rms="1.0038959980010986e-01" purity="9.8947846889495850e-01" nType="0">
            <Node pos="l" depth="3" NCoef="0" IVar="-1" Cut="0.0000000000000000e+00" cType="1" res="5.4542187601327896e-02" rms="1.9190829992294312e-01" purity="9.5954942703247070e-01" nType="-99"/>
            <Node pos="r" depth="3" NCoef="0" IVar="-1" Cut="0.0000000000000000e+00" cType="1" res="7.6251186430454254e-02" rms="8.3732448518276215e-02" purity="9.9287950992584229e-01" nType="-99"/>
          </Node>
        </Node>
      </Node>
    </BinaryTree>
    <BinaryTree type="DecisionTree" boostWeight="1.0000000000000000e+00" itree="21">
      <Node pos="s" depth="0" NCoef="0" IVar="0" Cut="2.6218132324218750e+03" cType="1" res="1.4287764206528664e-03" rms="1.9570645689964294e-01" purity="5.0258052349090576e-01" nType="0">
        <Node pos="l" depth="1" NCoef="0" IVar="2" Cut="5.6990924072265625e+02" cType="1" res="-9.4072436913847923e-03" rms="2.2631047666072845e-01" purity="1.5842643380165100e-01" nType="0">
          <Node pos="l" depth="2" NCoef="0" IVar="0" Cut="1.8072647705078125e+03" cType="1" res="-2.2662114351987839e-03" rms="2.1338206529617310e-01" purity="1.4206866919994354e-01" nType="0">
            <Node pos="l" depth="3" NCoef="0" IVar="-1" Cut="0.0000000000000000e+00" cType="1" res="-4.6475388109683990e-02" rms="1.1955997347831726e-01" purity="1.5036105178296566e-02" nType="-99"/>
            <Node pos="r" depth="3" NCoef="0" IVar="-1" Cut="0.0000000000000000e+00" cType="1" res="1.9944194704294205e-02" rms="3.6018687486648560e-01" purity="4.8860636353492737e-01" nType="-99"/>
          </Node>
          <Node pos="r" depth="2" NCoef="0" IVar="10" Cut="4.0054041147232056e-01" cType="1" res="-3.2514721155166626e-02" rms="2.6251071691513062e-01" purity="2.1135810017585754e-01" nType="0">
            <Node pos="l" depth="3" NCoef="0" IVar="-1" Cut="0.0000000000000000e+00" cType="1" res="-5.4279401898384094e-02" rms="2.5718215107917786e-01" purity="2.0118053257465363e-01" nType="-99"/>
            <Node pos="r" depth="3" NCoef="0" IVar="-1" Cut="0.0000000000000000e+00" cType="1" res="-1.3344302773475647e-02" rms="2.6970803737640381e-01" purity="2.2818444669246674e-01" nType="-99"/>
          </Node>
        </Node>
        <Node pos="r" depth="1" NCoef="0" IVar="2" Cut="9.7991064453125000e+02" cType="1" res="1.6202282160520554e-02" rms="1.4252783358097076e-01" purity="9.7178989648818970e-01" nType="0">
          <Node pos="l" depth="2" NCoef="0" IVar="1" Cut="4.3800372630357742e-02" cType="1" res="2.0283667370676994e-02" rms="1.2671916186809540e-01" purity="9.8033446073532104e-01" nType="0">
            <Node pos="l" depth="3" NCoef="0" IVar="-1" Cut="0.0000000000000000e+00" cType="1" res="3.9473187178373337e-02" rms="2.5233760476112366e-01" purity="9.0836936235427856e-01" nType="-99"/>
            <Node pos="r" depth="3" NCoef="0" IVar="-1" Cut="0.0000000000000000e+00" cType="1" res="6.7099995911121368e-02" rms="9.9204763770103455e-02" purity="9.8967480659484863e-01" nType="-99"/>
          </Node>
          <Node pos="r" depth="2" NCoef="0" IVar="0" Cut="3.7405202636718750e+03" cType="1" res="-5.7311598211526871e-03" rms="2.0644067227840424e-01" purity="9.2587119340896606e-01" nType="0">
            <Node pos="l" depth="3" NCoef="0" IVar="-1" Cut="0.0000000000000000e+00" cType="1" res="-6.4651258289813995e-02" rms="2.8659006953239441e-01" purity="8.4379488229751587e-01" nType="-99"/>
            <Node pos="r" depth="3" NCoef="0" IVar="-1" Cut="0.0000000000000000e+00" cType="1" res="7.8761123120784760e-02" rms="9.6100591123104095e-02" purity="9.9075520038604736e-01" nType="-99"/>
          </Node>
        </Node>
      </Node>
    </BinaryTree>
    <BinaryTree type="DecisionTree" boostWeight="1.0000000000000000e+00" itree="22">
      <Node pos="s" depth="0" NCoef="0" IVar="0" Cut="2.8749724121093750e+03" cType="1" res="-5.5246462579816580e-04" rms="1.9999024271965027e-01" purity="5.0098997354507446e-01" nType="0">
        <Node pos="l" depth="1" NCoef="0" IVar="2" Cut="7.6938244628906250e+02" cType="1" res="-8.9096855372190475e-03" rms="2.3219746351242065e-01" purity="2.3602077364921570e-01" nType="0">
          <Node pos="l" depth="2" NCoef="0" IVar="7" Cut="-1.0345579385757446e+00" cType="1" res="-5.1120985299348831e-03" rms="2.2394877672195435e-01" purity="2.2772105038166046e-01" nType="0">
            <Node pos="l" depth="3" NCoef="0" IVar="-1" Cut="0.0000000000000000e+00" cType="1" res="-4.9754723906517029e-02" rms="1.9062323868274689e-01" purity="9.7562633454799652e-02" nType="-99"/>
            <Node pos="r" depth="3" NCoef="0" IVar="-1" Cut="0.0000000000000000e+00" cType="1" res="-2.8061103075742722e-03" rms="2.2957076132297516e-01" purity="2.5245893001556396e-01" nType="-99"/>
          </Node>
          <Node pos="r" depth="2" NCoef="0" IVar="-1" Cut="0.0000000000000000e+00" cType="1" res="-6.6723302006721497e-02" rms="3.3772802352905273e-01" purity="3.7862864136695862e-01" nType="-99"/>
        </Node>
        <Node pos="r" depth="1" NCoef="0" IVar="0" Cut="3.0505676269531250e+03" cType="1" res="1.4679611660540104e-02" rms="1.1944302171468735e-01" purity="9.8392933607101440e-01" nType="0">
          <Node pos="l" depth="2" NCoef="0" IVar="-1" Cut="0.0000000000000000e+00" cType="1" res="9.1617926955223083e-03" rms="1.9805292785167694e-01" purity="9.5541781187057495e-01" nType="-99"/>
          <Node pos="r" depth="2" NCoef="0" IVar="8" Cut="6.3857817649841309e-01" cType="1" res="1.6820315271615982e-02" rms="9.6996657550334930e-02" purity="9.8944699764251709e-01" nType="0">
            <Node pos="l" depth="3" NCoef="0" IVar="-1" Cut="0.0000000000000000e+00" cType="1" res="7.2637133300304413e-02" rms="9.0592339634895325e-02" purity="9.9110966920852661e-01" nType="-99"/>
            <Node pos="r" depth="3" NCoef="0" IVar="-1" Cut="0.0000000000000000e+00" cType="1" res="3.3724635839462280e-02" rms="1.2274401634931564e-01" purity="9.8150223493576050e-01" nType="-99"/>
          </Node>
        </Node>
      </Node>
    </BinaryTree>
    <BinaryTree type="DecisionTree" boostWeight="1.0000000000000000e+00" itree="23">
      <Node pos="s" depth="0" NCoef="0" IVar="0" Cut="1.6662838134765625e+03" cType="1" res="9.8284217528998852e-04" rms="1.9506180286407471e-01" purity="4.9943450093269348e-01" nType="0">
        <Node pos="l" depth="1" NCoef="0" IVar="0" Cut="1.6155589599609375e+03" cType="1" res="-1.5083490870893002e-02" rms="7.4436381459236145e-02" purity="5.6108944118022919e-03" nType="0">
          <Node pos="l" depth="2" NCoef="0" IVar="10" Cut="-6.6624480485916138e-01" cType="1" res="-1.7396772280335426e-02" rms="5.2696235477924347e-02" purity="2.7786898426711559e-03" nType="0">
            <Node pos="l" depth="3" NCoef="0" IVar="-1" Cut="0.0000000000000000e+00" cType="1" res="-7.6787367463111877e-02" rms="6.9913618266582489e-02" purity="4.9084448255598545e-03" nType="-99"/>
            <Node pos="r" depth="3" NCoef="0" IVar="-1" Cut="0.0000000000000000e+00" cType="1" res="-9.2830955982208252e-02" rms="4.3052520602941513e-02" purity="1.8510224763303995e-03" nType="-99"/>
          </Node>
          <Node pos="r" depth="2" NCoef="0" IVar="-1" Cut="0.0000000000000000e+00" cType="1" res="-7.1799913421273232e-03" rms="1.4618162810802460e-01" purity="2.2046970203518867e-02" nType="-99"/>
        </Node>
        <Node pos="r" depth="1" NCoef="0" IVar="6" Cut="7.9926879882812500e+01" cType="1" res="7.3691061697900295e-03" rms="2.2544971108436584e-01" purity="6.9572615623474121e-01" nType="0">
          <Node pos="l" depth="2" NCoef="0" IVar="5" Cut="8.6397712707519531e+01" cType="1" res="-2.1820506080985069e-02" rms="2.3986589908599854e-01" purity="1.8699637055397034e-01" nType="0">
            <Node pos="l" depth="3" NCoef="0" IVar="-1" Cut="0.0000000000000000e+00" cType="1" res="-7.5041353702545166e-02" rms="1.5982286632061005e-01" purity="5.8888252824544907e-02" nType="-99"/>
            <Node pos="r" depth="3" NCoef="0" IVar="-1" Cut="0.0000000000000000e+00" cType="1" res="-1.4728864654898643e-02" rms="2.6808625459671021e-01" purity="2.4567815661430359e-01" nType="-99"/>
          </Node>
          <Node pos="r" depth="2" NCoef="0" IVar="7" Cut="-1.1451084613800049e+00" cType="1" res="1.1254293844103813e-02" rms="2.2317306697368622e-01" purity="7.6343894004821777e-01" nType="0">
            <Node pos="l" depth="3" NCoef="0" IVar="-1" Cut="0.0000000000000000e+00" cType="1" res="-3.8112971931695938e-02" rms="2.7047637104988098e-01" purity="3.8230225443840027e-01" nType="-99"/>
            <Node pos="r" depth="3" NCoef="0" IVar="-1" Cut="0.0000000000000000e+00" cType="1" res="2.5444710627198219e-02" rms="2.1996669471263885e-01" purity="7.8508621454238892e-01" nType="-99"/>
          </Node>
        </Node>
      </Node>
    </BinaryTree>
    <BinaryTree type="DecisionTree" boostWeight="1.0000000000000000e+00" itree="24">
      <Node pos="s" depth="0" NCoef="0" IVar="4" Cut="2.9354791259765625e+02" cType="1" res="4.0109799010679126e-04" rms="1.9904175400733948e-01" purity="4.9899876117706299e-01" nType="0">
        <Node pos="l" depth="1" NCoef="0" IVar="2" Cut="6.5823034667968750e+02" cType="1" res="-6.0520498082041740e-03" rms="2.1924144029617310e-01" purity="2.1985509991645813e-01" nType="0">
          <Node pos="l" depth="2" NCoef="0" IVar="0" Cut="1.7676722412109375e+03" cType="1" res="-1.6677575185894966e-03" rms="2.0580282807350159e-01" purity="1.5036471188068390e-01" nType="0">
            <Node pos="l" depth="3" NCoef="0" IVar="-1" Cut="0.0000000000000000e+00" cType="1" res="-4.9816187471151352e-02" rms="1.0119916498661041e-01" purity="1.0546728968620300e-02" nType="-99"/>
            <Node pos="r" depth="3" NCoef="0" IVar="-1" Cut="0.0000000000000000e+00" cType="1" res="1.5371525660157204e-02" rms="3.2936447858810425e-01" purity="4.4017204642295837e-01" nType="-99"/>
          </Node>
          <Node pos="r" depth="2" NCoef="0" IVar="0" Cut="2.8936479492187500e+03" cType="1" res="-2.4770842865109444e-02" rms="2.6836884021759033e-01" purity="5.1654505729675293e-01" nType="0">
            <Node pos="l" depth="3" NCoef="0" IVar="-1" Cut="0.0000000000000000e+00" cType="1" res="-4.4183786958456039e-02" rms="2.9681664705276489e-01" purity="2.7794387936592102e-01" nType="-99"/>
            <Node pos="r" depth="3" NCoef="0" IVar="-1" Cut="0.0000000000000000e+00" cType="1" res="4.1355099529027939e-03" rms="2.0559486746788025e-01" purity="9.4142329692840576e-01" nType="-99"/>
          </Node>
        </Node>
        <Node pos="r" depth="1" NCoef="0" IVar="5" Cut="1.5719557189941406e+02" cType="1" res="1.0606978088617325e-02" rms="1.6150824725627899e-01" purity="9.4047421216964722e-01" nType="0">
          <Node pos="l" depth="2" NCoef="0" IVar="-1" Cut="0.0000000000000000e+00" cType="1" res="3.7588573992252350e-02" rms="2.9148423671722412e-01" purity="6.4695483446121216e-01" nType="-99"/>
          <Node pos="r" depth="2" NCoef="0" IVar="5" Cut="2.1526403808593750e+02" cType="1" res="8.4839360788464546e-03" rms="1.4575800299644470e-01" purity="9.6430099010467529e-01" nType="0">
            <Node pos="l" depth="3" NCoef="0" IVar="-1" Cut="0.0000000000000000e+00" cType="1" res="-3.1364072114229202e-02" rms="2.3886114358901978e-01" purity="8.8380241394042969e-01" nType="-99"/>
            <Node pos="r" depth="3" NCoef="0" IVar="-1" Cut="0.0000000000000000e+00" cType="1" res="4.6779699623584747e-02" rms="1.2247192859649658e-01" purity="9.7806161642074585e-01" nType="-99"/>
          </Node>
        </Node>
      </Node>
    </BinaryTree>
    <BinaryTree type="DecisionTree" boostWeight="1.0000000000000000e+00" itree="25">
      <Node pos="s" depth="0" NCoef="0" IVar="0" Cut="1.8945773925781250e+03" cType="1" res="1.1924734571948647e-03" rms="1.9390764832496643e-01" purity="5.0440031290054321e-01" nType="0">
        <Node pos="l" depth="1" NCoef="0" IVar="1" Cut="1.0568735748529434e-01" cType="1" res="-8.9237242937088013e-03" rms="1.2649349868297577e-01" purity="1.7138073220849037e-02" nType="0">
          <Node pos="l" depth="2" NCoef="0" IVar="11" Cut="-1.1990785598754883e+00" cType="1" res="-1.1078959330916405e-02" rms="1.0873718559741974e-01" purity="1.2338120490312576e-02" nType="0">
            <Node pos="l" depth="3" NCoef="0" IVar="-1" Cut="0.0000000000000000e+00" cType="1" res="-1.0270534083247185e-02" rms="1.3750672340393066e-01" purity="2.0661046728491783e-02" nType="-99"/>
            <Node pos="r" depth="3" NCoef="0" IVar="-1" Cut="0.0000000000000000e+00" cType="1" res="-5.9362046420574188e-02" rms="1.0003154724836349e-01" purity="1.0231940075755119e-02" nType="-99"/>
          </Node>
          <Node pos="r" depth="2" NCoef="0" IVar="-1" Cut="0.0000000000000000e+00" cType="1" res="2.0131060853600502e-02" rms="2.2159588336944580e-01" purity="5.5565729737281799e-02" nType="-99"/>
        </Node>
        <Node pos="r" depth="1" NCoef="0" IVar="2" Cut="4.4396762084960938e+02" cType="1" res="8.0339098349213600e-03" rms="2.2823593020439148e-01" purity="8.3392864465713501e-01" nType="0">
          <Node pos="l" depth="2" NCoef="0" IVar="-1" Cut="0.0000000000000000e+00" cType="1" res="3.3608946949243546e-02" rms="3.4623348712921143e-01" purity="6.9603121280670166e-01" nType="-99"/>
          <Node pos="r" depth="2" NCoef="0" IVar="7" Cut="9.4396734237670898e-01" cType="1" res="5.3148879669606686e-03" rms="2.1503536403179169e-01" purity="8.4564012289047241e-01" nType="0">
            <Node pos="l" depth="3" NCoef="0" IVar="-1" Cut="0.0000000000000000e+00" cType="1" res="1.5036295168101788e-02" rms="2.1024934947490692e-01" purity="8.6088436841964722e-01" nType="-99"/>
            <Node pos="r" depth="3" NCoef="0" IVar="-1" Cut="0.0000000000000000e+00" cType="1" res="-3.4164782613515854e-02" rms="2.6954120397567749e-01" purity="6.3987922668457031e-01" nType="-99"/>
          </Node>
        </Node>
      </Node>
    </BinaryTree>
    <BinaryTree type="DecisionTree" boostWeight="1.0000000000000000e+00" itree="26">
      <Node pos="s" depth="0" NCoef="0" IVar="1" Cut="1.0087789595127106e-01" cType="1" res="2.5587261188775301e-04" rms="1.9305108487606049e-01" purity="5.0336539745330811e-01" nType="0">
        <Node pos="l" depth="1" NCoef="0" IVar="7" Cut="7.3084074258804321e-01" cType="1" res="-5.2077835425734520e-03" rms="2.0464119315147400e-01" purity="3.4548324346542358e-01" nType="0">
          <Node pos="l" depth="2" NCoef="0" IVar="7" Cut="-1.1881376504898071e+00" cType="1" res="-1.0207744780927896e-03" rms="2.1032969653606415e-01" purity="3.9373534917831421e-01" nType="0">
            <Node pos="l" depth="3" NCoef="0" IVar="-1" Cut="0.0000000000000000e+00" cType="1" res="-6.5046310424804688e-02" rms="1.5809909999370575e-01" purity="1.0647936165332794e-01" nType="-99"/>
            <Node pos="r" depth="3" NCoef="0" IVar="-1" Cut="0.0000000000000000e+00" cType="1" res="6.9627151824533939e-03" rms="2.1907106041908264e-01" purity="4.5156908035278320e-01" nType="-99"/>
          </Node>
          <Node pos="r" depth="2" NCoef="0" IVar="10" Cut="-1.1943998336791992e+00" cType="1" res="-1.7551679164171219e-02" rms="1.8631877005100250e-01" purity="2.0322905480861664e-01" nType="0">
            <Node pos="l" depth="3" NCoef="0" IVar="-1" Cut="0.0000000000000000e+00" cType="1" res="-7.9453840851783752e-02" rms="2.1005535125732422e-01" purity="1.2625305354595184e-01" nType="-99"/>
            <Node pos="r" depth="3" NCoef="0" IVar="-1" Cut="0.0000000000000000e+00" cType="1" res="-2.7947552502155304e-02" rms="1.8065199255943298e-01" purity="2.1872790157794952e-01" nType="-99"/>
          </Node>
        </Node>
        <Node pos="r" depth="1" NCoef="0" IVar="4" Cut="1.8201034545898438e+02" cType="1" res="1.0941334068775177e-02" rms="1.6757564246654510e-01" purity="8.1214100122451782e-01" nType="0">
          <Node pos="l" depth="2" NCoef="0" IVar="-1" Cut="0.0000000000000000e+00" cType="1" res="-1.0739789344370365e-02" rms="1.9905166327953339e-01" purity="1.0965146869421005e-01" nType="-99"/>
          <Node pos="r" depth="2" NCoef="0" IVar="6" Cut="1.1918875122070312e+02" cType="1" res="1.2628177180886269e-02" rms="1.6382694244384766e-01" purity="8.8594496250152588e-01" nType="0">
            <Node pos="l" depth="3" NCoef="0" IVar="-1" Cut="0.0000000000000000e+00" cType="1" res="4.0499433875083923e-02" rms="2.5648307800292969e-01" purity="5.8584988117218018e-01" nType="-99"/>
            <Node pos="r" depth="3" NCoef="0" IVar="-1" Cut="0.0000000000000000e+00" cType="1" res="3.3600974828004837e-02" rms="1.3432826101779938e-01" purity="9.5328241586685181e-01" nType="-99"/>
          </Node>
        </Node>
      </Node>
    </BinaryTree>
    <BinaryTree type="DecisionTree" boostWeight="1.0000000000000000e+00" itree="27">
      <Node pos="s" depth="0" NCoef="0" IVar="6" Cut="1.2671463775634766e+02" cType="1" res="-1.9302270375192165e-03" rms="1.9683791697025299e-01" purity="5.0283795595169067e-01" nType="0">
        <Node pos="l" depth="1" NCoef="0" IVar="2" Cut="5.4383477783203125e+02" cType="1" res="-8.8440217077732086e-03" rms="2.0566220581531525e-01" purity="1.8679191172122955e-01" nType="0">
          <Node pos="l" depth="2" NCoef="0" IVar="0" Cut="1.8496273193359375e+03" cType="1" res="-1.4878318179398775e-03" rms="1.7183600366115570e-01" purity="7.0015527307987213e-02" nType="0">
            <Node pos="l" depth="3" NCoef="0" IVar="-1" Cut="0.0000000000000000e+00" cType="1" res="-3.2226502895355225e-02" rms="1.1234066635370255e-01" purity="1.3212707825005054e-02" nType="-99"/>
            <Node pos="r" depth="3" NCoef="0" IVar="-1" Cut="0.0000000000000000e+00" cType="1" res="2.1445745602250099e-02" rms="3.7074005603790283e-01" purity="4.3583157658576965e-01" nType="-99"/>
          </Node>
          <Node pos="r" depth="2" NCoef="0" IVar="6" Cut="1.0851073455810547e+02" cType="1" res="-2.0183015614748001e-02" rms="2.4853146076202393e-01" purity="3.6679366230964661e-01" nType="0">
            <Node pos="l" depth="3" NCoef="0" IVar="-1" Cut="0.0000000000000000e+00" cType="1" res="-3.9337992668151855e-02" rms="2.3316076397895813e-01" purity="2.7127537131309509e-01" nType="-99"/>
            <Node pos="r" depth="3" NCoef="0" IVar="-1" Cut="0.0000000000000000e+00" cType="1" res="2.7408477035351098e-04" rms="2.9878413677215576e-01" purity="7.2839754819869995e-01" nType="-99"/>
          </Node>
        </Node>
        <Node pos="r" depth="1" NCoef="0" IVar="0" Cut="2.6326120605468750e+03" cType="1" res="5.9453668072819710e-03" rms="1.8596455454826355e-01" purity="8.6285006999969482e-01" nType="0">
          <Node pos="l" depth="2" NCoef="0" IVar="2" Cut="5.4598236083984375e+02" cType="1" res="-6.8543269298970699e-03" rms="3.2693737745285034e-01" purity="4.8601377010345459e-01" nType="0">
            <Node pos="l" depth="3" NCoef="0" IVar="-1" Cut="0.0000000000000000e+00" cType="1" res="1.0026611387729645e-02" rms="3.0948424339294434e-01" purity="4.3395066261291504e-01" nType="-99"/>
            <Node pos="r" depth="3" NCoef="0" IVar="-1" Cut="0.0000000000000000e+00" cType="1" res="-4.5911457389593124e-02" rms="3.7010550498962402e-01" purity="6.4206790924072266e-01" nType="-99"/>
          </Node>
          <Node pos="r" depth="2" NCoef="0" IVar="2" Cut="9.1211968994140625e+02" cType="1" res="1.0232965461909771e-02" rms="1.0143463313579559e-01" purity="9.8908150196075439e-01" nType="0">
            <Node pos="l" depth="3" NCoef="0" IVar="-1" Cut="0.0000000000000000e+00" cType="1" res="5.9745755046606064e-02" rms="9.3275099992752075e-02" purity="9.9094915390014648e-01" nType="-99"/>
            <Node pos="r" depth="3" NCoef="0" IVar="-1" Cut="0.0000000000000000e+00" cType="1" res="1.7637277022004128e-02" rms="1.2819790840148926e-01" purity="9.8179268836975098e-01" nType="-99"/>
          </Node>
        </Node>
      </Node>
    </BinaryTree>
    <BinaryTree type="DecisionTree" boostWeight="1.0000000000000000e+00" itree="28">
      <Node pos="s" depth="0" NCoef="0" IVar="7" Cut="1.2603085041046143e+00" cType="1" res="-4.5619919546879828e-04" rms="1.9873890280723572e-01" purity="4.9531239271163940e-01" nType="0">
        <Node pos="l" depth="1" NCoef="0" IVar="5" Cut="1.1271971893310547e+02" cType="1" res="1.4918597880750895e-03" rms="2.0044857263565063e-01" purity="5.2692526578903198e-01" nType="0">
          <Node pos="l" depth="2" NCoef="0" IVar="5" Cut="9.8160835266113281e+01" cType="1" res="-9.6433265134692192e-03" rms="1.4900375902652740e-01" purity="4.5544214546680450e-02" nType="0">
            <Node pos="l" depth="3" NCoef="0" IVar="-1" Cut="0.0000000000000000e+00" cType="1" res="-5.0374437123537064e-02" rms="1.2993477284908295e-01" purity="3.3041968941688538e-02" nType="-99"/>
            <Node pos="r" depth="3" NCoef="0" IVar="-1" Cut="0.0000000000000000e+00" cType="1" res="-4.4570802710950375e-03" rms="1.7829544842243195e-01" purity="6.8314522504806519e-02" nType="-99"/>
          </Node>
          <Node pos="r" depth="2" NCoef="0" IVar="7" Cut="-1.1186611652374268e+00" cType="1" res="4.5688669197261333e-03" rms="2.1237622201442719e-01" purity="6.5994614362716675e-01" nType="0">
            <Node pos="l" depth="3" NCoef="0" IVar="-1" Cut="0.0000000000000000e+00" cType="1" res="-3.4600600600242615e-02" rms="2.3520182073116302e-01" purity="2.4014782905578613e-01" nType="-99"/>
            <Node pos="r" depth="3" NCoef="0" IVar="-1" Cut="0.0000000000000000e+00" cType="1" res="1.4228690415620804e-02" rms="2.1013310551643372e-01" purity="6.9710618257522583e-01" nType="-99"/>
          </Node>
        </Node>
        <Node pos="r" depth="1" NCoef="0" IVar="2" Cut="4.6066799926757812e+02" cType="1" res="-2.4297414347529411e-02" rms="1.7472785711288452e-01" purity="1.0842017829418182e-01" nType="0">
          <Node pos="l" depth="2" NCoef="0" IVar="-1" Cut="0.0000000000000000e+00" cType="1" res="-2.6747386902570724e-02" rms="1.5031602978706360e-01" purity="5.5498160421848297e-02" nType="-99"/>
          <Node pos="r" depth="2" NCoef="0" IVar="-1" Cut="0.0000000000000000e+00" cType="1" res="-9.8745927214622498e-02" rms="2.0019499957561493e-01" purity="1.7750790715217590e-01" nType="-99"/>
        </Node>
      </Node>
    </BinaryTree>
    <BinaryTree type="DecisionTree" boostWeight="1.0000000000000000e+00" itree="29">
      <Node pos="s" depth="0" NCoef="0" IVar="8" Cut="-1.1998240947723389e+00" cType="1" res="1.1761139612644911e-03" rms="1.9219438731670380e-01" purity="4.9535328149795532e-01" nType="0">
        <Node pos="l" depth="1" NCoef="0" IVar="4" Cut="2.4669560241699219e+02" cType="1" res="-1.6955688595771790e-02" rms="1.8327416479587555e-01" purity="1.7632293701171875e-01" nType="0">
          <Node pos="l" depth="2" NCoef="0" IVar="1" Cut="2.7999298647046089e-02" cType="1" res="-6.8341982550919056e-03" rms="1.5610527992248535e-01" purity="5.9477932751178741e-02" nType="0">
            <Node pos="l" depth="3" NCoef="0" IVar="-1" Cut="0.0000000000000000e+00" cType="1" res="-7.3142096400260925e-02" rms="9.8407626152038574e-02" purity="1.5403339639306068e-02" nType="-99"/>
            <Node pos="r" depth="3" NCoef="0" IVar="-1" Cut="0.0000000000000000e+00" cType="1" res="1.1770556680858135e-02" rms="2.0441801846027374e-01" purity="1.1248438805341721e-01" nType="-99"/>
          </Node>
          <Node pos="r" depth="2" NCoef="0" IVar="-1" Cut="0.0000000000000000e+00" cType="1" res="-7.5280338525772095e-02" rms="2.4725759029388428e-01" purity="5.4219710826873779e-01" nType="-99"/>
        </Node>
        <Node pos="r" depth="1" NCoef="0" IVar="0" Cut="1.6472971191406250e+03" cType="1" res="3.4001346211880445e-03" rms="1.9314302504062653e-01" purity="5.3448504209518433e-01" nType="0">
          <Node pos="l" depth="2" NCoef="0" IVar="0" Cut="1.6001527099609375e+03" cType="1" res="-7.2849043644964695e-03" rms="7.6906792819499969e-02" purity="6.0113463550806046e-03" nType="0">
            <Node pos="l" depth="3" NCoef="0" IVar="-1" Cut="0.0000000000000000e+00" cType="1" res="-6.9262519478797913e-02" rms="6.3123576343059540e-02" purity="4.0129930712282658e-03" nType="-99"/>
            <Node pos="r" depth="3" NCoef="0" IVar="-1" Cut="0.0000000000000000e+00" cType="1" res="4.2731920257210732e-03" rms="1.3080945611000061e-01" purity="1.7681458964943886e-02" nType="-99"/>
          </Node>
          <Node pos="r" depth="2" NCoef="0" IVar="7" Cut="-3.5620713233947754e-01" cType="1" res="6.9163395091891289e-03" rms="2.1813732385635376e-01" purity="7.0839387178421021e-01" nType="0">
            <Node pos="l" depth="3" NCoef="0" IVar="-1" Cut="0.0000000000000000e+00" cType="1" res="-7.0110857486724854e-03" rms="2.3131352663040161e-01" purity="6.2234425544738770e-01" nType="-99"/>
            <Node pos="r" depth="3" NCoef="0" IVar="-1" Cut="0.0000000000000000e+00" cType="1" res="2.4356581270694733e-02" rms="2.1187838912010193e-01" purity="7.4640727043151855e-01" nType="-99"/>
          </Node>
        </Node>
      </Node>
    </BinaryTree>
    <BinaryTree type="DecisionTree" boostWeight="1.0000000000000000e+00" itree="30">
      <Node pos="s" depth="0" NCoef="0" IVar="0" Cut="2.6364296875000000e+03" cType="1" res="-2.0271544344723225e-03" rms="1.9559542834758759e-01" purity="5.0025278329849243e-01" nType="0">
        <Node pos="l" depth="1" NCoef="0" IVar="5" Cut="1.8808432006835938e+02" cType="1" res="-8.1255352124571800e-03" rms="2.2782102227210999e-01" purity="1.5824829041957855e-01" nType="0">
          <Node pos="l" depth="2" NCoef="0" IVar="10" Cut="1.4664773941040039e+00" cType="1" res="-2.2646163124591112e-03" rms="1.9657421112060547e-01" purity="8.4511026740074158e-02" nType="0">
            <Node pos="l" depth="3" NCoef="0" IVar="-1" Cut="0.0000000000000000e+00" cType="1" res="-1.3324037194252014e-02" rms="1.9258198142051697e-01" purity="8.2543961703777313e-02" nType="-99"/>
            <Node pos="r" depth="3" NCoef="0" IVar="-1" Cut="0.0000000000000000e+00" cType="1" res="5.1681499928236008e-02" rms="2.1974736452102661e-01" purity="9.7440853714942932e-02" nType="-99"/>
          </Node>
          <Node pos="r" depth="2" NCoef="0" IVar="10" Cut="-6.6353082656860352e-01" cType="1" res="-4.0080498903989792e-02" rms="3.5070747137069702e-01" purity="5.6027942895889282e-01" nType="0">
            <Node pos="l" depth="3" NCoef="0" IVar="-1" Cut="0.0000000000000000e+00" cType="1" res="-7.9838372766971588e-02" rms="3.7137100100517273e-01" purity="5.0875246524810791e-01" nType="-99"/>
            <Node pos="r" depth="3" NCoef="0" IVar="-1" Cut="0.0000000000000000e+00" cType="1" res="-1.6425849869847298e-02" rms="3.3906337618827820e-01" purity="5.8216917514801025e-01" nType="-99"/>
          </Node>
        </Node>
        <Node pos="r" depth="1" NCoef="0" IVar="2" Cut="1.0983314208984375e+03" cType="1" res="6.4351791515946388e-03" rms="1.3856507837772369e-01" purity="9.7483050823211670e-01" nType="0">
          <Node pos="l" depth="2" NCoef="0" IVar="1" Cut="4.3297722935676575e-02" cType="1" res="8.6353896185755730e-03" rms="1.3037368655204773e-01" purity="9.7921460866928101e-01" nType="0">
            <Node pos="l" depth="3" NCoef="0" IVar="-1" Cut="0.0000000000000000e+00" cType="1" res="3.0197883024811745e-02" rms="2.4902130663394928e-01" purity="9.0976369380950928e-01" nType="-99"/>
            <Node pos="r" depth="3" NCoef="0" IVar="-1" Cut="0.0000000000000000e+00" cType="1" res="3.8733121007680893e-02" rms="1.0492366552352905e-01" purity="9.8840689659118652e-01" nType="-99"/>
          </Node>
          <Node pos="r" depth="2" NCoef="0" IVar="-1" Cut="0.0000000000000000e+00" cType="1" res="-4.7823425382375717e-02" rms="2.0784258842468262e-01" purity="9.2575669288635254e-01" nType="-99"/>
        </Node>
      </Node>
    </BinaryTree>
    <BinaryTree type="DecisionTree" boostWeight="1.0000000000000000e+00" itree="31">
      <Node pos="s" depth="0" NCoef="0" IVar="0" Cut="2.8837272949218750e+03" cType="1" res="-1.8081151647493243e-03" rms="1.9402229785919189e-01" purity="4.9495539069175720e-01" nType="0">
        <Node pos="l" depth="1" NCoef="0" IVar="2" Cut="5.6460876464843750e+02" cType="1" res="-6.7371372133493423e-03" rms="2.2576153278350830e-01" purity="2.3550146818161011e-01" nType="0">
          <Node pos="l" depth="2" NCoef="0" IVar="5" Cut="2.1871195983886719e+02" cType="1" res="-1.0127243585884571e-03" rms="2.0561231672763824e-01" purity="1.8154901266098022e-01" nType="0">
            <Node pos="l" depth="3" NCoef="0" IVar="-1" Cut="0.0000000000000000e+00" cType="1" res="6.6714594140648842e-03" rms="1.8986436724662781e-01" purity="1.0439417511224747e-01" nType="-99"/>
            <Node pos="r" depth="3" NCoef="0" IVar="-1" Cut="0.0000000000000000e+00" cType="1" res="-3.3837612718343735e-02" rms="2.9779252409934998e-01" purity="7.6614683866500854e-01" nType="-99"/>
          </Node>
          <Node pos="r" depth="2" NCoef="0" IVar="7" Cut="-7.6852560043334961e-01" cType="1" res="-2.1123828366398811e-02" rms="2.6930171251296997e-01" purity="3.7109571695327759e-01" nType="0">
            <Node pos="l" depth="3" NCoef="0" IVar="-1" Cut="0.0000000000000000e+00" cType="1" res="-7.9179808497428894e-02" rms="2.7782395482063293e-01" purity="1.8961958587169647e-01" nType="-99"/>
            <Node pos="r" depth="3" NCoef="0" IVar="-1" Cut="0.0000000000000000e+00" cType="1" res="-1.8064698204398155e-02" rms="2.6662692427635193e-01" purity="4.1354435682296753e-01" nType="-99"/>
          </Node>
        </Node>
        <Node pos="r" depth="1" NCoef="0" IVar="2" Cut="1.0496237792968750e+03" cType="1" res="7.5194672681391239e-03" rms="1.1089783906936646e-01" purity="9.8594081401824951e-01" nType="0">
          <Node pos="l" depth="2" NCoef="0" IVar="1" Cut="4.4116687029600143e-02" cType="1" res="9.3879811465740204e-03" rms="9.2157192528247833e-02" purity="9.9114984273910522e-01" nType="0">
            <Node pos="l" depth="3" NCoef="0" IVar="-1" Cut="0.0000000000000000e+00" cType="1" res="4.6891473233699799e-02" rms="1.7871977388858795e-01" purity="9.6512132883071899e-01" nType="-99"/>
            <Node pos="r" depth="3" NCoef="0" IVar="-1" Cut="0.0000000000000000e+00" cType="1" res="5.8789733797311783e-02" rms="7.5441457331180573e-02" purity="9.9423348903656006e-01" nType="-99"/>
          </Node>
          <Node pos="r" depth="2" NCoef="0" IVar="-1" Cut="0.0000000000000000e+00" cType="1" res="-1.6228118911385536e-02" rms="1.9821949303150177e-01" purity="9.4871366024017334e-01" nType="-99"/>
        </Node>
      </Node>
    </BinaryTree>
    <BinaryTree type="DecisionTree" boostWeight="1.0000000000000000e+00" itree="32">
      <Node pos="s" depth="0" NCoef="0" IVar="0" Cut="2.3891545410156250e+03" cType="1" res="-1.1450829915702343e-03" rms="1.9214929640293121e-01" purity="5.0018745660781860e-01" nType="0">
        <Node pos="l" depth="1" NCoef="0" IVar="2" Cut="5.7002832031250000e+02" cType="1" res="-7.7049434185028076e-03" rms="2.1061943471431732e-01" purity="9.1485776007175446e-02" nType="0">
          <Node pos="l" depth="2" NCoef="0" IVar="10" Cut="6.6678500175476074e-01" cType="1" res="-2.6521792169660330e-03" rms="2.0657828450202942e-01" purity="9.1985054314136505e-02" nType="0">
            <Node pos="l" depth="3" NCoef="0" IVar="-1" Cut="0.0000000000000000e+00" cType="1" res="-1.5765378251671791e-02" rms="2.0258553326129913e-01" purity="8.9240536093711853e-02" nType="-99"/>
            <Node pos="r" depth="3" NCoef="0" IVar="-1" Cut="0.0000000000000000e+00" cType="1" res="1.5114455483853817e-02" rms="2.1473769843578339e-01" purity="9.7973465919494629e-02" nType="-99"/>
          </Node>
          <Node pos="r" depth="2" NCoef="0" IVar="4" Cut="2.2019519042968750e+02" cType="1" res="-2.6671472936868668e-02" rms="2.2412844002246857e-01" purity="8.9611649513244629e-02" nType="0">
            <Node pos="l" depth="3" NCoef="0" IVar="-1" Cut="0.0000000000000000e+00" cType="1" res="-2.1357234567403793e-02" rms="1.8099176883697510e-01" purity="5.6277941912412643e-02" nType="-99"/>
            <Node pos="r" depth="3" NCoef="0" IVar="-1" Cut="0.0000000000000000e+00" cType="1" res="-6.4171031117439270e-02" rms="3.2425957918167114e-01" purity="2.0283010601997375e-01" nType="-99"/>
          </Node>
        </Node>
        <Node pos="r" depth="1" NCoef="0" IVar="5" Cut="1.5349378967285156e+02" cType="1" res="6.1413771472871304e-03" rms="1.6898895800113678e-01" purity="9.5415884256362915e-01" nType="0">
          <Node pos="l" depth="2" NCoef="0" IVar="-1" Cut="0.0000000000000000e+00" cType="1" res="2.2587561979889870e-02" rms="3.4306916594505310e-01" purity="7.3631268739700317e-01" nType="-99"/>
          <Node pos="r" depth="2" NCoef="0" IVar="7" Cut="7.1865630149841309e-01" cType="1" res="4.1039274074137211e-03" rms="1.4201548695564270e-01" purity="9.7454172372817993e-01" nType="0">
            <Node pos="l" depth="3" NCoef="0" IVar="-1" Cut="0.0000000000000000e+00" cType="1" res="2.6275012642145157e-02" rms="1.3172100484371185e-01" purity="9.7950077056884766e-01" nType="-99"/>
            <Node pos="r" depth="3" NCoef="0" IVar="-1" Cut="0.0000000000000000e+00" cType="1" res="-2.9595892876386642e-02" rms="2.0593185722827911e-01" purity="9.3494838476181030e-01" nType="-99"/>
          </Node>
        </Node>
      </Node>
    </BinaryTree>
    <BinaryTree type="DecisionTree" boostWeight="1.0000000000000000e+00" itree="33">
      <Node pos="s" depth="0" NCoef="0" IVar="6" Cut="8.1344909667968750e+01" cType="1" res="3.0872368370182812e-04" rms="1.9943581521511078e-01" purity="5.0431454181671143e-01" nType="0">
        <Node pos="l" depth="1" NCoef="0" IVar="2" Cut="6.5166802978515625e+02" cType="1" res="-9.4941677525639534e-03" rms="1.6111023724079132e-01" purity="7.9863488674163818e-02" nType="0">
          <Node pos="l" depth="2" NCoef="0" IVar="4" Cut="2.2085183715820312e+02" cType="1" res="-6.3943853601813316e-03" rms="1.3032151758670807e-01" purity="3.7256754934787750e-02" nType="0">
            <Node pos="l" depth="3" NCoef="0" IVar="-1" Cut="0.0000000000000000e+00" cType="1" res="-5.5948063731193542e-02" rms="9.6463486552238464e-02" purity="1.0142426006495953e-02" nType="-99"/>
            <Node pos="r" depth="3" NCoef="0" IVar="-1" Cut="0.0000000000000000e+00" cType="1" res="1.2784435413777828e-02" rms="2.2712172567844391e-01" purity="1.6022643446922302e-01" nType="-99"/>
          </Node>
          <Node pos="r" depth="2" NCoef="0" IVar="-1" Cut="0.0000000000000000e+00" cType="1" res="-3.4173600375652313e-02" rms="2.4994611740112305e-01" purity="2.5421023368835449e-01" nType="-99"/>
        </Node>
        <Node pos="r" depth="1" NCoef="0" IVar="2" Cut="5.2121887207031250e+02" cType="1" res="3.1089221592992544e-03" rms="2.0901317894458771e-01" purity="6.2555909156799316e-01" nType="0">
          <Node pos="l" depth="2" NCoef="0" IVar="0" Cut="1.6757181396484375e+03" cType="1" res="1.1844730004668236e-02" rms="2.2862085700035095e-01" purity="2.9725804924964905e-01" nType="0">
            <Node pos="l" depth="3" NCoef="0" IVar="-1" Cut="0.0000000000000000e+00" cType="1" res="-1.7183938995003700e-02" rms="1.0392076522111893e-01" purity="1.1034822091460228e-02" nType="-99"/>
            <Node pos="r" depth="3" NCoef="0" IVar="-1" Cut="0.0000000000000000e+00" cType="1" res="3.0094351619482040e-02" rms="2.9628092050552368e-01" purity="5.4459905624389648e-01" nType="-99"/>
          </Node>
          <Node pos="r" depth="2" NCoef="0" IVar="7" Cut="-7.5308418273925781e-01" cType="1" res="-2.3333588615059853e-03" rms="1.9561062753200531e-01" purity="8.3008587360382080e-01" nType="0">
            <Node pos="l" depth="3" NCoef="0" IVar="-1" Cut="0.0000000000000000e+00" cType="1" res="-6.0113593935966492e-02" rms="2.3718595504760742e-01" purity="6.2042772769927979e-01" nType="-99"/>
            <Node pos="r" depth="3" NCoef="0" IVar="-1" Cut="0.0000000000000000e+00" cType="1" res="3.8123498670756817e-03" rms="1.8907707929611206e-01" purity="8.5804456472396851e-01" nType="-99"/>
          </Node>
        </Node>
      </Node>
    </BinaryTree>
    <BinaryTree type="DecisionTree" boostWeight="1.0000000000000000e+00" itree="34">
      <Node pos="s" depth="0" NCoef="0" IVar="7" Cut="7.3084074258804321e-01" cType="1" res="2.3568967299070209e-04" rms="1.9478814303874969e-01" purity="5.0086033344268799e-01" nType="0">
        <Node pos="l" depth="1" NCoef="0" IVar="8" Cut="1.4671691656112671e+00" cType="1" res="3.0464990995824337e-03" rms="1.9434395432472229e-01" purity="5.5349302291870117e-01" nType="0">
          <Node pos="l" depth="2" NCoef="0" IVar="0" Cut="1.6465369873046875e+03" cType="1" res="4.4658635742962360e-03" rms="1.9376268982887268e-01" purity="5.8048850297927856e-01" nType="0">
            <Node pos="l" depth="3" NCoef="0" IVar="-1" Cut="0.0000000000000000e+00" cType="1" res="-4.8034437000751495e-02" rms="7.7928036451339722e-02" purity="6.1444528400897980e-03" nType="-99"/>
            <Node pos="r" depth="3" NCoef="0" IVar="-1" Cut="0.0000000000000000e+00" cType="1" res="1.5568097122013569e-02" rms="2.1570737659931183e-01" purity="7.4514895677566528e-01" nType="-99"/>
          </Node>
          <Node pos="r" depth="2" NCoef="0" IVar="-1" Cut="0.0000000000000000e+00" cType="1" res="-4.9454875290393829e-02" rms="2.0182743668556213e-01" purity="1.3787105679512024e-01" nType="-99"/>
        </Node>
        <Node pos="r" depth="1" NCoef="0" IVar="5" Cut="2.1993161010742188e+02" cType="1" res="-1.1587033979594707e-02" rms="1.9620503485202789e-01" purity="2.7947866916656494e-01" nType="0">
          <Node pos="l" depth="2" NCoef="0" IVar="2" Cut="5.5560180664062500e+02" cType="1" res="-3.0109528452157974e-03" rms="1.8525859713554382e-01" purity="1.2597854435443878e-01" nType="0">
            <Node pos="l" depth="3" NCoef="0" IVar="-1" Cut="0.0000000000000000e+00" cType="1" res="1.4446232467889786e-02" rms="1.7152579128742218e-01" purity="7.6408088207244873e-02" nType="-99"/>
            <Node pos="r" depth="3" NCoef="0" IVar="-1" Cut="0.0000000000000000e+00" cType="1" res="-4.1156601160764694e-02" rms="2.1486485004425049e-01" purity="2.5069499015808105e-01" nType="-99"/>
          </Node>
          <Node pos="r" depth="2" NCoef="0" IVar="-1" Cut="0.0000000000000000e+00" cType="1" res="-7.8541345894336700e-02" rms="2.2864539921283722e-01" purity="8.3069932460784912e-01" nType="-99"/>
        </Node>
      </Node>
    </BinaryTree>
    <BinaryTree type="DecisionTree" boostWeight="1.0000000000000000e+00" itree="35">
      <Node pos="s" depth="0" NCoef="0" IVar="8" Cut="-1.7331336736679077e+00" cType="1" res="1.6104264650493860e-03" rms="1.9241237640380859e-01" purity="5.0514668226242065e-01" nType="0">
        <Node pos="l" depth="1" NCoef="0" IVar="-1" Cut="0.0000000000000000e+00" cType="1" res="-9.8626308143138885e-02" rms="1.7024067044258118e-01" purity="5.5205117911100388e-02" nType="-99"/>
        <Node pos="r" depth="1" NCoef="0" IVar="11" Cut="1.7318021059036255e+00" cType="1" res="3.3189021050930023e-03" rms="1.9320619106292725e-01" purity="5.2596890926361084e-01" nType="0">
          <Node pos="l" depth="2" NCoef="0" IVar="11" Cut="-1.0726789236068726e+00" cType="1" res="1.6928630648180842e-03" rms="1.8941827118396759e-01" purity="5.3534984588623047e-01" nType="0">
            <Node pos="l" depth="3" NCoef="0" IVar="-1" Cut="0.0000000000000000e+00" cType="1" res="2.5408761575818062e-02" rms="2.0821541547775269e-01" purity="4.5807728171348572e-01" nType="-99"/>
            <Node pos="r" depth="3" NCoef="0" IVar="-1" Cut="0.0000000000000000e+00" cType="1" res="-1.7416807822883129e-03" rms="1.8410542607307434e-01" purity="5.5559104681015015e-01" nType="-99"/>
          </Node>
          <Node pos="r" depth="2" NCoef="0" IVar="0" Cut="1.8506510009765625e+03" cType="1" res="2.4308368563652039e-02" rms="2.3571737110614777e-01" purity="4.0487638115882874e-01" nType="0">
            <Node pos="l" depth="3" NCoef="0" IVar="-1" Cut="0.0000000000000000e+00" cType="1" res="1.2397465296089649e-02" rms="1.4600907266139984e-01" purity="2.2752474993467331e-02" nType="-99"/>
            <Node pos="r" depth="3" NCoef="0" IVar="-1" Cut="0.0000000000000000e+00" cType="1" res="5.8479018509387970e-02" rms="2.9321882128715515e-01" purity="7.5365346670150757e-01" nType="-99"/>
          </Node>
        </Node>
      </Node>
    </BinaryTree>
    <BinaryTree type="DecisionTree" boostWeight="1.0000000000000000e+00" itree="36">
      <Node pos="s" depth="0" NCoef="0" IVar="0" Cut="2.4651013183593750e+03" cType="1" res="-1.7322294879704714e-03" rms="1.9049768149852753e-01" purity="5.0338172912597656e-01" nType="0">
        <Node pos="l" depth="1" NCoef="0" IVar="6" Cut="1.3405050659179688e+02" cType="1" res="-7.1756476536393166e-03" rms="2.1402354538440704e-01" purity="1.0781749337911606e-01" nType="0">
          <Node pos="l" depth="2" NCoef="0" IVar="0" Cut="2.1607768554687500e+03" cType="1" res="-1.6617266228422523e-03" rms="1.8125435709953308e-01" purity="6.2428068369626999e-02" nType="0">
            <Node pos="l" depth="3" NCoef="0" IVar="-1" Cut="0.0000000000000000e+00" cType="1" res="-1.5828913077712059e-02" rms="1.5210488438606262e-01" purity="2.9103400185704231e-02" nType="-99"/>
            <Node pos="r" depth="3" NCoef="0" IVar="-1" Cut="0.0000000000000000e+00" cType="1" res="2.0012680441141129e-02" rms="3.8887301087379456e-01" purity="4.7225415706634521e-01" nType="-99"/>
          </Node>
          <Node pos="r" depth="2" NCoef="0" IVar="2" Cut="4.4374575805664062e+02" cType="1" res="-4.2378176003694534e-02" rms="3.5646620392799377e-01" purity="3.9759728312492371e-01" nType="0">
            <Node pos="l" depth="3" NCoef="0" IVar="-1" Cut="0.0000000000000000e+00" cType="1" res="-7.8712040558457375e-03" rms="3.1952577829360962e-01" purity="3.1934913992881775e-01" nType="-99"/>
            <Node pos="r" depth="3" NCoef="0" IVar="-1" Cut="0.0000000000000000e+00" cType="1" res="-5.8607891201972961e-02" rms="3.9079475402832031e-01" purity="4.8719874024391174e-01" nType="-99"/>
          </Node>
        </Node>
        <Node pos="r" depth="1" NCoef="0" IVar="2" Cut="8.1595959472656250e+02" cType="1" res="4.5662736520171165e-03" rms="1.5875692665576935e-01" purity="9.6108365058898926e-01" nType="0">
          <Node pos="l" depth="2" NCoef="0" IVar="1" Cut="4.3778784573078156e-02" cType="1" res="9.0740080922842026e-03" rms="1.4559267461299896e-01" purity="9.7424900531768799e-01" nType="0">
            <Node pos="l" depth="3" NCoef="0" IVar="-1" Cut="0.0000000000000000e+00" cType="1" res="4.0901016443967819e-02" rms="2.9045271873474121e-01" purity="8.8443070650100708e-01" nType="-99"/>
            <Node pos="r" depth="3" NCoef="0" IVar="-1" Cut="0.0000000000000000e+00" cType="1" res="3.0077191069722176e-02" rms="1.1891654878854752e-01" purity="9.8414647579193115e-01" nType="-99"/>
          </Node>
          <Node pos="r" depth="2" NCoef="0" IVar="0" Cut="3.1122126464843750e+03" cType="1" res="-4.2153149843215942e-03" rms="1.8136219680309296e-01" purity="9.3543606996536255e-01" nType="0">
            <Node pos="l" depth="3" NCoef="0" IVar="-1" Cut="0.0000000000000000e+00" cType="1" res="-5.2959360182285309e-02" rms="3.4307953715324402e-01" purity="7.1181857585906982e-01" nType="-99"/>
            <Node pos="r" depth="3" NCoef="0" IVar="-1" Cut="0.0000000000000000e+00" cType="1" res="2.4235440418124199e-02" rms="1.2209423631429672e-01" purity="9.8152780532836914e-01" nType="-99"/>
          </Node>
        </Node>
      </Node>
    </BinaryTree>
    <BinaryTree type="DecisionTree" boostWeight="1.0000000000000000e+00" itree="37">
      <Node pos="s" depth="0" NCoef="0" IVar="8" Cut="-1.4658792018890381e+00" cType="1" res="-3.0526032787747681e-05" rms="1.9109985232353210e-01" purity="4.9252924323081970e-01" nType="0">
        <Node pos="l" depth="1" NCoef="0" IVar="6" Cut="9.9619239807128906e+01" cType="1" res="-2.0330801606178284e-02" rms="1.8872752785682678e-01" purity="1.0792753845453262e-01" nType="0">
          <Node pos="l" depth="2" NCoef="0" IVar="-1" Cut="0.0000000000000000e+00" cType="1" res="-1.4831444248557091e-02" rms="1.3949264585971832e-01" purity="2.6852440088987350e-02" nType="-99"/>
          <Node pos="r" depth="2" NCoef="0" IVar="-1" Cut="0.0000000000000000e+00" cType="1" res="-7.8639470040798187e-02" rms="2.4150452017784119e-01" purity="2.2749474644660950e-01" nType="-99"/>
        </Node>
        <Node pos="r" depth="1" NCoef="0" IVar="0" Cut="2.1395566406250000e+03" cType="1" res="1.5438315458595753e-03" rms="1.9119256734848022e-01" purity="5.2235645055770874e-01" nType="0">
          <Node pos="l" depth="2" NCoef="0" IVar="2" Cut="4.3859555053710938e+02" cType="1" res="-3.8843448273837566e-03" rms="1.7890039086341858e-01" purity="4.5415345579385757e-02" nType="0">
            <Node pos="l" depth="3" NCoef="0" IVar="-1" Cut="0.0000000000000000e+00" cType="1" res="1.6159469261765480e-02" rms="1.8621741235256195e-01" purity="5.3290542215108871e-02" nType="-99"/>
            <Node pos="r" depth="3" NCoef="0" IVar="-1" Cut="0.0000000000000000e+00" cType="1" res="-3.4835059195756912e-02" rms="1.7034879326820374e-01" purity="3.7135958671569824e-02" nType="-99"/>
          </Node>
          <Node pos="r" depth="2" NCoef="0" IVar="1" Cut="4.0450930595397949e-02" cType="1" res="6.0951262712478638e-03" rms="2.0080719888210297e-01" purity="9.2225122451782227e-01" nType="0">
            <Node pos="l" depth="3" NCoef="0" IVar="-1" Cut="0.0000000000000000e+00" cType="1" res="2.3180114105343819e-02" rms="3.2674506306648254e-01" purity="7.0529049634933472e-01" nType="-99"/>
            <Node pos="r" depth="3" NCoef="0" IVar="-1" Cut="0.0000000000000000e+00" cType="1" res="1.0239449329674244e-02" rms="1.7020983994007111e-01" purity="9.5913171768188477e-01" nType="-99"/>
          </Node>
        </Node>
      </Node>
    </BinaryTree>
    <BinaryTree type="DecisionTree" boostWeight="1.0000000000000000e+00" itree="38">
      <Node pos="s" depth="0" NCoef="0" IVar="11" Cut="-6.6627556085586548e-01" cType="1" res="9.8156902822665870e-05" rms="1.9226679205894470e-01" purity="4.9364674091339111e-01" nType="0">
        <Node pos="l" depth="1" NCoef="0" IVar="0" Cut="1.6444500732421875e+03" cType="1" res="8.2837315276265144e-03" rms="1.9620849192142487e-01" purity="4.6131703257560730e-01" nType="0">
          <Node pos="l" depth="2" NCoef="0" IVar="3" Cut="2.2688844299316406e+02" cType="1" res="-3.0907837208360434e-03" rms="8.2303844392299652e-02" purity="6.9046635180711746e-03" nType="0">
            <Node pos="l" depth="3" NCoef="0" IVar="-1" Cut="0.0000000000000000e+00" cType="1" res="3.9207719266414642e-02" rms="1.1214188486337662e-01" purity="1.2953313998878002e-02" nType="-99"/>
            <Node pos="r" depth="3" NCoef="0" IVar="-1" Cut="0.0000000000000000e+00" cType="1" res="-8.4398142993450165e-02" rms="4.1997794061899185e-02" purity="1.7554697114974260e-03" nType="-99"/>
          </Node>
          <Node pos="r" depth="2" NCoef="0" IVar="2" Cut="5.3587945556640625e+02" cType="1" res="1.3557191006839275e-02" rms="2.3047299683094025e-01" purity="6.7199194431304932e-01" nType="0">
            <Node pos="l" depth="3" NCoef="0" IVar="-1" Cut="0.0000000000000000e+00" cType="1" res="5.2180409431457520e-02" rms="2.8713011741638184e-01" purity="4.7558903694152832e-01" nType="-99"/>
            <Node pos="r" depth="3" NCoef="0" IVar="-1" Cut="0.0000000000000000e+00" cType="1" res="9.5435725525021553e-03" rms="2.0100241899490356e-01" purity="7.5505512952804565e-01" nType="-99"/>
          </Node>
        </Node>
        <Node pos="r" depth="1" NCoef="0" IVar="10" Cut="-1.7325633764266968e+00" cType="1" res="-3.4438099246472120e-03" rms="1.9042687118053436e-01" purity="5.0763612985610962e-01" nType="0">
          <Node pos="l" depth="2" NCoef="0" IVar="-1" Cut="0.0000000000000000e+00" cType="1" res="-6.1516698449850082e-02" rms="2.5242719054222107e-01" purity="2.6992326974868774e-01" nType="-99"/>
          <Node pos="r" depth="2" NCoef="0" IVar="10" Cut="1.9363011121749878e+00" cType="1" res="-2.0829022396355867e-03" rms="1.8652275204658508e-01" purity="5.2005416154861450e-01" nType="0">
            <Node pos="l" depth="3" NCoef="0" IVar="-1" Cut="0.0000000000000000e+00" cType="1" res="-2.2666892036795616e-03" rms="1.8474736809730530e-01" purity="5.3805774450302124e-01" nType="-99"/>
            <Node pos="r" depth="3" NCoef="0" IVar="-1" Cut="0.0000000000000000e+00" cType="1" res="-5.8086529374122620e-02" rms="2.1644508838653564e-01" purity="1.7370645701885223e-01" nType="-99"/>
          </Node>
        </Node>
      </Node>
    </BinaryTree>
    <BinaryTree type="DecisionTree" boostWeight="1.0000000000000000e+00" itree="39">
      <Node pos="s" depth="0" NCoef="0" IVar="7" Cut="1.5165495872497559e+00" cType="1" res="2.3618571867700666e-04" rms="1.9869837164878845e-01" purity="5.0794816017150879e-01" nType="0">
        <Node pos="l" depth="1" NCoef="0" IVar="11" Cut="6.6642647981643677e-01" cType="1" res="1.3703296426683664e-03" rms="2.0152409374713898e-01" purity="5.3143382072448730e-01" nType="0">
          <Node pos="l" depth="2" NCoef="0" IVar="11" Cut="-1.3144452571868896e+00" cType="1" res="-1.9903334323316813e-03" rms="1.9753488898277283e-01" purity="5.4008311033248901e-01" nType="0">
            <Node pos="l" depth="3" NCoef="0" IVar="-1" Cut="0.0000000000000000e+00" cType="1" res="2.2015569731593132e-02" rms="2.1783536672592163e-01" purity="4.5724487304687500e-01" nType="-99"/>
            <Node pos="r" depth="3" NCoef="0" IVar="-1" Cut="0.0000000000000000e+00" cType="1" res="-1.2658130377531052e-02" rms="1.9203545153141022e-01" purity="5.6073880195617676e-01" nType="-99"/>
          </Node>
          <Node pos="r" depth="2" NCoef="0" IVar="0" Cut="2.5713059082031250e+03" cType="1" res="9.3640238046646118e-03" rms="2.1049408614635468e-01" purity="5.1086074113845825e-01" nType="0">
            <Node pos="l" depth="3" NCoef="0" IVar="-1" Cut="0.0000000000000000e+00" cType="1" res="3.5074893385171890e-02" rms="2.4586850404739380e-01" purity="1.6678544878959656e-01" nType="-99"/>
            <Node pos="r" depth="3" NCoef="0" IVar="-1" Cut="0.0000000000000000e+00" cType="1" res="-3.6488727200776339e-03" rms="1.5056285262107849e-01" purity="9.6814137697219849e-01" nType="-99"/>
          </Node>
        </Node>
        <Node pos="r" depth="1" NCoef="0" IVar="-1" Cut="0.0000000000000000e+00" cType="1" res="-7.7126793563365936e-02" rms="1.2932993471622467e-01" purity="4.6247519552707672e-02" nType="-99"/>
      </Node>
    </BinaryTree>
    <BinaryTree type="DecisionTree" boostWeight="1.0000000000000000e+00" itree="40">
      <Node pos="s" depth="0" NCoef="0" IVar="2" Cut="1.0016356811523438e+03" cType="1" res="-1.3544810935854912e-03" rms="1.9126941263675690e-01" purity="4.9960359930992126e-01" nType="0">
        <Node pos="l" depth="1" NCoef="0" IVar="11" Cut="-1.1992226839065552e+00" cType="1" res="-2.6440518558956683e-04" rms="1.8960106372833252e-01" purity="4.7412762045860291e-01" nType="0">
          <Node pos="l" depth="2" NCoef="0" IVar="1" Cut="2.1882805973291397e-02" cType="1" res="9.0033449232578278e-03" rms="2.0724603533744812e-01" purity="3.9711984992027283e-01" nType="0">
            <Node pos="l" depth="3" NCoef="0" IVar="-1" Cut="0.0000000000000000e+00" cType="1" res="-2.5973433628678322e-02" rms="1.3432791829109192e-01" purity="5.6765522807836533e-02" nType="-99"/>
            <Node pos="r" depth="3" NCoef="0" IVar="-1" Cut="0.0000000000000000e+00" cType="1" res="3.2221049070358276e-02" rms="2.2477476298809052e-01" purity="5.0210368633270264e-01" nType="-99"/>
          </Node>
          <Node pos="r" depth="2" NCoef="0" IVar="0" Cut="3.2367863769531250e+03" cType="1" res="-2.1738116629421711e-03" rms="1.8570016324520111e-01" purity="4.8999327421188354e-01" nType="0">
            <Node pos="l" depth="3" NCoef="0" IVar="-1" Cut="0.0000000000000000e+00" cType="1" res="-1.0833167470991611e-02" rms="2.0700410008430481e-01" purity="3.5196012258529663e-01" nType="-99"/>
            <Node pos="r" depth="3" NCoef="0" IVar="-1" Cut="0.0000000000000000e+00" cType="1" res="6.7020170390605927e-02" rms="6.0774005949497223e-02" purity="9.9611502885818481e-01" nType="-99"/>
          </Node>
        </Node>
        <Node pos="r" depth="1" NCoef="0" IVar="0" Cut="3.7382451171875000e+03" cType="1" res="-1.8482567742466927e-02" rms="2.1507251262664795e-01" purity="8.9990180730819702e-01" nType="0">
          <Node pos="l" depth="2" NCoef="0" IVar="-1" Cut="0.0000000000000000e+00" cType="1" res="-6.2048017978668213e-02" rms="2.8311133384704590e-01" purity="8.0231475830078125e-01" nType="-99"/>
          <Node pos="r" depth="2" NCoef="0" IVar="-1" Cut="0.0000000000000000e+00" cType="1" res="-1.1402018135413527e-03" rms="1.3742358982563019e-01" purity="9.7652465105056763e-01" nType="-99"/>
        </Node>
      </Node>
    </BinaryTree>
    <BinaryTree type="DecisionTree" boostWeight="1.0000000000000000e+00" itree="41">
      <Node pos="s" depth="0" NCoef="0" IVar="0" Cut="3.1207995605468750e+03" cType="1" res="-1.2456472031772137e-03" rms="1.9300629198551178e-01" purity="4.9672204256057739e-01" nType="0">
        <Node pos="l" depth="1" NCoef="0" IVar="3" Cut="5.3452185058593750e+02" cType="1" res="-3.9248587563633919e-03" rms="2.1987383067607880e-01" purity="3.0895408987998962e-01" nType="0">
          <Node pos="l" depth="2" NCoef="0" IVar="5" Cut="2.1112828063964844e+02" cType="1" res="-1.8070042133331299e-03" rms="2.1406270563602448e-01" purity="2.8486433625221252e-01" nType="0">
            <Node pos="l" depth="3" NCoef="0" IVar="-1" Cut="0.0000000000000000e+00" cType="1" res="4.5816092751920223e-03" rms="2.0396929979324341e-01" purity="1.5534786880016327e-01" nType="-99"/>
            <Node pos="r" depth="3" NCoef="0" IVar="-1" Cut="0.0000000000000000e+00" cType="1" res="-2.9993383213877678e-02" rms="2.5176134705543518e-01" purity="8.3359724283218384e-01" nType="-99"/>
          </Node>
          <Node pos="r" depth="2" NCoef="0" IVar="-1" Cut="0.0000000000000000e+00" cType="1" res="-6.3132897019386292e-02" rms="3.0723971128463745e-01" purity="7.6506584882736206e-01" nType="-99"/>
        </Node>
        <Node pos="r" depth="1" NCoef="0" IVar="6" Cut="1.2710571289062500e+02" cType="1" res="5.8030690997838974e-03" rms="8.9432559907436371e-02" purity="9.9071943759918213e-01" nType="0">
          <Node pos="l" depth="2" NCoef="0" IVar="-1" Cut="0.0000000000000000e+00" cType="1" res="-4.0110810659825802e-03" rms="1.9217285513877869e-01" purity="9.5402425527572632e-01" nType="-99"/>
          <Node pos="r" depth="2" NCoef="0" IVar="9" Cut="-3.9247557520866394e-02" cType="1" res="6.9537279196083546e-03" rms="5.8564785867929459e-02" purity="9.9650120735168457e-01" nType="0">
            <Node pos="l" depth="3" NCoef="0" IVar="-1" Cut="0.0000000000000000e+00" cType="1" res="5.5023454129695892e-02" rms="6.8027295172214508e-02" purity="9.9522501230239868e-01" nType="-99"/>
            <Node pos="r" depth="3" NCoef="0" IVar="-1" Cut="0.0000000000000000e+00" cType="1" res="7.9425692558288574e-02" rms="4.8186238855123520e-02" purity="9.9767816066741943e-01" nType="-99"/>
          </Node>
        </Node>
      </Node>
    </BinaryTree>
    <BinaryTree type="DecisionTree" boostWeight="1.0000000000000000e+00" itree="42">
      <Node pos="s" depth="0" NCoef="0" IVar="2" Cut="9.3051434326171875e+02" cType="1" res="-4.8658772720955312e-04" rms="1.9189207255840302e-01" purity="4.9819812178611755e-01" nType="0">
        <Node pos="l" depth="1" NCoef="0" IVar="0" Cut="1.8030373535156250e+03" cType="1" res="1.1036584619432688e-03" rms="1.9138148427009583e-01" purity="4.5909550786018372e-01" nType="0">
          <Node pos="l" depth="2" NCoef="0" IVar="5" Cut="1.5060865783691406e+02" cType="1" res="-4.1819270700216293e-03" rms="9.7854085266590118e-02" purity="1.0089301504194736e-02" nType="0">
            <Node pos="l" depth="3" NCoef="0" IVar="-1" Cut="0.0000000000000000e+00" cType="1" res="-5.6565482169389725e-02" rms="7.2336062788963318e-02" purity="5.2949907258152962e-03" nType="-99"/>
            <Node pos="r" depth="3" NCoef="0" IVar="-1" Cut="0.0000000000000000e+00" cType="1" res="2.7197880670428276e-02" rms="1.6882866621017456e-01" purity="3.1135050579905510e-02" nType="-99"/>
          </Node>
          <Node pos="r" depth="2" NCoef="0" IVar="4" Cut="2.4297340393066406e+02" cType="1" res="4.7066318802535534e-03" rms="2.3459486663341522e-01" purity="7.6516520977020264e-01" nType="0">
            <Node pos="l" depth="3" NCoef="0" IVar="-1" Cut="0.0000000000000000e+00" cType="1" res="2.0018531009554863e-02" rms="3.2074975967407227e-01" purity="3.8277170062065125e-01" nType="-99"/>
            <Node pos="r" depth="3" NCoef="0" IVar="-1" Cut="0.0000000000000000e+00" cType="1" res="4.8314797459170222e-04" rms="1.9926661252975464e-01" purity="8.8699597120285034e-01" nType="-99"/>
          </Node>
        </Node>
        <Node pos="r" depth="1" NCoef="0" IVar="5" Cut="2.2329240417480469e+02" cType="1" res="-1.6573119908571243e-02" rms="1.9625942409038544e-01" purity="8.9375066757202148e-01" nType="0">
          <Node pos="l" depth="2" NCoef="0" IVar="-1" Cut="0.0000000000000000e+00" cType="1" res="-6.8791478872299194e-02" rms="2.8770580887794495e-01" purity="7.4491262435913086e-01" nType="-99"/>
          <Node pos="r" depth="2" NCoef="0" IVar="-1" Cut="0.0000000000000000e+00" cType="1" res="3.1100846827030182e-02" rms="9.4115778803825378e-02" purity="9.8975527286529541e-01" nType="-99"/>
        </Node>
      </Node>
    </BinaryTree>
    <BinaryTree type="DecisionTree" boostWeight="1.0000000000000000e+00" itree="43">
      <Node pos="s" depth="0" NCoef="0" IVar="9" Cut="1.9992353916168213e+00" cType="1" res="5.1266071386635303e-04" rms="1.9424222409725189e-01" purity="4.9629026651382446e-01" nType="0">
        <Node pos="l" depth="1" NCoef="0" IVar="9" Cut="8.5671472549438477e-01" cType="1" res="1.3418875169008970e-03" rms="1.9447216391563416e-01" purity="5.0772875547409058e-01" nType="0">
          <Node pos="l" depth="2" NCoef="0" IVar="5" Cut="2.1869976806640625e+02" cType="1" res="-5.5988982785493135e-04" rms="1.9020521640777588e-01" purity="5.2341061830520630e-01" nType="0">
            <Node pos="l" depth="3" NCoef="0" IVar="-1" Cut="0.0000000000000000e+00" cType="1" res="-9.2754913493990898e-03" rms="2.1313230693340302e-01" purity="2.5214889645576477e-01" nType="-99"/>
            <Node pos="r" depth="3" NCoef="0" IVar="-1" Cut="0.0000000000000000e+00" cType="1" res="2.1137956529855728e-02" rms="1.4615066349506378e-01" purity="9.5657938718795776e-01" nType="-99"/>
          </Node>
          <Node pos="r" depth="2" NCoef="0" IVar="0" Cut="1.8580251464843750e+03" cType="1" res="1.0245886631309986e-02" rms="2.1309185028076172e-01" purity="4.3430736660957336e-01" nType="0">
            <Node pos="l" depth="3" NCoef="0" IVar="-1" Cut="0.0000000000000000e+00" cType="1" res="-2.6823857799172401e-02" rms="1.0763222724199295e-01" purity="1.2106741778552532e-02" nType="-99"/>
            <Node pos="r" depth="3" NCoef="0" IVar="-1" Cut="0.0000000000000000e+00" cType="1" res="3.4113243222236633e-02" rms="2.6974007487297058e-01" purity="7.7955633401870728e-01" nType="-99"/>
          </Node>
        </Node>
        <Node pos="r" depth="1" NCoef="0" IVar="-1" Cut="0.0000000000000000e+00" cType="1" res="-8.1726849079132080e-02" rms="1.8329508602619171e-01" purity="8.4562584757804871e-02" nType="-99"/>
      </Node>
    </BinaryTree>
    <BinaryTree type="DecisionTree" boostWeight="1.0000000000000000e+00" itree="44">
      <Node pos="s" depth="0" NCoef="0" IVar="7" Cut="-1.5577327013015747e+00" cType="1" res="3.3751231967471540e-04" rms="1.9676642119884491e-01" purity="5.0647085905075073e-01" nType="0">
        <Node pos="l" depth="1" NCoef="0" IVar="-1" Cut="0.0000000000000000e+00" cType="1" res="-7.7342383563518524e-02" rms="1.2172926217317581e-01" purity="3.9350051432847977e-02" nType="-99"/>
        <Node pos="r" depth="1" NCoef="0" IVar="8" Cut="-1.3361231982707977e-01" cType="1" res="1.2259929208084941e-03" rms="1.9955229759216309e-01" purity="5.2839523553848267e-01" nType="0">
          <Node pos="l" depth="2" NCoef="0" IVar="7" Cut="7.2382408380508423e-01" cType="1" res="-3.0634053982794285e-03" rms="2.0110359787940979e-01" purity="4.9733895063400269e-01" nType="0">
            <Node pos="l" depth="3" NCoef="0" IVar="-1" Cut="0.0000000000000000e+00" cType="1" res="1.5091638779267669e-03" rms="2.0329786837100983e-01" purity="5.6550592184066772e-01" nType="-99"/>
            <Node pos="r" depth="3" NCoef="0" IVar="-1" Cut="0.0000000000000000e+00" cType="1" res="-4.2721968144178391e-02" rms="1.9205243885517120e-01" purity="2.4191607534885406e-01" nType="-99"/>
          </Node>
          <Node pos="r" depth="2" NCoef="0" IVar="10" Cut="-1.1989319324493408e+00" cType="1" res="4.7693736851215363e-03" rms="1.9819164276123047e-01" purity="5.5405020713806152e-01" nType="0">
            <Node pos="l" depth="3" NCoef="0" IVar="-1" Cut="0.0000000000000000e+00" cType="1" res="3.7857770919799805e-02" rms="2.3338086903095245e-01" purity="4.5830222964286804e-01" nType="-99"/>
            <Node pos="r" depth="3" NCoef="0" IVar="-1" Cut="0.0000000000000000e+00" cType="1" res="8.1234360113739967e-03" rms="1.9273482263088226e-01" purity="5.6733822822570801e-01" nType="-99"/>
          </Node>
        </Node>
      </Node>
    </BinaryTree>
    <BinaryTree type="DecisionTree" boostWeight="1.0000000000000000e+00" itree="45">
      <Node pos="s" depth="0" NCoef="0" IVar="10" Cut="-6.6677236557006836e-01" cType="1" res="-3.3006069133989513e-04" rms="1.9252473115921021e-01" purity="4.9459329247474670e-01" nType="0">
        <Node pos="l" depth="1" NCoef="0" IVar="9" Cut="6.6757279634475708e-01" cType="1" res="6.2696319073438644e-03" rms="2.0215857028961182e-01" purity="4.4676214456558228e-01" nType="0">
          <Node pos="l" depth="2" NCoef="0" IVar="2" Cut="4.2452261352539062e+02" cType="1" res="2.2158797364681959e-03" rms="1.9980514049530029e-01" purity="4.6039938926696777e-01" nType="0">
            <Node pos="l" depth="3" NCoef="0" IVar="-1" Cut="0.0000000000000000e+00" cType="1" res="5.4647598415613174e-02" rms="2.0413826406002045e-01" purity="1.1764336377382278e-01" nType="-99"/>
            <Node pos="r" depth="3" NCoef="0" IVar="-1" Cut="0.0000000000000000e+00" cType="1" res="-8.7133860215544701e-03" rms="1.9791956245899200e-01" purity="5.8175736665725708e-01" nType="-99"/>
          </Node>
          <Node pos="r" depth="2" NCoef="0" IVar="0" Cut="1.8200434570312500e+03" cType="1" res="1.9002430140972137e-02" rms="2.0886768400669098e-01" purity="4.0392768383026123e-01" nType="0">
            <Node pos="l" depth="3" NCoef="0" IVar="-1" Cut="0.0000000000000000e+00" cType="1" res="-2.1568160504102707e-02" rms="9.8641686141490936e-02" purity="9.7478805109858513e-03" nType="-99"/>
            <Node pos="r" depth="3" NCoef="0" IVar="-1" Cut="0.0000000000000000e+00" cType="1" res="5.8764472603797913e-02" rms="2.6720038056373596e-01" purity="7.3524618148803711e-01" nType="-99"/>
          </Node>
        </Node>
        <Node pos="r" depth="1" NCoef="0" IVar="7" Cut="-5.5552184581756592e-01" cType="1" res="-2.9677543789148331e-03" rms="1.8847210705280304e-01" purity="5.1370990276336670e-01" nType="0">
          <Node pos="l" depth="2" NCoef="0" IVar="8" Cut="4.0194326639175415e-01" cType="1" res="-1.3267377391457558e-02" rms="1.9318293035030365e-01" purity="3.6131265759468079e-01" nType="0">
            <Node pos="l" depth="3" NCoef="0" IVar="-1" Cut="0.0000000000000000e+00" cType="1" res="-3.1478630844503641e-03" rms="1.7871320247650146e-01" purity="4.1999405622482300e-01" nType="-99"/>
            <Node pos="r" depth="3" NCoef="0" IVar="-1" Cut="0.0000000000000000e+00" cType="1" res="-8.6370803415775299e-02" rms="2.1384908258914948e-01" purity="2.6229158043861389e-01" nType="-99"/>
          </Node>
          <Node pos="r" depth="2" NCoef="0" IVar="10" Cut="1.4758107662200928e+00" cType="1" res="4.0591220022179186e-04" rms="1.8677979707717896e-01" purity="5.6362801790237427e-01" nType="0">
            <Node pos="l" depth="3" NCoef="0" IVar="-1" Cut="0.0000000000000000e+00" cType="1" res="-6.2468517571687698e-03" rms="1.7935590445995331e-01" purity="5.9623330831527710e-01" nType="-99"/>
            <Node pos="r" depth="3" NCoef="0" IVar="-1" Cut="0.0000000000000000e+00" cType="1" res="3.6010533571243286e-02" rms="2.2804030776023865e-01" purity="3.5467863082885742e-01" nType="-99"/>
          </Node>
        </Node>
      </Node>
    </BinaryTree>
    <BinaryTree type="DecisionTree" boostWeight="1.0000000000000000e+00" itree="46">
      <Node pos="s" depth="0" NCoef="0" IVar="11" Cut="1.4664244651794434e+00" cType="1" res="3.8381310878321528e-04" rms="1.9333358108997345e-01" purity="5.0261527299880981e-01" nType="0">
        <Node pos="l" depth="1" NCoef="0" IVar="10" Cut="1.7329930067062378e+00" cType="1" res="-1.3010568218305707e-03" rms="1.8889096379280090e-01" purity="5.1455217599868774e-01" nType="0">
          <Node pos="l" depth="2" NCoef="0" IVar="9" Cut="-4.0001997351646423e-01" cType="1" res="-3.3298181369900703e-04" rms="1.8737532198429108e-01" purity="5.3109037876129150e-01" nType="0">
            <Node pos="l" depth="3" NCoef="0" IVar="-1" Cut="0.0000000000000000e+00" cType="1" res="1.1949947103857994e-02" rms="1.9023458659648895e-01" purity="4.8594054579734802e-01" nType="-99"/>
            <Node pos="r" depth="3" NCoef="0" IVar="-1" Cut="0.0000000000000000e+00" cType="1" res="-8.3876531571149826e-03" rms="1.8575318157672882e-01" purity="5.5559945106506348e-01" nType="-99"/>
          </Node>
          <Node pos="r" depth="2" NCoef="0" IVar="-1" Cut="0.0000000000000000e+00" cType="1" res="-3.9714150130748749e-02" rms="2.1225492656230927e-01" purity="2.3450033366680145e-01" nType="-99"/>
        </Node>
        <Node pos="r" depth="1" NCoef="0" IVar="0" Cut="1.6160673828125000e+03" cType="1" res="1.3400375843048096e-02" rms="2.2428795695304871e-01" purity="4.1039603948593140e-01" nType="0">
          <Node pos="l" depth="2" NCoef="0" IVar="-1" Cut="0.0000000000000000e+00" cType="1" res="-1.9992008805274963e-02" rms="7.9229757189750671e-02" purity="6.3646407797932625e-03" nType="-99"/>
          <Node pos="r" depth="2" NCoef="0" IVar="0" Cut="2.4388469238281250e+03" cType="1" res="2.0429994910955429e-02" rms="2.6612132787704468e-01" purity="6.0008066892623901e-01" nType="0">
            <Node pos="l" depth="3" NCoef="0" IVar="-1" Cut="0.0000000000000000e+00" cType="1" res="5.1557157188653946e-02" rms="3.2056951522827148e-01" purity="2.4628920853137970e-01" nType="-99"/>
            <Node pos="r" depth="3" NCoef="0" IVar="-1" Cut="0.0000000000000000e+00" cType="1" res="2.1315321646397933e-05" rms="1.9788111746311188e-01" purity="9.4135677814483643e-01" nType="-99"/>
          </Node>
        </Node>
      </Node>
    </BinaryTree>
    <BinaryTree type="DecisionTree" boostWeight="1.0000000000000000e+00" itree="47">
      <Node pos="s" depth="0" NCoef="0" IVar="8" Cut="9.3341398239135742e-01" cType="1" res="3.5201763967052102e-04" rms="1.9314718246459961e-01" purity="5.0011134147644043e-01" nType="0">
        <Node pos="l" depth="1" NCoef="0" IVar="9" Cut="-1.7311942577362061e+00" cType="1" res="2.3493571206927299e-03" rms="1.9250832498073578e-01" purity="5.4191595315933228e-01" nType="0">
          <Node pos="l" depth="2" NCoef="0" IVar="-1" Cut="0.0000000000000000e+00" cType="1" res="-4.2765505611896515e-02" rms="2.3721970617771149e-01" purity="1.4660462737083435e-01" nType="-99"/>
          <Node pos="r" depth="2" NCoef="0" IVar="7" Cut="1.5146522521972656e+00" cType="1" res="3.3810313325375319e-03" rms="1.8993501365184784e-01" purity="5.6170487403869629e-01" nType="0">
            <Node pos="l" depth="3" NCoef="0" IVar="-1" Cut="0.0000000000000000e+00" cType="1" res="1.1696754954755306e-02" rms="1.9254866242408752e-01" purity="5.8560699224472046e-01" nType="-99"/>
            <Node pos="r" depth="3" NCoef="0" IVar="-1" Cut="0.0000000000000000e+00" cType="1" res="-6.9316864013671875e-02" rms="1.1908309161663055e-01" purity="4.9113877117633820e-02" nType="-99"/>
          </Node>
        </Node>
        <Node pos="r" depth="1" NCoef="0" IVar="7" Cut="-8.2500791549682617e-01" cType="1" res="-9.8477248102426529e-03" rms="1.9606022536754608e-01" purity="2.8662914037704468e-01" nType="0">
          <Node pos="l" depth="2" NCoef="0" IVar="-1" Cut="0.0000000000000000e+00" cType="1" res="-1.0533224046230316e-01" rms="1.6377739608287811e-01" purity="9.1656140983104706e-02" nType="-99"/>
          <Node pos="r" depth="2" NCoef="0" IVar="3" Cut="3.5826983642578125e+02" cType="1" res="-2.4054259993135929e-03" rms="2.0356015861034393e-01" purity="3.4118497371673584e-01" nType="0">
            <Node pos="l" depth="3" NCoef="0" IVar="-1" Cut="0.0000000000000000e+00" cType="1" res="9.5604229718446732e-03" rms="1.9302880764007568e-01" purity="1.2798008322715759e-01" nType="-99"/>
            <Node pos="r" depth="3" NCoef="0" IVar="-1" Cut="0.0000000000000000e+00" cType="1" res="-3.1345952302217484e-02" rms="2.2247427701950073e-01" purity="7.6287937164306641e-01" nType="-99"/>
          </Node>
        </Node>
      </Node>
    </BinaryTree>
    <BinaryTree type="DecisionTree" boostWeight="1.0000000000000000e+00" itree="48">
      <Node pos="s" depth="0" NCoef="0" IVar="11" Cut="-9.3334430456161499e-01" cType="1" res="1.0124115506187081e-03" rms="1.9255936145782471e-01" purity="5.0463509559631348e-01" nType="0">
        <Node pos="l" depth="1" NCoef="0" IVar="0" Cut="1.6165629882812500e+03" cType="1" res="8.9435912668704987e-03" rms="2.0518817007541656e-01" purity="4.5943108201026917e-01" nType="0">
          <Node pos="l" depth="2" NCoef="0" IVar="7" Cut="-1.3431049883365631e-02" cType="1" res="-3.3464531879872084e-03" rms="7.1695536375045776e-02" purity="5.1900232210755348e-03" nType="0">
            <Node pos="l" depth="3" NCoef="0" IVar="-1" Cut="0.0000000000000000e+00" cType="1" res="2.0906630379613489e-04" rms="9.2775203287601471e-02" purity="8.7336152791976929e-03" nType="-99"/>
            <Node pos="r" depth="3" NCoef="0" IVar="-1" Cut="0.0000000000000000e+00" cType="1" res="-8.7485469877719879e-02" rms="3.3525407314300537e-02" purity="1.1136053362861276e-03" nType="-99"/>
          </Node>
          <Node pos="r" depth="2" NCoef="0" IVar="6" Cut="1.2813880920410156e+02" cType="1" res="1.3887274079024792e-02" rms="2.3850569128990173e-01" purity="6.4214998483657837e-01" nType="0">
            <Node pos="l" depth="3" NCoef="0" IVar="-1" Cut="0.0000000000000000e+00" cType="1" res="4.4488981366157532e-02" rms="2.7036443352699280e-01" purity="3.7507781386375427e-01" nType="-99"/>
            <Node pos="r" depth="3" NCoef="0" IVar="-1" Cut="0.0000000000000000e+00" cType="1" res="2.4584049824625254e-03" rms="2.0384031534194946e-01" purity="8.8902789354324341e-01" nType="-99"/>
          </Node>
        </Node>
        <Node pos="r" depth="1" NCoef="0" IVar="0" Cut="2.8837236328125000e+03" cType="1" res="-1.3930386630818248e-03" rms="1.8849614262580872e-01" purity="5.1834505796432495e-01" nType="0">
          <Node pos="l" depth="2" NCoef="0" IVar="2" Cut="7.2879956054687500e+02" cType="1" res="-5.5178510956466198e-03" rms="2.2498086094856262e-01" purity="2.4095195531845093e-01" nType="0">
            <Node pos="l" depth="3" NCoef="0" IVar="-1" Cut="0.0000000000000000e+00" cType="1" res="-5.1518534310162067e-03" rms="2.1512924134731293e-01" purity="2.3069794476032257e-01" nType="-99"/>
            <Node pos="r" depth="3" NCoef="0" IVar="-1" Cut="0.0000000000000000e+00" cType="1" res="-4.9036707729101181e-02" rms="3.1701394915580750e-01" purity="3.6239874362945557e-01" nType="-99"/>
          </Node>
          <Node pos="r" depth="2" NCoef="0" IVar="2" Cut="1.0664438476562500e+03" cType="1" res="5.5736694484949112e-03" rms="9.9871516227722168e-02" purity="9.8685532808303833e-01" nType="0">
            <Node pos="l" depth="3" NCoef="0" IVar="-1" Cut="0.0000000000000000e+00" cType="1" res="5.6447558104991913e-02" rms="7.7349558472633362e-02" purity="9.9299424886703491e-01" nType="-99"/>
            <Node pos="r" depth="3" NCoef="0" IVar="-1" Cut="0.0000000000000000e+00" cType="1" res="-2.0204909145832062e-02" rms="1.9930340349674225e-01" purity="9.4080334901809692e-01" nType="-99"/>
          </Node>
        </Node>
      </Node>
    </BinaryTree>
    <BinaryTree type="DecisionTree" boostWeight="1.0000000000000000e+00" itree="49">
      <Node pos="s" depth="0" NCoef="0" IVar="8" Cut="4.0083369612693787e-01" cType="1" res="3.7991968565620482e-04" rms="1.9236861169338226e-01" purity="5.0502181053161621e-01" nType="0">
        <Node pos="l" depth="1" NCoef="0" IVar="8" Cut="-1.8826428651809692e+00" cType="1" res="3.5152309574186802e-03" rms="1.8986022472381592e-01" purity="5.3917604684829712e-01" nType="0">
          <Node pos="l" depth="2" NCoef="0" IVar="-1" Cut="0.0000000000000000e+00" cType="1" res="-6.1858303844928741e-02" rms="1.5591150522232056e-01" purity="4.1101280599832535e-02" nType="-99"/>
          <Node pos="r" depth="2" NCoef="0" IVar="6" Cut="7.5839218139648438e+01" cType="1" res="4.5972978696227074e-03" rms="1.9137956202030182e-01" purity="5.6476980447769165e-01" nType="0">
            <Node pos="l" depth="3" NCoef="0" IVar="-1" Cut="0.0000000000000000e+00" cType="1" res="-2.4884842336177826e-02" rms="1.7147430777549744e-01" purity="7.9766198992729187e-02" nType="-99"/>
            <Node pos="r" depth="3" NCoef="0" IVar="-1" Cut="0.0000000000000000e+00" cType="1" res="1.7529489472508430e-02" rms="1.9457587599754333e-01" purity="6.4966851472854614e-01" nType="-99"/>
          </Node>
        </Node>
        <Node pos="r" depth="1" NCoef="0" IVar="10" Cut="-9.3276196718215942e-01" cType="1" res="-5.6957546621561050e-03" rms="1.9699661433696747e-01" purity="4.3883696198463440e-01" nType="0">
          <Node pos="l" depth="2" NCoef="0" IVar="2" Cut="4.9679412841796875e+02" cType="1" res="1.3539504259824753e-02" rms="2.1910990774631500e-01" purity="4.1563636064529419e-01" nType="0">
            <Node pos="l" depth="3" NCoef="0" IVar="-1" Cut="0.0000000000000000e+00" cType="1" res="6.2763519585132599e-02" rms="2.1085728704929352e-01" purity="1.7718702554702759e-01" nType="-99"/>
            <Node pos="r" depth="3" NCoef="0" IVar="-1" Cut="0.0000000000000000e+00" cType="1" res="1.2372960336506367e-02" rms="2.2532910108566284e-01" purity="6.1023432016372681e-01" nType="-99"/>
          </Node>
          <Node pos="r" depth="2" NCoef="0" IVar="6" Cut="1.8312895202636719e+02" cType="1" res="-9.7058890387415886e-03" rms="1.9182319939136505e-01" purity="4.4367378950119019e-01" nType="0">
            <Node pos="l" depth="3" NCoef="0" IVar="-1" Cut="0.0000000000000000e+00" cType="1" res="-3.2165989279747009e-02" rms="2.0763617753982544e-01" purity="2.8322026133537292e-01" nType="-99"/>
            <Node pos="r" depth="3" NCoef="0" IVar="-1" Cut="0.0000000000000000e+00" cType="1" res="1.9525974988937378e-02" rms="1.2564785778522491e-01" purity="9.7105973958969116e-01" nType="-99"/>
          </Node>
        </Node>
      </Node>
    </BinaryTree>
    <BinaryTree type="DecisionTree" boostWeight="1.0000000000000000e+00" itree="50">
      <Node pos="s" depth="0" NCoef="0" IVar="0" Cut="3.3550966796875000e+03" cType="1" res="-1.7164305318146944e-03" rms="1.9339405000209808e-01" purity="4.9605333805084229e-01" nType="0">
        <Node pos="l" depth="1" NCoef="0" IVar="2" Cut="8.1474633789062500e+02" cType="1" res="-3.4426862839609385e-03" rms="2.1254700422286987e-01" purity="3.7026557326316833e-01" nType="0">
          <Node pos="l" depth="2" NCoef="0" IVar="1" Cut="6.4341917634010315e-02" cType="1" res="-9.9719536956399679e-04" rms="2.0541912317276001e-01" purity="3.4719988703727722e-01" nType="0">
            <Node pos="l" depth="3" NCoef="0" IVar="-1" Cut="0.0000000000000000e+00" cType="1" res="7.5892568565905094e-03" rms="1.8674705922603607e-01" purity="1.4426150918006897e-01" nType="-99"/>
            <Node pos="r" depth="3" NCoef="0" IVar="-1" Cut="0.0000000000000000e+00" cType="1" res="-1.1906818486750126e-02" rms="2.2662879526615143e-01" purity="6.0227417945861816e-01" nType="-99"/>
          </Node>
          <Node pos="r" depth="2" NCoef="0" IVar="0" Cut="3.0391574707031250e+03" cType="1" res="-3.5376101732254028e-02" rms="2.8806447982788086e-01" purity="6.7145931720733643e-01" nType="0">
            <Node pos="l" depth="3" NCoef="0" IVar="-1" Cut="0.0000000000000000e+00" cType="1" res="-4.5301940292119980e-02" rms="3.3814397454261780e-01" purity="4.5354858040809631e-01" nType="-99"/>
            <Node pos="r" depth="3" NCoef="0" IVar="-1" Cut="0.0000000000000000e+00" cType="1" res="-7.7466472983360291e-02" rms="2.1032088994979858e-01" purity="9.3876105546951294e-01" nType="-99"/>
          </Node>
        </Node>
        <Node pos="r" depth="1" NCoef="0" IVar="4" Cut="3.1503063964843750e+02" cType="1" res="5.0881910137832165e-03" rms="8.1826277077198029e-02" purity="9.9188834428787231e-01" nType="0">
          <Node pos="l" depth="2" NCoef="0" IVar="-1" Cut="0.0000000000000000e+00" cType="1" res="4.8851471394300461e-02" rms="1.2013181298971176e-01" purity="9.7701865434646606e-01" nType="-99"/>
          <Node pos="r" depth="2" NCoef="0" IVar="4" Cut="4.7117718505859375e+02" cType="1" res="3.5012676380574703e-03" rms="7.3503009974956512e-02" purity="9.9433910846710205e-01" nType="0">
            <Node pos="l" depth="3" NCoef="0" IVar="-1" Cut="0.0000000000000000e+00" cType="1" res="1.9085025414824486e-02" rms="8.4785610437393188e-02" purity="9.9245333671569824e-01" nType="-99"/>
            <Node pos="r" depth="3" NCoef="0" IVar="-1" Cut="0.0000000000000000e+00" cType="1" res="6.5388023853302002e-02" rms="5.6034836918115616e-02" purity="9.9671894311904907e-01" nType="-99"/>
          </Node>
        </Node>
      </Node>
    </BinaryTree>
    <BinaryTree type="DecisionTree" boostWeight="1.0000000000000000e+00" itree="51">
      <Node pos="s" depth="0" NCoef="0" IVar="8" Cut="1.7322584390640259e+00" cType="1" res="-1.5275046462193131e-03" rms="1.8856710195541382e-01" purity="4.9969577789306641e-01" nType="0">
        <Node pos="l" depth="1" NCoef="0" IVar="8" Cut="-1.2892006635665894e+00" cType="1" res="-8.0087716924026608e-04" rms="1.8949890136718750e-01" purity="5.1849043369293213e-01" nType="0">
          <Node pos="l" depth="2" NCoef="0" IVar="3" Cut="3.1991500854492188e+02" cType="1" res="-1.2259090319275856e-02" rms="1.9412468373775482e-01" purity="1.7170631885528564e-01" nType="0">
            <Node pos="l" depth="3" NCoef="0" IVar="-1" Cut="0.0000000000000000e+00" cType="1" res="3.4536952152848244e-03" rms="1.4376719295978546e-01" purity="5.1324494183063507e-02" nType="-99"/>
            <Node pos="r" depth="3" NCoef="0" IVar="-1" Cut="0.0000000000000000e+00" cType="1" res="-7.6527066528797150e-02" rms="2.6958903670310974e-01" purity="4.2725151777267456e-01" nType="-99"/>
          </Node>
          <Node pos="r" depth="2" NCoef="0" IVar="0" Cut="2.3891455078125000e+03" cType="1" res="3.8442219374701381e-04" rms="1.8897427618503571e-01" purity="5.5436366796493530e-01" nType="0">
            <Node pos="l" depth="3" NCoef="0" IVar="-1" Cut="0.0000000000000000e+00" cType="1" res="-8.1612626090645790e-03" rms="2.1831060945987701e-01" purity="1.0431700199842453e-01" nType="-99"/>
            <Node pos="r" depth="3" NCoef="0" IVar="-1" Cut="0.0000000000000000e+00" cType="1" res="1.5232474543154240e-02" rms="1.5794463455677032e-01" purity="9.5867592096328735e-01" nType="-99"/>
          </Node>
        </Node>
        <Node pos="r" depth="1" NCoef="0" IVar="-1" Cut="0.0000000000000000e+00" cType="1" res="-5.5947136133909225e-02" rms="1.6518549621105194e-01" purity="7.3531195521354675e-02" nType="-99"/>
      </Node>
    </BinaryTree>
    <BinaryTree type="DecisionTree" boostWeight="1.0000000000000000e+00" itree="52">
      <Node pos="s" depth="0" NCoef="0" IVar="2" Cut="7.6458856201171875e+02" cType="1" res="1.1720139300450683e-03" rms="1.8891066312789917e-01" purity="5.0039857625961304e-01" nType="0">
        <Node pos="l" depth="1" NCoef="0" IVar="0" Cut="1.9327485351562500e+03" cType="1" res="3.2629894558340311e-03" rms="1.9015379250049591e-01" purity="4.0428161621093750e-01" nType="0">
          <Node pos="l" depth="2" NCoef="0" IVar="1" Cut="6.9860614836215973e-02" cType="1" res="-5.5764039279893041e-04" rms="1.3887934386730194e-01" purity="2.2338155657052994e-02" nType="0">
            <Node pos="l" depth="3" NCoef="0" IVar="-1" Cut="0.0000000000000000e+00" cType="1" res="-3.0913824215531349e-02" rms="1.0120474547147751e-01" purity="1.0834651999175549e-02" nType="-99"/>
            <Node pos="r" depth="3" NCoef="0" IVar="-1" Cut="0.0000000000000000e+00" cType="1" res="3.1607359647750854e-02" rms="2.2142770886421204e-01" purity="6.0442402958869934e-02" nType="-99"/>
          </Node>
          <Node pos="r" depth="2" NCoef="0" IVar="6" Cut="1.1510884094238281e+02" cType="1" res="7.5327842496335506e-03" rms="2.3447455465793610e-01" purity="8.3112752437591553e-01" nType="0">
            <Node pos="l" depth="3" NCoef="0" IVar="-1" Cut="0.0000000000000000e+00" cType="1" res="2.5584066286683083e-02" rms="3.3198586106300354e-01" purity="5.2769643068313599e-01" nType="-99"/>
            <Node pos="r" depth="3" NCoef="0" IVar="-1" Cut="0.0000000000000000e+00" cType="1" res="5.9895860031247139e-03" rms="2.0068216323852539e-01" purity="9.1125184297561646e-01" nType="-99"/>
          </Node>
        </Node>
        <Node pos="r" depth="1" NCoef="0" IVar="0" Cut="3.2268718261718750e+03" cType="1" res="-6.7131151445209980e-03" rms="1.8393363058567047e-01" purity="8.6285853385925293e-01" nType="0">
          <Node pos="l" depth="2" NCoef="0" IVar="4" Cut="2.2805297851562500e+02" cType="1" res="-2.1975658833980560e-02" rms="2.8001785278320312e-01" purity="6.0558986663818359e-01" nType="0">
            <Node pos="l" depth="3" NCoef="0" IVar="-1" Cut="0.0000000000000000e+00" cType="1" res="-6.0474937781691551e-03" rms="2.8760439157485962e-01" purity="3.2450079917907715e-01" nType="-99"/>
            <Node pos="r" depth="3" NCoef="0" IVar="-1" Cut="0.0000000000000000e+00" cType="1" res="-5.4705131798982620e-02" rms="2.7358698844909668e-01" purity="8.1351083517074585e-01" nType="-99"/>
          </Node>
          <Node pos="r" depth="2" NCoef="0" IVar="7" Cut="-1.7946903407573700e-01" cType="1" res="5.4022815311327577e-04" rms="1.1172689497470856e-01" purity="9.8512238264083862e-01" nType="0">
            <Node pos="l" depth="3" NCoef="0" IVar="-1" Cut="0.0000000000000000e+00" cType="1" res="-4.5076247304677963e-02" rms="1.3559556007385254e-01" purity="9.7781330347061157e-01" nType="-99"/>
            <Node pos="r" depth="3" NCoef="0" IVar="-1" Cut="0.0000000000000000e+00" cType="1" res="3.2185982912778854e-02" rms="9.5571704208850861e-02" purity="9.8921734094619751e-01" nType="-99"/>
          </Node>
        </Node>
      </Node>
    </BinaryTree>
    <BinaryTree type="DecisionTree" boostWeight="1.0000000000000000e+00" itree="53">
      <Node pos="s" depth="0" NCoef="0" IVar="8" Cut="-6.6526067256927490e-01" cType="1" res="1.5094958944246173e-03" rms="1.8883977830410004e-01" purity="5.0521790981292725e-01" nType="0">
        <Node pos="l" depth="1" NCoef="0" IVar="3" Cut="4.8500341796875000e+02" cType="1" res="-6.7062829621136189e-03" rms="1.9651181995868683e-01" purity="3.5954353213310242e-01" nType="0">
          <Node pos="l" depth="2" NCoef="0" IVar="11" Cut="3.9852491021156311e-01" cType="1" res="-2.2140808869153261e-03" rms="1.9424666464328766e-01" purity="2.5166854262351990e-01" nType="0">
            <Node pos="l" depth="3" NCoef="0" IVar="-1" Cut="0.0000000000000000e+00" cType="1" res="-2.5087719783186913e-02" rms="1.8383702635765076e-01" purity="2.4533013999462128e-01" nType="-99"/>
            <Node pos="r" depth="3" NCoef="0" IVar="-1" Cut="0.0000000000000000e+00" cType="1" res="2.6799621060490608e-02" rms="2.1185101568698883e-01" purity="2.6361802220344543e-01" nType="-99"/>
          </Node>
          <Node pos="r" depth="2" NCoef="0" IVar="-1" Cut="0.0000000000000000e+00" cType="1" res="-9.2798359692096710e-02" rms="2.0564089715480804e-01" purity="8.7484967708587646e-01" nType="-99"/>
        </Node>
        <Node pos="r" depth="1" NCoef="0" IVar="4" Cut="1.5800704956054688e+02" cType="1" res="4.1049355641007423e-03" rms="1.8627516925334930e-01" purity="5.5123770236968994e-01" nType="0">
          <Node pos="l" depth="2" NCoef="0" IVar="10" Cut="9.3328100442886353e-01" cType="1" res="-5.3742541931569576e-03" rms="1.2731990218162537e-01" purity="2.6437707245349884e-02" nType="0">
            <Node pos="l" depth="3" NCoef="0" IVar="-1" Cut="0.0000000000000000e+00" cType="1" res="-4.6569339931011200e-02" rms="1.1878231167793274e-01" purity="2.2062975913286209e-02" nType="-99"/>
            <Node pos="r" depth="3" NCoef="0" IVar="-1" Cut="0.0000000000000000e+00" cType="1" res="3.2363969832658768e-02" rms="1.4993222057819366e-01" purity="3.9880394935607910e-02" nType="-99"/>
          </Node>
          <Node pos="r" depth="2" NCoef="0" IVar="1" Cut="4.3513353914022446e-02" cType="1" res="6.3472879119217396e-03" rms="1.9759961962699890e-01" purity="6.7538189888000488e-01" nType="0">
            <Node pos="l" depth="3" NCoef="0" IVar="-1" Cut="0.0000000000000000e+00" cType="1" res="3.6982834339141846e-02" rms="2.2208347916603088e-01" purity="3.3047449588775635e-01" nType="-99"/>
            <Node pos="r" depth="3" NCoef="0" IVar="-1" Cut="0.0000000000000000e+00" cType="1" res="6.9054011255502701e-03" rms="1.8891109526157379e-01" purity="7.8594565391540527e-01" nType="-99"/>
          </Node>
        </Node>
      </Node>
    </BinaryTree>
    <BinaryTree type="DecisionTree" boostWeight="1.0000000000000000e+00" itree="54">
      <Node pos="s" depth="0" NCoef="0" IVar="1" Cut="6.5069943666458130e-02" cType="1" res="-1.5061192680150270e-03" rms="1.9230887293815613e-01" purity="4.9317932128906250e-01" nType="0">
        <Node pos="l" depth="1" NCoef="0" IVar="3" Cut="4.6662460327148438e+02" cType="1" res="2.2376778069883585e-03" rms="2.0031848549842834e-01" purity="2.5202798843383789e-01" nType="0">
          <Node pos="l" depth="2" NCoef="0" IVar="0" Cut="2.1314838867187500e+03" cType="1" res="5.5616651661694050e-03" rms="1.8921890854835510e-01" purity="1.3898685574531555e-01" nType="0">
            <Node pos="l" depth="3" NCoef="0" IVar="-1" Cut="0.0000000000000000e+00" cType="1" res="4.8123747110366821e-03" rms="1.3872204720973969e-01" purity="2.2672597318887711e-02" nType="-99"/>
            <Node pos="r" depth="3" NCoef="0" IVar="-1" Cut="0.0000000000000000e+00" cType="1" res="2.5590309873223305e-02" rms="3.3629029989242554e-01" purity="6.8590378761291504e-01" nType="-99"/>
          </Node>
          <Node pos="r" depth="2" NCoef="0" IVar="3" Cut="5.2854962158203125e+02" cType="1" res="-1.3740896247327328e-02" rms="2.4617742002010345e-01" purity="7.9542225599288940e-01" nType="0">
            <Node pos="l" depth="3" NCoef="0" IVar="-1" Cut="0.0000000000000000e+00" cType="1" res="-4.6570196747779846e-02" rms="2.6089274883270264e-01" purity="6.3323324918746948e-01" nType="-99"/>
            <Node pos="r" depth="3" NCoef="0" IVar="-1" Cut="0.0000000000000000e+00" cType="1" res="-1.0528279468417168e-02" rms="2.3889213800430298e-01" purity="8.6682784557342529e-01" nType="-99"/>
          </Node>
        </Node>
        <Node pos="r" depth="1" NCoef="0" IVar="0" Cut="2.3861428222656250e+03" cType="1" res="-5.2505237981677055e-03" rms="1.8387322127819061e-01" purity="7.3436975479125977e-01" nType="0">
          <Node pos="l" depth="2" NCoef="0" IVar="0" Cut="1.9164923095703125e+03" cType="1" res="-1.8030229955911636e-02" rms="2.7329927682876587e-01" purity="1.9917280972003937e-01" nType="0">
            <Node pos="l" depth="3" NCoef="0" IVar="-1" Cut="0.0000000000000000e+00" cType="1" res="-6.2861191108822823e-03" rms="1.8989053368568420e-01" purity="4.3477334082126617e-02" nType="-99"/>
            <Node pos="r" depth="3" NCoef="0" IVar="-1" Cut="0.0000000000000000e+00" cType="1" res="-3.2489009201526642e-02" rms="4.0177780389785767e-01" purity="5.5616521835327148e-01" nType="-99"/>
          </Node>
          <Node pos="r" depth="2" NCoef="0" IVar="4" Cut="3.4718176269531250e+02" cType="1" res="6.6907395375892520e-04" rms="1.2149684876203537e-01" purity="9.8227453231811523e-01" nType="0">
            <Node pos="l" depth="3" NCoef="0" IVar="-1" Cut="0.0000000000000000e+00" cType="1" res="-1.8350938335061073e-02" rms="1.6881079971790314e-01" purity="9.6381860971450806e-01" nType="-99"/>
            <Node pos="r" depth="3" NCoef="0" IVar="-1" Cut="0.0000000000000000e+00" cType="1" res="3.9226055145263672e-02" rms="8.0295756459236145e-02" purity="9.9340808391571045e-01" nType="-99"/>
          </Node>
        </Node>
      </Node>
    </BinaryTree>
    <BinaryTree type="DecisionTree" boostWeight="1.0000000000000000e+00" itree="55">
      <Node pos="s" depth="0" NCoef="0" IVar="7" Cut="1.2490034103393555e+00" cType="1" res="-2.8385323821566999e-04" rms="1.8906895816326141e-01" purity="5.0180470943450928e-01" nType="0">
        <Node pos="l" depth="1" NCoef="0" IVar="2" Cut="5.6537268066406250e+02" cType="1" res="1.0066278045997024e-03" rms="1.9155339896678925e-01" purity="5.3552919626235962e-01" nType="0">
          <Node pos="l" depth="2" NCoef="0" IVar="6" Cut="1.0469319152832031e+02" cType="1" res="4.9809301272034645e-03" rms="2.0226651430130005e-01" purity="2.8263977169990540e-01" nType="0">
            <Node pos="l" depth="3" NCoef="0" IVar="-1" Cut="0.0000000000000000e+00" cType="1" res="-3.1173906754702330e-03" rms="1.5105503797531128e-01" purity="5.2413877099752426e-02" nType="-99"/>
            <Node pos="r" depth="3" NCoef="0" IVar="-1" Cut="0.0000000000000000e+00" cType="1" res="1.9571674987673759e-02" rms="2.4642364680767059e-01" purity="5.3569829463958740e-01" nType="-99"/>
          </Node>
          <Node pos="r" depth="2" NCoef="0" IVar="0" Cut="2.4657580566406250e+03" cType="1" res="-2.5576008483767509e-03" rms="1.8133430182933807e-01" purity="7.6232510805130005e-01" nType="0">
            <Node pos="l" depth="3" NCoef="0" IVar="-1" Cut="0.0000000000000000e+00" cType="1" res="-2.6224484667181969e-02" rms="2.3940671980381012e-01" purity="1.2190911918878555e-01" nType="-99"/>
            <Node pos="r" depth="3" NCoef="0" IVar="-1" Cut="0.0000000000000000e+00" cType="1" res="7.4659530073404312e-03" rms="1.5888343751430511e-01" purity="9.6034902334213257e-01" nType="-99"/>
          </Node>
        </Node>
        <Node pos="r" depth="1" NCoef="0" IVar="4" Cut="2.1163360595703125e+02" cType="1" res="-1.5454485081136227e-02" rms="1.5614309906959534e-01" purity="1.0534704476594925e-01" nType="0">
          <Node pos="l" depth="2" NCoef="0" IVar="-1" Cut="0.0000000000000000e+00" cType="1" res="-4.1618090122938156e-02" rms="8.5033044219017029e-02" purity="1.1744913645088673e-02" nType="-99"/>
          <Node pos="r" depth="2" NCoef="0" IVar="-1" Cut="0.0000000000000000e+00" cType="1" res="-5.6848794221878052e-02" rms="2.3205600678920746e-01" purity="2.6866295933723450e-01" nType="-99"/>
        </Node>
      </Node>
    </BinaryTree>
    <BinaryTree type="DecisionTree" boostWeight="1.0000000000000000e+00" itree="56">
      <Node pos="s" depth="0" NCoef="0" IVar="2" Cut="7.6446002197265625e+02" cType="1" res="-6.3317024614661932e-04" rms="1.8772080540657043e-01" purity="4.9426487088203430e-01" nType="0">
        <Node pos="l" depth="1" NCoef="0" IVar="6" Cut="7.3214904785156250e+01" cType="1" res="1.0962632950395346e-03" rms="1.9033373892307281e-01" purity="3.9529293775558472e-01" nType="0">
          <Node pos="l" depth="2" NCoef="0" IVar="7" Cut="7.7402055263519287e-01" cType="1" res="-6.1699100770056248e-03" rms="1.1583818495273590e-01" purity="2.8966693207621574e-02" nType="0">
            <Node pos="l" depth="3" NCoef="0" IVar="-1" Cut="0.0000000000000000e+00" cType="1" res="-5.1329534500837326e-02" rms="1.1055814474821091e-01" purity="3.1628906726837158e-02" nType="-99"/>
            <Node pos="r" depth="3" NCoef="0" IVar="-1" Cut="0.0000000000000000e+00" cType="1" res="3.6107048392295837e-02" rms="1.2967786192893982e-01" purity="2.1065501496195793e-02" nType="-99"/>
          </Node>
          <Node pos="r" depth="2" NCoef="0" IVar="5" Cut="1.8148947143554688e+02" cType="1" res="2.6542732957750559e-03" rms="2.0274063944816589e-01" purity="4.7384044528007507e-01" nType="0">
            <Node pos="l" depth="3" NCoef="0" IVar="-1" Cut="0.0000000000000000e+00" cType="1" res="1.5390156768262386e-02" rms="2.0749893784523010e-01" purity="1.5334032475948334e-01" nType="-99"/>
            <Node pos="r" depth="3" NCoef="0" IVar="-1" Cut="0.0000000000000000e+00" cType="1" res="-4.1211945936083794e-03" rms="1.9694346189498901e-01" purity="8.4863090515136719e-01" nType="-99"/>
          </Node>
        </Node>
        <Node pos="r" depth="1" NCoef="0" IVar="0" Cut="3.0379187011718750e+03" cType="1" res="-7.1895117871463299e-03" rms="1.7731294035911560e-01" purity="8.6947101354598999e-01" nType="0">
          <Node pos="l" depth="2" NCoef="0" IVar="-1" Cut="0.0000000000000000e+00" cType="1" res="-4.1573278605937958e-02" rms="3.0274558067321777e-01" purity="4.7724771499633789e-01" nType="-99"/>
          <Node pos="r" depth="2" NCoef="0" IVar="0" Cut="3.3749965820312500e+03" cType="1" res="1.4245890779420733e-03" rms="1.1684835702180862e-01" purity="9.8317557573318481e-01" nType="0">
            <Node pos="l" depth="3" NCoef="0" IVar="-1" Cut="0.0000000000000000e+00" cType="1" res="-3.2310776412487030e-02" rms="1.7380020022392273e-01" purity="9.5959371328353882e-01" nType="-99"/>
            <Node pos="r" depth="3" NCoef="0" IVar="-1" Cut="0.0000000000000000e+00" cType="1" res="3.5921026021242142e-02" rms="9.1444201767444611e-02" purity="9.9065661430358887e-01" nType="-99"/>
          </Node>
        </Node>
      </Node>
    </BinaryTree>
    <BinaryTree type="DecisionTree" boostWeight="1.0000000000000000e+00" itree="57">
      <Node pos="s" depth="0" NCoef="0" IVar="8" Cut="1.4667235612869263e+00" cType="1" res="3.1446164939552546e-03" rms="1.8931910395622253e-01" purity="5.0726306438446045e-01" nType="0">
        <Node pos="l" depth="1" NCoef="0" IVar="7" Cut="7.5334823131561279e-01" cType="1" res="4.1234050877392292e-03" rms="1.8895688652992249e-01" purity="5.3280979394912720e-01" nType="0">
          <Node pos="l" depth="2" NCoef="0" IVar="11" Cut="1.4668025970458984e+00" cType="1" res="6.1619556508958340e-03" rms="1.9048237800598145e-01" purity="5.8365869522094727e-01" nType="0">
            <Node pos="l" depth="3" NCoef="0" IVar="-1" Cut="0.0000000000000000e+00" cType="1" res="1.2917085550725460e-02" rms="1.8646889925003052e-01" purity="5.9275108575820923e-01" nType="-99"/>
            <Node pos="r" depth="3" NCoef="0" IVar="-1" Cut="0.0000000000000000e+00" cType="1" res="4.6262905001640320e-02" rms="2.2274127602577209e-01" purity="5.0209778547286987e-01" nType="-99"/>
          </Node>
          <Node pos="r" depth="2" NCoef="0" IVar="0" Cut="2.2119909667968750e+03" cType="1" res="-5.0539276562631130e-03" rms="1.8164782226085663e-01" purity="3.0389353632926941e-01" nType="0">
            <Node pos="l" depth="3" NCoef="0" IVar="-1" Cut="0.0000000000000000e+00" cType="1" res="-3.7104908376932144e-02" rms="1.5635983645915985e-01" purity="3.3377975225448608e-02" nType="-99"/>
            <Node pos="r" depth="3" NCoef="0" IVar="-1" Cut="0.0000000000000000e+00" cType="1" res="1.5177324414253235e-02" rms="2.2592318058013916e-01" purity="8.8330090045928955e-01" nType="-99"/>
          </Node>
        </Node>
        <Node pos="r" depth="1" NCoef="0" IVar="2" Cut="5.2353765869140625e+02" cType="1" res="-1.1391362175345421e-02" rms="1.9403867423534393e-01" purity="1.2786865234375000e-01" nType="0">
          <Node pos="l" depth="2" NCoef="0" IVar="-1" Cut="0.0000000000000000e+00" cType="1" res="1.0320551693439484e-02" rms="1.7700020968914032e-01" purity="9.6866667270660400e-02" nType="-99"/>
          <Node pos="r" depth="2" NCoef="0" IVar="-1" Cut="0.0000000000000000e+00" cType="1" res="-9.1433189809322357e-02" rms="2.1474264562129974e-01" purity="1.7297974228858948e-01" nType="-99"/>
        </Node>
      </Node>
    </BinaryTree>
    <BinaryTree type="DecisionTree" boostWeight="1.0000000000000000e+00" itree="58">
      <Node pos="s" depth="0" NCoef="0" IVar="0" Cut="2.3891486816406250e+03" cType="1" res="-2.9210979118943214e-03" rms="1.8913456797599792e-01" purity="4.9353596568107605e-01" nType="0">
        <Node pos="l" depth="1" NCoef="0" IVar="4" Cut="2.6058483886718750e+02" cType="1" res="-5.9909070841968060e-03" rms="2.0194441080093384e-01" purity="8.6703166365623474e-02" nType="0">
          <Node pos="l" depth="2" NCoef="0" IVar="3" Cut="3.7558239746093750e+02" cType="1" res="-2.7476209215819836e-03" rms="1.7652012407779694e-01" purity="5.8479633182287216e-02" nType="0">
            <Node pos="l" depth="3" NCoef="0" IVar="-1" Cut="0.0000000000000000e+00" cType="1" res="-3.3196983858942986e-03" rms="1.6855892539024353e-01" purity="5.2026879042387009e-02" nType="-99"/>
            <Node pos="r" depth="3" NCoef="0" IVar="-1" Cut="0.0000000000000000e+00" cType="1" res="-2.8671072795987129e-02" rms="2.3393286764621735e-01" purity="1.1443156003952026e-01" nType="-99"/>
          </Node>
          <Node pos="r" depth="2" NCoef="0" IVar="8" Cut="1.0261601209640503e-01" cType="1" res="-3.2184697687625885e-02" rms="3.4310683608055115e-01" purity="3.1464523077011108e-01" nType="0">
            <Node pos="l" depth="3" NCoef="0" IVar="-1" Cut="0.0000000000000000e+00" cType="1" res="-2.5892106350511312e-03" rms="3.3098378777503967e-01" purity="3.5303401947021484e-01" nType="-99"/>
            <Node pos="r" depth="3" NCoef="0" IVar="-1" Cut="0.0000000000000000e+00" cType="1" res="-5.3974442183971405e-02" rms="3.5344612598419189e-01" purity="2.7107012271881104e-01" nType="-99"/>
          </Node>
        </Node>
        <Node pos="r" depth="1" NCoef="0" IVar="5" Cut="1.5331632995605469e+02" cType="1" res="5.4430827731266618e-04" rms="1.7347621917724609e-01" purity="9.5279604196548462e-01" nType="0">
          <Node pos="l" depth="2" NCoef="0" IVar="-1" Cut="0.0000000000000000e+00" cType="1" res="2.0097488537430763e-02" rms="3.4281799197196960e-01" purity="7.3605078458786011e-01" nType="-99"/>
          <Node pos="r" depth="2" NCoef="0" IVar="0" Cut="2.9898513183593750e+03" cType="1" res="-1.5598855679854751e-03" rms="1.4687246084213257e-01" purity="9.7379970550537109e-01" nType="0">
            <Node pos="l" depth="3" NCoef="0" IVar="-1" Cut="0.0000000000000000e+00" cType="1" res="-1.9542673602700233e-02" rms="2.3315678536891937e-01" purity="9.3144237995147705e-01" nType="-99"/>
            <Node pos="r" depth="3" NCoef="0" IVar="-1" Cut="0.0000000000000000e+00" cType="1" res="1.8792696297168732e-02" rms="8.3605408668518066e-02" purity="9.9259239435195923e-01" nType="-99"/>
          </Node>
        </Node>
      </Node>
    </BinaryTree>
    <BinaryTree type="DecisionTree" boostWeight="1.0000000000000000e+00" itree="59">
      <Node pos="s" depth="0" NCoef="0" IVar="10" Cut="-1.4659913778305054e+00" cType="1" res="-1.6351601516362280e-05" rms="1.9096055626869202e-01" purity="4.9403014779090881e-01" nType="0">
        <Node pos="l" depth="1" NCoef="0" IVar="10" Cut="-1.8468420505523682e+00" cType="1" res="1.1633423157036304e-02" rms="2.1648022532463074e-01" purity="3.2633906602859497e-01" nType="0">
          <Node pos="l" depth="2" NCoef="0" IVar="-1" Cut="0.0000000000000000e+00" cType="1" res="3.6381410900503397e-03" rms="2.1396091580390930e-01" purity="2.3462666571140289e-01" nType="-99"/>
          <Node pos="r" depth="2" NCoef="0" IVar="-1" Cut="0.0000000000000000e+00" cType="1" res="5.4530210793018341e-02" rms="2.1845161914825439e-01" purity="4.1538560390472412e-01" nType="-99"/>
        </Node>
        <Node pos="r" depth="1" NCoef="0" IVar="11" Cut="2.0002515316009521e+00" cType="1" res="-1.1767743853852153e-03" rms="1.8818968534469604e-01" purity="5.1073366403579712e-01" nType="0">
          <Node pos="l" depth="2" NCoef="0" IVar="1" Cut="1.9499824941158295e-01" cType="1" res="-1.9553520251065493e-03" rms="1.8618623912334442e-01" purity="5.1778179407119751e-01" nType="0">
            <Node pos="l" depth="3" NCoef="0" IVar="-1" Cut="0.0000000000000000e+00" cType="1" res="-8.8003631681203842e-03" rms="1.9091196358203888e-01" purity="4.7689196467399597e-01" nType="-99"/>
            <Node pos="r" depth="3" NCoef="0" IVar="-1" Cut="0.0000000000000000e+00" cType="1" res="3.9598315954208374e-02" rms="1.3465423882007599e-01" purity="8.9440768957138062e-01" nType="-99"/>
          </Node>
          <Node pos="r" depth="2" NCoef="0" IVar="-1" Cut="0.0000000000000000e+00" cType="1" res="3.7224225699901581e-02" rms="2.2689478099346161e-01" purity="3.5692700743675232e-01" nType="-99"/>
        </Node>
      </Node>
    </BinaryTree>
    <BinaryTree type="DecisionTree" boostWeight="1.0000000000000000e+00" itree="60">
      <Node pos="s" depth="0" NCoef="0" IVar="7" Cut="-1.4045150279998779e+00" cType="1" res="7.8234402462840080e-04" rms="1.9043515622615814e-01" purity="5.0290960073471069e-01" nType="0">
        <Node pos="l" depth="1" NCoef="0" IVar="2" Cut="4.2842385864257812e+02" cType="1" res="-1.6670295968651772e-02" rms="1.6749007999897003e-01" purity="7.5518429279327393e-02" nType="0">
          <Node pos="l" depth="2" NCoef="0" IVar="-1" Cut="0.0000000000000000e+00" cType="1" res="-7.6833833009004593e-03" rms="1.3694956898689270e-01" purity="3.4611165523529053e-02" nType="-99"/>
          <Node pos="r" depth="2" NCoef="0" IVar="-1" Cut="0.0000000000000000e+00" cType="1" res="-8.8284686207771301e-02" rms="1.9448527693748474e-01" purity="1.2095169723033905e-01" nType="-99"/>
        </Node>
        <Node pos="r" depth="1" NCoef="0" IVar="1" Cut="5.9332247823476791e-02" cType="1" res="1.8663208466023207e-03" rms="1.9171734154224396e-01" purity="5.2945464849472046e-01" nType="0">
          <Node pos="l" depth="2" NCoef="0" IVar="0" Cut="1.9325506591796875e+03" cType="1" res="8.3856899291276932e-03" rms="2.0016020536422729e-01" purity="2.7093628048896790e-01" nType="0">
            <Node pos="l" depth="3" NCoef="0" IVar="-1" Cut="0.0000000000000000e+00" cType="1" res="-5.1503214053809643e-03" rms="1.0704803466796875e-01" purity="1.2336861342191696e-02" nType="-99"/>
            <Node pos="r" depth="3" NCoef="0" IVar="-1" Cut="0.0000000000000000e+00" cType="1" res="2.8044039383530617e-02" rms="2.8719002008438110e-01" purity="6.5711581707000732e-01" nType="-99"/>
          </Node>
          <Node pos="r" depth="2" NCoef="0" IVar="0" Cut="2.5212480468750000e+03" cType="1" res="-2.9876739718019962e-03" rms="1.8503226339817047e-01" purity="7.2193449735641479e-01" nType="0">
            <Node pos="l" depth="3" NCoef="0" IVar="-1" Cut="0.0000000000000000e+00" cType="1" res="-1.6932718455791473e-02" rms="2.7499762177467346e-01" purity="2.5344613194465637e-01" nType="-99"/>
            <Node pos="r" depth="3" NCoef="0" IVar="-1" Cut="0.0000000000000000e+00" cType="1" res="1.8479738384485245e-02" rms="1.0322822630405426e-01" purity="9.8795235157012939e-01" nType="-99"/>
          </Node>
        </Node>
      </Node>
    </BinaryTree>
    <BinaryTree type="DecisionTree" boostWeight="1.0000000000000000e+00" itree="61">
      <Node pos="s" depth="0" NCoef="0" IVar="11" Cut="3.9977866411209106e-01" cType="1" res="-2.4623137433081865e-03" rms="1.8884401023387909e-01" purity="4.9570584297180176e-01" nType="0">
        <Node pos="l" depth="1" NCoef="0" IVar="7" Cut="-1.0806477069854736e+00" cType="1" res="1.0731914517236874e-04" rms="1.8181860446929932e-01" purity="5.0817704200744629e-01" nType="0">
          <Node pos="l" depth="2" NCoef="0" IVar="2" Cut="4.0800219726562500e+02" cType="1" res="-1.0494152083992958e-02" rms="1.6405834257602692e-01" purity="1.6462440788745880e-01" nType="0">
            <Node pos="l" depth="3" NCoef="0" IVar="-1" Cut="0.0000000000000000e+00" cType="1" res="1.3348071835935116e-02" rms="1.4867785573005676e-01" purity="5.5784489959478378e-02" nType="-99"/>
            <Node pos="r" depth="3" NCoef="0" IVar="-1" Cut="0.0000000000000000e+00" cType="1" res="-5.1590923219919205e-02" rms="1.7335157096385956e-01" purity="2.4019959568977356e-01" nType="-99"/>
          </Node>
          <Node pos="r" depth="2" NCoef="0" IVar="3" Cut="2.4440184020996094e+02" cType="1" res="1.4305997174233198e-03" rms="1.8387217819690704e-01" purity="5.5105936527252197e-01" nType="0">
            <Node pos="l" depth="3" NCoef="0" IVar="-1" Cut="0.0000000000000000e+00" cType="1" res="-3.5622093826532364e-02" rms="1.2830899655818939e-01" purity="3.4383285790681839e-02" nType="-99"/>
            <Node pos="r" depth="3" NCoef="0" IVar="-1" Cut="0.0000000000000000e+00" cType="1" res="9.7377439960837364e-03" rms="1.9495001435279846e-01" purity="6.7680752277374268e-01" nType="-99"/>
          </Node>
        </Node>
        <Node pos="r" depth="1" NCoef="0" IVar="1" Cut="3.8716081529855728e-02" cType="1" res="-6.7202579230070114e-03" rms="1.9986990094184875e-01" purity="4.7504091262817383e-01" nType="0">
          <Node pos="l" depth="2" NCoef="0" IVar="5" Cut="1.3633340454101562e+02" cType="1" res="7.5668520294129848e-03" rms="1.8085432052612305e-01" purity="1.6027578711509705e-01" nType="0">
            <Node pos="l" depth="3" NCoef="0" IVar="-1" Cut="0.0000000000000000e+00" cType="1" res="-3.4075986593961716e-02" rms="1.0989294946193695e-01" purity="2.7404742315411568e-02" nType="-99"/>
            <Node pos="r" depth="3" NCoef="0" IVar="-1" Cut="0.0000000000000000e+00" cType="1" res="5.2237328141927719e-02" rms="2.5181710720062256e-01" purity="3.6278250813484192e-01" nType="-99"/>
          </Node>
          <Node pos="r" depth="2" NCoef="0" IVar="9" Cut="-3.8531655073165894e-01" cType="1" res="-1.3262186199426651e-02" rms="2.0766967535018921e-01" purity="6.1916881799697876e-01" nType="0">
            <Node pos="l" depth="3" NCoef="0" IVar="-1" Cut="0.0000000000000000e+00" cType="1" res="2.8616855852305889e-03" rms="2.1082651615142822e-01" purity="6.3545143604278564e-01" nType="-99"/>
            <Node pos="r" depth="3" NCoef="0" IVar="-1" Cut="0.0000000000000000e+00" cType="1" res="-5.0007969141006470e-02" rms="2.0592652261257172e-01" purity="6.1192989349365234e-01" nType="-99"/>
          </Node>
        </Node>
      </Node>
    </BinaryTree>
    <BinaryTree type="DecisionTree" boostWeight="1.0000000000000000e+00" itree="62">
      <Node pos="s" depth="0" NCoef="0" IVar="3" Cut="3.2899578857421875e+02" cType="1" res="3.6549591459333897e-04" rms="1.9164185225963593e-01" purity="5.0973272323608398e-01" nType="0">
        <Node pos="l" depth="1" NCoef="0" IVar="1" Cut="1.4745771884918213e-01" cType="1" res="4.5132469385862350e-03" rms="1.9061493873596191e-01" purity="1.2797704339027405e-01" nType="0">
          <Node pos="l" depth="2" NCoef="0" IVar="0" Cut="1.9432691650390625e+03" cType="1" res="2.8678614180535078e-03" rms="1.8265363574028015e-01" purity="1.0553233325481415e-01" nType="0">
            <Node pos="l" depth="3" NCoef="0" IVar="-1" Cut="0.0000000000000000e+00" cType="1" res="6.7376613151282072e-04" rms="1.2515327334403992e-01" purity="1.7557902261614799e-02" nType="-99"/>
            <Node pos="r" depth="3" NCoef="0" IVar="-1" Cut="0.0000000000000000e+00" cType="1" res="1.5016953460872173e-02" rms="3.4415572881698608e-01" purity="5.2949732542037964e-01" nType="-99"/>
          </Node>
          <Node pos="r" depth="2" NCoef="0" IVar="-1" Cut="0.0000000000000000e+00" cType="1" res="4.2584802955389023e-02" rms="2.7375969290733337e-01" purity="4.2340472340583801e-01" nType="-99"/>
        </Node>
        <Node pos="r" depth="1" NCoef="0" IVar="0" Cut="2.4657949218750000e+03" cType="1" res="-2.7230626437813044e-03" rms="1.9234487414360046e-01" purity="7.9400116205215454e-01" nType="0">
          <Node pos="l" depth="2" NCoef="0" IVar="6" Cut="1.3402616882324219e+02" cType="1" res="-1.4909875579178333e-02" rms="2.9759132862091064e-01" purity="2.4545234441757202e-01" nType="0">
            <Node pos="l" depth="3" NCoef="0" IVar="-1" Cut="0.0000000000000000e+00" cType="1" res="8.4341233596205711e-03" rms="2.6145046949386597e-01" purity="1.6216005384922028e-01" nType="-99"/>
            <Node pos="r" depth="3" NCoef="0" IVar="-1" Cut="0.0000000000000000e+00" cType="1" res="-5.8309249579906464e-02" rms="3.8733872771263123e-01" purity="5.2414792776107788e-01" nType="-99"/>
          </Node>
          <Node pos="r" depth="2" NCoef="0" IVar="2" Cut="9.7099652099609375e+02" cType="1" res="1.1465619318187237e-03" rms="1.4339286088943481e-01" purity="9.6817940473556519e-01" nType="0">
            <Node pos="l" depth="3" NCoef="0" IVar="-1" Cut="0.0000000000000000e+00" cType="1" res="1.4319906011223793e-02" rms="1.3863910734653473e-01" purity="9.7334831953048706e-01" nType="-99"/>
            <Node pos="r" depth="3" NCoef="0" IVar="-1" Cut="0.0000000000000000e+00" cType="1" res="-3.6049768328666687e-02" rms="1.6708633303642273e-01" purity="9.3932771682739258e-01" nType="-99"/>
          </Node>
        </Node>
      </Node>
    </BinaryTree>
    <BinaryTree type="DecisionTree" boostWeight="1.0000000000000000e+00" itree="63">
      <Node pos="s" depth="0" NCoef="0" IVar="6" Cut="1.6907286071777344e+02" cType="1" res="-2.2100659552961588e-03" rms="1.8954195082187653e-01" purity="4.9885240197181702e-01" nType="0">
        <Node pos="l" depth="1" NCoef="0" IVar="4" Cut="2.0869264221191406e+02" cType="1" res="-4.3666865676641464e-03" rms="2.0994175970554352e-01" purity="3.0412933230400085e-01" nType="0">
          <Node pos="l" depth="2" NCoef="0" IVar="9" Cut="1.4663392305374146e+00" cType="1" res="6.6360778873786330e-04" rms="1.6947779059410095e-01" purity="7.1133077144622803e-02" nType="0">
            <Node pos="l" depth="3" NCoef="0" IVar="-1" Cut="0.0000000000000000e+00" cType="1" res="-5.7863737456500530e-03" rms="1.6721005737781525e-01" purity="6.9446206092834473e-02" nType="-99"/>
            <Node pos="r" depth="3" NCoef="0" IVar="-1" Cut="0.0000000000000000e+00" cType="1" res="6.1857052147388458e-02" rms="1.8307553231716156e-01" purity="8.2320816814899445e-02" nType="-99"/>
          </Node>
          <Node pos="r" depth="2" NCoef="0" IVar="11" Cut="1.7336560487747192e+00" cType="1" res="-1.0613740421831608e-02" rms="2.5114050507545471e-01" purity="5.9348422288894653e-01" nType="0">
            <Node pos="l" depth="3" NCoef="0" IVar="-1" Cut="0.0000000000000000e+00" cType="1" res="-2.2633686661720276e-02" rms="2.4698227643966675e-01" purity="5.9254503250122070e-01" nType="-99"/>
            <Node pos="r" depth="3" NCoef="0" IVar="-1" Cut="0.0000000000000000e+00" cType="1" res="3.1145084649324417e-02" rms="2.9008752107620239e-01" purity="6.0346394777297974e-01" nType="-99"/>
          </Node>
        </Node>
        <Node pos="r" depth="1" NCoef="0" IVar="2" Cut="6.3726165771484375e+02" cType="1" res="2.9194459784775972e-03" rms="1.2847366929054260e-01" purity="9.6200037002563477e-01" nType="0">
          <Node pos="l" depth="2" NCoef="0" IVar="2" Cut="4.9245220947265625e+02" cType="1" res="5.9769432991743088e-03" rms="1.6702869534492493e-01" purity="9.2198598384857178e-01" nType="0">
            <Node pos="l" depth="3" NCoef="0" IVar="-1" Cut="0.0000000000000000e+00" cType="1" res="-1.1902704834938049e-02" rms="2.3887617886066437e-01" purity="8.1366747617721558e-01" nType="-99"/>
            <Node pos="r" depth="3" NCoef="0" IVar="-1" Cut="0.0000000000000000e+00" cType="1" res="5.4510321468114853e-02" rms="1.1434543877840042e-01" purity="9.7657907009124756e-01" nType="-99"/>
          </Node>
          <Node pos="r" depth="2" NCoef="0" IVar="0" Cut="3.2500971679687500e+03" cType="1" res="8.6561503121629357e-04" rms="9.4031013548374176e-02" purity="9.8887956142425537e-01" nType="0">
            <Node pos="l" depth="3" NCoef="0" IVar="-1" Cut="0.0000000000000000e+00" cType="1" res="-2.4114528670907021e-02" rms="1.6858746111392975e-01" purity="9.6218460798263550e-01" nType="-99"/>
            <Node pos="r" depth="3" NCoef="0" IVar="-1" Cut="0.0000000000000000e+00" cType="1" res="5.3896270692348480e-02" rms="5.0951372832059860e-02" purity="9.9736893177032471e-01" nType="-99"/>
          </Node>
        </Node>
      </Node>
    </BinaryTree>
    <BinaryTree type="DecisionTree" boostWeight="1.0000000000000000e+00" itree="64">
      <Node pos="s" depth="0" NCoef="0" IVar="2" Cut="1.0016356811523438e+03" cType="1" res="9.1832538601011038e-04" rms="1.8677461147308350e-01" purity="5.0046211481094360e-01" nType="0">
        <Node pos="l" depth="1" NCoef="0" IVar="0" Cut="2.1679382324218750e+03" cType="1" res="1.7732187407091260e-03" rms="1.8639446794986725e-01" purity="4.7476157546043396e-01" nType="0">
          <Node pos="l" depth="2" NCoef="0" IVar="1" Cut="1.1234712600708008e-01" cType="1" res="-3.2199544366449118e-03" rms="1.8252374231815338e-01" purity="4.6641211956739426e-02" nType="0">
            <Node pos="l" depth="3" NCoef="0" IVar="-1" Cut="0.0000000000000000e+00" cType="1" res="4.0977569296956062e-03" rms="1.6484236717224121e-01" purity="3.5731066018342972e-02" nType="-99"/>
            <Node pos="r" depth="3" NCoef="0" IVar="-1" Cut="0.0000000000000000e+00" cType="1" res="-4.1575845330953598e-02" rms="2.8072157502174377e-01" purity="1.2960664927959442e-01" nType="-99"/>
          </Node>
          <Node pos="r" depth="2" NCoef="0" IVar="1" Cut="2.1725820377469063e-02" cType="1" res="6.9998390972614288e-03" rms="1.9022150337696075e-01" purity="9.2289805412292480e-01" nType="0">
            <Node pos="l" depth="3" NCoef="0" IVar="-1" Cut="0.0000000000000000e+00" cType="1" res="6.0806278139352798e-02" rms="3.0714398622512817e-01" purity="5.3276103734970093e-01" nType="-99"/>
            <Node pos="r" depth="3" NCoef="0" IVar="-1" Cut="0.0000000000000000e+00" cType="1" res="1.0224899277091026e-02" rms="1.8067583441734314e-01" purity="9.4508886337280273e-01" nType="-99"/>
          </Node>
        </Node>
        <Node pos="r" depth="1" NCoef="0" IVar="11" Cut="-1.4093415439128876e-01" cType="1" res="-1.2593382969498634e-02" rms="1.9217889010906219e-01" purity="9.0666282176971436e-01" nType="0">
          <Node pos="l" depth="2" NCoef="0" IVar="-1" Cut="0.0000000000000000e+00" cType="1" res="-7.0145323872566223e-02" rms="2.1128509938716888e-01" purity="8.9246201515197754e-01" nType="-99"/>
          <Node pos="r" depth="2" NCoef="0" IVar="-1" Cut="0.0000000000000000e+00" cType="1" res="-5.6990403681993484e-03" rms="1.7371538281440735e-01" purity="9.1865295171737671e-01" nType="-99"/>
        </Node>
      </Node>
    </BinaryTree>
    <BinaryTree type="DecisionTree" boostWeight="1.0000000000000000e+00" itree="65">
      <Node pos="s" depth="0" NCoef="0" IVar="7" Cut="7.4793738126754761e-01" cType="1" res="-1.1333383154124022e-03" rms="1.9050478935241699e-01" purity="5.0465184450149536e-01" nType="0">
        <Node pos="l" depth="1" NCoef="0" IVar="7" Cut="-2.0365540683269501e-01" cType="1" res="1.0421377373859286e-03" rms="1.9170166552066803e-01" purity="5.5833446979522705e-01" nType="0">
          <Node pos="l" depth="2" NCoef="0" IVar="9" Cut="1.4662822484970093e+00" cType="1" res="-3.0635176226496696e-03" rms="1.9375263154506683e-01" purity="4.6041101217269897e-01" nType="0">
            <Node pos="l" depth="3" NCoef="0" IVar="-1" Cut="0.0000000000000000e+00" cType="1" res="-3.7626321427524090e-03" rms="1.9344468414783478e-01" purity="4.8550045490264893e-01" nType="-99"/>
            <Node pos="r" depth="3" NCoef="0" IVar="-1" Cut="0.0000000000000000e+00" cType="1" res="-6.1904147267341614e-02" rms="1.9619143009185791e-01" purity="1.6581979393959045e-01" nType="-99"/>
          </Node>
          <Node pos="r" depth="2" NCoef="0" IVar="1" Cut="5.9943210333585739e-02" cType="1" res="4.9018119461834431e-03" rms="1.8967235088348389e-01" purity="6.5039110183715820e-01" nType="0">
            <Node pos="l" depth="3" NCoef="0" IVar="-1" Cut="0.0000000000000000e+00" cType="1" res="3.3300641924142838e-02" rms="2.1560192108154297e-01" purity="4.0190622210502625e-01" nType="-99"/>
            <Node pos="r" depth="3" NCoef="0" IVar="-1" Cut="0.0000000000000000e+00" cType="1" res="2.2646707948297262e-03" rms="1.7570665478706360e-01" purity="7.6975303888320923e-01" nType="-99"/>
          </Node>
        </Node>
        <Node pos="r" depth="1" NCoef="0" IVar="11" Cut="1.4555116891860962e+00" cType="1" res="-1.0547825135290623e-02" rms="1.8494130671024323e-01" purity="2.7233758568763733e-01" nType="0">
          <Node pos="l" depth="2" NCoef="0" IVar="8" Cut="-1.1954995393753052e+00" cType="1" res="-4.6310843899846077e-03" rms="1.8390694260597229e-01" purity="2.8829684853553772e-01" nType="0">
            <Node pos="l" depth="3" NCoef="0" IVar="-1" Cut="0.0000000000000000e+00" cType="1" res="-1.1999969929456711e-01" rms="1.8843819200992584e-01" purity="5.5612973868846893e-02" nType="-99"/>
            <Node pos="r" depth="3" NCoef="0" IVar="-1" Cut="0.0000000000000000e+00" cType="1" res="1.1517215752974153e-03" rms="1.8257334828376770e-01" purity="3.3418717980384827e-01" nType="-99"/>
          </Node>
          <Node pos="r" depth="2" NCoef="0" IVar="-1" Cut="0.0000000000000000e+00" cType="1" res="-8.0308482050895691e-02" rms="1.8722856044769287e-01" purity="1.8661388754844666e-01" nType="-99"/>
        </Node>
      </Node>
    </BinaryTree>
    <BinaryTree type="DecisionTree" boostWeight="1.0000000000000000e+00" itree="66">
      <Node pos="s" depth="0" NCoef="0" IVar="3" Cut="6.0152008056640625e+02" cType="1" res="3.2597593963146210e-04" rms="1.9316749274730682e-01" purity="4.9992284178733826e-01" nType="0">
        <Node pos="l" depth="1" NCoef="0" IVar="4" Cut="2.6223120117187500e+02" cType="1" res="1.8129411619156599e-03" rms="1.9729167222976685e-01" purity="4.3683278560638428e-01" nType="0">
          <Node pos="l" depth="2" NCoef="0" IVar="1" Cut="3.6075409501791000e-02" cType="1" res="4.4974400661885738e-03" rms="2.0105180144309998e-01" purity="1.4715212583541870e-01" nType="0">
            <Node pos="l" depth="3" NCoef="0" IVar="-1" Cut="0.0000000000000000e+00" cType="1" res="-7.4217165820300579e-03" rms="1.4275319874286652e-01" purity="4.1566386818885803e-02" nType="-99"/>
            <Node pos="r" depth="3" NCoef="0" IVar="-1" Cut="0.0000000000000000e+00" cType="1" res="1.9080203026533127e-02" rms="2.4020123481750488e-01" purity="2.3847810924053192e-01" nType="-99"/>
          </Node>
          <Node pos="r" depth="2" NCoef="0" IVar="0" Cut="2.5189082031250000e+03" cType="1" res="-2.1667254623025656e-03" rms="1.9151246547698975e-01" purity="8.6627322435379028e-01" nType="0">
            <Node pos="l" depth="3" NCoef="0" IVar="-1" Cut="0.0000000000000000e+00" cType="1" res="-1.5624578110873699e-02" rms="3.3605569601058960e-01" purity="4.3957126140594482e-01" nType="-99"/>
            <Node pos="r" depth="3" NCoef="0" IVar="-1" Cut="0.0000000000000000e+00" cType="1" res="1.1062720790505409e-02" rms="1.2770582735538483e-01" purity="9.7978538274765015e-01" nType="-99"/>
          </Node>
        </Node>
        <Node pos="r" depth="1" NCoef="0" IVar="6" Cut="1.5233978271484375e+02" cType="1" res="-1.0418288409709930e-02" rms="1.5983314812183380e-01" purity="9.5578849315643311e-01" nType="0">
          <Node pos="l" depth="2" NCoef="0" IVar="-1" Cut="0.0000000000000000e+00" cType="1" res="-7.3958575725555420e-02" rms="2.5043833255767822e-01" purity="8.8262903690338135e-01" nType="-99"/>
          <Node pos="r" depth="2" NCoef="0" IVar="-1" Cut="0.0000000000000000e+00" cType="1" res="-1.2191405519843102e-02" rms="7.9910986125469208e-02" purity="9.9295169115066528e-01" nType="-99"/>
        </Node>
      </Node>
    </BinaryTree>
    <BinaryTree type="DecisionTree" boostWeight="1.0000000000000000e+00" itree="67">
      <Node pos="s" depth="0" NCoef="0" IVar="9" Cut="1.9993048906326294e+00" cType="1" res="-2.8874518466182053e-04" rms="1.8901467323303223e-01" purity="5.0105518102645874e-01" nType="0">
        <Node pos="l" depth="1" NCoef="0" IVar="7" Cut="1.2345759868621826e+00" cType="1" res="5.5024551693350077e-04" rms="1.8919281661510468e-01" purity="5.1294028759002686e-01" nType="0">
          <Node pos="l" depth="2" NCoef="0" IVar="8" Cut="1.2000584602355957e+00" cType="1" res="1.7218654975295067e-03" rms="1.9142821431159973e-01" purity="5.4857420921325684e-01" nType="0">
            <Node pos="l" depth="3" NCoef="0" IVar="-1" Cut="0.0000000000000000e+00" cType="1" res="7.9999836161732674e-03" rms="1.9203440845012665e-01" purity="5.8691906929016113e-01" nType="-99"/>
            <Node pos="r" depth="3" NCoef="0" IVar="-1" Cut="0.0000000000000000e+00" cType="1" res="-2.3183215409517288e-02" rms="1.8585988879203796e-01" purity="2.1986010670661926e-01" nType="-99"/>
          </Node>
          <Node pos="r" depth="2" NCoef="0" IVar="9" Cut="3.9896512031555176e-01" cType="1" res="-1.2805784121155739e-02" rms="1.6093675792217255e-01" purity="1.0672673583030701e-01" nType="0">
            <Node pos="l" depth="3" NCoef="0" IVar="-1" Cut="0.0000000000000000e+00" cType="1" res="-9.1748587787151337e-02" rms="1.6336843371391296e-01" purity="9.6324644982814789e-02" nType="-99"/>
            <Node pos="r" depth="3" NCoef="0" IVar="-1" Cut="0.0000000000000000e+00" cType="1" res="2.9731478542089462e-02" rms="1.5442964434623718e-01" purity="1.2587504088878632e-01" nType="-99"/>
          </Node>
        </Node>
        <Node pos="r" depth="1" NCoef="0" IVar="-1" Cut="0.0000000000000000e+00" cType="1" res="-8.7237030267715454e-02" rms="1.8026408553123474e-01" purity="8.6465902626514435e-02" nType="-99"/>
      </Node>
    </BinaryTree>
    <BinaryTree type="DecisionTree" boostWeight="1.0000000000000000e+00" itree="68">
      <Node pos="s" depth="0" NCoef="0" IVar="11" Cut="-9.3343633413314819e-01" cType="1" res="-1.6281951684504747e-03" rms="1.8888734281063080e-01" purity="4.9929484724998474e-01" nType="0">
        <Node pos="l" depth="1" NCoef="0" IVar="0" Cut="2.3754245605468750e+03" cType="1" res="4.5667062513530254e-03" rms="1.9811418652534485e-01" purity="4.4916117191314697e-01" nType="0">
          <Node pos="l" depth="2" NCoef="0" IVar="0" Cut="1.6785224609375000e+03" cType="1" res="1.0249403305351734e-02" rms="2.0865635573863983e-01" purity="1.0045622289180756e-01" nType="0">
            <Node pos="l" depth="3" NCoef="0" IVar="-1" Cut="0.0000000000000000e+00" cType="1" res="-2.5977147743105888e-03" rms="8.8756009936332703e-02" purity="8.0412942916154861e-03" nType="-99"/>
            <Node pos="r" depth="3" NCoef="0" IVar="-1" Cut="0.0000000000000000e+00" cType="1" res="2.9806513339281082e-02" rms="3.0580461025238037e-01" purity="2.3094604909420013e-01" nType="-99"/>
          </Node>
          <Node pos="r" depth="2" NCoef="0" IVar="0" Cut="2.7704213867187500e+03" cType="1" res="-3.4024987835437059e-03" rms="1.8200758099555969e-01" purity="9.3817210197448730e-01" nType="0">
            <Node pos="l" depth="3" NCoef="0" IVar="-1" Cut="0.0000000000000000e+00" cType="1" res="-3.4898437559604645e-02" rms="3.0345535278320312e-01" purity="8.0809915065765381e-01" nType="-99"/>
            <Node pos="r" depth="3" NCoef="0" IVar="-1" Cut="0.0000000000000000e+00" cType="1" res="2.2514104843139648e-02" rms="1.1428014934062958e-01" purity="9.8198670148849487e-01" nType="-99"/>
          </Node>
        </Node>
        <Node pos="r" depth="1" NCoef="0" IVar="1" Cut="5.8146897703409195e-02" cType="1" res="-3.5527965519577265e-03" rms="1.8588556349277496e-01" purity="5.1487010717391968e-01" nType="0">
          <Node pos="l" depth="2" NCoef="0" IVar="2" Cut="8.7274401855468750e+02" cType="1" res="1.7346516251564026e-03" rms="1.9214604794979095e-01" purity="2.5254449248313904e-01" nType="0">
            <Node pos="l" depth="3" NCoef="0" IVar="-1" Cut="0.0000000000000000e+00" cType="1" res="1.0380079038441181e-02" rms="1.8542674183845520e-01" purity="1.8232357501983643e-01" nType="-99"/>
            <Node pos="r" depth="3" NCoef="0" IVar="-1" Cut="0.0000000000000000e+00" cType="1" res="-2.0151406526565552e-02" rms="2.3680022358894348e-01" purity="7.8782588243484497e-01" nType="-99"/>
          </Node>
          <Node pos="r" depth="2" NCoef="0" IVar="0" Cut="2.6326418457031250e+03" cType="1" res="-7.7178948558866978e-03" rms="1.8069247901439667e-01" purity="7.2151267528533936e-01" nType="0">
            <Node pos="l" depth="3" NCoef="0" IVar="-1" Cut="0.0000000000000000e+00" cType="1" res="-2.8386099264025688e-02" rms="2.6302164793014526e-01" purity="2.9364097118377686e-01" nType="-99"/>
            <Node pos="r" depth="3" NCoef="0" IVar="-1" Cut="0.0000000000000000e+00" cType="1" res="5.6137079373002052e-03" rms="9.7841329872608185e-02" purity="9.8971438407897949e-01" nType="-99"/>
          </Node>
        </Node>
      </Node>
    </BinaryTree>
    <BinaryTree type="DecisionTree" boostWeight="1.0000000000000000e+00" itree="69">
      <Node pos="s" depth="0" NCoef="0" IVar="10" Cut="-9.3276196718215942e-01" cType="1" res="-3.0488427728414536e-04" rms="1.8786504864692688e-01" purity="4.9326175451278687e-01" nType="0">
        <Node pos="l" depth="1" NCoef="0" IVar="5" Cut="2.2794731140136719e+02" cType="1" res="6.3828714191913605e-03" rms="1.9768737256526947e-01" purity="4.1281601786613464e-01" nType="0">
          <Node pos="l" depth="2" NCoef="0" IVar="6" Cut="1.0924846649169922e+02" cType="1" res="1.0236710309982300e-02" rms="2.0552310347557068e-01" purity="2.6081028580665588e-01" nType="0">
            <Node pos="l" depth="3" NCoef="0" IVar="-1" Cut="0.0000000000000000e+00" cType="1" res="5.9114261530339718e-03" rms="1.7589507997035980e-01" purity="1.0609827935695648e-01" nType="-99"/>
            <Node pos="r" depth="3" NCoef="0" IVar="-1" Cut="0.0000000000000000e+00" cType="1" res="4.3462615460157394e-02" rms="2.5120657682418823e-01" purity="5.5154418945312500e-01" nType="-99"/>
          </Node>
          <Node pos="r" depth="2" NCoef="0" IVar="-1" Cut="0.0000000000000000e+00" cType="1" res="-3.0095519497990608e-02" rms="1.6654482483863831e-01" purity="9.4720709323883057e-01" nType="-99"/>
        </Node>
        <Node pos="r" depth="1" NCoef="0" IVar="10" Cut="3.1128957867622375e-01" cType="1" res="-2.1039980929344893e-03" rms="1.8509250879287720e-01" purity="5.1490294933319092e-01" nType="0">
          <Node pos="l" depth="2" NCoef="0" IVar="1" Cut="1.3018552958965302e-01" cType="1" res="-5.3515438921749592e-03" rms="1.7542010545730591e-01" purity="5.5321091413497925e-01" nType="0">
            <Node pos="l" depth="3" NCoef="0" IVar="-1" Cut="0.0000000000000000e+00" cType="1" res="-2.5153048336505890e-02" rms="1.8369828164577484e-01" purity="4.4237560033798218e-01" nType="-99"/>
            <Node pos="r" depth="3" NCoef="0" IVar="-1" Cut="0.0000000000000000e+00" cType="1" res="2.3420292884111404e-02" rms="1.4911517500877380e-01" purity="8.6556398868560791e-01" nType="-99"/>
          </Node>
          <Node pos="r" depth="2" NCoef="0" IVar="10" Cut="1.9700034856796265e+00" cType="1" res="1.1092241620644927e-03" rms="1.9413563609123230e-01" purity="4.7699987888336182e-01" nType="0">
            <Node pos="l" depth="3" NCoef="0" IVar="-1" Cut="0.0000000000000000e+00" cType="1" res="8.2715582102537155e-03" rms="1.9316676259040833e-01" purity="5.1332336664199829e-01" nType="-99"/>
            <Node pos="r" depth="3" NCoef="0" IVar="-1" Cut="0.0000000000000000e+00" cType="1" res="-3.6545183509588242e-02" rms="2.0162962377071381e-01" purity="1.6087059676647186e-01" nType="-99"/>
          </Node>
        </Node>
      </Node>
    </BinaryTree>
    <BinaryTree type="DecisionTree" boostWeight="1.0000000000000000e+00" itree="70">
      <Node pos="s" depth="0" NCoef="0" IVar="9" Cut="-1.9988018274307251e+00" cType="1" res="-2.7497348492033780e-04" rms="1.8612080812454224e-01" purity="4.9237921833992004e-01" nType="0">
        <Node pos="l" depth="1" NCoef="0" IVar="-1" Cut="0.0000000000000000e+00" cType="1" res="-6.2504120171070099e-02" rms="1.6820180416107178e-01" purity="5.8646161109209061e-02" nType="-99"/>
        <Node pos="r" depth="1" NCoef="0" IVar="2" Cut="6.5834851074218750e+02" cType="1" res="2.1253361774142832e-04" rms="1.8658255040645599e-01" purity="5.0472217798233032e-01" nType="0">
          <Node pos="l" depth="2" NCoef="0" IVar="0" Cut="1.7325394287109375e+03" cType="1" res="2.3956841323524714e-03" rms="1.9249434769153595e-01" purity="3.3987715840339661e-01" nType="0">
            <Node pos="l" depth="3" NCoef="0" IVar="-1" Cut="0.0000000000000000e+00" cType="1" res="-2.2918805480003357e-02" rms="8.7997071444988251e-02" purity="7.9055558890104294e-03" nType="-99"/>
            <Node pos="r" depth="3" NCoef="0" IVar="-1" Cut="0.0000000000000000e+00" cType="1" res="1.0627084411680698e-02" rms="2.5233581662178040e-01" purity="6.4179736375808716e-01" nType="-99"/>
          </Node>
          <Node pos="r" depth="2" NCoef="0" IVar="0" Cut="3.1368142089843750e+03" cType="1" res="-3.9975279942154884e-03" rms="1.7454071342945099e-01" purity="8.2261496782302856e-01" nType="0">
            <Node pos="l" depth="3" NCoef="0" IVar="-1" Cut="0.0000000000000000e+00" cType="1" res="-1.8393103033304214e-02" rms="2.5048083066940308e-01" purity="5.5700725317001343e-01" nType="-99"/>
            <Node pos="r" depth="3" NCoef="0" IVar="-1" Cut="0.0000000000000000e+00" cType="1" res="5.0854193978011608e-03" rms="1.0171840339899063e-01" purity="9.8771995306015015e-01" nType="-99"/>
          </Node>
        </Node>
      </Node>
    </BinaryTree>
    <BinaryTree type="DecisionTree" boostWeight="1.0000000000000000e+00" itree="71">
      <Node pos="s" depth="0" NCoef="0" IVar="9" Cut="-6.6600644588470459e-01" cType="1" res="1.2521087191998959e-03" rms="1.9360642135143280e-01" purity="5.0359702110290527e-01" nType="0">
        <Node pos="l" depth="1" NCoef="0" IVar="9" Cut="-1.9861716032028198e+00" cType="1" res="7.9430025070905685e-03" rms="2.0106548070907593e-01" purity="4.2496415972709656e-01" nType="0">
          <Node pos="l" depth="2" NCoef="0" IVar="-1" Cut="0.0000000000000000e+00" cType="1" res="-6.9006755948066711e-02" rms="1.7672578990459442e-01" purity="7.6025664806365967e-02" nType="-99"/>
          <Node pos="r" depth="2" NCoef="0" IVar="0" Cut="2.4937800292968750e+03" cType="1" res="1.1313566006720066e-02" rms="2.0333270728588104e-01" purity="4.6403765678405762e-01" nType="0">
            <Node pos="l" depth="3" NCoef="0" IVar="-1" Cut="0.0000000000000000e+00" cType="1" res="3.8612216711044312e-02" rms="2.2786767780780792e-01" purity="1.4087967574596405e-01" nType="-99"/>
            <Node pos="r" depth="3" NCoef="0" IVar="-1" Cut="0.0000000000000000e+00" cType="1" res="5.9620663523674011e-03" rms="1.5820373594760895e-01" purity="9.5764940977096558e-01" nType="-99"/>
          </Node>
        </Node>
        <Node pos="r" depth="1" NCoef="0" IVar="9" Cut="-5.7973833754658699e-03" cType="1" res="-1.1117660906165838e-03" rms="1.9084542989730835e-01" purity="5.3137779235839844e-01" nType="0">
          <Node pos="l" depth="2" NCoef="0" IVar="9" Cut="-1.0010305792093277e-01" cType="1" res="-6.7182695493102074e-03" rms="1.8792420625686646e-01" purity="5.7348328828811646e-01" nType="0">
            <Node pos="l" depth="3" NCoef="0" IVar="-1" Cut="0.0000000000000000e+00" cType="1" res="-1.1671536602079868e-02" rms="1.8535040318965912e-01" purity="5.7337886095046997e-01" nType="-99"/>
            <Node pos="r" depth="3" NCoef="0" IVar="-1" Cut="0.0000000000000000e+00" cType="1" res="-6.2312416732311249e-02" rms="2.0182082056999207e-01" purity="5.7410985231399536e-01" nType="-99"/>
          </Node>
          <Node pos="r" depth="2" NCoef="0" IVar="10" Cut="1.2005397081375122e+00" cType="1" res="1.5410227933898568e-03" rms="1.9215516746044159e-01" purity="5.1145499944686890e-01" nType="0">
            <Node pos="l" depth="3" NCoef="0" IVar="-1" Cut="0.0000000000000000e+00" cType="1" res="1.2147242203354836e-02" rms="1.8822465837001801e-01" purity="5.4211109876632690e-01" nType="-99"/>
            <Node pos="r" depth="3" NCoef="0" IVar="-1" Cut="0.0000000000000000e+00" cType="1" res="-2.5253362953662872e-02" rms="2.1073874831199646e-01" purity="3.5378944873809814e-01" nType="-99"/>
          </Node>
        </Node>
      </Node>
    </BinaryTree>
    <BinaryTree type="DecisionTree" boostWeight="1.0000000000000000e+00" itree="72">
      <Node pos="s" depth="0" NCoef="0" IVar="11" Cut="1.7332991361618042e+00" cType="1" res="-1.0584746487438679e-03" rms="1.9128821790218353e-01" purity="5.0424897670745850e-01" nType="0">
        <Node pos="l" depth="1" NCoef="0" IVar="8" Cut="1.1994578838348389e+00" cType="1" res="-2.2023511119186878e-03" rms="1.8867142498493195e-01" purity="5.1438152790069580e-01" nType="0">
          <Node pos="l" depth="2" NCoef="0" IVar="8" Cut="-1.6571420431137085e+00" cType="1" res="-9.7265694057568908e-04" rms="1.8761914968490601e-01" purity="5.4890686273574829e-01" nType="0">
            <Node pos="l" depth="3" NCoef="0" IVar="-1" Cut="0.0000000000000000e+00" cType="1" res="-7.7579870820045471e-02" rms="1.7751805484294891e-01" purity="6.9781474769115448e-02" nType="-99"/>
            <Node pos="r" depth="3" NCoef="0" IVar="-1" Cut="0.0000000000000000e+00" cType="1" res="-1.7868571740109473e-04" rms="1.8808633089065552e-01" purity="5.7387441396713257e-01" nType="-99"/>
          </Node>
          <Node pos="r" depth="2" NCoef="0" IVar="0" Cut="1.9215570068359375e+03" cType="1" res="-1.3225795701146126e-02" rms="1.9751298427581787e-01" purity="2.0488363504409790e-01" nType="0">
            <Node pos="l" depth="3" NCoef="0" IVar="-1" Cut="0.0000000000000000e+00" cType="1" res="8.2539282739162445e-03" rms="1.2590201199054718e-01" purity="1.7560297623276711e-02" nType="-99"/>
            <Node pos="r" depth="3" NCoef="0" IVar="-1" Cut="0.0000000000000000e+00" cType="1" res="-4.9506194889545441e-02" rms="2.8863480687141418e-01" purity="5.7306289672851562e-01" nType="-99"/>
          </Node>
        </Node>
        <Node pos="r" depth="1" NCoef="0" IVar="9" Cut="1.3237795233726501e-01" cType="1" res="1.3341480866074562e-02" rms="2.2109742462635040e-01" purity="3.7669232487678528e-01" nType="0">
          <Node pos="l" depth="2" NCoef="0" IVar="-1" Cut="0.0000000000000000e+00" cType="1" res="5.9825956821441650e-02" rms="2.3849791288375854e-01" purity="4.2072039842605591e-01" nType="-99"/>
          <Node pos="r" depth="2" NCoef="0" IVar="-1" Cut="0.0000000000000000e+00" cType="1" res="-1.5946392668411136e-03" rms="2.0151150226593018e-01" purity="3.3328887820243835e-01" nType="-99"/>
        </Node>
      </Node>
    </BinaryTree>
    <BinaryTree type="DecisionTree" boostWeight="1.0000000000000000e+00" itree="73">
      <Node pos="s" depth="0" NCoef="0" IVar="10" Cut="1.1999810934066772e+00" cType="1" res="9.2991045676171780e-04" rms="1.9033542275428772e-01" purity="4.9868616461753845e-01" nType="0">
        <Node pos="l" depth="1" NCoef="0" IVar="7" Cut="-2.1050600335001945e-02" cType="1" res="-5.7795312022790313e-04" rms="1.8590408563613892e-01" purity="5.1968491077423096e-01" nType="0">
          <Node pos="l" depth="2" NCoef="0" IVar="11" Cut="1.7335944175720215e+00" cType="1" res="-3.5513837356120348e-03" rms="1.8796150386333466e-01" purity="5.1747983694076538e-01" nType="0">
            <Node pos="l" depth="3" NCoef="0" IVar="-1" Cut="0.0000000000000000e+00" cType="1" res="-6.5798610448837280e-03" rms="1.8701125681400299e-01" purity="5.3130877017974854e-01" nType="-99"/>
            <Node pos="r" depth="3" NCoef="0" IVar="-1" Cut="0.0000000000000000e+00" cType="1" res="-5.0590001046657562e-02" rms="1.9950167834758759e-01" purity="3.3095821738243103e-01" nType="-99"/>
          </Node>
          <Node pos="r" depth="2" NCoef="0" IVar="9" Cut="9.3248957395553589e-01" cType="1" res="2.3371195420622826e-03" rms="1.8381799757480621e-01" purity="5.2184665203094482e-01" nType="0">
            <Node pos="l" depth="3" NCoef="0" IVar="-1" Cut="0.0000000000000000e+00" cType="1" res="-2.2007706575095654e-03" rms="1.7810305953025818e-01" purity="5.4111027717590332e-01" nType="-99"/>
            <Node pos="r" depth="3" NCoef="0" IVar="-1" Cut="0.0000000000000000e+00" cType="1" res="4.5400384813547134e-02" rms="2.0787054300308228e-01" purity="4.3177959322929382e-01" nType="-99"/>
          </Node>
        </Node>
        <Node pos="r" depth="1" NCoef="0" IVar="5" Cut="1.7723611450195312e+02" cType="1" res="9.8281493410468102e-03" rms="2.1441495418548584e-01" purity="3.7476804852485657e-01" nType="0">
          <Node pos="l" depth="2" NCoef="0" IVar="0" Cut="1.9428583984375000e+03" cType="1" res="1.8543591722846031e-02" rms="2.0935316383838654e-01" purity="1.6506482660770416e-01" nType="0">
            <Node pos="l" depth="3" NCoef="0" IVar="-1" Cut="0.0000000000000000e+00" cType="1" res="3.2148934900760651e-02" rms="1.3785800337791443e-01" purity="2.1594641730189323e-02" nType="-99"/>
            <Node pos="r" depth="3" NCoef="0" IVar="-1" Cut="0.0000000000000000e+00" cType="1" res="5.6430980563163757e-02" rms="3.3416345715522766e-01" purity="5.6854414939880371e-01" nType="-99"/>
          </Node>
          <Node pos="r" depth="2" NCoef="0" IVar="-1" Cut="0.0000000000000000e+00" cType="1" res="-1.7049202695488930e-02" rms="2.2305388748645782e-01" purity="7.8764510154724121e-01" nType="-99"/>
        </Node>
      </Node>
    </BinaryTree>
    <BinaryTree type="DecisionTree" boostWeight="1.0000000000000000e+00" itree="74">
      <Node pos="s" depth="0" NCoef="0" IVar="10" Cut="-9.3197649717330933e-01" cType="1" res="4.6480391756631434e-04" rms="1.8498313426971436e-01" purity="5.0048547983169556e-01" nType="0">
        <Node pos="l" depth="1" NCoef="0" IVar="8" Cut="-1.3392917811870575e-01" cType="1" res="-4.4482648372650146e-03" rms="1.9419611990451813e-01" purity="4.1712537407875061e-01" nType="0">
          <Node pos="l" depth="2" NCoef="0" IVar="0" Cut="1.8662900390625000e+03" cType="1" res="-1.2432414107024670e-02" rms="1.7609111964702606e-01" purity="3.7274485826492310e-01" nType="0">
            <Node pos="l" depth="3" NCoef="0" IVar="-1" Cut="0.0000000000000000e+00" cType="1" res="-1.6296302899718285e-02" rms="1.0825217515230179e-01" purity="1.2568382546305656e-02" nType="-99"/>
            <Node pos="r" depth="3" NCoef="0" IVar="-1" Cut="0.0000000000000000e+00" cType="1" res="-3.6360383033752441e-02" rms="2.2211591899394989e-01" purity="7.1858376264572144e-01" nType="-99"/>
          </Node>
          <Node pos="r" depth="2" NCoef="0" IVar="5" Cut="1.9288236999511719e+02" cType="1" res="3.5475927870720625e-03" rms="2.1047146618366241e-01" purity="4.6157097816467285e-01" nType="0">
            <Node pos="l" depth="3" NCoef="0" IVar="-1" Cut="0.0000000000000000e+00" cType="1" res="2.6492271572351456e-02" rms="2.1554380655288696e-01" purity="2.3190557956695557e-01" nType="-99"/>
            <Node pos="r" depth="3" NCoef="0" IVar="-1" Cut="0.0000000000000000e+00" cType="1" res="-3.3586356788873672e-02" rms="1.9991132616996765e-01" purity="8.8564079999923706e-01" nType="-99"/>
          </Node>
        </Node>
        <Node pos="r" depth="1" NCoef="0" IVar="7" Cut="1.2557420730590820e+00" cType="1" res="1.7416912596672773e-03" rms="1.8249094486236572e-01" purity="5.2215045690536499e-01" nType="0">
          <Node pos="l" depth="2" NCoef="0" IVar="4" Cut="2.5709466552734375e+02" cType="1" res="2.7204232756048441e-03" rms="1.8492551147937775e-01" purity="5.5730301141738892e-01" nType="0">
            <Node pos="l" depth="3" NCoef="0" IVar="-1" Cut="0.0000000000000000e+00" cType="1" res="1.5829710289835930e-02" rms="2.0461721718311310e-01" purity="1.7739525437355042e-01" nType="-99"/>
            <Node pos="r" depth="3" NCoef="0" IVar="-1" Cut="0.0000000000000000e+00" cType="1" res="-1.9490929553285241e-03" rms="1.6477078199386597e-01" purity="9.0524464845657349e-01" nType="-99"/>
          </Node>
          <Node pos="r" depth="2" NCoef="0" IVar="2" Cut="4.3370135498046875e+02" cType="1" res="-9.6613215282559395e-03" rms="1.5079826116561890e-01" purity="1.1259458214044571e-01" nType="0">
            <Node pos="l" depth="3" NCoef="0" IVar="-1" Cut="0.0000000000000000e+00" cType="1" res="-1.3444103533402085e-03" rms="1.2143895030021667e-01" purity="4.9792692065238953e-02" nType="-99"/>
            <Node pos="r" depth="3" NCoef="0" IVar="-1" Cut="0.0000000000000000e+00" cType="1" res="-6.2493242323398590e-02" rms="1.7684257030487061e-01" purity="1.8123091757297516e-01" nType="-99"/>
          </Node>
        </Node>
      </Node>
    </BinaryTree>
    <BinaryTree type="DecisionTree" boostWeight="1.0000000000000000e+00" itree="75">
      <Node pos="s" depth="0" NCoef="0" IVar="9" Cut="-9.3346101045608521e-01" cType="1" res="-1.1986158788204193e-03" rms="1.9098578393459320e-01" purity="4.9997574090957642e-01" nType="0">
        <Node pos="l" depth="1" NCoef="0" IVar="7" Cut="-5.2393001317977905e-01" cType="1" res="4.4427118264138699e-03" rms="1.9567312300205231e-01" purity="3.5488089919090271e-01" nType="0">
          <Node pos="l" depth="2" NCoef="0" IVar="6" Cut="1.0450643157958984e+02" cType="1" res="1.7389170825481415e-02" rms="2.0206409692764282e-01" purity="3.1540626287460327e-01" nType="0">
            <Node pos="l" depth="3" NCoef="0" IVar="-1" Cut="0.0000000000000000e+00" cType="1" res="2.2271284833550453e-02" rms="1.6136546432971954e-01" purity="7.2830550372600555e-02" nType="-99"/>
            <Node pos="r" depth="3" NCoef="0" IVar="-1" Cut="0.0000000000000000e+00" cType="1" res="5.7946432381868362e-02" rms="2.3970319330692291e-01" purity="5.9360313415527344e-01" nType="-99"/>
          </Node>
          <Node pos="r" depth="2" NCoef="0" IVar="8" Cut="4.0231513977050781e-01" cType="1" res="-7.6982373138889670e-04" rms="1.9279490411281586e-01" purity="3.7077426910400391e-01" nType="0">
            <Node pos="l" depth="3" NCoef="0" IVar="-1" Cut="0.0000000000000000e+00" cType="1" res="1.0917474515736103e-02" rms="1.8728338181972504e-01" purity="4.0522325038909912e-01" nType="-99"/>
            <Node pos="r" depth="3" NCoef="0" IVar="-1" Cut="0.0000000000000000e+00" cType="1" res="-2.3497786372900009e-02" rms="2.0331084728240967e-01" purity="3.0018892884254456e-01" nType="-99"/>
          </Node>
        </Node>
        <Node pos="r" depth="1" NCoef="0" IVar="11" Cut="1.4659582376480103e+00" cType="1" res="-2.5100223720073700e-03" rms="1.8985557556152344e-01" purity="5.3370517492294312e-01" nType="0">
          <Node pos="l" depth="2" NCoef="0" IVar="10" Cut="-6.6615170240402222e-01" cType="1" res="-1.1795107275247574e-03" rms="1.8724009394645691e-01" purity="5.4744118452072144e-01" nType="0">
            <Node pos="l" depth="3" NCoef="0" IVar="-1" Cut="0.0000000000000000e+00" cType="1" res="1.0494938120245934e-02" rms="1.9620735943317413e-01" purity="5.0933140516281128e-01" nType="-99"/>
            <Node pos="r" depth="3" NCoef="0" IVar="-1" Cut="0.0000000000000000e+00" cType="1" res="-9.7343157976865768e-03" rms="1.8354840576648712e-01" purity="5.6245470046997070e-01" nType="-99"/>
          </Node>
          <Node pos="r" depth="2" NCoef="0" IVar="9" Cut="6.6678053140640259e-01" cType="1" res="-1.3376143760979176e-02" rms="2.0968422293663025e-01" purity="4.2152398824691772e-01" nType="0">
            <Node pos="l" depth="3" NCoef="0" IVar="-1" Cut="0.0000000000000000e+00" cType="1" res="-6.3887177966535091e-03" rms="2.0342542231082916e-01" purity="4.9348425865173340e-01" nType="-99"/>
            <Node pos="r" depth="3" NCoef="0" IVar="-1" Cut="0.0000000000000000e+00" cType="1" res="-6.9865740835666656e-02" rms="2.1810112893581390e-01" purity="3.0841460824012756e-01" nType="-99"/>
          </Node>
        </Node>
      </Node>
    </BinaryTree>
    <BinaryTree type="DecisionTree" boostWeight="1.0000000000000000e+00" itree="76">
      <Node pos="s" depth="0" NCoef="0" IVar="11" Cut="-1.3251926004886627e-01" cType="1" res="2.0066436845809221e-03" rms="1.9286400079727173e-01" purity="5.0148588418960571e-01" nType="0">
        <Node pos="l" depth="1" NCoef="0" IVar="8" Cut="-6.6334593296051025e-01" cType="1" res="-1.6432256670668721e-03" rms="1.8771256506443024e-01" purity="4.8889365792274475e-01" nType="0">
          <Node pos="l" depth="2" NCoef="0" IVar="8" Cut="-8.6624383926391602e-01" cType="1" res="-8.4528997540473938e-03" rms="1.9295659661293030e-01" purity="3.3018565177917480e-01" nType="0">
            <Node pos="l" depth="3" NCoef="0" IVar="-1" Cut="0.0000000000000000e+00" cType="1" res="-3.8902496453374624e-03" rms="1.8467275798320770e-01" purity="2.7313354611396790e-01" nType="-99"/>
            <Node pos="r" depth="3" NCoef="0" IVar="-1" Cut="0.0000000000000000e+00" cType="1" res="-7.7010147273540497e-02" rms="2.1610824763774872e-01" purity="5.1575738191604614e-01" nType="-99"/>
          </Node>
          <Node pos="r" depth="2" NCoef="0" IVar="8" Cut="1.1500871181488037e+00" cType="1" res="8.5365562699735165e-04" rms="1.8569009006023407e-01" purity="5.4708665609359741e-01" nType="0">
            <Node pos="l" depth="3" NCoef="0" IVar="-1" Cut="0.0000000000000000e+00" cType="1" res="7.1294377557933331e-03" rms="1.8239277601242065e-01" purity="6.0601663589477539e-01" nType="-99"/>
            <Node pos="r" depth="3" NCoef="0" IVar="-1" Cut="0.0000000000000000e+00" cType="1" res="-2.3133007809519768e-02" rms="2.0354415476322174e-01" purity="2.0468062162399292e-01" nType="-99"/>
          </Node>
        </Node>
        <Node pos="r" depth="1" NCoef="0" IVar="8" Cut="-1.1998240947723389e+00" cType="1" res="5.1648877561092377e-03" rms="1.9715847074985504e-01" purity="5.1238197088241577e-01" nType="0">
          <Node pos="l" depth="2" NCoef="0" IVar="-1" Cut="0.0000000000000000e+00" cType="1" res="4.9348883330821991e-02" rms="2.1169115602970123e-01" purity="2.2440604865550995e-01" nType="-99"/>
          <Node pos="r" depth="2" NCoef="0" IVar="0" Cut="2.6291596679687500e+03" cType="1" res="3.7500488106161356e-03" rms="1.9562947750091553e-01" purity="5.4039537906646729e-01" nType="0">
            <Node pos="l" depth="3" NCoef="0" IVar="-1" Cut="0.0000000000000000e+00" cType="1" res="1.3502731919288635e-02" rms="2.3495139181613922e-01" purity="1.7924258112907410e-01" nType="-99"/>
            <Node pos="r" depth="3" NCoef="0" IVar="-1" Cut="0.0000000000000000e+00" cType="1" res="-8.0336403334513307e-04" rms="1.3396476209163666e-01" purity="9.7333019971847534e-01" nType="-99"/>
          </Node>
        </Node>
      </Node>
    </BinaryTree>
    <BinaryTree type="DecisionTree" boostWeight="1.0000000000000000e+00" itree="77">
      <Node pos="s" depth="0" NCoef="0" IVar="8" Cut="-1.9946556091308594e+00" cType="1" res="7.8290986130014062e-04" rms="1.9065719842910767e-01" purity="5.0336700677871704e-01" nType="0">
        <Node pos="l" depth="1" NCoef="0" IVar="-1" Cut="0.0000000000000000e+00" cType="1" res="-9.3901552259922028e-02" rms="1.2481521815061569e-01" purity="1.9884012639522552e-02" nType="-99"/>
        <Node pos="r" depth="1" NCoef="0" IVar="7" Cut="1.4830708503723145e+00" cType="1" res="1.3671667547896504e-03" rms="1.9209648668766022e-01" purity="5.1649057865142822e-01" nType="0">
          <Node pos="l" depth="2" NCoef="0" IVar="11" Cut="9.3388336896896362e-01" cType="1" res="2.0187357440590858e-03" rms="1.9487415254116058e-01" purity="5.4025256633758545e-01" nType="0">
            <Node pos="l" depth="3" NCoef="0" IVar="-1" Cut="0.0000000000000000e+00" cType="1" res="1.1804284295067191e-03" rms="1.8817016482353210e-01" purity="5.5163228511810303e-01" nType="-99"/>
            <Node pos="r" depth="3" NCoef="0" IVar="-1" Cut="0.0000000000000000e+00" cType="1" res="1.8779803067445755e-02" rms="2.1694280207157135e-01" purity="4.9979493021965027e-01" nType="-99"/>
          </Node>
          <Node pos="r" depth="2" NCoef="0" IVar="-1" Cut="0.0000000000000000e+00" cType="1" res="-5.3632553666830063e-02" rms="1.2324349582195282e-01" purity="4.0461026132106781e-02" nType="-99"/>
        </Node>
      </Node>
    </BinaryTree>
    <BinaryTree type="DecisionTree" boostWeight="1.0000000000000000e+00" itree="78">
      <Node pos="s" depth="0" NCoef="0" IVar="10" Cut="-1.1991711854934692e+00" cType="1" res="-2.0443736575543880e-03" rms="1.9059620797634125e-01" purity="5.0560396909713745e-01" nType="0">
        <Node pos="l" depth="1" NCoef="0" IVar="5" Cut="1.9759443664550781e+02" cType="1" res="-1.1065750382840633e-02" rms="2.0850509405136108e-01" purity="3.6017522215843201e-01" nType="0">
          <Node pos="l" depth="2" NCoef="0" IVar="6" Cut="9.9153137207031250e+01" cType="1" res="1.4466233551502228e-03" rms="2.0927838981151581e-01" purity="1.8842808902263641e-01" nType="0">
            <Node pos="l" depth="3" NCoef="0" IVar="-1" Cut="0.0000000000000000e+00" cType="1" res="2.7437087148427963e-02" rms="1.8379695713520050e-01" purity="8.9439682662487030e-02" nType="-99"/>
            <Node pos="r" depth="3" NCoef="0" IVar="-1" Cut="0.0000000000000000e+00" cType="1" res="-1.5446177683770657e-02" rms="2.4211199581623077e-01" purity="3.3657407760620117e-01" nType="-99"/>
          </Node>
          <Node pos="r" depth="2" NCoef="0" IVar="-1" Cut="0.0000000000000000e+00" cType="1" res="-6.9150514900684357e-02" rms="2.0387761294841766e-01" purity="7.5188368558883667e-01" nType="-99"/>
        </Node>
        <Node pos="r" depth="1" NCoef="0" IVar="10" Cut="5.1449638605117798e-01" cType="1" res="-4.0044140769168735e-04" rms="1.8710137903690338e-01" purity="5.3210490942001343e-01" nType="0">
          <Node pos="l" depth="2" NCoef="0" IVar="10" Cut="-3.8315156102180481e-01" cType="1" res="-2.8950134292244911e-03" rms="1.7898561060428619e-01" purity="5.6729829311370850e-01" nType="0">
            <Node pos="l" depth="3" NCoef="0" IVar="-1" Cut="0.0000000000000000e+00" cType="1" res="4.8020668327808380e-03" rms="1.8477019667625427e-01" purity="5.6035256385803223e-01" nType="-99"/>
            <Node pos="r" depth="3" NCoef="0" IVar="-1" Cut="0.0000000000000000e+00" cType="1" res="-1.9827805459499359e-02" rms="1.7444808781147003e-01" purity="5.7250344753265381e-01" nType="-99"/>
          </Node>
          <Node pos="r" depth="2" NCoef="0" IVar="6" Cut="1.3900437927246094e+02" cType="1" res="3.6432244814932346e-03" rms="1.9949077069759369e-01" purity="4.7505691647529602e-01" nType="0">
            <Node pos="l" depth="3" NCoef="0" IVar="-1" Cut="0.0000000000000000e+00" cType="1" res="2.0653409883379936e-02" rms="2.1045534312725067e-01" purity="2.2758170962333679e-01" nType="-99"/>
            <Node pos="r" depth="3" NCoef="0" IVar="-1" Cut="0.0000000000000000e+00" cType="1" res="-1.0003161616623402e-02" rms="1.7996393144130707e-01" purity="8.7884944677352905e-01" nType="-99"/>
          </Node>
        </Node>
      </Node>
    </BinaryTree>
    <BinaryTree type="DecisionTree" boostWeight="1.0000000000000000e+00" itree="79">
      <Node pos="s" depth="0" NCoef="0" IVar="10" Cut="1.4666322469711304e+00" cType="1" res="2.0085345022380352e-03" rms="1.9243080914020538e-01" purity="5.1122105121612549e-01" nType="0">
        <Node pos="l" depth="1" NCoef="0" IVar="2" Cut="4.2920382690429688e+02" cType="1" res="1.0770453372970223e-03" rms="1.8915221095085144e-01" purity="5.2976560592651367e-01" nType="0">
          <Node pos="l" depth="2" NCoef="0" IVar="5" Cut="1.9558868408203125e+02" cType="1" res="6.4315455965697765e-03" rms="1.9400544464588165e-01" purity="1.2450460344552994e-01" nType="0">
            <Node pos="l" depth="3" NCoef="0" IVar="-1" Cut="0.0000000000000000e+00" cType="1" res="1.1255792342126369e-02" rms="1.6808502376079559e-01" purity="5.4264806210994720e-02" nType="-99"/>
            <Node pos="r" depth="3" NCoef="0" IVar="-1" Cut="0.0000000000000000e+00" cType="1" res="3.3437084406614304e-02" rms="3.1035995483398438e-01" purity="5.6794291734695435e-01" nType="-99"/>
          </Node>
          <Node pos="r" depth="2" NCoef="0" IVar="8" Cut="-3.9685350656509399e-01" cType="1" res="-6.9253478432074189e-04" rms="1.8748705089092255e-01" purity="6.6369813680648804e-01" nType="0">
            <Node pos="l" depth="3" NCoef="0" IVar="-1" Cut="0.0000000000000000e+00" cType="1" res="1.2635549530386925e-02" rms="2.0234017074108124e-01" purity="5.9674060344696045e-01" nType="-99"/>
            <Node pos="r" depth="3" NCoef="0" IVar="-1" Cut="0.0000000000000000e+00" cType="1" res="-9.6624642610549927e-03" rms="1.8006281554698944e-01" purity="6.9501620531082153e-01" nType="-99"/>
          </Node>
        </Node>
        <Node pos="r" depth="1" NCoef="0" IVar="0" Cut="1.7889953613281250e+03" cType="1" res="1.0983296670019627e-02" rms="2.2134694457054138e-01" purity="3.3254674077033997e-01" nType="0">
          <Node pos="l" depth="2" NCoef="0" IVar="-1" Cut="0.0000000000000000e+00" cType="1" res="-2.4691913276910782e-02" rms="1.0153678804636002e-01" purity="1.0306571610271931e-02" nType="-99"/>
          <Node pos="r" depth="2" NCoef="0" IVar="-1" Cut="0.0000000000000000e+00" cType="1" res="3.3442497253417969e-02" rms="2.9593974351882935e-01" purity="6.5735983848571777e-01" nType="-99"/>
        </Node>
      </Node>
    </BinaryTree>
    <BinaryTree type="DecisionTree" boostWeight="1.0000000000000000e+00" itree="80">
      <Node pos="s" depth="0" NCoef="0" IVar="5" Cut="1.5546881103515625e+02" cType="1" res="9.3655328964814544e-04" rms="1.8636284768581390e-01" purity="5.0301998853683472e-01" nType="0">
        <Node pos="l" depth="1" NCoef="0" IVar="4" Cut="3.0521493530273438e+02" cType="1" res="-3.1983410008251667e-03" rms="1.7512865364551544e-01" purity="1.0339172184467316e-01" nType="0">
          <Node pos="l" depth="2" NCoef="0" IVar="1" Cut="1.1207433789968491e-01" cType="1" res="-4.7842357307672501e-03" rms="1.6760379076004028e-01" purity="6.8597838282585144e-02" nType="0">
            <Node pos="l" depth="3" NCoef="0" IVar="-1" Cut="0.0000000000000000e+00" cType="1" res="-8.1562548875808716e-03" rms="1.5675950050354004e-01" purity="5.6017536669969559e-02" nType="-99"/>
            <Node pos="r" depth="3" NCoef="0" IVar="-1" Cut="0.0000000000000000e+00" cType="1" res="-4.2528800666332245e-02" rms="2.4151341617107391e-01" purity="1.7889657616615295e-01" nType="-99"/>
          </Node>
          <Node pos="r" depth="2" NCoef="0" IVar="-1" Cut="0.0000000000000000e+00" cType="1" res="2.6414196938276291e-02" rms="2.6719611883163452e-01" purity="6.6209524869918823e-01" nType="-99"/>
        </Node>
        <Node pos="r" depth="1" NCoef="0" IVar="0" Cut="2.1992333984375000e+03" cType="1" res="4.1149696335196495e-03" rms="1.9449816644191742e-01" purity="8.1020683050155640e-01" nType="0">
          <Node pos="l" depth="2" NCoef="0" IVar="0" Cut="1.7427000732421875e+03" cType="1" res="1.6450798138976097e-02" rms="3.0060419440269470e-01" purity="1.6834625601768494e-01" nType="0">
            <Node pos="l" depth="3" NCoef="0" IVar="-1" Cut="0.0000000000000000e+00" cType="1" res="-1.9537299871444702e-02" rms="1.2468262016773224e-01" purity="1.6465049237012863e-02" nType="-99"/>
            <Node pos="r" depth="3" NCoef="0" IVar="-1" Cut="0.0000000000000000e+00" cType="1" res="2.5454269722104073e-02" rms="3.9793404936790466e-01" purity="3.0782583355903625e-01" nType="-99"/>
          </Node>
          <Node pos="r" depth="2" NCoef="0" IVar="6" Cut="1.4421774291992188e+02" cType="1" res="1.1752836871892214e-03" rms="1.5895183384418488e-01" purity="9.6316528320312500e-01" nType="0">
            <Node pos="l" depth="3" NCoef="0" IVar="-1" Cut="0.0000000000000000e+00" cType="1" res="-1.6796473413705826e-02" rms="2.4460013210773468e-01" purity="9.0325534343719482e-01" nType="-99"/>
            <Node pos="r" depth="3" NCoef="0" IVar="-1" Cut="0.0000000000000000e+00" cType="1" res="2.1520055830478668e-02" rms="1.2395699322223663e-01" purity="9.8026323318481445e-01" nType="-99"/>
          </Node>
        </Node>
      </Node>
    </BinaryTree>
    <BinaryTree type="DecisionTree" boostWeight="1.0000000000000000e+00" itree="81">
      <Node pos="s" depth="0" NCoef="0" IVar="8" Cut="-3.9929518103599548e-01" cType="1" res="-1.0076853213831782e-03" rms="1.8596066534519196e-01" purity="5.0074356794357300e-01" nType="0">
        <Node pos="l" depth="1" NCoef="0" IVar="9" Cut="1.2997502088546753e-01" cType="1" res="-5.7013714686036110e-03" rms="1.8625149130821228e-01" purity="4.2980971932411194e-01" nType="0">
          <Node pos="l" depth="2" NCoef="0" IVar="7" Cut="4.9846982955932617e-01" cType="1" res="-1.5010628849267960e-03" rms="1.8422880768775940e-01" purity="4.4134685397148132e-01" nType="0">
            <Node pos="l" depth="3" NCoef="0" IVar="-1" Cut="0.0000000000000000e+00" cType="1" res="6.7141321487724781e-03" rms="1.8693897128105164e-01" purity="5.0134181976318359e-01" nType="-99"/>
            <Node pos="r" depth="3" NCoef="0" IVar="-1" Cut="0.0000000000000000e+00" cType="1" res="-3.4192677587270737e-02" rms="1.7626847326755524e-01" purity="2.7907058596611023e-01" nType="-99"/>
          </Node>
          <Node pos="r" depth="2" NCoef="0" IVar="8" Cut="-1.0846304893493652e+00" cType="1" res="-1.1207417584955692e-02" rms="1.8872863054275513e-01" purity="4.1468611359596252e-01" nType="0">
            <Node pos="l" depth="3" NCoef="0" IVar="-1" Cut="0.0000000000000000e+00" cType="1" res="-7.0203192532062531e-02" rms="1.8781052529811859e-01" purity="1.9893339276313782e-01" nType="-99"/>
            <Node pos="r" depth="3" NCoef="0" IVar="-1" Cut="0.0000000000000000e+00" cType="1" res="-2.4105920456349850e-03" rms="1.8863576650619507e-01" purity="5.5929630994796753e-01" nType="-99"/>
          </Node>
        </Node>
        <Node pos="r" depth="1" NCoef="0" IVar="7" Cut="-5.6111752986907959e-01" cType="1" res="1.3436698354780674e-03" rms="1.8577022850513458e-01" purity="5.3627872467041016e-01" nType="0">
          <Node pos="l" depth="2" NCoef="0" IVar="2" Cut="6.9298791503906250e+02" cType="1" res="-5.1544290035963058e-03" rms="1.9168975949287415e-01" purity="3.6078169941902161e-01" nType="0">
            <Node pos="l" depth="3" NCoef="0" IVar="-1" Cut="0.0000000000000000e+00" cType="1" res="-4.4294181279838085e-03" rms="1.8272644281387329e-01" purity="2.7226316928863525e-01" nType="-99"/>
            <Node pos="r" depth="3" NCoef="0" IVar="-1" Cut="0.0000000000000000e+00" cType="1" res="-4.2878210544586182e-02" rms="2.2102859616279602e-01" purity="6.8611639738082886e-01" nType="-99"/>
          </Node>
          <Node pos="r" depth="2" NCoef="0" IVar="6" Cut="1.0452754974365234e+02" cType="1" res="3.4852130338549614e-03" rms="1.8372723460197449e-01" purity="5.9411633014678955e-01" nType="0">
            <Node pos="l" depth="3" NCoef="0" IVar="-1" Cut="0.0000000000000000e+00" cType="1" res="2.7435883879661560e-02" rms="2.0491163432598114e-01" purity="1.8841992318630219e-01" nType="-99"/>
            <Node pos="r" depth="3" NCoef="0" IVar="-1" Cut="0.0000000000000000e+00" cType="1" res="-3.9832369657233357e-04" rms="1.7129848897457123e-01" purity="8.0969506502151489e-01" nType="-99"/>
          </Node>
        </Node>
      </Node>
    </BinaryTree>
    <BinaryTree type="DecisionTree" boostWeight="1.0000000000000000e+00" itree="82">
      <Node pos="s" depth="0" NCoef="0" IVar="10" Cut="-3.9987111091613770e-01" cType="1" res="-5.7572784135118127e-04" rms="1.8671172857284546e-01" purity="5.0589126348495483e-01" nType="0">
        <Node pos="l" depth="1" NCoef="0" IVar="0" Cut="1.8887308349609375e+03" cType="1" res="2.8764836024492979e-03" rms="1.8920132517814636e-01" purity="4.8084315657615662e-01" nType="0">
          <Node pos="l" depth="2" NCoef="0" IVar="4" Cut="2.1122048950195312e+02" cType="1" res="-2.9329622630029917e-03" rms="1.2109932303428650e-01" purity="1.6456710174679756e-02" nType="0">
            <Node pos="l" depth="3" NCoef="0" IVar="-1" Cut="0.0000000000000000e+00" cType="1" res="-4.8981630243360996e-03" rms="1.1193765699863434e-01" purity="1.3886626809835434e-02" nType="-99"/>
            <Node pos="r" depth="3" NCoef="0" IVar="-1" Cut="0.0000000000000000e+00" cType="1" res="-3.6229971796274185e-02" rms="1.5310925245285034e-01" purity="2.7156407013535500e-02" nType="-99"/>
          </Node>
          <Node pos="r" depth="2" NCoef="0" IVar="4" Cut="2.6223294067382812e+02" cType="1" res="7.1471645496785641e-03" rms="2.2647045552730560e-01" purity="8.2222622632980347e-01" nType="0">
            <Node pos="l" depth="3" NCoef="0" IVar="-1" Cut="0.0000000000000000e+00" cType="1" res="2.4118924513459206e-02" rms="3.1353870034217834e-01" purity="5.4803586006164551e-01" nType="-99"/>
            <Node pos="r" depth="3" NCoef="0" IVar="-1" Cut="0.0000000000000000e+00" cType="1" res="2.7676392346620560e-03" rms="1.8232837319374084e-01" purity="9.2663717269897461e-01" nType="-99"/>
          </Node>
        </Node>
        <Node pos="r" depth="1" NCoef="0" IVar="2" Cut="3.1254953002929688e+02" cType="1" res="-2.5675306096673012e-03" rms="1.8523083627223969e-01" purity="5.2034318447113037e-01" nType="0">
          <Node pos="l" depth="2" NCoef="0" IVar="-1" Cut="0.0000000000000000e+00" cType="1" res="4.7254864126443863e-02" rms="1.6358077526092529e-01" purity="5.1259506493806839e-02" nType="-99"/>
          <Node pos="r" depth="2" NCoef="0" IVar="10" Cut="2.0941235125064850e-01" cType="1" res="-3.5385903902351856e-03" rms="1.8678313493728638e-01" purity="5.5702108144760132e-01" nType="0">
            <Node pos="l" depth="3" NCoef="0" IVar="-1" Cut="0.0000000000000000e+00" cType="1" res="-2.3810315877199173e-02" rms="1.7458684742450714e-01" purity="6.0619944334030151e-01" nType="-99"/>
            <Node pos="r" depth="3" NCoef="0" IVar="-1" Cut="0.0000000000000000e+00" cType="1" res="-4.3454370461404324e-03" rms="1.9237589836120605e-01" purity="5.3323000669479370e-01" nType="-99"/>
          </Node>
        </Node>
      </Node>
    </BinaryTree>
    <BinaryTree type="DecisionTree" boostWeight="1.0000000000000000e+00" itree="83">
      <Node pos="s" depth="0" NCoef="0" IVar="8" Cut="-1.4664789438247681e+00" cType="1" res="1.3936671894043684e-04" rms="1.9112987816333771e-01" purity="5.0298631191253662e-01" nType="0">
        <Node pos="l" depth="1" NCoef="0" IVar="1" Cut="1.9032811746001244e-02" cType="1" res="1.2320006266236305e-02" rms="1.8813274800777435e-01" purity="1.3002963364124298e-01" nType="0">
          <Node pos="l" depth="2" NCoef="0" IVar="-1" Cut="0.0000000000000000e+00" cType="1" res="-3.7714656442403793e-02" rms="1.1294802278280258e-01" purity="2.1690811961889267e-02" nType="-99"/>
          <Node pos="r" depth="2" NCoef="0" IVar="-1" Cut="0.0000000000000000e+00" cType="1" res="7.5391009449958801e-02" rms="2.3581559956073761e-01" purity="2.2972090542316437e-01" nType="-99"/>
        </Node>
        <Node pos="r" depth="1" NCoef="0" IVar="11" Cut="-1.9985173940658569e+00" cType="1" res="-7.0851016789674759e-04" rms="1.9130788743495941e-01" purity="5.2894735336303711e-01" nType="0">
          <Node pos="l" depth="2" NCoef="0" IVar="-1" Cut="0.0000000000000000e+00" cType="1" res="2.6910888031125069e-02" rms="2.4115976691246033e-01" purity="3.5369613766670227e-01" nType="-99"/>
          <Node pos="r" depth="2" NCoef="0" IVar="11" Cut="9.7202265262603760e-01" cType="1" res="-1.2668691342696548e-03" rms="1.8884892761707306e-01" purity="5.3648459911346436e-01" nType="0">
            <Node pos="l" depth="3" NCoef="0" IVar="-1" Cut="0.0000000000000000e+00" cType="1" res="-8.1305913627147675e-03" rms="1.8560262024402618e-01" purity="5.5564719438552856e-01" nType="-99"/>
            <Node pos="r" depth="3" NCoef="0" IVar="-1" Cut="0.0000000000000000e+00" cType="1" res="1.0213023982942104e-02" rms="1.9912865757942200e-01" purity="4.7307661175727844e-01" nType="-99"/>
          </Node>
        </Node>
      </Node>
    </BinaryTree>
    <BinaryTree type="DecisionTree" boostWeight="1.0000000000000000e+00" itree="84">
      <Node pos="s" depth="0" NCoef="0" IVar="8" Cut="9.3284386396408081e-01" cType="1" res="8.6505588842555881e-04" rms="1.8997399508953094e-01" purity="5.0170183181762695e-01" nType="0">
        <Node pos="l" depth="1" NCoef="0" IVar="1" Cut="8.5775509476661682e-02" cType="1" res="1.9601313397288322e-03" rms="1.8922702968120575e-01" purity="5.4016792774200439e-01" nType="0">
          <Node pos="l" depth="2" NCoef="0" IVar="0" Cut="1.6473038330078125e+03" cType="1" res="5.0631682388484478e-03" rms="2.0245492458343506e-01" purity="3.5082426667213440e-01" nType="0">
            <Node pos="l" depth="3" NCoef="0" IVar="-1" Cut="0.0000000000000000e+00" cType="1" res="-3.0268764123320580e-02" rms="6.5667711198329926e-02" purity="4.3550995178520679e-03" nType="-99"/>
            <Node pos="r" depth="3" NCoef="0" IVar="-1" Cut="0.0000000000000000e+00" cType="1" res="1.5526396222412586e-02" rms="2.4618968367576599e-01" purity="5.3655743598937988e-01" nType="-99"/>
          </Node>
          <Node pos="r" depth="2" NCoef="0" IVar="0" Cut="2.1397014160156250e+03" cType="1" res="-2.1417005918920040e-03" rms="1.7008382081985474e-01" purity="7.9045683145523071e-01" nType="0">
            <Node pos="l" depth="3" NCoef="0" IVar="-1" Cut="0.0000000000000000e+00" cType="1" res="-2.8790282085537910e-02" rms="2.5740373134613037e-01" purity="1.0568730533123016e-01" nType="-99"/>
            <Node pos="r" depth="3" NCoef="0" IVar="-1" Cut="0.0000000000000000e+00" cType="1" res="1.4643565751612186e-02" rms="1.3648785650730133e-01" purity="9.7718542814254761e-01" nType="-99"/>
          </Node>
        </Node>
        <Node pos="r" depth="1" NCoef="0" IVar="3" Cut="4.1675524902343750e+02" cType="1" res="-4.9027586355805397e-03" rms="1.9375869631767273e-01" purity="2.9909908771514893e-01" nType="0">
          <Node pos="l" depth="2" NCoef="0" IVar="3" Cut="3.1648745727539062e+02" cType="1" res="4.1290061199106276e-04" rms="1.8203692138195038e-01" purity="1.7154216766357422e-01" nType="0">
            <Node pos="l" depth="3" NCoef="0" IVar="-1" Cut="0.0000000000000000e+00" cType="1" res="1.4862510375678539e-02" rms="1.6347494721412659e-01" purity="8.7946124374866486e-02" nType="-99"/>
            <Node pos="r" depth="3" NCoef="0" IVar="-1" Cut="0.0000000000000000e+00" cType="1" res="-1.9109828397631645e-02" rms="2.2747971117496490e-01" purity="4.1622373461723328e-01" nType="-99"/>
          </Node>
          <Node pos="r" depth="2" NCoef="0" IVar="-1" Cut="0.0000000000000000e+00" cType="1" res="-5.9639178216457367e-02" rms="2.3122766613960266e-01" purity="7.7463275194168091e-01" nType="-99"/>
        </Node>
      </Node>
    </BinaryTree>
    <BinaryTree type="DecisionTree" boostWeight="1.0000000000000000e+00" itree="85">
      <Node pos="s" depth="0" NCoef="0" IVar="8" Cut="-1.1962872743606567e+00" cType="1" res="-1.3112872838973999e-03" rms="1.9112803041934967e-01" purity="5.0152426958084106e-01" nType="0">
        <Node pos="l" depth="1" NCoef="0" IVar="4" Cut="2.4447659301757812e+02" cType="1" res="-1.0618743486702442e-02" rms="2.0182411372661591e-01" purity="1.9561077654361725e-01" nType="0">
          <Node pos="l" depth="2" NCoef="0" IVar="8" Cut="-1.6526998281478882e+00" cType="1" res="1.5805137809365988e-03" rms="1.5241046249866486e-01" purity="6.1086960136890411e-02" nType="0">
            <Node pos="l" depth="3" NCoef="0" IVar="-1" Cut="0.0000000000000000e+00" cType="1" res="-4.0814891457557678e-02" rms="1.0823353379964828e-01" purity="2.3937823250889778e-02" nType="-99"/>
            <Node pos="r" depth="3" NCoef="0" IVar="-1" Cut="0.0000000000000000e+00" cType="1" res="2.9145356267690659e-02" rms="1.8599139153957367e-01" purity="9.8150171339511871e-02" nType="-99"/>
          </Node>
          <Node pos="r" depth="2" NCoef="0" IVar="-1" Cut="0.0000000000000000e+00" cType="1" res="-8.2290835678577423e-02" rms="3.0431431531906128e-01" purity="6.0856932401657104e-01" nType="-99"/>
        </Node>
        <Node pos="r" depth="1" NCoef="0" IVar="1" Cut="1.9403582438826561e-02" cType="1" res="-1.9938900368288159e-04" rms="1.8977941572666168e-01" purity="5.3806966543197632e-01" nType="0">
          <Node pos="l" depth="2" NCoef="0" IVar="0" Cut="2.0670451660156250e+03" cType="1" res="8.9328540489077568e-03" rms="1.6469921171665192e-01" purity="1.1381054669618607e-01" nType="0">
            <Node pos="l" depth="3" NCoef="0" IVar="-1" Cut="0.0000000000000000e+00" cType="1" res="-3.0077366158366203e-02" rms="8.0848366022109985e-02" purity="6.9228643551468849e-03" nType="-99"/>
            <Node pos="r" depth="3" NCoef="0" IVar="-1" Cut="0.0000000000000000e+00" cType="1" res="5.1184847950935364e-02" rms="3.2200217247009277e-01" purity="5.2454870939254761e-01" nType="-99"/>
          </Node>
          <Node pos="r" depth="2" NCoef="0" IVar="7" Cut="-1.3065705299377441e+00" cType="1" res="-1.7358148470520973e-03" rms="1.9363772869110107e-01" purity="6.0944783687591553e-01" nType="0">
            <Node pos="l" depth="3" NCoef="0" IVar="-1" Cut="0.0000000000000000e+00" cType="1" res="4.1503738611936569e-02" rms="2.1964859962463379e-01" purity="2.1695499122142792e-01" nType="-99"/>
            <Node pos="r" depth="3" NCoef="0" IVar="-1" Cut="0.0000000000000000e+00" cType="1" res="-6.6727092489600182e-03" rms="1.9253213703632355e-01" purity="6.2463051080703735e-01" nType="-99"/>
          </Node>
        </Node>
      </Node>
    </BinaryTree>
    <BinaryTree type="DecisionTree" boostWeight="1.0000000000000000e+00" itree="86">
      <Node pos="s" depth="0" NCoef="0" IVar="2" Cut="6.5817657470703125e+02" cType="1" res="1.0843261843547225e-03" rms="1.8701794743537903e-01" purity="4.9842461943626404e-01" nType="0">
        <Node pos="l" depth="1" NCoef="0" IVar="0" Cut="1.8870677490234375e+03" cType="1" res="3.0776308849453926e-03" rms="1.9220723211765289e-01" purity="3.3392271399497986e-01" nType="0">
          <Node pos="l" depth="2" NCoef="0" IVar="0" Cut="1.8173697509765625e+03" cType="1" res="-9.0962566900998354e-04" rms="1.2759478390216827e-01" purity="1.7730198800563812e-02" nType="0">
            <Node pos="l" depth="3" NCoef="0" IVar="-1" Cut="0.0000000000000000e+00" cType="1" res="2.5799856521189213e-03" rms="1.1387397348880768e-01" purity="1.3849780894815922e-02" nType="-99"/>
            <Node pos="r" depth="3" NCoef="0" IVar="-1" Cut="0.0000000000000000e+00" cType="1" res="-2.4788858368992805e-02" rms="2.4510566890239716e-01" purity="6.9368325173854828e-02" nType="-99"/>
          </Node>
          <Node pos="r" depth="2" NCoef="0" IVar="0" Cut="2.1654138183593750e+03" cType="1" res="8.8600926101207733e-03" rms="2.5856068730354309e-01" purity="7.9247641563415527e-01" nType="0">
            <Node pos="l" depth="3" NCoef="0" IVar="-1" Cut="0.0000000000000000e+00" cType="1" res="1.9531475380063057e-02" rms="3.9281144738197327e-01" purity="2.8429940342903137e-01" nType="-99"/>
            <Node pos="r" depth="3" NCoef="0" IVar="-1" Cut="0.0000000000000000e+00" cType="1" res="8.5481405258178711e-03" rms="2.0765745639801025e-01" purity="9.2969578504562378e-01" nType="-99"/>
          </Node>
        </Node>
        <Node pos="r" depth="1" NCoef="0" IVar="3" Cut="4.1059170532226562e+02" cType="1" res="-2.7777657378464937e-03" rms="1.7646591365337372e-01" purity="8.1715226173400879e-01" nType="0">
          <Node pos="l" depth="2" NCoef="0" IVar="4" Cut="1.7151348876953125e+02" cType="1" res="-1.2914065271615982e-02" rms="2.2936354577541351e-01" purity="4.9652245640754700e-01" nType="0">
            <Node pos="l" depth="3" NCoef="0" IVar="-1" Cut="0.0000000000000000e+00" cType="1" res="9.3034617602825165e-03" rms="2.0526623725891113e-01" purity="9.1291591525077820e-02" nType="-99"/>
            <Node pos="r" depth="3" NCoef="0" IVar="-1" Cut="0.0000000000000000e+00" cType="1" res="-3.3824801445007324e-02" rms="2.3898060619831085e-01" purity="6.7787879705429077e-01" nType="-99"/>
          </Node>
          <Node pos="r" depth="2" NCoef="0" IVar="8" Cut="7.4435347318649292e-01" cType="1" res="8.7140372488647699e-04" rms="1.5284444391727448e-01" purity="9.3258225917816162e-01" nType="0">
            <Node pos="l" depth="3" NCoef="0" IVar="-1" Cut="0.0000000000000000e+00" cType="1" res="1.2429985217750072e-02" rms="1.4652425050735474e-01" purity="9.4124674797058105e-01" nType="-99"/>
            <Node pos="r" depth="3" NCoef="0" IVar="-1" Cut="0.0000000000000000e+00" cType="1" res="-3.8493860512971878e-02" rms="1.8971300125122070e-01" purity="8.7386345863342285e-01" nType="-99"/>
          </Node>
        </Node>
      </Node>
    </BinaryTree>
    <BinaryTree type="DecisionTree" boostWeight="1.0000000000000000e+00" itree="87">
      <Node pos="s" depth="0" NCoef="0" IVar="10" Cut="1.1995110511779785e+00" cType="1" res="8.1971724284812808e-04" rms="1.8758508563041687e-01" purity="5.0108665227890015e-01" nType="0">
        <Node pos="l" depth="1" NCoef="0" IVar="9" Cut="-1.4663556814193726e+00" cType="1" res="2.2433900739997625e-03" rms="1.8471086025238037e-01" purity="5.2746081352233887e-01" nType="0">
          <Node pos="l" depth="2" NCoef="0" IVar="1" Cut="4.9692541360855103e-02" cType="1" res="-8.1222765147686005e-03" rms="1.8154796957969666e-01" purity="2.1732212603092194e-01" nType="0">
            <Node pos="l" depth="3" NCoef="0" IVar="-1" Cut="0.0000000000000000e+00" cType="1" res="4.7867801040410995e-03" rms="1.6116686165332794e-01" purity="9.5424026250839233e-02" nType="-99"/>
            <Node pos="r" depth="3" NCoef="0" IVar="-1" Cut="0.0000000000000000e+00" cType="1" res="-4.8248574137687683e-02" rms="2.0710438489913940e-01" purity="3.9635047316551208e-01" nType="-99"/>
          </Node>
          <Node pos="r" depth="2" NCoef="0" IVar="9" Cut="1.7826377153396606e+00" cType="1" res="3.1236214563250542e-03" rms="1.8495020270347595e-01" purity="5.5379712581634521e-01" nType="0">
            <Node pos="l" depth="3" NCoef="0" IVar="-1" Cut="0.0000000000000000e+00" cType="1" res="1.1983099393546581e-02" rms="1.8519335985183716e-01" purity="5.7226985692977905e-01" nType="-99"/>
            <Node pos="r" depth="3" NCoef="0" IVar="-1" Cut="0.0000000000000000e+00" cType="1" res="-5.9996463358402252e-02" rms="1.7772988975048065e-01" purity="1.1768518388271332e-01" nType="-99"/>
          </Node>
        </Node>
        <Node pos="r" depth="1" NCoef="0" IVar="0" Cut="1.8950275878906250e+03" cType="1" res="-7.1730688214302063e-03" rms="2.0278179645538330e-01" purity="3.5301694273948669e-01" nType="0">
          <Node pos="l" depth="2" NCoef="0" IVar="5" Cut="1.1800257110595703e+02" cType="1" res="-4.1511395829729736e-04" rms="1.2230643630027771e-01" purity="1.6756927594542503e-02" nType="0">
            <Node pos="l" depth="3" NCoef="0" IVar="-1" Cut="0.0000000000000000e+00" cType="1" res="-7.0750020444393158e-02" rms="5.8062221854925156e-02" purity="3.1990495044738054e-03" nType="-99"/>
            <Node pos="r" depth="3" NCoef="0" IVar="-1" Cut="0.0000000000000000e+00" cType="1" res="2.9030399397015572e-02" rms="1.6432198882102966e-01" purity="3.0954761430621147e-02" nType="-99"/>
          </Node>
          <Node pos="r" depth="2" NCoef="0" IVar="7" Cut="1.6115005314350128e-01" cType="1" res="-1.4807633124291897e-02" rms="2.6564207673072815e-01" purity="7.3289495706558228e-01" nType="0">
            <Node pos="l" depth="3" NCoef="0" IVar="-1" Cut="0.0000000000000000e+00" cType="1" res="-3.7994384765625000e-02" rms="2.8364863991737366e-01" purity="7.2664254903793335e-01" nType="-99"/>
            <Node pos="r" depth="3" NCoef="0" IVar="-1" Cut="0.0000000000000000e+00" cType="1" res="-1.7271853284910321e-03" rms="2.4221758544445038e-01" purity="7.4019443988800049e-01" nType="-99"/>
          </Node>
        </Node>
      </Node>
    </BinaryTree>
    <BinaryTree type="DecisionTree" boostWeight="1.0000000000000000e+00" itree="88">
      <Node pos="s" depth="0" NCoef="0" IVar="10" Cut="1.3226360082626343e-01" cType="1" res="-3.2930268207564950e-04" rms="1.8381786346435547e-01" purity="5.0310218334197998e-01" nType="0">
        <Node pos="l" depth="1" NCoef="0" IVar="10" Cut="-1.6822178363800049e+00" cType="1" res="-2.9396777972579002e-03" rms="1.8404760956764221e-01" purity="5.0712817907333374e-01" nType="0">
          <Node pos="l" depth="2" NCoef="0" IVar="8" Cut="1.3932229578495026e-01" cType="1" res="9.5844594761729240e-03" rms="2.2776268422603607e-01" purity="2.8340113162994385e-01" nType="0">
            <Node pos="l" depth="3" NCoef="0" IVar="-1" Cut="0.0000000000000000e+00" cType="1" res="5.1755197346210480e-02" rms="2.3406864702701569e-01" purity="3.1134676933288574e-01" nType="-99"/>
            <Node pos="r" depth="3" NCoef="0" IVar="-1" Cut="0.0000000000000000e+00" cType="1" res="-1.7592882737517357e-02" rms="2.1720251441001892e-01" purity="2.4302752315998077e-01" nType="-99"/>
          </Node>
          <Node pos="r" depth="2" NCoef="0" IVar="6" Cut="1.7407067871093750e+02" cType="1" res="-4.6648383140563965e-03" rms="1.7711345851421356e-01" purity="5.3794580698013306e-01" nType="0">
            <Node pos="l" depth="3" NCoef="0" IVar="-1" Cut="0.0000000000000000e+00" cType="1" res="-2.0518511533737183e-02" rms="1.9852328300476074e-01" purity="3.3903440833091736e-01" nType="-99"/>
            <Node pos="r" depth="3" NCoef="0" IVar="-1" Cut="0.0000000000000000e+00" cType="1" res="2.3604433983564377e-02" rms="1.1665995419025421e-01" purity="9.7445201873779297e-01" nType="-99"/>
          </Node>
        </Node>
        <Node pos="r" depth="1" NCoef="0" IVar="5" Cut="1.1049703216552734e+02" cType="1" res="2.7290666475892067e-03" rms="1.8350109457969666e-01" purity="4.9838528037071228e-01" nType="0">
          <Node pos="l" depth="2" NCoef="0" IVar="10" Cut="1.6549339294433594e+00" cType="1" res="-5.2544688805937767e-03" rms="1.3302060961723328e-01" purity="3.7575531750917435e-02" nType="0">
            <Node pos="l" depth="3" NCoef="0" IVar="-1" Cut="0.0000000000000000e+00" cType="1" res="-3.7089191377162933e-02" rms="1.2468006461858749e-01" purity="3.7724703550338745e-02" nType="-99"/>
            <Node pos="r" depth="3" NCoef="0" IVar="-1" Cut="0.0000000000000000e+00" cType="1" res="2.0848292857408524e-02" rms="1.5294410288333893e-01" purity="3.7172213196754456e-02" nType="-99"/>
          </Node>
          <Node pos="r" depth="2" NCoef="0" IVar="5" Cut="2.1390359497070312e+02" cType="1" res="4.8994254320859909e-03" rms="1.9492138922214508e-01" purity="6.2365841865539551e-01" nType="0">
            <Node pos="l" depth="3" NCoef="0" IVar="-1" Cut="0.0000000000000000e+00" cType="1" res="1.7205636948347092e-02" rms="2.2689174115657806e-01" purity="3.4278026223182678e-01" nType="-99"/>
            <Node pos="r" depth="3" NCoef="0" IVar="-1" Cut="0.0000000000000000e+00" cType="1" res="1.5844429144635797e-03" rms="1.4899607002735138e-01" purity="9.5183390378952026e-01" nType="-99"/>
          </Node>
        </Node>
      </Node>
    </BinaryTree>
    <BinaryTree type="DecisionTree" boostWeight="1.0000000000000000e+00" itree="89">
      <Node pos="s" depth="0" NCoef="0" IVar="10" Cut="1.9966273307800293e+00" cType="1" res="-3.0662729404866695e-03" rms="1.8831622600555420e-01" purity="4.9247750639915466e-01" nType="0">
        <Node pos="l" depth="1" NCoef="0" IVar="2" Cut="5.6555474853515625e+02" cType="1" res="-2.3836942855268717e-03" rms="1.8699584901332855e-01" purity="5.0521177053451538e-01" nType="0">
          <Node pos="l" depth="2" NCoef="0" IVar="0" Cut="2.2604233398437500e+03" cType="1" res="4.9062585458159447e-04" rms="1.9078215956687927e-01" purity="2.5984019041061401e-01" nType="0">
            <Node pos="l" depth="3" NCoef="0" IVar="-1" Cut="0.0000000000000000e+00" cType="1" res="-5.0186025910079479e-03" rms="1.9285026192665100e-01" purity="6.8489633500576019e-02" nType="-99"/>
            <Node pos="r" depth="3" NCoef="0" IVar="-1" Cut="0.0000000000000000e+00" cType="1" res="2.3299988359212875e-02" rms="1.8280099332332611e-01" purity="9.5642971992492676e-01" nType="-99"/>
          </Node>
          <Node pos="r" depth="2" NCoef="0" IVar="5" Cut="2.2689799499511719e+02" cType="1" res="-5.2841277793049812e-03" rms="1.8305003643035889e-01" purity="7.5281262397766113e-01" nType="0">
            <Node pos="l" depth="3" NCoef="0" IVar="-1" Cut="0.0000000000000000e+00" cType="1" res="-2.1633140742778778e-02" rms="2.3914007842540741e-01" purity="5.0139445066452026e-01" nType="-99"/>
            <Node pos="r" depth="3" NCoef="0" IVar="-1" Cut="0.0000000000000000e+00" cType="1" res="6.6474233753979206e-03" rms="1.0808394104242325e-01" purity="9.8370301723480225e-01" nType="-99"/>
          </Node>
        </Node>
        <Node pos="r" depth="1" NCoef="0" IVar="-1" Cut="0.0000000000000000e+00" cType="1" res="-4.8454217612743378e-02" rms="2.1862795948982239e-01" purity="1.6739021241664886e-01" nType="-99"/>
      </Node>
    </BinaryTree>
    <BinaryTree type="DecisionTree" boostWeight="1.0000000000000000e+00" itree="90">
      <Node pos="s" depth="0" NCoef="0" IVar="9" Cut="-1.3360211253166199e-01" cType="1" res="-9.1227743541821837e-04" rms="1.9136884808540344e-01" purity="5.0763273239135742e-01" nType="0">
        <Node pos="l" depth="1" NCoef="0" IVar="10" Cut="-1.1995300054550171e+00" cType="1" res="-4.6326713636517525e-03" rms="1.9308421015739441e-01" purity="4.9058929085731506e-01" nType="0">
          <Node pos="l" depth="2" NCoef="0" IVar="5" Cut="1.5508076477050781e+02" cType="1" res="-2.0147942006587982e-02" rms="2.1359869837760925e-01" purity="3.4219259023666382e-01" nType="0">
            <Node pos="l" depth="3" NCoef="0" IVar="-1" Cut="0.0000000000000000e+00" cType="1" res="-1.2427538633346558e-02" rms="1.6752307116985321e-01" purity="1.0018039494752884e-01" nType="-99"/>
            <Node pos="r" depth="3" NCoef="0" IVar="-1" Cut="0.0000000000000000e+00" cType="1" res="-6.7250214517116547e-02" rms="2.5604170560836792e-01" purity="6.2556970119476318e-01" nType="-99"/>
          </Node>
          <Node pos="r" depth="2" NCoef="0" IVar="9" Cut="-1.5292578935623169e+00" cType="1" res="-1.8704809481278062e-03" rms="1.8906542658805847e-01" purity="5.1700842380523682e-01" nType="0">
            <Node pos="l" depth="3" NCoef="0" IVar="-1" Cut="0.0000000000000000e+00" cType="1" res="2.0797686651349068e-02" rms="2.0939643681049347e-01" purity="2.2417680919170380e-01" nType="-99"/>
            <Node pos="r" depth="3" NCoef="0" IVar="-1" Cut="0.0000000000000000e+00" cType="1" res="-9.8247965797781944e-03" rms="1.8526652455329895e-01" purity="5.6778264045715332e-01" nType="-99"/>
          </Node>
        </Node>
        <Node pos="r" depth="1" NCoef="0" IVar="11" Cut="4.0055462718009949e-01" cType="1" res="2.1838722750544548e-03" rms="1.8987391889095306e-01" purity="5.2181637287139893e-01" nType="0">
          <Node pos="l" depth="2" NCoef="0" IVar="0" Cut="2.7298334960937500e+03" cType="1" res="5.6857168674468994e-03" rms="1.8301433324813843e-01" purity="5.4174971580505371e-01" nType="0">
            <Node pos="l" depth="3" NCoef="0" IVar="-1" Cut="0.0000000000000000e+00" cType="1" res="2.2455696016550064e-02" rms="2.1841964125633240e-01" purity="2.1042445302009583e-01" nType="-99"/>
            <Node pos="r" depth="3" NCoef="0" IVar="-1" Cut="0.0000000000000000e+00" cType="1" res="-4.6889754012227058e-03" rms="1.2098407745361328e-01" purity="9.7966480255126953e-01" nType="-99"/>
          </Node>
          <Node pos="r" depth="2" NCoef="0" IVar="9" Cut="1.4579367637634277e-01" cType="1" res="-3.1248282175511122e-03" rms="1.9970723986625671e-01" purity="4.9159801006317139e-01" nType="0">
            <Node pos="l" depth="3" NCoef="0" IVar="-1" Cut="0.0000000000000000e+00" cType="1" res="2.6210024952888489e-02" rms="1.8476451933383942e-01" purity="6.4051187038421631e-01" nType="-99"/>
            <Node pos="r" depth="3" NCoef="0" IVar="-1" Cut="0.0000000000000000e+00" cType="1" res="-1.5534596517682076e-02" rms="2.0241791009902954e-01" purity="4.6233168244361877e-01" nType="-99"/>
          </Node>
        </Node>
      </Node>
    </BinaryTree>
    <BinaryTree type="DecisionTree" boostWeight="1.0000000000000000e+00" itree="91">
      <Node pos="s" depth="0" NCoef="0" IVar="9" Cut="9.3308013677597046e-01" cType="1" res="-6.6914194030687213e-04" rms="1.8693760037422180e-01" purity="4.9175515770912170e-01" nType="0">
        <Node pos="l" depth="1" NCoef="0" IVar="7" Cut="-1.3357404470443726e+00" cType="1" res="-2.3658392019569874e-03" rms="1.8206274509429932e-01" purity="5.1756584644317627e-01" nType="0">
          <Node pos="l" depth="2" NCoef="0" IVar="-1" Cut="0.0000000000000000e+00" cType="1" res="-5.5879920721054077e-02" rms="1.4542806148529053e-01" purity="8.6660087108612061e-02" nType="-99"/>
          <Node pos="r" depth="2" NCoef="0" IVar="10" Cut="1.9996649026870728e+00" cType="1" res="-1.5587690286338329e-03" rms="1.8403689563274384e-01" purity="5.4392957687377930e-01" nType="0">
            <Node pos="l" depth="3" NCoef="0" IVar="-1" Cut="0.0000000000000000e+00" cType="1" res="-3.1450118403881788e-03" rms="1.8232651054859161e-01" purity="5.5777251720428467e-01" nType="-99"/>
            <Node pos="r" depth="3" NCoef="0" IVar="-1" Cut="0.0000000000000000e+00" cType="1" res="-3.8886040449142456e-02" rms="2.2693739831447601e-01" purity="1.4955842494964600e-01" nType="-99"/>
          </Node>
        </Node>
        <Node pos="r" depth="1" NCoef="0" IVar="7" Cut="-2.7413988113403320e-01" cType="1" res="7.2403931990265846e-03" rms="2.0797912776470184e-01" purity="3.7143275141716003e-01" nType="0">
          <Node pos="l" depth="2" NCoef="0" IVar="4" Cut="2.1715225219726562e+02" cType="1" res="-7.1864319033920765e-03" rms="2.0536892116069794e-01" purity="2.5588285923004150e-01" nType="0">
            <Node pos="l" depth="3" NCoef="0" IVar="-1" Cut="0.0000000000000000e+00" cType="1" res="1.7891617491841316e-02" rms="1.6892838478088379e-01" purity="7.4399784207344055e-02" nType="-99"/>
            <Node pos="r" depth="3" NCoef="0" IVar="-1" Cut="0.0000000000000000e+00" cType="1" res="-5.1749356091022491e-02" rms="2.5263234972953796e-01" purity="5.5234509706497192e-01" nType="-99"/>
          </Node>
          <Node pos="r" depth="2" NCoef="0" IVar="0" Cut="2.5140583496093750e+03" cType="1" res="1.5780307352542877e-02" rms="2.0904031395912170e-01" purity="4.3983212113380432e-01" nType="0">
            <Node pos="l" depth="3" NCoef="0" IVar="-1" Cut="0.0000000000000000e+00" cType="1" res="5.2099104970693588e-02" rms="2.3511488735675812e-01" purity="1.5023700892925262e-01" nType="-99"/>
            <Node pos="r" depth="3" NCoef="0" IVar="-1" Cut="0.0000000000000000e+00" cType="1" res="2.5275093503296375e-03" rms="1.5033064782619476e-01" purity="9.5848321914672852e-01" nType="-99"/>
          </Node>
        </Node>
      </Node>
    </BinaryTree>
    <BinaryTree type="DecisionTree" boostWeight="1.0000000000000000e+00" itree="92">
      <Node pos="s" depth="0" NCoef="0" IVar="10" Cut="-1.4659785032272339e+00" cType="1" res="1.6979513457044959e-03" rms="1.8348370492458344e-01" purity="5.0277471542358398e-01" nType="0">
        <Node pos="l" depth="1" NCoef="0" IVar="2" Cut="6.2733026123046875e+02" cType="1" res="-1.2895807623863220e-02" rms="2.1081933379173279e-01" purity="2.9464590549468994e-01" nType="0">
          <Node pos="l" depth="2" NCoef="0" IVar="11" Cut="-3.9682516455650330e-01" cType="1" res="4.4378663005772978e-05" rms="1.9309628009796143e-01" purity="1.9019474089145660e-01" nType="0">
            <Node pos="l" depth="3" NCoef="0" IVar="-1" Cut="0.0000000000000000e+00" cType="1" res="3.0043084174394608e-02" rms="2.0661690831184387e-01" purity="1.9283442199230194e-01" nType="-99"/>
            <Node pos="r" depth="3" NCoef="0" IVar="-1" Cut="0.0000000000000000e+00" cType="1" res="-2.6943756267428398e-02" rms="1.8073689937591553e-01" purity="1.8803724646568298e-01" nType="-99"/>
          </Node>
          <Node pos="r" depth="2" NCoef="0" IVar="-1" Cut="0.0000000000000000e+00" cType="1" res="-8.6683295667171478e-02" rms="2.4622620642185211e-01" purity="5.5155509710311890e-01" nType="-99"/>
        </Node>
        <Node pos="r" depth="1" NCoef="0" IVar="9" Cut="-1.7322667837142944e+00" cType="1" res="3.1740865670144558e-03" rms="1.8042261898517609e-01" purity="5.2382665872573853e-01" nType="0">
          <Node pos="l" depth="2" NCoef="0" IVar="-1" Cut="0.0000000000000000e+00" cType="1" res="4.5100402086973190e-02" rms="2.0792907476425171e-01" purity="1.6886487603187561e-01" nType="-99"/>
          <Node pos="r" depth="2" NCoef="0" IVar="0" Cut="2.3860769042968750e+03" cType="1" res="2.5359180290251970e-03" rms="1.7893306910991669e-01" purity="5.4132550954818726e-01" nType="0">
            <Node pos="l" depth="3" NCoef="0" IVar="-1" Cut="0.0000000000000000e+00" cType="1" res="-1.6731335781514645e-03" rms="2.0344962179660797e-01" purity="9.7176328301429749e-02" nType="-99"/>
            <Node pos="r" depth="3" NCoef="0" IVar="-1" Cut="0.0000000000000000e+00" cType="1" res="2.1600222215056419e-02" rms="1.5212172269821167e-01" purity="9.6092981100082397e-01" nType="-99"/>
          </Node>
        </Node>
      </Node>
    </BinaryTree>
    <BinaryTree type="DecisionTree" boostWeight="1.0000000000000000e+00" itree="93">
      <Node pos="s" depth="0" NCoef="0" IVar="9" Cut="-1.4663760662078857e+00" cType="1" res="-1.0301156435161829e-03" rms="1.8929289281368256e-01" purity="4.9532121419906616e-01" nType="0">
        <Node pos="l" depth="1" NCoef="0" IVar="0" Cut="1.7973991699218750e+03" cType="1" res="-1.0756324976682663e-02" rms="1.8025377392768860e-01" purity="1.9900752604007721e-01" nType="0">
          <Node pos="l" depth="2" NCoef="0" IVar="-1" Cut="0.0000000000000000e+00" cType="1" res="-9.8981084302067757e-03" rms="9.1593235731124878e-02" purity="9.3313110992312431e-03" nType="-99"/>
          <Node pos="r" depth="2" NCoef="0" IVar="-1" Cut="0.0000000000000000e+00" cType="1" res="-3.6632213741540909e-02" rms="2.7055585384368896e-01" purity="5.2284610271453857e-01" nType="-99"/>
        </Node>
        <Node pos="r" depth="1" NCoef="0" IVar="11" Cut="-1.9973678588867188e+00" cType="1" res="-1.1275401629973203e-04" rms="1.9009758532047272e-01" purity="5.2326905727386475e-01" nType="0">
          <Node pos="l" depth="2" NCoef="0" IVar="-1" Cut="0.0000000000000000e+00" cType="1" res="-3.8502670824527740e-02" rms="2.0382164418697357e-01" purity="3.1434208154678345e-01" nType="-99"/>
          <Node pos="r" depth="2" NCoef="0" IVar="11" Cut="-1.5403449535369873e+00" cType="1" res="6.1711098533123732e-04" rms="1.8944117426872253e-01" purity="5.3240573406219482e-01" nType="0">
            <Node pos="l" depth="3" NCoef="0" IVar="-1" Cut="0.0000000000000000e+00" cType="1" res="4.4077582657337189e-02" rms="2.1661572158336639e-01" purity="4.8507508635520935e-01" nType="-99"/>
            <Node pos="r" depth="3" NCoef="0" IVar="-1" Cut="0.0000000000000000e+00" cType="1" res="-1.1707374360412359e-03" rms="1.8760131299495697e-01" purity="5.3530395030975342e-01" nType="-99"/>
          </Node>
        </Node>
      </Node>
    </BinaryTree>
    <BinaryTree type="DecisionTree" boostWeight="1.0000000000000000e+00" itree="94">
      <Node pos="s" depth="0" NCoef="0" IVar="3" Cut="3.2899578857421875e+02" cType="1" res="-5.3063040832057595e-04" rms="1.8653878569602966e-01" purity="5.0843286514282227e-01" nType="0">
        <Node pos="l" depth="1" NCoef="0" IVar="0" Cut="1.9432775878906250e+03" cType="1" res="3.4467480145394802e-03" rms="1.8269643187522888e-01" purity="1.2665481865406036e-01" nType="0">
          <Node pos="l" depth="2" NCoef="0" IVar="10" Cut="9.3249410390853882e-01" cType="1" res="2.6934358174912632e-05" rms="1.3172538578510284e-01" purity="2.0757699385285378e-02" nType="0">
            <Node pos="l" depth="3" NCoef="0" IVar="-1" Cut="0.0000000000000000e+00" cType="1" res="-1.2670112773776054e-02" rms="1.2327819317579269e-01" purity="1.7271935939788818e-02" nType="-99"/>
            <Node pos="r" depth="3" NCoef="0" IVar="-1" Cut="0.0000000000000000e+00" cType="1" res="3.5650193691253662e-02" rms="1.5614394843578339e-01" purity="3.2241620123386383e-02" nType="-99"/>
          </Node>
          <Node pos="r" depth="2" NCoef="0" IVar="2" Cut="6.0075305175781250e+02" cType="1" res="1.8252473324537277e-02" rms="3.2014495134353638e-01" purity="5.8512532711029053e-01" nType="0">
            <Node pos="l" depth="3" NCoef="0" IVar="-1" Cut="0.0000000000000000e+00" cType="1" res="2.8890747576951981e-02" rms="3.5060897469520569e-01" purity="6.7221045494079590e-01" nType="-99"/>
            <Node pos="r" depth="3" NCoef="0" IVar="-1" Cut="0.0000000000000000e+00" cType="1" res="2.2065807133913040e-03" rms="2.8707692027091980e-01" purity="5.0188368558883667e-01" nType="-99"/>
          </Node>
        </Node>
        <Node pos="r" depth="1" NCoef="0" IVar="0" Cut="2.6371840820312500e+03" cType="1" res="-3.4975472372025251e-03" rms="1.8929982185363770e-01" purity="7.9321926832199097e-01" nType="0">
          <Node pos="l" depth="2" NCoef="0" IVar="5" Cut="1.8100727844238281e+02" cType="1" res="-1.2413813732564449e-02" rms="2.8706216812133789e-01" purity="3.5318034887313843e-01" nType="0">
            <Node pos="l" depth="3" NCoef="0" IVar="-1" Cut="0.0000000000000000e+00" cType="1" res="-6.9946334697306156e-03" rms="2.5969478487968445e-01" purity="1.8298918008804321e-01" nType="-99"/>
            <Node pos="r" depth="3" NCoef="0" IVar="-1" Cut="0.0000000000000000e+00" cType="1" res="-2.5795770809054375e-02" rms="3.3451581001281738e-01" purity="6.9241142272949219e-01" nType="-99"/>
          </Node>
          <Node pos="r" depth="2" NCoef="0" IVar="8" Cut="-9.2270749807357788e-01" cType="1" res="2.1598550665657967e-04" rms="1.2802924215793610e-01" purity="9.7649097442626953e-01" nType="0">
            <Node pos="l" depth="3" NCoef="0" IVar="-1" Cut="0.0000000000000000e+00" cType="1" res="-5.7125907391309738e-02" rms="1.9888883829116821e-01" purity="9.4817817211151123e-01" nType="-99"/>
            <Node pos="r" depth="3" NCoef="0" IVar="-1" Cut="0.0000000000000000e+00" cType="1" res="8.8641168549656868e-03" rms="1.1998900026082993e-01" purity="9.7890436649322510e-01" nType="-99"/>
          </Node>
        </Node>
      </Node>
    </BinaryTree>
    <BinaryTree type="DecisionTree" boostWeight="1.0000000000000000e+00" itree="95">
      <Node pos="s" depth="0" NCoef="0" IVar="8" Cut="3.9961576461791992e-01" cType="1" res="-1.1381647345842794e-04" rms="1.8980535864830017e-01" purity="4.9519914388656616e-01" nType="0">
        <Node pos="l" depth="1" NCoef="0" IVar="9" Cut="1.4673136472702026e+00" cType="1" res="-2.5683189742267132e-03" rms="1.8759092688560486e-01" purity="5.2992010116577148e-01" nType="0">
          <Node pos="l" depth="2" NCoef="0" IVar="1" Cut="3.9913125336170197e-02" cType="1" res="-1.3770057121291757e-03" rms="1.8784825503826141e-01" purity="5.5483537912368774e-01" nType="0">
            <Node pos="l" depth="3" NCoef="0" IVar="-1" Cut="0.0000000000000000e+00" cType="1" res="1.5463558956980705e-02" rms="1.8544428050518036e-01" purity="2.0394760370254517e-01" nType="-99"/>
            <Node pos="r" depth="3" NCoef="0" IVar="-1" Cut="0.0000000000000000e+00" cType="1" res="-1.1922086589038372e-02" rms="1.8872566521167755e-01" purity="6.9352591037750244e-01" nType="-99"/>
          </Node>
          <Node pos="r" depth="2" NCoef="0" IVar="-1" Cut="0.0000000000000000e+00" cType="1" res="-5.3050633519887924e-02" rms="1.8351721763610840e-01" purity="2.0647931098937988e-01" nType="-99"/>
        </Node>
        <Node pos="r" depth="1" NCoef="0" IVar="10" Cut="-6.6797888278961182e-01" cType="1" res="4.7030141577124596e-03" rms="1.9398736953735352e-01" purity="4.2706114053726196e-01" nType="0">
          <Node pos="l" depth="2" NCoef="0" IVar="0" Cut="1.8375770263671875e+03" cType="1" res="1.6606083139777184e-02" rms="2.0634628832340240e-01" purity="3.7880459427833557e-01" nType="0">
            <Node pos="l" depth="3" NCoef="0" IVar="-1" Cut="0.0000000000000000e+00" cType="1" res="2.1188348531723022e-02" rms="1.1413778364658356e-01" purity="1.4369511045515537e-02" nType="-99"/>
            <Node pos="r" depth="3" NCoef="0" IVar="-1" Cut="0.0000000000000000e+00" cType="1" res="4.9295008182525635e-02" rms="2.7210915088653564e-01" purity="7.7240908145904541e-01" nType="-99"/>
          </Node>
          <Node pos="r" depth="2" NCoef="0" IVar="5" Cut="1.5624353027343750e+02" cType="1" res="4.2778823990374804e-04" rms="1.8916888535022736e-01" purity="4.4439345598220825e-01" nType="0">
            <Node pos="l" depth="3" NCoef="0" IVar="-1" Cut="0.0000000000000000e+00" cType="1" res="2.4353431537747383e-02" rms="1.7854288220405579e-01" purity="9.0065181255340576e-02" nType="-99"/>
            <Node pos="r" depth="3" NCoef="0" IVar="-1" Cut="0.0000000000000000e+00" cType="1" res="-1.3790822587907314e-02" rms="1.9764968752861023e-01" purity="7.4862456321716309e-01" nType="-99"/>
          </Node>
        </Node>
      </Node>
    </BinaryTree>
    <BinaryTree type="DecisionTree" boostWeight="1.0000000000000000e+00" itree="96">
      <Node pos="s" depth="0" NCoef="0" IVar="7" Cut="1.5058087110519409e+00" cType="1" res="3.2405601814389229e-03" rms="1.8851955235004425e-01" purity="5.0512641668319702e-01" nType="0">
        <Node pos="l" depth="1" NCoef="0" IVar="7" Cut="9.1530001163482666e-01" cType="1" res="3.8743757177144289e-03" rms="1.9160006940364838e-01" purity="5.2912890911102295e-01" nType="0">
          <Node pos="l" depth="2" NCoef="0" IVar="5" Cut="1.8179713439941406e+02" cType="1" res="2.4684588424861431e-03" rms="1.9147875905036926e-01" purity="5.5094248056411743e-01" nType="0">
            <Node pos="l" depth="3" NCoef="0" IVar="-1" Cut="0.0000000000000000e+00" cType="1" res="1.4298942871391773e-02" rms="2.1328447759151459e-01" purity="1.8866057693958282e-01" nType="-99"/>
            <Node pos="r" depth="3" NCoef="0" IVar="-1" Cut="0.0000000000000000e+00" cType="1" res="-3.2227165065705776e-03" rms="1.6696196794509888e-01" purity="9.1070914268493652e-01" nType="-99"/>
          </Node>
          <Node pos="r" depth="2" NCoef="0" IVar="0" Cut="1.8060382080078125e+03" cType="1" res="1.7130048945546150e-02" rms="1.9223524630069733e-01" purity="3.2345974445343018e-01" nType="0">
            <Node pos="l" depth="3" NCoef="0" IVar="-1" Cut="0.0000000000000000e+00" cType="1" res="1.2260190211236477e-02" rms="1.0295803844928741e-01" purity="1.1041780002415180e-02" nType="-99"/>
            <Node pos="r" depth="3" NCoef="0" IVar="-1" Cut="0.0000000000000000e+00" cType="1" res="4.8918813467025757e-02" rms="2.5261035561561584e-01" purity="6.4824557304382324e-01" nType="-99"/>
          </Node>
        </Node>
        <Node pos="r" depth="1" NCoef="0" IVar="-1" Cut="0.0000000000000000e+00" cType="1" res="-4.8728957772254944e-02" rms="1.1371821910142899e-01" purity="4.4896613806486130e-02" nType="-99"/>
      </Node>
    </BinaryTree>
    <BinaryTree type="DecisionTree" boostWeight="1.0000000000000000e+00" itree="97">
      <Node pos="s" depth="0" NCoef="0" IVar="11" Cut="4.0068370103836060e-01" cType="1" res="1.3331129448488355e-03" rms="1.8625788390636444e-01" purity="5.0149816274642944e-01" nType="0">
        <Node pos="l" depth="1" NCoef="0" IVar="9" Cut="-3.9997857809066772e-01" cType="1" res="-9.4179686857387424e-04" rms="1.8324950337409973e-01" purity="5.1022338867187500e-01" nType="0">
          <Node pos="l" depth="2" NCoef="0" IVar="0" Cut="2.3056953125000000e+03" cType="1" res="-5.9819249436259270e-03" rms="1.8306614458560944e-01" purity="4.5084956288337708e-01" nType="0">
            <Node pos="l" depth="3" NCoef="0" IVar="-1" Cut="0.0000000000000000e+00" cType="1" res="-3.3486597239971161e-02" rms="1.8424698710441589e-01" purity="5.5411718785762787e-02" nType="-99"/>
            <Node pos="r" depth="3" NCoef="0" IVar="-1" Cut="0.0000000000000000e+00" cType="1" res="5.2398936823010445e-03" rms="1.8131473660469055e-01" purity="9.3395692110061646e-01" nType="-99"/>
          </Node>
          <Node pos="r" depth="2" NCoef="0" IVar="8" Cut="-1.1988117694854736e+00" cType="1" res="2.1064754109829664e-03" rms="1.8329305946826935e-01" purity="5.4613268375396729e-01" nType="0">
            <Node pos="l" depth="3" NCoef="0" IVar="-1" Cut="0.0000000000000000e+00" cType="1" res="-4.6480022370815277e-02" rms="1.7385938763618469e-01" purity="1.7889212071895599e-01" nType="-99"/>
            <Node pos="r" depth="3" NCoef="0" IVar="-1" Cut="0.0000000000000000e+00" cType="1" res="1.2282925657927990e-02" rms="1.8423014879226685e-01" purity="5.8797794580459595e-01" nType="-99"/>
          </Node>
        </Node>
        <Node pos="r" depth="1" NCoef="0" IVar="0" Cut="2.3891545410156250e+03" cType="1" res="5.0579132512211800e-03" rms="1.9102288782596588e-01" purity="4.8721209168434143e-01" nType="0">
          <Node pos="l" depth="2" NCoef="0" IVar="0" Cut="1.7297193603515625e+03" cType="1" res="9.8529355600476265e-03" rms="2.0984879136085510e-01" purity="9.9136985838413239e-02" nType="0">
            <Node pos="l" depth="3" NCoef="0" IVar="-1" Cut="0.0000000000000000e+00" cType="1" res="-6.4150290563702583e-03" rms="9.1977976262569427e-02" purity="8.6552742868661880e-03" nType="-99"/>
            <Node pos="r" depth="3" NCoef="0" IVar="-1" Cut="0.0000000000000000e+00" cType="1" res="2.8668859973549843e-02" rms="3.2368338108062744e-01" purity="2.5489988923072815e-01" nType="-99"/>
          </Node>
          <Node pos="r" depth="2" NCoef="0" IVar="5" Cut="1.7426985168457031e+02" cType="1" res="-5.9818016598001122e-04" rms="1.6591757535934448e-01" purity="9.4497615098953247e-01" nType="0">
            <Node pos="l" depth="3" NCoef="0" IVar="-1" Cut="0.0000000000000000e+00" cType="1" res="-2.2387990728020668e-02" rms="2.9927033185958862e-01" purity="7.5258302688598633e-01" nType="-99"/>
            <Node pos="r" depth="3" NCoef="0" IVar="-1" Cut="0.0000000000000000e+00" cType="1" res="1.4214989729225636e-02" rms="1.2707342207431793e-01" purity="9.8005986213684082e-01" nType="-99"/>
          </Node>
        </Node>
      </Node>
    </BinaryTree>
    <BinaryTree type="DecisionTree" boostWeight="1.0000000000000000e+00" itree="98">
      <Node pos="s" depth="0" NCoef="0" IVar="0" Cut="2.3860769042968750e+03" cType="1" res="1.8252822337672114e-03" rms="1.9058856368064880e-01" purity="5.0412327051162720e-01" nType="0">
        <Node pos="l" depth="1" NCoef="0" IVar="0" Cut="2.0573828125000000e+03" cType="1" res="5.1671676337718964e-03" rms="2.1079301834106445e-01" purity="9.9733300507068634e-02" nType="0">
          <Node pos="l" depth="2" NCoef="0" IVar="0" Cut="1.9321488037109375e+03" cType="1" res="2.3427358828485012e-03" rms="1.7085926234722137e-01" purity="3.7688158452510834e-02" nType="0">
            <Node pos="l" depth="3" NCoef="0" IVar="-1" Cut="0.0000000000000000e+00" cType="1" res="2.4928800761699677e-02" rms="1.4699462056159973e-01" purity="2.5332942605018616e-02" nType="-99"/>
            <Node pos="r" depth="3" NCoef="0" IVar="-1" Cut="0.0000000000000000e+00" cType="1" res="-1.8113855272531509e-02" rms="3.3234840631484985e-01" purity="1.7101626098155975e-01" nType="-99"/>
          </Node>
          <Node pos="r" depth="2" NCoef="0" IVar="1" Cut="3.7461642175912857e-02" cType="1" res="2.2399064153432846e-02" rms="3.7023299932479858e-01" purity="4.7827157378196716e-01" nType="0">
            <Node pos="l" depth="3" NCoef="0" IVar="-1" Cut="0.0000000000000000e+00" cType="1" res="-1.4972037635743618e-02" rms="3.0451434850692749e-01" purity="1.4348091185092926e-01" nType="-99"/>
            <Node pos="r" depth="3" NCoef="0" IVar="-1" Cut="0.0000000000000000e+00" cType="1" res="2.6366518810391426e-02" rms="3.9979216456413269e-01" purity="6.5888565778732300e-01" nType="-99"/>
          </Node>
        </Node>
        <Node pos="r" depth="1" NCoef="0" IVar="6" Cut="1.4341197204589844e+02" cType="1" res="-1.8563934136182070e-03" rms="1.6542032361030579e-01" purity="9.4963002204895020e-01" nType="0">
          <Node pos="l" depth="2" NCoef="0" IVar="8" Cut="-4.0337228775024414e-01" cType="1" res="-1.2005726806819439e-02" rms="2.6030418276786804e-01" purity="8.5479426383972168e-01" nType="0">
            <Node pos="l" depth="3" NCoef="0" IVar="-1" Cut="0.0000000000000000e+00" cType="1" res="-3.7549596279859543e-02" rms="2.7936267852783203e-01" purity="8.1845062971115112e-01" nType="-99"/>
            <Node pos="r" depth="3" NCoef="0" IVar="-1" Cut="0.0000000000000000e+00" cType="1" res="-1.0457282885909081e-02" rms="2.5161570310592651e-01" purity="8.7009471654891968e-01" nType="-99"/>
          </Node>
          <Node pos="r" depth="2" NCoef="0" IVar="9" Cut="3.9417496323585510e-01" cType="1" res="1.9788187928497791e-03" rms="1.0975468903779984e-01" purity="9.8546642065048218e-01" nType="0">
            <Node pos="l" depth="3" NCoef="0" IVar="-1" Cut="0.0000000000000000e+00" cType="1" res="3.1964886933565140e-02" rms="9.9933072924613953e-02" purity="9.8777621984481812e-01" nType="-99"/>
            <Node pos="r" depth="3" NCoef="0" IVar="-1" Cut="0.0000000000000000e+00" cType="1" res="-2.6485433802008629e-02" rms="1.2871785461902618e-01" purity="9.8034274578094482e-01" nType="-99"/>
          </Node>
        </Node>
      </Node>
    </BinaryTree>
    <BinaryTree type="DecisionTree" boostWeight="1.0000000000000000e+00" itree="99">
      <Node pos="s" depth="0" NCoef="0" IVar="6" Cut="1.2661697387695312e+02" cType="1" res="-1.2841484276577830e-03" rms="1.8674418330192566e-01" purity="5.1069599390029907e-01" nType="0">
        <Node pos="l" depth="1" NCoef="0" IVar="4" Cut="2.2343537902832031e+02" cType="1" res="2.2282125428318977e-03" rms="1.9785933196544647e-01" purity="1.9630427658557892e-01" nType="0">
          <Node pos="l" depth="2" NCoef="0" IVar="0" Cut="2.0648986816406250e+03" cType="1" res="-5.9105694526806474e-04" rms="1.6128385066986084e-01" purity="6.0006059706211090e-02" nType="0">
            <Node pos="l" depth="3" NCoef="0" IVar="-1" Cut="0.0000000000000000e+00" cType="1" res="-1.6327634453773499e-02" rms="1.1797809600830078e-01" purity="1.6116706654429436e-02" nType="-99"/>
            <Node pos="r" depth="3" NCoef="0" IVar="-1" Cut="0.0000000000000000e+00" cType="1" res="1.4057309366762638e-02" rms="3.5998374223709106e-01" purity="4.3718338012695312e-01" nType="-99"/>
          </Node>
          <Node pos="r" depth="2" NCoef="0" IVar="11" Cut="1.2018815279006958e+00" cType="1" res="9.1157807037234306e-03" rms="2.6678216457366943e-01" purity="5.2928531169891357e-01" nType="0">
            <Node pos="l" depth="3" NCoef="0" IVar="-1" Cut="0.0000000000000000e+00" cType="1" res="6.6526974551379681e-03" rms="2.6597222685813904e-01" purity="5.2058351039886475e-01" nType="-99"/>
            <Node pos="r" depth="3" NCoef="0" IVar="-1" Cut="0.0000000000000000e+00" cType="1" res="4.2440801858901978e-02" rms="2.6921451091766357e-01" purity="5.6471949815750122e-01" nType="-99"/>
          </Node>
        </Node>
        <Node pos="r" depth="1" NCoef="0" IVar="0" Cut="2.1375236816406250e+03" cType="1" res="-5.1748510450124741e-03" rms="1.7351998388767242e-01" purity="8.5895305871963501e-01" nType="0">
          <Node pos="l" depth="2" NCoef="0" IVar="1" Cut="5.0927832722663879e-02" cType="1" res="-3.1369280070066452e-02" rms="2.9247260093688965e-01" purity="1.3928672671318054e-01" nType="0">
            <Node pos="l" depth="3" NCoef="0" IVar="-1" Cut="0.0000000000000000e+00" cType="1" res="-2.1696402691304684e-03" rms="2.1929508447647095e-01" purity="6.8380780518054962e-02" nType="-99"/>
            <Node pos="r" depth="3" NCoef="0" IVar="-1" Cut="0.0000000000000000e+00" cType="1" res="-4.2130362242460251e-02" rms="3.3582776784896851e-01" purity="1.9317130744457245e-01" nType="-99"/>
          </Node>
          <Node pos="r" depth="2" NCoef="0" IVar="11" Cut="-1.2007243633270264e+00" cType="1" res="-1.3243439607322216e-03" rms="1.4780151844024658e-01" purity="9.6474200487136841e-01" nType="0">
            <Node pos="l" depth="3" NCoef="0" IVar="-1" Cut="0.0000000000000000e+00" cType="1" res="-6.3509166240692139e-02" rms="1.8024434149265289e-01" purity="9.3459677696228027e-01" nType="-99"/>
            <Node pos="r" depth="3" NCoef="0" IVar="-1" Cut="0.0000000000000000e+00" cType="1" res="4.1304915212094784e-03" rms="1.4245189726352692e-01" purity="9.6902662515640259e-01" nType="-99"/>
          </Node>
        </Node>
      </Node>
    </BinaryTree>
    <BinaryTree type="DecisionTree" boostWeight="1.0000000000000000e+00" itree="100">
      <Node pos="s" depth="0" NCoef="0" IVar="0" Cut="2.3833178710937500e+03" cType="1" res="-2.0226768683642149e-03" rms="1.8716304004192352e-01" purity="4.8953577876091003e-01" nType="0">
        <Node pos="l" depth="1" NCoef="0" IVar="6" Cut="1.6173353576660156e+02" cType="1" res="-5.0780861638486385e-03" rms="2.0463432371616364e-01" purity="8.7858535349369049e-02" nType="0">
          <Node pos="l" depth="2" NCoef="0" IVar="2" Cut="5.0067117309570312e+02" cType="1" res="-2.6457435451447964e-03" rms="1.9213868677616119e-01" purity="7.0883288979530334e-02" nType="0">
            <Node pos="l" depth="3" NCoef="0" IVar="-1" Cut="0.0000000000000000e+00" cType="1" res="9.8285721614956856e-03" rms="1.8341588973999023e-01" purity="6.3831016421318054e-02" nType="-99"/>
            <Node pos="r" depth="3" NCoef="0" IVar="-1" Cut="0.0000000000000000e+00" cType="1" res="-2.6891769841313362e-02" rms="2.0726075768470764e-01" purity="8.4282197058200836e-02" nType="-99"/>
          </Node>
          <Node pos="r" depth="2" NCoef="0" IVar="-1" Cut="0.0000000000000000e+00" cType="1" res="-3.9049513638019562e-02" rms="3.5880860686302185e-01" purity="3.9215597510337830e-01" nType="-99"/>
        </Node>
        <Node pos="r" depth="1" NCoef="0" IVar="5" Cut="1.3845167541503906e+02" cType="1" res="1.5035549877211452e-03" rms="1.6464136540889740e-01" purity="9.5310932397842407e-01" nType="0">
          <Node pos="l" depth="2" NCoef="0" IVar="-1" Cut="0.0000000000000000e+00" cType="1" res="2.8687031939625740e-02" rms="3.4176000952720642e-01" purity="6.9441020488739014e-01" nType="-99"/>
          <Node pos="r" depth="2" NCoef="0" IVar="5" Cut="1.7727351379394531e+02" cType="1" res="-5.7873839978128672e-04" rms="1.4586021006107330e-01" purity="9.6972191333770752e-01" nType="0">
            <Node pos="l" depth="3" NCoef="0" IVar="-1" Cut="0.0000000000000000e+00" cType="1" res="-2.2446230053901672e-02" rms="2.7322080731391907e-01" purity="8.7247651815414429e-01" nType="-99"/>
            <Node pos="r" depth="3" NCoef="0" IVar="-1" Cut="0.0000000000000000e+00" cType="1" res="5.3171319887042046e-03" rms="1.2486640363931656e-01" purity="9.8003536462783813e-01" nType="-99"/>
          </Node>
        </Node>
      </Node>
    </BinaryTree>
    <BinaryTree type="DecisionTree" boostWeight="1.0000000000000000e+00" itree="101">
      <Node pos="s" depth="0" NCoef="0" IVar="7" Cut="4.7662848234176636e-01" cType="1" res="-1.0477683972567320e-03" rms="1.8706651031970978e-01" purity="5.0124186277389526e-01" nType="0">
        <Node pos="l" depth="1" NCoef="0" IVar="2" Cut="4.4385101318359375e+02" cType="1" res="7.7413202961906791e-04" rms="1.9056953489780426e-01" purity="5.5656450986862183e-01" nType="0">
          <Node pos="l" depth="2" NCoef="0" IVar="0" Cut="1.9101654052734375e+03" cType="1" res="-6.5707229077816010e-03" rms="1.9831557571887970e-01" purity="1.4702038466930389e-01" nType="0">
            <Node pos="l" depth="3" NCoef="0" IVar="-1" Cut="0.0000000000000000e+00" cType="1" res="4.3610869906842709e-03" rms="1.4574284851551056e-01" purity="2.3915909230709076e-02" nType="-99"/>
            <Node pos="r" depth="3" NCoef="0" IVar="-1" Cut="0.0000000000000000e+00" cType="1" res="-3.7180341780185699e-02" rms="3.4727066755294800e-01" purity="7.0973235368728638e-01" nType="-99"/>
          </Node>
          <Node pos="r" depth="2" NCoef="0" IVar="8" Cut="-1.1926261186599731e+00" cType="1" res="3.2733685802668333e-03" rms="1.8779547512531281e-01" purity="6.9592028856277466e-01" nType="0">
            <Node pos="l" depth="3" NCoef="0" IVar="-1" Cut="0.0000000000000000e+00" cType="1" res="4.4757246971130371e-02" rms="2.4181278049945831e-01" purity="4.1334629058837891e-01" nType="-99"/>
            <Node pos="r" depth="3" NCoef="0" IVar="-1" Cut="0.0000000000000000e+00" cType="1" res="5.4842191748321056e-03" rms="1.8284384906291962e-01" purity="7.1790891885757446e-01" nType="-99"/>
          </Node>
        </Node>
        <Node pos="r" depth="1" NCoef="0" IVar="11" Cut="-4.0105247497558594e-01" cType="1" res="-5.4605547338724136e-03" rms="1.7821976542472839e-01" purity="3.6724609136581421e-01" nType="0">
          <Node pos="l" depth="2" NCoef="0" IVar="2" Cut="5.3295245361328125e+02" cType="1" res="5.6410264223814011e-03" rms="1.8908265233039856e-01" purity="3.6454188823699951e-01" nType="0">
            <Node pos="l" depth="3" NCoef="0" IVar="-1" Cut="0.0000000000000000e+00" cType="1" res="4.3494753539562225e-02" rms="1.8970008194446564e-01" purity="1.9402696192264557e-01" nType="-99"/>
            <Node pos="r" depth="3" NCoef="0" IVar="-1" Cut="0.0000000000000000e+00" cType="1" res="-8.4817428141832352e-03" rms="1.8803089857101440e-01" purity="5.4961967468261719e-01" nType="-99"/>
          </Node>
          <Node pos="r" depth="2" NCoef="0" IVar="6" Cut="1.5744346618652344e+02" cType="1" res="-1.1436649598181248e-02" rms="1.7179168760776520e-01" purity="3.6870178580284119e-01" nType="0">
            <Node pos="l" depth="3" NCoef="0" IVar="-1" Cut="0.0000000000000000e+00" cType="1" res="-4.8320658504962921e-02" rms="1.7575500905513763e-01" purity="1.5920534729957581e-01" nType="-99"/>
            <Node pos="r" depth="3" NCoef="0" IVar="-1" Cut="0.0000000000000000e+00" cType="1" res="1.7942704260349274e-02" rms="1.5976493060588837e-01" purity="9.1647565364837646e-01" nType="-99"/>
          </Node>
        </Node>
      </Node>
    </BinaryTree>
    <BinaryTree type="DecisionTree" boostWeight="1.0000000000000000e+00" itree="102">
      <Node pos="s" depth="0" NCoef="0" IVar="10" Cut="4.0008407831192017e-01" cType="1" res="-7.3333980981260538e-04" rms="1.8528208136558533e-01" purity="4.9749475717544556e-01" nType="0">
        <Node pos="l" depth="1" NCoef="0" IVar="10" Cut="-2.0372400283813477e+00" cType="1" res="1.1442690156400204e-03" rms="1.8155926465988159e-01" purity="5.1169085502624512e-01" nType="0">
          <Node pos="l" depth="2" NCoef="0" IVar="-1" Cut="0.0000000000000000e+00" cType="1" res="-3.0706401914358139e-02" rms="2.0865307748317719e-01" purity="1.9381748139858246e-01" nType="-99"/>
          <Node pos="r" depth="2" NCoef="0" IVar="9" Cut="6.6589754819869995e-01" cType="1" res="2.0387377589941025e-03" rms="1.7983517050743103e-01" purity="5.2998250722885132e-01" nType="0">
            <Node pos="l" depth="3" NCoef="0" IVar="-1" Cut="0.0000000000000000e+00" cType="1" res="-9.4185286434367299e-04" rms="1.7429123818874359e-01" purity="5.5244553089141846e-01" nType="-99"/>
            <Node pos="r" depth="3" NCoef="0" IVar="-1" Cut="0.0000000000000000e+00" cType="1" res="2.6132440194487572e-02" rms="1.9614794850349426e-01" purity="4.5898246765136719e-01" nType="-99"/>
          </Node>
        </Node>
        <Node pos="r" depth="1" NCoef="0" IVar="5" Cut="1.3911180114746094e+02" cType="1" res="-4.0968251414597034e-03" rms="1.9172443449497223e-01" purity="4.7206440567970276e-01" nType="0">
          <Node pos="l" depth="2" NCoef="0" IVar="3" Cut="3.4627020263671875e+02" cType="1" res="3.3371283207088709e-03" rms="1.7375209927558899e-01" purity="8.4266074001789093e-02" nType="0">
            <Node pos="l" depth="3" NCoef="0" IVar="-1" Cut="0.0000000000000000e+00" cType="1" res="-9.3950033187866211e-03" rms="1.3319131731987000e-01" purity="2.9973838478326797e-02" nType="-99"/>
            <Node pos="r" depth="3" NCoef="0" IVar="-1" Cut="0.0000000000000000e+00" cType="1" res="3.2126404345035553e-02" rms="2.6884442567825317e-01" purity="2.6954162120819092e-01" nType="-99"/>
          </Node>
          <Node pos="r" depth="2" NCoef="0" IVar="5" Cut="2.3910522460937500e+02" cType="1" res="-8.6428290233016014e-03" rms="2.0179329812526703e-01" purity="7.0921045541763306e-01" nType="0">
            <Node pos="l" depth="3" NCoef="0" IVar="-1" Cut="0.0000000000000000e+00" cType="1" res="-2.6090389117598534e-02" rms="2.4005359411239624e-01" purity="5.1053470373153687e-01" nType="-99"/>
            <Node pos="r" depth="3" NCoef="0" IVar="-1" Cut="0.0000000000000000e+00" cType="1" res="-1.6286801546812057e-03" rms="1.3700832426548004e-01" purity="9.6571499109268188e-01" nType="-99"/>
          </Node>
        </Node>
      </Node>
    </BinaryTree>
    <BinaryTree type="DecisionTree" boostWeight="1.0000000000000000e+00" itree="103">
      <Node pos="s" depth="0" NCoef="0" IVar="7" Cut="-1.4043231010437012e+00" cType="1" res="-6.7460705759003758e-04" rms="1.8960110843181610e-01" purity="4.9873811006546021e-01" nType="0">
        <Node pos="l" depth="1" NCoef="0" IVar="3" Cut="2.6675161743164062e+02" cType="1" res="-1.4195673167705536e-02" rms="1.5858474373817444e-01" purity="7.0023939013481140e-02" nType="0">
          <Node pos="l" depth="2" NCoef="0" IVar="-1" Cut="0.0000000000000000e+00" cType="1" res="-5.4795807227492332e-04" rms="9.3161575496196747e-02" purity="1.3590911403298378e-02" nType="-99"/>
          <Node pos="r" depth="2" NCoef="0" IVar="-1" Cut="0.0000000000000000e+00" cType="1" res="-8.1848062574863434e-02" rms="2.0955555140972137e-01" purity="1.3605733215808868e-01" nType="-99"/>
        </Node>
        <Node pos="r" depth="1" NCoef="0" IVar="2" Cut="1.1161220703125000e+03" cType="1" res="1.9140553195029497e-04" rms="1.9138394296169281e-01" purity="5.2619689702987671e-01" nType="0">
          <Node pos="l" depth="2" NCoef="0" IVar="7" Cut="-6.0404896736145020e-01" cType="1" res="8.3703221753239632e-04" rms="1.9079124927520752e-01" purity="5.1226007938385010e-01" nType="0">
            <Node pos="l" depth="3" NCoef="0" IVar="-1" Cut="0.0000000000000000e+00" cType="1" res="1.5471241436898708e-02" rms="1.9951619207859039e-01" purity="4.2228770256042480e-01" nType="-99"/>
            <Node pos="r" depth="3" NCoef="0" IVar="-1" Cut="0.0000000000000000e+00" cType="1" res="-1.2524226913228631e-03" rms="1.8855004012584686e-01" purity="5.3450644016265869e-01" nType="-99"/>
          </Node>
          <Node pos="r" depth="2" NCoef="0" IVar="-1" Cut="0.0000000000000000e+00" cType="1" res="-5.1240012049674988e-02" rms="2.0617568492889404e-01" purity="9.0796339511871338e-01" nType="-99"/>
        </Node>
      </Node>
    </BinaryTree>
    <BinaryTree type="DecisionTree" boostWeight="1.0000000000000000e+00" itree="104">
      <Node pos="s" depth="0" NCoef="0" IVar="11" Cut="1.9999537467956543e+00" cType="1" res="-1.0492447763681412e-03" rms="1.9205950200557709e-01" purity="5.0038444995880127e-01" nType="0">
        <Node pos="l" depth="1" NCoef="0" IVar="8" Cut="6.6622978448867798e-01" cType="1" res="2.0388288248796016e-04" rms="1.8967191874980927e-01" purity="5.1017475128173828e-01" nType="0">
          <Node pos="l" depth="2" NCoef="0" IVar="11" Cut="1.5424642562866211e+00" cType="1" res="-1.7908910522237420e-03" rms="1.8819643557071686e-01" purity="5.4961884021759033e-01" nType="0">
            <Node pos="l" depth="3" NCoef="0" IVar="-1" Cut="0.0000000000000000e+00" cType="1" res="-3.0242209322750568e-03" rms="1.8611276149749756e-01" purity="5.5277293920516968e-01" nType="-99"/>
            <Node pos="r" depth="3" NCoef="0" IVar="-1" Cut="0.0000000000000000e+00" cType="1" res="-3.3581010997295380e-02" rms="2.2098574042320251e-01" purity="4.9458873271942139e-01" nType="-99"/>
          </Node>
          <Node pos="r" depth="2" NCoef="0" IVar="9" Cut="-4.0001997351646423e-01" cType="1" res="6.7221885547041893e-03" rms="1.9427253305912018e-01" purity="3.8128367066383362e-01" nType="0">
            <Node pos="l" depth="3" NCoef="0" IVar="-1" Cut="0.0000000000000000e+00" cType="1" res="4.1295573115348816e-02" rms="2.1044564247131348e-01" purity="3.5272154211997986e-01" nType="-99"/>
            <Node pos="r" depth="3" NCoef="0" IVar="-1" Cut="0.0000000000000000e+00" cType="1" res="3.8928925059735775e-03" rms="1.8516562879085541e-01" purity="3.9599502086639404e-01" nType="-99"/>
          </Node>
        </Node>
        <Node pos="r" depth="1" NCoef="0" IVar="-1" Cut="0.0000000000000000e+00" cType="1" res="-6.4420767128467560e-02" rms="2.3566660284996033e-01" purity="2.9202869534492493e-01" nType="-99"/>
      </Node>
    </BinaryTree>
    <BinaryTree type="DecisionTree" boostWeight="1.0000000000000000e+00" itree="105">
      <Node pos="s" depth="0" NCoef="0" IVar="10" Cut="-1.4661072492599487e+00" cType="1" res="6.5117742633447051e-04" rms="1.8820916116237640e-01" purity="5.0629806518554688e-01" nType="0">
        <Node pos="l" depth="1" NCoef="0" IVar="9" Cut="1.2878823280334473e-01" cType="1" res="-1.1191780678927898e-02" rms="2.2386220097541809e-01" purity="3.1334716081619263e-01" nType="0">
          <Node pos="l" depth="2" NCoef="0" IVar="9" Cut="-8.4308701753616333e-01" cType="1" res="-2.9244611039757729e-02" rms="2.2648733854293823e-01" purity="3.0039095878601074e-01" nType="0">
            <Node pos="l" depth="3" NCoef="0" IVar="-1" Cut="0.0000000000000000e+00" cType="1" res="1.0387523099780083e-02" rms="2.1032434701919556e-01" purity="2.4019223451614380e-01" nType="-99"/>
            <Node pos="r" depth="3" NCoef="0" IVar="-1" Cut="0.0000000000000000e+00" cType="1" res="-9.9601641297340393e-02" rms="2.3552665114402771e-01" purity="3.5056400299072266e-01" nType="-99"/>
          </Node>
          <Node pos="r" depth="2" NCoef="0" IVar="-1" Cut="0.0000000000000000e+00" cType="1" res="4.1058905422687531e-02" rms="2.1673478186130524e-01" purity="3.3353066444396973e-01" nType="-99"/>
        </Node>
        <Node pos="r" depth="1" NCoef="0" IVar="5" Cut="9.4335426330566406e+01" cType="1" res="1.8972007092088461e-03" rms="1.8401262164115906e-01" purity="5.2659887075424194e-01" nType="0">
          <Node pos="l" depth="2" NCoef="0" IVar="6" Cut="7.5124320983886719e+01" cType="1" res="-6.0139955021440983e-03" rms="1.1314176768064499e-01" purity="2.1766645833849907e-02" nType="0">
            <Node pos="l" depth="3" NCoef="0" IVar="-1" Cut="0.0000000000000000e+00" cType="1" res="-1.5123639255762100e-02" rms="1.1148988455533981e-01" purity="2.0970720797777176e-02" nType="-99"/>
            <Node pos="r" depth="3" NCoef="0" IVar="-1" Cut="0.0000000000000000e+00" cType="1" res="-7.2776205837726593e-02" rms="1.1649546772241592e-01" purity="2.3694172501564026e-02" nType="-99"/>
          </Node>
          <Node pos="r" depth="2" NCoef="0" IVar="6" Cut="1.7467457580566406e+02" cType="1" res="2.8876934666186571e-03" rms="1.9101966917514801e-01" purity="5.8980453014373779e-01" nType="0">
            <Node pos="l" depth="3" NCoef="0" IVar="-1" Cut="0.0000000000000000e+00" cType="1" res="1.1680303141474724e-02" rms="2.1755830943584442e-01" purity="4.0325194597244263e-01" nType="-99"/>
            <Node pos="r" depth="3" NCoef="0" IVar="-1" Cut="0.0000000000000000e+00" cType="1" res="-1.1796717531979084e-02" rms="1.2465374916791916e-01" purity="9.4962137937545776e-01" nType="-99"/>
          </Node>
        </Node>
      </Node>
    </BinaryTree>
    <BinaryTree type="DecisionTree" boostWeight="1.0000000000000000e+00" itree="106">
      <Node pos="s" depth="0" NCoef="0" IVar="10" Cut="-3.9948448538780212e-01" cType="1" res="-9.0699840802699327e-04" rms="1.8728826940059662e-01" purity="4.9816673994064331e-01" nType="0">
        <Node pos="l" depth="1" NCoef="0" IVar="9" Cut="6.6103279590606689e-01" cType="1" res="2.7057400438934565e-03" rms="1.9300541281700134e-01" purity="4.7847244143486023e-01" nType="0">
          <Node pos="l" depth="2" NCoef="0" IVar="11" Cut="-1.3182790577411652e-01" cType="1" res="-1.8285880796611309e-03" rms="1.8652260303497314e-01" purity="4.9081614613533020e-01" nType="0">
            <Node pos="l" depth="3" NCoef="0" IVar="-1" Cut="0.0000000000000000e+00" cType="1" res="-1.9014677032828331e-02" rms="1.7934690415859222e-01" purity="4.5367759466171265e-01" nType="-99"/>
            <Node pos="r" depth="3" NCoef="0" IVar="-1" Cut="0.0000000000000000e+00" cType="1" res="8.2924654707312584e-03" rms="1.9368730485439301e-01" purity="5.2998107671737671e-01" nType="-99"/>
          </Node>
          <Node pos="r" depth="2" NCoef="0" IVar="0" Cut="1.8191262207031250e+03" cType="1" res="1.7578771337866783e-02" rms="2.1220935881137848e-01" purity="4.3798416852951050e-01" nType="0">
            <Node pos="l" depth="3" NCoef="0" IVar="-1" Cut="0.0000000000000000e+00" cType="1" res="7.7153220772743225e-03" rms="1.1316240578889847e-01" purity="1.3549930416047573e-02" nType="-99"/>
            <Node pos="r" depth="3" NCoef="0" IVar="-1" Cut="0.0000000000000000e+00" cType="1" res="5.1826551556587219e-02" rms="2.6648598909378052e-01" purity="7.8560584783554077e-01" nType="-99"/>
          </Node>
        </Node>
        <Node pos="r" depth="1" NCoef="0" IVar="8" Cut="-6.6591632366180420e-01" cType="1" res="-2.9736047144979239e-03" rms="1.8390609323978424e-01" purity="5.0943243503570557e-01" nType="0">
          <Node pos="l" depth="2" NCoef="0" IVar="8" Cut="-1.2752763032913208e+00" cType="1" res="4.3015344999730587e-03" rms="1.8946145474910736e-01" purity="3.8113701343536377e-01" nType="0">
            <Node pos="l" depth="3" NCoef="0" IVar="-1" Cut="0.0000000000000000e+00" cType="1" res="-1.9978430122137070e-02" rms="1.7497484385967255e-01" purity="1.6066950559616089e-01" nType="-99"/>
            <Node pos="r" depth="3" NCoef="0" IVar="-1" Cut="0.0000000000000000e+00" cType="1" res="2.7538485825061798e-02" rms="1.9771222770214081e-01" purity="5.1892703771591187e-01" nType="-99"/>
          </Node>
          <Node pos="r" depth="2" NCoef="0" IVar="4" Cut="3.0831509399414062e+02" cType="1" res="-5.0193886272609234e-03" rms="1.8226112425327301e-01" purity="5.4550939798355103e-01" nType="0">
            <Node pos="l" depth="3" NCoef="0" IVar="-1" Cut="0.0000000000000000e+00" cType="1" res="-1.9477747380733490e-02" rms="2.0606461167335510e-01" purity="2.6508587598800659e-01" nType="-99"/>
            <Node pos="r" depth="3" NCoef="0" IVar="-1" Cut="0.0000000000000000e+00" cType="1" res="1.9461924675852060e-03" rms="1.3993702828884125e-01" purity="9.5771771669387817e-01" nType="-99"/>
          </Node>
        </Node>
      </Node>
    </BinaryTree>
    <BinaryTree type="DecisionTree" boostWeight="1.0000000000000000e+00" itree="107">
      <Node pos="s" depth="0" NCoef="0" IVar="9" Cut="-9.3376374244689941e-01" cType="1" res="1.5768316807225347e-03" rms="1.8994081020355225e-01" purity="5.1348984241485596e-01" nType="0">
        <Node pos="l" depth="1" NCoef="0" IVar="8" Cut="4.0800148248672485e-01" cType="1" res="8.3364946767687798e-03" rms="2.0525787770748138e-01" purity="3.6697700619697571e-01" nType="0">
          <Node pos="l" depth="2" NCoef="0" IVar="0" Cut="1.5987154541015625e+03" cType="1" res="1.3887619599699974e-02" rms="1.9996799528598785e-01" purity="4.0003454685211182e-01" nType="0">
            <Node pos="l" depth="3" NCoef="0" IVar="-1" Cut="0.0000000000000000e+00" cType="1" res="-4.6067349612712860e-02" rms="5.7994212955236435e-02" purity="3.3530304208397865e-03" nType="-99"/>
            <Node pos="r" depth="3" NCoef="0" IVar="-1" Cut="0.0000000000000000e+00" cType="1" res="4.0905859321355820e-02" rms="2.3157680034637451e-01" purity="5.4934519529342651e-01" nType="-99"/>
          </Node>
          <Node pos="r" depth="2" NCoef="0" IVar="7" Cut="-5.6850604712963104e-02" cType="1" res="-2.8423371259123087e-03" rms="2.1508264541625977e-01" purity="3.0040585994720459e-01" nType="0">
            <Node pos="l" depth="3" NCoef="0" IVar="-1" Cut="0.0000000000000000e+00" cType="1" res="-3.6881275475025177e-02" rms="2.0976825058460236e-01" purity="2.9014879465103149e-01" nType="-99"/>
            <Node pos="r" depth="3" NCoef="0" IVar="-1" Cut="0.0000000000000000e+00" cType="1" res="3.0560052022337914e-02" rms="2.2018757462501526e-01" purity="3.1234300136566162e-01" nType="-99"/>
          </Node>
        </Node>
        <Node pos="r" depth="1" NCoef="0" IVar="3" Cut="3.4054861450195312e+02" cType="1" res="2.0976493033231236e-05" rms="1.8620231747627258e-01" purity="5.4721236228942871e-01" nType="0">
          <Node pos="l" depth="2" NCoef="0" IVar="6" Cut="1.5927894592285156e+02" cType="1" res="-4.5913923531770706e-03" rms="1.9123236835002899e-01" purity="1.4310403168201447e-01" nType="0">
            <Node pos="l" depth="3" NCoef="0" IVar="-1" Cut="0.0000000000000000e+00" cType="1" res="-4.0239910595118999e-03" rms="1.7526814341545105e-01" purity="8.7769523262977600e-02" nType="-99"/>
            <Node pos="r" depth="3" NCoef="0" IVar="-1" Cut="0.0000000000000000e+00" cType="1" res="-4.3021604418754578e-02" rms="2.9479455947875977e-01" purity="6.2793487310409546e-01" nType="-99"/>
          </Node>
          <Node pos="r" depth="2" NCoef="0" IVar="2" Cut="4.5050769042968750e+02" cType="1" res="3.4030177630484104e-03" rms="1.8235178291797638e-01" purity="8.4352666139602661e-01" nType="0">
            <Node pos="l" depth="3" NCoef="0" IVar="-1" Cut="0.0000000000000000e+00" cType="1" res="4.4860918074846268e-02" rms="2.7137938141822815e-01" purity="5.1656621694564819e-01" nType="-99"/>
            <Node pos="r" depth="3" NCoef="0" IVar="-1" Cut="0.0000000000000000e+00" cType="1" res="4.2695463635027409e-03" rms="1.7237026989459991e-01" purity="8.7175333499908447e-01" nType="-99"/>
          </Node>
        </Node>
      </Node>
    </BinaryTree>
    <BinaryTree type="DecisionTree" boostWeight="1.0000000000000000e+00" itree="108">
      <Node pos="s" depth="0" NCoef="0" IVar="2" Cut="6.5161425781250000e+02" cType="1" res="-4.9849277274915949e-05" rms="1.8777984380722046e-01" purity="5.0470995903015137e-01" nType="0">
        <Node pos="l" depth="1" NCoef="0" IVar="11" Cut="-1.1984864473342896e+00" cType="1" res="3.0742469243705273e-03" rms="1.9207659363746643e-01" purity="3.3334323763847351e-01" nType="0">
          <Node pos="l" depth="2" NCoef="0" IVar="0" Cut="1.6917529296875000e+03" cType="1" res="1.3288347981870174e-02" rms="2.1008165180683136e-01" purity="3.0113333463668823e-01" nType="0">
            <Node pos="l" depth="3" NCoef="0" IVar="-1" Cut="0.0000000000000000e+00" cType="1" res="4.2899109423160553e-02" rms="1.0845746099948883e-01" purity="1.1995101347565651e-02" nType="-99"/>
            <Node pos="r" depth="3" NCoef="0" IVar="-1" Cut="0.0000000000000000e+00" cType="1" res="3.2443858683109283e-02" rms="2.7635505795478821e-01" purity="5.9077751636505127e-01" nType="-99"/>
          </Node>
          <Node pos="r" depth="2" NCoef="0" IVar="10" Cut="1.4670419692993164e+00" cType="1" res="8.7034545140340924e-04" rms="1.8789273500442505e-01" purity="3.4029313921928406e-01" nType="0">
            <Node pos="l" depth="3" NCoef="0" IVar="-1" Cut="0.0000000000000000e+00" cType="1" res="-2.0050066523253918e-03" rms="1.8439833819866180e-01" purity="3.5563561320304871e-01" nType="-99"/>
            <Node pos="r" depth="3" NCoef="0" IVar="-1" Cut="0.0000000000000000e+00" cType="1" res="3.5881679505109787e-02" rms="2.1365678310394287e-01" purity="2.1618735790252686e-01" nType="-99"/>
          </Node>
        </Node>
        <Node pos="r" depth="1" NCoef="0" IVar="7" Cut="6.8626332283020020e-01" cType="1" res="-5.7391081936657429e-03" rms="1.7955176532268524e-01" purity="8.1678420305252075e-01" nType="0">
          <Node pos="l" depth="2" NCoef="0" IVar="7" Cut="-8.6750078201293945e-01" cType="1" res="-2.7555879205465317e-03" rms="1.7451922595500946e-01" purity="8.4215497970581055e-01" nType="0">
            <Node pos="l" depth="3" NCoef="0" IVar="-1" Cut="0.0000000000000000e+00" cType="1" res="-4.3660532683134079e-02" rms="2.1464562416076660e-01" purity="5.0643640756607056e-01" nType="-99"/>
            <Node pos="r" depth="3" NCoef="0" IVar="-1" Cut="0.0000000000000000e+00" cType="1" res="-3.9285076782107353e-03" rms="1.7006860673427582e-01" purity="8.7448716163635254e-01" nType="-99"/>
          </Node>
          <Node pos="r" depth="2" NCoef="0" IVar="-1" Cut="0.0000000000000000e+00" cType="1" res="-7.0789083838462830e-02" rms="2.1053202450275421e-01" purity="6.3749122619628906e-01" nType="-99"/>
        </Node>
      </Node>
    </BinaryTree>
    <BinaryTree type="DecisionTree" boostWeight="1.0000000000000000e+00" itree="109">
      <Node pos="s" depth="0" NCoef="0" IVar="5" Cut="1.8630099487304688e+02" cType="1" res="9.1446307487785816e-04" rms="1.9179590046405792e-01" purity="5.0484365224838257e-01" nType="0">
        <Node pos="l" depth="1" NCoef="0" IVar="0" Cut="1.8876590576171875e+03" cType="1" res="4.3564047664403915e-03" rms="2.0292787253856659e-01" purity="1.7904324829578400e-01" nType="0">
          <Node pos="l" depth="2" NCoef="0" IVar="0" Cut="1.8179238281250000e+03" cType="1" res="-8.6287836893461645e-05" rms="1.1989789456129074e-01" purity="1.5590389259159565e-02" nType="0">
            <Node pos="l" depth="3" NCoef="0" IVar="-1" Cut="0.0000000000000000e+00" cType="1" res="9.2592295259237289e-03" rms="1.1017501354217529e-01" purity="1.2910592369735241e-02" nType="-99"/>
            <Node pos="r" depth="3" NCoef="0" IVar="-1" Cut="0.0000000000000000e+00" cType="1" res="-2.7403600513935089e-02" rms="2.1035248041152954e-01" purity="5.1679287105798721e-02" nType="-99"/>
          </Node>
          <Node pos="r" depth="2" NCoef="0" IVar="1" Cut="9.5303297042846680e-02" cType="1" res="1.4479519799351692e-02" rms="3.1954392790794373e-01" purity="5.5148679018020630e-01" nType="0">
            <Node pos="l" depth="3" NCoef="0" IVar="-1" Cut="0.0000000000000000e+00" cType="1" res="2.2829269990324974e-02" rms="3.3475846052169800e-01" purity="4.5193853974342346e-01" nType="-99"/>
            <Node pos="r" depth="3" NCoef="0" IVar="-1" Cut="0.0000000000000000e+00" cType="1" res="-6.7119249142706394e-03" rms="2.7767974138259888e-01" purity="7.9582333564758301e-01" nType="-99"/>
          </Node>
        </Node>
        <Node pos="r" depth="1" NCoef="0" IVar="10" Cut="-9.3051511049270630e-01" cType="1" res="-3.2408316619694233e-03" rms="1.7733967304229736e-01" purity="8.9816725254058838e-01" nType="0">
          <Node pos="l" depth="2" NCoef="0" IVar="11" Cut="-1.3647277653217316e-01" cType="1" res="-2.0198248326778412e-02" rms="2.1535192430019379e-01" purity="8.2616668939590454e-01" nType="0">
            <Node pos="l" depth="3" NCoef="0" IVar="-1" Cut="0.0000000000000000e+00" cType="1" res="-2.3326503112912178e-02" rms="2.0103250443935394e-01" purity="8.3336508274078369e-01" nType="-99"/>
            <Node pos="r" depth="3" NCoef="0" IVar="-1" Cut="0.0000000000000000e+00" cType="1" res="-6.8841591477394104e-02" rms="2.2727553546428680e-01" purity="8.1953805685043335e-01" nType="-99"/>
          </Node>
          <Node pos="r" depth="2" NCoef="0" IVar="10" Cut="1.1882929801940918e+00" cType="1" res="1.0495115566300228e-04" rms="1.6863049566745758e-01" purity="9.1237330436706543e-01" nType="0">
            <Node pos="l" depth="3" NCoef="0" IVar="-1" Cut="0.0000000000000000e+00" cType="1" res="7.2371503338217735e-03" rms="1.5958906710147858e-01" purity="9.2276555299758911e-01" nType="-99"/>
            <Node pos="r" depth="3" NCoef="0" IVar="-1" Cut="0.0000000000000000e+00" cType="1" res="-3.0367733910679817e-02" rms="2.2403800487518311e-01" purity="8.3548778295516968e-01" nType="-99"/>
          </Node>
        </Node>
      </Node>
    </BinaryTree>
    <BinaryTree type="DecisionTree" boostWeight="1.0000000000000000e+00" itree="110">
      <Node pos="s" depth="0" NCoef="0" IVar="10" Cut="-1.4646526575088501e+00" cType="1" res="-5.8669247664511204e-04" rms="1.8918973207473755e-01" purity="4.9793252348899841e-01" nType="0">
        <Node pos="l" depth="1" NCoef="0" IVar="10" Cut="-2.0993120670318604e+00" cType="1" res="-9.8679568618535995e-03" rms="2.1643620729446411e-01" purity="3.0496388673782349e-01" nType="0">
          <Node pos="l" depth="2" NCoef="0" IVar="-1" Cut="0.0000000000000000e+00" cType="1" res="3.2639596611261368e-02" rms="2.2220128774642944e-01" purity="1.8713307380676270e-01" nType="-99"/>
          <Node pos="r" depth="2" NCoef="0" IVar="1" Cut="5.4788149893283844e-02" cType="1" res="-1.9548680633306503e-02" rms="2.1319837868213654e-01" purity="3.5516664385795593e-01" nType="0">
            <Node pos="l" depth="3" NCoef="0" IVar="-1" Cut="0.0000000000000000e+00" cType="1" res="-2.4853853508830070e-02" rms="1.5185061097145081e-01" purity="1.2492078542709351e-01" nType="-99"/>
            <Node pos="r" depth="3" NCoef="0" IVar="-1" Cut="0.0000000000000000e+00" cType="1" res="-6.0308374464511871e-02" rms="2.6135092973709106e-01" purity="5.9290677309036255e-01" nType="-99"/>
          </Node>
        </Node>
        <Node pos="r" depth="1" NCoef="0" IVar="5" Cut="1.9134161376953125e+02" cType="1" res="3.6489396006800234e-04" rms="1.8614481389522552e-01" purity="5.1771712303161621e-01" nType="0">
          <Node pos="l" depth="2" NCoef="0" IVar="4" Cut="2.4703031921386719e+02" cType="1" res="-2.0220782607793808e-03" rms="2.0154635608196259e-01" purity="1.8206074833869934e-01" nType="0">
            <Node pos="l" depth="3" NCoef="0" IVar="-1" Cut="0.0000000000000000e+00" cType="1" res="1.9443889614194632e-03" rms="1.7790749669075012e-01" purity="1.0022772103548050e-01" nType="-99"/>
            <Node pos="r" depth="3" NCoef="0" IVar="-1" Cut="0.0000000000000000e+00" cType="1" res="-1.9684631377458572e-02" rms="2.8734266757965088e-01" purity="5.6643855571746826e-01" nType="-99"/>
          </Node>
          <Node pos="r" depth="2" NCoef="0" IVar="0" Cut="2.1339238281250000e+03" cType="1" res="3.2002574298530817e-03" rms="1.6595900058746338e-01" purity="9.1642636060714722e-01" nType="0">
            <Node pos="l" depth="3" NCoef="0" IVar="-1" Cut="0.0000000000000000e+00" cType="1" res="3.4660659730434418e-02" rms="3.4834036231040955e-01" purity="2.1642999351024628e-01" nType="-99"/>
            <Node pos="r" depth="3" NCoef="0" IVar="-1" Cut="0.0000000000000000e+00" cType="1" res="3.6382239777594805e-03" rms="1.4301909506320953e-01" purity="9.6870559453964233e-01" nType="-99"/>
          </Node>
        </Node>
      </Node>
    </BinaryTree>
    <BinaryTree type="DecisionTree" boostWeight="1.0000000000000000e+00" itree="111">
      <Node pos="s" depth="0" NCoef="0" IVar="8" Cut="9.3341398239135742e-01" cType="1" res="1.9561876251827925e-04" rms="1.8684415519237518e-01" purity="5.0016623735427856e-01" nType="0">
        <Node pos="l" depth="1" NCoef="0" IVar="7" Cut="-4.4473353773355484e-03" cType="1" res="1.5910951187834144e-03" rms="1.8408666551113129e-01" purity="5.4180824756622314e-01" nType="0">
          <Node pos="l" depth="2" NCoef="0" IVar="11" Cut="-9.3088841438293457e-01" cType="1" res="4.1442001238465309e-03" rms="1.8806907534599304e-01" purity="5.4506736993789673e-01" nType="0">
            <Node pos="l" depth="3" NCoef="0" IVar="-1" Cut="0.0000000000000000e+00" cType="1" res="-1.2627112679183483e-02" rms="1.8829539418220520e-01" purity="4.7049096226692200e-01" nType="-99"/>
            <Node pos="r" depth="3" NCoef="0" IVar="-1" Cut="0.0000000000000000e+00" cType="1" res="2.0579032599925995e-02" rms="1.8789148330688477e-01" purity="5.7242816686630249e-01" nType="-99"/>
          </Node>
          <Node pos="r" depth="2" NCoef="0" IVar="8" Cut="-8.4433281421661377e-01" cType="1" res="-9.7557698609307408e-04" rms="1.7995779216289520e-01" purity="5.3853183984756470e-01" nType="0">
            <Node pos="l" depth="3" NCoef="0" IVar="-1" Cut="0.0000000000000000e+00" cType="1" res="-2.9674272984266281e-02" rms="1.8319785594940186e-01" purity="2.5731235742568970e-01" nType="-99"/>
            <Node pos="r" depth="3" NCoef="0" IVar="-1" Cut="0.0000000000000000e+00" cType="1" res="5.4282625205814838e-03" rms="1.7888431251049042e-01" purity="6.2247872352600098e-01" nType="-99"/>
          </Node>
        </Node>
        <Node pos="r" depth="1" NCoef="0" IVar="3" Cut="4.1277160644531250e+02" cType="1" res="-6.8085473030805588e-03" rms="1.9996429979801178e-01" purity="2.9115653038024902e-01" nType="0">
          <Node pos="l" depth="2" NCoef="0" IVar="10" Cut="1.3354830443859100e-01" cType="1" res="-6.1184039805084467e-04" rms="1.8499037623405457e-01" purity="1.5333098173141479e-01" nType="0">
            <Node pos="l" depth="3" NCoef="0" IVar="-1" Cut="0.0000000000000000e+00" cType="1" res="2.4073703214526176e-02" rms="2.0119671523571014e-01" purity="1.7873540520668030e-01" nType="-99"/>
            <Node pos="r" depth="3" NCoef="0" IVar="-1" Cut="0.0000000000000000e+00" cType="1" res="-2.7099976316094398e-02" rms="1.6908431053161621e-01" purity="1.3106352090835571e-01" nType="-99"/>
          </Node>
          <Node pos="r" depth="2" NCoef="0" IVar="-1" Cut="0.0000000000000000e+00" cType="1" res="-6.3780143857002258e-02" rms="2.4414756894111633e-01" purity="7.7486234903335571e-01" nType="-99"/>
        </Node>
      </Node>
    </BinaryTree>
    <BinaryTree type="DecisionTree" boostWeight="1.0000000000000000e+00" itree="112">
      <Node pos="s" depth="0" NCoef="0" IVar="10" Cut="-1.4649989604949951e+00" cType="1" res="-1.6435773577541113e-03" rms="1.8686878681182861e-01" purity="4.9753934144973755e-01" nType="0">
        <Node pos="l" depth="1" NCoef="0" IVar="11" Cut="6.6852349042892456e-01" cType="1" res="7.7155348844826221e-03" rms="2.1940810978412628e-01" purity="3.3966276049613953e-01" nType="0">
          <Node pos="l" depth="2" NCoef="0" IVar="10" Cut="-1.9726716279983521e+00" cType="1" res="5.7233648840337992e-04" rms="2.1708732843399048e-01" purity="3.5128352046012878e-01" nType="0">
            <Node pos="l" depth="3" NCoef="0" IVar="-1" Cut="0.0000000000000000e+00" cType="1" res="-3.9049208164215088e-02" rms="2.3768669366836548e-01" purity="2.0944836735725403e-01" nType="-99"/>
            <Node pos="r" depth="3" NCoef="0" IVar="-1" Cut="0.0000000000000000e+00" cType="1" res="3.0250828713178635e-02" rms="2.0219893753528595e-01" purity="4.4068595767021179e-01" nType="-99"/>
          </Node>
          <Node pos="r" depth="2" NCoef="0" IVar="-1" Cut="0.0000000000000000e+00" cType="1" res="6.5840534865856171e-02" rms="2.2442692518234253e-01" purity="3.0825054645538330e-01" nType="-99"/>
        </Node>
        <Node pos="r" depth="1" NCoef="0" IVar="6" Cut="1.6907286071777344e+02" cType="1" res="-2.6399900671094656e-03" rms="1.8303598463535309e-01" purity="5.1434755325317383e-01" nType="0">
          <Node pos="l" depth="2" NCoef="0" IVar="10" Cut="-2.4628163874149323e-01" cType="1" res="-4.7213328070938587e-03" rms="2.0055867731571198e-01" purity="3.0841159820556641e-01" nType="0">
            <Node pos="l" depth="3" NCoef="0" IVar="-1" Cut="0.0000000000000000e+00" cType="1" res="-2.9145572334527969e-02" rms="2.0220184326171875e-01" purity="3.2643529772758484e-01" nType="-99"/>
            <Node pos="r" depth="3" NCoef="0" IVar="-1" Cut="0.0000000000000000e+00" cType="1" res="-1.7993348883464932e-03" rms="1.9959011673927307e-01" purity="2.9913711547851562e-01" nType="-99"/>
          </Node>
          <Node pos="r" depth="2" NCoef="0" IVar="3" Cut="3.7699548339843750e+02" cType="1" res="1.8383801216259599e-03" rms="1.3787703216075897e-01" purity="9.5745462179183960e-01" nType="0">
            <Node pos="l" depth="3" NCoef="0" IVar="-1" Cut="0.0000000000000000e+00" cType="1" res="3.1775008887052536e-02" rms="2.3884834349155426e-01" purity="8.2545393705368042e-01" nType="-99"/>
            <Node pos="r" depth="3" NCoef="0" IVar="-1" Cut="0.0000000000000000e+00" cType="1" res="-1.5133225359022617e-02" rms="1.0491278022527695e-01" purity="9.8499143123626709e-01" nType="-99"/>
          </Node>
        </Node>
      </Node>
    </BinaryTree>
    <BinaryTree type="DecisionTree" boostWeight="1.0000000000000000e+00" itree="113">
      <Node pos="s" depth="0" NCoef="0" IVar="5" Cut="8.6594909667968750e+01" cType="1" res="8.8778918143361807e-04" rms="1.8554505705833435e-01" purity="5.0446140766143799e-01" nType="0">
        <Node pos="l" depth="1" NCoef="0" IVar="8" Cut="4.0466043353080750e-01" cType="1" res="-6.6136689856648445e-03" rms="9.9484182894229889e-02" purity="1.9806459546089172e-02" nType="0">
          <Node pos="l" depth="2" NCoef="0" IVar="2" Cut="5.1856762695312500e+02" cType="1" res="-1.1508874595165253e-02" rms="8.4608584642410278e-02" purity="1.4096558094024658e-02" nType="0">
            <Node pos="l" depth="3" NCoef="0" IVar="-1" Cut="0.0000000000000000e+00" cType="1" res="-6.5836042165756226e-02" rms="5.2363805472850800e-02" purity="3.3916833344846964e-03" nType="-99"/>
            <Node pos="r" depth="3" NCoef="0" IVar="-1" Cut="0.0000000000000000e+00" cType="1" res="-8.6628645658493042e-02" rms="1.0834719985723495e-01" purity="2.5462267920374870e-02" nType="-99"/>
          </Node>
          <Node pos="r" depth="2" NCoef="0" IVar="-1" Cut="0.0000000000000000e+00" cType="1" res="8.2481550052762032e-03" rms="1.1910817772150040e-01" purity="2.8959084302186966e-02" nType="-99"/>
        </Node>
        <Node pos="r" depth="1" NCoef="0" IVar="11" Cut="-1.7333372831344604e+00" cType="1" res="1.5742881223559380e-03" rms="1.9148422777652740e-01" purity="5.4881483316421509e-01" nType="0">
          <Node pos="l" depth="2" NCoef="0" IVar="7" Cut="2.3176655173301697e-01" cType="1" res="1.1647442355751991e-02" rms="2.2238095104694366e-01" purity="4.1939470171928406e-01" nType="0">
            <Node pos="l" depth="3" NCoef="0" IVar="-1" Cut="0.0000000000000000e+00" cType="1" res="4.8356313258409500e-02" rms="2.3411443829536438e-01" purity="5.0259286165237427e-01" nType="-99"/>
            <Node pos="r" depth="3" NCoef="0" IVar="-1" Cut="0.0000000000000000e+00" cType="1" res="-1.3424455188214779e-02" rms="2.0311130583286285e-01" purity="2.9953122138977051e-01" nType="-99"/>
          </Node>
          <Node pos="r" depth="2" NCoef="0" IVar="1" Cut="5.9347189962863922e-02" cType="1" res="8.3062768680974841e-04" rms="1.8898186087608337e-01" purity="5.5836939811706543e-01" nType="0">
            <Node pos="l" depth="3" NCoef="0" IVar="-1" Cut="0.0000000000000000e+00" cType="1" res="1.0833061300218105e-02" rms="1.9952513277530670e-01" purity="2.8775918483734131e-01" nType="-99"/>
            <Node pos="r" depth="3" NCoef="0" IVar="-1" Cut="0.0000000000000000e+00" cType="1" res="-5.0393259152770042e-03" rms="1.8076159060001373e-01" purity="7.5820159912109375e-01" nType="-99"/>
          </Node>
        </Node>
      </Node>
    </BinaryTree>
    <BinaryTree type="DecisionTree" boostWeight="1.0000000000000000e+00" itree="114">
      <Node pos="s" depth="0" NCoef="0" IVar="11" Cut="1.1997733116149902e+00" cType="1" res="9.8695128690451384e-04" rms="1.8890583515167236e-01" purity="5.0142449140548706e-01" nType="0">
        <Node pos="l" depth="1" NCoef="0" IVar="2" Cut="8.0907073974609375e+02" cType="1" res="-1.5029798669274896e-04" rms="1.8597079813480377e-01" purity="5.1448982954025269e-01" nType="0">
          <Node pos="l" depth="2" NCoef="0" IVar="10" Cut="-1.4638494253158569e+00" cType="1" res="1.4263230841606855e-03" rms="1.8783593177795410e-01" purity="4.3345484137535095e-01" nType="0">
            <Node pos="l" depth="3" NCoef="0" IVar="-1" Cut="0.0000000000000000e+00" cType="1" res="3.2256692647933960e-02" rms="2.0582452416419983e-01" purity="2.9319712519645691e-01" nType="-99"/>
            <Node pos="r" depth="3" NCoef="0" IVar="-1" Cut="0.0000000000000000e+00" cType="1" res="2.6649565552361310e-04" rms="1.8548105657100677e-01" purity="4.5054268836975098e-01" nType="-99"/>
          </Node>
          <Node pos="r" depth="2" NCoef="0" IVar="5" Cut="2.2270356750488281e+02" cType="1" res="-7.3585505597293377e-03" rms="1.7701484262943268e-01" purity="8.8497883081436157e-01" nType="0">
            <Node pos="l" depth="3" NCoef="0" IVar="-1" Cut="0.0000000000000000e+00" cType="1" res="-3.5619266331195831e-02" rms="2.6656392216682434e-01" purity="7.0390051603317261e-01" nType="-99"/>
            <Node pos="r" depth="3" NCoef="0" IVar="-1" Cut="0.0000000000000000e+00" cType="1" res="1.9450545310974121e-02" rms="9.0194977819919586e-02" purity="9.8964965343475342e-01" nType="-99"/>
          </Node>
        </Node>
        <Node pos="r" depth="1" NCoef="0" IVar="4" Cut="3.1299032592773438e+02" cType="1" res="6.5816221758723259e-03" rms="2.0263397693634033e-01" purity="4.3714994192123413e-01" nType="0">
          <Node pos="l" depth="2" NCoef="0" IVar="2" Cut="6.3326525878906250e+02" cType="1" res="1.2904090806841850e-02" rms="2.0812289416790009e-01" purity="2.5095957517623901e-01" nType="0">
            <Node pos="l" depth="3" NCoef="0" IVar="-1" Cut="0.0000000000000000e+00" cType="1" res="1.1193983256816864e-02" rms="2.0662380754947662e-01" purity="1.5102452039718628e-01" nType="-99"/>
            <Node pos="r" depth="3" NCoef="0" IVar="-1" Cut="0.0000000000000000e+00" cType="1" res="6.9710358977317810e-02" rms="2.1056197583675385e-01" purity="5.9390383958816528e-01" nType="-99"/>
          </Node>
          <Node pos="r" depth="2" NCoef="0" IVar="-1" Cut="0.0000000000000000e+00" cType="1" res="-3.7846986204385757e-02" rms="1.8619905412197113e-01" purity="9.3271398544311523e-01" nType="-99"/>
        </Node>
      </Node>
    </BinaryTree>
    <BinaryTree type="DecisionTree" boostWeight="1.0000000000000000e+00" itree="115">
      <Node pos="s" depth="0" NCoef="0" IVar="9" Cut="-1.7326649427413940e+00" cType="1" res="-7.1093742735683918e-04" rms="1.8627479672431946e-01" purity="4.9974548816680908e-01" nType="0">
        <Node pos="l" depth="1" NCoef="0" IVar="5" Cut="1.2573586273193359e+02" cType="1" res="-1.2867677025496960e-02" rms="1.7465755343437195e-01" purity="1.3250835239887238e-01" nType="0">
          <Node pos="l" depth="2" NCoef="0" IVar="-1" Cut="0.0000000000000000e+00" cType="1" res="1.3178639113903046e-02" rms="1.2360410392284393e-01" purity="4.1893981397151947e-02" nType="-99"/>
          <Node pos="r" depth="2" NCoef="0" IVar="-1" Cut="0.0000000000000000e+00" cType="1" res="-5.7380028069019318e-02" rms="2.1356154978275299e-01" purity="2.2536845505237579e-01" nType="-99"/>
        </Node>
        <Node pos="r" depth="1" NCoef="0" IVar="9" Cut="1.9359816312789917e+00" cType="1" res="-5.4815231123939157e-05" rms="1.8685877323150635e-01" purity="5.1956599950790405e-01" nType="0">
          <Node pos="l" depth="2" NCoef="0" IVar="7" Cut="4.7611090540885925e-01" cType="1" res="4.0723348502069712e-04" rms="1.8694533407688141e-01" purity="5.3235036134719849e-01" nType="0">
            <Node pos="l" depth="3" NCoef="0" IVar="-1" Cut="0.0000000000000000e+00" cType="1" res="5.7270890101790428e-03" rms="1.8790513277053833e-01" purity="5.8214205503463745e-01" nType="-99"/>
            <Node pos="r" depth="3" NCoef="0" IVar="-1" Cut="0.0000000000000000e+00" cType="1" res="-1.0498741641640663e-02" rms="1.8432086706161499e-01" purity="4.0085786581039429e-01" nType="-99"/>
          </Node>
          <Node pos="r" depth="2" NCoef="0" IVar="-1" Cut="0.0000000000000000e+00" cType="1" res="-4.6291857957839966e-02" rms="1.8349519371986389e-01" purity="1.1467538028955460e-01" nType="-99"/>
        </Node>
      </Node>
    </BinaryTree>
    <BinaryTree type="DecisionTree" boostWeight="1.0000000000000000e+00" itree="116">
      <Node pos="s" depth="0" NCoef="0" IVar="8" Cut="-9.3367624282836914e-01" cType="1" res="-9.2027819482609630e-04" rms="1.9014582037925720e-01" purity="4.9513503909111023e-01" nType="0">
        <Node pos="l" depth="1" NCoef="0" IVar="3" Cut="4.3075814819335938e+02" cType="1" res="6.3619576394557953e-03" rms="2.0089657604694366e-01" purity="2.8898578882217407e-01" nType="0">
          <Node pos="l" depth="2" NCoef="0" IVar="0" Cut="1.8647711181640625e+03" cType="1" res="1.0678123682737350e-02" rms="1.9543388485908508e-01" purity="1.8523289263248444e-01" nType="0">
            <Node pos="l" depth="3" NCoef="0" IVar="-1" Cut="0.0000000000000000e+00" cType="1" res="1.5280283987522125e-02" rms="1.1606766283512115e-01" purity="1.4324263669550419e-02" nType="-99"/>
            <Node pos="r" depth="3" NCoef="0" IVar="-1" Cut="0.0000000000000000e+00" cType="1" res="3.5086471587419510e-02" rms="3.0153948068618774e-01" purity="5.5348086357116699e-01" nType="-99"/>
          </Node>
          <Node pos="r" depth="2" NCoef="0" IVar="-1" Cut="0.0000000000000000e+00" cType="1" res="-3.0844928696751595e-02" rms="2.2374734282493591e-01" purity="7.7803754806518555e-01" nType="-99"/>
        </Node>
        <Node pos="r" depth="1" NCoef="0" IVar="3" Cut="3.3332687377929688e+02" cType="1" res="-2.3497981019318104e-03" rms="1.8793009221553802e-01" purity="5.3560262918472290e-01" nType="0">
          <Node pos="l" depth="2" NCoef="0" IVar="3" Cut="3.0780825805664062e+02" cType="1" res="-7.2717354632914066e-03" rms="1.8557158112525940e-01" purity="1.3047339022159576e-01" nType="0">
            <Node pos="l" depth="3" NCoef="0" IVar="-1" Cut="0.0000000000000000e+00" cType="1" res="-1.3855766505002975e-02" rms="1.7302641272544861e-01" purity="9.5899738371372223e-02" nType="-99"/>
            <Node pos="r" depth="3" NCoef="0" IVar="-1" Cut="0.0000000000000000e+00" cType="1" res="-3.8255356252193451e-02" rms="2.4677045643329620e-01" purity="3.3654800057411194e-01" nType="-99"/>
          </Node>
          <Node pos="r" depth="2" NCoef="0" IVar="11" Cut="-1.4648820161819458e+00" cType="1" res="1.0846273507922888e-03" rms="1.8948271870613098e-01" purity="8.1829339265823364e-01" nType="0">
            <Node pos="l" depth="3" NCoef="0" IVar="-1" Cut="0.0000000000000000e+00" cType="1" res="-3.4217890352010727e-02" rms="2.3810328543186188e-01" purity="7.4750727415084839e-01" nType="-99"/>
            <Node pos="r" depth="3" NCoef="0" IVar="-1" Cut="0.0000000000000000e+00" cType="1" res="7.8699477016925812e-03" rms="1.8405406177043915e-01" purity="8.2509142160415649e-01" nType="-99"/>
          </Node>
        </Node>
      </Node>
    </BinaryTree>
    <BinaryTree type="DecisionTree" boostWeight="1.0000000000000000e+00" itree="117">
      <Node pos="s" depth="0" NCoef="0" IVar="11" Cut="-2.0000016689300537e+00" cType="1" res="1.5521858585998416e-04" rms="1.9128306210041046e-01" purity="4.9934959411621094e-01" nType="0">
        <Node pos="l" depth="1" NCoef="0" IVar="-1" Cut="0.0000000000000000e+00" cType="1" res="-3.3033065497875214e-02" rms="1.9568341970443726e-01" purity="2.8857094049453735e-01" nType="-99"/>
        <Node pos="r" depth="1" NCoef="0" IVar="1" Cut="5.9332247823476791e-02" cType="1" res="7.7680073445662856e-04" rms="1.9104640185832977e-01" purity="5.0951039791107178e-01" nType="0">
          <Node pos="l" depth="2" NCoef="0" IVar="0" Cut="2.7313630371093750e+03" cType="1" res="3.4445014316588640e-03" rms="1.9650137424468994e-01" purity="2.4899800121784210e-01" nType="0">
            <Node pos="l" depth="3" NCoef="0" IVar="-1" Cut="0.0000000000000000e+00" cType="1" res="1.7432050779461861e-02" rms="1.9132594764232635e-01" purity="8.7742321193218231e-02" nType="-99"/>
            <Node pos="r" depth="3" NCoef="0" IVar="-1" Cut="0.0000000000000000e+00" cType="1" res="-1.8171595409512520e-02" rms="2.1639029681682587e-01" purity="9.2170053720474243e-01" nType="-99"/>
          </Node>
          <Node pos="r" depth="2" NCoef="0" IVar="7" Cut="-9.0135860443115234e-01" cType="1" res="-1.5184559160843492e-03" rms="1.8619456887245178e-01" purity="7.3365205526351929e-01" nType="0">
            <Node pos="l" depth="3" NCoef="0" IVar="-1" Cut="0.0000000000000000e+00" cType="1" res="3.7249546498060226e-02" rms="2.1294543147087097e-01" purity="5.8790159225463867e-01" nType="-99"/>
            <Node pos="r" depth="3" NCoef="0" IVar="-1" Cut="0.0000000000000000e+00" cType="1" res="-8.3956615999341011e-03" rms="1.8408222496509552e-01" purity="7.4399411678314209e-01" nType="-99"/>
          </Node>
        </Node>
      </Node>
    </BinaryTree>
    <BinaryTree type="DecisionTree" boostWeight="1.0000000000000000e+00" itree="118">
      <Node pos="s" depth="0" NCoef="0" IVar="9" Cut="-9.3346101045608521e-01" cType="1" res="-1.2870111968368292e-03" rms="1.8344508111476898e-01" purity="4.9027991294860840e-01" nType="0">
        <Node pos="l" depth="1" NCoef="0" IVar="4" Cut="2.1043305969238281e+02" cType="1" res="-6.4440304413437843e-03" rms="1.9233128428459167e-01" purity="3.3535188436508179e-01" nType="0">
          <Node pos="l" depth="2" NCoef="0" IVar="1" Cut="3.6255355924367905e-02" cType="1" res="1.5928801149129868e-03" rms="1.6036964952945709e-01" purity="7.2667255997657776e-02" nType="0">
            <Node pos="l" depth="3" NCoef="0" IVar="-1" Cut="0.0000000000000000e+00" cType="1" res="-2.3980375379323959e-02" rms="1.2052601575851440e-01" purity="2.4143746122717857e-02" nType="-99"/>
            <Node pos="r" depth="3" NCoef="0" IVar="-1" Cut="0.0000000000000000e+00" cType="1" res="2.2510539740324020e-02" rms="1.9742758572101593e-01" purity="1.3051633536815643e-01" nType="-99"/>
          </Node>
          <Node pos="r" depth="2" NCoef="0" IVar="6" Cut="1.4653709411621094e+02" cType="1" res="-1.4957262203097343e-02" rms="2.2088782489299774e-01" purity="6.1360484361648560e-01" nType="0">
            <Node pos="l" depth="3" NCoef="0" IVar="-1" Cut="0.0000000000000000e+00" cType="1" res="-4.1280582547187805e-02" rms="2.4701546132564545e-01" purity="3.7553316354751587e-01" nType="-99"/>
            <Node pos="r" depth="3" NCoef="0" IVar="-1" Cut="0.0000000000000000e+00" cType="1" res="-8.2643982023000717e-03" rms="1.8675206601619720e-01" purity="8.7903058528900146e-01" nType="-99"/>
          </Node>
        </Node>
        <Node pos="r" depth="1" NCoef="0" IVar="0" Cut="2.1988310546875000e+03" cType="1" res="-6.4209569245576859e-05" rms="1.8125264346599579e-01" purity="5.2701556682586670e-01" nType="0">
          <Node pos="l" depth="2" NCoef="0" IVar="0" Cut="1.9705911865234375e+03" cType="1" res="-2.3674187250435352e-03" rms="1.8208888173103333e-01" purity="5.1325850188732147e-02" nType="0">
            <Node pos="l" depth="3" NCoef="0" IVar="-1" Cut="0.0000000000000000e+00" cType="1" res="7.1723136352375150e-04" rms="1.4318114519119263e-01" purity="2.5150705128908157e-02" nType="-99"/>
            <Node pos="r" depth="3" NCoef="0" IVar="-1" Cut="0.0000000000000000e+00" cType="1" res="-1.7072595655918121e-02" rms="3.5783559083938599e-01" purity="2.4842573702335358e-01" nType="-99"/>
          </Node>
          <Node pos="r" depth="2" NCoef="0" IVar="3" Cut="3.9195910644531250e+02" cType="1" res="1.8794615752995014e-03" rms="1.8052107095718384e-01" purity="9.2844855785369873e-01" nType="0">
            <Node pos="l" depth="3" NCoef="0" IVar="-1" Cut="0.0000000000000000e+00" cType="1" res="1.2622363865375519e-02" rms="2.5222727656364441e-01" purity="8.5204654932022095e-01" nType="-99"/>
            <Node pos="r" depth="3" NCoef="0" IVar="-1" Cut="0.0000000000000000e+00" cType="1" res="9.7793876193463802e-04" rms="1.5675799548625946e-01" purity="9.4815063476562500e-01" nType="-99"/>
          </Node>
        </Node>
      </Node>
    </BinaryTree>
    <BinaryTree type="DecisionTree" boostWeight="1.0000000000000000e+00" itree="119">
      <Node pos="s" depth="0" NCoef="0" IVar="10" Cut="-3.9962577819824219e-01" cType="1" res="2.3349532857537270e-03" rms="1.8943820893764496e-01" purity="5.0265663862228394e-01" nType="0">
        <Node pos="l" depth="1" NCoef="0" IVar="10" Cut="-5.1388669013977051e-01" cType="1" res="6.8241246044635773e-03" rms="1.9189853966236115e-01" purity="4.8586186766624451e-01" nType="0">
          <Node pos="l" depth="2" NCoef="0" IVar="10" Cut="-1.2755970954895020e+00" cType="1" res="4.8911259509623051e-03" rms="1.9043704867362976e-01" purity="4.7408360242843628e-01" nType="0">
            <Node pos="l" depth="3" NCoef="0" IVar="-1" Cut="0.0000000000000000e+00" cType="1" res="2.6185724884271622e-02" rms="2.1389462053775787e-01" purity="3.7495431303977966e-01" nType="-99"/>
            <Node pos="r" depth="3" NCoef="0" IVar="-1" Cut="0.0000000000000000e+00" cType="1" res="3.1504498329013586e-03" rms="1.7473205924034119e-01" purity="5.3361517190933228e-01" nType="-99"/>
          </Node>
          <Node pos="r" depth="2" NCoef="0" IVar="-1" Cut="0.0000000000000000e+00" cType="1" res="7.9008415341377258e-02" rms="2.0446389913558960e-01" purity="5.9884494543075562e-01" nType="-99"/>
        </Node>
        <Node pos="r" depth="1" NCoef="0" IVar="10" Cut="5.7388179004192352e-02" cType="1" res="-2.9569515027105808e-04" rms="1.8793167173862457e-01" purity="5.1249837875366211e-01" nType="0">
          <Node pos="l" depth="2" NCoef="0" IVar="5" Cut="2.6465594482421875e+02" cType="1" res="-7.6152067631483078e-03" rms="1.8265677988529205e-01" purity="5.3113204240798950e-01" nType="0">
            <Node pos="l" depth="3" NCoef="0" IVar="-1" Cut="0.0000000000000000e+00" cType="1" res="-3.1114084646105766e-02" rms="2.1089926362037659e-01" purity="3.3007735013961792e-01" nType="-99"/>
            <Node pos="r" depth="3" NCoef="0" IVar="-1" Cut="0.0000000000000000e+00" cType="1" res="3.5675294697284698e-02" rms="8.8195517659187317e-02" purity="9.9041265249252319e-01" nType="-99"/>
          </Node>
          <Node pos="r" depth="2" NCoef="0" IVar="8" Cut="9.3278998136520386e-01" cType="1" res="2.1605284418910742e-03" rms="1.8960560858249664e-01" purity="5.0624549388885498e-01" nType="0">
            <Node pos="l" depth="3" NCoef="0" IVar="-1" Cut="0.0000000000000000e+00" cType="1" res="1.2509888969361782e-02" rms="1.9065582752227783e-01" purity="5.5304908752441406e-01" nType="-99"/>
            <Node pos="r" depth="3" NCoef="0" IVar="-1" Cut="0.0000000000000000e+00" cType="1" res="-1.9964253529906273e-02" rms="1.8439044058322906e-01" purity="2.9091605544090271e-01" nType="-99"/>
          </Node>
        </Node>
      </Node>
    </BinaryTree>
    <BinaryTree type="DecisionTree" boostWeight="1.0000000000000000e+00" itree="120">
      <Node pos="s" depth="0" NCoef="0" IVar="10" Cut="-1.4658967256546021e+00" cType="1" res="1.2107096845284104e-03" rms="1.8581672012805939e-01" purity="5.0954443216323853e-01" nType="0">
        <Node pos="l" depth="1" NCoef="0" IVar="0" Cut="2.2383625488281250e+03" cType="1" res="-9.6149854362010956e-03" rms="2.1239250898361206e-01" purity="3.1128144264221191e-01" nType="0">
          <Node pos="l" depth="2" NCoef="0" IVar="8" Cut="1.2499254196882248e-01" cType="1" res="-9.1508554760366678e-04" rms="1.8651522696018219e-01" purity="5.3745687007904053e-02" nType="0">
            <Node pos="l" depth="3" NCoef="0" IVar="-1" Cut="0.0000000000000000e+00" cType="1" res="1.2538508512079716e-02" rms="1.7805406451225281e-01" purity="5.3628355264663696e-02" nType="-99"/>
            <Node pos="r" depth="3" NCoef="0" IVar="-1" Cut="0.0000000000000000e+00" cType="1" res="-1.7776250839233398e-02" rms="1.9689472019672394e-01" purity="5.3899776190519333e-02" nType="-99"/>
          </Node>
          <Node pos="r" depth="2" NCoef="0" IVar="-1" Cut="0.0000000000000000e+00" cType="1" res="-4.0554538369178772e-02" rms="2.5425747036933899e-01" purity="8.0940121412277222e-01" nType="-99"/>
        </Node>
        <Node pos="r" depth="1" NCoef="0" IVar="7" Cut="-1.2992656230926514e+00" cType="1" res="2.3476900532841682e-03" rms="1.8276429176330566e-01" purity="5.3036719560623169e-01" nType="0">
          <Node pos="l" depth="2" NCoef="0" IVar="8" Cut="1.4245279133319855e-01" cType="1" res="-1.2773863971233368e-02" rms="1.4927226305007935e-01" purity="9.9355898797512054e-02" nType="0">
            <Node pos="l" depth="3" NCoef="0" IVar="-1" Cut="0.0000000000000000e+00" cType="1" res="-4.6234908513724804e-03" rms="1.5964019298553467e-01" purity="1.2758497893810272e-01" nType="-99"/>
            <Node pos="r" depth="3" NCoef="0" IVar="-1" Cut="0.0000000000000000e+00" cType="1" res="-9.2619560658931732e-02" rms="1.3833613693714142e-01" purity="7.3652423918247223e-02" nType="-99"/>
          </Node>
          <Node pos="r" depth="2" NCoef="0" IVar="4" Cut="1.0746798706054688e+02" cType="1" res="3.4134315792471170e-03" rms="1.8484938144683838e-01" purity="5.6074416637420654e-01" nType="0">
            <Node pos="l" depth="3" NCoef="0" IVar="-1" Cut="0.0000000000000000e+00" cType="1" res="-8.4984779357910156e-02" rms="6.7403718829154968e-02" purity="4.1848341934382915e-03" nType="-99"/>
            <Node pos="r" depth="3" NCoef="0" IVar="-1" Cut="0.0000000000000000e+00" cType="1" res="1.1239897459745407e-02" rms="1.8859747052192688e-01" purity="5.8717685937881470e-01" nType="-99"/>
          </Node>
        </Node>
      </Node>
    </BinaryTree>
    <BinaryTree type="DecisionTree" boostWeight="1.0000000000000000e+00" itree="121">
      <Node pos="s" depth="0" NCoef="0" IVar="11" Cut="4.0084147453308105e-01" cType="1" res="-1.7850043950602412e-03" rms="1.8583732843399048e-01" purity="5.0260239839553833e-01" nType="0">
        <Node pos="l" depth="1" NCoef="0" IVar="3" Cut="6.0122460937500000e+02" cType="1" res="8.6270686006173491e-04" rms="1.8199095129966736e-01" purity="5.1458537578582764e-01" nType="0">
          <Node pos="l" depth="2" NCoef="0" IVar="0" Cut="2.3261625976562500e+03" cType="1" res="2.1809281315654516e-03" rms="1.8563517928123474e-01" purity="4.5037069916725159e-01" nType="0">
            <Node pos="l" depth="3" NCoef="0" IVar="-1" Cut="0.0000000000000000e+00" cType="1" res="-5.6278486736118793e-03" rms="1.9613687694072723e-01" purity="7.7374450862407684e-02" nType="-99"/>
            <Node pos="r" depth="3" NCoef="0" IVar="-1" Cut="0.0000000000000000e+00" cType="1" res="2.4496324360370636e-02" rms="1.7061036825180054e-01" purity="9.4294095039367676e-01" nType="-99"/>
          </Node>
          <Node pos="r" depth="2" NCoef="0" IVar="-1" Cut="0.0000000000000000e+00" cType="1" res="-4.1048515588045120e-02" rms="1.5456093847751617e-01" purity="9.5262789726257324e-01" nType="-99"/>
        </Node>
        <Node pos="r" depth="1" NCoef="0" IVar="7" Cut="4.8429155349731445e-01" cType="1" res="-6.2338248826563358e-03" rms="1.9204472005367279e-01" purity="4.8246797919273376e-01" nType="0">
          <Node pos="l" depth="2" NCoef="0" IVar="10" Cut="1.2017694711685181e+00" cType="1" res="-2.0740940235555172e-03" rms="1.9910694658756256e-01" purity="5.5469149351119995e-01" nType="0">
            <Node pos="l" depth="3" NCoef="0" IVar="-1" Cut="0.0000000000000000e+00" cType="1" res="1.5594101278111339e-03" rms="1.9173143804073334e-01" purity="5.8179199695587158e-01" nType="-99"/>
            <Node pos="r" depth="3" NCoef="0" IVar="-1" Cut="0.0000000000000000e+00" cType="1" res="-3.9840288460254669e-02" rms="2.3708228766918182e-01" purity="3.9635762572288513e-01" nType="-99"/>
          </Node>
          <Node pos="r" depth="2" NCoef="0" IVar="6" Cut="1.3601112365722656e+02" cType="1" res="-1.5284392051398754e-02" rms="1.7536048591136932e-01" purity="3.2532724738121033e-01" nType="0">
            <Node pos="l" depth="3" NCoef="0" IVar="-1" Cut="0.0000000000000000e+00" cType="1" res="-2.2810477763414383e-02" rms="1.6755703091621399e-01" purity="1.2693409621715546e-01" nType="-99"/>
            <Node pos="r" depth="3" NCoef="0" IVar="-1" Cut="0.0000000000000000e+00" cType="1" res="-5.8893624693155289e-02" rms="1.8852207064628601e-01" purity="7.0393717288970947e-01" nType="-99"/>
          </Node>
        </Node>
      </Node>
    </BinaryTree>
    <BinaryTree type="DecisionTree" boostWeight="1.0000000000000000e+00" itree="122">
      <Node pos="s" depth="0" NCoef="0" IVar="1" Cut="1.5168881416320801e-01" cType="1" res="2.1051494695711881e-04" rms="1.8796095252037048e-01" purity="5.0417393445968628e-01" nType="0">
        <Node pos="l" depth="1" NCoef="0" IVar="11" Cut="1.3239519298076630e-01" cType="1" res="-1.0400027967989445e-03" rms="1.9524993002414703e-01" purity="4.2068055272102356e-01" nType="0">
          <Node pos="l" depth="2" NCoef="0" IVar="4" Cut="1.5643865966796875e+02" cType="1" res="2.3667898494750261e-03" rms="1.9057415425777435e-01" purity="4.2394924163818359e-01" nType="0">
            <Node pos="l" depth="3" NCoef="0" IVar="-1" Cut="0.0000000000000000e+00" cType="1" res="-3.5489540547132492e-02" rms="1.1578973382711411e-01" purity="2.0958524197340012e-02" nType="-99"/>
            <Node pos="r" depth="3" NCoef="0" IVar="-1" Cut="0.0000000000000000e+00" cType="1" res="1.1660842224955559e-02" rms="2.0907184481620789e-01" purity="5.5446219444274902e-01" nType="-99"/>
          </Node>
          <Node pos="r" depth="2" NCoef="0" IVar="10" Cut="1.4670419692993164e+00" cType="1" res="-5.2523738704621792e-03" rms="2.0080101490020752e-01" purity="4.1663897037506104e-01" nType="0">
            <Node pos="l" depth="3" NCoef="0" IVar="-1" Cut="0.0000000000000000e+00" cType="1" res="-2.0670691505074501e-02" rms="1.9637806713581085e-01" purity="4.3670156598091125e-01" nType="-99"/>
            <Node pos="r" depth="3" NCoef="0" IVar="-1" Cut="0.0000000000000000e+00" cType="1" res="3.3640407025814056e-02" rms="2.3083554208278656e-01" purity="2.6329514384269714e-01" nType="-99"/>
          </Node>
        </Node>
        <Node pos="r" depth="1" NCoef="0" IVar="4" Cut="2.4131643676757812e+02" cType="1" res="5.8194026350975037e-03" rms="1.5087266266345978e-01" purity="8.7866270542144775e-01" nType="0">
          <Node pos="l" depth="2" NCoef="0" IVar="-1" Cut="0.0000000000000000e+00" cType="1" res="5.1219198852777481e-02" rms="2.7332982420921326e-01" purity="4.1906154155731201e-01" nType="-99"/>
          <Node pos="r" depth="2" NCoef="0" IVar="6" Cut="1.5360958862304688e+02" cType="1" res="9.4537244876846671e-04" rms="1.1292815208435059e-01" purity="9.6590763330459595e-01" nType="0">
            <Node pos="l" depth="3" NCoef="0" IVar="-1" Cut="0.0000000000000000e+00" cType="1" res="-2.3037120699882507e-02" rms="1.8979790806770325e-01" purity="8.8574832677841187e-01" nType="-99"/>
            <Node pos="r" depth="3" NCoef="0" IVar="-1" Cut="0.0000000000000000e+00" cType="1" res="4.5892942696809769e-02" rms="7.1678519248962402e-02" purity="9.9199169874191284e-01" nType="-99"/>
          </Node>
        </Node>
      </Node>
    </BinaryTree>
    <BinaryTree type="DecisionTree" boostWeight="1.0000000000000000e+00" itree="123">
      <Node pos="s" depth="0" NCoef="0" IVar="8" Cut="-1.7331336736679077e+00" cType="1" res="-9.7074802033603191e-04" rms="1.8419322371482849e-01" purity="5.0004106760025024e-01" nType="0">
        <Node pos="l" depth="1" NCoef="0" IVar="-1" Cut="0.0000000000000000e+00" cType="1" res="-7.7014669775962830e-02" rms="1.8389417231082916e-01" purity="5.2926305681467056e-02" nType="-99"/>
        <Node pos="r" depth="1" NCoef="0" IVar="10" Cut="-9.3261927366256714e-01" cType="1" res="-3.2696762355044484e-04" rms="1.8418028950691223e-01" purity="5.2003014087677002e-01" nType="0">
          <Node pos="l" depth="2" NCoef="0" IVar="9" Cut="6.6682726144790649e-01" cType="1" res="-6.7070736549794674e-03" rms="1.9527357816696167e-01" purity="4.2185571789741516e-01" nType="0">
            <Node pos="l" depth="3" NCoef="0" IVar="-1" Cut="0.0000000000000000e+00" cType="1" res="-6.3917869701981544e-03" rms="1.9511033594608307e-01" purity="4.4421440362930298e-01" nType="-99"/>
            <Node pos="r" depth="3" NCoef="0" IVar="-1" Cut="0.0000000000000000e+00" cType="1" res="-4.8028532415628433e-02" rms="1.9520863890647888e-01" purity="3.4863471984863281e-01" nType="-99"/>
          </Node>
          <Node pos="r" depth="2" NCoef="0" IVar="7" Cut="9.9175649881362915e-01" cType="1" res="1.3581243110820651e-03" rms="1.8109947443008423e-01" purity="5.4595965147018433e-01" nType="0">
            <Node pos="l" depth="3" NCoef="0" IVar="-1" Cut="0.0000000000000000e+00" cType="1" res="4.7724798787385225e-04" rms="1.8291305005550385e-01" purity="5.8824068307876587e-01" nType="-99"/>
            <Node pos="r" depth="3" NCoef="0" IVar="-1" Cut="0.0000000000000000e+00" cType="1" res="3.2372601330280304e-02" rms="1.6667902469635010e-01" purity="2.3052829504013062e-01" nType="-99"/>
          </Node>
        </Node>
      </Node>
    </BinaryTree>
    <BinaryTree type="DecisionTree" boostWeight="1.0000000000000000e+00" itree="124">
      <Node pos="s" depth="0" NCoef="0" IVar="8" Cut="6.6644120216369629e-01" cType="1" res="-7.4039405444636941e-04" rms="1.8664780259132385e-01" purity="4.8776957392692566e-01" nType="0">
        <Node pos="l" depth="1" NCoef="0" IVar="0" Cut="2.9976337890625000e+03" cType="1" res="-2.8756828978657722e-03" rms="1.8431478738784790e-01" purity="5.2815550565719604e-01" nType="0">
          <Node pos="l" depth="2" NCoef="0" IVar="6" Cut="1.4169004821777344e+02" cType="1" res="-5.4213586263358593e-03" rms="2.1740257740020752e-01" purity="2.8821945190429688e-01" nType="0">
            <Node pos="l" depth="3" NCoef="0" IVar="-1" Cut="0.0000000000000000e+00" cType="1" res="-5.4394523613154888e-03" rms="2.0579598844051361e-01" purity="1.5166004002094269e-01" nType="-99"/>
            <Node pos="r" depth="3" NCoef="0" IVar="-1" Cut="0.0000000000000000e+00" cType="1" res="-2.5346491485834122e-02" rms="2.5177392363548279e-01" purity="7.4032849073410034e-01" nType="-99"/>
          </Node>
          <Node pos="r" depth="2" NCoef="0" IVar="10" Cut="6.6985678672790527e-01" cType="1" res="2.0228591747581959e-03" rms="9.1423884034156799e-02" purity="9.8985493183135986e-01" nType="0">
            <Node pos="l" depth="3" NCoef="0" IVar="-1" Cut="0.0000000000000000e+00" cType="1" res="3.4480500966310501e-02" rms="8.2302749156951904e-02" purity="9.9178290367126465e-01" nType="-99"/>
            <Node pos="r" depth="3" NCoef="0" IVar="-1" Cut="0.0000000000000000e+00" cType="1" res="-2.5575811043381691e-02" rms="1.1736692488193512e-01" purity="9.8322474956512451e-01" nType="-99"/>
          </Node>
        </Node>
        <Node pos="r" depth="1" NCoef="0" IVar="0" Cut="2.0415877685546875e+03" cType="1" res="5.9811803512275219e-03" rms="1.9365490972995758e-01" purity="3.6064049601554871e-01" nType="0">
          <Node pos="l" depth="2" NCoef="0" IVar="1" Cut="6.3705056905746460e-02" cType="1" res="6.3170917565003037e-04" rms="1.4628413319587708e-01" purity="2.5983873754739761e-02" nType="0">
            <Node pos="l" depth="3" NCoef="0" IVar="-1" Cut="0.0000000000000000e+00" cType="1" res="-1.6550336033105850e-02" rms="1.1220148205757141e-01" purity="1.4013495296239853e-02" nType="-99"/>
            <Node pos="r" depth="3" NCoef="0" IVar="-1" Cut="0.0000000000000000e+00" cType="1" res="2.7306813746690750e-02" rms="2.2859783470630646e-01" purity="6.8109713494777679e-02" nType="-99"/>
          </Node>
          <Node pos="r" depth="2" NCoef="0" IVar="4" Cut="2.8557522583007812e+02" cType="1" res="1.3830748386681080e-02" rms="2.4703779816627502e-01" purity="8.5170030593872070e-01" nType="0">
            <Node pos="l" depth="3" NCoef="0" IVar="-1" Cut="0.0000000000000000e+00" cType="1" res="4.2947731912136078e-02" rms="3.4624305367469788e-01" purity="6.7014926671981812e-01" nType="-99"/>
            <Node pos="r" depth="3" NCoef="0" IVar="-1" Cut="0.0000000000000000e+00" cType="1" res="-2.5749567430466413e-04" rms="1.7738883197307587e-01" purity="9.4107472896575928e-01" nType="-99"/>
          </Node>
        </Node>
      </Node>
    </BinaryTree>
    <BinaryTree type="DecisionTree" boostWeight="1.0000000000000000e+00" itree="125">
      <Node pos="s" depth="0" NCoef="0" IVar="9" Cut="-9.3256187438964844e-01" cType="1" res="-2.3280970344785601e-04" rms="1.8729372322559357e-01" purity="5.0067162513732910e-01" nType="0">
        <Node pos="l" depth="1" NCoef="0" IVar="9" Cut="-1.9099453687667847e+00" cType="1" res="8.0769462510943413e-03" rms="2.0422436296939850e-01" purity="3.5917976498603821e-01" nType="0">
          <Node pos="l" depth="2" NCoef="0" IVar="-1" Cut="0.0000000000000000e+00" cType="1" res="-4.5789554715156555e-02" rms="1.8091259896755219e-01" purity="9.1718375682830811e-02" nType="-99"/>
          <Node pos="r" depth="2" NCoef="0" IVar="3" Cut="4.3676522827148438e+02" cType="1" res="1.2431096285581589e-02" rms="2.0814362168312073e-01" purity="4.1081586480140686e-01" nType="0">
            <Node pos="l" depth="3" NCoef="0" IVar="-1" Cut="0.0000000000000000e+00" cType="1" res="4.6138465404510498e-02" rms="2.1632485091686249e-01" purity="2.5093159079551697e-01" nType="-99"/>
            <Node pos="r" depth="3" NCoef="0" IVar="-1" Cut="0.0000000000000000e+00" cType="1" res="-1.6552465036511421e-02" rms="1.8090610206127167e-01" purity="8.7865030765533447e-01" nType="-99"/>
          </Node>
        </Node>
        <Node pos="r" depth="1" NCoef="0" IVar="10" Cut="-9.3278145790100098e-01" cType="1" res="-2.2302279248833656e-03" rms="1.8293446302413940e-01" purity="5.3468203544616699e-01" nType="0">
          <Node pos="l" depth="2" NCoef="0" IVar="11" Cut="9.3333077430725098e-01" cType="1" res="6.7956256680190563e-03" rms="2.0150582492351532e-01" purity="4.5901343226432800e-01" nType="0">
            <Node pos="l" depth="3" NCoef="0" IVar="-1" Cut="0.0000000000000000e+00" cType="1" res="4.4963080435991287e-03" rms="1.9554920494556427e-01" purity="4.6353816986083984e-01" nType="-99"/>
            <Node pos="r" depth="3" NCoef="0" IVar="-1" Cut="0.0000000000000000e+00" cType="1" res="6.0533493757247925e-02" rms="2.2105823457241058e-01" purity="4.4236329197883606e-01" nType="-99"/>
          </Node>
          <Node pos="r" depth="2" NCoef="0" IVar="0" Cut="2.7313923339843750e+03" cType="1" res="-4.4698896817862988e-03" rms="1.7795556783676147e-01" purity="5.5345833301544189e-01" nType="0">
            <Node pos="l" depth="3" NCoef="0" IVar="-1" Cut="0.0000000000000000e+00" cType="1" res="-1.8335286527872086e-02" rms="2.1681372821331024e-01" purity="1.9749115407466888e-01" nType="-99"/>
            <Node pos="r" depth="3" NCoef="0" IVar="-1" Cut="0.0000000000000000e+00" cType="1" res="4.2664464563131332e-03" rms="1.1476944386959076e-01" purity="9.8156547546386719e-01" nType="-99"/>
          </Node>
        </Node>
      </Node>
    </BinaryTree>
    <BinaryTree type="DecisionTree" boostWeight="1.0000000000000000e+00" itree="126">
      <Node pos="s" depth="0" NCoef="0" IVar="7" Cut="2.4246680736541748e-01" cType="1" res="1.3377971481531858e-03" rms="1.8755505979061127e-01" purity="5.0055539608001709e-01" nType="0">
        <Node pos="l" depth="1" NCoef="0" IVar="9" Cut="1.1998623609542847e+00" cType="1" res="-1.5065405750647187e-03" rms="1.9119016826152802e-01" purity="5.3771656751632690e-01" nType="0">
          <Node pos="l" depth="2" NCoef="0" IVar="8" Cut="-6.6405010223388672e-01" cType="1" res="-1.5277800002877484e-06" rms="1.8702635169029236e-01" purity="5.6744873523712158e-01" nType="0">
            <Node pos="l" depth="3" NCoef="0" IVar="-1" Cut="0.0000000000000000e+00" cType="1" res="2.1621393039822578e-02" rms="1.9211438298225403e-01" purity="4.4156032800674438e-01" nType="-99"/>
            <Node pos="r" depth="3" NCoef="0" IVar="-1" Cut="0.0000000000000000e+00" cType="1" res="-7.3129204101860523e-03" rms="1.8536382913589478e-01" purity="6.0627365112304688e-01" nType="-99"/>
          </Node>
          <Node pos="r" depth="2" NCoef="0" IVar="0" Cut="1.8509246826171875e+03" cType="1" res="-1.3053305447101593e-02" rms="2.2019393742084503e-01" purity="3.0960479378700256e-01" nType="0">
            <Node pos="l" depth="3" NCoef="0" IVar="-1" Cut="0.0000000000000000e+00" cType="1" res="2.8770321980118752e-02" rms="1.2265246361494064e-01" purity="1.5545780770480633e-02" nType="-99"/>
            <Node pos="r" depth="3" NCoef="0" IVar="-1" Cut="0.0000000000000000e+00" cType="1" res="-4.6153113245964050e-02" rms="2.9305347800254822e-01" purity="6.4414340257644653e-01" nType="-99"/>
          </Node>
        </Node>
        <Node pos="r" depth="1" NCoef="0" IVar="2" Cut="9.2420867919921875e+02" cType="1" res="5.8461879380047321e-03" rms="1.8155300617218018e-01" purity="4.4165346026420593e-01" nType="0">
          <Node pos="l" depth="2" NCoef="0" IVar="7" Cut="1.0938481092453003e+00" cType="1" res="3.6735874600708485e-03" rms="1.8633389472961426e-01" purity="4.0227401256561279e-01" nType="0">
            <Node pos="l" depth="3" NCoef="0" IVar="-1" Cut="0.0000000000000000e+00" cType="1" res="2.0497435703873634e-02" rms="1.9067423045635223e-01" purity="5.0721418857574463e-01" nType="-99"/>
            <Node pos="r" depth="3" NCoef="0" IVar="-1" Cut="0.0000000000000000e+00" cType="1" res="-1.8405776470899582e-02" rms="1.7511270940303802e-01" purity="1.4953553676605225e-01" nType="-99"/>
          </Node>
          <Node pos="r" depth="2" NCoef="0" IVar="-1" Cut="0.0000000000000000e+00" cType="1" res="8.3762846887111664e-02" rms="1.0421593487262726e-01" purity="9.1962349414825439e-01" nType="-99"/>
        </Node>
      </Node>
    </BinaryTree>
    <BinaryTree type="DecisionTree" boostWeight="1.0000000000000000e+00" itree="127">
      <Node pos="s" depth="0" NCoef="0" IVar="10" Cut="-1.1998400688171387e+00" cType="1" res="-8.2019966794177890e-04" rms="1.8856802582740784e-01" purity="4.9671256542205811e-01" nType="0">
        <Node pos="l" depth="1" NCoef="0" IVar="11" Cut="1.3567426800727844e-01" cType="1" res="-1.0531774722039700e-02" rms="2.0309951901435852e-01" purity="3.4481739997863770e-01" nType="0">
          <Node pos="l" depth="2" NCoef="0" IVar="2" Cut="5.1021987915039062e+02" cType="1" res="-1.0421407641842961e-03" rms="1.9316546618938446e-01" purity="3.5106638073921204e-01" nType="0">
            <Node pos="l" depth="3" NCoef="0" IVar="-1" Cut="0.0000000000000000e+00" cType="1" res="-2.3546576499938965e-02" rms="1.7653761804103851e-01" purity="1.2691599130630493e-01" nType="-99"/>
            <Node pos="r" depth="3" NCoef="0" IVar="-1" Cut="0.0000000000000000e+00" cType="1" res="1.5075677074491978e-02" rms="2.0776091516017914e-01" purity="5.6810903549194336e-01" nType="-99"/>
          </Node>
          <Node pos="r" depth="2" NCoef="0" IVar="0" Cut="1.8664187011718750e+03" cType="1" res="-2.3288501426577568e-02" rms="2.1507535874843597e-01" purity="3.3641701936721802e-01" nType="0">
            <Node pos="l" depth="3" NCoef="0" IVar="-1" Cut="0.0000000000000000e+00" cType="1" res="-1.1261067353188992e-02" rms="1.3487325608730316e-01" purity="1.8601115792989731e-02" nType="-99"/>
            <Node pos="r" depth="3" NCoef="0" IVar="-1" Cut="0.0000000000000000e+00" cType="1" res="-5.7053245604038239e-02" rms="2.7341499924659729e-01" purity="6.7001718282699585e-01" nType="-99"/>
          </Node>
        </Node>
        <Node pos="r" depth="1" NCoef="0" IVar="10" Cut="1.6554644107818604e+00" cType="1" res="8.8785169646143913e-04" rms="1.8584236502647400e-01" purity="5.2342760562896729e-01" nType="0">
          <Node pos="l" depth="2" NCoef="0" IVar="7" Cut="-5.5681818723678589e-01" cType="1" res="-6.7433247750159353e-06" rms="1.8134588003158569e-01" purity="5.4507273435592651e-01" nType="0">
            <Node pos="l" depth="3" NCoef="0" IVar="-1" Cut="0.0000000000000000e+00" cType="1" res="-1.5693865716457367e-02" rms="1.7927241325378418e-01" purity="3.8764414191246033e-01" nType="-99"/>
            <Node pos="r" depth="3" NCoef="0" IVar="-1" Cut="0.0000000000000000e+00" cType="1" res="5.3537734784185886e-03" rms="1.8197317421436310e-01" purity="5.9561479091644287e-01" nType="-99"/>
          </Node>
          <Node pos="r" depth="2" NCoef="0" IVar="1" Cut="4.7215700149536133e-02" cType="1" res="1.1088860221207142e-02" rms="2.3076191544532776e-01" purity="2.7660906314849854e-01" nType="0">
            <Node pos="l" depth="3" NCoef="0" IVar="-1" Cut="0.0000000000000000e+00" cType="1" res="6.1467032879590988e-02" rms="2.1053597331047058e-01" purity="1.3355034589767456e-01" nType="-99"/>
            <Node pos="r" depth="3" NCoef="0" IVar="-1" Cut="0.0000000000000000e+00" cType="1" res="-9.0889921411871910e-03" rms="2.5406458973884583e-01" purity="4.6456706523895264e-01" nType="-99"/>
          </Node>
        </Node>
      </Node>
    </BinaryTree>
    <BinaryTree type="DecisionTree" boostWeight="1.0000000000000000e+00" itree="128">
      <Node pos="s" depth="0" NCoef="0" IVar="2" Cut="5.6537268066406250e+02" cType="1" res="-1.2236167676746845e-03" rms="1.8891315162181854e-01" purity="4.9740600585937500e-01" nType="0">
        <Node pos="l" depth="1" NCoef="0" IVar="7" Cut="-5.6111752986907959e-01" cType="1" res="1.7348099499940872e-03" rms="1.9752378761768341e-01" purity="2.6022082567214966e-01" nType="0">
          <Node pos="l" depth="2" NCoef="0" IVar="0" Cut="1.7967730712890625e+03" cType="1" res="7.8078345395624638e-03" rms="1.9290587306022644e-01" purity="2.1614830195903778e-01" nType="0">
            <Node pos="l" depth="3" NCoef="0" IVar="-1" Cut="0.0000000000000000e+00" cType="1" res="1.9003162160515785e-03" rms="1.0237427800893784e-01" purity="1.1067558079957962e-02" nType="-99"/>
            <Node pos="r" depth="3" NCoef="0" IVar="-1" Cut="0.0000000000000000e+00" cType="1" res="2.7239456772804260e-02" rms="3.0427005887031555e-01" purity="6.4376848936080933e-01" nType="-99"/>
          </Node>
          <Node pos="r" depth="2" NCoef="0" IVar="7" Cut="7.1804296970367432e-01" cType="1" res="-8.0787070328369737e-04" rms="1.9937054812908173e-01" purity="2.7867326140403748e-01" nType="0">
            <Node pos="l" depth="3" NCoef="0" IVar="-1" Cut="0.0000000000000000e+00" cType="1" res="-1.2774848379194736e-02" rms="2.1088542044162750e-01" purity="3.3857125043869019e-01" nType="-99"/>
            <Node pos="r" depth="3" NCoef="0" IVar="-1" Cut="0.0000000000000000e+00" cType="1" res="2.3770714178681374e-02" rms="1.7628487944602966e-01" purity="1.7002196609973907e-01" nType="-99"/>
          </Node>
        </Node>
        <Node pos="r" depth="1" NCoef="0" IVar="5" Cut="2.2109574890136719e+02" cType="1" res="-4.2760143987834454e-03" rms="1.7954574525356293e-01" purity="7.4212509393692017e-01" nType="0">
          <Node pos="l" depth="2" NCoef="0" IVar="5" Cut="1.3206356811523438e+02" cType="1" res="-9.7817033529281616e-03" rms="2.3367570340633392e-01" purity="4.7378164529800415e-01" nType="0">
            <Node pos="l" depth="3" NCoef="0" IVar="-1" Cut="0.0000000000000000e+00" cType="1" res="5.0646378658711910e-03" rms="2.0605164766311646e-01" purity="1.5589059889316559e-01" nType="-99"/>
            <Node pos="r" depth="3" NCoef="0" IVar="-1" Cut="0.0000000000000000e+00" cType="1" res="-3.2518718391656876e-02" rms="2.5168764591217041e-01" purity="7.0752811431884766e-01" nType="-99"/>
          </Node>
          <Node pos="r" depth="2" NCoef="0" IVar="0" Cut="3.0871550292968750e+03" cType="1" res="5.9026980306953192e-04" rms="1.1142807453870773e-01" purity="9.7930437326431274e-01" nType="0">
            <Node pos="l" depth="3" NCoef="0" IVar="-1" Cut="0.0000000000000000e+00" cType="1" res="-1.2850962579250336e-02" rms="2.1275316178798676e-01" purity="9.1641700267791748e-01" nType="-99"/>
            <Node pos="r" depth="3" NCoef="0" IVar="-1" Cut="0.0000000000000000e+00" cType="1" res="3.9223048835992813e-02" rms="5.8956995606422424e-02" purity="9.9639666080474854e-01" nType="-99"/>
          </Node>
        </Node>
      </Node>
    </BinaryTree>
    <BinaryTree type="DecisionTree" boostWeight="1.0000000000000000e+00" itree="129">
      <Node pos="s" depth="0" NCoef="0" IVar="7" Cut="-1.1415117979049683e+00" cType="1" res="1.7360276542603970e-03" rms="1.8860705196857452e-01" purity="5.0033932924270630e-01" nType="0">
        <Node pos="l" depth="1" NCoef="0" IVar="2" Cut="5.1067681884765625e+02" cType="1" res="-6.5077380277216434e-03" rms="1.7584821581840515e-01" purity="1.4833174645900726e-01" nType="0">
          <Node pos="l" depth="2" NCoef="0" IVar="10" Cut="-3.9903315901756287e-01" cType="1" res="3.2807774841785431e-03" rms="1.5871489048004150e-01" purity="9.7024627029895782e-02" nType="0">
            <Node pos="l" depth="3" NCoef="0" IVar="-1" Cut="0.0000000000000000e+00" cType="1" res="-3.0709875747561455e-02" rms="1.5030655264854431e-01" purity="8.5414424538612366e-02" nType="-99"/>
            <Node pos="r" depth="3" NCoef="0" IVar="-1" Cut="0.0000000000000000e+00" cType="1" res="4.7801584005355835e-02" rms="1.6399163007736206e-01" purity="1.0534008592367172e-01" nType="-99"/>
          </Node>
          <Node pos="r" depth="2" NCoef="0" IVar="-1" Cut="0.0000000000000000e+00" cType="1" res="-6.6019028425216675e-02" rms="2.0185728371143341e-01" purity="2.4057556688785553e-01" nType="-99"/>
        </Node>
        <Node pos="r" depth="1" NCoef="0" IVar="6" Cut="8.1236396789550781e+01" cType="1" res="2.6285988278687000e-03" rms="1.8991559743881226e-01" purity="5.3845196962356567e-01" nType="0">
          <Node pos="l" depth="2" NCoef="0" IVar="7" Cut="-2.0625907182693481e-01" cType="1" res="-2.6903070975095034e-03" rms="1.7019890248775482e-01" purity="8.7743476033210754e-02" nType="0">
            <Node pos="l" depth="3" NCoef="0" IVar="-1" Cut="0.0000000000000000e+00" cType="1" res="2.5177160277962685e-02" rms="1.8381415307521820e-01" purity="1.0357428342103958e-01" nType="-99"/>
            <Node pos="r" depth="3" NCoef="0" IVar="-1" Cut="0.0000000000000000e+00" cType="1" res="-2.7303706854581833e-02" rms="1.6340176761150360e-01" purity="8.0536410212516785e-02" nType="-99"/>
          </Node>
          <Node pos="r" depth="2" NCoef="0" IVar="10" Cut="-9.3282699584960938e-01" cType="1" res="4.0314588695764542e-03" rms="1.9475933909416199e-01" purity="6.5732628107070923e-01" nType="0">
            <Node pos="l" depth="3" NCoef="0" IVar="-1" Cut="0.0000000000000000e+00" cType="1" res="2.5923898443579674e-02" rms="2.1182481944561005e-01" purity="5.8769261837005615e-01" nType="-99"/>
            <Node pos="r" depth="3" NCoef="0" IVar="-1" Cut="0.0000000000000000e+00" cType="1" res="6.3727409578859806e-03" rms="1.9047878682613373e-01" purity="6.7371135950088501e-01" nType="-99"/>
          </Node>
        </Node>
      </Node>
    </BinaryTree>
    <BinaryTree type="DecisionTree" boostWeight="1.0000000000000000e+00" itree="130">
      <Node pos="s" depth="0" NCoef="0" IVar="1" Cut="1.0837937891483307e-01" cType="1" res="8.7106158025562763e-04" rms="1.8911528587341309e-01" purity="4.9624603986740112e-01" nType="0">
        <Node pos="l" depth="1" NCoef="0" IVar="4" Cut="4.1456539916992188e+02" cType="1" res="2.8959338087588549e-03" rms="1.9937844574451447e-01" purity="3.5619917511940002e-01" nType="0">
          <Node pos="l" depth="2" NCoef="0" IVar="3" Cut="2.3945591735839844e+02" cType="1" res="4.2378283105790615e-03" rms="2.0521733164787292e-01" purity="2.7720183134078979e-01" nType="0">
            <Node pos="l" depth="3" NCoef="0" IVar="-1" Cut="0.0000000000000000e+00" cType="1" res="-1.0386960580945015e-02" rms="1.3002909719944000e-01" purity="3.0043145641684532e-02" nType="-99"/>
            <Node pos="r" depth="3" NCoef="0" IVar="-1" Cut="0.0000000000000000e+00" cType="1" res="1.3939348049461842e-02" rms="2.3102888464927673e-01" purity="3.8784399628639221e-01" nType="-99"/>
          </Node>
          <Node pos="r" depth="2" NCoef="0" IVar="-1" Cut="0.0000000000000000e+00" cType="1" res="-4.3745797127485275e-02" rms="1.4630404114723206e-01" purity="9.6566295623779297e-01" nType="-99"/>
        </Node>
        <Node pos="r" depth="1" NCoef="0" IVar="0" Cut="2.3060200195312500e+03" cType="1" res="-3.7735744845122099e-03" rms="1.6305787861347198e-01" purity="8.1748443841934204e-01" nType="0">
          <Node pos="l" depth="2" NCoef="0" IVar="0" Cut="1.8316694335937500e+03" cType="1" res="-2.2132137790322304e-02" rms="2.8406763076782227e-01" purity="2.1246023476123810e-01" nType="0">
            <Node pos="l" depth="3" NCoef="0" IVar="-1" Cut="0.0000000000000000e+00" cType="1" res="1.6090663149952888e-02" rms="1.8718230724334717e-01" purity="3.9165556430816650e-02" nType="-99"/>
            <Node pos="r" depth="3" NCoef="0" IVar="-1" Cut="0.0000000000000000e+00" cType="1" res="-4.0339343249797821e-02" rms="3.8734108209609985e-01" purity="4.8698896169662476e-01" nType="-99"/>
          </Node>
          <Node pos="r" depth="2" NCoef="0" IVar="11" Cut="9.3051719665527344e-01" cType="1" res="1.3593012699857354e-03" rms="1.0648770630359650e-01" purity="9.8664325475692749e-01" nType="0">
            <Node pos="l" depth="3" NCoef="0" IVar="-1" Cut="0.0000000000000000e+00" cType="1" res="2.1327231079339981e-02" rms="1.0191136598587036e-01" purity="9.8828190565109253e-01" nType="-99"/>
            <Node pos="r" depth="3" NCoef="0" IVar="-1" Cut="0.0000000000000000e+00" cType="1" res="-2.2470589727163315e-02" rms="1.2155818939208984e-01" purity="9.8069471120834351e-01" nType="-99"/>
          </Node>
        </Node>
      </Node>
    </BinaryTree>
    <BinaryTree type="DecisionTree" boostWeight="1.0000000000000000e+00" itree="131">
      <Node pos="s" depth="0" NCoef="0" IVar="7" Cut="-3.5449746251106262e-01" cType="1" res="-1.0137715144082904e-03" rms="1.8650425970554352e-01" purity="5.0654143095016479e-01" nType="0">
        <Node pos="l" depth="1" NCoef="0" IVar="10" Cut="-1.4636782407760620e+00" cType="1" res="-6.0890917666256428e-03" rms="1.9309383630752563e-01" purity="4.2326286435127258e-01" nType="0">
          <Node pos="l" depth="2" NCoef="0" IVar="-1" Cut="0.0000000000000000e+00" cType="1" res="2.5149842724204063e-02" rms="2.0644560456275940e-01" purity="2.6863774657249451e-01" nType="-99"/>
          <Node pos="r" depth="2" NCoef="0" IVar="9" Cut="9.3085283041000366e-01" cType="1" res="-8.1869196146726608e-03" rms="1.9120350480079651e-01" purity="4.4320273399353027e-01" nType="0">
            <Node pos="l" depth="3" NCoef="0" IVar="-1" Cut="0.0000000000000000e+00" cType="1" res="-1.4825670979917049e-02" rms="1.9059877097606659e-01" purity="4.8337590694427490e-01" nType="-99"/>
            <Node pos="r" depth="3" NCoef="0" IVar="-1" Cut="0.0000000000000000e+00" cType="1" res="-5.9216048568487167e-02" rms="1.9336357712745667e-01" purity="2.6055452227592468e-01" nType="-99"/>
          </Node>
        </Node>
        <Node pos="r" depth="1" NCoef="0" IVar="2" Cut="4.2106182861328125e+02" cType="1" res="1.4327601529657841e-03" rms="1.8319293856620789e-01" purity="5.4668539762496948e-01" nType="0">
          <Node pos="l" depth="2" NCoef="0" IVar="11" Cut="1.3267405331134796e-01" cType="1" res="-4.1765822097659111e-03" rms="1.7848341166973114e-01" purity="1.1547510325908661e-01" nType="0">
            <Node pos="l" depth="3" NCoef="0" IVar="-1" Cut="0.0000000000000000e+00" cType="1" res="-2.9915789142251015e-02" rms="1.7875212430953979e-01" purity="1.1284730583429337e-01" nType="-99"/>
            <Node pos="r" depth="3" NCoef="0" IVar="-1" Cut="0.0000000000000000e+00" cType="1" res="6.4817210659384727e-03" rms="1.7800238728523254e-01" purity="1.1805613338947296e-01" nType="-99"/>
          </Node>
          <Node pos="r" depth="2" NCoef="0" IVar="3" Cut="2.4440184020996094e+02" cType="1" res="2.9517570510506630e-03" rms="1.8441823124885559e-01" purity="6.6345620155334473e-01" nType="0">
            <Node pos="l" depth="3" NCoef="0" IVar="-1" Cut="0.0000000000000000e+00" cType="1" res="-2.3633746430277824e-02" rms="1.4872772991657257e-01" purity="5.4269675165414810e-02" nType="-99"/>
            <Node pos="r" depth="3" NCoef="0" IVar="-1" Cut="0.0000000000000000e+00" cType="1" res="1.2403851374983788e-02" rms="1.8985351920127869e-01" purity="7.6849699020385742e-01" nType="-99"/>
          </Node>
        </Node>
      </Node>
    </BinaryTree>
    <BinaryTree type="DecisionTree" boostWeight="1.0000000000000000e+00" itree="132">
      <Node pos="s" depth="0" NCoef="0" IVar="9" Cut="9.3260544538497925e-01" cType="1" res="-3.3771313610486686e-04" rms="1.8428120017051697e-01" purity="5.0338566303253174e-01" nType="0">
        <Node pos="l" depth="1" NCoef="0" IVar="9" Cut="-1.9111461639404297e+00" cType="1" res="-1.7215642146766186e-03" rms="1.8085606396198273e-01" purity="5.3104001283645630e-01" nType="0">
          <Node pos="l" depth="2" NCoef="0" IVar="-1" Cut="0.0000000000000000e+00" cType="1" res="-6.5061710774898529e-02" rms="1.6158115863800049e-01" purity="7.8492291271686554e-02" nType="-99"/>
          <Node pos="r" depth="2" NCoef="0" IVar="8" Cut="1.1990807056427002e+00" cType="1" res="-1.0787384817376733e-03" rms="1.8157452344894409e-01" purity="5.4961204528808594e-01" nType="0">
            <Node pos="l" depth="3" NCoef="0" IVar="-1" Cut="0.0000000000000000e+00" cType="1" res="-3.5788296372629702e-04" rms="1.8176874518394470e-01" purity="5.8510971069335938e-01" nType="-99"/>
            <Node pos="r" depth="3" NCoef="0" IVar="-1" Cut="0.0000000000000000e+00" cType="1" res="-3.0065979808568954e-02" rms="1.7944361269474030e-01" purity="2.0952251553535461e-01" nType="-99"/>
          </Node>
        </Node>
        <Node pos="r" depth="1" NCoef="0" IVar="4" Cut="2.7292916870117188e+02" cType="1" res="5.9087448753416538e-03" rms="1.9888968765735626e-01" purity="3.7855878472328186e-01" nType="0">
          <Node pos="l" depth="2" NCoef="0" IVar="0" Cut="1.8456754150390625e+03" cType="1" res="1.1610459536314011e-02" rms="1.9889968633651733e-01" purity="1.8922129273414612e-01" nType="0">
            <Node pos="l" depth="3" NCoef="0" IVar="-1" Cut="0.0000000000000000e+00" cType="1" res="-8.5679218173027039e-03" rms="1.0623476654291153e-01" purity="1.1945286765694618e-02" nType="-99"/>
            <Node pos="r" depth="3" NCoef="0" IVar="-1" Cut="0.0000000000000000e+00" cType="1" res="4.2658913880586624e-02" rms="3.1575962901115417e-01" purity="5.7318156957626343e-01" nType="-99"/>
          </Node>
          <Node pos="r" depth="2" NCoef="0" IVar="-1" Cut="0.0000000000000000e+00" cType="1" res="-2.5201242417097092e-02" rms="1.9807158410549164e-01" purity="8.8010293245315552e-01" nType="-99"/>
        </Node>
      </Node>
    </BinaryTree>
    <BinaryTree type="DecisionTree" boostWeight="1.0000000000000000e+00" itree="133">
      <Node pos="s" depth="0" NCoef="0" IVar="2" Cut="3.1370303344726562e+02" cType="1" res="1.4796553296037018e-04" rms="1.8700535595417023e-01" purity="5.0020283460617065e-01" nType="0">
        <Node pos="l" depth="1" NCoef="0" IVar="0" Cut="1.5382758789062500e+03" cType="1" res="1.3449757359921932e-02" rms="1.6935935616493225e-01" purity="5.0276461988687515e-02" nType="0">
          <Node pos="l" depth="2" NCoef="0" IVar="-1" Cut="0.0000000000000000e+00" cType="1" res="-2.6743680238723755e-02" rms="7.4953079223632812e-02" purity="5.6439875625073910e-03" nType="-99"/>
          <Node pos="r" depth="2" NCoef="0" IVar="-1" Cut="0.0000000000000000e+00" cType="1" res="9.3459084630012512e-02" rms="2.5876769423484802e-01" purity="1.2649260461330414e-01" nType="-99"/>
        </Node>
        <Node pos="r" depth="1" NCoef="0" IVar="6" Cut="1.3146389770507812e+02" cType="1" res="-9.4477745005860925e-04" rms="1.8833975493907928e-01" purity="5.3716427087783813e-01" nType="0">
          <Node pos="l" depth="2" NCoef="0" IVar="1" Cut="6.4997516572475433e-02" cType="1" res="2.7167340740561485e-03" rms="2.0359565317630768e-01" purity="2.2946272790431976e-01" nType="0">
            <Node pos="l" depth="3" NCoef="0" IVar="-1" Cut="0.0000000000000000e+00" cType="1" res="-1.3221077388152480e-03" rms="1.8585596978664398e-01" purity="1.2667895853519440e-01" nType="-99"/>
            <Node pos="r" depth="3" NCoef="0" IVar="-1" Cut="0.0000000000000000e+00" cType="1" res="1.6930215060710907e-02" rms="2.3903739452362061e-01" purity="4.6396270394325256e-01" nType="-99"/>
          </Node>
          <Node pos="r" depth="2" NCoef="0" IVar="0" Cut="2.3317431640625000e+03" cType="1" res="-5.1549314521253109e-03" rms="1.6900727152824402e-01" purity="8.9097207784652710e-01" nType="0">
            <Node pos="l" depth="3" NCoef="0" IVar="-1" Cut="0.0000000000000000e+00" cType="1" res="-2.9521599411964417e-02" rms="3.2704982161521912e-01" purity="2.9776924848556519e-01" nType="-99"/>
            <Node pos="r" depth="3" NCoef="0" IVar="-1" Cut="0.0000000000000000e+00" cType="1" res="-3.4989113919436932e-03" rms="1.3033924996852875e-01" purity="9.7731542587280273e-01" nType="-99"/>
          </Node>
        </Node>
      </Node>
    </BinaryTree>
    <BinaryTree type="DecisionTree" boostWeight="1.0000000000000000e+00" itree="134">
      <Node pos="s" depth="0" NCoef="0" IVar="10" Cut="1.9996237754821777e+00" cType="1" res="-1.7333845607936382e-03" rms="1.8662647902965546e-01" purity="5.0595980882644653e-01" nType="0">
        <Node pos="l" depth="1" NCoef="0" IVar="9" Cut="1.4659277200698853e+00" cType="1" res="-1.1417239438742399e-03" rms="1.8615145981311798e-01" purity="5.1905572414398193e-01" nType="0">
          <Node pos="l" depth="2" NCoef="0" IVar="1" Cut="1.6106681525707245e-01" cType="1" res="-1.8528429791331291e-03" rms="1.8323925137519836e-01" purity="5.4035103321075439e-01" nType="0">
            <Node pos="l" depth="3" NCoef="0" IVar="-1" Cut="0.0000000000000000e+00" cType="1" res="-8.3529865369200706e-03" rms="1.9043417274951935e-01" purity="4.6677953004837036e-01" nType="-99"/>
            <Node pos="r" depth="3" NCoef="0" IVar="-1" Cut="0.0000000000000000e+00" cType="1" res="1.7981274053454399e-02" rms="1.4397774636745453e-01" purity="8.9085370302200317e-01" nType="-99"/>
          </Node>
          <Node pos="r" depth="2" NCoef="0" IVar="1" Cut="3.5837337374687195e-02" cType="1" res="7.9368855804204941e-03" rms="2.1976611018180847e-01" purity="2.4718602001667023e-01" nType="0">
            <Node pos="l" depth="3" NCoef="0" IVar="-1" Cut="0.0000000000000000e+00" cType="1" res="-2.6793532073497772e-02" rms="1.7699225246906281e-01" purity="7.3675185441970825e-02" nType="-99"/>
            <Node pos="r" depth="3" NCoef="0" IVar="-1" Cut="0.0000000000000000e+00" cType="1" res="4.8718001693487167e-02" rms="2.5282624363899231e-01" purity="4.1193640232086182e-01" nType="-99"/>
          </Node>
        </Node>
        <Node pos="r" depth="1" NCoef="0" IVar="-1" Cut="0.0000000000000000e+00" cType="1" res="-3.8625653833150864e-02" rms="1.9799807667732239e-01" purity="1.6418413817882538e-01" nType="-99"/>
      </Node>
    </BinaryTree>
    <BinaryTree type="DecisionTree" boostWeight="1.0000000000000000e+00" itree="135">
      <Node pos="s" depth="0" NCoef="0" IVar="9" Cut="-1.1997766494750977e+00" cType="1" res="2.1275226026773453e-03" rms="1.8780072033405304e-01" purity="5.0461697578430176e-01" nType="0">
        <Node pos="l" depth="1" NCoef="0" IVar="4" Cut="2.4440066528320312e+02" cType="1" res="-5.8668130077421665e-03" rms="2.0176602900028229e-01" purity="2.8716495633125305e-01" nType="0">
          <Node pos="l" depth="2" NCoef="0" IVar="9" Cut="-1.5046637058258057e+00" cType="1" res="1.9962647929787636e-03" rms="1.7724423110485077e-01" purity="1.0840110480785370e-01" nType="0">
            <Node pos="l" depth="3" NCoef="0" IVar="-1" Cut="0.0000000000000000e+00" cType="1" res="3.4591268748044968e-02" rms="1.7394852638244629e-01" purity="9.8102048039436340e-02" nType="-99"/>
            <Node pos="r" depth="3" NCoef="0" IVar="-1" Cut="0.0000000000000000e+00" cType="1" res="-3.4728381782770157e-02" rms="1.8353223800659180e-01" purity="1.3219763338565826e-01" nType="-99"/>
          </Node>
          <Node pos="r" depth="2" NCoef="0" IVar="-1" Cut="0.0000000000000000e+00" cType="1" res="-4.7438517212867737e-02" rms="2.4817776679992676e-01" purity="6.9783657789230347e-01" nType="-99"/>
        </Node>
        <Node pos="r" depth="1" NCoef="0" IVar="2" Cut="8.0880041503906250e+02" cType="1" res="3.2498028595000505e-03" rms="1.8572865426540375e-01" purity="5.3514385223388672e-01" nType="0">
          <Node pos="l" depth="2" NCoef="0" IVar="0" Cut="1.5837050781250000e+03" cType="1" res="4.7065885737538338e-03" rms="1.8814291059970856e-01" purity="4.5500454306602478e-01" nType="0">
            <Node pos="l" depth="3" NCoef="0" IVar="-1" Cut="0.0000000000000000e+00" cType="1" res="-3.0263602733612061e-02" rms="6.4828582108020782e-02" purity="4.2306333780288696e-03" nType="-99"/>
            <Node pos="r" depth="3" NCoef="0" IVar="-1" Cut="0.0000000000000000e+00" cType="1" res="1.5088193118572235e-02" rms="2.1233020722866058e-01" purity="5.9522467851638794e-01" nType="-99"/>
          </Node>
          <Node pos="r" depth="2" NCoef="0" IVar="11" Cut="9.3266534805297852e-01" cType="1" res="-3.3886171877384186e-03" rms="1.7415001988410950e-01" purity="9.0033024549484253e-01" nType="0">
            <Node pos="l" depth="3" NCoef="0" IVar="-1" Cut="0.0000000000000000e+00" cType="1" res="7.3593459092080593e-04" rms="1.6978360712528229e-01" purity="9.1233927011489868e-01" nType="-99"/>
            <Node pos="r" depth="3" NCoef="0" IVar="-1" Cut="0.0000000000000000e+00" cType="1" res="-5.1462702453136444e-02" rms="1.8996885418891907e-01" purity="8.5220164060592651e-01" nType="-99"/>
          </Node>
        </Node>
      </Node>
    </BinaryTree>
    <BinaryTree type="DecisionTree" boostWeight="1.0000000000000000e+00" itree="136">
      <Node pos="s" depth="0" NCoef="0" IVar="10" Cut="6.6673696041107178e-01" cType="1" res="-3.2413349254056811e-04" rms="1.8495921790599823e-01" purity="4.8734897375106812e-01" nType="0">
        <Node pos="l" depth="1" NCoef="0" IVar="9" Cut="-1.4667590856552124e+00" cType="1" res="1.3011159608140588e-03" rms="1.8160764873027802e-01" purity="5.0761419534683228e-01" nType="0">
          <Node pos="l" depth="2" NCoef="0" IVar="5" Cut="1.1811254119873047e+02" cType="1" res="-8.0797141417860985e-03" rms="1.7907825112342834e-01" purity="2.0277801156044006e-01" nType="0">
            <Node pos="l" depth="3" NCoef="0" IVar="-1" Cut="0.0000000000000000e+00" cType="1" res="1.7766356468200684e-02" rms="1.2162972241640091e-01" purity="2.9584383592009544e-02" nType="-99"/>
            <Node pos="r" depth="3" NCoef="0" IVar="-1" Cut="0.0000000000000000e+00" cType="1" res="-3.4783948212862015e-02" rms="2.1277169883251190e-01" purity="3.3681195974349976e-01" nType="-99"/>
          </Node>
          <Node pos="r" depth="2" NCoef="0" IVar="9" Cut="1.1739565134048462e+00" cType="1" res="2.1423923317342997e-03" rms="1.8180912733078003e-01" purity="5.3495204448699951e-01" nType="0">
            <Node pos="l" depth="3" NCoef="0" IVar="-1" Cut="0.0000000000000000e+00" cType="1" res="3.0652305576950312e-03" rms="1.7638003826141357e-01" purity="5.6552273035049438e-01" nType="-99"/>
            <Node pos="r" depth="3" NCoef="0" IVar="-1" Cut="0.0000000000000000e+00" cType="1" res="2.7580082416534424e-02" rms="2.1594358980655670e-01" purity="3.2036745548248291e-01" nType="-99"/>
          </Node>
        </Node>
        <Node pos="r" depth="1" NCoef="0" IVar="0" Cut="2.1396013183593750e+03" cType="1" res="-4.5684566721320152e-03" rms="1.9337375462055206e-01" purity="4.3442654609680176e-01" nType="0">
          <Node pos="l" depth="2" NCoef="0" IVar="9" Cut="-1.3156673312187195e-01" cType="1" res="-9.6790149109438062e-04" rms="1.7036522924900055e-01" purity="4.2606785893440247e-02" nType="0">
            <Node pos="l" depth="3" NCoef="0" IVar="-1" Cut="0.0000000000000000e+00" cType="1" res="2.6166662573814392e-02" rms="1.8696464598178864e-01" purity="5.1979683339595795e-02" nType="-99"/>
            <Node pos="r" depth="3" NCoef="0" IVar="-1" Cut="0.0000000000000000e+00" cType="1" res="-2.6814237236976624e-02" rms="1.5523205697536469e-01" purity="3.5014688968658447e-02" nType="-99"/>
          </Node>
          <Node pos="r" depth="2" NCoef="0" IVar="6" Cut="1.4313175964355469e+02" cType="1" res="-8.6554223671555519e-03" rms="2.1647563576698303e-01" purity="8.7917846441268921e-01" nType="0">
            <Node pos="l" depth="3" NCoef="0" IVar="-1" Cut="0.0000000000000000e+00" cType="1" res="-2.6863479986786842e-02" rms="3.1316974759101868e-01" purity="7.5661420822143555e-01" nType="-99"/>
            <Node pos="r" depth="3" NCoef="0" IVar="-1" Cut="0.0000000000000000e+00" cType="1" res="-6.4758290536701679e-03" rms="1.4202497899532318e-01" purity="9.4268232583999634e-01" nType="-99"/>
          </Node>
        </Node>
      </Node>
    </BinaryTree>
    <BinaryTree type="DecisionTree" boostWeight="1.0000000000000000e+00" itree="137">
      <Node pos="s" depth="0" NCoef="0" IVar="3" Cut="6.5577160644531250e+02" cType="1" res="6.6963740391656756e-04" rms="1.8831826746463776e-01" purity="4.9975347518920898e-01" nType="0">
        <Node pos="l" depth="1" NCoef="0" IVar="7" Cut="-4.4558502733707428e-02" cType="1" res="1.7423856770619750e-03" rms="1.9172087311744690e-01" purity="4.6142694354057312e-01" nType="0">
          <Node pos="l" depth="2" NCoef="0" IVar="5" Cut="1.0510655975341797e+02" cType="1" res="5.5993255227804184e-03" rms="1.9355779886245728e-01" purity="4.5182812213897705e-01" nType="0">
            <Node pos="l" depth="3" NCoef="0" IVar="-1" Cut="0.0000000000000000e+00" cType="1" res="-3.1299266964197159e-02" rms="1.1126615107059479e-01" purity="2.1606612950563431e-02" nType="-99"/>
            <Node pos="r" depth="3" NCoef="0" IVar="-1" Cut="0.0000000000000000e+00" cType="1" res="1.9584223628044128e-02" rms="2.0857141911983490e-01" purity="5.5596989393234253e-01" nType="-99"/>
          </Node>
          <Node pos="r" depth="2" NCoef="0" IVar="8" Cut="-1.1987578868865967e+00" cType="1" res="-1.8147290684282780e-03" rms="1.8994158506393433e-01" purity="4.7027957439422607e-01" nType="0">
            <Node pos="l" depth="3" NCoef="0" IVar="-1" Cut="0.0000000000000000e+00" cType="1" res="-4.8082705587148666e-02" rms="1.7639172077178955e-01" purity="1.3541223108768463e-01" nType="-99"/>
            <Node pos="r" depth="3" NCoef="0" IVar="-1" Cut="0.0000000000000000e+00" cType="1" res="-8.1160297850146890e-04" rms="1.9148464500904083e-01" purity="5.1140862703323364e-01" nType="-99"/>
          </Node>
        </Node>
        <Node pos="r" depth="1" NCoef="0" IVar="-1" Cut="0.0000000000000000e+00" cType="1" res="-5.0691604614257812e-02" rms="1.4292019605636597e-01" purity="9.4054406881332397e-01" nType="-99"/>
      </Node>
    </BinaryTree>
    <BinaryTree type="DecisionTree" boostWeight="1.0000000000000000e+00" itree="138">
      <Node pos="s" depth="0" NCoef="0" IVar="9" Cut="9.3287640810012817e-01" cType="1" res="-2.5943890796042979e-04" rms="1.8465283513069153e-01" purity="4.9912980198860168e-01" nType="0">
        <Node pos="l" depth="1" NCoef="0" IVar="10" Cut="-1.4659709930419922e+00" cType="1" res="1.3492818688973784e-03" rms="1.8269728124141693e-01" purity="5.3067898750305176e-01" nType="0">
          <Node pos="l" depth="2" NCoef="0" IVar="0" Cut="2.3322419433593750e+03" cType="1" res="-8.0605652183294296e-03" rms="2.1392770111560822e-01" purity="3.3971756696701050e-01" nType="0">
            <Node pos="l" depth="3" NCoef="0" IVar="-1" Cut="0.0000000000000000e+00" cType="1" res="-7.4229831807315350e-04" rms="1.9780009984970093e-01" purity="7.2920903563499451e-02" nType="-99"/>
            <Node pos="r" depth="3" NCoef="0" IVar="-1" Cut="0.0000000000000000e+00" cType="1" res="-4.6079706400632858e-02" rms="2.4228143692016602e-01" purity="8.7408530712127686e-01" nType="-99"/>
          </Node>
          <Node pos="r" depth="2" NCoef="0" IVar="8" Cut="1.4670789241790771e+00" cType="1" res="2.3987926542758942e-03" rms="1.7884568870067596e-01" purity="5.5197751522064209e-01" nType="0">
            <Node pos="l" depth="3" NCoef="0" IVar="-1" Cut="0.0000000000000000e+00" cType="1" res="9.5331687480211258e-03" rms="1.7907990515232086e-01" purity="5.7797956466674805e-01" nType="-99"/>
            <Node pos="r" depth="3" NCoef="0" IVar="-1" Cut="0.0000000000000000e+00" cType="1" res="-3.2006323337554932e-02" rms="1.7464213073253632e-01" purity="1.3915856182575226e-01" nType="-99"/>
          </Node>
        </Node>
        <Node pos="r" depth="1" NCoef="0" IVar="7" Cut="-4.9221344292163849e-02" cType="1" res="-7.4794297106564045e-03" rms="1.9302076101303101e-01" purity="3.5753595829010010e-01" nType="0">
          <Node pos="l" depth="2" NCoef="0" IVar="7" Cut="-4.1127592325210571e-01" cType="1" res="-1.7140349373221397e-02" rms="1.9175828993320465e-01" purity="3.2581686973571777e-01" nType="0">
            <Node pos="l" depth="3" NCoef="0" IVar="-1" Cut="0.0000000000000000e+00" cType="1" res="-1.7205350100994110e-02" rms="1.9859106838703156e-01" purity="2.4247080087661743e-01" nType="-99"/>
            <Node pos="r" depth="3" NCoef="0" IVar="-1" Cut="0.0000000000000000e+00" cType="1" res="-6.8544089794158936e-02" rms="1.7850463092327118e-01" purity="4.6269464492797852e-01" nType="-99"/>
          </Node>
          <Node pos="r" depth="2" NCoef="0" IVar="3" Cut="3.7908303833007812e+02" cType="1" res="3.7964904913678765e-04" rms="1.9368658959865570e-01" purity="3.8333916664123535e-01" nType="0">
            <Node pos="l" depth="3" NCoef="0" IVar="-1" Cut="0.0000000000000000e+00" cType="1" res="1.7632933333516121e-02" rms="1.8931888043880463e-01" purity="1.5229524672031403e-01" nType="-99"/>
            <Node pos="r" depth="3" NCoef="0" IVar="-1" Cut="0.0000000000000000e+00" cType="1" res="-2.7164056897163391e-02" rms="2.0098561048507690e-01" purity="8.0220061540603638e-01" nType="-99"/>
          </Node>
        </Node>
      </Node>
    </BinaryTree>
    <BinaryTree type="DecisionTree" boostWeight="1.0000000000000000e+00" itree="139">
      <Node pos="s" depth="0" NCoef="0" IVar="5" Cut="2.2322763061523438e+02" cType="1" res="1.2176437303423882e-03" rms="1.9192576408386230e-01" purity="5.1364862918853760e-01" nType="0">
        <Node pos="l" depth="1" NCoef="0" IVar="8" Cut="-1.4618965387344360e+00" cType="1" res="3.4381211735308170e-03" rms="2.1200397610664368e-01" purity="2.7132886648178101e-01" nType="0">
          <Node pos="l" depth="2" NCoef="0" IVar="5" Cut="1.2503221130371094e+02" cType="1" res="1.7165260389447212e-02" rms="1.7948645353317261e-01" purity="9.0911291539669037e-02" nType="0">
            <Node pos="l" depth="3" NCoef="0" IVar="-1" Cut="0.0000000000000000e+00" cType="1" res="1.4434510841965675e-02" rms="9.8463490605354309e-02" purity="1.1074570007622242e-02" nType="-99"/>
            <Node pos="r" depth="3" NCoef="0" IVar="-1" Cut="0.0000000000000000e+00" cType="1" res="8.1134803593158722e-02" rms="2.4523414671421051e-01" purity="1.9254553318023682e-01" nType="-99"/>
          </Node>
          <Node pos="r" depth="2" NCoef="0" IVar="10" Cut="-1.7323050498962402e+00" cType="1" res="2.0382362417876720e-03" rms="2.1499474346637726e-01" purity="2.8972771763801575e-01" nType="0">
            <Node pos="l" depth="3" NCoef="0" IVar="-1" Cut="0.0000000000000000e+00" cType="1" res="3.4442864358425140e-02" rms="2.3645336925983429e-01" purity="2.3146674036979675e-01" nType="-99"/>
            <Node pos="r" depth="3" NCoef="0" IVar="-1" Cut="0.0000000000000000e+00" cType="1" res="1.7814654856920242e-03" rms="2.1303389966487885e-01" purity="2.9465785622596741e-01" nType="-99"/>
          </Node>
        </Node>
        <Node pos="r" depth="1" NCoef="0" IVar="7" Cut="6.8629264831542969e-01" cType="1" res="-2.7702921070158482e-03" rms="1.4914754033088684e-01" purity="9.4885051250457764e-01" nType="0">
          <Node pos="l" depth="2" NCoef="0" IVar="4" Cut="3.3242391967773438e+02" cType="1" res="1.5597628589603119e-05" rms="1.3979421555995941e-01" purity="9.6262800693511963e-01" nType="0">
            <Node pos="l" depth="3" NCoef="0" IVar="-1" Cut="0.0000000000000000e+00" cType="1" res="1.4857766218483448e-02" rms="2.0805896818637848e-01" purity="8.9605200290679932e-01" nType="-99"/>
            <Node pos="r" depth="3" NCoef="0" IVar="-1" Cut="0.0000000000000000e+00" cType="1" res="-2.4877149611711502e-02" rms="1.0370436310768127e-01" purity="9.8721194267272949e-01" nType="-99"/>
          </Node>
          <Node pos="r" depth="2" NCoef="0" IVar="-1" Cut="0.0000000000000000e+00" cType="1" res="-5.3894143551588058e-02" rms="1.9737280905246735e-01" purity="8.6183041334152222e-01" nType="-99"/>
        </Node>
      </Node>
    </BinaryTree>
    <BinaryTree type="DecisionTree" boostWeight="1.0000000000000000e+00" itree="140">
      <Node pos="s" depth="0" NCoef="0" IVar="8" Cut="-9.2941814661026001e-01" cType="1" res="-1.9048870308324695e-03" rms="1.8552953004837036e-01" purity="5.0247550010681152e-01" nType="0">
        <Node pos="l" depth="1" NCoef="0" IVar="5" Cut="1.3145854187011719e+02" cType="1" res="-9.2207286506891251e-03" rms="1.9148814678192139e-01" purity="2.7959531545639038e-01" nType="0">
          <Node pos="l" depth="2" NCoef="0" IVar="0" Cut="1.6228177490234375e+03" cType="1" res="5.1938942633569241e-03" rms="1.4012996852397919e-01" purity="3.7999209016561508e-02" nType="0">
            <Node pos="l" depth="3" NCoef="0" IVar="-1" Cut="0.0000000000000000e+00" cType="1" res="-2.5830512866377831e-02" rms="5.7637151330709457e-02" purity="3.3480068668723106e-03" nType="-99"/>
            <Node pos="r" depth="3" NCoef="0" IVar="-1" Cut="0.0000000000000000e+00" cType="1" res="4.3289203196763992e-02" rms="2.1921452879905701e-01" purity="9.8772808909416199e-02" nType="-99"/>
          </Node>
          <Node pos="r" depth="2" NCoef="0" IVar="9" Cut="-6.6512095928192139e-01" cType="1" res="-2.1098488941788673e-02" rms="2.2447569668292999e-01" purity="4.7867238521575928e-01" nType="0">
            <Node pos="l" depth="3" NCoef="0" IVar="-1" Cut="0.0000000000000000e+00" cType="1" res="-3.4963327925652266e-03" rms="2.1086525917053223e-01" purity="4.2343890666961670e-01" nType="-99"/>
            <Node pos="r" depth="3" NCoef="0" IVar="-1" Cut="0.0000000000000000e+00" cType="1" res="-5.8602653443813324e-02" rms="2.2918376326560974e-01" purity="5.0051194429397583e-01" nType="-99"/>
          </Node>
        </Node>
        <Node pos="r" depth="1" NCoef="0" IVar="10" Cut="-1.7325873374938965e+00" cType="1" res="-4.8168568173423409e-04" rms="1.8431425094604492e-01" purity="5.4583394527435303e-01" nType="0">
          <Node pos="l" depth="2" NCoef="0" IVar="-1" Cut="0.0000000000000000e+00" cType="1" res="-2.6982380077242851e-02" rms="2.3795583844184875e-01" purity="3.1455153226852417e-01" nType="-99"/>
          <Node pos="r" depth="2" NCoef="0" IVar="10" Cut="1.2884912490844727e+00" cType="1" res="2.4458230473101139e-04" rms="1.8083395063877106e-01" purity="5.5870765447616577e-01" nType="0">
            <Node pos="l" depth="3" NCoef="0" IVar="-1" Cut="0.0000000000000000e+00" cType="1" res="-2.9631108045578003e-03" rms="1.7391067743301392e-01" purity="5.8678227663040161e-01" nType="-99"/>
            <Node pos="r" depth="3" NCoef="0" IVar="-1" Cut="0.0000000000000000e+00" cType="1" res="1.8391858786344528e-02" rms="2.2056598961353302e-01" purity="3.7560245394706726e-01" nType="-99"/>
          </Node>
        </Node>
      </Node>
    </BinaryTree>
    <BinaryTree type="DecisionTree" boostWeight="1.0000000000000000e+00" itree="141">
      <Node pos="s" depth="0" NCoef="0" IVar="11" Cut="6.6724687814712524e-01" cType="1" res="-1.8355573993176222e-03" rms="1.8680971860885620e-01" purity="4.9134516716003418e-01" nType="0">
        <Node pos="l" depth="1" NCoef="0" IVar="8" Cut="-1.4653415679931641e+00" cType="1" res="-4.0453509427607059e-03" rms="1.8339912593364716e-01" purity="4.9815958738327026e-01" nType="0">
          <Node pos="l" depth="2" NCoef="0" IVar="-1" Cut="0.0000000000000000e+00" cType="1" res="4.1142325848340988e-02" rms="1.6155461966991425e-01" purity="1.3174277544021606e-01" nType="-99"/>
          <Node pos="r" depth="2" NCoef="0" IVar="0" Cut="3.1207995605468750e+03" cType="1" res="-5.1384381949901581e-03" rms="1.8490329384803772e-01" purity="5.2592313289642334e-01" nType="0">
            <Node pos="l" depth="3" NCoef="0" IVar="-1" Cut="0.0000000000000000e+00" cType="1" res="-1.7358534038066864e-02" rms="2.1343471109867096e-01" purity="3.2345244288444519e-01" nType="-99"/>
            <Node pos="r" depth="3" NCoef="0" IVar="-1" Cut="0.0000000000000000e+00" cType="1" res="9.5376893877983093e-03" rms="8.9891344308853149e-02" purity="9.9011707305908203e-01" nType="-99"/>
          </Node>
        </Node>
        <Node pos="r" depth="1" NCoef="0" IVar="11" Cut="1.8860403299331665e+00" cType="1" res="3.3389977179467678e-03" rms="1.9446413218975067e-01" purity="4.7538837790489197e-01" nType="0">
          <Node pos="l" depth="2" NCoef="0" IVar="9" Cut="-1.1953300237655640e+00" cType="1" res="5.9255147352814674e-03" rms="1.8790079653263092e-01" purity="5.0258088111877441e-01" nType="0">
            <Node pos="l" depth="3" NCoef="0" IVar="-1" Cut="0.0000000000000000e+00" cType="1" res="-3.3632304519414902e-02" rms="1.9382265210151672e-01" purity="2.8404015302658081e-01" nType="-99"/>
            <Node pos="r" depth="3" NCoef="0" IVar="-1" Cut="0.0000000000000000e+00" cType="1" res="2.2478487342596054e-02" rms="1.8706208467483521e-01" purity="5.2805411815643311e-01" nType="-99"/>
          </Node>
          <Node pos="r" depth="2" NCoef="0" IVar="10" Cut="1.3640102744102478e-01" cType="1" res="-8.9660240337252617e-03" rms="2.2264793515205383e-01" purity="3.4602332115173340e-01" nType="0">
            <Node pos="l" depth="3" NCoef="0" IVar="-1" Cut="0.0000000000000000e+00" cType="1" res="-5.4931905120611191e-02" rms="1.8967373669147491e-01" purity="3.4254869818687439e-01" nType="-99"/>
            <Node pos="r" depth="3" NCoef="0" IVar="-1" Cut="0.0000000000000000e+00" cType="1" res="1.3603547587990761e-02" rms="2.5097039341926575e-01" purity="3.4956961870193481e-01" nType="-99"/>
          </Node>
        </Node>
      </Node>
    </BinaryTree>
    <BinaryTree type="DecisionTree" boostWeight="1.0000000000000000e+00" itree="142">
      <Node pos="s" depth="0" NCoef="0" IVar="7" Cut="1.7146608233451843e-01" cType="1" res="6.9837751652812585e-06" rms="1.8649220466613770e-01" purity="5.0508809089660645e-01" nType="0">
        <Node pos="l" depth="1" NCoef="0" IVar="9" Cut="-1.7322751283645630e+00" cType="1" res="-2.0951330661773682e-03" rms="1.8458831310272217e-01" purity="5.2934533357620239e-01" nType="0">
          <Node pos="l" depth="2" NCoef="0" IVar="-1" Cut="0.0000000000000000e+00" cType="1" res="5.8226328343153000e-02" rms="2.0192755758762360e-01" purity="1.6982388496398926e-01" nType="-99"/>
          <Node pos="r" depth="2" NCoef="0" IVar="9" Cut="1.7202301025390625e+00" cType="1" res="-3.1698266975581646e-03" rms="1.8359576165676117e-01" purity="5.4767197370529175e-01" nType="0">
            <Node pos="l" depth="3" NCoef="0" IVar="-1" Cut="0.0000000000000000e+00" cType="1" res="-7.0135891437530518e-03" rms="1.8246744573116302e-01" purity="5.6844621896743774e-01" nType="-99"/>
            <Node pos="r" depth="3" NCoef="0" IVar="-1" Cut="0.0000000000000000e+00" cType="1" res="-5.3354918956756592e-02" rms="2.0412364602088928e-01" purity="1.3595037162303925e-01" nType="-99"/>
          </Node>
        </Node>
        <Node pos="r" depth="1" NCoef="0" IVar="11" Cut="-1.4641928672790527e+00" cType="1" res="2.9521868564188480e-03" rms="1.8908815085887909e-01" purity="4.7110217809677124e-01" nType="0">
          <Node pos="l" depth="2" NCoef="0" IVar="-1" Cut="0.0000000000000000e+00" cType="1" res="-2.0950645208358765e-02" rms="2.0079356431961060e-01" purity="3.2403820753097534e-01" nType="-99"/>
          <Node pos="r" depth="2" NCoef="0" IVar="11" Cut="-4.4946786761283875e-01" cType="1" res="4.3659294024109840e-03" rms="1.8748894333839417e-01" purity="4.8994147777557373e-01" nType="0">
            <Node pos="l" depth="3" NCoef="0" IVar="-1" Cut="0.0000000000000000e+00" cType="1" res="4.0122013539075851e-02" rms="1.9578602910041809e-01" purity="5.2725595235824585e-01" nType="-99"/>
            <Node pos="r" depth="3" NCoef="0" IVar="-1" Cut="0.0000000000000000e+00" cType="1" res="3.1110243871808052e-03" rms="1.8442431092262268e-01" purity="4.7706300020217896e-01" nType="-99"/>
          </Node>
        </Node>
      </Node>
    </BinaryTree>
    <BinaryTree type="DecisionTree" boostWeight="1.0000000000000000e+00" itree="143">
      <Node pos="s" depth="0" NCoef="0" IVar="9" Cut="-6.6657793521881104e-01" cType="1" res="-7.1098946500569582e-04" rms="1.8296076357364655e-01" purity="5.0111937522888184e-01" nType="0">
        <Node pos="l" depth="1" NCoef="0" IVar="0" Cut="1.8685078125000000e+03" cType="1" res="3.5230531357228756e-03" rms="1.8995420634746552e-01" purity="4.1587981581687927e-01" nType="0">
          <Node pos="l" depth="2" NCoef="0" IVar="10" Cut="9.2672187089920044e-01" cType="1" res="-3.2989319879561663e-03" rms="1.1496327817440033e-01" purity="1.4195374213159084e-02" nType="0">
            <Node pos="l" depth="3" NCoef="0" IVar="-1" Cut="0.0000000000000000e+00" cType="1" res="-4.9649294465780258e-02" rms="9.7718499600887299e-02" purity="9.4742653891444206e-03" nType="-99"/>
            <Node pos="r" depth="3" NCoef="0" IVar="-1" Cut="0.0000000000000000e+00" cType="1" res="7.1653336286544800e-02" rms="1.6073541343212128e-01" purity="3.0831122770905495e-02" nType="-99"/>
          </Node>
          <Node pos="r" depth="2" NCoef="0" IVar="4" Cut="3.3290359497070312e+02" cType="1" res="9.5374686643481255e-03" rms="2.3699073493480682e-01" purity="7.7001380920410156e-01" nType="0">
            <Node pos="l" depth="3" NCoef="0" IVar="-1" Cut="0.0000000000000000e+00" cType="1" res="2.5193870067596436e-02" rms="2.8172591328620911e-01" purity="6.3673639297485352e-01" nType="-99"/>
            <Node pos="r" depth="3" NCoef="0" IVar="-1" Cut="0.0000000000000000e+00" cType="1" res="-2.3464787751436234e-02" rms="1.5380266308784485e-01" purity="9.5455926656723022e-01" nType="-99"/>
          </Node>
        </Node>
        <Node pos="r" depth="1" NCoef="0" IVar="4" Cut="3.1167608642578125e+02" cType="1" res="-2.2178685758262873e-03" rms="1.8038244545459747e-01" purity="5.3145581483840942e-01" nType="0">
          <Node pos="l" depth="2" NCoef="0" IVar="0" Cut="1.8457034912109375e+03" cType="1" res="-4.9521527253091335e-03" rms="2.0518980920314789e-01" purity="2.6122373342514038e-01" nType="0">
            <Node pos="l" depth="3" NCoef="0" IVar="-1" Cut="0.0000000000000000e+00" cType="1" res="1.0435529053211212e-02" rms="1.2029369175434113e-01" purity="1.6293456777930260e-02" nType="-99"/>
            <Node pos="r" depth="3" NCoef="0" IVar="-1" Cut="0.0000000000000000e+00" cType="1" res="-1.6625504940748215e-02" rms="2.8186172246932983e-01" purity="5.9338456392288208e-01" nType="-99"/>
          </Node>
          <Node pos="r" depth="2" NCoef="0" IVar="9" Cut="7.8762972354888916e-01" cType="1" res="2.1052712108939886e-03" rms="1.3184906542301178e-01" purity="9.5871621370315552e-01" nType="0">
            <Node pos="l" depth="3" NCoef="0" IVar="-1" Cut="0.0000000000000000e+00" cType="1" res="2.2491814568638802e-02" rms="1.2476053833961487e-01" purity="9.6644032001495361e-01" nType="-99"/>
            <Node pos="r" depth="3" NCoef="0" IVar="-1" Cut="0.0000000000000000e+00" cType="1" res="-2.9319945722818375e-02" rms="1.6005370020866394e-01" purity="9.2327690124511719e-01" nType="-99"/>
          </Node>
        </Node>
      </Node>
    </BinaryTree>
    <BinaryTree type="DecisionTree" boostWeight="1.0000000000000000e+00" itree="144">
      <Node pos="s" depth="0" NCoef="0" IVar="9" Cut="-1.3347581028938293e-01" cType="1" res="1.3720541028305888e-03" rms="1.8654441833496094e-01" purity="5.0871348381042480e-01" nType="0">
        <Node pos="l" depth="1" NCoef="0" IVar="11" Cut="9.3144297599792480e-01" cType="1" res="-1.4808486448600888e-03" rms="1.8690937757492065e-01" purity="4.9264895915985107e-01" nType="0">
          <Node pos="l" depth="2" NCoef="0" IVar="9" Cut="-5.1438385248184204e-01" cType="1" res="-2.8985606040805578e-03" rms="1.8340687453746796e-01" purity="5.0531232357025146e-01" nType="0">
            <Node pos="l" depth="3" NCoef="0" IVar="-1" Cut="0.0000000000000000e+00" cType="1" res="-1.6434563323855400e-02" rms="1.8240547180175781e-01" purity="4.4798740744590759e-01" nType="-99"/>
            <Node pos="r" depth="3" NCoef="0" IVar="-1" Cut="0.0000000000000000e+00" cType="1" res="1.2556212954223156e-02" rms="1.8550442159175873e-01" purity="6.3682717084884644e-01" nType="-99"/>
          </Node>
          <Node pos="r" depth="2" NCoef="0" IVar="8" Cut="-3.9392784237861633e-01" cType="1" res="3.7335508968681097e-03" rms="1.9917595386505127e-01" purity="4.4607254862785339e-01" nType="0">
            <Node pos="l" depth="3" NCoef="0" IVar="-1" Cut="0.0000000000000000e+00" cType="1" res="-2.7498887851834297e-02" rms="1.9688051939010620e-01" purity="3.7610897421836853e-01" nType="-99"/>
            <Node pos="r" depth="3" NCoef="0" IVar="-1" Cut="0.0000000000000000e+00" cType="1" res="2.5700861588120461e-02" rms="1.9995072484016418e-01" purity="4.8062676191329956e-01" nType="-99"/>
          </Node>
        </Node>
        <Node pos="r" depth="1" NCoef="0" IVar="4" Cut="3.2753607177734375e+02" cType="1" res="3.7438508588820696e-03" rms="1.8620720505714417e-01" purity="5.2206897735595703e-01" nType="0">
          <Node pos="l" depth="2" NCoef="0" IVar="0" Cut="2.0465815429687500e+03" cType="1" res="6.6429651342332363e-03" rms="2.0688928663730621e-01" purity="2.9108357429504395e-01" nType="0">
            <Node pos="l" depth="3" NCoef="0" IVar="-1" Cut="0.0000000000000000e+00" cType="1" res="8.8448496535420418e-03" rms="1.6109479963779449e-01" purity="3.5525485873222351e-02" nType="-99"/>
            <Node pos="r" depth="3" NCoef="0" IVar="-1" Cut="0.0000000000000000e+00" cType="1" res="2.0867465063929558e-02" rms="2.7396932244300842e-01" purity="7.8190970420837402e-01" nType="-99"/>
          </Node>
          <Node pos="r" depth="2" NCoef="0" IVar="9" Cut="8.1057840585708618e-01" cType="1" res="-1.8331545870751143e-03" rms="1.3779012858867645e-01" purity="9.6641385555267334e-01" nType="0">
            <Node pos="l" depth="3" NCoef="0" IVar="-1" Cut="0.0000000000000000e+00" cType="1" res="7.8891953453421593e-03" rms="1.2314072996377945e-01" purity="9.7541421651840210e-01" nType="-99"/>
            <Node pos="r" depth="3" NCoef="0" IVar="-1" Cut="0.0000000000000000e+00" cType="1" res="-4.8893380910158157e-02" rms="1.7553132772445679e-01" purity="9.3826872110366821e-01" nType="-99"/>
          </Node>
        </Node>
      </Node>
    </BinaryTree>
    <BinaryTree type="DecisionTree" boostWeight="1.0000000000000000e+00" itree="145">
      <Node pos="s" depth="0" NCoef="0" IVar="10" Cut="-1.1993241310119629e+00" cType="1" res="8.6213886970654130e-04" rms="1.8431214988231659e-01" purity="5.0135266780853271e-01" nType="0">
        <Node pos="l" depth="1" NCoef="0" IVar="5" Cut="1.0753248596191406e+02" cType="1" res="7.9552819952368736e-03" rms="1.9912725687026978e-01" purity="3.8480839133262634e-01" nType="0">
          <Node pos="l" depth="2" NCoef="0" IVar="-1" Cut="0.0000000000000000e+00" cType="1" res="-4.8201594501733780e-02" rms="1.1174140125513077e-01" purity="2.9372323304414749e-02" nType="-99"/>
          <Node pos="r" depth="2" NCoef="0" IVar="0" Cut="2.7125876464843750e+03" cType="1" res="1.4669733121991158e-02" rms="2.2347296774387360e-01" purity="5.2154731750488281e-01" nType="0">
            <Node pos="l" depth="3" NCoef="0" IVar="-1" Cut="0.0000000000000000e+00" cType="1" res="3.8374930620193481e-02" rms="2.5957444310188293e-01" purity="2.5640276074409485e-01" nType="-99"/>
            <Node pos="r" depth="3" NCoef="0" IVar="-1" Cut="0.0000000000000000e+00" cType="1" res="-1.5636793104931712e-03" rms="1.4161339402198792e-01" purity="9.7049927711486816e-01" nType="-99"/>
          </Node>
        </Node>
        <Node pos="r" depth="1" NCoef="0" IVar="8" Cut="-1.7289874553680420e+00" cType="1" res="-3.1045093783177435e-04" rms="1.8172006309032440e-01" purity="5.2061897516250610e-01" nType="0">
          <Node pos="l" depth="2" NCoef="0" IVar="-1" Cut="0.0000000000000000e+00" cType="1" res="-5.7378441095352173e-02" rms="1.6890822350978851e-01" purity="6.2230274081230164e-02" nType="-99"/>
          <Node pos="r" depth="2" NCoef="0" IVar="7" Cut="-3.0322220921516418e-01" cType="1" res="1.4005796401761472e-04" rms="1.8220303952693939e-01" purity="5.3908914327621460e-01" nType="0">
            <Node pos="l" depth="3" NCoef="0" IVar="-1" Cut="0.0000000000000000e+00" cType="1" res="-9.9676633253693581e-03" rms="1.9076400995254517e-01" purity="4.4990789890289307e-01" nType="-99"/>
            <Node pos="r" depth="3" NCoef="0" IVar="-1" Cut="0.0000000000000000e+00" cType="1" res="6.6004367545247078e-03" rms="1.7730362713336945e-01" purity="5.8796530961990356e-01" nType="-99"/>
          </Node>
        </Node>
      </Node>
    </BinaryTree>
    <BinaryTree type="DecisionTree" boostWeight="1.0000000000000000e+00" itree="146">
      <Node pos="s" depth="0" NCoef="0" IVar="10" Cut="-6.6615170240402222e-01" cType="1" res="-8.1024656537920237e-04" rms="1.8458105623722076e-01" purity="5.0007748603820801e-01" nType="0">
        <Node pos="l" depth="1" NCoef="0" IVar="1" Cut="8.0815441906452179e-02" cType="1" res="4.8936638049781322e-03" rms="1.9357967376708984e-01" purity="4.5043736696243286e-01" nType="0">
          <Node pos="l" depth="2" NCoef="0" IVar="1" Cut="4.2393989861011505e-02" cType="1" res="8.3291428163647652e-03" rms="2.0223680138587952e-01" purity="2.6524767279624939e-01" nType="0">
            <Node pos="l" depth="3" NCoef="0" IVar="-1" Cut="0.0000000000000000e+00" cType="1" res="5.1792147569358349e-03" rms="1.8174010515213013e-01" purity="1.4594653248786926e-01" nType="-99"/>
            <Node pos="r" depth="3" NCoef="0" IVar="-1" Cut="0.0000000000000000e+00" cType="1" res="4.1054803878068924e-02" rms="2.3134307563304901e-01" purity="4.5946076512336731e-01" nType="-99"/>
          </Node>
          <Node pos="r" depth="2" NCoef="0" IVar="8" Cut="-2.8310638666152954e-01" cType="1" res="-5.2764406427741051e-04" rms="1.7893496155738831e-01" purity="7.4267321825027466e-01" nType="0">
            <Node pos="l" depth="3" NCoef="0" IVar="-1" Cut="0.0000000000000000e+00" cType="1" res="2.7338761836290359e-02" rms="1.9929841160774231e-01" purity="7.3140710592269897e-01" nType="-99"/>
            <Node pos="r" depth="3" NCoef="0" IVar="-1" Cut="0.0000000000000000e+00" cType="1" res="-1.9822388887405396e-02" rms="1.6634839773178101e-01" purity="7.4890333414077759e-01" nType="-99"/>
          </Node>
        </Node>
        <Node pos="r" depth="1" NCoef="0" IVar="6" Cut="1.4098867797851562e+02" cType="1" res="-3.0607231892645359e-03" rms="1.8085807561874390e-01" purity="5.1966291666030884e-01" nType="0">
          <Node pos="l" depth="2" NCoef="0" IVar="6" Cut="1.0207833099365234e+02" cType="1" res="-5.7701757177710533e-03" rms="1.9552609324455261e-01" purity="2.3392827808856964e-01" nType="0">
            <Node pos="l" depth="3" NCoef="0" IVar="-1" Cut="0.0000000000000000e+00" cType="1" res="-2.7372410986572504e-03" rms="1.7080083489418030e-01" purity="1.3117709755897522e-01" nType="-99"/>
            <Node pos="r" depth="3" NCoef="0" IVar="-1" Cut="0.0000000000000000e+00" cType="1" res="-2.7721514925360680e-02" rms="2.3459795117378235e-01" purity="4.2604541778564453e-01" nType="-99"/>
          </Node>
          <Node pos="r" depth="2" NCoef="0" IVar="8" Cut="-6.6304254531860352e-01" cType="1" res="5.5592617718502879e-04" rms="1.5911456942558289e-01" purity="9.0106904506683350e-01" nType="0">
            <Node pos="l" depth="3" NCoef="0" IVar="-1" Cut="0.0000000000000000e+00" cType="1" res="-4.1752215474843979e-02" rms="2.1277317404747009e-01" purity="8.2995885610580444e-01" nType="-99"/>
            <Node pos="r" depth="3" NCoef="0" IVar="-1" Cut="0.0000000000000000e+00" cType="1" res="1.4659296721220016e-02" rms="1.4604380726814270e-01" purity="9.1510093212127686e-01" nType="-99"/>
          </Node>
        </Node>
      </Node>
    </BinaryTree>
    <BinaryTree type="DecisionTree" boostWeight="1.0000000000000000e+00" itree="147">
      <Node pos="s" depth="0" NCoef="0" IVar="1" Cut="5.9775158762931824e-02" cType="1" res="1.0999650839949027e-04" rms="1.8528552353382111e-01" purity="5.0364196300506592e-01" nType="0">
        <Node pos="l" depth="1" NCoef="0" IVar="0" Cut="1.9325506591796875e+03" cType="1" res="3.4945562947541475e-03" rms="1.8759486079216003e-01" purity="2.4071837961673737e-01" nType="0">
          <Node pos="l" depth="2" NCoef="0" IVar="11" Cut="-1.4653644561767578e+00" cType="1" res="-6.6684308694675565e-04" rms="1.0277207195758820e-01" purity="1.1377398855984211e-02" nType="0">
            <Node pos="l" depth="3" NCoef="0" IVar="-1" Cut="0.0000000000000000e+00" cType="1" res="4.7128785401582718e-02" rms="1.4193128049373627e-01" purity="2.1935936063528061e-02" nType="-99"/>
            <Node pos="r" depth="3" NCoef="0" IVar="-1" Cut="0.0000000000000000e+00" cType="1" res="-1.7831346020102501e-02" rms="9.4381324946880341e-02" purity="9.5665501430630684e-03" nType="-99"/>
          </Node>
          <Node pos="r" depth="2" NCoef="0" IVar="1" Cut="2.8577521443367004e-02" cType="1" res="1.0825363919138908e-02" rms="2.8017106652259827e-01" purity="6.4473021030426025e-01" nType="0">
            <Node pos="l" depth="3" NCoef="0" IVar="-1" Cut="0.0000000000000000e+00" cType="1" res="3.2824013382196426e-02" rms="2.8290894627571106e-01" purity="4.5599049329757690e-01" nType="-99"/>
            <Node pos="r" depth="3" NCoef="0" IVar="-1" Cut="0.0000000000000000e+00" cType="1" res="-1.0510726860957220e-04" rms="2.7785220742225647e-01" purity="7.6594173908233643e-01" nType="-99"/>
          </Node>
        </Node>
        <Node pos="r" depth="1" NCoef="0" IVar="4" Cut="2.6351174926757812e+02" cType="1" res="-2.7768870349973440e-03" rms="1.8324337899684906e-01" purity="7.2790443897247314e-01" nType="0">
          <Node pos="l" depth="2" NCoef="0" IVar="6" Cut="9.7865180969238281e+01" cType="1" res="-1.0484563186764717e-02" rms="2.3717944324016571e-01" purity="3.1271848082542419e-01" nType="0">
            <Node pos="l" depth="3" NCoef="0" IVar="-1" Cut="0.0000000000000000e+00" cType="1" res="5.7022077962756157e-03" rms="2.0914147794246674e-01" purity="9.9181346595287323e-02" nType="-99"/>
            <Node pos="r" depth="3" NCoef="0" IVar="-1" Cut="0.0000000000000000e+00" cType="1" res="-2.7956623584032059e-02" rms="2.5440275669097900e-01" purity="4.6043542027473450e-01" nType="-99"/>
          </Node>
          <Node pos="r" depth="2" NCoef="0" IVar="3" Cut="3.6896960449218750e+02" cType="1" res="1.3277025427669287e-03" rms="1.4647172391414642e-01" purity="9.4900447130203247e-01" nType="0">
            <Node pos="l" depth="3" NCoef="0" IVar="-1" Cut="0.0000000000000000e+00" cType="1" res="2.4791017174720764e-02" rms="2.5500053167343140e-01" purity="7.7905440330505371e-01" nType="-99"/>
            <Node pos="r" depth="3" NCoef="0" IVar="-1" Cut="0.0000000000000000e+00" cType="1" res="-3.9514768868684769e-03" rms="1.2357091903686523e-01" purity="9.7300571203231812e-01" nType="-99"/>
          </Node>
        </Node>
      </Node>
    </BinaryTree>
    <BinaryTree type="DecisionTree" boostWeight="1.0000000000000000e+00" itree="148">
      <Node pos="s" depth="0" NCoef="0" IVar="8" Cut="9.3486195802688599e-01" cType="1" res="7.6527986675500870e-04" rms="1.8342623114585876e-01" purity="4.9410337209701538e-01" nType="0">
        <Node pos="l" depth="1" NCoef="0" IVar="4" Cut="2.5709466552734375e+02" cType="1" res="-5.3150329040363431e-04" rms="1.8141219019889832e-01" purity="5.3271210193634033e-01" nType="0">
          <Node pos="l" depth="2" NCoef="0" IVar="1" Cut="7.6498985290527344e-02" cType="1" res="-4.0061413310468197e-03" rms="1.9171619415283203e-01" purity="1.6386282444000244e-01" nType="0">
            <Node pos="l" depth="3" NCoef="0" IVar="-1" Cut="0.0000000000000000e+00" cType="1" res="-2.2385176271200180e-03" rms="1.7465700209140778e-01" purity="1.0101978480815887e-01" nType="-99"/>
            <Node pos="r" depth="3" NCoef="0" IVar="-1" Cut="0.0000000000000000e+00" cType="1" res="-2.1633842960000038e-02" rms="2.2800527513027191e-01" purity="3.1792676448822021e-01" nType="-99"/>
          </Node>
          <Node pos="r" depth="2" NCoef="0" IVar="0" Cut="2.2043442382812500e+03" cType="1" res="3.0035958625376225e-03" rms="1.7021746933460236e-01" purity="9.0797954797744751e-01" nType="0">
            <Node pos="l" depth="3" NCoef="0" IVar="-1" Cut="0.0000000000000000e+00" cType="1" res="2.1018957719206810e-02" rms="3.3738061785697937e-01" purity="2.3684482276439667e-01" nType="-99"/>
            <Node pos="r" depth="3" NCoef="0" IVar="-1" Cut="0.0000000000000000e+00" cType="1" res="6.2974579632282257e-03" rms="1.4793457090854645e-01" purity="9.6379113197326660e-01" nType="-99"/>
          </Node>
        </Node>
        <Node pos="r" depth="1" NCoef="0" IVar="0" Cut="1.8178282470703125e+03" cType="1" res="7.3714046739041805e-03" rms="1.9322581589221954e-01" purity="2.9742154479026794e-01" nType="0">
          <Node pos="l" depth="2" NCoef="0" IVar="3" Cut="2.1563667297363281e+02" cType="1" res="5.5705761769786477e-04" rms="1.0652591288089752e-01" purity="1.2200484052300453e-02" nType="0">
            <Node pos="l" depth="3" NCoef="0" IVar="-1" Cut="0.0000000000000000e+00" cType="1" res="1.2527954578399658e-01" rms="1.2114361673593521e-01" purity="1.5935748815536499e-02" nType="-99"/>
            <Node pos="r" depth="3" NCoef="0" IVar="-1" Cut="0.0000000000000000e+00" cType="1" res="-2.6873337104916573e-02" rms="9.8146468400955200e-02" purity="1.0332198813557625e-02" nType="-99"/>
          </Node>
          <Node pos="r" depth="2" NCoef="0" IVar="0" Cut="2.3849255371093750e+03" cType="1" res="1.5908787027001381e-02" rms="2.6413041353225708e-01" purity="6.5476185083389282e-01" nType="0">
            <Node pos="l" depth="3" NCoef="0" IVar="-1" Cut="0.0000000000000000e+00" cType="1" res="3.3829104155302048e-02" rms="3.3571910858154297e-01" purity="2.4137327075004578e-01" nType="-99"/>
            <Node pos="r" depth="3" NCoef="0" IVar="-1" Cut="0.0000000000000000e+00" cType="1" res="1.2230513617396355e-02" rms="2.0581157505512238e-01" purity="9.1593819856643677e-01" nType="-99"/>
          </Node>
        </Node>
      </Node>
    </BinaryTree>
    <BinaryTree type="DecisionTree" boostWeight="1.0000000000000000e+00" itree="149">
      <Node pos="s" depth="0" NCoef="0" IVar="4" Cut="3.0767144775390625e+02" cType="1" res="-1.3690156629309058e-04" rms="1.8603250384330750e-01" purity="4.9680283665657043e-01" nType="0">
        <Node pos="l" depth="1" NCoef="0" IVar="10" Cut="-6.6434311866760254e-01" cType="1" res="-2.3613248486071825e-03" rms="2.0444437861442566e-01" purity="2.3939445614814758e-01" nType="0">
          <Node pos="l" depth="2" NCoef="0" IVar="0" Cut="2.0563256835937500e+03" cType="1" res="-9.1591114178299904e-03" rms="2.0147483050823212e-01" purity="2.2294561564922333e-01" nType="0">
            <Node pos="l" depth="3" NCoef="0" IVar="-1" Cut="0.0000000000000000e+00" cType="1" res="-1.5788754448294640e-02" rms="1.4535328745841980e-01" purity="3.1458307057619095e-02" nType="-99"/>
            <Node pos="r" depth="3" NCoef="0" IVar="-1" Cut="0.0000000000000000e+00" cType="1" res="-2.3212660104036331e-02" rms="2.9395908117294312e-01" purity="6.7564558982849121e-01" nType="-99"/>
          </Node>
          <Node pos="r" depth="2" NCoef="0" IVar="7" Cut="-4.4127192348241806e-02" cType="1" res="7.3997525032609701e-04" rms="2.0571030676364899e-01" purity="2.4689875543117523e-01" nType="0">
            <Node pos="l" depth="3" NCoef="0" IVar="-1" Cut="0.0000000000000000e+00" cType="1" res="1.4163284562528133e-02" rms="2.0863522589206696e-01" purity="2.5000482797622681e-01" nType="-99"/>
            <Node pos="r" depth="3" NCoef="0" IVar="-1" Cut="0.0000000000000000e+00" cType="1" res="-9.8303779959678650e-03" rms="2.0296610891819000e-01" purity="2.4414722621440887e-01" nType="-99"/>
          </Node>
        </Node>
        <Node pos="r" depth="1" NCoef="0" IVar="6" Cut="1.1012662506103516e+02" cType="1" res="3.8183985743671656e-03" rms="1.4764821529388428e-01" purity="9.5450687408447266e-01" nType="0">
          <Node pos="l" depth="2" NCoef="0" IVar="-1" Cut="0.0000000000000000e+00" cType="1" res="3.5438161343336105e-02" rms="2.6741418242454529e-01" purity="7.9787623882293701e-01" nType="-99"/>
          <Node pos="r" depth="2" NCoef="0" IVar="7" Cut="-6.1285090446472168e-01" cType="1" res="9.1800128575414419e-04" rms="1.2266375124454498e-01" purity="9.7556287050247192e-01" nType="0">
            <Node pos="l" depth="3" NCoef="0" IVar="-1" Cut="0.0000000000000000e+00" cType="1" res="-4.1404202580451965e-02" rms="1.7304819822311401e-01" purity="9.4306790828704834e-01" nType="-99"/>
            <Node pos="r" depth="3" NCoef="0" IVar="-1" Cut="0.0000000000000000e+00" cType="1" res="1.9696313887834549e-02" rms="1.1148487776517868e-01" purity="9.8121279478073120e-01" nType="-99"/>
          </Node>
        </Node>
      </Node>
    </BinaryTree>
    <BinaryTree type="DecisionTree" boostWeight="1.0000000000000000e+00" itree="150">
      <Node pos="s" depth="0" NCoef="0" IVar="10" Cut="1.1999199390411377e+00" cType="1" res="-1.1595950491027907e-04" rms="1.8569052219390869e-01" purity="5.0213885307312012e-01" nType="0">
        <Node pos="l" depth="1" NCoef="0" IVar="7" Cut="-9.1944783926010132e-02" cType="1" res="-1.0393356205895543e-03" rms="1.8191793560981750e-01" purity="5.2803963422775269e-01" nType="0">
          <Node pos="l" depth="2" NCoef="0" IVar="10" Cut="-1.6563225984573364e+00" cType="1" res="2.7091486845165491e-03" rms="1.8428769707679749e-01" purity="5.1539063453674316e-01" nType="0">
            <Node pos="l" depth="3" NCoef="0" IVar="-1" Cut="0.0000000000000000e+00" cType="1" res="4.3005838990211487e-02" rms="2.1148921549320221e-01" purity="3.0972382426261902e-01" nType="-99"/>
            <Node pos="r" depth="3" NCoef="0" IVar="-1" Cut="0.0000000000000000e+00" cType="1" res="3.3268022816628218e-03" rms="1.8105736374855042e-01" purity="5.3743070363998413e-01" nType="-99"/>
          </Node>
          <Node pos="r" depth="2" NCoef="0" IVar="10" Cut="-1.6560058593750000e+00" cType="1" res="-4.1982633993029594e-03" rms="1.7983599007129669e-01" purity="5.3869920969009399e-01" nType="0">
            <Node pos="l" depth="3" NCoef="0" IVar="-1" Cut="0.0000000000000000e+00" cType="1" res="-5.3019866347312927e-02" rms="1.9755907356739044e-01" purity="2.4720175564289093e-01" nType="-99"/>
            <Node pos="r" depth="3" NCoef="0" IVar="-1" Cut="0.0000000000000000e+00" cType="1" res="-8.5513489320874214e-03" rms="1.7827446758747101e-01" purity="5.6171816587448120e-01" nType="-99"/>
          </Node>
        </Node>
        <Node pos="r" depth="1" NCoef="0" IVar="7" Cut="-2.6660722494125366e-01" cType="1" res="5.2096997387707233e-03" rms="2.0602528750896454e-01" purity="3.5275384783744812e-01" nType="0">
          <Node pos="l" depth="2" NCoef="0" IVar="11" Cut="-1.4046500623226166e-01" cType="1" res="-5.6031891144812107e-03" rms="2.0570231974124908e-01" purity="2.5707831978797913e-01" nType="0">
            <Node pos="l" depth="3" NCoef="0" IVar="-1" Cut="0.0000000000000000e+00" cType="1" res="6.2141581438481808e-03" rms="2.1261812746524811e-01" purity="2.5126880407333374e-01" nType="-99"/>
            <Node pos="r" depth="3" NCoef="0" IVar="-1" Cut="0.0000000000000000e+00" cType="1" res="-3.4106966108083725e-02" rms="1.9831894338130951e-01" purity="2.6281389594078064e-01" nType="-99"/>
          </Node>
          <Node pos="r" depth="2" NCoef="0" IVar="0" Cut="1.6474067382812500e+03" cType="1" res="1.1826992034912109e-02" rms="2.0594283938407898e-01" purity="4.1130554676055908e-01" nType="0">
            <Node pos="l" depth="3" NCoef="0" IVar="-1" Cut="0.0000000000000000e+00" cType="1" res="-6.3410006463527679e-02" rms="5.4707679897546768e-02" purity="3.0477051623165607e-03" nType="-99"/>
            <Node pos="r" depth="3" NCoef="0" IVar="-1" Cut="0.0000000000000000e+00" cType="1" res="3.4153133630752563e-02" rms="2.4695634841918945e-01" purity="6.0575973987579346e-01" nType="-99"/>
          </Node>
        </Node>
      </Node>
    </BinaryTree>
    <BinaryTree type="DecisionTree" boostWeight="1.0000000000000000e+00" itree="151">
      <Node pos="s" depth="0" NCoef="0" IVar="8" Cut="-3.9985984563827515e-01" cType="1" res="-1.2906484771519899e-03" rms="1.8380086123943329e-01" purity="4.9856016039848328e-01" nType="0">
        <Node pos="l" depth="1" NCoef="0" IVar="9" Cut="-4.0030869841575623e-01" cType="1" res="4.0305000729858875e-03" rms="1.8763567507266998e-01" purity="4.3565818667411804e-01" nType="0">
          <Node pos="l" depth="2" NCoef="0" IVar="9" Cut="-1.2001652717590332e+00" cType="1" res="-2.5734724476933479e-03" rms="1.7988996207714081e-01" purity="3.9147350192070007e-01" nType="0">
            <Node pos="l" depth="3" NCoef="0" IVar="-1" Cut="0.0000000000000000e+00" cType="1" res="1.9154492765665054e-02" rms="1.8460342288017273e-01" purity="2.6938074827194214e-01" nType="-99"/>
            <Node pos="r" depth="3" NCoef="0" IVar="-1" Cut="0.0000000000000000e+00" cType="1" res="-2.4103304371237755e-02" rms="1.7670482397079468e-01" purity="4.6611446142196655e-01" nType="-99"/>
          </Node>
          <Node pos="r" depth="2" NCoef="0" IVar="0" Cut="1.8485352783203125e+03" cType="1" res="7.9205250367522240e-03" rms="1.9194579124450684e-01" purity="4.6168482303619385e-01" nType="0">
            <Node pos="l" depth="3" NCoef="0" IVar="-1" Cut="0.0000000000000000e+00" cType="1" res="2.2695908322930336e-02" rms="1.2962315976619720e-01" purity="1.8814221024513245e-02" nType="-99"/>
            <Node pos="r" depth="3" NCoef="0" IVar="-1" Cut="0.0000000000000000e+00" cType="1" res="2.2277332842350006e-02" rms="2.2750805318355560e-01" purity="7.9194682836532593e-01" nType="-99"/>
          </Node>
        </Node>
        <Node pos="r" depth="1" NCoef="0" IVar="3" Cut="3.9324700927734375e+02" cType="1" res="-3.9149275980889797e-03" rms="1.8182252347469330e-01" purity="5.2958214282989502e-01" nType="0">
          <Node pos="l" depth="2" NCoef="0" IVar="4" Cut="2.3272483825683594e+02" cType="1" res="-7.3426985181868076e-03" rms="1.9642570614814758e-01" purity="2.0651867985725403e-01" nType="0">
            <Node pos="l" depth="3" NCoef="0" IVar="-1" Cut="0.0000000000000000e+00" cType="1" res="-4.2705256491899490e-03" rms="1.6624057292938232e-01" purity="7.9802192747592926e-02" nType="-99"/>
            <Node pos="r" depth="3" NCoef="0" IVar="-1" Cut="0.0000000000000000e+00" cType="1" res="-3.3066127449274063e-02" rms="2.5890880823135376e-01" purity="5.3990584611892700e-01" nType="-99"/>
          </Node>
          <Node pos="r" depth="2" NCoef="0" IVar="8" Cut="9.6592634916305542e-01" cType="1" res="-6.0410569858504459e-05" rms="1.6376829147338867e-01" purity="8.9286595582962036e-01" nType="0">
            <Node pos="l" depth="3" NCoef="0" IVar="-1" Cut="0.0000000000000000e+00" cType="1" res="1.1296366341412067e-02" rms="1.5348178148269653e-01" purity="9.1560184955596924e-01" nType="-99"/>
            <Node pos="r" depth="3" NCoef="0" IVar="-1" Cut="0.0000000000000000e+00" cType="1" res="-4.7891795635223389e-02" rms="2.2532469034194946e-01" purity="7.2205531597137451e-01" nType="-99"/>
          </Node>
        </Node>
      </Node>
    </BinaryTree>
    <BinaryTree type="DecisionTree" boostWeight="1.0000000000000000e+00" itree="152">
      <Node pos="s" depth="0" NCoef="0" IVar="10" Cut="-1.1993846893310547e+00" cType="1" res="-4.7858679317869246e-04" rms="1.8410106003284454e-01" purity="4.9733737111091614e-01" nType="0">
        <Node pos="l" depth="1" NCoef="0" IVar="0" Cut="1.8661302490234375e+03" cType="1" res="-1.2794666923582554e-02" rms="1.9651228189468384e-01" purity="3.5108950734138489e-01" nType="0">
          <Node pos="l" depth="2" NCoef="0" IVar="7" Cut="-1.0601171106100082e-01" cType="1" res="-1.4701035106554627e-03" rms="1.1720087379217148e-01" purity="1.5705952420830727e-02" nType="0">
            <Node pos="l" depth="3" NCoef="0" IVar="-1" Cut="0.0000000000000000e+00" cType="1" res="-3.4973803907632828e-02" rms="1.0762169957160950e-01" purity="1.3563854619860649e-02" nType="-99"/>
            <Node pos="r" depth="3" NCoef="0" IVar="-1" Cut="0.0000000000000000e+00" cType="1" res="1.8659520894289017e-02" rms="1.2435293197631836e-01" purity="1.7460301518440247e-02" nType="-99"/>
          </Node>
          <Node pos="r" depth="2" NCoef="0" IVar="0" Cut="2.4989953613281250e+03" cType="1" res="-2.4319849908351898e-02" rms="2.5234010815620422e-01" purity="6.9241446256637573e-01" nType="0">
            <Node pos="l" depth="3" NCoef="0" IVar="-1" Cut="0.0000000000000000e+00" cType="1" res="-3.8336932659149170e-02" rms="3.2371386885643005e-01" purity="3.2179042696952820e-01" nType="-99"/>
            <Node pos="r" depth="3" NCoef="0" IVar="-1" Cut="0.0000000000000000e+00" cType="1" res="-2.4825466796755791e-02" rms="1.9086465239524841e-01" purity="9.3221998214721680e-01" nType="-99"/>
          </Node>
        </Node>
        <Node pos="r" depth="1" NCoef="0" IVar="9" Cut="9.3341046571731567e-01" cType="1" res="1.6995255136862397e-03" rms="1.8173113465309143e-01" purity="5.2320146560668945e-01" nType="0">
          <Node pos="l" depth="2" NCoef="0" IVar="3" Cut="6.9158874511718750e+02" cType="1" res="-3.6730084684677422e-04" rms="1.7700281739234924e-01" purity="5.5115664005279541e-01" nType="0">
            <Node pos="l" depth="3" NCoef="0" IVar="-1" Cut="0.0000000000000000e+00" cType="1" res="-3.1970932614058256e-03" rms="1.8149122595787048e-01" purity="5.2032762765884399e-01" nType="-99"/>
            <Node pos="r" depth="3" NCoef="0" IVar="-1" Cut="0.0000000000000000e+00" cType="1" res="6.0738001018762589e-02" rms="9.2283360660076141e-02" purity="9.8622262477874756e-01" nType="-99"/>
          </Node>
          <Node pos="r" depth="2" NCoef="0" IVar="0" Cut="1.8891418457031250e+03" cType="1" res="1.0865821503102779e-02" rms="2.0111155509948730e-01" purity="3.9922118186950684e-01" nType="0">
            <Node pos="l" depth="3" NCoef="0" IVar="-1" Cut="0.0000000000000000e+00" cType="1" res="2.4449476972222328e-02" rms="1.3217663764953613e-01" purity="1.9147459417581558e-02" nType="-99"/>
            <Node pos="r" depth="3" NCoef="0" IVar="-1" Cut="0.0000000000000000e+00" cType="1" res="3.0149986967444420e-02" rms="2.5147214531898499e-01" purity="7.7807670831680298e-01" nType="-99"/>
          </Node>
        </Node>
      </Node>
    </BinaryTree>
    <BinaryTree type="DecisionTree" boostWeight="1.0000000000000000e+00" itree="153">
      <Node pos="s" depth="0" NCoef="0" IVar="10" Cut="1.7330390214920044e+00" cType="1" res="5.4060801630839705e-04" rms="1.8427783250808716e-01" purity="5.0091326236724854e-01" nType="0">
        <Node pos="l" depth="1" NCoef="0" IVar="11" Cut="1.4664244651794434e+00" cType="1" res="1.7942627891898155e-03" rms="1.8239602446556091e-01" purity="5.1977384090423584e-01" nType="0">
          <Node pos="l" depth="2" NCoef="0" IVar="11" Cut="-9.7157120704650879e-01" cType="1" res="5.6641449918970466e-04" rms="1.7801231145858765e-01" purity="5.2838158607482910e-01" nType="0">
            <Node pos="l" depth="3" NCoef="0" IVar="-1" Cut="0.0000000000000000e+00" cType="1" res="1.3835258781909943e-02" rms="1.8709138035774231e-01" purity="4.6521356701850891e-01" nType="-99"/>
            <Node pos="r" depth="3" NCoef="0" IVar="-1" Cut="0.0000000000000000e+00" cType="1" res="-2.9286188073456287e-03" rms="1.7479673027992249e-01" purity="5.4983389377593994e-01" nType="-99"/>
          </Node>
          <Node pos="r" depth="2" NCoef="0" IVar="0" Cut="2.4938869628906250e+03" cType="1" res="1.2410590425133705e-02" rms="2.1634010970592499e-01" purity="4.4534870982170105e-01" nType="0">
            <Node pos="l" depth="3" NCoef="0" IVar="-1" Cut="0.0000000000000000e+00" cType="1" res="4.8022527247667313e-02" rms="2.3432211577892303e-01" purity="1.4854475855827332e-01" nType="-99"/>
            <Node pos="r" depth="3" NCoef="0" IVar="-1" Cut="0.0000000000000000e+00" cType="1" res="-1.2845251709222794e-02" rms="1.8092969059944153e-01" purity="9.4535517692565918e-01" nType="-99"/>
          </Node>
        </Node>
        <Node pos="r" depth="1" NCoef="0" IVar="5" Cut="1.2454663085937500e+02" cType="1" res="-1.7760531976819038e-02" rms="2.0898178219795227e-01" purity="2.2558173537254333e-01" nType="0">
          <Node pos="l" depth="2" NCoef="0" IVar="-1" Cut="0.0000000000000000e+00" cType="1" res="-1.0080839507281780e-02" rms="1.4521454274654388e-01" purity="6.6152937710285187e-02" nType="-99"/>
          <Node pos="r" depth="2" NCoef="0" IVar="-1" Cut="0.0000000000000000e+00" cType="1" res="-5.1900096237659454e-02" rms="2.4939760565757751e-01" purity="3.5890415310859680e-01" nType="-99"/>
        </Node>
      </Node>
    </BinaryTree>
    <BinaryTree type="DecisionTree" boostWeight="1.0000000000000000e+00" itree="154">
      <Node pos="s" depth="0" NCoef="0" IVar="9" Cut="9.3279105424880981e-01" cType="1" res="-1.1713701533153653e-03" rms="1.8200041353702545e-01" purity="4.9764615297317505e-01" nType="0">
        <Node pos="l" depth="1" NCoef="0" IVar="11" Cut="1.2002680301666260e+00" cType="1" res="-5.5885899200802669e-05" rms="1.7865954339504242e-01" purity="5.3002220392227173e-01" nType="0">
          <Node pos="l" depth="2" NCoef="0" IVar="11" Cut="4.3853554129600525e-01" cType="1" res="1.1396233458071947e-03" rms="1.7702448368072510e-01" purity="5.4587215185165405e-01" nType="0">
            <Node pos="l" depth="3" NCoef="0" IVar="-1" Cut="0.0000000000000000e+00" cType="1" res="-1.6130260191857815e-03" rms="1.7826461791992188e-01" purity="5.3863698244094849e-01" nType="-99"/>
            <Node pos="r" depth="3" NCoef="0" IVar="-1" Cut="0.0000000000000000e+00" cType="1" res="2.0432926714420319e-02" rms="1.7280238866806030e-01" purity="5.6949144601821899e-01" nType="-99"/>
          </Node>
          <Node pos="r" depth="2" NCoef="0" IVar="11" Cut="1.6572910547256470e+00" cType="1" res="-6.3428729772567749e-03" rms="1.8689715862274170e-01" purity="4.4666999578475952e-01" nType="0">
            <Node pos="l" depth="3" NCoef="0" IVar="-1" Cut="0.0000000000000000e+00" cType="1" res="-4.0435291826725006e-02" rms="1.7253635823726654e-01" purity="4.9035102128982544e-01" nType="-99"/>
            <Node pos="r" depth="3" NCoef="0" IVar="-1" Cut="0.0000000000000000e+00" cType="1" res="8.4061995148658752e-03" rms="2.0053011178970337e-01" purity="4.0043735504150391e-01" nType="-99"/>
          </Node>
        </Node>
        <Node pos="r" depth="1" NCoef="0" IVar="7" Cut="4.8667854070663452e-01" cType="1" res="-6.2065268866717815e-03" rms="1.9629573822021484e-01" purity="3.5150459408760071e-01" nType="0">
          <Node pos="l" depth="2" NCoef="0" IVar="7" Cut="-5.2709996700286865e-01" cType="1" res="-9.6794171258807182e-03" rms="1.9744437932968140e-01" purity="3.7790745496749878e-01" nType="0">
            <Node pos="l" depth="3" NCoef="0" IVar="-1" Cut="0.0000000000000000e+00" cType="1" res="3.0217752791941166e-03" rms="1.7878751456737518e-01" purity="2.0315532386302948e-01" nType="-99"/>
            <Node pos="r" depth="3" NCoef="0" IVar="-1" Cut="0.0000000000000000e+00" cType="1" res="-3.7859171628952026e-02" rms="2.0874521136283875e-01" purity="4.9535170197486877e-01" nType="-99"/>
          </Node>
          <Node pos="r" depth="2" NCoef="0" IVar="-1" Cut="0.0000000000000000e+00" cType="1" res="6.8855616264045238e-03" rms="1.9311268627643585e-01" purity="2.8533089160919189e-01" nType="-99"/>
        </Node>
      </Node>
    </BinaryTree>
    <BinaryTree type="DecisionTree" boostWeight="1.0000000000000000e+00" itree="155">
      <Node pos="s" depth="0" NCoef="0" IVar="9" Cut="-3.9945104718208313e-01" cType="1" res="3.2007429399527609e-04" rms="1.8539522588253021e-01" purity="4.9981212615966797e-01" nType="0">
        <Node pos="l" depth="1" NCoef="0" IVar="9" Cut="-1.8845635652542114e+00" cType="1" res="3.9323107339441776e-03" rms="1.9037680327892303e-01" purity="4.6161073446273804e-01" nType="0">
          <Node pos="l" depth="2" NCoef="0" IVar="-1" Cut="0.0000000000000000e+00" cType="1" res="-3.7515971809625626e-02" rms="1.7729249596595764e-01" purity="9.8818212747573853e-02" nType="-99"/>
          <Node pos="r" depth="2" NCoef="0" IVar="3" Cut="5.3575445556640625e+02" cType="1" res="5.9010600671172142e-03" rms="1.9180493056774139e-01" purity="5.0548136234283447e-01" nType="0">
            <Node pos="l" depth="3" NCoef="0" IVar="-1" Cut="0.0000000000000000e+00" cType="1" res="1.9955856725573540e-02" rms="1.9810082018375397e-01" purity="4.0944290161132812e-01" nType="-99"/>
            <Node pos="r" depth="3" NCoef="0" IVar="-1" Cut="0.0000000000000000e+00" cType="1" res="-1.4405561611056328e-02" rms="1.5930886566638947e-01" purity="9.4787907600402832e-01" nType="-99"/>
          </Node>
        </Node>
        <Node pos="r" depth="1" NCoef="0" IVar="11" Cut="-1.2001080513000488e+00" cType="1" res="-1.6883774660527706e-03" rms="1.8253569304943085e-01" purity="5.2105259895324707e-01" nType="0">
          <Node pos="l" depth="2" NCoef="0" IVar="7" Cut="-2.8557309508323669e-01" cType="1" res="-1.0088510811328888e-02" rms="1.9784049689769745e-01" purity="4.5269238948822021e-01" nType="0">
            <Node pos="l" depth="3" NCoef="0" IVar="-1" Cut="0.0000000000000000e+00" cType="1" res="-5.1869628950953484e-03" rms="1.9120889902114868e-01" purity="4.0130868554115295e-01" nType="-99"/>
            <Node pos="r" depth="3" NCoef="0" IVar="-1" Cut="0.0000000000000000e+00" cType="1" res="-3.9932761341333389e-02" rms="2.0204724371433258e-01" purity="4.8769521713256836e-01" nType="-99"/>
          </Node>
          <Node pos="r" depth="2" NCoef="0" IVar="9" Cut="1.2759859561920166e+00" cType="1" res="-1.6518184565939009e-04" rms="1.7957878112792969e-01" purity="5.3344833850860596e-01" nType="0">
            <Node pos="l" depth="3" NCoef="0" IVar="-1" Cut="0.0000000000000000e+00" cType="1" res="-6.5654143691062927e-03" rms="1.7573720216751099e-01" purity="5.7903820276260376e-01" nType="-99"/>
            <Node pos="r" depth="3" NCoef="0" IVar="-1" Cut="0.0000000000000000e+00" cType="1" res="2.5741353631019592e-02" rms="1.9813649356365204e-01" purity="2.9541769623756409e-01" nType="-99"/>
          </Node>
        </Node>
      </Node>
    </BinaryTree>
    <BinaryTree type="DecisionTree" boostWeight="1.0000000000000000e+00" itree="156">
      <Node pos="s" depth="0" NCoef="0" IVar="9" Cut="6.6605967283248901e-01" cType="1" res="7.9962593736127019e-04" rms="1.8775379657745361e-01" purity="5.0572675466537476e-01" nType="0">
        <Node pos="l" depth="1" NCoef="0" IVar="4" Cut="2.6014251708984375e+02" cType="1" res="-1.1066533625125885e-03" rms="1.8388298153877258e-01" purity="5.3026300668716431e-01" nType="0">
          <Node pos="l" depth="2" NCoef="0" IVar="1" Cut="9.5502041280269623e-02" cType="1" res="-4.0150298736989498e-03" rms="1.9388079643249512e-01" purity="1.5523260831832886e-01" nType="0">
            <Node pos="l" depth="3" NCoef="0" IVar="-1" Cut="0.0000000000000000e+00" cType="1" res="-2.3302703630179167e-03" rms="1.8507455289363861e-01" purity="1.1066350340843201e-01" nType="-99"/>
            <Node pos="r" depth="3" NCoef="0" IVar="-1" Cut="0.0000000000000000e+00" cType="1" res="-3.1380325555801392e-02" rms="2.2781197726726532e-01" purity="3.4960421919822693e-01" nType="-99"/>
          </Node>
          <Node pos="r" depth="2" NCoef="0" IVar="4" Cut="3.0181106567382812e+02" cType="1" res="1.7011775635182858e-03" rms="1.7363944649696350e-01" purity="8.9232832193374634e-01" nType="0">
            <Node pos="l" depth="3" NCoef="0" IVar="-1" Cut="0.0000000000000000e+00" cType="1" res="2.4191146716475487e-02" rms="2.3689202964305878e-01" purity="6.5600746870040894e-01" nType="-99"/>
            <Node pos="r" depth="3" NCoef="0" IVar="-1" Cut="0.0000000000000000e+00" cType="1" res="-6.7863701842725277e-03" rms="1.5433768928050995e-01" purity="9.4945907592773438e-01" nType="-99"/>
          </Node>
        </Node>
        <Node pos="r" depth="1" NCoef="0" IVar="4" Cut="2.4960716247558594e+02" cType="1" res="6.3161901198327541e-03" rms="1.9842757284641266e-01" purity="4.3472144007682800e-01" nType="0">
          <Node pos="l" depth="2" NCoef="0" IVar="0" Cut="2.1028774414062500e+03" cType="1" res="1.2147102504968643e-02" rms="1.9957643747329712e-01" purity="1.5763187408447266e-01" nType="0">
            <Node pos="l" depth="3" NCoef="0" IVar="-1" Cut="0.0000000000000000e+00" cType="1" res="2.3216977715492249e-02" rms="1.6262130439281464e-01" purity="3.7724923342466354e-02" nType="-99"/>
            <Node pos="r" depth="3" NCoef="0" IVar="-1" Cut="0.0000000000000000e+00" cType="1" res="4.4196646660566330e-02" rms="3.1526276469230652e-01" purity="7.0139306783676147e-01" nType="-99"/>
          </Node>
          <Node pos="r" depth="2" NCoef="0" IVar="9" Cut="1.1740260124206543e+00" cType="1" res="-2.5740505661815405e-03" rms="1.9632999598979950e-01" purity="8.5719269514083862e-01" nType="0">
            <Node pos="l" depth="3" NCoef="0" IVar="-1" Cut="0.0000000000000000e+00" cType="1" res="1.1030512861907482e-02" rms="1.6621007025241852e-01" purity="8.9659112691879272e-01" nType="-99"/>
            <Node pos="r" depth="3" NCoef="0" IVar="-1" Cut="0.0000000000000000e+00" cType="1" res="-2.8482871130108833e-02" rms="2.4229945242404938e-01" purity="7.8377193212509155e-01" nType="-99"/>
          </Node>
        </Node>
      </Node>
    </BinaryTree>
    <BinaryTree type="DecisionTree" boostWeight="1.0000000000000000e+00" itree="157">
      <Node pos="s" depth="0" NCoef="0" IVar="11" Cut="-1.7333372831344604e+00" cType="1" res="-1.6218633390963078e-04" rms="1.8980251252651215e-01" purity="5.0173568725585938e-01" nType="0">
        <Node pos="l" depth="1" NCoef="0" IVar="9" Cut="4.0845128893852234e-01" cType="1" res="-1.0155842639505863e-02" rms="1.9872516393661499e-01" purity="3.2750371098518372e-01" nType="0">
          <Node pos="l" depth="2" NCoef="0" IVar="-1" Cut="0.0000000000000000e+00" cType="1" res="-5.6526377797126770e-02" rms="1.8180370330810547e-01" purity="3.2518687844276428e-01" nType="-99"/>
          <Node pos="r" depth="2" NCoef="0" IVar="-1" Cut="0.0000000000000000e+00" cType="1" res="2.5918656960129738e-02" rms="2.2332356870174408e-01" purity="3.3148422837257385e-01" nType="-99"/>
        </Node>
        <Node pos="r" depth="1" NCoef="0" IVar="11" Cut="1.9365048408508301e+00" cType="1" res="6.3183956081047654e-04" rms="1.8905286490917206e-01" purity="5.1557892560958862e-01" nType="0">
          <Node pos="l" depth="2" NCoef="0" IVar="11" Cut="-1.5584256649017334e+00" cType="1" res="1.3898635515943170e-03" rms="1.8620356917381287e-01" purity="5.2677398920059204e-01" nType="0">
            <Node pos="l" depth="3" NCoef="0" IVar="-1" Cut="0.0000000000000000e+00" cType="1" res="5.0718009471893311e-02" rms="2.0625603199005127e-01" purity="4.3128821253776550e-01" nType="-99"/>
            <Node pos="r" depth="3" NCoef="0" IVar="-1" Cut="0.0000000000000000e+00" cType="1" res="2.4835534859448671e-03" rms="1.8546704947948456e-01" purity="5.2998280525207520e-01" nType="-99"/>
          </Node>
          <Node pos="r" depth="2" NCoef="0" IVar="2" Cut="5.1244012451171875e+02" cType="1" res="-1.2361445464193821e-02" rms="2.3214173316955566e-01" purity="3.2368478178977966e-01" nType="0">
            <Node pos="l" depth="3" NCoef="0" IVar="-1" Cut="0.0000000000000000e+00" cType="1" res="-1.8165862187743187e-02" rms="1.8896649777889252e-01" purity="1.0992715507745743e-01" nType="-99"/>
            <Node pos="r" depth="3" NCoef="0" IVar="-1" Cut="0.0000000000000000e+00" cType="1" res="-3.3575952053070068e-02" rms="2.6830857992172241e-01" purity="5.3731292486190796e-01" nType="-99"/>
          </Node>
        </Node>
      </Node>
    </BinaryTree>
    <BinaryTree type="DecisionTree" boostWeight="1.0000000000000000e+00" itree="158">
      <Node pos="s" depth="0" NCoef="0" IVar="11" Cut="-1.1988741159439087e+00" cType="1" res="-1.3075037859380245e-03" rms="1.8512481451034546e-01" purity="4.9277207255363464e-01" nType="0">
        <Node pos="l" depth="1" NCoef="0" IVar="9" Cut="9.3287640810012817e-01" cType="1" res="5.2122245542705059e-03" rms="1.9620388746261597e-01" purity="3.9994290471076965e-01" nType="0">
          <Node pos="l" depth="2" NCoef="0" IVar="6" Cut="8.5347251892089844e+01" cType="1" res="8.2400701940059662e-03" rms="1.8876555562019348e-01" purity="4.1888630390167236e-01" nType="0">
            <Node pos="l" depth="3" NCoef="0" IVar="-1" Cut="0.0000000000000000e+00" cType="1" res="-6.5053803846240044e-03" rms="1.5134805440902710e-01" purity="8.8116846978664398e-02" nType="-99"/>
            <Node pos="r" depth="3" NCoef="0" IVar="-1" Cut="0.0000000000000000e+00" cType="1" res="3.1481653451919556e-02" rms="2.0377147197723389e-01" purity="5.7371288537979126e-01" nType="-99"/>
          </Node>
          <Node pos="r" depth="2" NCoef="0" IVar="-1" Cut="0.0000000000000000e+00" cType="1" res="-1.8957003951072693e-02" rms="2.2672925889492035e-01" purity="3.1298014521598816e-01" nType="-99"/>
        </Node>
        <Node pos="r" depth="1" NCoef="0" IVar="1" Cut="1.5944913029670715e-01" cType="1" res="-2.6794874574989080e-03" rms="1.8267820775508881e-01" purity="5.1230663061141968e-01" nType="0">
          <Node pos="l" depth="2" NCoef="0" IVar="7" Cut="-8.2340449094772339e-01" cType="1" res="-3.9868513122200966e-03" rms="1.8907947838306427e-01" purity="4.4145911931991577e-01" nType="0">
            <Node pos="l" depth="3" NCoef="0" IVar="-1" Cut="0.0000000000000000e+00" cType="1" res="6.4242212101817131e-03" rms="1.8936745822429657e-01" purity="2.4214914441108704e-01" nType="-99"/>
            <Node pos="r" depth="3" NCoef="0" IVar="-1" Cut="0.0000000000000000e+00" cType="1" res="-1.4396985992789268e-02" rms="1.8898999691009521e-01" purity="4.8529317975044250e-01" nType="-99"/>
          </Node>
          <Node pos="r" depth="2" NCoef="0" IVar="5" Cut="1.9186358642578125e+02" cType="1" res="4.1887918487191200e-03" rms="1.4426791667938232e-01" purity="8.8450646400451660e-01" nType="0">
            <Node pos="l" depth="3" NCoef="0" IVar="-1" Cut="0.0000000000000000e+00" cType="1" res="2.3920908570289612e-02" rms="2.4117633700370789e-01" purity="5.3071600198745728e-01" nType="-99"/>
            <Node pos="r" depth="3" NCoef="0" IVar="-1" Cut="0.0000000000000000e+00" cType="1" res="1.2405033223330975e-02" rms="1.0455571115016937e-01" purity="9.7776657342910767e-01" nType="-99"/>
          </Node>
        </Node>
      </Node>
    </BinaryTree>
    <BinaryTree type="DecisionTree" boostWeight="1.0000000000000000e+00" itree="159">
      <Node pos="s" depth="0" NCoef="0" IVar="9" Cut="-1.1997766494750977e+00" cType="1" res="-5.2038609283044934e-04" rms="1.8413551151752472e-01" purity="5.0005942583084106e-01" nType="0">
        <Node pos="l" depth="1" NCoef="0" IVar="4" Cut="2.2914382934570312e+02" cType="1" res="6.9297631271183491e-03" rms="2.0619834959506989e-01" purity="2.9597809910774231e-01" nType="0">
          <Node pos="l" depth="2" NCoef="0" IVar="6" Cut="9.7799644470214844e+01" cType="1" res="1.6657238826155663e-02" rms="1.8941329419612885e-01" purity="9.8021522164344788e-02" nType="0">
            <Node pos="l" depth="3" NCoef="0" IVar="-1" Cut="0.0000000000000000e+00" cType="1" res="2.7837280184030533e-02" rms="1.4142319560050964e-01" purity="3.2997544854879379e-02" nType="-99"/>
            <Node pos="r" depth="3" NCoef="0" IVar="-1" Cut="0.0000000000000000e+00" cType="1" res="7.7550873160362244e-02" rms="2.5387865304946899e-01" purity="2.1819268167018890e-01" nType="-99"/>
          </Node>
          <Node pos="r" depth="2" NCoef="0" IVar="-1" Cut="0.0000000000000000e+00" cType="1" res="-2.0090453326702118e-02" rms="2.3351673781871796e-01" purity="6.6943979263305664e-01" nType="-99"/>
        </Node>
        <Node pos="r" depth="1" NCoef="0" IVar="8" Cut="-9.3263530731201172e-01" cType="1" res="-1.5539174200966954e-03" rms="1.8083812296390533e-01" purity="5.2837085723876953e-01" nType="0">
          <Node pos="l" depth="2" NCoef="0" IVar="4" Cut="2.8001641845703125e+02" cType="1" res="-8.3610098809003830e-03" rms="1.9639517366886139e-01" purity="2.8737148642539978e-01" nType="0">
            <Node pos="l" depth="3" NCoef="0" IVar="-1" Cut="0.0000000000000000e+00" cType="1" res="-6.4103468321263790e-03" rms="1.8180181086063385e-01" purity="1.1161780357360840e-01" nType="-99"/>
            <Node pos="r" depth="3" NCoef="0" IVar="-1" Cut="0.0000000000000000e+00" cType="1" res="-6.2942050397396088e-02" rms="2.3316167294979095e-01" purity="8.0491048097610474e-01" nType="-99"/>
          </Node>
          <Node pos="r" depth="2" NCoef="0" IVar="4" Cut="1.9790985107421875e+02" cType="1" res="-2.8401755844242871e-04" rms="1.7775641381740570e-01" purity="5.7333058118820190e-01" nType="0">
            <Node pos="l" depth="3" NCoef="0" IVar="-1" Cut="0.0000000000000000e+00" cType="1" res="-2.1056467667222023e-02" rms="1.6095449030399323e-01" purity="6.6546410322189331e-02" nType="-99"/>
            <Node pos="r" depth="3" NCoef="0" IVar="-1" Cut="0.0000000000000000e+00" cType="1" res="6.0972329229116440e-03" rms="1.8452313542366028e-01" purity="7.9340440034866333e-01" nType="-99"/>
          </Node>
        </Node>
      </Node>
    </BinaryTree>
    <BinaryTree type="DecisionTree" boostWeight="1.0000000000000000e+00" itree="160">
      <Node pos="s" depth="0" NCoef="0" IVar="9" Cut="-1.3326542079448700e-01" cType="1" res="1.1531293421285227e-04" rms="1.8600437045097351e-01" purity="5.0059002637863159e-01" nType="0">
        <Node pos="l" depth="1" NCoef="0" IVar="2" Cut="5.4369018554687500e+02" cType="1" res="3.7192902527749538e-03" rms="1.8944296240806580e-01" purity="4.9003040790557861e-01" nType="0">
          <Node pos="l" depth="2" NCoef="0" IVar="0" Cut="1.7901988525390625e+03" cType="1" res="8.0282492563128471e-03" rms="2.0402576029300690e-01" purity="2.4826571345329285e-01" nType="0">
            <Node pos="l" depth="3" NCoef="0" IVar="-1" Cut="0.0000000000000000e+00" cType="1" res="1.1741400696337223e-02" rms="1.1681863665580750e-01" purity="1.4533456414937973e-02" nType="-99"/>
            <Node pos="r" depth="3" NCoef="0" IVar="-1" Cut="0.0000000000000000e+00" cType="1" res="2.4137919768691063e-02" rms="2.9816475510597229e-01" purity="6.4484190940856934e-01" nType="-99"/>
          </Node>
          <Node pos="r" depth="2" NCoef="0" IVar="10" Cut="-1.1985700130462646e+00" cType="1" res="-2.2047756647225469e-04" rms="1.7495681345462799e-01" purity="7.1108072996139526e-01" nType="0">
            <Node pos="l" depth="3" NCoef="0" IVar="-1" Cut="0.0000000000000000e+00" cType="1" res="2.3438036441802979e-02" rms="2.1546849608421326e-01" purity="5.4555684328079224e-01" nType="-99"/>
            <Node pos="r" depth="3" NCoef="0" IVar="-1" Cut="0.0000000000000000e+00" cType="1" res="-7.1661868132650852e-03" rms="1.6698853671550751e-01" purity="7.3930168151855469e-01" nType="-99"/>
          </Node>
        </Node>
        <Node pos="r" depth="1" NCoef="0" IVar="8" Cut="1.3336399197578430e-01" cType="1" res="-2.8358581475913525e-03" rms="1.8308773636817932e-01" purity="5.0923693180084229e-01" nType="0">
          <Node pos="l" depth="2" NCoef="0" IVar="10" Cut="-1.1993256807327271e+00" cType="1" res="9.5214665634557605e-04" rms="1.8871265649795532e-01" purity="5.3467899560928345e-01" nType="0">
            <Node pos="l" depth="3" NCoef="0" IVar="-1" Cut="0.0000000000000000e+00" cType="1" res="-2.7471164241433144e-02" rms="1.9483336806297302e-01" purity="3.8067829608917236e-01" nType="-99"/>
            <Node pos="r" depth="3" NCoef="0" IVar="-1" Cut="0.0000000000000000e+00" cType="1" res="9.6003171056509018e-03" rms="1.8753010034561157e-01" purity="5.6173127889633179e-01" nType="-99"/>
          </Node>
          <Node pos="r" depth="2" NCoef="0" IVar="11" Cut="1.3374492526054382e-01" cType="1" res="-7.3415711522102356e-03" rms="1.7605724930763245e-01" purity="4.7897434234619141e-01" nType="0">
            <Node pos="l" depth="3" NCoef="0" IVar="-1" Cut="0.0000000000000000e+00" cType="1" res="-4.7506727278232574e-03" rms="1.7439250648021698e-01" purity="5.0849068164825439e-01" nType="-99"/>
            <Node pos="r" depth="3" NCoef="0" IVar="-1" Cut="0.0000000000000000e+00" cType="1" res="-3.8950692862272263e-02" rms="1.7753213644027710e-01" purity="4.4902026653289795e-01" nType="-99"/>
          </Node>
        </Node>
      </Node>
    </BinaryTree>
    <BinaryTree type="DecisionTree" boostWeight="1.0000000000000000e+00" itree="161">
      <Node pos="s" depth="0" NCoef="0" IVar="3" Cut="4.7078958129882812e+02" cType="1" res="6.1832688516005874e-04" rms="1.8875809013843536e-01" purity="4.9389153718948364e-01" nType="0">
        <Node pos="l" depth="1" NCoef="0" IVar="10" Cut="-1.1995482444763184e+00" cType="1" res="2.8931978158652782e-03" rms="1.9940239191055298e-01" purity="3.1826335191726685e-01" nType="0">
          <Node pos="l" depth="2" NCoef="0" IVar="0" Cut="1.5571314697265625e+03" cType="1" res="1.2832785025238991e-02" rms="2.1544823050498962e-01" purity="2.6517111063003540e-01" nType="0">
            <Node pos="l" depth="3" NCoef="0" IVar="-1" Cut="0.0000000000000000e+00" cType="1" res="-4.3476119637489319e-02" rms="6.0121338814496994e-02" purity="3.6537174601107836e-03" nType="-99"/>
            <Node pos="r" depth="3" NCoef="0" IVar="-1" Cut="0.0000000000000000e+00" cType="1" res="3.2614495605230331e-02" rms="2.5359627604484558e-01" purity="3.7538310885429382e-01" nType="-99"/>
          </Node>
          <Node pos="r" depth="2" NCoef="0" IVar="10" Cut="1.4660453796386719e+00" cType="1" res="9.5945911016315222e-04" rms="1.9606965780258179e-01" purity="3.2859238982200623e-01" nType="0">
            <Node pos="l" depth="3" NCoef="0" IVar="-1" Cut="0.0000000000000000e+00" cType="1" res="-1.3232507044449449e-03" rms="1.9192180037498474e-01" purity="3.4963452816009521e-01" nType="-99"/>
            <Node pos="r" depth="3" NCoef="0" IVar="-1" Cut="0.0000000000000000e+00" cType="1" res="2.6954293251037598e-02" rms="2.2023203969001770e-01" purity="1.9578763842582703e-01" nType="-99"/>
          </Node>
        </Node>
        <Node pos="r" depth="1" NCoef="0" IVar="0" Cut="2.7263757324218750e+03" cType="1" res="-4.9717188812792301e-03" rms="1.5947671234607697e-01" purity="9.2546302080154419e-01" nType="0">
          <Node pos="l" depth="2" NCoef="0" IVar="-1" Cut="0.0000000000000000e+00" cType="1" res="-4.1868444532155991e-02" rms="3.3083096146583557e-01" purity="5.1422899961471558e-01" nType="-99"/>
          <Node pos="r" depth="2" NCoef="0" IVar="9" Cut="1.5771582722663879e-01" cType="1" res="-3.4772948129102588e-04" rms="1.1908166855573654e-01" purity="9.7964090108871460e-01" nType="0">
            <Node pos="l" depth="3" NCoef="0" IVar="-1" Cut="0.0000000000000000e+00" cType="1" res="2.0322749391198158e-02" rms="1.1047038435935974e-01" purity="9.8287612199783325e-01" nType="-99"/>
            <Node pos="r" depth="3" NCoef="0" IVar="-1" Cut="0.0000000000000000e+00" cType="1" res="-3.1808663159608841e-02" rms="1.2961466610431671e-01" purity="9.7529804706573486e-01" nType="-99"/>
          </Node>
        </Node>
      </Node>
    </BinaryTree>
    <BinaryTree type="DecisionTree" boostWeight="1.0000000000000000e+00" itree="162">
      <Node pos="s" depth="0" NCoef="0" IVar="9" Cut="1.1992057561874390e+00" cType="1" res="9.8573544528335333e-04" rms="1.8865723907947540e-01" purity="4.9952441453933716e-01" nType="0">
        <Node pos="l" depth="1" NCoef="0" IVar="8" Cut="-1.3320507109165192e-01" cType="1" res="1.9901487976312637e-03" rms="1.8593701720237732e-01" purity="5.2576529979705811e-01" nType="0">
          <Node pos="l" depth="2" NCoef="0" IVar="0" Cut="1.8661213378906250e+03" cType="1" res="-1.1431581806391478e-03" rms="1.8169632554054260e-01" purity="4.9667522311210632e-01" nType="0">
            <Node pos="l" depth="3" NCoef="0" IVar="-1" Cut="0.0000000000000000e+00" cType="1" res="2.4344446137547493e-02" rms="1.3115040957927704e-01" purity="1.9570384174585342e-02" nType="-99"/>
            <Node pos="r" depth="3" NCoef="0" IVar="-1" Cut="0.0000000000000000e+00" cType="1" res="-9.5617603510618210e-03" rms="2.0866203308105469e-01" purity="8.1500744819641113e-01" nType="-99"/>
          </Node>
          <Node pos="r" depth="2" NCoef="0" IVar="8" Cut="1.6825915575027466e+00" cType="1" res="4.5618307776749134e-03" rms="1.8930788338184357e-01" purity="5.4964113235473633e-01" nType="0">
            <Node pos="l" depth="3" NCoef="0" IVar="-1" Cut="0.0000000000000000e+00" cType="1" res="1.6149429604411125e-02" rms="1.9047842919826508e-01" purity="5.8421266078948975e-01" nType="-99"/>
            <Node pos="r" depth="3" NCoef="0" IVar="-1" Cut="0.0000000000000000e+00" cType="1" res="-3.1949259340763092e-02" rms="1.7209631204605103e-01" purity="8.2919090986251831e-02" nType="-99"/>
          </Node>
        </Node>
        <Node pos="r" depth="1" NCoef="0" IVar="0" Cut="2.0280242919921875e+03" cType="1" res="-6.5896469168365002e-03" rms="2.0787452161312103e-01" purity="3.0161339044570923e-01" nType="0">
          <Node pos="l" depth="2" NCoef="0" IVar="10" Cut="-3.9311817288398743e-01" cType="1" res="1.9179399823769927e-03" rms="1.4505895972251892e-01" purity="2.8369508683681488e-02" nType="0">
            <Node pos="l" depth="3" NCoef="0" IVar="-1" Cut="0.0000000000000000e+00" cType="1" res="5.6801673024892807e-02" rms="1.6247501969337463e-01" purity="4.2104341089725494e-02" nType="-99"/>
            <Node pos="r" depth="3" NCoef="0" IVar="-1" Cut="0.0000000000000000e+00" cType="1" res="-1.7887875437736511e-02" rms="1.3449509441852570e-01" purity="2.1025756374001503e-02" nType="-99"/>
          </Node>
          <Node pos="r" depth="2" NCoef="0" IVar="-1" Cut="0.0000000000000000e+00" cType="1" res="-3.1154595315456390e-02" rms="2.8293201327323914e-01" purity="7.5965631008148193e-01" nType="-99"/>
        </Node>
      </Node>
    </BinaryTree>
    <BinaryTree type="DecisionTree" boostWeight="1.0000000000000000e+00" itree="163">
      <Node pos="s" depth="0" NCoef="0" IVar="1" Cut="1.2853531539440155e-01" cType="1" res="1.3087032129988074e-03" rms="1.8771316111087799e-01" purity="5.0196903944015503e-01" nType="0">
        <Node pos="l" depth="1" NCoef="0" IVar="8" Cut="-9.3460464477539062e-01" cType="1" res="3.4411228261888027e-03" rms="1.9745582342147827e-01" purity="3.9393678307533264e-01" nType="0">
          <Node pos="l" depth="2" NCoef="0" IVar="11" Cut="1.3432060182094574e-01" cType="1" res="9.5830028876662254e-03" rms="1.9941976666450500e-01" purity="2.3496350646018982e-01" nType="0">
            <Node pos="l" depth="3" NCoef="0" IVar="-1" Cut="0.0000000000000000e+00" cType="1" res="-2.8605330735445023e-03" rms="1.7659454047679901e-01" purity="2.1266818046569824e-01" nType="-99"/>
            <Node pos="r" depth="3" NCoef="0" IVar="-1" Cut="0.0000000000000000e+00" cType="1" res="6.2476590275764465e-02" rms="2.3153655230998993e-01" purity="2.7219757437705994e-01" nType="-99"/>
          </Node>
          <Node pos="r" depth="2" NCoef="0" IVar="8" Cut="-4.0162175893783569e-01" cType="1" res="1.8999495077878237e-03" rms="1.9692988693714142e-01" purity="4.3382769823074341e-01" nType="0">
            <Node pos="l" depth="3" NCoef="0" IVar="-1" Cut="0.0000000000000000e+00" cType="1" res="-1.3494412414729595e-02" rms="1.8383349478244781e-01" purity="4.4294822216033936e-01" nType="-99"/>
            <Node pos="r" depth="3" NCoef="0" IVar="-1" Cut="0.0000000000000000e+00" cType="1" res="9.6949860453605652e-03" rms="2.0018355548381805e-01" purity="4.3143501877784729e-01" nType="-99"/>
          </Node>
        </Node>
        <Node pos="r" depth="1" NCoef="0" IVar="0" Cut="2.1964389648437500e+03" cType="1" res="-5.3777303546667099e-03" rms="1.5300543606281281e-01" purity="8.4071588516235352e-01" nType="0">
          <Node pos="l" depth="2" NCoef="0" IVar="-1" Cut="0.0000000000000000e+00" cType="1" res="-3.3851277083158493e-02" rms="2.6686102151870728e-01" purity="1.5170170366764069e-01" nType="-99"/>
          <Node pos="r" depth="2" NCoef="0" IVar="5" Cut="2.0449566650390625e+02" cType="1" res="-5.6265422608703375e-04" rms="1.1555513739585876e-01" purity="9.8373579978942871e-01" nType="0">
            <Node pos="l" depth="3" NCoef="0" IVar="-1" Cut="0.0000000000000000e+00" cType="1" res="-2.4690760299563408e-02" rms="2.0207017660140991e-01" purity="9.4334834814071655e-01" nType="-99"/>
            <Node pos="r" depth="3" NCoef="0" IVar="-1" Cut="0.0000000000000000e+00" cType="1" res="1.5197800472378731e-02" rms="8.6586169898509979e-02" purity="9.9231427907943726e-01" nType="-99"/>
          </Node>
        </Node>
      </Node>
    </BinaryTree>
    <BinaryTree type="DecisionTree" boostWeight="1.0000000000000000e+00" itree="164">
      <Node pos="s" depth="0" NCoef="0" IVar="8" Cut="6.6675919294357300e-01" cType="1" res="6.6288962261751294e-04" rms="1.8752378225326538e-01" purity="5.0250345468521118e-01" nType="0">
        <Node pos="l" depth="1" NCoef="0" IVar="10" Cut="-1.7330026626586914e+00" cType="1" res="2.1533318795263767e-03" rms="1.8652854859828949e-01" purity="5.4826587438583374e-01" nType="0">
          <Node pos="l" depth="2" NCoef="0" IVar="-1" Cut="0.0000000000000000e+00" cType="1" res="3.0307196080684662e-02" rms="2.2643151879310608e-01" purity="3.2251349091529846e-01" nType="-99"/>
          <Node pos="r" depth="2" NCoef="0" IVar="1" Cut="8.0726042389869690e-02" cType="1" res="1.4639620203524828e-03" rms="1.8383167684078217e-01" purity="5.6183469295501709e-01" nType="0">
            <Node pos="l" depth="3" NCoef="0" IVar="-1" Cut="0.0000000000000000e+00" cType="1" res="9.6706654876470566e-03" rms="1.9384463131427765e-01" purity="3.5537454485893250e-01" nType="-99"/>
            <Node pos="r" depth="3" NCoef="0" IVar="-1" Cut="0.0000000000000000e+00" cType="1" res="-3.7857750430703163e-03" rms="1.7206607758998871e-01" purity="7.8977280855178833e-01" nType="-99"/>
          </Node>
        </Node>
        <Node pos="r" depth="1" NCoef="0" IVar="11" Cut="3.9971294999122620e-01" cType="1" res="-3.9263707585632801e-03" rms="1.9048237800598145e-01" purity="3.6159512400627136e-01" nType="0">
          <Node pos="l" depth="2" NCoef="0" IVar="0" Cut="2.0074083251953125e+03" cType="1" res="1.9600025843828917e-03" rms="1.9058223068714142e-01" purity="3.8939258456230164e-01" nType="0">
            <Node pos="l" depth="3" NCoef="0" IVar="-1" Cut="0.0000000000000000e+00" cType="1" res="-2.5705903768539429e-02" rms="1.2718202173709869e-01" purity="2.0226249471306801e-02" nType="-99"/>
            <Node pos="r" depth="3" NCoef="0" IVar="-1" Cut="0.0000000000000000e+00" cType="1" res="1.9719878211617470e-02" rms="2.4597732722759247e-01" purity="8.3513730764389038e-01" nType="-99"/>
          </Node>
          <Node pos="r" depth="2" NCoef="0" IVar="4" Cut="2.1165159606933594e+02" cType="1" res="-1.2259694747626781e-02" rms="1.9002939760684967e-01" purity="3.2224237918853760e-01" nType="0">
            <Node pos="l" depth="3" NCoef="0" IVar="-1" Cut="0.0000000000000000e+00" cType="1" res="-1.3575314544141293e-02" rms="1.4737150073051453e-01" purity="5.1179941743612289e-02" nType="-99"/>
            <Node pos="r" depth="3" NCoef="0" IVar="-1" Cut="0.0000000000000000e+00" cType="1" res="-4.4515781104564667e-02" rms="2.3045890033245087e-01" purity="6.4646321535110474e-01" nType="-99"/>
          </Node>
        </Node>
      </Node>
    </BinaryTree>
    <BinaryTree type="DecisionTree" boostWeight="1.0000000000000000e+00" itree="165">
      <Node pos="s" depth="0" NCoef="0" IVar="6" Cut="1.0973118591308594e+02" cType="1" res="1.8098197178915143e-03" rms="1.8251936137676239e-01" purity="4.9765998125076294e-01" nType="0">
        <Node pos="l" depth="1" NCoef="0" IVar="3" Cut="4.8063482666015625e+02" cType="1" res="-1.3463221257552505e-03" rms="1.8004533648490906e-01" purity="1.3907498121261597e-01" nType="0">
          <Node pos="l" depth="2" NCoef="0" IVar="0" Cut="1.7621801757812500e+03" cType="1" res="-3.2216978725045919e-03" rms="1.6927093267440796e-01" purity="7.7478736639022827e-02" nType="0">
            <Node pos="l" depth="3" NCoef="0" IVar="-1" Cut="0.0000000000000000e+00" cType="1" res="-5.7405764237046242e-03" rms="8.9229360222816467e-02" purity="8.3643812686204910e-03" nType="-99"/>
            <Node pos="r" depth="3" NCoef="0" IVar="-1" Cut="0.0000000000000000e+00" cType="1" res="-1.2471936643123627e-02" rms="2.8116124868392944e-01" purity="2.4603724479675293e-01" nType="-99"/>
          </Node>
          <Node pos="r" depth="2" NCoef="0" IVar="-1" Cut="0.0000000000000000e+00" cType="1" res="2.3173190653324127e-02" rms="2.6036480069160461e-01" purity="7.2372877597808838e-01" nType="-99"/>
        </Node>
        <Node pos="r" depth="1" NCoef="0" IVar="0" Cut="2.4651232910156250e+03" cType="1" res="4.3595093302428722e-03" rms="1.8445433676242828e-01" purity="7.8734296560287476e-01" nType="0">
          <Node pos="l" depth="2" NCoef="0" IVar="0" Cut="2.2622434082031250e+03" cType="1" res="1.0721677914261818e-02" rms="2.9118725657463074e-01" purity="2.8209781646728516e-01" nType="0">
            <Node pos="l" depth="3" NCoef="0" IVar="-1" Cut="0.0000000000000000e+00" cType="1" res="5.1161507144570351e-03" rms="2.8305768966674805e-01" purity="1.7144508659839630e-01" nType="-99"/>
            <Node pos="r" depth="3" NCoef="0" IVar="-1" Cut="0.0000000000000000e+00" cType="1" res="3.4219630062580109e-02" rms="3.2490628957748413e-01" purity="8.0346035957336426e-01" nType="-99"/>
          </Node>
          <Node pos="r" depth="2" NCoef="0" IVar="1" Cut="4.0616527199745178e-02" cType="1" res="1.9028515089303255e-03" rms="1.1999563127756119e-01" purity="9.8243600130081177e-01" nType="0">
            <Node pos="l" depth="3" NCoef="0" IVar="-1" Cut="0.0000000000000000e+00" cType="1" res="3.0769741162657738e-02" rms="2.0919001102447510e-01" purity="9.3601775169372559e-01" nType="-99"/>
            <Node pos="r" depth="3" NCoef="0" IVar="-1" Cut="0.0000000000000000e+00" cType="1" res="2.2045776713639498e-03" rms="1.0503835976123810e-01" purity="9.8771524429321289e-01" nType="-99"/>
          </Node>
        </Node>
      </Node>
    </BinaryTree>
    <BinaryTree type="DecisionTree" boostWeight="1.0000000000000000e+00" itree="166">
      <Node pos="s" depth="0" NCoef="0" IVar="9" Cut="9.3301826715469360e-01" cType="1" res="5.1315635209903121e-04" rms="1.8159565329551697e-01" purity="4.9820891022682190e-01" nType="0">
        <Node pos="l" depth="1" NCoef="0" IVar="10" Cut="1.4665015935897827e+00" cType="1" res="-1.0349430376663804e-03" rms="1.7774958908557892e-01" purity="5.2678251266479492e-01" nType="0">
          <Node pos="l" depth="2" NCoef="0" IVar="11" Cut="1.3363702595233917e-01" cType="1" res="-9.3975220806896687e-05" rms="1.7594523727893829e-01" purity="5.4837119579315186e-01" nType="0">
            <Node pos="l" depth="3" NCoef="0" IVar="-1" Cut="0.0000000000000000e+00" cType="1" res="-8.7231462821364403e-03" rms="1.6897842288017273e-01" purity="5.3198212385177612e-01" nType="-99"/>
            <Node pos="r" depth="3" NCoef="0" IVar="-1" Cut="0.0000000000000000e+00" cType="1" res="9.3414224684238434e-03" rms="1.8449027836322784e-01" purity="5.6950700283050537e-01" nType="-99"/>
          </Node>
          <Node pos="r" depth="2" NCoef="0" IVar="8" Cut="1.3146381080150604e-01" cType="1" res="-1.0470695793628693e-02" rms="1.9467042386531830e-01" purity="3.1029781699180603e-01" nType="0">
            <Node pos="l" depth="3" NCoef="0" IVar="-1" Cut="0.0000000000000000e+00" cType="1" res="-4.2067490518093109e-02" rms="1.8785305321216583e-01" purity="2.9789963364601135e-01" nType="-99"/>
            <Node pos="r" depth="3" NCoef="0" IVar="-1" Cut="0.0000000000000000e+00" cType="1" res="-9.5214033499360085e-03" rms="2.0151753723621368e-01" purity="3.2362613081932068e-01" nType="-99"/>
          </Node>
        </Node>
        <Node pos="r" depth="1" NCoef="0" IVar="0" Cut="1.8578043212890625e+03" cType="1" res="7.5026098638772964e-03" rms="1.9788168370723724e-01" purity="3.6920288205146790e-01" nType="0">
          <Node pos="l" depth="2" NCoef="0" IVar="6" Cut="8.6873947143554688e+01" cType="1" res="-5.4309569532051682e-04" rms="1.0960360616445541e-01" purity="1.3414836488664150e-02" nType="0">
            <Node pos="l" depth="3" NCoef="0" IVar="-1" Cut="0.0000000000000000e+00" cType="1" res="-8.5765868425369263e-02" rms="3.5354532301425934e-02" purity="1.1380487121641636e-03" nType="-99"/>
            <Node pos="r" depth="3" NCoef="0" IVar="-1" Cut="0.0000000000000000e+00" cType="1" res="2.7005527168512344e-02" rms="1.5411388874053955e-01" purity="2.6878897100687027e-02" nType="-99"/>
          </Node>
          <Node pos="r" depth="2" NCoef="0" IVar="4" Cut="2.3969731140136719e+02" cType="1" res="1.5953285619616508e-02" rms="2.5986194610595703e-01" purity="7.4289911985397339e-01" nType="0">
            <Node pos="l" depth="3" NCoef="0" IVar="-1" Cut="0.0000000000000000e+00" cType="1" res="4.0724113583564758e-02" rms="3.3739495277404785e-01" purity="4.9275913834571838e-01" nType="-99"/>
            <Node pos="r" depth="3" NCoef="0" IVar="-1" Cut="0.0000000000000000e+00" cType="1" res="4.7199395485222340e-03" rms="2.0675203204154968e-01" purity="8.7379139661788940e-01" nType="-99"/>
          </Node>
        </Node>
      </Node>
    </BinaryTree>
    <BinaryTree type="DecisionTree" boostWeight="1.0000000000000000e+00" itree="167">
      <Node pos="s" depth="0" NCoef="0" IVar="9" Cut="-1.1991752386093140e+00" cType="1" res="9.0065546100959182e-04" rms="1.8583090603351593e-01" purity="4.9941515922546387e-01" nType="0">
        <Node pos="l" depth="1" NCoef="0" IVar="5" Cut="1.7838276672363281e+02" cType="1" res="-6.3964342698454857e-03" rms="1.9134345650672913e-01" purity="2.7597987651824951e-01" nType="0">
          <Node pos="l" depth="2" NCoef="0" IVar="7" Cut="2.4887718260288239e-01" cType="1" res="-1.4599921414628625e-03" rms="1.7269895970821381e-01" purity="9.8145566880702972e-02" nType="0">
            <Node pos="l" depth="3" NCoef="0" IVar="-1" Cut="0.0000000000000000e+00" cType="1" res="1.9802590832114220e-02" rms="1.8689440190792084e-01" purity="1.2295468151569366e-01" nType="-99"/>
            <Node pos="r" depth="3" NCoef="0" IVar="-1" Cut="0.0000000000000000e+00" cType="1" res="-4.5174773782491684e-02" rms="1.4813505113124847e-01" purity="6.1110608279705048e-02" nType="-99"/>
          </Node>
          <Node pos="r" depth="2" NCoef="0" IVar="-1" Cut="0.0000000000000000e+00" cType="1" res="-3.6966025829315186e-02" rms="2.3280930519104004e-01" purity="7.4287122488021851e-01" nType="-99"/>
        </Node>
        <Node pos="r" depth="1" NCoef="0" IVar="2" Cut="3.1393209838867188e+02" cType="1" res="1.9540556240826845e-03" rms="1.8499778211116791e-01" purity="5.3167003393173218e-01" nType="0">
          <Node pos="l" depth="2" NCoef="0" IVar="7" Cut="2.1902088820934296e-01" cType="1" res="-7.9745594412088394e-03" rms="1.5351504087448120e-01" purity="4.1922722011804581e-02" nType="0">
            <Node pos="l" depth="3" NCoef="0" IVar="-1" Cut="0.0000000000000000e+00" cType="1" res="-5.9077799320220947e-02" rms="1.5222217142581940e-01" purity="4.1942849755287170e-02" nType="-99"/>
            <Node pos="r" depth="3" NCoef="0" IVar="-1" Cut="0.0000000000000000e+00" cType="1" res="8.1166764721274376e-03" rms="1.5454432368278503e-01" purity="4.1897810995578766e-02" nType="-99"/>
          </Node>
          <Node pos="r" depth="2" NCoef="0" IVar="5" Cut="2.2177279663085938e+02" cType="1" res="2.6505133137106895e-03" rms="1.8698757886886597e-01" purity="5.6602412462234497e-01" nType="0">
            <Node pos="l" depth="3" NCoef="0" IVar="-1" Cut="0.0000000000000000e+00" cType="1" res="1.0179458186030388e-02" rms="2.1513520181179047e-01" purity="3.0492126941680908e-01" nType="-99"/>
            <Node pos="r" depth="3" NCoef="0" IVar="-1" Cut="0.0000000000000000e+00" cType="1" res="-1.4463022816926241e-03" rms="1.3329455256462097e-01" purity="9.6239614486694336e-01" nType="-99"/>
          </Node>
        </Node>
      </Node>
    </BinaryTree>
    <BinaryTree type="DecisionTree" boostWeight="1.0000000000000000e+00" itree="168">
      <Node pos="s" depth="0" NCoef="0" IVar="10" Cut="1.4664783477783203e+00" cType="1" res="1.1736237502191216e-04" rms="1.8421174585819244e-01" purity="5.0217157602310181e-01" nType="0">
        <Node pos="l" depth="1" NCoef="0" IVar="3" Cut="2.2287554931640625e+02" cType="1" res="1.0907850228250027e-03" rms="1.8259631097316742e-01" purity="5.2174872159957886e-01" nType="0">
          <Node pos="l" depth="2" NCoef="0" IVar="4" Cut="1.5019479370117188e+02" cType="1" res="7.7231507748365402e-03" rms="1.4735424518585205e-01" purity="4.0761385113000870e-02" nType="0">
            <Node pos="l" depth="3" NCoef="0" IVar="-1" Cut="0.0000000000000000e+00" cType="1" res="-7.8669721260666847e-03" rms="9.6090011298656464e-02" purity="1.0543639771640301e-02" nType="-99"/>
            <Node pos="r" depth="3" NCoef="0" IVar="-1" Cut="0.0000000000000000e+00" cType="1" res="6.9410368800163269e-02" rms="1.9089733064174652e-01" purity="7.6881237328052521e-02" nType="-99"/>
          </Node>
          <Node pos="r" depth="2" NCoef="0" IVar="3" Cut="2.9639886474609375e+02" cType="1" res="-1.1814767640316859e-04" rms="1.8828564882278442e-01" purity="6.0942208766937256e-01" nType="0">
            <Node pos="l" depth="3" NCoef="0" IVar="-1" Cut="0.0000000000000000e+00" cType="1" res="-1.9953940063714981e-02" rms="1.8283954262733459e-01" purity="1.1694437265396118e-01" nType="-99"/>
            <Node pos="r" depth="3" NCoef="0" IVar="-1" Cut="0.0000000000000000e+00" cType="1" res="5.4276874288916588e-03" rms="1.8984456360340118e-01" purity="7.5774192810058594e-01" nType="-99"/>
          </Node>
        </Node>
        <Node pos="r" depth="1" NCoef="0" IVar="6" Cut="8.6186073303222656e+01" cType="1" res="-9.5391189679503441e-03" rms="1.9927257299423218e-01" purity="3.0796349048614502e-01" nType="0">
          <Node pos="l" depth="2" NCoef="0" IVar="-1" Cut="0.0000000000000000e+00" cType="1" res="2.6381377130746841e-02" rms="1.6860584914684296e-01" purity="8.5193768143653870e-02" nType="-99"/>
          <Node pos="r" depth="2" NCoef="0" IVar="0" Cut="2.1419279785156250e+03" cType="1" res="-1.8837122246623039e-02" rms="2.1368332207202911e-01" purity="4.3028929829597473e-01" nType="0">
            <Node pos="l" depth="3" NCoef="0" IVar="-1" Cut="0.0000000000000000e+00" cType="1" res="-2.5885773822665215e-02" rms="1.7256692051887512e-01" purity="5.4171133786439896e-02" nType="-99"/>
            <Node pos="r" depth="3" NCoef="0" IVar="-1" Cut="0.0000000000000000e+00" cType="1" res="-4.9283333122730255e-02" rms="2.5304698944091797e-01" purity="8.6867952346801758e-01" nType="-99"/>
          </Node>
        </Node>
      </Node>
    </BinaryTree>
    <BinaryTree type="DecisionTree" boostWeight="1.0000000000000000e+00" itree="169">
      <Node pos="s" depth="0" NCoef="0" IVar="10" Cut="-1.9991481304168701e+00" cType="1" res="-2.6645092293620110e-03" rms="1.8227666616439819e-01" purity="4.9545845389366150e-01" nType="0">
        <Node pos="l" depth="1" NCoef="0" IVar="-1" Cut="0.0000000000000000e+00" cType="1" res="-4.4665031135082245e-02" rms="2.0772939920425415e-01" purity="1.9434982538223267e-01" nType="-99"/>
        <Node pos="r" depth="1" NCoef="0" IVar="6" Cut="1.4345446777343750e+02" cType="1" res="-2.0948247984051704e-03" rms="1.8131555616855621e-01" purity="5.0576090812683105e-01" nType="0">
          <Node pos="l" depth="2" NCoef="0" IVar="6" Cut="8.5724380493164062e+01" cType="1" res="-4.5619383454322815e-03" rms="1.9836135208606720e-01" purity="2.3623542487621307e-01" nType="0">
            <Node pos="l" depth="3" NCoef="0" IVar="-1" Cut="0.0000000000000000e+00" cType="1" res="7.9918646952137351e-04" rms="1.6057504713535309e-01" purity="9.2852205038070679e-02" nType="-99"/>
            <Node pos="r" depth="3" NCoef="0" IVar="-1" Cut="0.0000000000000000e+00" cType="1" res="-1.6743024811148643e-02" rms="2.2226811945438385e-01" purity="3.4285619854927063e-01" nType="-99"/>
          </Node>
          <Node pos="r" depth="2" NCoef="0" IVar="5" Cut="1.8281149291992188e+02" cType="1" res="1.5681360382586718e-03" rms="1.5245969593524933e-01" purity="9.0592938661575317e-01" nType="0">
            <Node pos="l" depth="3" NCoef="0" IVar="-1" Cut="0.0000000000000000e+00" cType="1" res="-2.6770962402224541e-02" rms="2.2292681038379669e-01" purity="4.8592561483383179e-01" nType="-99"/>
            <Node pos="r" depth="3" NCoef="0" IVar="-1" Cut="0.0000000000000000e+00" cType="1" res="1.6222393140196800e-02" rms="1.4215017855167389e-01" purity="9.5358568429946899e-01" nType="-99"/>
          </Node>
        </Node>
      </Node>
    </BinaryTree>
    <BinaryTree type="DecisionTree" boostWeight="1.0000000000000000e+00" itree="170">
      <Node pos="s" depth="0" NCoef="0" IVar="8" Cut="-3.9959970116615295e-01" cType="1" res="-1.1913419002667069e-03" rms="1.8560548126697540e-01" purity="5.0423681735992432e-01" nType="0">
        <Node pos="l" depth="1" NCoef="0" IVar="10" Cut="3.9993956685066223e-01" cType="1" res="2.3057875223457813e-03" rms="1.9239526987075806e-01" purity="4.3509238958358765e-01" nType="0">
          <Node pos="l" depth="2" NCoef="0" IVar="4" Cut="2.7485717773437500e+02" cType="1" res="-1.3589990558102727e-03" rms="1.8891599774360657e-01" purity="4.4398769736289978e-01" nType="0">
            <Node pos="l" depth="3" NCoef="0" IVar="-1" Cut="0.0000000000000000e+00" cType="1" res="6.7443461157381535e-03" rms="1.9579415023326874e-01" purity="1.6830734908580780e-01" nType="-99"/>
            <Node pos="r" depth="3" NCoef="0" IVar="-1" Cut="0.0000000000000000e+00" cType="1" res="-2.5146471336483955e-02" rms="1.7705841362476349e-01" purity="8.8965731859207153e-01" nType="-99"/>
          </Node>
          <Node pos="r" depth="2" NCoef="0" IVar="8" Cut="-1.0849926471710205e+00" cType="1" res="9.4555858522653580e-03" rms="1.9881373643875122e-01" purity="4.1773819923400879e-01" nType="0">
            <Node pos="l" depth="3" NCoef="0" IVar="-1" Cut="0.0000000000000000e+00" cType="1" res="-6.7017914261668921e-04" rms="1.8025006353855133e-01" purity="1.9931910932064056e-01" nType="-99"/>
            <Node pos="r" depth="3" NCoef="0" IVar="-1" Cut="0.0000000000000000e+00" cType="1" res="4.2696479707956314e-02" rms="2.1020293235778809e-01" purity="5.6564670801162720e-01" nType="-99"/>
          </Node>
        </Node>
        <Node pos="r" depth="1" NCoef="0" IVar="11" Cut="-1.7320452928543091e+00" cType="1" res="-2.9789560940116644e-03" rms="1.8201102316379547e-01" purity="5.3958117961883545e-01" nType="0">
          <Node pos="l" depth="2" NCoef="0" IVar="-1" Cut="0.0000000000000000e+00" cType="1" res="-3.4860324114561081e-02" rms="2.1996684372425079e-01" purity="3.6865863204002380e-01" nType="-99"/>
          <Node pos="r" depth="2" NCoef="0" IVar="4" Cut="2.6023141479492188e+02" cType="1" res="-2.1016341634094715e-03" rms="1.7884460091590881e-01" purity="5.5225658416748047e-01" nType="0">
            <Node pos="l" depth="3" NCoef="0" IVar="-1" Cut="0.0000000000000000e+00" cType="1" res="-1.4161297120153904e-02" rms="1.9620333611965179e-01" purity="1.6776400804519653e-01" nType="-99"/>
            <Node pos="r" depth="3" NCoef="0" IVar="-1" Cut="0.0000000000000000e+00" cType="1" res="4.1987770237028599e-03" rms="1.6070690751075745e-01" purity="9.1470152139663696e-01" nType="-99"/>
          </Node>
        </Node>
      </Node>
    </BinaryTree>
    <BinaryTree type="DecisionTree" boostWeight="1.0000000000000000e+00" itree="171">
      <Node pos="s" depth="0" NCoef="0" IVar="11" Cut="-1.7319355010986328e+00" cType="1" res="-2.5642773834988475e-04" rms="1.8482944369316101e-01" purity="5.0056982040405273e-01" nType="0">
        <Node pos="l" depth="1" NCoef="0" IVar="1" Cut="6.5162904560565948e-02" cType="1" res="1.0162089020013809e-02" rms="2.2401504218578339e-01" purity="3.7634247541427612e-01" nType="0">
          <Node pos="l" depth="2" NCoef="0" IVar="-1" Cut="0.0000000000000000e+00" cType="1" res="-1.1009759327862412e-04" rms="2.0710456371307373e-01" purity="1.6489562392234802e-01" nType="-99"/>
          <Node pos="r" depth="2" NCoef="0" IVar="-1" Cut="0.0000000000000000e+00" cType="1" res="5.0014134496450424e-02" rms="2.4545058608055115e-01" purity="6.7870682477951050e-01" nType="-99"/>
        </Node>
        <Node pos="r" depth="1" NCoef="0" IVar="9" Cut="6.6616725921630859e-01" cType="1" res="-1.1041663819923997e-03" rms="1.8124233186244965e-01" purity="5.1067793369293213e-01" nType="0">
          <Node pos="l" depth="2" NCoef="0" IVar="6" Cut="9.9721710205078125e+01" cType="1" res="7.0495047839358449e-04" rms="1.7994667589664459e-01" purity="5.4490602016448975e-01" nType="0">
            <Node pos="l" depth="3" NCoef="0" IVar="-1" Cut="0.0000000000000000e+00" cType="1" res="-9.4782076776027679e-03" rms="1.7039579153060913e-01" purity="1.2462435662746429e-01" nType="-99"/>
            <Node pos="r" depth="3" NCoef="0" IVar="-1" Cut="0.0000000000000000e+00" cType="1" res="7.8400326892733574e-03" rms="1.8456624448299408e-01" purity="7.5769817829132080e-01" nType="-99"/>
          </Node>
          <Node pos="r" depth="2" NCoef="0" IVar="0" Cut="2.3155903320312500e+03" cType="1" res="-6.3846064731478691e-03" rms="1.8487097322940826e-01" purity="4.1077333688735962e-01" nType="0">
            <Node pos="l" depth="3" NCoef="0" IVar="-1" Cut="0.0000000000000000e+00" cType="1" res="-3.0592735856771469e-02" rms="1.7625698447227478e-01" purity="6.0179408639669418e-02" nType="-99"/>
            <Node pos="r" depth="3" NCoef="0" IVar="-1" Cut="0.0000000000000000e+00" cType="1" res="1.0390144307166338e-03" rms="1.9671711325645447e-01" purity="9.2885613441467285e-01" nType="-99"/>
          </Node>
        </Node>
      </Node>
    </BinaryTree>
    <BinaryTree type="DecisionTree" boostWeight="1.0000000000000000e+00" itree="172">
      <Node pos="s" depth="0" NCoef="0" IVar="0" Cut="2.6364326171875000e+03" cType="1" res="-1.8768457230180502e-03" rms="1.8081860244274139e-01" purity="4.9217662215232849e-01" nType="0">
        <Node pos="l" depth="1" NCoef="0" IVar="5" Cut="2.2962074279785156e+02" cType="1" res="-3.6220874171704054e-03" rms="2.0936782658100128e-01" purity="1.4946465194225311e-01" nType="0">
          <Node pos="l" depth="2" NCoef="0" IVar="5" Cut="1.7866720581054688e+02" cType="1" res="-2.1358027588576078e-03" rms="1.9904176890850067e-01" purity="1.1323867738246918e-01" nType="0">
            <Node pos="l" depth="3" NCoef="0" IVar="-1" Cut="0.0000000000000000e+00" cType="1" res="-1.3123284094035625e-02" rms="1.7685660719871521e-01" purity="6.7407324910163879e-02" nType="-99"/>
            <Node pos="r" depth="3" NCoef="0" IVar="-1" Cut="0.0000000000000000e+00" cType="1" res="1.2705574743449688e-02" rms="3.0506777763366699e-01" purity="4.0823411941528320e-01" nType="-99"/>
          </Node>
          <Node pos="r" depth="2" NCoef="0" IVar="-1" Cut="0.0000000000000000e+00" cType="1" res="-2.4248752743005753e-02" rms="3.2208752632141113e-01" purity="6.6821140050888062e-01" nType="-99"/>
        </Node>
        <Node pos="r" depth="1" NCoef="0" IVar="5" Cut="1.5746766662597656e+02" cType="1" res="5.8738101506605744e-04" rms="1.3021652400493622e-01" purity="9.7607523202896118e-01" nType="0">
          <Node pos="l" depth="2" NCoef="0" IVar="-1" Cut="0.0000000000000000e+00" cType="1" res="1.6561465337872505e-02" rms="2.7672228217124939e-01" purity="8.6216932535171509e-01" nType="-99"/>
          <Node pos="r" depth="2" NCoef="0" IVar="6" Cut="1.2492972564697266e+02" cType="1" res="-4.3584304512478411e-04" rms="1.1024162173271179e-01" purity="9.8522496223449707e-01" nType="0">
            <Node pos="l" depth="3" NCoef="0" IVar="-1" Cut="0.0000000000000000e+00" cType="1" res="-4.0474515408277512e-02" rms="2.1199356019496918e-01" purity="9.4104838371276855e-01" nType="-99"/>
            <Node pos="r" depth="3" NCoef="0" IVar="-1" Cut="0.0000000000000000e+00" cType="1" res="1.4745501801371574e-02" rms="8.7959103286266327e-02" purity="9.9113786220550537e-01" nType="-99"/>
          </Node>
        </Node>
      </Node>
    </BinaryTree>
    <BinaryTree type="DecisionTree" boostWeight="1.0000000000000000e+00" itree="173">
      <Node pos="s" depth="0" NCoef="0" IVar="9" Cut="1.1996176242828369e+00" cType="1" res="-3.4402776509523392e-04" rms="1.8596187233924866e-01" purity="4.9952134490013123e-01" nType="0">
        <Node pos="l" depth="1" NCoef="0" IVar="8" Cut="-1.1958948373794556e+00" cType="1" res="-1.3210629113018513e-03" rms="1.8403673171997070e-01" purity="5.2885651588439941e-01" nType="0">
          <Node pos="l" depth="2" NCoef="0" IVar="7" Cut="-1.7791679129004478e-02" cType="1" res="6.5738605335354805e-03" rms="1.9230128824710846e-01" purity="2.2746017575263977e-01" nType="0">
            <Node pos="l" depth="3" NCoef="0" IVar="-1" Cut="0.0000000000000000e+00" cType="1" res="4.6839196234941483e-02" rms="2.0246651768684387e-01" purity="2.8495022654533386e-01" nType="-99"/>
            <Node pos="r" depth="3" NCoef="0" IVar="-1" Cut="0.0000000000000000e+00" cType="1" res="-8.3095366135239601e-03" rms="1.8304678797721863e-01" purity="1.8029862642288208e-01" nType="-99"/>
          </Node>
          <Node pos="r" depth="2" NCoef="0" IVar="8" Cut="-1.0055419206619263e+00" cType="1" res="-2.2135199978947639e-03" rms="1.8305759131908417e-01" purity="5.6292688846588135e-01" nType="0">
            <Node pos="l" depth="3" NCoef="0" IVar="-1" Cut="0.0000000000000000e+00" cType="1" res="-4.4146873056888580e-02" rms="2.3882719874382019e-01" purity="4.1403415799140930e-01" nType="-99"/>
            <Node pos="r" depth="3" NCoef="0" IVar="-1" Cut="0.0000000000000000e+00" cType="1" res="-4.3377517722547054e-03" rms="1.8000231683254242e-01" purity="5.6986343860626221e-01" nType="-99"/>
          </Node>
        </Node>
        <Node pos="r" depth="1" NCoef="0" IVar="4" Cut="2.6442095947265625e+02" cType="1" res="6.3460823148488998e-03" rms="1.9851425290107727e-01" purity="2.9865267872810364e-01" nType="0">
          <Node pos="l" depth="2" NCoef="0" IVar="0" Cut="1.8435395507812500e+03" cType="1" res="1.2131618335843086e-02" rms="1.8597859144210815e-01" purity="1.5349705517292023e-01" nType="0">
            <Node pos="l" depth="3" NCoef="0" IVar="-1" Cut="0.0000000000000000e+00" cType="1" res="1.7653061076998711e-02" rms="1.0860933363437653e-01" purity="1.2342615053057671e-02" nType="-99"/>
            <Node pos="r" depth="3" NCoef="0" IVar="-1" Cut="0.0000000000000000e+00" cType="1" res="4.1343741118907928e-02" rms="3.0362451076507568e-01" purity="5.1632285118103027e-01" nType="-99"/>
          </Node>
          <Node pos="r" depth="2" NCoef="0" IVar="-1" Cut="0.0000000000000000e+00" cType="1" res="-2.5097208097577095e-02" rms="2.3379150032997131e-01" purity="7.7194321155548096e-01" nType="-99"/>
        </Node>
      </Node>
    </BinaryTree>
    <BinaryTree type="DecisionTree" boostWeight="1.0000000000000000e+00" itree="174">
      <Node pos="s" depth="0" NCoef="0" IVar="1" Cut="1.4117304980754852e-01" cType="1" res="1.9130103464704007e-04" rms="1.8230471014976501e-01" purity="4.9861961603164673e-01" nType="0">
        <Node pos="l" depth="1" NCoef="0" IVar="11" Cut="4.0050038695335388e-01" cType="1" res="-1.1363867670297623e-03" rms="1.8980020284652710e-01" purity="4.0413889288902283e-01" nType="0">
          <Node pos="l" depth="2" NCoef="0" IVar="3" Cut="4.6462469482421875e+02" cType="1" res="1.1529355542734265e-03" rms="1.8665888905525208e-01" purity="4.1248378157615662e-01" nType="0">
            <Node pos="l" depth="3" NCoef="0" IVar="-1" Cut="0.0000000000000000e+00" cType="1" res="9.0647647157311440e-03" rms="1.9122555851936340e-01" purity="2.3861771821975708e-01" nType="-99"/>
            <Node pos="r" depth="3" NCoef="0" IVar="-1" Cut="0.0000000000000000e+00" cType="1" res="-1.7385141924023628e-02" rms="1.7304387688636780e-01" purity="9.0087139606475830e-01" nType="-99"/>
          </Node>
          <Node pos="r" depth="2" NCoef="0" IVar="1" Cut="5.3845264017581940e-02" cType="1" res="-4.9760993570089340e-03" rms="1.9489490985870361e-01" purity="3.9014258980751038e-01" nType="0">
            <Node pos="l" depth="3" NCoef="0" IVar="-1" Cut="0.0000000000000000e+00" cType="1" res="2.5253745261579752e-03" rms="1.8182983994483948e-01" purity="2.0980817079544067e-01" nType="-99"/>
            <Node pos="r" depth="3" NCoef="0" IVar="-1" Cut="0.0000000000000000e+00" cType="1" res="-2.6843670755624771e-02" rms="2.0882840454578400e-01" purity="5.9943771362304688e-01" nType="-99"/>
          </Node>
        </Node>
        <Node pos="r" depth="1" NCoef="0" IVar="5" Cut="1.8017489624023438e+02" cType="1" res="5.3935460746288300e-03" rms="1.4923986792564392e-01" purity="8.6882126331329346e-01" nType="0">
          <Node pos="l" depth="2" NCoef="0" IVar="-1" Cut="0.0000000000000000e+00" cType="1" res="3.6012131720781326e-02" rms="2.4557374417781830e-01" purity="4.5857796072959900e-01" nType="-99"/>
          <Node pos="r" depth="2" NCoef="0" IVar="11" Cut="4.0209850668907166e-01" cType="1" res="1.4738147146999836e-03" rms="1.1308032274246216e-01" purity="9.7029715776443481e-01" nType="0">
            <Node pos="l" depth="3" NCoef="0" IVar="-1" Cut="0.0000000000000000e+00" cType="1" res="-7.9808486625552177e-03" rms="1.1056647449731827e-01" purity="9.7198814153671265e-01" nType="-99"/>
            <Node pos="r" depth="3" NCoef="0" IVar="-1" Cut="0.0000000000000000e+00" cType="1" res="3.5516183823347092e-02" rms="1.1733270436525345e-01" purity="9.6725541353225708e-01" nType="-99"/>
          </Node>
        </Node>
      </Node>
    </BinaryTree>
    <BinaryTree type="DecisionTree" boostWeight="1.0000000000000000e+00" itree="175">
      <Node pos="s" depth="0" NCoef="0" IVar="2" Cut="4.2920382690429688e+02" cType="1" res="2.9128874302841723e-04" rms="1.8647351861000061e-01" purity="4.9890947341918945e-01" nType="0">
        <Node pos="l" depth="1" NCoef="0" IVar="0" Cut="1.5300622558593750e+03" cType="1" res="4.6038404107093811e-03" rms="1.8720257282257080e-01" purity="1.2302830070257187e-01" nType="0">
          <Node pos="l" depth="2" NCoef="0" IVar="5" Cut="1.3935426330566406e+02" cType="1" res="-3.2859202474355698e-03" rms="5.4607801139354706e-02" purity="2.9720035381615162e-03" nType="0">
            <Node pos="l" depth="3" NCoef="0" IVar="-1" Cut="0.0000000000000000e+00" cType="1" res="-3.0967406928539276e-02" rms="5.8571480214595795e-02" purity="3.4464816562831402e-03" nType="-99"/>
            <Node pos="r" depth="3" NCoef="0" IVar="-1" Cut="0.0000000000000000e+00" cType="1" res="-8.2651972770690918e-02" rms="4.2560067027807236e-02" purity="1.7633270472288132e-03" nType="-99"/>
          </Node>
          <Node pos="r" depth="2" NCoef="0" IVar="2" Cut="3.0925936889648438e+02" cType="1" res="1.0809440165758133e-02" rms="2.4530786275863647e-01" purity="2.1745719015598297e-01" nType="0">
            <Node pos="l" depth="3" NCoef="0" IVar="-1" Cut="0.0000000000000000e+00" cType="1" res="7.5044535100460052e-02" rms="2.6291680335998535e-01" purity="1.1931043118238449e-01" nType="-99"/>
            <Node pos="r" depth="3" NCoef="0" IVar="-1" Cut="0.0000000000000000e+00" cType="1" res="1.0239671915769577e-02" rms="2.4064424633979797e-01" purity="2.4085058271884918e-01" nType="-99"/>
          </Node>
        </Node>
        <Node pos="r" depth="1" NCoef="0" IVar="7" Cut="7.5383740663528442e-01" cType="1" res="-1.2217982439324260e-03" rms="1.8619337677955627e-01" purity="6.3078981637954712e-01" nType="0">
          <Node pos="l" depth="2" NCoef="0" IVar="7" Cut="-6.6939008235931396e-01" cType="1" res="1.0404632193967700e-03" rms="1.8496847152709961e-01" purity="6.7569303512573242e-01" nType="0">
            <Node pos="l" depth="3" NCoef="0" IVar="-1" Cut="0.0000000000000000e+00" cType="1" res="-1.6679743304848671e-02" rms="1.9719839096069336e-01" purity="4.2353487014770508e-01" nType="-99"/>
            <Node pos="r" depth="3" NCoef="0" IVar="-1" Cut="0.0000000000000000e+00" cType="1" res="9.6920058131217957e-03" rms="1.8125697970390320e-01" purity="7.4788987636566162e-01" nType="-99"/>
          </Node>
          <Node pos="r" depth="2" NCoef="0" IVar="6" Cut="1.1362762451171875e+02" cType="1" res="-1.3439322821795940e-02" rms="1.9221444427967072e-01" purity="3.8828644156455994e-01" nType="0">
            <Node pos="l" depth="3" NCoef="0" IVar="-1" Cut="0.0000000000000000e+00" cType="1" res="5.1743560470640659e-03" rms="1.6585396230220795e-01" purity="1.1418046057224274e-01" nType="-99"/>
            <Node pos="r" depth="3" NCoef="0" IVar="-1" Cut="0.0000000000000000e+00" cType="1" res="-5.3805310279130936e-02" rms="2.1428681910037994e-01" purity="6.6192245483398438e-01" nType="-99"/>
          </Node>
        </Node>
      </Node>
    </BinaryTree>
    <BinaryTree type="DecisionTree" boostWeight="1.0000000000000000e+00" itree="176">
      <Node pos="s" depth="0" NCoef="0" IVar="0" Cut="2.1988215332031250e+03" cType="1" res="-6.6734448773786426e-04" rms="1.8745359778404236e-01" purity="4.9593979120254517e-01" nType="0">
        <Node pos="l" depth="1" NCoef="0" IVar="0" Cut="2.0847038574218750e+03" cType="1" res="2.4886955507099628e-03" rms="1.8532478809356689e-01" purity="5.6920066475868225e-02" nType="0">
          <Node pos="l" depth="2" NCoef="0" IVar="1" Cut="5.7000935077667236e-02" cType="1" res="7.1132654557004571e-04" rms="1.6538541018962860e-01" purity="3.8418747484683990e-02" nType="0">
            <Node pos="l" depth="3" NCoef="0" IVar="-1" Cut="0.0000000000000000e+00" cType="1" res="-1.4310987666249275e-02" rms="1.1914467066526413e-01" purity="1.7189109697937965e-02" nType="-99"/>
            <Node pos="r" depth="3" NCoef="0" IVar="-1" Cut="0.0000000000000000e+00" cType="1" res="1.4523857273161411e-02" rms="2.3597367107868195e-01" purity="8.4238976240158081e-02" nType="-99"/>
          </Node>
          <Node pos="r" depth="2" NCoef="0" IVar="-1" Cut="0.0000000000000000e+00" cType="1" res="2.2961359471082687e-02" rms="3.9068126678466797e-01" purity="3.7244576215744019e-01" nType="-99"/>
        </Node>
        <Node pos="r" depth="1" NCoef="0" IVar="10" Cut="-1.4655169248580933e+00" cType="1" res="-3.7088801618665457e-03" rms="1.8943278491497040e-01" purity="9.1903138160705566e-01" nType="0">
          <Node pos="l" depth="2" NCoef="0" IVar="-1" Cut="0.0000000000000000e+00" cType="1" res="-3.8898251950740814e-02" rms="2.6291370391845703e-01" purity="7.9529261589050293e-01" nType="-99"/>
          <Node pos="r" depth="2" NCoef="0" IVar="1" Cut="8.6863942444324493e-02" cType="1" res="-1.9887008238583803e-03" rms="1.8265382945537567e-01" purity="9.2826277017593384e-01" nType="0">
            <Node pos="l" depth="3" NCoef="0" IVar="-1" Cut="0.0000000000000000e+00" cType="1" res="-1.2172767892479897e-02" rms="2.4518217146396637e-01" purity="8.4917330741882324e-01" nType="-99"/>
            <Node pos="r" depth="3" NCoef="0" IVar="-1" Cut="0.0000000000000000e+00" cType="1" res="9.4102602452039719e-03" rms="1.2287461012601852e-01" purity="9.8217087984085083e-01" nType="-99"/>
          </Node>
        </Node>
      </Node>
    </BinaryTree>
    <BinaryTree type="DecisionTree" boostWeight="1.0000000000000000e+00" itree="177">
      <Node pos="s" depth="0" NCoef="0" IVar="2" Cut="5.3876843261718750e+02" cType="1" res="3.2163606374524534e-04" rms="1.7999078333377838e-01" purity="5.0048869848251343e-01" nType="0">
        <Node pos="l" depth="1" NCoef="0" IVar="0" Cut="1.6891258544921875e+03" cType="1" res="-3.1779576092958450e-03" rms="1.8975132703781128e-01" purity="2.2408710420131683e-01" nType="0">
          <Node pos="l" depth="2" NCoef="0" IVar="0" Cut="1.5651992187500000e+03" cType="1" res="1.6934095183387399e-03" rms="9.7183115780353546e-02" purity="9.7089810296893120e-03" nType="0">
            <Node pos="l" depth="3" NCoef="0" IVar="-1" Cut="0.0000000000000000e+00" cType="1" res="-1.3129307888448238e-02" rms="6.8698868155479431e-02" purity="4.7628586180508137e-03" nType="-99"/>
            <Node pos="r" depth="3" NCoef="0" IVar="-1" Cut="0.0000000000000000e+00" cType="1" res="5.3270597010850906e-02" rms="1.4119918644428253e-01" purity="2.0736224949359894e-02" nType="-99"/>
          </Node>
          <Node pos="r" depth="2" NCoef="0" IVar="8" Cut="-6.5938746929168701e-01" cType="1" res="-9.2528574168682098e-03" rms="2.6279708743095398e-01" purity="4.9143007397651672e-01" nType="0">
            <Node pos="l" depth="3" NCoef="0" IVar="-1" Cut="0.0000000000000000e+00" cType="1" res="-3.3124715089797974e-02" rms="2.5508892536163330e-01" purity="3.9337894320487976e-01" nType="-99"/>
            <Node pos="r" depth="3" NCoef="0" IVar="-1" Cut="0.0000000000000000e+00" cType="1" res="-5.6887618266046047e-03" rms="2.6513221859931946e-01" purity="5.2441293001174927e-01" nType="-99"/>
          </Node>
        </Node>
        <Node pos="r" depth="1" NCoef="0" IVar="11" Cut="-1.1989735364913940e+00" cType="1" res="3.2201872672885656e-03" rms="1.7143237590789795e-01" purity="7.2941923141479492e-01" nType="0">
          <Node pos="l" depth="2" NCoef="0" IVar="0" Cut="2.6044086914062500e+03" cType="1" res="-8.9079355821013451e-03" rms="1.8752849102020264e-01" purity="5.9442019462585449e-01" nType="0">
            <Node pos="l" depth="3" NCoef="0" IVar="-1" Cut="0.0000000000000000e+00" cType="1" res="-3.8276847451925278e-02" rms="2.1854338049888611e-01" purity="1.4783802628517151e-01" nType="-99"/>
            <Node pos="r" depth="3" NCoef="0" IVar="-1" Cut="0.0000000000000000e+00" cType="1" res="1.5145951183512807e-03" rms="1.5682427585124969e-01" purity="9.6259069442749023e-01" nType="-99"/>
          </Node>
          <Node pos="r" depth="2" NCoef="0" IVar="11" Cut="1.2764199972152710e+00" cType="1" res="5.4829264990985394e-03" rms="1.6816218197345734e-01" purity="7.5460600852966309e-01" nType="0">
            <Node pos="l" depth="3" NCoef="0" IVar="-1" Cut="0.0000000000000000e+00" cType="1" res="1.1639036238193512e-02" rms="1.6497014462947845e-01" purity="7.6610749959945679e-01" nType="-99"/>
            <Node pos="r" depth="3" NCoef="0" IVar="-1" Cut="0.0000000000000000e+00" cType="1" res="4.0870767086744308e-02" rms="1.8464122712612152e-01" purity="6.9009524583816528e-01" nType="-99"/>
          </Node>
        </Node>
      </Node>
    </BinaryTree>
    <BinaryTree type="DecisionTree" boostWeight="1.0000000000000000e+00" itree="178">
      <Node pos="s" depth="0" NCoef="0" IVar="11" Cut="1.4662847518920898e+00" cType="1" res="6.4415426459163427e-04" rms="1.8092958629131317e-01" purity="5.0175446271896362e-01" nType="0">
        <Node pos="l" depth="1" NCoef="0" IVar="5" Cut="1.8026356506347656e+02" cType="1" res="-3.0186391086317599e-04" rms="1.7759956419467926e-01" purity="5.1433366537094116e-01" nType="0">
          <Node pos="l" depth="2" NCoef="0" IVar="3" Cut="4.1475668334960938e+02" cType="1" res="2.1224871743470430e-03" rms="1.8849289417266846e-01" purity="1.5513473749160767e-01" nType="0">
            <Node pos="l" depth="3" NCoef="0" IVar="-1" Cut="0.0000000000000000e+00" cType="1" res="-7.4204400880262256e-04" rms="1.7333222925662994e-01" purity="7.9100184142589569e-02" nType="-99"/>
            <Node pos="r" depth="3" NCoef="0" IVar="-1" Cut="0.0000000000000000e+00" cType="1" res="2.1878765895962715e-02" rms="2.5636467337608337e-01" purity="5.7639509439468384e-01" nType="-99"/>
          </Node>
          <Node pos="r" depth="2" NCoef="0" IVar="0" Cut="2.3888537597656250e+03" cType="1" res="-2.8159483335912228e-03" rms="1.6551016271114349e-01" purity="8.8682770729064941e-01" nType="0">
            <Node pos="l" depth="3" NCoef="0" IVar="-1" Cut="0.0000000000000000e+00" cType="1" res="-2.5274844840168953e-02" rms="3.2307863235473633e-01" purity="3.2032886147499084e-01" nType="-99"/>
            <Node pos="r" depth="3" NCoef="0" IVar="-1" Cut="0.0000000000000000e+00" cType="1" res="8.9215366169810295e-03" rms="1.2015774846076965e-01" purity="9.8124301433563232e-01" nType="-99"/>
          </Node>
        </Node>
        <Node pos="r" depth="1" NCoef="0" IVar="8" Cut="6.6814529895782471e-01" cType="1" res="7.9163666814565659e-03" rms="2.0458135008811951e-01" purity="4.0505602955818176e-01" nType="0">
          <Node pos="l" depth="2" NCoef="0" IVar="3" Cut="3.2591052246093750e+02" cType="1" res="1.1127550387755036e-03" rms="1.9278182089328766e-01" purity="4.6373212337493896e-01" nType="0">
            <Node pos="l" depth="3" NCoef="0" IVar="-1" Cut="0.0000000000000000e+00" cType="1" res="-2.5619521737098694e-02" rms="1.7247755825519562e-01" purity="1.1945406347513199e-01" nType="-99"/>
            <Node pos="r" depth="3" NCoef="0" IVar="-1" Cut="0.0000000000000000e+00" cType="1" res="2.2031547501683235e-02" rms="2.0918235182762146e-01" purity="7.7841228246688843e-01" nType="-99"/>
          </Node>
          <Node pos="r" depth="2" NCoef="0" IVar="-1" Cut="0.0000000000000000e+00" cType="1" res="5.8849759399890900e-02" rms="2.2742371261119843e-01" purity="2.7757087349891663e-01" nType="-99"/>
        </Node>
      </Node>
    </BinaryTree>
    <BinaryTree type="DecisionTree" boostWeight="1.0000000000000000e+00" itree="179">
      <Node pos="s" depth="0" NCoef="0" IVar="8" Cut="1.4660719633102417e+00" cType="1" res="-1.3555252226069570e-03" rms="1.8783070147037506e-01" purity="5.0100255012512207e-01" nType="0">
        <Node pos="l" depth="1" NCoef="0" IVar="11" Cut="1.9984614849090576e+00" cType="1" res="-2.0294045098125935e-03" rms="1.8761937320232391e-01" purity="5.2714335918426514e-01" nType="0">
          <Node pos="l" depth="2" NCoef="0" IVar="11" Cut="6.2738853693008423e-01" cType="1" res="-1.4622986782342196e-03" rms="1.8514472246170044e-01" purity="5.3488981723785400e-01" nType="0">
            <Node pos="l" depth="3" NCoef="0" IVar="-1" Cut="0.0000000000000000e+00" cType="1" res="-8.9800618588924408e-03" rms="1.8176577985286713e-01" purity="5.3227710723876953e-01" nType="-99"/>
            <Node pos="r" depth="3" NCoef="0" IVar="-1" Cut="0.0000000000000000e+00" cType="1" res="6.9522294215857983e-03" rms="1.9368451833724976e-01" purity="5.4175579547882080e-01" nType="-99"/>
          </Node>
          <Node pos="r" depth="2" NCoef="0" IVar="-1" Cut="0.0000000000000000e+00" cType="1" res="-3.3156562596559525e-02" rms="2.3659093677997589e-01" purity="3.5123547911643982e-01" nType="-99"/>
        </Node>
        <Node pos="r" depth="1" NCoef="0" IVar="1" Cut="2.9540037736296654e-02" cType="1" res="8.2656927406787872e-03" rms="1.9056260585784912e-01" purity="1.2778198719024658e-01" nType="0">
          <Node pos="l" depth="2" NCoef="0" IVar="-1" Cut="0.0000000000000000e+00" cType="1" res="-2.6657184585928917e-02" rms="1.3515928387641907e-01" purity="2.9271960258483887e-02" nType="-99"/>
          <Node pos="r" depth="2" NCoef="0" IVar="-1" Cut="0.0000000000000000e+00" cType="1" res="5.3431428968906403e-02" rms="2.4662570655345917e-01" purity="2.6463827490806580e-01" nType="-99"/>
        </Node>
      </Node>
    </BinaryTree>
    <BinaryTree type="DecisionTree" boostWeight="1.0000000000000000e+00" itree="180">
      <Node pos="s" depth="0" NCoef="0" IVar="2" Cut="8.0893652343750000e+02" cType="1" res="2.0446649286895990e-03" rms="1.8727192282676697e-01" purity="5.0208204984664917e-01" nType="0">
        <Node pos="l" depth="1" NCoef="0" IVar="6" Cut="2.2728913879394531e+02" cType="1" res="3.6603752523660660e-03" rms="1.8735276162624359e-01" purity="4.2395260930061340e-01" nType="0">
          <Node pos="l" depth="2" NCoef="0" IVar="0" Cut="1.9032554931640625e+03" cType="1" res="5.0837593153119087e-03" rms="1.9484704732894897e-01" purity="3.4646680951118469e-01" nType="0">
            <Node pos="l" depth="3" NCoef="0" IVar="-1" Cut="0.0000000000000000e+00" cType="1" res="3.2884958200156689e-03" rms="1.2988480925559998e-01" purity="1.8810678273439407e-02" nType="-99"/>
            <Node pos="r" depth="3" NCoef="0" IVar="-1" Cut="0.0000000000000000e+00" cType="1" res="1.6423095017671585e-02" rms="2.5467249751091003e-01" purity="7.6510411500930786e-01" nType="-99"/>
          </Node>
          <Node pos="r" depth="2" NCoef="0" IVar="1" Cut="1.3973000645637512e-01" cType="1" res="-6.5425047650933266e-03" rms="1.2021194398403168e-01" purity="9.7937446832656860e-01" nType="0">
            <Node pos="l" depth="3" NCoef="0" IVar="-1" Cut="0.0000000000000000e+00" cType="1" res="-9.1383524239063263e-02" rms="1.5805770456790924e-01" purity="9.6296131610870361e-01" nType="-99"/>
            <Node pos="r" depth="3" NCoef="0" IVar="-1" Cut="0.0000000000000000e+00" cType="1" res="2.8777794912457466e-02" rms="6.0634139925241470e-02" purity="9.9597024917602539e-01" nType="-99"/>
          </Node>
        </Node>
        <Node pos="r" depth="1" NCoef="0" IVar="4" Cut="2.4563999938964844e+02" cType="1" res="-5.7473452761769295e-03" rms="1.8668538331985474e-01" purity="8.7887305021286011e-01" nType="0">
          <Node pos="l" depth="2" NCoef="0" IVar="-1" Cut="0.0000000000000000e+00" cType="1" res="-3.2599773257970810e-02" rms="3.1021776795387268e-01" purity="5.2672952413558960e-01" nType="-99"/>
          <Node pos="r" depth="2" NCoef="0" IVar="8" Cut="1.9729191064834595e-01" cType="1" res="-1.0178497759625316e-03" rms="1.4316868782043457e-01" purity="9.6053785085678101e-01" nType="0">
            <Node pos="l" depth="3" NCoef="0" IVar="-1" Cut="0.0000000000000000e+00" cType="1" res="1.3428239151835442e-02" rms="1.3408823311328888e-01" purity="9.5878541469573975e-01" nType="-99"/>
            <Node pos="r" depth="3" NCoef="0" IVar="-1" Cut="0.0000000000000000e+00" cType="1" res="-3.7753459066152573e-02" rms="1.5669539570808411e-01" purity="9.6340066194534302e-01" nType="-99"/>
          </Node>
        </Node>
      </Node>
    </BinaryTree>
    <BinaryTree type="DecisionTree" boostWeight="1.0000000000000000e+00" itree="181">
      <Node pos="s" depth="0" NCoef="0" IVar="8" Cut="-1.3361231982707977e-01" cType="1" res="-1.1165405885549262e-04" rms="1.8207977712154388e-01" purity="4.9807673692703247e-01" nType="0">
        <Node pos="l" depth="1" NCoef="0" IVar="11" Cut="-1.7314236164093018e+00" cType="1" res="3.8186358287930489e-03" rms="1.8663892149925232e-01" purity="4.9466139078140259e-01" nType="0">
          <Node pos="l" depth="2" NCoef="0" IVar="-1" Cut="0.0000000000000000e+00" cType="1" res="4.2716827243566513e-02" rms="2.0461119711399078e-01" purity="3.6052668094635010e-01" nType="-99"/>
          <Node pos="r" depth="2" NCoef="0" IVar="8" Cut="-1.6571244001388550e+00" cType="1" res="2.4821136612445116e-03" rms="1.8472316861152649e-01" purity="5.0785213708877563e-01" nType="0">
            <Node pos="l" depth="3" NCoef="0" IVar="-1" Cut="0.0000000000000000e+00" cType="1" res="-4.6121690422296524e-02" rms="1.3551199436187744e-01" purity="6.1713725328445435e-02" nType="-99"/>
            <Node pos="r" depth="3" NCoef="0" IVar="-1" Cut="0.0000000000000000e+00" cType="1" res="1.0461589321494102e-02" rms="1.8905389308929443e-01" purity="5.5416679382324219e-01" nType="-99"/>
          </Node>
        </Node>
        <Node pos="r" depth="1" NCoef="0" IVar="5" Cut="1.9128137207031250e+02" cType="1" res="-3.0878372490406036e-03" rms="1.7849238216876984e-01" purity="5.0066298246383667e-01" nType="0">
          <Node pos="l" depth="2" NCoef="0" IVar="6" Cut="1.3025056457519531e+02" cType="1" res="-7.2020404040813446e-03" rms="1.9146955013275146e-01" purity="1.7364057898521423e-01" nType="0">
            <Node pos="l" depth="3" NCoef="0" IVar="-1" Cut="0.0000000000000000e+00" cType="1" res="-1.1210334487259388e-02" rms="1.8181572854518890e-01" purity="1.1909410357475281e-01" nType="-99"/>
            <Node pos="r" depth="3" NCoef="0" IVar="-1" Cut="0.0000000000000000e+00" cType="1" res="-3.8354132324457169e-02" rms="2.3446471989154816e-01" purity="4.5623925328254700e-01" nType="-99"/>
          </Node>
          <Node pos="r" depth="2" NCoef="0" IVar="7" Cut="-5.6551897525787354e-01" cType="1" res="2.1469574421644211e-03" rms="1.6031801700592041e-01" purity="9.1675686836242676e-01" nType="0">
            <Node pos="l" depth="3" NCoef="0" IVar="-1" Cut="0.0000000000000000e+00" cType="1" res="-2.0709278061985970e-02" rms="2.0562084019184113e-01" purity="8.2562392950057983e-01" nType="-99"/>
            <Node pos="r" depth="3" NCoef="0" IVar="-1" Cut="0.0000000000000000e+00" cType="1" res="1.8787758424878120e-02" rms="1.4856213331222534e-01" purity="9.3654531240463257e-01" nType="-99"/>
          </Node>
        </Node>
      </Node>
    </BinaryTree>
    <BinaryTree type="DecisionTree" boostWeight="1.0000000000000000e+00" itree="182">
      <Node pos="s" depth="0" NCoef="0" IVar="11" Cut="6.6724687814712524e-01" cType="1" res="-3.3471989445388317e-03" rms="1.8523426353931427e-01" purity="4.9360099434852600e-01" nType="0">
        <Node pos="l" depth="1" NCoef="0" IVar="1" Cut="1.0847330093383789e-01" cType="1" res="-7.9458282561972737e-04" rms="1.8439450860023499e-01" purity="5.0746780633926392e-01" nType="0">
          <Node pos="l" depth="2" NCoef="0" IVar="2" Cut="8.7755926513671875e+02" cType="1" res="1.4115412486717105e-03" rms="1.9413661956787109e-01" purity="3.6753189563751221e-01" nType="0">
            <Node pos="l" depth="3" NCoef="0" IVar="-1" Cut="0.0000000000000000e+00" cType="1" res="8.1697953864932060e-03" rms="1.9368986785411835e-01" purity="2.9970225691795349e-01" nType="-99"/>
            <Node pos="r" depth="3" NCoef="0" IVar="-1" Cut="0.0000000000000000e+00" cType="1" res="-2.0752875134348869e-02" rms="1.9688254594802856e-01" purity="8.3182460069656372e-01" nType="-99"/>
          </Node>
          <Node pos="r" depth="2" NCoef="0" IVar="0" Cut="2.7586015625000000e+03" cType="1" res="-5.6313481181859970e-03" rms="1.6087968647480011e-01" purity="8.1426715850830078e-01" nType="0">
            <Node pos="l" depth="3" NCoef="0" IVar="-1" Cut="0.0000000000000000e+00" cType="1" res="-2.7450395748019218e-02" rms="2.5737100839614868e-01" purity="4.7332182526588440e-01" nType="-99"/>
            <Node pos="r" depth="3" NCoef="0" IVar="-1" Cut="0.0000000000000000e+00" cType="1" res="1.6420297324657440e-02" rms="6.5511621534824371e-02" purity="9.9565136432647705e-01" nType="-99"/>
          </Node>
        </Node>
        <Node pos="r" depth="1" NCoef="0" IVar="0" Cut="2.9450446777343750e+03" cType="1" res="-9.1994591057300568e-03" rms="1.8701386451721191e-01" purity="4.6180906891822815e-01" nType="0">
          <Node pos="l" depth="2" NCoef="0" IVar="0" Cut="1.8414464111328125e+03" cType="1" res="-1.3761039823293686e-02" rms="2.1245156228542328e-01" purity="2.3609672486782074e-01" nType="0">
            <Node pos="l" depth="3" NCoef="0" IVar="-1" Cut="0.0000000000000000e+00" cType="1" res="-1.2410006485879421e-02" rms="1.1746425181627274e-01" purity="1.5100224874913692e-02" nType="-99"/>
            <Node pos="r" depth="3" NCoef="0" IVar="-1" Cut="0.0000000000000000e+00" cType="1" res="-3.1181896105408669e-02" rms="2.9526120424270630e-01" purity="5.3574746847152710e-01" nType="-99"/>
          </Node>
          <Node pos="r" depth="2" NCoef="0" IVar="6" Cut="1.6580438232421875e+02" cType="1" res="1.4009663136675954e-03" rms="1.0582869499921799e-01" purity="9.8633044958114624e-01" nType="0">
            <Node pos="l" depth="3" NCoef="0" IVar="-1" Cut="0.0000000000000000e+00" cType="1" res="3.0834164470434189e-02" rms="1.3215938210487366e-01" purity="9.7718042135238647e-01" nType="-99"/>
            <Node pos="r" depth="3" NCoef="0" IVar="-1" Cut="0.0000000000000000e+00" cType="1" res="-4.1035749018192291e-02" rms="8.5744455456733704e-02" purity="9.9189585447311401e-01" nType="-99"/>
          </Node>
        </Node>
      </Node>
    </BinaryTree>
    <BinaryTree type="DecisionTree" boostWeight="1.0000000000000000e+00" itree="183">
      <Node pos="s" depth="0" NCoef="0" IVar="11" Cut="1.9991765022277832e+00" cType="1" res="9.1792928287759423e-04" rms="1.8846620619297028e-01" purity="5.0230091810226440e-01" nType="0">
        <Node pos="l" depth="1" NCoef="0" IVar="9" Cut="6.6625678539276123e-01" cType="1" res="1.8477289704605937e-03" rms="1.8638770282268524e-01" purity="5.1075714826583862e-01" nType="0">
          <Node pos="l" depth="2" NCoef="0" IVar="2" Cut="8.7252917480468750e+02" cType="1" res="7.8018798376433551e-05" rms="1.8009018898010254e-01" purity="5.3092682361602783e-01" nType="0">
            <Node pos="l" depth="3" NCoef="0" IVar="-1" Cut="0.0000000000000000e+00" cType="1" res="4.0401499718427658e-03" rms="1.8168438971042633e-01" purity="4.7631791234016418e-01" nType="-99"/>
            <Node pos="r" depth="3" NCoef="0" IVar="-1" Cut="0.0000000000000000e+00" cType="1" res="-2.9351655393838882e-02" rms="1.6871649026870728e-01" purity="8.9893090724945068e-01" nType="-99"/>
          </Node>
          <Node pos="r" depth="2" NCoef="0" IVar="0" Cut="2.1396918945312500e+03" cType="1" res="7.1544186212122440e-03" rms="2.0401798188686371e-01" purity="4.5027577877044678e-01" nType="0">
            <Node pos="l" depth="3" NCoef="0" IVar="-1" Cut="0.0000000000000000e+00" cType="1" res="3.8069386035203934e-02" rms="1.9336096942424774e-01" purity="5.5200282484292984e-02" nType="-99"/>
            <Node pos="r" depth="3" NCoef="0" IVar="-1" Cut="0.0000000000000000e+00" cType="1" res="5.2270554006099701e-03" rms="2.1539896726608276e-01" purity="8.9962953329086304e-01" nType="-99"/>
          </Node>
        </Node>
        <Node pos="r" depth="1" NCoef="0" IVar="-1" Cut="0.0000000000000000e+00" cType="1" res="-4.9682423472404480e-02" rms="2.3029269278049469e-01" purity="3.0698019266128540e-01" nType="-99"/>
      </Node>
    </BinaryTree>
    <BinaryTree type="DecisionTree" boostWeight="1.0000000000000000e+00" itree="184">
      <Node pos="s" depth="0" NCoef="0" IVar="9" Cut="1.7327353954315186e+00" cType="1" res="4.8769262502901256e-04" rms="1.8447422981262207e-01" purity="5.0881069898605347e-01" nType="0">
        <Node pos="l" depth="1" NCoef="0" IVar="5" Cut="1.9128137207031250e+02" cType="1" res="1.2926759663969278e-03" rms="1.8369458615779877e-01" purity="5.2576041221618652e-01" nType="0">
          <Node pos="l" depth="2" NCoef="0" IVar="5" Cut="1.7793357849121094e+02" cType="1" res="-1.3906551757827401e-03" rms="2.0056122541427612e-01" purity="1.9119422137737274e-01" nType="0">
            <Node pos="l" depth="3" NCoef="0" IVar="-1" Cut="0.0000000000000000e+00" cType="1" res="1.1014588380930945e-04" rms="1.9567035138607025e-01" purity="1.6042318940162659e-01" nType="-99"/>
            <Node pos="r" depth="3" NCoef="0" IVar="-1" Cut="0.0000000000000000e+00" cType="1" res="-2.5411846116185188e-02" rms="2.4968335032463074e-01" purity="5.4711025953292847e-01" nType="-99"/>
          </Node>
          <Node pos="r" depth="2" NCoef="0" IVar="3" Cut="3.2081930541992188e+02" cType="1" res="4.4587799347937107e-03" rms="1.6148692369461060e-01" purity="9.2052024602890015e-01" nType="0">
            <Node pos="l" depth="3" NCoef="0" IVar="-1" Cut="0.0000000000000000e+00" cType="1" res="2.9928829520940781e-02" rms="2.9826891422271729e-01" purity="5.6277251243591309e-01" nType="-99"/>
            <Node pos="r" depth="3" NCoef="0" IVar="-1" Cut="0.0000000000000000e+00" cType="1" res="1.0991848073899746e-02" rms="1.4104716479778290e-01" purity="9.5544141530990601e-01" nType="-99"/>
          </Node>
        </Node>
        <Node pos="r" depth="1" NCoef="0" IVar="-1" Cut="0.0000000000000000e+00" cType="1" res="-4.6189025044441223e-02" rms="1.9945238530635834e-01" purity="1.5142291784286499e-01" nType="-99"/>
      </Node>
    </BinaryTree>
    <BinaryTree type="DecisionTree" boostWeight="1.0000000000000000e+00" itree="185">
      <Node pos="s" depth="0" NCoef="0" IVar="7" Cut="-2.6834306120872498e-01" cType="1" res="3.6468083271756768e-04" rms="1.8558707833290100e-01" purity="5.0032013654708862e-01" nType="0">
        <Node pos="l" depth="1" NCoef="0" IVar="9" Cut="1.4654253721237183e+00" cType="1" res="-3.8648822810500860e-03" rms="1.8955254554748535e-01" purity="4.4371342658996582e-01" nType="0">
          <Node pos="l" depth="2" NCoef="0" IVar="10" Cut="-1.4652544260025024e+00" cType="1" res="-2.1258536726236343e-03" rms="1.9068104028701782e-01" purity="4.7451201081275940e-01" nType="0">
            <Node pos="l" depth="3" NCoef="0" IVar="-1" Cut="0.0000000000000000e+00" cType="1" res="-4.4760297983884811e-02" rms="1.9408118724822998e-01" purity="2.7223348617553711e-01" nType="-99"/>
            <Node pos="r" depth="3" NCoef="0" IVar="-1" Cut="0.0000000000000000e+00" cType="1" res="-3.6132973036728799e-04" rms="1.9016203284263611e-01" purity="4.9942961335182190e-01" nType="-99"/>
          </Node>
          <Node pos="r" depth="2" NCoef="0" IVar="-1" Cut="0.0000000000000000e+00" cType="1" res="-7.8387565910816193e-02" rms="1.7633506655693054e-01" purity="1.2247300148010254e-01" nType="-99"/>
        </Node>
        <Node pos="r" depth="1" NCoef="0" IVar="9" Cut="1.7329368591308594e+00" cType="1" res="2.8464877977967262e-03" rms="1.8317481875419617e-01" purity="5.3353559970855713e-01" nType="0">
          <Node pos="l" depth="2" NCoef="0" IVar="9" Cut="4.3819880485534668e-01" cType="1" res="2.0847565028816462e-03" rms="1.8180651962757111e-01" purity="5.4642146825790405e-01" nType="0">
            <Node pos="l" depth="3" NCoef="0" IVar="-1" Cut="0.0000000000000000e+00" cType="1" res="1.6351198777556419e-02" rms="1.8056151270866394e-01" purity="5.5817580223083496e-01" nType="-99"/>
            <Node pos="r" depth="3" NCoef="0" IVar="-1" Cut="0.0000000000000000e+00" cType="1" res="-1.2524772435426712e-02" rms="1.8419170379638672e-01" purity="5.2196574211120605e-01" nType="-99"/>
          </Node>
          <Node pos="r" depth="2" NCoef="0" IVar="-1" Cut="0.0000000000000000e+00" cType="1" res="5.0088021904230118e-02" rms="2.1231712400913239e-01" purity="2.2734071314334869e-01" nType="-99"/>
        </Node>
      </Node>
    </BinaryTree>
    <BinaryTree type="DecisionTree" boostWeight="1.0000000000000000e+00" itree="186">
      <Node pos="s" depth="0" NCoef="0" IVar="8" Cut="9.3441838026046753e-01" cType="1" res="-1.2514261470641941e-04" rms="1.8916663527488708e-01" purity="4.9483901262283325e-01" nType="0">
        <Node pos="l" depth="1" NCoef="0" IVar="2" Cut="1.0524647216796875e+03" cType="1" res="-1.8895104294642806e-03" rms="1.8687888979911804e-01" purity="5.3107404708862305e-01" nType="0">
          <Node pos="l" depth="2" NCoef="0" IVar="10" Cut="-1.9991667270660400e+00" cType="1" res="-1.0817450238391757e-03" rms="1.8572886288166046e-01" purity="5.1135092973709106e-01" nType="0">
            <Node pos="l" depth="3" NCoef="0" IVar="-1" Cut="0.0000000000000000e+00" cType="1" res="-3.1862057745456696e-02" rms="2.0069763064384460e-01" purity="1.9956082105636597e-01" nType="-99"/>
            <Node pos="r" depth="3" NCoef="0" IVar="-1" Cut="0.0000000000000000e+00" cType="1" res="-1.8320849630981684e-03" rms="1.8513536453247070e-01" purity="5.2287477254867554e-01" nType="-99"/>
          </Node>
          <Node pos="r" depth="2" NCoef="0" IVar="-1" Cut="0.0000000000000000e+00" cType="1" res="-4.9407877027988434e-02" rms="2.0724783837795258e-01" purity="9.1238325834274292e-01" nType="-99"/>
        </Node>
        <Node pos="r" depth="1" NCoef="0" IVar="7" Cut="-8.8482904434204102e-01" cType="1" res="9.1846855357289314e-03" rms="2.0055010914802551e-01" purity="3.0364173650741577e-01" nType="0">
          <Node pos="l" depth="2" NCoef="0" IVar="-1" Cut="0.0000000000000000e+00" cType="1" res="-2.8187707066535950e-02" rms="1.5746082365512848e-01" purity="1.0599465668201447e-01" nType="-99"/>
          <Node pos="r" depth="2" NCoef="0" IVar="0" Cut="2.0074083251953125e+03" cType="1" res="1.2717997655272484e-02" rms="2.0853374898433685e-01" purity="3.4638577699661255e-01" nType="0">
            <Node pos="l" depth="3" NCoef="0" IVar="-1" Cut="0.0000000000000000e+00" cType="1" res="2.1304991096258163e-02" rms="1.5031138062477112e-01" purity="2.8134744614362717e-02" nType="-99"/>
            <Node pos="r" depth="3" NCoef="0" IVar="-1" Cut="0.0000000000000000e+00" cType="1" res="3.8352791219949722e-02" rms="2.7194908261299133e-01" purity="8.1464117765426636e-01" nType="-99"/>
          </Node>
        </Node>
      </Node>
    </BinaryTree>
    <BinaryTree type="DecisionTree" boostWeight="1.0000000000000000e+00" itree="187">
      <Node pos="s" depth="0" NCoef="0" IVar="7" Cut="-3.5857003927230835e-01" cType="1" res="8.1109028542414308e-04" rms="1.8701963126659393e-01" purity="5.0447869300842285e-01" nType="0">
        <Node pos="l" depth="1" NCoef="0" IVar="0" Cut="1.8577727050781250e+03" cType="1" res="6.6160988062620163e-03" rms="1.9225740432739258e-01" purity="4.3025588989257812e-01" nType="0">
          <Node pos="l" depth="2" NCoef="0" IVar="5" Cut="1.4352447509765625e+02" cType="1" res="5.1306362729519606e-04" rms="1.1185462772846222e-01" purity="1.3974071480333805e-02" nType="0">
            <Node pos="l" depth="3" NCoef="0" IVar="-1" Cut="0.0000000000000000e+00" cType="1" res="-2.6410268619656563e-02" rms="7.9029902815818787e-02" purity="6.6728908568620682e-03" nType="-99"/>
            <Node pos="r" depth="3" NCoef="0" IVar="-1" Cut="0.0000000000000000e+00" cType="1" res="3.6415476351976395e-02" rms="1.7623043060302734e-01" purity="3.5691007971763611e-02" nType="-99"/>
          </Node>
          <Node pos="r" depth="2" NCoef="0" IVar="5" Cut="1.8558796691894531e+02" cType="1" res="1.1517372913658619e-02" rms="2.3779326677322388e-01" purity="7.6456683874130249e-01" nType="0">
            <Node pos="l" depth="3" NCoef="0" IVar="-1" Cut="0.0000000000000000e+00" cType="1" res="3.4878145903348923e-02" rms="3.1902784109115601e-01" purity="4.5471751689910889e-01" nType="-99"/>
            <Node pos="r" depth="3" NCoef="0" IVar="-1" Cut="0.0000000000000000e+00" cType="1" res="6.7020938731729984e-03" rms="1.9112071394920349e-01" purity="8.9980715513229370e-01" nType="-99"/>
          </Node>
        </Node>
        <Node pos="r" depth="1" NCoef="0" IVar="10" Cut="1.9992047548294067e+00" cType="1" res="-1.9902579952031374e-03" rms="1.8437343835830688e-01" purity="5.4029667377471924e-01" nType="0">
          <Node pos="l" depth="2" NCoef="0" IVar="10" Cut="1.5420225858688354e+00" cType="1" res="-1.4471255708485842e-03" rms="1.8384279310703278e-01" purity="5.5509954690933228e-01" nType="0">
            <Node pos="l" depth="3" NCoef="0" IVar="-1" Cut="0.0000000000000000e+00" cType="1" res="-7.8794723376631737e-03" rms="1.8110385537147522e-01" purity="5.6013453006744385e-01" nType="-99"/>
            <Node pos="r" depth="3" NCoef="0" IVar="-1" Cut="0.0000000000000000e+00" cType="1" res="4.5529793947935104e-02" rms="2.3157472908496857e-01" purity="4.5218214392662048e-01" nType="-99"/>
          </Node>
          <Node pos="r" depth="2" NCoef="0" IVar="-1" Cut="0.0000000000000000e+00" cType="1" res="-3.8406208157539368e-02" rms="1.9631873071193695e-01" purity="1.8216103315353394e-01" nType="-99"/>
        </Node>
      </Node>
    </BinaryTree>
    <BinaryTree type="DecisionTree" boostWeight="1.0000000000000000e+00" itree="188">
      <Node pos="s" depth="0" NCoef="0" IVar="9" Cut="1.4660124778747559e+00" cType="1" res="-1.0821837931871414e-03" rms="1.8924291431903839e-01" purity="4.9731469154357910e-01" nType="0">
        <Node pos="l" depth="1" NCoef="0" IVar="7" Cut="1.7056927084922791e-01" cType="1" res="-2.0367801189422607e-03" rms="1.8742138147354126e-01" purity="5.1770216226577759e-01" nType="0">
          <Node pos="l" depth="2" NCoef="0" IVar="0" Cut="2.7313776855468750e+03" cType="1" res="-4.6866876073181629e-03" rms="1.8877388536930084e-01" purity="5.4700344800949097e-01" nType="0">
            <Node pos="l" depth="3" NCoef="0" IVar="-1" Cut="0.0000000000000000e+00" cType="1" res="-1.7586665228009224e-02" rms="2.3013316094875336e-01" purity="2.1196106076240540e-01" nType="-99"/>
            <Node pos="r" depth="3" NCoef="0" IVar="-1" Cut="0.0000000000000000e+00" cType="1" res="6.9278506562113762e-03" rms="1.1478289216756821e-01" purity="9.8023247718811035e-01" nType="-99"/>
          </Node>
          <Node pos="r" depth="2" NCoef="0" IVar="0" Cut="2.1237307128906250e+03" cType="1" res="1.5974323032423854e-03" rms="1.8548889458179474e-01" purity="4.7751697897911072e-01" nType="0">
            <Node pos="l" depth="3" NCoef="0" IVar="-1" Cut="0.0000000000000000e+00" cType="1" res="2.2217178717255592e-02" rms="1.7518244683742523e-01" purity="4.4162530452013016e-02" nType="-99"/>
            <Node pos="r" depth="3" NCoef="0" IVar="-1" Cut="0.0000000000000000e+00" cType="1" res="-7.6662567444145679e-03" rms="1.9503371417522430e-01" purity="9.0553337335586548e-01" nType="-99"/>
          </Node>
        </Node>
        <Node pos="r" depth="1" NCoef="0" IVar="9" Cut="1.7833856344223022e+00" cType="1" res="1.0172261856496334e-02" rms="2.0919980108737946e-01" purity="2.5695118308067322e-01" nType="0">
          <Node pos="l" depth="2" NCoef="0" IVar="-1" Cut="0.0000000000000000e+00" cType="1" res="4.8999849706888199e-02" rms="2.2652429342269897e-01" purity="3.6562082171440125e-01" nType="-99"/>
          <Node pos="r" depth="2" NCoef="0" IVar="-1" Cut="0.0000000000000000e+00" cType="1" res="-1.1181149166077375e-03" rms="1.9229672849178314e-01" purity="1.6270735859870911e-01" nType="-99"/>
        </Node>
      </Node>
    </BinaryTree>
    <BinaryTree type="DecisionTree" boostWeight="1.0000000000000000e+00" itree="189">
      <Node pos="s" depth="0" NCoef="0" IVar="10" Cut="-1.1999096870422363e+00" cType="1" res="2.9845107928849757e-04" rms="1.8588119745254517e-01" purity="4.9535176157951355e-01" nType="0">
        <Node pos="l" depth="1" NCoef="0" IVar="8" Cut="-3.9870235323905945e-01" cType="1" res="6.8866042420268059e-03" rms="2.0555789768695831e-01" purity="3.8599866628646851e-01" nType="0">
          <Node pos="l" depth="2" NCoef="0" IVar="9" Cut="-1.3768604397773743e-01" cType="1" res="-3.5078849177807570e-03" rms="1.8648327887058258e-01" purity="3.1521302461624146e-01" nType="0">
            <Node pos="l" depth="3" NCoef="0" IVar="-1" Cut="0.0000000000000000e+00" cType="1" res="-2.4433521553874016e-02" rms="1.9411373138427734e-01" purity="3.0145692825317383e-01" nType="-99"/>
            <Node pos="r" depth="3" NCoef="0" IVar="-1" Cut="0.0000000000000000e+00" cType="1" res="5.8390274643898010e-03" rms="1.7926636338233948e-01" purity="3.2734709978103638e-01" nType="-99"/>
          </Node>
          <Node pos="r" depth="2" NCoef="0" IVar="11" Cut="-6.6287511587142944e-01" cType="1" res="1.4101671986281872e-02" rms="2.1752628684043884e-01" purity="4.3513268232345581e-01" nType="0">
            <Node pos="l" depth="3" NCoef="0" IVar="-1" Cut="0.0000000000000000e+00" cType="1" res="5.1670584827661514e-02" rms="2.2810201346874237e-01" purity="4.3747615814208984e-01" nType="-99"/>
            <Node pos="r" depth="3" NCoef="0" IVar="-1" Cut="0.0000000000000000e+00" cType="1" res="2.1462183445692062e-02" rms="2.1151213347911835e-01" purity="4.3388229608535767e-01" nType="-99"/>
          </Node>
        </Node>
        <Node pos="r" depth="1" NCoef="0" IVar="11" Cut="1.9999635219573975e+00" cType="1" res="-7.7767187030985951e-04" rms="1.8244306743144989e-01" purity="5.1321375370025635e-01" nType="0">
          <Node pos="l" depth="2" NCoef="0" IVar="11" Cut="-2.1143569946289062e+00" cType="1" res="-2.6799872284755111e-04" rms="1.8058177828788757e-01" purity="5.2195596694946289e-01" nType="0">
            <Node pos="l" depth="3" NCoef="0" IVar="-1" Cut="0.0000000000000000e+00" cType="1" res="-3.9169862866401672e-02" rms="1.9489045441150665e-01" purity="2.4114756286144257e-01" nType="-99"/>
            <Node pos="r" depth="3" NCoef="0" IVar="-1" Cut="0.0000000000000000e+00" cType="1" res="7.2049733716994524e-04" rms="1.8005459010601044e-01" purity="5.3148603439331055e-01" nType="-99"/>
          </Node>
          <Node pos="r" depth="2" NCoef="0" IVar="-1" Cut="0.0000000000000000e+00" cType="1" res="-3.0335675925016403e-02" rms="2.1960456669330597e-01" purity="3.1816074252128601e-01" nType="-99"/>
        </Node>
      </Node>
    </BinaryTree>
    <BinaryTree type="DecisionTree" boostWeight="1.0000000000000000e+00" itree="190">
      <Node pos="s" depth="0" NCoef="0" IVar="11" Cut="6.6730147600173950e-01" cType="1" res="-3.4802482696250081e-04" rms="1.8242101371288300e-01" purity="5.0524634122848511e-01" nType="0">
        <Node pos="l" depth="1" NCoef="0" IVar="10" Cut="-1.7327504158020020e+00" cType="1" res="-2.2813649848103523e-03" rms="1.7906785011291504e-01" purity="5.1386088132858276e-01" nType="0">
          <Node pos="l" depth="2" NCoef="0" IVar="-1" Cut="0.0000000000000000e+00" cType="1" res="-2.8614573180675507e-02" rms="2.0931965112686157e-01" purity="2.7104407548904419e-01" nType="-99"/>
          <Node pos="r" depth="2" NCoef="0" IVar="0" Cut="3.1256147460937500e+03" cType="1" res="-1.4984947629272938e-03" rms="1.7681804299354553e-01" purity="5.3020709753036499e-01" nType="0">
            <Node pos="l" depth="3" NCoef="0" IVar="-1" Cut="0.0000000000000000e+00" cType="1" res="-7.4407290667295456e-03" rms="2.0491561293601990e-01" purity="3.2529291510581970e-01" nType="-99"/>
            <Node pos="r" depth="3" NCoef="0" IVar="-1" Cut="0.0000000000000000e+00" cType="1" res="2.4039445444941521e-02" rms="8.4369398653507233e-02" purity="9.9114894866943359e-01" nType="-99"/>
          </Node>
        </Node>
        <Node pos="r" depth="1" NCoef="0" IVar="6" Cut="9.3435173034667969e+01" cType="1" res="4.2613018304109573e-03" rms="1.9009770452976227e-01" purity="4.8470818996429443e-01" nType="0">
          <Node pos="l" depth="2" NCoef="0" IVar="8" Cut="6.6250801086425781e-01" cType="1" res="-4.0869968943297863e-03" rms="1.7962041497230530e-01" purity="1.1654114723205566e-01" nType="0">
            <Node pos="l" depth="3" NCoef="0" IVar="-1" Cut="0.0000000000000000e+00" cType="1" res="-2.5424385443329811e-02" rms="1.8865430355072021e-01" purity="1.3147559762001038e-01" nType="-99"/>
            <Node pos="r" depth="3" NCoef="0" IVar="-1" Cut="0.0000000000000000e+00" cType="1" res="2.6066692546010017e-02" rms="1.5799266099929810e-01" purity="8.4431625902652740e-02" nType="-99"/>
          </Node>
          <Node pos="r" depth="2" NCoef="0" IVar="7" Cut="7.4271118640899658e-01" cType="1" res="8.5456632077693939e-03" rms="1.9511786103248596e-01" purity="6.7365217208862305e-01" nType="0">
            <Node pos="l" depth="3" NCoef="0" IVar="-1" Cut="0.0000000000000000e+00" cType="1" res="7.4168648570775986e-03" rms="1.9280810654163361e-01" purity="7.2744435071945190e-01" nType="-99"/>
            <Node pos="r" depth="3" NCoef="0" IVar="-1" Cut="0.0000000000000000e+00" cType="1" res="6.8644106388092041e-02" rms="2.0283235609531403e-01" purity="4.4631621241569519e-01" nType="-99"/>
          </Node>
        </Node>
      </Node>
    </BinaryTree>
    <BinaryTree type="DecisionTree" boostWeight="1.0000000000000000e+00" itree="191">
      <Node pos="s" depth="0" NCoef="0" IVar="8" Cut="1.4661225080490112e+00" cType="1" res="4.8302486538887024e-04" rms="1.8592467904090881e-01" purity="5.0581902265548706e-01" nType="0">
        <Node pos="l" depth="1" NCoef="0" IVar="10" Cut="1.7330832481384277e+00" cType="1" res="1.1730021797120571e-03" rms="1.8672929704189301e-01" purity="5.3278231620788574e-01" nType="0">
          <Node pos="l" depth="2" NCoef="0" IVar="7" Cut="-1.3383958339691162e+00" cType="1" res="4.9330084584653378e-04" rms="1.8397828936576843e-01" purity="5.4693490266799927e-01" nType="0">
            <Node pos="l" depth="3" NCoef="0" IVar="-1" Cut="0.0000000000000000e+00" cType="1" res="5.4914869368076324e-02" rms="1.6153176128864288e-01" purity="1.1107607185840607e-01" nType="-99"/>
            <Node pos="r" depth="3" NCoef="0" IVar="-1" Cut="0.0000000000000000e+00" cType="1" res="-6.2672281637787819e-04" rms="1.8529386818408966e-01" purity="5.7470875978469849e-01" nType="-99"/>
          </Node>
          <Node pos="r" depth="2" NCoef="0" IVar="0" Cut="1.7889953613281250e+03" cType="1" res="1.2756233103573322e-02" rms="2.2826577723026276e-01" purity="2.9159975051879883e-01" nType="0">
            <Node pos="l" depth="3" NCoef="0" IVar="-1" Cut="0.0000000000000000e+00" cType="1" res="3.1041447073221207e-02" rms="1.2063186615705490e-01" purity="1.5087076462805271e-02" nType="-99"/>
            <Node pos="r" depth="3" NCoef="0" IVar="-1" Cut="0.0000000000000000e+00" cType="1" res="2.6775054633617401e-02" rms="2.9927098751068115e-01" purity="5.6868255138397217e-01" nType="-99"/>
          </Node>
        </Node>
        <Node pos="r" depth="1" NCoef="0" IVar="3" Cut="3.0242172241210938e+02" cType="1" res="-9.3646515160799026e-03" rms="1.7373739182949066e-01" purity="1.2098576873540878e-01" nType="0">
          <Node pos="l" depth="2" NCoef="0" IVar="-1" Cut="0.0000000000000000e+00" cType="1" res="-1.7639426514506340e-03" rms="1.4848561584949493e-01" purity="4.9259487539529800e-02" nType="-99"/>
          <Node pos="r" depth="2" NCoef="0" IVar="-1" Cut="0.0000000000000000e+00" cType="1" res="-5.4161444306373596e-02" rms="2.0679697394371033e-01" purity="2.3478755354881287e-01" nType="-99"/>
        </Node>
      </Node>
    </BinaryTree>
    <BinaryTree type="DecisionTree" boostWeight="1.0000000000000000e+00" itree="192">
      <Node pos="s" depth="0" NCoef="0" IVar="3" Cut="3.0845632934570312e+02" cType="1" res="-2.7559476438909769e-04" rms="1.8107005953788757e-01" purity="5.0186967849731445e-01" nType="0">
        <Node pos="l" depth="1" NCoef="0" IVar="11" Cut="-1.3289935886859894e-01" cType="1" res="-4.4725737534463406e-03" rms="1.6366147994995117e-01" purity="9.0492129325866699e-02" nType="0">
          <Node pos="l" depth="2" NCoef="0" IVar="6" Cut="1.3124060058593750e+02" cType="1" res="8.8569131912663579e-04" rms="1.6765496134757996e-01" purity="9.1395795345306396e-02" nType="0">
            <Node pos="l" depth="3" NCoef="0" IVar="-1" Cut="0.0000000000000000e+00" cType="1" res="-1.2852358631789684e-02" rms="1.3699387013912201e-01" purity="3.8401130586862564e-02" nType="-99"/>
            <Node pos="r" depth="3" NCoef="0" IVar="-1" Cut="0.0000000000000000e+00" cType="1" res="3.0398145318031311e-02" rms="2.8987303376197815e-01" purity="4.1188007593154907e-01" nType="-99"/>
          </Node>
          <Node pos="r" depth="2" NCoef="0" IVar="0" Cut="1.8771182861328125e+03" cType="1" res="-9.1472733765840530e-03" rms="1.5994955599308014e-01" purity="8.9703731238842010e-02" nType="0">
            <Node pos="l" depth="3" NCoef="0" IVar="-1" Cut="0.0000000000000000e+00" cType="1" res="-3.1664386391639709e-02" rms="9.8782308399677277e-02" purity="1.0798764415085316e-02" nType="-99"/>
            <Node pos="r" depth="3" NCoef="0" IVar="-1" Cut="0.0000000000000000e+00" cType="1" res="-2.8892962262034416e-02" rms="3.0484229326248169e-01" purity="4.2800185084342957e-01" nType="-99"/>
          </Node>
        </Node>
        <Node pos="r" depth="1" NCoef="0" IVar="9" Cut="-1.4658889770507812e+00" cType="1" res="2.3956382647156715e-03" rms="1.9127893447875977e-01" purity="7.6369738578796387e-01" nType="0">
          <Node pos="l" depth="2" NCoef="0" IVar="-1" Cut="0.0000000000000000e+00" cType="1" res="3.8610331714153290e-02" rms="2.6482346653938293e-01" purity="4.8222792148590088e-01" nType="-99"/>
          <Node pos="r" depth="2" NCoef="0" IVar="8" Cut="1.1924159526824951e+00" cType="1" res="1.3380452292039990e-03" rms="1.8662220239639282e-01" purity="7.7827316522598267e-01" nType="0">
            <Node pos="l" depth="3" NCoef="0" IVar="-1" Cut="0.0000000000000000e+00" cType="1" res="6.2663443386554718e-03" rms="1.8313820660114288e-01" purity="7.9927951097488403e-01" nType="-99"/>
            <Node pos="r" depth="3" NCoef="0" IVar="-1" Cut="0.0000000000000000e+00" cType="1" res="-2.2759035229682922e-02" rms="2.3321576416492462e-01" purity="4.5653203129768372e-01" nType="-99"/>
          </Node>
        </Node>
      </Node>
    </BinaryTree>
    <BinaryTree type="DecisionTree" boostWeight="1.0000000000000000e+00" itree="193">
      <Node pos="s" depth="0" NCoef="0" IVar="11" Cut="1.7333781719207764e+00" cType="1" res="1.2262980453670025e-03" rms="1.8513083457946777e-01" purity="4.9872443079948425e-01" nType="0">
        <Node pos="l" depth="1" NCoef="0" IVar="10" Cut="6.6708147525787354e-01" cType="1" res="2.4804734857752919e-04" rms="1.8229958415031433e-01" purity="5.0822567939758301e-01" nType="0">
          <Node pos="l" depth="2" NCoef="0" IVar="1" Cut="6.0589130967855453e-02" cType="1" res="-1.3390698004513979e-03" rms="1.7780858278274536e-01" purity="5.2281522750854492e-01" nType="0">
            <Node pos="l" depth="3" NCoef="0" IVar="-1" Cut="0.0000000000000000e+00" cType="1" res="8.4539959207177162e-03" rms="1.8001674115657806e-01" purity="2.6160153746604919e-01" nType="-99"/>
            <Node pos="r" depth="3" NCoef="0" IVar="-1" Cut="0.0000000000000000e+00" cType="1" res="-1.5440884046256542e-02" rms="1.7586497962474823e-01" purity="7.4109011888504028e-01" nType="-99"/>
          </Node>
          <Node pos="r" depth="2" NCoef="0" IVar="7" Cut="2.1781852841377258e-01" cType="1" res="4.5296708121895790e-03" rms="1.9383217394351959e-01" purity="4.6886706352233887e-01" nType="0">
            <Node pos="l" depth="3" NCoef="0" IVar="-1" Cut="0.0000000000000000e+00" cType="1" res="2.5349181145429611e-02" rms="1.9925035536289215e-01" purity="5.1426362991333008e-01" nType="-99"/>
            <Node pos="r" depth="3" NCoef="0" IVar="-1" Cut="0.0000000000000000e+00" cType="1" res="-7.0046084001660347e-03" rms="1.8604284524917603e-01" purity="4.0757206082344055e-01" nType="-99"/>
          </Node>
        </Node>
        <Node pos="r" depth="1" NCoef="0" IVar="8" Cut="4.0642601251602173e-01" cType="1" res="1.3322149403393269e-02" rms="2.1674463152885437e-01" purity="3.8124370574951172e-01" nType="0">
          <Node pos="l" depth="2" NCoef="0" IVar="-1" Cut="0.0000000000000000e+00" cType="1" res="7.1066515520215034e-03" rms="2.1059265732765198e-01" purity="4.0575441718101501e-01" nType="-99"/>
          <Node pos="r" depth="2" NCoef="0" IVar="-1" Cut="0.0000000000000000e+00" cType="1" res="6.4403697848320007e-02" rms="2.2589470446109772e-01" purity="3.3886525034904480e-01" nType="-99"/>
        </Node>
      </Node>
    </BinaryTree>
    <BinaryTree type="DecisionTree" boostWeight="1.0000000000000000e+00" itree="194">
      <Node pos="s" depth="0" NCoef="0" IVar="8" Cut="1.2005642652511597e+00" cType="1" res="5.8440054999664426e-04" rms="1.8310242891311646e-01" purity="4.9536666274070740e-01" nType="0">
        <Node pos="l" depth="1" NCoef="0" IVar="9" Cut="9.3288302421569824e-01" cType="1" res="1.5414280351251364e-03" rms="1.8239457905292511e-01" purity="5.3314924240112305e-01" nType="0">
          <Node pos="l" depth="2" NCoef="0" IVar="10" Cut="-1.1993150711059570e+00" cType="1" res="3.0184932984411716e-03" rms="1.7785118520259857e-01" purity="5.6251770257949829e-01" nType="0">
            <Node pos="l" depth="3" NCoef="0" IVar="-1" Cut="0.0000000000000000e+00" cType="1" res="2.4345826357603073e-02" rms="2.0581814646720886e-01" purity="4.4109141826629639e-01" nType="-99"/>
            <Node pos="r" depth="3" NCoef="0" IVar="-1" Cut="0.0000000000000000e+00" cType="1" res="6.0871820896863937e-03" rms="1.7292822897434235e-01" purity="5.8195149898529053e-01" nType="-99"/>
          </Node>
          <Node pos="r" depth="2" NCoef="0" IVar="10" Cut="-1.3314883410930634e-01" cType="1" res="-5.4223313927650452e-03" rms="2.0230069756507874e-01" purity="3.9468881487846375e-01" nType="0">
            <Node pos="l" depth="3" NCoef="0" IVar="-1" Cut="0.0000000000000000e+00" cType="1" res="-3.6578215658664703e-02" rms="2.0162984728813171e-01" purity="3.7873381376266479e-01" nType="-99"/>
            <Node pos="r" depth="3" NCoef="0" IVar="-1" Cut="0.0000000000000000e+00" cType="1" res="4.4697001576423645e-03" rms="2.0248632133007050e-01" purity="4.0649726986885071e-01" nType="-99"/>
          </Node>
        </Node>
        <Node pos="r" depth="1" NCoef="0" IVar="0" Cut="1.9182825927734375e+03" cType="1" res="-7.4335089884698391e-03" rms="1.8873794376850128e-01" purity="1.7882668972015381e-01" nType="0">
          <Node pos="l" depth="2" NCoef="0" IVar="6" Cut="9.2706268310546875e+01" cType="1" res="8.0295064253732562e-04" rms="1.1534105986356735e-01" purity="1.4678561128675938e-02" nType="0">
            <Node pos="l" depth="3" NCoef="0" IVar="-1" Cut="0.0000000000000000e+00" cType="1" res="-4.5643605291843414e-02" rms="6.4607016742229462e-02" purity="4.1311061941087246e-03" nType="-99"/>
            <Node pos="r" depth="3" NCoef="0" IVar="-1" Cut="0.0000000000000000e+00" cType="1" res="3.3589694648981094e-02" rms="1.6786786913871765e-01" purity="3.1944494694471359e-02" nType="-99"/>
          </Node>
          <Node pos="r" depth="2" NCoef="0" IVar="-1" Cut="0.0000000000000000e+00" cType="1" res="-3.2906569540500641e-02" rms="2.9998958110809326e-01" purity="5.8297389745712280e-01" nType="-99"/>
        </Node>
      </Node>
    </BinaryTree>
    <BinaryTree type="DecisionTree" boostWeight="1.0000000000000000e+00" itree="195">
      <Node pos="s" depth="0" NCoef="0" IVar="10" Cut="-6.6601920127868652e-01" cType="1" res="1.4770786510780454e-03" rms="1.8555459380149841e-01" purity="4.9969032406806946e-01" nType="0">
        <Node pos="l" depth="1" NCoef="0" IVar="4" Cut="2.6023141479492188e+02" cType="1" res="6.3654715195298195e-03" rms="1.9506177306175232e-01" purity="4.5568105578422546e-01" nType="0">
          <Node pos="l" depth="2" NCoef="0" IVar="3" Cut="3.0412524414062500e+02" cType="1" res="1.0183824226260185e-02" rms="2.0556907355785370e-01" purity="1.6672976315021515e-01" nType="0">
            <Node pos="l" depth="3" NCoef="0" IVar="-1" Cut="0.0000000000000000e+00" cType="1" res="1.2435361742973328e-02" rms="1.8214784562587738e-01" purity="8.0401428043842316e-02" nType="-99"/>
            <Node pos="r" depth="3" NCoef="0" IVar="-1" Cut="0.0000000000000000e+00" cType="1" res="3.9732869714498520e-02" rms="2.4829508364200592e-01" purity="3.5392028093338013e-01" nType="-99"/>
          </Node>
          <Node pos="r" depth="2" NCoef="0" IVar="11" Cut="4.0427955985069275e-01" cType="1" res="9.7757996991276741e-04" rms="1.7905196547508240e-01" purity="8.6340612173080444e-01" nType="0">
            <Node pos="l" depth="3" NCoef="0" IVar="-1" Cut="0.0000000000000000e+00" cType="1" res="-5.3061577491462231e-03" rms="1.7927993834018707e-01" purity="8.5686630010604858e-01" nType="-99"/>
            <Node pos="r" depth="3" NCoef="0" IVar="-1" Cut="0.0000000000000000e+00" cType="1" res="1.8148412927985191e-02" rms="1.7847730219364166e-01" purity="8.7647169828414917e-01" nType="-99"/>
          </Node>
        </Node>
        <Node pos="r" depth="1" NCoef="0" IVar="11" Cut="-1.7337607145309448e+00" cType="1" res="-3.9043114520609379e-04" rms="1.8175666034221649e-01" purity="5.1650321483612061e-01" nType="0">
          <Node pos="l" depth="2" NCoef="0" IVar="-1" Cut="0.0000000000000000e+00" cType="1" res="3.8033332675695419e-02" rms="2.2158572077751160e-01" purity="3.9095386862754822e-01" nType="-99"/>
          <Node pos="r" depth="2" NCoef="0" IVar="10" Cut="3.2412227988243103e-01" cType="1" res="-1.4874686021357775e-03" rms="1.7855598032474518e-01" purity="5.2537351846694946e-01" nType="0">
            <Node pos="l" depth="3" NCoef="0" IVar="-1" Cut="0.0000000000000000e+00" cType="1" res="-1.5546540729701519e-02" rms="1.6796433925628662e-01" purity="5.6507825851440430e-01" nType="-99"/>
            <Node pos="r" depth="3" NCoef="0" IVar="-1" Cut="0.0000000000000000e+00" cType="1" res="3.5504186525940895e-03" rms="1.8709503114223480e-01" purity="4.9142920970916748e-01" nType="-99"/>
          </Node>
        </Node>
      </Node>
    </BinaryTree>
    <BinaryTree type="DecisionTree" boostWeight="1.0000000000000000e+00" itree="196">
      <Node pos="s" depth="0" NCoef="0" IVar="8" Cut="1.1998844146728516e+00" cType="1" res="-1.1749260593205690e-03" rms="1.8403685092926025e-01" purity="5.0675654411315918e-01" nType="0">
        <Node pos="l" depth="1" NCoef="0" IVar="0" Cut="2.4650922851562500e+03" cType="1" res="-2.2477128077298403e-03" rms="1.8240465223789215e-01" purity="5.4093229770660400e-01" nType="0">
          <Node pos="l" depth="2" NCoef="0" IVar="0" Cut="1.9071467285156250e+03" cType="1" res="-5.8876667171716690e-03" rms="2.1091447770595551e-01" purity="1.1815986037254333e-01" nType="0">
            <Node pos="l" depth="3" NCoef="0" IVar="-1" Cut="0.0000000000000000e+00" cType="1" res="-2.3448844440281391e-03" rms="1.3255023956298828e-01" purity="2.0947091281414032e-02" nType="-99"/>
            <Node pos="r" depth="3" NCoef="0" IVar="-1" Cut="0.0000000000000000e+00" cType="1" res="-1.6289010643959045e-02" rms="3.4164381027221680e-01" purity="3.8013038039207458e-01" nType="-99"/>
          </Node>
          <Node pos="r" depth="2" NCoef="0" IVar="6" Cut="1.0461959838867188e+02" cType="1" res="1.4104488072916865e-03" rms="1.4824040234088898e-01" purity="9.6581953763961792e-01" nType="0">
            <Node pos="l" depth="3" NCoef="0" IVar="-1" Cut="0.0000000000000000e+00" cType="1" res="2.0166272297501564e-02" rms="2.8653675317764282e-01" purity="8.3334612846374512e-01" nType="-99"/>
            <Node pos="r" depth="3" NCoef="0" IVar="-1" Cut="0.0000000000000000e+00" cType="1" res="-1.5799523098394275e-03" rms="1.2314932048320770e-01" purity="9.8076277971267700e-01" nType="-99"/>
          </Node>
        </Node>
        <Node pos="r" depth="1" NCoef="0" IVar="0" Cut="1.5853811035156250e+03" cType="1" res="8.1266472116112709e-03" rms="1.9738006591796875e-01" purity="2.1043670177459717e-01" nType="0">
          <Node pos="l" depth="2" NCoef="0" IVar="-1" Cut="0.0000000000000000e+00" cType="1" res="-4.4583886861801147e-02" rms="5.2816346287727356e-02" purity="2.7713913004845381e-03" nType="-99"/>
          <Node pos="r" depth="2" NCoef="0" IVar="7" Cut="1.0280966758728027e-01" cType="1" res="1.4231298118829727e-02" rms="2.4548158049583435e-01" purity="3.3331900835037231e-01" nType="0">
            <Node pos="l" depth="3" NCoef="0" IVar="-1" Cut="0.0000000000000000e+00" cType="1" res="6.4251520670950413e-03" rms="2.4143452942371368e-01" purity="2.8862363100051880e-01" nType="-99"/>
            <Node pos="r" depth="3" NCoef="0" IVar="-1" Cut="0.0000000000000000e+00" cType="1" res="4.7595787793397903e-02" rms="2.4948568642139435e-01" purity="3.8551405072212219e-01" nType="-99"/>
          </Node>
        </Node>
      </Node>
    </BinaryTree>
    <BinaryTree type="DecisionTree" boostWeight="1.0000000000000000e+00" itree="197">
      <Node pos="s" depth="0" NCoef="0" IVar="11" Cut="-1.4654364585876465e+00" cType="1" res="-3.3509053173474967e-04" rms="1.8410015106201172e-01" purity="5.0046885013580322e-01" nType="0">
        <Node pos="l" depth="1" NCoef="0" IVar="5" Cut="1.8753956604003906e+02" cType="1" res="7.9781012609601021e-03" rms="2.2297832369804382e-01" purity="4.2655813694000244e-01" nType="0">
          <Node pos="l" depth="2" NCoef="0" IVar="2" Cut="4.7110333251953125e+02" cType="1" res="1.6017468646168709e-02" rms="2.2790257632732391e-01" purity="2.1421666443347931e-01" nType="0">
            <Node pos="l" depth="3" NCoef="0" IVar="-1" Cut="0.0000000000000000e+00" cType="1" res="1.8096636980772018e-02" rms="1.9108225405216217e-01" purity="7.7275559306144714e-02" nType="-99"/>
            <Node pos="r" depth="3" NCoef="0" IVar="-1" Cut="0.0000000000000000e+00" cType="1" res="4.1591990739107132e-02" rms="2.5325271487236023e-01" purity="3.2376307249069214e-01" nType="-99"/>
          </Node>
          <Node pos="r" depth="2" NCoef="0" IVar="-1" Cut="0.0000000000000000e+00" cType="1" res="-2.2096063941717148e-02" rms="2.1127007901668549e-01" purity="8.7255865335464478e-01" nType="-99"/>
        </Node>
        <Node pos="r" depth="1" NCoef="0" IVar="6" Cut="1.6918063354492188e+02" cType="1" res="-1.3869245303794742e-03" rms="1.7855127155780792e-01" purity="5.0982046127319336e-01" nType="0">
          <Node pos="l" depth="2" NCoef="0" IVar="8" Cut="-1.7282325029373169e+00" cType="1" res="-3.1591600272804499e-03" rms="1.9851456582546234e-01" purity="3.0369937419891357e-01" nType="0">
            <Node pos="l" depth="3" NCoef="0" IVar="-1" Cut="0.0000000000000000e+00" cType="1" res="5.6598249822854996e-02" rms="1.5441882610321045e-01" purity="4.5612990856170654e-02" nType="-99"/>
            <Node pos="r" depth="3" NCoef="0" IVar="-1" Cut="0.0000000000000000e+00" cType="1" res="-9.3202944844961166e-03" rms="2.0072129368782043e-01" purity="3.1846874952316284e-01" nType="-99"/>
          </Node>
          <Node pos="r" depth="2" NCoef="0" IVar="1" Cut="1.0121842473745346e-01" cType="1" res="2.4350981693714857e-03" rms="1.2500134110450745e-01" purity="9.5434343814849854e-01" nType="0">
            <Node pos="l" depth="3" NCoef="0" IVar="-1" Cut="0.0000000000000000e+00" cType="1" res="2.5327498093247414e-02" rms="1.6072659194469452e-01" purity="9.2678338289260864e-01" nType="-99"/>
            <Node pos="r" depth="3" NCoef="0" IVar="-1" Cut="0.0000000000000000e+00" cType="1" res="-9.5984973013401031e-03" rms="9.4864912331104279e-02" purity="9.7214764356613159e-01" nType="-99"/>
          </Node>
        </Node>
      </Node>
    </BinaryTree>
    <BinaryTree type="DecisionTree" boostWeight="1.0000000000000000e+00" itree="198">
      <Node pos="s" depth="0" NCoef="0" IVar="2" Cut="4.2592266845703125e+02" cType="1" res="1.0243504075333476e-03" rms="1.8478813767433167e-01" purity="5.0402152538299561e-01" nType="0">
        <Node pos="l" depth="1" NCoef="0" IVar="3" Cut="3.2620715332031250e+02" cType="1" res="-3.3150876406580210e-03" rms="1.7512895166873932e-01" purity="1.0896457731723785e-01" nType="0">
          <Node pos="l" depth="2" NCoef="0" IVar="4" Cut="2.3569522094726562e+02" cType="1" res="9.8508468363434076e-04" rms="1.6236452758312225e-01" purity="6.9149129092693329e-02" nType="0">
            <Node pos="l" depth="3" NCoef="0" IVar="-1" Cut="0.0000000000000000e+00" cType="1" res="-1.0496789589524269e-02" rms="1.3324326276779175e-01" purity="3.7310969084501266e-02" nType="-99"/>
            <Node pos="r" depth="3" NCoef="0" IVar="-1" Cut="0.0000000000000000e+00" cType="1" res="3.0254786834120750e-02" rms="2.7340248227119446e-01" purity="2.4950519204139709e-01" nType="-99"/>
          </Node>
          <Node pos="r" depth="2" NCoef="0" IVar="-1" Cut="0.0000000000000000e+00" cType="1" res="-4.3963272124528885e-02" rms="2.2877942025661469e-01" purity="3.1469213962554932e-01" nType="-99"/>
        </Node>
        <Node pos="r" depth="1" NCoef="0" IVar="6" Cut="1.1951941680908203e+02" cType="1" res="2.4724400136619806e-03" rms="1.8787866830825806e-01" purity="6.3585370779037476e-01" nType="0">
          <Node pos="l" depth="2" NCoef="0" IVar="1" Cut="8.6656264960765839e-02" cType="1" res="6.6428794525563717e-03" rms="2.1667358279228210e-01" purity="2.5810852646827698e-01" nType="0">
            <Node pos="l" depth="3" NCoef="0" IVar="-1" Cut="0.0000000000000000e+00" cType="1" res="4.6755513176321983e-03" rms="2.0287635922431946e-01" purity="1.6798470914363861e-01" nType="-99"/>
            <Node pos="r" depth="3" NCoef="0" IVar="-1" Cut="0.0000000000000000e+00" cType="1" res="4.1567660868167877e-02" rms="2.6364535093307495e-01" purity="6.1641430854797363e-01" nType="-99"/>
          </Node>
          <Node pos="r" depth="2" NCoef="0" IVar="11" Cut="1.3253852725028992e-01" cType="1" res="-5.4631708189845085e-04" rms="1.6384314000606537e-01" purity="9.0928322076797485e-01" nType="0">
            <Node pos="l" depth="3" NCoef="0" IVar="-1" Cut="0.0000000000000000e+00" cType="1" res="1.9076738506555557e-02" rms="1.5715084969997406e-01" purity="9.2236304283142090e-01" nType="-99"/>
            <Node pos="r" depth="3" NCoef="0" IVar="-1" Cut="0.0000000000000000e+00" cType="1" res="-2.4243723601102829e-02" rms="1.7108970880508423e-01" purity="8.9402019977569580e-01" nType="-99"/>
          </Node>
        </Node>
      </Node>
    </BinaryTree>
    <BinaryTree type="DecisionTree" boostWeight="1.0000000000000000e+00" itree="199">
      <Node pos="s" depth="0" NCoef="0" IVar="11" Cut="-1.4644858837127686e+00" cType="1" res="-1.5583395725116134e-03" rms="1.8555195629596710e-01" purity="4.9868673086166382e-01" nType="0">
        <Node pos="l" depth="1" NCoef="0" IVar="6" Cut="1.1954168701171875e+02" cType="1" res="-7.9917879775166512e-03" rms="2.0698498189449310e-01" purity="3.7192520499229431e-01" nType="0">
          <Node pos="l" depth="2" NCoef="0" IVar="3" Cut="2.8315719604492188e+02" cType="1" res="5.1591743249446154e-04" rms="1.9109925627708435e-01" purity="1.5981858968734741e-01" nType="0">
            <Node pos="l" depth="3" NCoef="0" IVar="-1" Cut="0.0000000000000000e+00" cType="1" res="-2.9995204880833626e-02" rms="1.2395574152469635e-01" purity="2.3395605385303497e-02" nType="-99"/>
            <Node pos="r" depth="3" NCoef="0" IVar="-1" Cut="0.0000000000000000e+00" cType="1" res="1.4911344274878502e-02" rms="2.5332626700401306e-01" purity="3.3889910578727722e-01" nType="-99"/>
          </Node>
          <Node pos="r" depth="2" NCoef="0" IVar="-1" Cut="0.0000000000000000e+00" cType="1" res="-4.9925394356250763e-02" rms="2.3210130631923676e-01" purity="7.5407445430755615e-01" nType="-99"/>
        </Node>
        <Node pos="r" depth="1" NCoef="0" IVar="11" Cut="-4.4875144958496094e-01" cType="1" res="-7.1030098479241133e-04" rms="1.8252217769622803e-01" purity="5.1539611816406250e-01" nType="0">
          <Node pos="l" depth="2" NCoef="0" IVar="8" Cut="4.0503552556037903e-01" cType="1" res="2.6005692780017853e-03" rms="1.8242682516574860e-01" purity="5.4062855243682861e-01" nType="0">
            <Node pos="l" depth="3" NCoef="0" IVar="-1" Cut="0.0000000000000000e+00" cType="1" res="-3.4762048162519932e-03" rms="1.7882911860942841e-01" purity="5.6115812063217163e-01" nType="-99"/>
            <Node pos="r" depth="3" NCoef="0" IVar="-1" Cut="0.0000000000000000e+00" cType="1" res="3.3643703907728195e-02" rms="1.9044765830039978e-01" purity="4.9161738157272339e-01" nType="-99"/>
          </Node>
          <Node pos="r" depth="2" NCoef="0" IVar="8" Cut="4.0097257494926453e-01" cType="1" res="-1.9941064529120922e-03" rms="1.8254297971725464e-01" purity="5.0561207532882690e-01" nType="0">
            <Node pos="l" depth="3" NCoef="0" IVar="-1" Cut="0.0000000000000000e+00" cType="1" res="1.4344394439831376e-03" rms="1.7797806859016418e-01" purity="5.5293083190917969e-01" nType="-99"/>
            <Node pos="r" depth="3" NCoef="0" IVar="-1" Cut="0.0000000000000000e+00" cType="1" res="-1.7973609268665314e-02" rms="1.9027896225452423e-01" purity="4.2182064056396484e-01" nType="-99"/>
          </Node>
        </Node>
      </Node>
    </BinaryTree>
    <BinaryTree type="DecisionTree" boostWeight="1.0000000000000000e+00" itree="200">
      <Node pos="s" depth="0" NCoef="0" IVar="8" Cut="-1.9997884035110474e+00" cType="1" res="-4.1296199196949601e-04" rms="1.8476592004299164e-01" purity="4.9667364358901978e-01" nType="0">
        <Node pos="l" depth="1" NCoef="0" IVar="-1" Cut="0.0000000000000000e+00" cType="1" res="-1.0154213011264801e-01" rms="1.2371519207954407e-01" purity="2.4115765467286110e-02" nType="-99"/>
        <Node pos="r" depth="1" NCoef="0" IVar="6" Cut="1.1232418823242188e+02" cType="1" res="9.0204321168130264e-06" rms="1.8607467412948608e-01" purity="5.0902724266052246e-01" nType="0">
          <Node pos="l" depth="2" NCoef="0" IVar="2" Cut="8.0880041503906250e+02" cType="1" res="2.6041520759463310e-03" rms="1.8738128244876862e-01" purity="1.5379682183265686e-01" nType="0">
            <Node pos="l" depth="3" NCoef="0" IVar="-1" Cut="0.0000000000000000e+00" cType="1" res="3.3462180290371180e-03" rms="1.7555707693099976e-01" purity="1.0721900314092636e-01" nType="-99"/>
            <Node pos="r" depth="3" NCoef="0" IVar="-1" Cut="0.0000000000000000e+00" cType="1" res="2.3094382137060165e-02" rms="2.7958205342292786e-01" purity="6.2433558702468872e-01" nType="-99"/>
          </Node>
          <Node pos="r" depth="2" NCoef="0" IVar="11" Cut="-1.4566732645034790e+00" cType="1" res="-2.0960455294698477e-03" rms="1.8498130142688751e-01" purity="7.9717576503753662e-01" nType="0">
            <Node pos="l" depth="3" NCoef="0" IVar="-1" Cut="0.0000000000000000e+00" cType="1" res="-4.7946766018867493e-02" rms="2.1622605621814728e-01" purity="6.7706668376922607e-01" nType="-99"/>
            <Node pos="r" depth="3" NCoef="0" IVar="-1" Cut="0.0000000000000000e+00" cType="1" res="1.9980303477495909e-04" rms="1.8152630329132080e-01" purity="8.0880159139633179e-01" nType="-99"/>
          </Node>
        </Node>
      </Node>
    </BinaryTree>
    <BinaryTree type="DecisionTree" boostWeight="1.0000000000000000e+00" itree="201">
      <Node pos="s" depth="0" NCoef="0" IVar="1" Cut="4.0450930595397949e-02" cType="1" res="-1.3131269952282310e-04" rms="1.8461930751800537e-01" purity="4.9569544196128845e-01" nType="0">
        <Node pos="l" depth="1" NCoef="0" IVar="3" Cut="3.8537490844726562e+02" cType="1" res="-3.6057482939213514e-03" rms="1.7159292101860046e-01" purity="1.5970748662948608e-01" nType="0">
          <Node pos="l" depth="2" NCoef="0" IVar="2" Cut="6.9937518310546875e+02" cType="1" res="-3.5909019061364233e-04" rms="1.4140512049198151e-01" purity="5.3312893956899643e-02" nType="0">
            <Node pos="l" depth="3" NCoef="0" IVar="-1" Cut="0.0000000000000000e+00" cType="1" res="-1.4164637774229050e-02" rms="1.2656533718109131e-01" purity="3.1423099339008331e-02" nType="-99"/>
            <Node pos="r" depth="3" NCoef="0" IVar="-1" Cut="0.0000000000000000e+00" cType="1" res="3.4406546503305435e-02" rms="2.2540614008903503e-01" purity="2.2470346093177795e-01" nType="-99"/>
          </Node>
          <Node pos="r" depth="2" NCoef="0" IVar="6" Cut="1.1754988861083984e+02" cType="1" res="-1.4432913623750210e-02" rms="2.4658054113388062e-01" purity="5.1451903581619263e-01" nType="0">
            <Node pos="l" depth="3" NCoef="0" IVar="-1" Cut="0.0000000000000000e+00" cType="1" res="-3.4383684396743774e-02" rms="2.5262817740440369e-01" purity="2.6502546668052673e-01" nType="-99"/>
            <Node pos="r" depth="3" NCoef="0" IVar="-1" Cut="0.0000000000000000e+00" cType="1" res="-3.7585147656500340e-03" rms="2.3838719725608826e-01" purity="8.2041221857070923e-01" nType="-99"/>
          </Node>
        </Node>
        <Node pos="r" depth="1" NCoef="0" IVar="0" Cut="2.4651076660156250e+03" cType="1" res="1.6921930946409702e-03" rms="1.9107575714588165e-01" purity="6.7203366756439209e-01" nType="0">
          <Node pos="l" depth="2" NCoef="0" IVar="7" Cut="9.7656780481338501e-01" cType="1" res="6.8801417946815491e-03" rms="2.5886070728302002e-01" purity="1.9840082526206970e-01" nType="0">
            <Node pos="l" depth="3" NCoef="0" IVar="-1" Cut="0.0000000000000000e+00" cType="1" res="4.7310427762567997e-03" rms="2.5895649194717407e-01" purity="2.0191092789173126e-01" nType="-99"/>
            <Node pos="r" depth="3" NCoef="0" IVar="-1" Cut="0.0000000000000000e+00" cType="1" res="6.2448117882013321e-02" rms="2.5632396340370178e-01" purity="1.7121425271034241e-01" nType="-99"/>
          </Node>
          <Node pos="r" depth="2" NCoef="0" IVar="0" Cut="2.6806909179687500e+03" cType="1" res="-1.6764987958595157e-03" rms="1.2914040684700012e-01" purity="9.7957783937454224e-01" nType="0">
            <Node pos="l" depth="3" NCoef="0" IVar="-1" Cut="0.0000000000000000e+00" cType="1" res="-2.4683864787220955e-02" rms="2.7535572648048401e-01" purity="9.0213471651077271e-01" nType="-99"/>
            <Node pos="r" depth="3" NCoef="0" IVar="-1" Cut="0.0000000000000000e+00" cType="1" res="-1.9319655839353800e-03" rms="9.9996842443943024e-02" purity="9.8829370737075806e-01" nType="-99"/>
          </Node>
        </Node>
      </Node>
    </BinaryTree>
    <BinaryTree type="DecisionTree" boostWeight="1.0000000000000000e+00" itree="202">
      <Node pos="s" depth="0" NCoef="0" IVar="1" Cut="9.8807998001575470e-02" cType="1" res="4.5246258378028870e-04" rms="1.8438531458377838e-01" purity="5.0504416227340698e-01" nType="0">
        <Node pos="l" depth="1" NCoef="0" IVar="1" Cut="7.0603109896183014e-02" cType="1" res="-1.3704739976674318e-03" rms="1.9484904408454895e-01" purity="3.4422877430915833e-01" nType="0">
          <Node pos="l" depth="2" NCoef="0" IVar="6" Cut="1.4094854736328125e+02" cType="1" res="1.1109276965726167e-04" rms="1.8974094092845917e-01" purity="2.7867063879966736e-01" nType="0">
            <Node pos="l" depth="3" NCoef="0" IVar="-1" Cut="0.0000000000000000e+00" cType="1" res="-5.7912408374249935e-03" rms="1.8000997602939606e-01" purity="1.3573706150054932e-01" nType="-99"/>
            <Node pos="r" depth="3" NCoef="0" IVar="-1" Cut="0.0000000000000000e+00" cType="1" res="1.5055439434945583e-02" rms="2.2085021436214447e-01" purity="7.8874218463897705e-01" nType="-99"/>
          </Node>
          <Node pos="r" depth="2" NCoef="0" IVar="8" Cut="-6.6519117355346680e-01" cType="1" res="-7.4156387709081173e-03" rms="2.1432778239250183e-01" purity="6.1172240972518921e-01" nType="0">
            <Node pos="l" depth="3" NCoef="0" IVar="-1" Cut="0.0000000000000000e+00" cType="1" res="-5.7033050805330276e-02" rms="2.3685747385025024e-01" purity="4.7777849435806274e-01" nType="-99"/>
            <Node pos="r" depth="3" NCoef="0" IVar="-1" Cut="0.0000000000000000e+00" cType="1" res="-3.0505317263305187e-03" rms="2.0736265182495117e-01" purity="6.4808744192123413e-01" nType="-99"/>
          </Node>
        </Node>
        <Node pos="r" depth="1" NCoef="0" IVar="0" Cut="2.3776723632812500e+03" cType="1" res="3.9113806560635567e-03" rms="1.6263525187969208e-01" purity="8.1018227338790894e-01" nType="0">
          <Node pos="l" depth="2" NCoef="0" IVar="0" Cut="1.8190673828125000e+03" cType="1" res="1.2552695348858833e-02" rms="2.7807384729385376e-01" purity="2.6284435391426086e-01" nType="0">
            <Node pos="l" depth="3" NCoef="0" IVar="-1" Cut="0.0000000000000000e+00" cType="1" res="4.7232406213879585e-03" rms="1.6687420010566711e-01" purity="3.1765952706336975e-02" nType="-99"/>
            <Node pos="r" depth="3" NCoef="0" IVar="-1" Cut="0.0000000000000000e+00" cType="1" res="1.8760481849312782e-02" rms="3.8358399271965027e-01" purity="5.9092539548873901e-01" nType="-99"/>
          </Node>
          <Node pos="r" depth="2" NCoef="0" IVar="10" Cut="-9.2593830823898315e-01" cType="1" res="1.0848112870007753e-03" rms="9.8877102136611938e-02" purity="9.8921614885330200e-01" nType="0">
            <Node pos="l" depth="3" NCoef="0" IVar="-1" Cut="0.0000000000000000e+00" cType="1" res="3.3558014780282974e-02" rms="1.0746140033006668e-01" purity="9.8606014251708984e-01" nType="-99"/>
            <Node pos="r" depth="3" NCoef="0" IVar="-1" Cut="0.0000000000000000e+00" cType="1" res="2.1298616193234921e-03" rms="9.6921987831592560e-02" purity="9.8989021778106689e-01" nType="-99"/>
          </Node>
        </Node>
      </Node>
    </BinaryTree>
    <BinaryTree type="DecisionTree" boostWeight="1.0000000000000000e+00" itree="203">
      <Node pos="s" depth="0" NCoef="0" IVar="10" Cut="1.9991602897644043e+00" cType="1" res="-9.7314768936485052e-04" rms="1.8654087185859680e-01" purity="4.9563330411911011e-01" nType="0">
        <Node pos="l" depth="1" NCoef="0" IVar="7" Cut="9.8796194791793823e-01" cType="1" res="-4.4305840856395662e-04" rms="1.8526783585548401e-01" purity="5.0760501623153687e-01" nType="0">
          <Node pos="l" depth="2" NCoef="0" IVar="5" Cut="2.2115243530273438e+02" cType="1" res="5.2684592083096504e-04" rms="1.8750563263893127e-01" purity="5.5298048257827759e-01" nType="0">
            <Node pos="l" depth="3" NCoef="0" IVar="-1" Cut="0.0000000000000000e+00" cType="1" res="6.2431781552731991e-03" rms="2.1149106323719025e-01" purity="2.9653912782669067e-01" nType="-99"/>
            <Node pos="r" depth="3" NCoef="0" IVar="-1" Cut="0.0000000000000000e+00" cType="1" res="-1.5160167589783669e-02" rms="1.4210289716720581e-01" purity="9.5345276594161987e-01" nType="-99"/>
          </Node>
          <Node pos="r" depth="2" NCoef="0" IVar="0" Cut="1.8059893798828125e+03" cType="1" res="-7.1573927998542786e-03" rms="1.6881263256072998e-01" purity="1.9348593056201935e-01" nType="0">
            <Node pos="l" depth="3" NCoef="0" IVar="-1" Cut="0.0000000000000000e+00" cType="1" res="7.1310047060251236e-03" rms="8.5177183151245117e-02" purity="7.5145787559449673e-03" nType="-99"/>
            <Node pos="r" depth="3" NCoef="0" IVar="-1" Cut="0.0000000000000000e+00" cType="1" res="-2.5422031059861183e-02" rms="2.4875093996524811e-01" purity="4.8779943585395813e-01" nType="-99"/>
          </Node>
        </Node>
        <Node pos="r" depth="1" NCoef="0" IVar="-1" Cut="0.0000000000000000e+00" cType="1" res="-3.4326735883951187e-02" rms="2.1781818568706512e-01" purity="1.7030760645866394e-01" nType="-99"/>
      </Node>
    </BinaryTree>
    <BinaryTree type="DecisionTree" boostWeight="1.0000000000000000e+00" itree="204">
      <Node pos="s" depth="0" NCoef="0" IVar="11" Cut="-1.9984498023986816e+00" cType="1" res="9.2139729531481862e-05" rms="1.8366910517215729e-01" purity="4.9850735068321228e-01" nType="0">
        <Node pos="l" depth="1" NCoef="0" IVar="-1" Cut="0.0000000000000000e+00" cType="1" res="-3.4625388681888580e-02" rms="1.6244313120841980e-01" purity="2.5452309846878052e-01" nType="-99"/>
        <Node pos="r" depth="1" NCoef="0" IVar="7" Cut="-9.1560818254947662e-02" cType="1" res="7.5974303763359785e-04" rms="1.8460671603679657e-01" purity="5.1029616594314575e-01" nType="0">
          <Node pos="l" depth="2" NCoef="0" IVar="9" Cut="-1.1985864639282227e+00" cType="1" res="3.5471022129058838e-03" rms="1.8534784018993378e-01" purity="4.9901711940765381e-01" nType="0">
            <Node pos="l" depth="3" NCoef="0" IVar="-1" Cut="0.0000000000000000e+00" cType="1" res="-1.2062863446772099e-02" rms="1.7500118911266327e-01" purity="3.0148556828498840e-01" nType="-99"/>
            <Node pos="r" depth="3" NCoef="0" IVar="-1" Cut="0.0000000000000000e+00" cType="1" res="1.4115405268967152e-02" rms="1.8685789406299591e-01" purity="5.2943086624145508e-01" nType="-99"/>
          </Node>
          <Node pos="r" depth="2" NCoef="0" IVar="11" Cut="-1.3128321170806885e+00" cType="1" res="-1.5467636985704303e-03" rms="1.8395927548408508e-01" purity="5.1962941884994507e-01" nType="0">
            <Node pos="l" depth="3" NCoef="0" IVar="-1" Cut="0.0000000000000000e+00" cType="1" res="-4.0694028139114380e-02" rms="2.0600101351737976e-01" purity="4.4091236591339111e-01" nType="-99"/>
            <Node pos="r" depth="3" NCoef="0" IVar="-1" Cut="0.0000000000000000e+00" cType="1" res="-5.8395124506205320e-04" rms="1.8152718245983124e-01" purity="5.2758967876434326e-01" nType="-99"/>
          </Node>
        </Node>
      </Node>
    </BinaryTree>
    <BinaryTree type="DecisionTree" boostWeight="1.0000000000000000e+00" itree="205">
      <Node pos="s" depth="0" NCoef="0" IVar="1" Cut="2.1680036559700966e-02" cType="1" res="6.9942261325195432e-04" rms="1.8335598707199097e-01" purity="5.0186479091644287e-01" nType="0">
        <Node pos="l" depth="1" NCoef="0" IVar="1" Cut="1.8584705889225006e-02" cType="1" res="-4.6349274925887585e-03" rms="1.5018391609191895e-01" purity="9.6624337136745453e-02" nType="0">
          <Node pos="l" depth="2" NCoef="0" IVar="8" Cut="1.3396629691123962e-01" cType="1" res="-2.0922569092363119e-03" rms="1.4624761044979095e-01" purity="8.9832901954650879e-02" nType="0">
            <Node pos="l" depth="3" NCoef="0" IVar="-1" Cut="0.0000000000000000e+00" cType="1" res="9.1954395174980164e-03" rms="1.5404294431209564e-01" purity="1.0160985589027405e-01" nType="-99"/>
            <Node pos="r" depth="3" NCoef="0" IVar="-1" Cut="0.0000000000000000e+00" cType="1" res="-3.1644172966480255e-02" rms="1.3656549155712128e-01" purity="7.6302997767925262e-02" nType="-99"/>
          </Node>
          <Node pos="r" depth="2" NCoef="0" IVar="-1" Cut="0.0000000000000000e+00" cType="1" res="-4.9574311822652817e-02" rms="1.6927164793014526e-01" purity="1.3342352211475372e-01" nType="-99"/>
        </Node>
        <Node pos="r" depth="1" NCoef="0" IVar="4" Cut="2.6200891113281250e+02" cType="1" res="1.8908808706328273e-03" rms="1.8995499610900879e-01" purity="5.9237760305404663e-01" nType="0">
          <Node pos="l" depth="2" NCoef="0" IVar="0" Cut="1.8087011718750000e+03" cType="1" res="5.5279438383877277e-03" rms="2.1567063033580780e-01" purity="2.1796253323554993e-01" nType="0">
            <Node pos="l" depth="3" NCoef="0" IVar="-1" Cut="0.0000000000000000e+00" cType="1" res="1.0527785867452621e-02" rms="1.2608733773231506e-01" purity="1.6981245949864388e-02" nType="-99"/>
            <Node pos="r" depth="3" NCoef="0" IVar="-1" Cut="0.0000000000000000e+00" cType="1" res="1.2932888232171535e-02" rms="3.1471794843673706e-01" purity="5.6331592798233032e-01" nType="-99"/>
          </Node>
          <Node pos="r" depth="2" NCoef="0" IVar="4" Cut="3.0358551025390625e+02" cType="1" res="-1.2226641410961747e-03" rms="1.6471911966800690e-01" purity="9.1289949417114258e-01" nType="0">
            <Node pos="l" depth="3" NCoef="0" IVar="-1" Cut="0.0000000000000000e+00" cType="1" res="-1.4980986714363098e-02" rms="2.3659341037273407e-01" purity="7.0360320806503296e-01" nType="-99"/>
            <Node pos="r" depth="3" NCoef="0" IVar="-1" Cut="0.0000000000000000e+00" cType="1" res="3.5166232846677303e-03" rms="1.4169582724571228e-01" purity="9.6395450830459595e-01" nType="-99"/>
          </Node>
        </Node>
      </Node>
    </BinaryTree>
    <BinaryTree type="DecisionTree" boostWeight="1.0000000000000000e+00" itree="206">
      <Node pos="s" depth="0" NCoef="0" IVar="4" Cut="3.1223602294921875e+02" cType="1" res="-1.6836646245792508e-03" rms="1.8441750109195709e-01" purity="4.9183681607246399e-01" nType="0">
        <Node pos="l" depth="1" NCoef="0" IVar="6" Cut="1.7840455627441406e+02" cType="1" res="-3.3277554903179407e-03" rms="2.0236138999462128e-01" purity="2.4388071894645691e-01" nType="0">
          <Node pos="l" depth="2" NCoef="0" IVar="11" Cut="-1.4655210971832275e+00" cType="1" res="-2.0016795024275780e-03" rms="2.0136864483356476e-01" purity="1.8296852707862854e-01" nType="0">
            <Node pos="l" depth="3" NCoef="0" IVar="-1" Cut="0.0000000000000000e+00" cType="1" res="1.8641734495759010e-02" rms="2.2026014328002930e-01" purity="1.8249471485614777e-01" nType="-99"/>
            <Node pos="r" depth="3" NCoef="0" IVar="-1" Cut="0.0000000000000000e+00" cType="1" res="-9.0384548529982567e-03" rms="1.9808298349380493e-01" purity="1.8304547667503357e-01" nType="-99"/>
          </Node>
          <Node pos="r" depth="2" NCoef="0" IVar="-1" Cut="0.0000000000000000e+00" cType="1" res="-3.7799984216690063e-02" rms="2.1172606945037842e-01" purity="8.6360281705856323e-01" nType="-99"/>
        </Node>
        <Node pos="r" depth="1" NCoef="0" IVar="6" Cut="1.0483480072021484e+02" cType="1" res="1.3707829639315605e-03" rms="1.4526356756687164e-01" purity="9.5249807834625244e-01" nType="0">
          <Node pos="l" depth="2" NCoef="0" IVar="-1" Cut="0.0000000000000000e+00" cType="1" res="2.3821722716093063e-02" rms="2.5801667571067810e-01" purity="7.5838488340377808e-01" nType="-99"/>
          <Node pos="r" depth="2" NCoef="0" IVar="2" Cut="6.3881823730468750e+02" cType="1" res="-4.5620006858371198e-04" rms="1.2592402100563049e-01" purity="9.7474855184555054e-01" nType="0">
            <Node pos="l" depth="3" NCoef="0" IVar="-1" Cut="0.0000000000000000e+00" cType="1" res="1.4229764230549335e-02" rms="1.5322190523147583e-01" purity="9.5925343036651611e-01" nType="-99"/>
            <Node pos="r" depth="3" NCoef="0" IVar="-1" Cut="0.0000000000000000e+00" cType="1" res="-2.5635235011577606e-02" rms="1.0788711905479431e-01" purity="9.8329579830169678e-01" nType="-99"/>
          </Node>
        </Node>
      </Node>
    </BinaryTree>
    <BinaryTree type="DecisionTree" boostWeight="1.0000000000000000e+00" itree="207">
      <Node pos="s" depth="0" NCoef="0" IVar="7" Cut="4.7662848234176636e-01" cType="1" res="1.2457610864657909e-04" rms="1.8602086603641510e-01" purity="5.0328069925308228e-01" nType="0">
        <Node pos="l" depth="1" NCoef="0" IVar="8" Cut="-1.1997841596603394e+00" cType="1" res="2.1564369089901447e-03" rms="1.8985915184020996e-01" purity="5.5221456289291382e-01" nType="0">
          <Node pos="l" depth="2" NCoef="0" IVar="11" Cut="1.2360778450965881e-01" cType="1" res="1.3993129134178162e-02" rms="2.0126122236251831e-01" purity="2.5540587306022644e-01" nType="0">
            <Node pos="l" depth="3" NCoef="0" IVar="-1" Cut="0.0000000000000000e+00" cType="1" res="1.3200797140598297e-02" rms="1.7421729862689972e-01" purity="2.4749103188514709e-01" nType="-99"/>
            <Node pos="r" depth="3" NCoef="0" IVar="-1" Cut="0.0000000000000000e+00" cType="1" res="6.0328394174575806e-02" rms="2.3660340905189514e-01" purity="2.6773467659950256e-01" nType="-99"/>
          </Node>
          <Node pos="r" depth="2" NCoef="0" IVar="8" Cut="1.3210606575012207e-01" cType="1" res="9.1599527513608336e-04" rms="1.8858136236667633e-01" purity="5.8331900835037231e-01" nType="0">
            <Node pos="l" depth="3" NCoef="0" IVar="-1" Cut="0.0000000000000000e+00" cType="1" res="-7.2657377459108829e-03" rms="1.8281058967113495e-01" purity="6.3686764240264893e-01" nType="-99"/>
            <Node pos="r" depth="3" NCoef="0" IVar="-1" Cut="0.0000000000000000e+00" cType="1" res="1.2517950497567654e-02" rms="1.9433404505252838e-01" purity="5.2768695354461670e-01" nType="-99"/>
          </Node>
        </Node>
        <Node pos="r" depth="1" NCoef="0" IVar="1" Cut="7.1435421705245972e-02" cType="1" res="-5.0562652759253979e-03" rms="1.7574900388717651e-01" purity="3.7850901484489441e-01" nType="0">
          <Node pos="l" depth="2" NCoef="0" IVar="1" Cut="4.0902264416217804e-02" cType="1" res="-7.5693847611546516e-03" rms="1.6622342169284821e-01" purity="2.0287498831748962e-01" nType="0">
            <Node pos="l" depth="3" NCoef="0" IVar="-1" Cut="0.0000000000000000e+00" cType="1" res="-1.4773427508771420e-02" rms="1.5114736557006836e-01" purity="1.2105487287044525e-01" nType="-99"/>
            <Node pos="r" depth="3" NCoef="0" IVar="-1" Cut="0.0000000000000000e+00" cType="1" res="-3.4244026988744736e-02" rms="1.9709065556526184e-01" purity="3.9637497067451477e-01" nType="-99"/>
          </Node>
          <Node pos="r" depth="2" NCoef="0" IVar="5" Cut="2.0039865112304688e+02" cType="1" res="-4.6003429451957345e-04" rms="1.9186617434024811e-01" purity="6.9972509145736694e-01" nType="0">
            <Node pos="l" depth="3" NCoef="0" IVar="-1" Cut="0.0000000000000000e+00" cType="1" res="1.9470404833555222e-02" rms="2.3005177080631256e-01" purity="3.6211514472961426e-01" nType="-99"/>
            <Node pos="r" depth="3" NCoef="0" IVar="-1" Cut="0.0000000000000000e+00" cType="1" res="-2.9349388554692268e-02" rms="1.6250982880592346e-01" purity="9.1479808092117310e-01" nType="-99"/>
          </Node>
        </Node>
      </Node>
    </BinaryTree>
    <BinaryTree type="DecisionTree" boostWeight="1.0000000000000000e+00" itree="208">
      <Node pos="s" depth="0" NCoef="0" IVar="11" Cut="-1.7333898544311523e+00" cType="1" res="-8.1476662307977676e-04" rms="1.8141347169876099e-01" purity="5.0391584634780884e-01" nType="0">
        <Node pos="l" depth="1" NCoef="0" IVar="1" Cut="5.1012024283409119e-02" cType="1" res="8.3062974736094475e-03" rms="2.1187616884708405e-01" purity="3.7158098816871643e-01" nType="0">
          <Node pos="l" depth="2" NCoef="0" IVar="-1" Cut="0.0000000000000000e+00" cType="1" res="-3.3174357376992702e-03" rms="1.7233176529407501e-01" purity="1.1741808801889420e-01" nType="-99"/>
          <Node pos="r" depth="2" NCoef="0" IVar="-1" Cut="0.0000000000000000e+00" cType="1" res="3.4687727689743042e-02" rms="2.4696239829063416e-01" purity="6.4414215087890625e-01" nType="-99"/>
        </Node>
        <Node pos="r" depth="1" NCoef="0" IVar="8" Cut="6.6675919294357300e-01" cType="1" res="-1.5637311153113842e-03" rms="1.7866079509258270e-01" purity="5.1478236913681030e-01" nType="0">
          <Node pos="l" depth="2" NCoef="0" IVar="9" Cut="1.4664971828460693e+00" cType="1" res="-3.0465375166386366e-03" rms="1.7752985656261444e-01" purity="5.5751889944076538e-01" nType="0">
            <Node pos="l" depth="3" NCoef="0" IVar="-1" Cut="0.0000000000000000e+00" cType="1" res="-6.5332786180078983e-03" rms="1.7416386306285858e-01" purity="5.7799422740936279e-01" nType="-99"/>
            <Node pos="r" depth="3" NCoef="0" IVar="-1" Cut="0.0000000000000000e+00" cType="1" res="-4.0756769478321075e-02" rms="2.2015692293643951e-01" purity="2.6087218523025513e-01" nType="-99"/>
          </Node>
          <Node pos="r" depth="2" NCoef="0" IVar="9" Cut="-1.1991956233978271e+00" cType="1" res="3.0737314373254776e-03" rms="1.8207457661628723e-01" purity="3.8112449645996094e-01" nType="0">
            <Node pos="l" depth="3" NCoef="0" IVar="-1" Cut="0.0000000000000000e+00" cType="1" res="-4.2628187686204910e-02" rms="1.8791092932224274e-01" purity="2.0923584699630737e-01" nType="-99"/>
            <Node pos="r" depth="3" NCoef="0" IVar="-1" Cut="0.0000000000000000e+00" cType="1" res="1.7680216580629349e-02" rms="1.8105094134807587e-01" purity="4.0570446848869324e-01" nType="-99"/>
          </Node>
        </Node>
      </Node>
    </BinaryTree>
    <BinaryTree type="DecisionTree" boostWeight="1.0000000000000000e+00" itree="209">
      <Node pos="s" depth="0" NCoef="0" IVar="11" Cut="-1.9984498023986816e+00" cType="1" res="2.5334067177027464e-03" rms="1.8504570424556732e-01" purity="5.0313109159469604e-01" nType="0">
        <Node pos="l" depth="1" NCoef="0" IVar="-1" Cut="0.0000000000000000e+00" cType="1" res="-3.2097350805997849e-02" rms="1.9368809461593628e-01" purity="2.8289386630058289e-01" nType="-99"/>
        <Node pos="r" depth="1" NCoef="0" IVar="10" Cut="-1.1993937492370605e+00" cType="1" res="3.2832701690495014e-03" rms="1.8461927771568298e-01" purity="5.1284176111221313e-01" nType="0">
          <Node pos="l" depth="2" NCoef="0" IVar="0" Cut="2.5140097656250000e+03" cType="1" res="1.0242408141493797e-02" rms="2.0739006996154785e-01" purity="4.0229624509811401e-01" nType="0">
            <Node pos="l" depth="3" NCoef="0" IVar="-1" Cut="0.0000000000000000e+00" cType="1" res="3.7507422268390656e-02" rms="2.2085067629814148e-01" purity="1.3725730776786804e-01" nType="-99"/>
            <Node pos="r" depth="3" NCoef="0" IVar="-1" Cut="0.0000000000000000e+00" cType="1" res="-8.5188383236527443e-03" rms="1.7738671600818634e-01" purity="9.2070478200912476e-01" nType="-99"/>
          </Node>
          <Node pos="r" depth="2" NCoef="0" IVar="10" Cut="-8.1851983070373535e-01" cType="1" res="2.1492461673915386e-03" rms="1.8061147630214691e-01" purity="5.3085565567016602e-01" nType="0">
            <Node pos="l" depth="3" NCoef="0" IVar="-1" Cut="0.0000000000000000e+00" cType="1" res="-1.2885032221674919e-02" rms="1.9438692927360535e-01" purity="5.2285867929458618e-01" nType="-99"/>
            <Node pos="r" depth="3" NCoef="0" IVar="-1" Cut="0.0000000000000000e+00" cType="1" res="9.0825436636805534e-03" rms="1.7881591618061066e-01" purity="5.3184539079666138e-01" nType="-99"/>
          </Node>
        </Node>
      </Node>
    </BinaryTree>
    <BinaryTree type="DecisionTree" boostWeight="1.0000000000000000e+00" itree="210">
      <Node pos="s" depth="0" NCoef="0" IVar="1" Cut="4.2924188077449799e-02" cType="1" res="-1.6019520116969943e-03" rms="1.8629710376262665e-01" purity="4.9453598260879517e-01" nType="0">
        <Node pos="l" depth="1" NCoef="0" IVar="0" Cut="2.1331396484375000e+03" cType="1" res="2.5900090113282204e-03" rms="1.7365506291389465e-01" purity="1.7614495754241943e-01" nType="0">
          <Node pos="l" depth="2" NCoef="0" IVar="4" Cut="2.1283351135253906e+02" cType="1" res="-1.7432178137823939e-03" rms="1.0962142795324326e-01" purity="1.4350609853863716e-02" nType="0">
            <Node pos="l" depth="3" NCoef="0" IVar="-1" Cut="0.0000000000000000e+00" cType="1" res="-2.8054037829861045e-04" rms="9.8941214382648468e-02" purity="1.1312691494822502e-02" nType="-99"/>
            <Node pos="r" depth="3" NCoef="0" IVar="-1" Cut="0.0000000000000000e+00" cType="1" res="-2.8395645320415497e-02" rms="1.4240270853042603e-01" purity="2.5688907131552696e-02" nType="-99"/>
          </Node>
          <Node pos="r" depth="2" NCoef="0" IVar="0" Cut="2.9709743652343750e+03" cType="1" res="1.6391970217227936e-02" rms="2.9611125588417053e-01" purity="6.9148361682891846e-01" nType="0">
            <Node pos="l" depth="3" NCoef="0" IVar="-1" Cut="0.0000000000000000e+00" cType="1" res="2.4047210812568665e-02" rms="3.6430290341377258e-01" purity="4.6644768118858337e-01" nType="-99"/>
            <Node pos="r" depth="3" NCoef="0" IVar="-1" Cut="0.0000000000000000e+00" cType="1" res="1.3261043932288885e-03" rms="1.9037307798862457e-01" purity="9.4615232944488525e-01" nType="-99"/>
          </Node>
        </Node>
        <Node pos="r" depth="1" NCoef="0" IVar="4" Cut="2.5887213134765625e+02" cType="1" res="-3.9243516512215137e-03" rms="1.9290551543235779e-01" purity="6.7092865705490112e-01" nType="0">
          <Node pos="l" depth="2" NCoef="0" IVar="4" Cut="1.8183253479003906e+02" cType="1" res="-9.9673084914684296e-03" rms="2.3093058168888092e-01" purity="2.6298049092292786e-01" nType="0">
            <Node pos="l" depth="3" NCoef="0" IVar="-1" Cut="0.0000000000000000e+00" cType="1" res="5.9113670140504837e-03" rms="1.8898500502109528e-01" purity="9.0451143682003021e-02" nType="-99"/>
            <Node pos="r" depth="3" NCoef="0" IVar="-1" Cut="0.0000000000000000e+00" cType="1" res="-2.8734311461448669e-02" rms="2.5800800323486328e-01" purity="3.9459577202796936e-01" nType="-99"/>
          </Node>
          <Node pos="r" depth="2" NCoef="0" IVar="2" Cut="4.8337866210937500e+02" cType="1" res="5.7231100072385743e-06" rms="1.6337668895721436e-01" purity="9.3624025583267212e-01" nType="0">
            <Node pos="l" depth="3" NCoef="0" IVar="-1" Cut="0.0000000000000000e+00" cType="1" res="1.9043091684579849e-02" rms="2.5847667455673218e-01" purity="7.4888807535171509e-01" nType="-99"/>
            <Node pos="r" depth="3" NCoef="0" IVar="-1" Cut="0.0000000000000000e+00" cType="1" res="-9.4026792794466019e-03" rms="1.4405499398708344e-01" purity="9.6385586261749268e-01" nType="-99"/>
          </Node>
        </Node>
      </Node>
    </BinaryTree>
    <BinaryTree type="DecisionTree" boostWeight="1.0000000000000000e+00" itree="211">
      <Node pos="s" depth="0" NCoef="0" IVar="1" Cut="2.2130684554576874e-01" cType="1" res="2.9223188175819814e-04" rms="1.8416140973567963e-01" purity="5.0090914964675903e-01" nType="0">
        <Node pos="l" depth="1" NCoef="0" IVar="10" Cut="-1.9988585710525513e+00" cType="1" res="-3.4084302023984492e-04" rms="1.8682530522346497e-01" purity="4.7203508019447327e-01" nType="0">
          <Node pos="l" depth="2" NCoef="0" IVar="-1" Cut="0.0000000000000000e+00" cType="1" res="2.4731500074267387e-02" rms="2.2823521494865417e-01" purity="2.3674571514129639e-01" nType="-99"/>
          <Node pos="r" depth="2" NCoef="0" IVar="10" Cut="-1.5419887304306030e+00" cType="1" res="-7.8850251156836748e-04" rms="1.8511702120304108e-01" purity="4.8065543174743652e-01" nType="0">
            <Node pos="l" depth="3" NCoef="0" IVar="-1" Cut="0.0000000000000000e+00" cType="1" res="-3.8034528493881226e-02" rms="1.9425629079341888e-01" purity="3.4845685958862305e-01" nType="-99"/>
            <Node pos="r" depth="3" NCoef="0" IVar="-1" Cut="0.0000000000000000e+00" cType="1" res="3.3782917307689786e-04" rms="1.8454788625240326e-01" purity="4.8809736967086792e-01" nType="-99"/>
          </Node>
        </Node>
        <Node pos="r" depth="1" NCoef="0" IVar="-1" Cut="0.0000000000000000e+00" cType="1" res="5.1716953516006470e-02" rms="1.3954910635948181e-01" purity="9.2020475864410400e-01" nType="-99"/>
      </Node>
    </BinaryTree>
    <BinaryTree type="DecisionTree" boostWeight="1.0000000000000000e+00" itree="212">
      <Node pos="s" depth="0" NCoef="0" IVar="9" Cut="-1.7326179742813110e+00" cType="1" res="5.5816787062212825e-04" rms="1.8363283574581146e-01" purity="5.0536692142486572e-01" nType="0">
        <Node pos="l" depth="1" NCoef="0" IVar="-1" Cut="0.0000000000000000e+00" cType="1" res="-3.9683189243078232e-02" rms="1.9219441711902618e-01" purity="1.4146372675895691e-01" nType="-99"/>
        <Node pos="r" depth="1" NCoef="0" IVar="10" Cut="1.3273271918296814e-01" cType="1" res="1.3926719548180699e-03" rms="1.8313339352607727e-01" purity="5.2450734376907349e-01" nType="0">
          <Node pos="l" depth="2" NCoef="0" IVar="6" Cut="1.6911299133300781e+02" cType="1" res="-5.9233128558844328e-04" rms="1.8240338563919067e-01" purity="5.2737313508987427e-01" nType="0">
            <Node pos="l" depth="3" NCoef="0" IVar="-1" Cut="0.0000000000000000e+00" cType="1" res="-7.6008304022252560e-03" rms="2.0349150896072388e-01" purity="3.2504791021347046e-01" nType="-99"/>
            <Node pos="r" depth="3" NCoef="0" IVar="-1" Cut="0.0000000000000000e+00" cType="1" res="2.6788853108882904e-02" rms="1.2611770629882812e-01" purity="9.5796537399291992e-01" nType="-99"/>
          </Node>
          <Node pos="r" depth="2" NCoef="0" IVar="8" Cut="-1.1998902559280396e+00" cType="1" res="3.7718340754508972e-03" rms="1.8397632241249084e-01" purity="5.2107244729995728e-01" nType="0">
            <Node pos="l" depth="3" NCoef="0" IVar="-1" Cut="0.0000000000000000e+00" cType="1" res="-2.2292573004961014e-02" rms="2.0083679258823395e-01" purity="2.0600700378417969e-01" nType="-99"/>
            <Node pos="r" depth="3" NCoef="0" IVar="-1" Cut="0.0000000000000000e+00" cType="1" res="1.4616090804338455e-02" rms="1.8214179575443268e-01" purity="5.5300867557525635e-01" nType="-99"/>
          </Node>
        </Node>
      </Node>
    </BinaryTree>
    <BinaryTree type="DecisionTree" boostWeight="1.0000000000000000e+00" itree="213">
      <Node pos="s" depth="0" NCoef="0" IVar="11" Cut="2.0000147819519043e+00" cType="1" res="1.8856166861951351e-03" rms="1.8430143594741821e-01" purity="5.0048470497131348e-01" nType="0">
        <Node pos="l" depth="1" NCoef="0" IVar="9" Cut="6.6772890090942383e-01" cType="1" res="1.2185007799416780e-03" rms="1.8263465166091919e-01" purity="5.0900125503540039e-01" nType="0">
          <Node pos="l" depth="2" NCoef="0" IVar="5" Cut="2.2303224182128906e+02" cType="1" res="2.4094060790957883e-05" rms="1.7817619442939758e-01" purity="5.4033869504928589e-01" nType="0">
            <Node pos="l" depth="3" NCoef="0" IVar="-1" Cut="0.0000000000000000e+00" cType="1" res="-4.8118261620402336e-03" rms="2.0374602079391479e-01" purity="2.7709463238716125e-01" nType="-99"/>
            <Node pos="r" depth="3" NCoef="0" IVar="-1" Cut="0.0000000000000000e+00" cType="1" res="1.7988137900829315e-02" rms="1.2632125616073608e-01" purity="9.6551769971847534e-01" nType="-99"/>
          </Node>
          <Node pos="r" depth="2" NCoef="0" IVar="7" Cut="-2.7719303965568542e-01" cType="1" res="4.7395452857017517e-03" rms="1.9514364004135132e-01" purity="4.1662016510963440e-01" nType="0">
            <Node pos="l" depth="3" NCoef="0" IVar="-1" Cut="0.0000000000000000e+00" cType="1" res="2.5826379656791687e-02" rms="2.0217779278755188e-01" purity="3.3216536045074463e-01" nType="-99"/>
            <Node pos="r" depth="3" NCoef="0" IVar="-1" Cut="0.0000000000000000e+00" cType="1" res="5.3329132497310638e-03" rms="1.9102805852890015e-01" purity="4.6398842334747314e-01" nType="-99"/>
          </Node>
        </Node>
        <Node pos="r" depth="1" NCoef="0" IVar="-1" Cut="0.0000000000000000e+00" cType="1" res="3.7572119385004044e-02" rms="2.1667084097862244e-01" purity="3.1673189997673035e-01" nType="-99"/>
      </Node>
    </BinaryTree>
    <BinaryTree type="DecisionTree" boostWeight="1.0000000000000000e+00" itree="214">
      <Node pos="s" depth="0" NCoef="0" IVar="10" Cut="9.3330574035644531e-01" cType="1" res="7.5811060378327966e-04" rms="1.8364693224430084e-01" purity="5.0058835744857788e-01" nType="0">
        <Node pos="l" depth="1" NCoef="0" IVar="8" Cut="-9.3316936492919922e-01" cType="1" res="2.2904940415173769e-03" rms="1.7898365855216980e-01" purity="5.2268952131271362e-01" nType="0">
          <Node pos="l" depth="2" NCoef="0" IVar="0" Cut="1.8456051025390625e+03" cType="1" res="1.0369611904025078e-02" rms="1.9063805043697357e-01" purity="3.0372846126556396e-01" nType="0">
            <Node pos="l" depth="3" NCoef="0" IVar="-1" Cut="0.0000000000000000e+00" cType="1" res="-2.2542571648955345e-02" rms="1.0020312666893005e-01" purity="9.9312774837017059e-03" nType="-99"/>
            <Node pos="r" depth="3" NCoef="0" IVar="-1" Cut="0.0000000000000000e+00" cType="1" res="4.1696298867464066e-02" rms="2.6507720351219177e-01" purity="6.8833738565444946e-01" nType="-99"/>
          </Node>
          <Node pos="r" depth="2" NCoef="0" IVar="5" Cut="1.5328689575195312e+02" cType="1" res="5.8777991216629744e-04" rms="1.7638203501701355e-01" purity="5.6883668899536133e-01" nType="0">
            <Node pos="l" depth="3" NCoef="0" IVar="-1" Cut="0.0000000000000000e+00" cType="1" res="-1.7520416527986526e-02" rms="1.7290098965167999e-01" purity="1.0696844756603241e-01" nType="-99"/>
            <Node pos="r" depth="3" NCoef="0" IVar="-1" Cut="0.0000000000000000e+00" cType="1" res="1.3635992072522640e-02" rms="1.7832525074481964e-01" purity="8.4528732299804688e-01" nType="-99"/>
          </Node>
        </Node>
        <Node pos="r" depth="1" NCoef="0" IVar="11" Cut="-1.1974446773529053e+00" cType="1" res="-5.2491002716124058e-03" rms="2.0077376067638397e-01" purity="4.1394782066345215e-01" nType="0">
          <Node pos="l" depth="2" NCoef="0" IVar="-1" Cut="0.0000000000000000e+00" cType="1" res="2.5000713765621185e-02" rms="2.2595997154712677e-01" purity="3.5432136058807373e-01" nType="-99"/>
          <Node pos="r" depth="2" NCoef="0" IVar="5" Cut="1.0464328002929688e+02" cType="1" res="-8.2690492272377014e-03" rms="1.9577242434024811e-01" purity="4.2461717128753662e-01" nType="0">
            <Node pos="l" depth="3" NCoef="0" IVar="-1" Cut="0.0000000000000000e+00" cType="1" res="1.3893312774598598e-02" rms="1.3753837347030640e-01" purity="4.5119833201169968e-02" nType="-99"/>
            <Node pos="r" depth="3" NCoef="0" IVar="-1" Cut="0.0000000000000000e+00" cType="1" res="-2.5163365527987480e-02" rms="2.0913365483283997e-01" purity="5.3126484155654907e-01" nType="-99"/>
          </Node>
        </Node>
      </Node>
    </BinaryTree>
    <BinaryTree type="DecisionTree" boostWeight="1.0000000000000000e+00" itree="215">
      <Node pos="s" depth="0" NCoef="0" IVar="10" Cut="-1.9991436004638672e+00" cType="1" res="-1.0548438876867294e-03" rms="1.8352976441383362e-01" purity="5.0193250179290771e-01" nType="0">
        <Node pos="l" depth="1" NCoef="0" IVar="-1" Cut="0.0000000000000000e+00" cType="1" res="-4.4119704514741898e-02" rms="2.0383392274379730e-01" purity="1.7911411821842194e-01" nType="-99"/>
        <Node pos="r" depth="1" NCoef="0" IVar="10" Cut="-1.5420730113983154e+00" cType="1" res="-4.9399700947105885e-04" rms="1.8282423913478851e-01" purity="5.1211923360824585e-01" nType="0">
          <Node pos="l" depth="2" NCoef="0" IVar="-1" Cut="0.0000000000000000e+00" cType="1" res="4.0147356688976288e-02" rms="2.0561963319778442e-01" purity="3.8866612315177917e-01" nType="-99"/>
          <Node pos="r" depth="2" NCoef="0" IVar="10" Cut="1.9725134372711182e+00" cType="1" res="-1.3842021580785513e-03" rms="1.8148873746395111e-01" purity="5.1868379116058350e-01" nType="0">
            <Node pos="l" depth="3" NCoef="0" IVar="-1" Cut="0.0000000000000000e+00" cType="1" res="-5.9516727924346924e-03" rms="1.7950399219989777e-01" purity="5.3154420852661133e-01" nType="-99"/>
            <Node pos="r" depth="3" NCoef="0" IVar="-1" Cut="0.0000000000000000e+00" cType="1" res="2.7764784172177315e-02" rms="2.2330112755298615e-01" purity="2.1186758577823639e-01" nType="-99"/>
          </Node>
        </Node>
      </Node>
    </BinaryTree>
    <BinaryTree type="DecisionTree" boostWeight="1.0000000000000000e+00" itree="216">
      <Node pos="s" depth="0" NCoef="0" IVar="7" Cut="9.5864897966384888e-01" cType="1" res="-7.6828658347949386e-04" rms="1.8260809779167175e-01" purity="4.9591451883316040e-01" nType="0">
        <Node pos="l" depth="1" NCoef="0" IVar="10" Cut="-1.9990723133087158e+00" cType="1" res="-2.1166496444493532e-03" rms="1.8647798895835876e-01" purity="5.3818839788436890e-01" nType="0">
          <Node pos="l" depth="2" NCoef="0" IVar="-1" Cut="0.0000000000000000e+00" cType="1" res="3.4993540495634079e-02" rms="2.3547177016735077e-01" purity="2.5365445017814636e-01" nType="-99"/>
          <Node pos="r" depth="2" NCoef="0" IVar="10" Cut="-1.5420812368392944e+00" cType="1" res="-2.7112069074064493e-03" rms="1.8462814390659332e-01" purity="5.4748308658599854e-01" nType="0">
            <Node pos="l" depth="3" NCoef="0" IVar="-1" Cut="0.0000000000000000e+00" cType="1" res="-3.9444237947463989e-02" rms="1.9480155408382416e-01" purity="3.8762813806533813e-01" nType="-99"/>
            <Node pos="r" depth="3" NCoef="0" IVar="-1" Cut="0.0000000000000000e+00" cType="1" res="-5.8347280137240887e-03" rms="1.8404619395732880e-01" purity="5.5585402250289917e-01" nType="-99"/>
          </Node>
        </Node>
        <Node pos="r" depth="1" NCoef="0" IVar="5" Cut="1.7069839477539062e+02" cType="1" res="8.2052843645215034e-03" rms="1.5410177409648895e-01" purity="2.1457554399967194e-01" nType="0">
          <Node pos="l" depth="2" NCoef="0" IVar="9" Cut="-3.9523759484291077e-01" cType="1" res="-2.6034356560558081e-03" rms="1.2839020788669586e-01" purity="4.9201264977455139e-02" nType="0">
            <Node pos="l" depth="3" NCoef="0" IVar="-1" Cut="0.0000000000000000e+00" cType="1" res="-5.2850026637315750e-02" rms="1.1740428954362869e-01" purity="2.9125500470399857e-02" nType="-99"/>
            <Node pos="r" depth="3" NCoef="0" IVar="-1" Cut="0.0000000000000000e+00" cType="1" res="6.4941835589706898e-03" rms="1.3439406454563141e-01" purity="6.1252698302268982e-02" nType="-99"/>
          </Node>
          <Node pos="r" depth="2" NCoef="0" IVar="-1" Cut="0.0000000000000000e+00" cType="1" res="5.9942636638879776e-02" rms="1.9944243133068085e-01" purity="6.0022020339965820e-01" nType="-99"/>
        </Node>
      </Node>
    </BinaryTree>
    <BinaryTree type="DecisionTree" boostWeight="1.0000000000000000e+00" itree="217">
      <Node pos="s" depth="0" NCoef="0" IVar="9" Cut="-1.3289563357830048e-01" cType="1" res="2.2809502843301743e-04" rms="1.8404841423034668e-01" purity="4.9931803345680237e-01" nType="0">
        <Node pos="l" depth="1" NCoef="0" IVar="0" Cut="2.8661740722656250e+03" cType="1" res="3.3307163976132870e-03" rms="1.8553990125656128e-01" purity="4.8904204368591309e-01" nType="0">
          <Node pos="l" depth="2" NCoef="0" IVar="0" Cut="1.8886273193359375e+03" cType="1" res="5.7015139609575272e-03" rms="2.1267831325531006e-01" purity="2.3707656562328339e-01" nType="0">
            <Node pos="l" depth="3" NCoef="0" IVar="-1" Cut="0.0000000000000000e+00" cType="1" res="4.1778157465159893e-03" rms="1.2656342983245850e-01" purity="1.7560834065079689e-02" nType="-99"/>
            <Node pos="r" depth="3" NCoef="0" IVar="-1" Cut="0.0000000000000000e+00" cType="1" res="1.5217247419059277e-02" rms="3.0976769328117371e-01" purity="6.1914408206939697e-01" nType="-99"/>
          </Node>
          <Node pos="r" depth="2" NCoef="0" IVar="3" Cut="5.9489282226562500e+02" cType="1" res="-1.3109534047544003e-03" rms="1.1503902077674866e-01" purity="9.8235309123992920e-01" nType="0">
            <Node pos="l" depth="3" NCoef="0" IVar="-1" Cut="0.0000000000000000e+00" cType="1" res="1.1519620195031166e-02" rms="1.0070826858282089e-01" purity="9.8622751235961914e-01" nType="-99"/>
            <Node pos="r" depth="3" NCoef="0" IVar="-1" Cut="0.0000000000000000e+00" cType="1" res="-4.8280745744705200e-02" rms="1.3861376047134399e-01" purity="9.7480702400207520e-01" nType="-99"/>
          </Node>
        </Node>
        <Node pos="r" depth="1" NCoef="0" IVar="8" Cut="-1.4656709432601929e+00" cType="1" res="-2.3642878513783216e-03" rms="1.8275249004364014e-01" purity="5.0790405273437500e-01" nType="0">
          <Node pos="l" depth="2" NCoef="0" IVar="-1" Cut="0.0000000000000000e+00" cType="1" res="-6.3781343400478363e-02" rms="1.9498239457607269e-01" purity="1.0473676770925522e-01" nType="-99"/>
          <Node pos="r" depth="2" NCoef="0" IVar="7" Cut="1.2212014198303223e+00" cType="1" res="-1.1269481619819999e-03" rms="1.8186344206333160e-01" purity="5.3399580717086792e-01" nType="0">
            <Node pos="l" depth="3" NCoef="0" IVar="-1" Cut="0.0000000000000000e+00" cType="1" res="-7.5400071218609810e-03" rms="1.8399265408515930e-01" purity="5.6817036867141724e-01" nType="-99"/>
            <Node pos="r" depth="3" NCoef="0" IVar="-1" Cut="0.0000000000000000e+00" cType="1" res="5.1088631153106689e-02" rms="1.5526899695396423e-01" purity="1.5327973663806915e-01" nType="-99"/>
          </Node>
        </Node>
      </Node>
    </BinaryTree>
    <BinaryTree type="DecisionTree" boostWeight="1.0000000000000000e+00" itree="218">
      <Node pos="s" depth="0" NCoef="0" IVar="1" Cut="4.0331479161977768e-02" cType="1" res="-3.3183264895342290e-04" rms="1.8387943506240845e-01" purity="5.0259000062942505e-01" nType="0">
        <Node pos="l" depth="1" NCoef="0" IVar="3" Cut="4.1326007080078125e+02" cType="1" res="3.7629988510161638e-03" rms="1.7784525454044342e-01" purity="1.7370703816413879e-01" nType="0">
          <Node pos="l" depth="2" NCoef="0" IVar="5" Cut="1.7718870544433594e+02" cType="1" res="1.2351697077974677e-03" rms="1.5524117648601532e-01" purity="6.4683996140956879e-02" nType="0">
            <Node pos="l" depth="3" NCoef="0" IVar="-1" Cut="0.0000000000000000e+00" cType="1" res="-5.7476977817714214e-03" rms="1.3480804860591888e-01" purity="3.2116364687681198e-02" nType="-99"/>
            <Node pos="r" depth="3" NCoef="0" IVar="-1" Cut="0.0000000000000000e+00" cType="1" res="2.6761513203382492e-02" rms="2.6680159568786621e-01" purity="3.2537755370140076e-01" nType="-99"/>
          </Node>
          <Node pos="r" depth="2" NCoef="0" IVar="1" Cut="1.9333012402057648e-02" cType="1" res="1.3890522532165051e-02" rms="2.4832536280155182e-01" purity="6.1049813032150269e-01" nType="0">
            <Node pos="l" depth="3" NCoef="0" IVar="-1" Cut="0.0000000000000000e+00" cType="1" res="4.6660434454679489e-02" rms="2.4596342444419861e-01" purity="4.1236785054206848e-01" nType="-99"/>
            <Node pos="r" depth="3" NCoef="0" IVar="-1" Cut="0.0000000000000000e+00" cType="1" res="1.0805031051859260e-03" rms="2.4913437664508820e-01" purity="7.5048804283142090e-01" nType="-99"/>
          </Node>
        </Node>
        <Node pos="r" depth="1" NCoef="0" IVar="7" Cut="-3.7805527448654175e-01" cType="1" res="-2.4352334439754486e-03" rms="1.8686842918395996e-01" purity="6.7152798175811768e-01" nType="0">
          <Node pos="l" depth="2" NCoef="0" IVar="0" Cut="2.7313955078125000e+03" cType="1" res="-8.1371897831559181e-03" rms="1.9222134351730347e-01" purity="6.0081660747528076e-01" nType="0">
            <Node pos="l" depth="3" NCoef="0" IVar="-1" Cut="0.0000000000000000e+00" cType="1" res="-2.8466191142797470e-02" rms="2.4578367173671722e-01" purity="2.6210927963256836e-01" nType="-99"/>
            <Node pos="r" depth="3" NCoef="0" IVar="-1" Cut="0.0000000000000000e+00" cType="1" res="1.3012415729463100e-02" rms="9.9510826170444489e-02" purity="9.8876500129699707e-01" nType="-99"/>
          </Node>
          <Node pos="r" depth="2" NCoef="0" IVar="2" Cut="4.0161447143554688e+02" cType="1" res="-2.0316206791903824e-04" rms="1.8468281626701355e-01" purity="6.9920843839645386e-01" nType="0">
            <Node pos="l" depth="3" NCoef="0" IVar="-1" Cut="0.0000000000000000e+00" cType="1" res="2.8804710134863853e-02" rms="2.2123044729232788e-01" purity="1.7634838819503784e-01" nType="-99"/>
            <Node pos="r" depth="3" NCoef="0" IVar="-1" Cut="0.0000000000000000e+00" cType="1" res="-7.7669625170528889e-03" rms="1.7665916681289673e-01" purity="8.0013495683670044e-01" nType="-99"/>
          </Node>
        </Node>
      </Node>
    </BinaryTree>
    <BinaryTree type="DecisionTree" boostWeight="1.0000000000000000e+00" itree="219">
      <Node pos="s" depth="0" NCoef="0" IVar="4" Cut="2.6014251708984375e+02" cType="1" res="-1.9262713612988591e-03" rms="1.8683770298957825e-01" purity="4.9405962228775024e-01" nType="0">
        <Node pos="l" depth="1" NCoef="0" IVar="4" Cut="2.4053102111816406e+02" cType="1" res="1.5221559442579746e-03" rms="1.9259187579154968e-01" purity="1.5685993432998657e-01" nType="0">
          <Node pos="l" depth="2" NCoef="0" IVar="10" Cut="1.9998723268508911e+00" cType="1" res="3.3458443795097992e-05" rms="1.8288187682628632e-01" purity="1.2329403311014175e-01" nType="0">
            <Node pos="l" depth="3" NCoef="0" IVar="-1" Cut="0.0000000000000000e+00" cType="1" res="-2.6240807492285967e-03" rms="1.8199905753135681e-01" purity="1.2603534758090973e-01" nType="-99"/>
            <Node pos="r" depth="3" NCoef="0" IVar="-1" Cut="0.0000000000000000e+00" cType="1" res="4.2041044682264328e-02" rms="1.9486297667026520e-01" purity="8.3136916160583496e-02" nType="-99"/>
          </Node>
          <Node pos="r" depth="2" NCoef="0" IVar="-1" Cut="0.0000000000000000e+00" cType="1" res="2.5328645482659340e-02" rms="2.7022314071655273e-01" purity="4.8985385894775391e-01" nType="-99"/>
        </Node>
        <Node pos="r" depth="1" NCoef="0" IVar="0" Cut="3.1363796386718750e+03" cType="1" res="-5.9459689073264599e-03" rms="1.7981466650962830e-01" purity="8.8712018728256226e-01" nType="0">
          <Node pos="l" depth="2" NCoef="0" IVar="8" Cut="3.7848585844039917e-01" cType="1" res="-1.4045946300029755e-02" rms="2.5118231773376465e-01" purity="7.6165372133255005e-01" nType="0">
            <Node pos="l" depth="3" NCoef="0" IVar="-1" Cut="0.0000000000000000e+00" cType="1" res="-1.1531078256666660e-02" rms="2.4195799231529236e-01" purity="7.8114378452301025e-01" nType="-99"/>
            <Node pos="r" depth="3" NCoef="0" IVar="-1" Cut="0.0000000000000000e+00" cType="1" res="-4.6125810593366623e-02" rms="2.6888000965118408e-01" purity="7.2060179710388184e-01" nType="-99"/>
          </Node>
          <Node pos="r" depth="2" NCoef="0" IVar="7" Cut="-5.2156484127044678e-01" cType="1" res="8.7105116108432412e-04" rms="7.9651370644569397e-02" purity="9.9271404743194580e-01" nType="0">
            <Node pos="l" depth="3" NCoef="0" IVar="-1" Cut="0.0000000000000000e+00" cType="1" res="-3.8840081542730331e-02" rms="1.2242717295885086e-01" purity="9.8152768611907959e-01" nType="-99"/>
            <Node pos="r" depth="3" NCoef="0" IVar="-1" Cut="0.0000000000000000e+00" cType="1" res="2.8946163132786751e-02" rms="6.8037390708923340e-02" purity="9.9492549896240234e-01" nType="-99"/>
          </Node>
        </Node>
      </Node>
    </BinaryTree>
    <BinaryTree type="DecisionTree" boostWeight="1.0000000000000000e+00" itree="220">
      <Node pos="s" depth="0" NCoef="0" IVar="5" Cut="2.2689799499511719e+02" cType="1" res="1.8744339467957616e-03" rms="1.8354466557502747e-01" purity="5.0366204977035522e-01" nType="0">
        <Node pos="l" depth="1" NCoef="0" IVar="7" Cut="1.4831395149230957e+00" cType="1" res="3.9091887883841991e-03" rms="2.0321306586265564e-01" purity="2.7299425005912781e-01" nType="0">
          <Node pos="l" depth="2" NCoef="0" IVar="8" Cut="-1.3448186218738556e-01" cType="1" res="4.9182185903191566e-03" rms="2.0900605618953705e-01" purity="2.9274430871009827e-01" nType="0">
            <Node pos="l" depth="3" NCoef="0" IVar="-1" Cut="0.0000000000000000e+00" cType="1" res="2.2017175331711769e-02" rms="2.1256506443023682e-01" purity="2.8455352783203125e-01" nType="-99"/>
            <Node pos="r" depth="3" NCoef="0" IVar="-1" Cut="0.0000000000000000e+00" cType="1" res="3.1608354765921831e-03" rms="2.0601840317249298e-01" purity="2.9936057329177856e-01" nType="-99"/>
          </Node>
          <Node pos="r" depth="2" NCoef="0" IVar="-1" Cut="0.0000000000000000e+00" cType="1" res="-6.6760733723640442e-02" rms="1.0125300288200378e-01" purity="1.7761120572686195e-02" nType="-99"/>
        </Node>
        <Node pos="r" depth="1" NCoef="0" IVar="0" Cut="2.6897060546875000e+03" cType="1" res="-2.0457711070775986e-03" rms="1.3787554204463959e-01" purity="9.4807207584381104e-01" nType="0">
          <Node pos="l" depth="2" NCoef="0" IVar="-1" Cut="0.0000000000000000e+00" cType="1" res="-2.3677825927734375e-02" rms="3.0144047737121582e-01" purity="6.8753838539123535e-01" nType="-99"/>
          <Node pos="r" depth="2" NCoef="0" IVar="0" Cut="3.4306376953125000e+03" cType="1" res="1.2984405038878322e-03" rms="8.1639043986797333e-02" purity="9.9255275726318359e-01" nType="0">
            <Node pos="l" depth="3" NCoef="0" IVar="-1" Cut="0.0000000000000000e+00" cType="1" res="-1.2617869302630424e-02" rms="1.1479434370994568e-01" purity="9.8539149761199951e-01" nType="-99"/>
            <Node pos="r" depth="3" NCoef="0" IVar="-1" Cut="0.0000000000000000e+00" cType="1" res="8.9395768940448761e-02" rms="2.0932918414473534e-02" purity="9.9938374757766724e-01" nType="-99"/>
          </Node>
        </Node>
      </Node>
    </BinaryTree>
    <BinaryTree type="DecisionTree" boostWeight="1.0000000000000000e+00" itree="221">
      <Node pos="s" depth="0" NCoef="0" IVar="8" Cut="1.3344968855381012e-01" cType="1" res="-1.3581026578322053e-03" rms="1.8284833431243896e-01" purity="5.0110965967178345e-01" nType="0">
        <Node pos="l" depth="1" NCoef="0" IVar="6" Cut="1.2676029205322266e+02" cType="1" res="-4.5213885605335236e-03" rms="1.8150720000267029e-01" purity="5.1736384630203247e-01" nType="0">
          <Node pos="l" depth="2" NCoef="0" IVar="0" Cut="1.8661278076171875e+03" cType="1" res="-8.5353674367070198e-03" rms="1.9145141541957855e-01" purity="1.8928965926170349e-01" nType="0">
            <Node pos="l" depth="3" NCoef="0" IVar="-1" Cut="0.0000000000000000e+00" cType="1" res="-1.9799182191491127e-02" rms="1.0036368668079376e-01" purity="1.0912116616964340e-02" nType="-99"/>
            <Node pos="r" depth="3" NCoef="0" IVar="-1" Cut="0.0000000000000000e+00" cType="1" res="-2.3548541590571404e-02" rms="2.9481321573257446e-01" purity="5.2793920040130615e-01" nType="-99"/>
          </Node>
          <Node pos="r" depth="2" NCoef="0" IVar="5" Cut="2.1863960266113281e+02" cType="1" res="-2.5463750353083014e-04" rms="1.7019751667976379e-01" purity="8.6609774827957153e-01" nType="0">
            <Node pos="l" depth="3" NCoef="0" IVar="-1" Cut="0.0000000000000000e+00" cType="1" res="9.7493901848793030e-03" rms="2.3835134506225586e-01" purity="6.4598119258880615e-01" nType="-99"/>
            <Node pos="r" depth="3" NCoef="0" IVar="-1" Cut="0.0000000000000000e+00" cType="1" res="-2.0796230062842369e-02" rms="1.2689077854156494e-01" purity="9.6758866310119629e-01" nType="-99"/>
          </Node>
        </Node>
        <Node pos="r" depth="1" NCoef="0" IVar="10" Cut="1.3359326124191284e-01" cType="1" res="2.5917561724781990e-03" rms="1.8443311750888824e-01" purity="4.8081389069557190e-01" nType="0">
          <Node pos="l" depth="2" NCoef="0" IVar="0" Cut="1.8877426757812500e+03" cType="1" res="9.2401383444666862e-03" rms="1.8507419526576996e-01" purity="5.0424802303314209e-01" nType="0">
            <Node pos="l" depth="3" NCoef="0" IVar="-1" Cut="0.0000000000000000e+00" cType="1" res="-6.3954346114769578e-04" rms="1.2042398005723953e-01" purity="1.6643175855278969e-02" nType="-99"/>
            <Node pos="r" depth="3" NCoef="0" IVar="-1" Cut="0.0000000000000000e+00" cType="1" res="3.3509604632854462e-02" rms="2.1953433752059937e-01" purity="8.5109180212020874e-01" nType="-99"/>
          </Node>
          <Node pos="r" depth="2" NCoef="0" IVar="11" Cut="6.6481941938400269e-01" cType="1" res="-4.5269099064171314e-03" rms="1.8347734212875366e-01" purity="4.5572209358215332e-01" nType="0">
            <Node pos="l" depth="3" NCoef="0" IVar="-1" Cut="0.0000000000000000e+00" cType="1" res="3.4588507842272520e-03" rms="1.7745044827461243e-01" purity="5.0515377521514893e-01" nType="-99"/>
            <Node pos="r" depth="3" NCoef="0" IVar="-1" Cut="0.0000000000000000e+00" cType="1" res="-4.1771516203880310e-02" rms="1.9320143759250641e-01" purity="3.6887758970260620e-01" nType="-99"/>
          </Node>
        </Node>
      </Node>
    </BinaryTree>
    <BinaryTree type="DecisionTree" boostWeight="1.0000000000000000e+00" itree="222">
      <Node pos="s" depth="0" NCoef="0" IVar="3" Cut="3.0936755371093750e+02" cType="1" res="-4.6109221875667572e-04" rms="1.8510796129703522e-01" purity="4.9917849898338318e-01" nType="0">
        <Node pos="l" depth="1" NCoef="0" IVar="6" Cut="9.4398124694824219e+01" cType="1" res="5.4520792327821255e-03" rms="1.7891375720500946e-01" purity="9.9481061100959778e-02" nType="0">
          <Node pos="l" depth="2" NCoef="0" IVar="8" Cut="-6.6578763723373413e-01" cType="1" res="2.6080940733663738e-04" rms="1.1671032011508942e-01" purity="2.0075254142284393e-02" nType="0">
            <Node pos="l" depth="3" NCoef="0" IVar="-1" Cut="0.0000000000000000e+00" cType="1" res="4.6078652143478394e-02" rms="1.3162672519683838e-01" purity="2.2414119914174080e-02" nType="-99"/>
            <Node pos="r" depth="3" NCoef="0" IVar="-1" Cut="0.0000000000000000e+00" cType="1" res="-1.4565791003406048e-02" rms="1.0982661694288254e-01" purity="1.9101930782198906e-02" nType="-99"/>
          </Node>
          <Node pos="r" depth="2" NCoef="0" IVar="0" Cut="1.5612125244140625e+03" cType="1" res="1.1946048587560654e-02" rms="2.3438768088817596e-01" purity="1.9881296157836914e-01" nType="0">
            <Node pos="l" depth="3" NCoef="0" IVar="-1" Cut="0.0000000000000000e+00" cType="1" res="-3.2302189618349075e-02" rms="6.6462576389312744e-02" purity="4.4623026624321938e-03" nType="-99"/>
            <Node pos="r" depth="3" NCoef="0" IVar="-1" Cut="0.0000000000000000e+00" cType="1" res="2.7867984026670456e-02" rms="2.7898409962654114e-01" purity="2.8739112615585327e-01" nType="-99"/>
          </Node>
        </Node>
        <Node pos="r" depth="1" NCoef="0" IVar="11" Cut="-1.7306762933731079e+00" cType="1" res="-4.1671209037303925e-03" rms="1.8879221379756927e-01" purity="7.4968534708023071e-01" nType="0">
          <Node pos="l" depth="2" NCoef="0" IVar="-1" Cut="0.0000000000000000e+00" cType="1" res="2.7474103495478630e-02" rms="2.3681882023811340e-01" purity="5.9454232454299927e-01" nType="-99"/>
          <Node pos="r" depth="2" NCoef="0" IVar="0" Cut="2.6369118652343750e+03" cType="1" res="-5.5017094127833843e-03" rms="1.8480063974857330e-01" purity="7.6080143451690674e-01" nType="0">
            <Node pos="l" depth="3" NCoef="0" IVar="-1" Cut="0.0000000000000000e+00" cType="1" res="-1.9110821187496185e-02" rms="2.6696085929870605e-01" purity="3.1359142065048218e-01" nType="-99"/>
            <Node pos="r" depth="3" NCoef="0" IVar="-1" Cut="0.0000000000000000e+00" cType="1" res="-7.6696560718119144e-03" rms="1.2763769924640656e-01" purity="9.7531479597091675e-01" nType="-99"/>
          </Node>
        </Node>
      </Node>
    </BinaryTree>
    <BinaryTree type="DecisionTree" boostWeight="1.0000000000000000e+00" itree="223">
      <Node pos="s" depth="0" NCoef="0" IVar="11" Cut="1.9991441965103149e+00" cType="1" res="3.7930300459265709e-04" rms="1.8447883427143097e-01" purity="5.0412875413894653e-01" nType="0">
        <Node pos="l" depth="1" NCoef="0" IVar="1" Cut="5.8278676122426987e-02" cType="1" res="-4.0383875602856278e-04" rms="1.8255777657032013e-01" purity="5.1149737834930420e-01" nType="0">
          <Node pos="l" depth="2" NCoef="0" IVar="1" Cut="2.5061590597033501e-02" cType="1" res="3.0046193860471249e-03" rms="1.8370638787746429e-01" purity="2.4646025896072388e-01" nType="0">
            <Node pos="l" depth="3" NCoef="0" IVar="-1" Cut="0.0000000000000000e+00" cType="1" res="-8.8382689282298088e-03" rms="1.5584999322891235e-01" purity="1.1567530781030655e-01" nType="-99"/>
            <Node pos="r" depth="3" NCoef="0" IVar="-1" Cut="0.0000000000000000e+00" cType="1" res="1.9441358745098114e-02" rms="2.0601375401020050e-01" purity="3.6736297607421875e-01" nType="-99"/>
          </Node>
          <Node pos="r" depth="2" NCoef="0" IVar="4" Cut="1.6405847167968750e+02" cType="1" res="-3.2075445633381605e-03" rms="1.8155954778194427e-01" purity="7.2950983047485352e-01" nType="0">
            <Node pos="l" depth="3" NCoef="0" IVar="-1" Cut="0.0000000000000000e+00" cType="1" res="2.9746126383543015e-02" rms="1.9171293079853058e-01" purity="7.7466145157814026e-02" nType="-99"/>
            <Node pos="r" depth="3" NCoef="0" IVar="-1" Cut="0.0000000000000000e+00" cType="1" res="-1.3248568400740623e-02" rms="1.8043419718742371e-01" purity="7.9665803909301758e-01" nType="-99"/>
          </Node>
        </Node>
        <Node pos="r" depth="1" NCoef="0" IVar="-1" Cut="0.0000000000000000e+00" cType="1" res="4.3800801038742065e-02" rms="2.2285366058349609e-01" purity="3.3734455704689026e-01" nType="-99"/>
      </Node>
    </BinaryTree>
    <BinaryTree type="DecisionTree" boostWeight="1.0000000000000000e+00" itree="224">
      <Node pos="s" depth="0" NCoef="0" IVar="7" Cut="1.7633981704711914e+00" cType="1" res="4.9872708041220903e-04" rms="1.8443705141544342e-01" purity="5.0189763307571411e-01" nType="0">
        <Node pos="l" depth="1" NCoef="0" IVar="10" Cut="-1.9994128942489624e+00" cType="1" res="8.8791258167475462e-04" rms="1.8644106388092041e-01" purity="5.1613467931747437e-01" nType="0">
          <Node pos="l" depth="2" NCoef="0" IVar="-1" Cut="0.0000000000000000e+00" cType="1" res="2.7935683727264404e-02" rms="2.2078900039196014e-01" purity="2.1666480600833893e-01" nType="-99"/>
          <Node pos="r" depth="2" NCoef="0" IVar="10" Cut="2.1123042106628418e+00" cType="1" res="4.7846409142948687e-04" rms="1.8506571650505066e-01" purity="5.2697128057479858e-01" nType="0">
            <Node pos="l" depth="3" NCoef="0" IVar="-1" Cut="0.0000000000000000e+00" cType="1" res="2.5428964290767908e-03" rms="1.8417197465896606e-01" purity="5.3735738992691040e-01" nType="-99"/>
            <Node pos="r" depth="3" NCoef="0" IVar="-1" Cut="0.0000000000000000e+00" cType="1" res="-2.6265963912010193e-02" rms="2.1200263500213623e-01" purity="1.8470005691051483e-01" nType="-99"/>
          </Node>
        </Node>
        <Node pos="r" depth="1" NCoef="0" IVar="-1" Cut="0.0000000000000000e+00" cType="1" res="-9.0132400393486023e-02" rms="9.1018050909042358e-02" purity="1.2508041225373745e-02" nType="-99"/>
      </Node>
    </BinaryTree>
    <BinaryTree type="DecisionTree" boostWeight="1.0000000000000000e+00" itree="225">
      <Node pos="s" depth="0" NCoef="0" IVar="11" Cut="-1.7335697412490845e+00" cType="1" res="2.5153809692710638e-03" rms="1.8140238523483276e-01" purity="5.0440639257431030e-01" nType="0">
        <Node pos="l" depth="1" NCoef="0" IVar="10" Cut="4.0422052145004272e-01" cType="1" res="-8.3439741283655167e-03" rms="1.8957321345806122e-01" purity="3.1515413522720337e-01" nType="0">
          <Node pos="l" depth="2" NCoef="0" IVar="-1" Cut="0.0000000000000000e+00" cType="1" res="1.4973533106967807e-03" rms="1.9883604347705841e-01" purity="3.6709904670715332e-01" nType="-99"/>
          <Node pos="r" depth="2" NCoef="0" IVar="-1" Cut="0.0000000000000000e+00" cType="1" res="-6.0440007597208023e-02" rms="1.7181813716888428e-01" purity="2.2778961062431335e-01" nType="-99"/>
        </Node>
        <Node pos="r" depth="1" NCoef="0" IVar="4" Cut="3.6304229736328125e+02" cType="1" res="3.4078268799930811e-03" rms="1.8068544566631317e-01" purity="5.1995962858200073e-01" nType="0">
          <Node pos="l" depth="2" NCoef="0" IVar="4" Cut="2.6013708496093750e+02" cType="1" res="5.0720036961138248e-03" rms="1.9881039857864380e-01" purity="3.5446175932884216e-01" nType="0">
            <Node pos="l" depth="3" NCoef="0" IVar="-1" Cut="0.0000000000000000e+00" cType="1" res="3.4354275558143854e-03" rms="1.9451008737087250e-01" purity="1.6454508900642395e-01" nType="-99"/>
            <Node pos="r" depth="3" NCoef="0" IVar="-1" Cut="0.0000000000000000e+00" cType="1" res="3.0430233106017113e-02" rms="2.0854412019252777e-01" purity="8.1315833330154419e-01" nType="-99"/>
          </Node>
          <Node pos="r" depth="2" NCoef="0" IVar="5" Cut="2.3387457275390625e+02" cType="1" res="-1.1947078164666891e-03" rms="1.1659875512123108e-01" purity="9.7766911983489990e-01" nType="0">
            <Node pos="l" depth="3" NCoef="0" IVar="-1" Cut="0.0000000000000000e+00" cType="1" res="-2.4596329778432846e-02" rms="1.9792076945304871e-01" purity="9.2125427722930908e-01" nType="-99"/>
            <Node pos="r" depth="3" NCoef="0" IVar="-1" Cut="0.0000000000000000e+00" cType="1" res="1.2837776914238930e-02" rms="8.1582188606262207e-02" purity="9.9292987585067749e-01" nType="-99"/>
          </Node>
        </Node>
      </Node>
    </BinaryTree>
    <BinaryTree type="DecisionTree" boostWeight="1.0000000000000000e+00" itree="226">
      <Node pos="s" depth="0" NCoef="0" IVar="11" Cut="-1.2000875473022461e+00" cType="1" res="5.0679710693657398e-04" rms="1.8614822626113892e-01" purity="4.9561181664466858e-01" nType="0">
        <Node pos="l" depth="1" NCoef="0" IVar="6" Cut="1.4031527709960938e+02" cType="1" res="-6.0622608289122581e-03" rms="2.0038799941539764e-01" purity="4.1628077626228333e-01" nType="0">
          <Node pos="l" depth="2" NCoef="0" IVar="10" Cut="6.6670286655426025e-01" cType="1" res="9.1790236183442175e-05" rms="1.9881783425807953e-01" purity="2.2636049985885620e-01" nType="0">
            <Node pos="l" depth="3" NCoef="0" IVar="-1" Cut="0.0000000000000000e+00" cType="1" res="-1.2101844884455204e-02" rms="1.8544639647006989e-01" purity="2.1629545092582703e-01" nType="-99"/>
            <Node pos="r" depth="3" NCoef="0" IVar="-1" Cut="0.0000000000000000e+00" cType="1" res="2.8062596917152405e-02" rms="2.3295113444328308e-01" purity="2.5567957758903503e-01" nType="-99"/>
          </Node>
          <Node pos="r" depth="2" NCoef="0" IVar="-1" Cut="0.0000000000000000e+00" cType="1" res="-6.2449261546134949e-02" rms="2.0331735908985138e-01" purity="8.6616539955139160e-01" nType="-99"/>
        </Node>
        <Node pos="r" depth="1" NCoef="0" IVar="1" Cut="9.8807998001575470e-02" cType="1" res="1.8271404551342130e-03" rms="1.8312409520149231e-01" purity="5.1155698299407959e-01" nType="0">
          <Node pos="l" depth="2" NCoef="0" IVar="6" Cut="9.2512802124023438e+01" cType="1" res="3.9170943200588226e-03" rms="1.9377304613590240e-01" purity="3.5311010479927063e-01" nType="0">
            <Node pos="l" depth="3" NCoef="0" IVar="-1" Cut="0.0000000000000000e+00" cType="1" res="-5.3540454246103764e-03" rms="1.5362793207168579e-01" purity="7.1875572204589844e-02" nType="-99"/>
            <Node pos="r" depth="3" NCoef="0" IVar="-1" Cut="0.0000000000000000e+00" cType="1" res="1.6500325873494148e-02" rms="2.1761997044086456e-01" purity="5.5159407854080200e-01" nType="-99"/>
          </Node>
          <Node pos="r" depth="2" NCoef="0" IVar="6" Cut="9.6350906372070312e+01" cType="1" res="-1.9995875190943480e-03" rms="1.6174954175949097e-01" purity="8.0167490243911743e-01" nType="0">
            <Node pos="l" depth="3" NCoef="0" IVar="-1" Cut="0.0000000000000000e+00" cType="1" res="2.7600208297371864e-02" rms="2.2792246937751770e-01" purity="2.9272046685218811e-01" nType="-99"/>
            <Node pos="r" depth="3" NCoef="0" IVar="-1" Cut="0.0000000000000000e+00" cType="1" res="-1.8399206921458244e-02" rms="1.4917850494384766e-01" purity="8.7797063589096069e-01" nType="-99"/>
          </Node>
        </Node>
      </Node>
    </BinaryTree>
    <BinaryTree type="DecisionTree" boostWeight="1.0000000000000000e+00" itree="227">
      <Node pos="s" depth="0" NCoef="0" IVar="2" Cut="9.9453466796875000e+02" cType="1" res="-1.8173273419961333e-03" rms="1.8338938057422638e-01" purity="4.9352684617042542e-01" nType="0">
        <Node pos="l" depth="1" NCoef="0" IVar="10" Cut="-1.9980500936508179e+00" cType="1" res="-1.0403931373730302e-03" rms="1.8360151350498199e-01" purity="4.6583545207977295e-01" nType="0">
          <Node pos="l" depth="2" NCoef="0" IVar="-1" Cut="0.0000000000000000e+00" cType="1" res="-3.5023383796215057e-02" rms="2.0613917708396912e-01" purity="1.6995915770530701e-01" nType="-99"/>
          <Node pos="r" depth="2" NCoef="0" IVar="10" Cut="-8.5562640428543091e-01" cType="1" res="-5.6030869018286467e-04" rms="1.8269209563732147e-01" purity="4.7683954238891602e-01" nType="0">
            <Node pos="l" depth="3" NCoef="0" IVar="-1" Cut="0.0000000000000000e+00" cType="1" res="1.1478201486170292e-02" rms="1.9004377722740173e-01" purity="4.3096116185188293e-01" nType="-99"/>
            <Node pos="r" depth="3" NCoef="0" IVar="-1" Cut="0.0000000000000000e+00" cType="1" res="-5.7281316258013248e-03" rms="1.8064294755458832e-01" purity="4.8917201161384583e-01" nType="-99"/>
          </Node>
        </Node>
        <Node pos="r" depth="1" NCoef="0" IVar="0" Cut="3.7665629882812500e+03" cType="1" res="-1.3404222205281258e-02" rms="1.7979803681373596e-01" purity="9.0650504827499390e-01" nType="0">
          <Node pos="l" depth="2" NCoef="0" IVar="-1" Cut="0.0000000000000000e+00" cType="1" res="-4.9378592520952225e-02" rms="2.3747588694095612e-01" purity="8.0463820695877075e-01" nType="-99"/>
          <Node pos="r" depth="2" NCoef="0" IVar="-1" Cut="0.0000000000000000e+00" cType="1" res="-1.5990391373634338e-02" rms="1.1988917738199234e-01" purity="9.8124462366104126e-01" nType="-99"/>
        </Node>
      </Node>
    </BinaryTree>
    <BinaryTree type="DecisionTree" boostWeight="1.0000000000000000e+00" itree="228">
      <Node pos="s" depth="0" NCoef="0" IVar="1" Cut="8.5650965571403503e-02" cType="1" res="1.5151922707445920e-04" rms="1.8059261143207550e-01" purity="5.0295466184616089e-01" nType="0">
        <Node pos="l" depth="1" NCoef="0" IVar="6" Cut="1.3157800292968750e+02" cType="1" res="-1.7670619999989867e-03" rms="1.9053894281387329e-01" purity="3.1790485978126526e-01" nType="0">
          <Node pos="l" depth="2" NCoef="0" IVar="5" Cut="1.9526455688476562e+02" cType="1" res="6.6397222690284252e-04" rms="1.7874647676944733e-01" purity="1.3766933977603912e-01" nType="0">
            <Node pos="l" depth="3" NCoef="0" IVar="-1" Cut="0.0000000000000000e+00" cType="1" res="-3.9877202361822128e-03" rms="1.6523289680480957e-01" purity="9.0325482189655304e-02" nType="-99"/>
            <Node pos="r" depth="3" NCoef="0" IVar="-1" Cut="0.0000000000000000e+00" cType="1" res="3.0407119542360306e-02" rms="2.8835982084274292e-01" purity="6.6390705108642578e-01" nType="-99"/>
          </Node>
          <Node pos="r" depth="2" NCoef="0" IVar="9" Cut="-1.3140060007572174e-01" cType="1" res="-7.5635509565472603e-03" rms="2.1596486866474152e-01" purity="7.4765336513519287e-01" nType="0">
            <Node pos="l" depth="3" NCoef="0" IVar="-1" Cut="0.0000000000000000e+00" cType="1" res="-4.5043893158435822e-02" rms="2.1606135368347168e-01" purity="7.2606843709945679e-01" nType="-99"/>
            <Node pos="r" depth="3" NCoef="0" IVar="-1" Cut="0.0000000000000000e+00" cType="1" res="9.8290750756859779e-03" rms="2.1517068147659302e-01" purity="7.6585441827774048e-01" nType="-99"/>
          </Node>
        </Node>
        <Node pos="r" depth="1" NCoef="0" IVar="5" Cut="1.8984724426269531e+02" cType="1" res="3.0035220552235842e-03" rms="1.6465954482555389e-01" purity="7.7803421020507812e-01" nType="0">
          <Node pos="l" depth="2" NCoef="0" IVar="6" Cut="1.0291584777832031e+02" cType="1" res="1.0518375784158707e-02" rms="2.2742818295955658e-01" purity="3.7812402844429016e-01" nType="0">
            <Node pos="l" depth="3" NCoef="0" IVar="-1" Cut="0.0000000000000000e+00" cType="1" res="-6.3258376903831959e-03" rms="2.0772902667522430e-01" purity="1.7709663510322571e-01" nType="-99"/>
            <Node pos="r" depth="3" NCoef="0" IVar="-1" Cut="0.0000000000000000e+00" cType="1" res="3.7742655724287033e-02" rms="2.4361000955104828e-01" purity="5.6478404998779297e-01" nType="-99"/>
          </Node>
          <Node pos="r" depth="2" NCoef="0" IVar="0" Cut="2.5580187988281250e+03" cType="1" res="-3.4419112489558756e-04" rms="1.2693616747856140e-01" purity="9.5618593692779541e-01" nType="0">
            <Node pos="l" depth="3" NCoef="0" IVar="-1" Cut="0.0000000000000000e+00" cType="1" res="-1.3805689290165901e-02" rms="3.0671623349189758e-01" purity="6.8528842926025391e-01" nType="-99"/>
            <Node pos="r" depth="3" NCoef="0" IVar="-1" Cut="0.0000000000000000e+00" cType="1" res="2.4690603837370872e-02" rms="7.0069782435894012e-02" purity="9.9501240253448486e-01" nType="-99"/>
          </Node>
        </Node>
      </Node>
    </BinaryTree>
    <BinaryTree type="DecisionTree" boostWeight="1.0000000000000000e+00" itree="229">
      <Node pos="s" depth="0" NCoef="0" IVar="11" Cut="1.7328279018402100e+00" cType="1" res="6.6392595181241632e-04" rms="1.8538756668567657e-01" purity="5.0349432229995728e-01" nType="0">
        <Node pos="l" depth="1" NCoef="0" IVar="9" Cut="1.1994045972824097e+00" cType="1" res="1.5321121318265796e-03" rms="1.8337100744247437e-01" purity="5.1552051305770874e-01" nType="0">
          <Node pos="l" depth="2" NCoef="0" IVar="9" Cut="8.1817930936813354e-01" cType="1" res="2.4806219153106213e-03" rms="1.8102873861789703e-01" purity="5.4258620738983154e-01" nType="0">
            <Node pos="l" depth="3" NCoef="0" IVar="-1" Cut="0.0000000000000000e+00" cType="1" res="4.9536493606865406e-03" rms="1.7799459397792816e-01" purity="5.4098737239837646e-01" nType="-99"/>
            <Node pos="r" depth="3" NCoef="0" IVar="-1" Cut="0.0000000000000000e+00" cType="1" res="2.8599139302968979e-02" rms="2.0666432380676270e-01" purity="5.5728513002395630e-01" nType="-99"/>
          </Node>
          <Node pos="r" depth="2" NCoef="0" IVar="4" Cut="2.2679119873046875e+02" cType="1" res="-5.9200613759458065e-03" rms="2.0066937804222107e-01" purity="3.0287334322929382e-01" nType="0">
            <Node pos="l" depth="3" NCoef="0" IVar="-1" Cut="0.0000000000000000e+00" cType="1" res="5.3323484025895596e-03" rms="1.7560119926929474e-01" purity="1.0516276955604553e-01" nType="-99"/>
            <Node pos="r" depth="3" NCoef="0" IVar="-1" Cut="0.0000000000000000e+00" cType="1" res="-3.6981288343667984e-02" rms="2.3895220458507538e-01" purity="6.6182631254196167e-01" nType="-99"/>
          </Node>
        </Node>
        <Node pos="r" depth="1" NCoef="0" IVar="8" Cut="-1.1385744065046310e-01" cType="1" res="-1.0172478854656219e-02" rms="2.0862253010272980e-01" purity="3.5338678956031799e-01" nType="0">
          <Node pos="l" depth="2" NCoef="0" IVar="-1" Cut="0.0000000000000000e+00" cType="1" res="-5.7533767074346542e-02" rms="2.0124590396881104e-01" purity="3.1757777929306030e-01" nType="-99"/>
          <Node pos="r" depth="2" NCoef="0" IVar="-1" Cut="0.0000000000000000e+00" cType="1" res="1.5162959462031722e-03" rms="2.1334379911422729e-01" purity="3.8019070029258728e-01" nType="-99"/>
        </Node>
      </Node>
    </BinaryTree>
    <BinaryTree type="DecisionTree" boostWeight="1.0000000000000000e+00" itree="230">
      <Node pos="s" depth="0" NCoef="0" IVar="9" Cut="3.9963716268539429e-01" cType="1" res="1.0741930454969406e-03" rms="1.8704849481582642e-01" purity="4.9602818489074707e-01" nType="0">
        <Node pos="l" depth="1" NCoef="0" IVar="7" Cut="-8.1909513473510742e-01" cType="1" res="3.1068725511431694e-03" rms="1.8431466817855835e-01" purity="5.1419925689697266e-01" nType="0">
          <Node pos="l" depth="2" NCoef="0" IVar="5" Cut="1.6255781555175781e+02" cType="1" res="1.1401513591408730e-02" rms="1.8844114243984222e-01" purity="2.8150829672813416e-01" nType="0">
            <Node pos="l" depth="3" NCoef="0" IVar="-1" Cut="0.0000000000000000e+00" cType="1" res="-6.0288836248219013e-03" rms="1.4286689460277557e-01" purity="4.1803106665611267e-02" nType="-99"/>
            <Node pos="r" depth="3" NCoef="0" IVar="-1" Cut="0.0000000000000000e+00" cType="1" res="6.3126564025878906e-02" rms="2.4042469263076782e-01" purity="6.4505338668823242e-01" nType="-99"/>
          </Node>
          <Node pos="r" depth="2" NCoef="0" IVar="5" Cut="1.5335067749023438e+02" cType="1" res="1.3934541493654251e-03" rms="1.8340395390987396e-01" purity="5.6226599216461182e-01" nType="0">
            <Node pos="l" depth="3" NCoef="0" IVar="-1" Cut="0.0000000000000000e+00" cType="1" res="1.6331288963556290e-02" rms="1.9189254939556122e-01" purity="1.2440227717161179e-01" nType="-99"/>
            <Node pos="r" depth="3" NCoef="0" IVar="-1" Cut="0.0000000000000000e+00" cType="1" res="-3.6107790656387806e-03" rms="1.7798955738544464e-01" purity="8.2884061336517334e-01" nType="-99"/>
          </Node>
        </Node>
        <Node pos="r" depth="1" NCoef="0" IVar="11" Cut="-1.7324428558349609e+00" cType="1" res="-2.7322508394718170e-03" rms="1.9200541079044342e-01" purity="4.6200066804885864e-01" nType="0">
          <Node pos="l" depth="2" NCoef="0" IVar="-1" Cut="0.0000000000000000e+00" cType="1" res="3.0616248026490211e-02" rms="2.2260789573192596e-01" purity="3.8081029057502747e-01" nType="-99"/>
          <Node pos="r" depth="2" NCoef="0" IVar="7" Cut="-1.0458765029907227e+00" cType="1" res="-4.0680714882910252e-03" rms="1.8936564028263092e-01" purity="4.6828365325927734e-01" nType="0">
            <Node pos="l" depth="3" NCoef="0" IVar="-1" Cut="0.0000000000000000e+00" cType="1" res="-4.6963471919298172e-02" rms="1.6768525540828705e-01" purity="1.4652548730373383e-01" nType="-99"/>
            <Node pos="r" depth="3" NCoef="0" IVar="-1" Cut="0.0000000000000000e+00" cType="1" res="-7.4562863446772099e-03" rms="1.9183416664600372e-01" purity="5.0803303718566895e-01" nType="-99"/>
          </Node>
        </Node>
      </Node>
    </BinaryTree>
    <BinaryTree type="DecisionTree" boostWeight="1.0000000000000000e+00" itree="231">
      <Node pos="s" depth="0" NCoef="0" IVar="11" Cut="1.4663697481155396e+00" cType="1" res="-1.1386327678337693e-03" rms="1.8518431484699249e-01" purity="4.9495688080787659e-01" nType="0">
        <Node pos="l" depth="1" NCoef="0" IVar="11" Cut="1.2631667852401733e+00" cType="1" res="1.1131361134175677e-05" rms="1.8432754278182983e-01" purity="5.1119488477706909e-01" nType="0">
          <Node pos="l" depth="2" NCoef="0" IVar="10" Cut="1.4664541482925415e+00" cType="1" res="-5.9834669809788465e-04" rms="1.8496914207935333e-01" purity="5.1017361879348755e-01" nType="0">
            <Node pos="l" depth="3" NCoef="0" IVar="-1" Cut="0.0000000000000000e+00" cType="1" res="7.2218716377392411e-04" rms="1.8198104202747345e-01" purity="5.3074234724044800e-01" nType="-99"/>
            <Node pos="r" depth="3" NCoef="0" IVar="-1" Cut="0.0000000000000000e+00" cType="1" res="-2.2492587566375732e-02" rms="2.1213774383068085e-01" purity="3.0638590455055237e-01" nType="-99"/>
          </Node>
          <Node pos="r" depth="2" NCoef="0" IVar="-1" Cut="0.0000000000000000e+00" cType="1" res="3.6836881190538406e-02" rms="1.6866689920425415e-01" purity="5.3417551517486572e-01" nType="-99"/>
        </Node>
        <Node pos="r" depth="1" NCoef="0" IVar="7" Cut="4.8588374257087708e-01" cType="1" res="-9.7034564241766930e-03" rms="1.9122850894927979e-01" purity="3.7399643659591675e-01" nType="0">
          <Node pos="l" depth="2" NCoef="0" IVar="6" Cut="1.0001095581054688e+02" cType="1" res="8.9614058379083872e-04" rms="2.0456244051456451e-01" purity="4.5502969622612000e-01" nType="0">
            <Node pos="l" depth="3" NCoef="0" IVar="-1" Cut="0.0000000000000000e+00" cType="1" res="2.3247981444001198e-02" rms="1.8838895857334137e-01" purity="1.8307894468307495e-01" nType="-99"/>
            <Node pos="r" depth="3" NCoef="0" IVar="-1" Cut="0.0000000000000000e+00" cType="1" res="-1.2337587773799896e-02" rms="2.1709032356739044e-01" purity="6.8522322177886963e-01" nType="-99"/>
          </Node>
          <Node pos="r" depth="2" NCoef="0" IVar="-1" Cut="0.0000000000000000e+00" cType="1" res="-6.3243776559829712e-02" rms="1.6218620538711548e-01" purity="2.2536508738994598e-01" nType="-99"/>
        </Node>
      </Node>
    </BinaryTree>
    <BinaryTree type="DecisionTree" boostWeight="1.0000000000000000e+00" itree="232">
      <Node pos="s" depth="0" NCoef="0" IVar="11" Cut="-1.1987942457199097e+00" cType="1" res="-3.5007565747946501e-04" rms="1.8325209617614746e-01" purity="4.9165517091751099e-01" nType="0">
        <Node pos="l" depth="1" NCoef="0" IVar="8" Cut="-9.3273609876632690e-01" cType="1" res="4.3300692923367023e-03" rms="1.9470797479152679e-01" purity="4.2751169204711914e-01" nType="0">
          <Node pos="l" depth="2" NCoef="0" IVar="-1" Cut="0.0000000000000000e+00" cType="1" res="-2.6618208736181259e-02" rms="1.8094114959239960e-01" purity="1.9246335327625275e-01" nType="-99"/>
          <Node pos="r" depth="2" NCoef="0" IVar="10" Cut="-9.3430286645889282e-01" cType="1" res="8.2976706326007843e-03" rms="1.9847998023033142e-01" purity="4.9802073836326599e-01" nType="0">
            <Node pos="l" depth="3" NCoef="0" IVar="-1" Cut="0.0000000000000000e+00" cType="1" res="-1.2374438345432281e-02" rms="1.9254331290721893e-01" purity="3.9126953482627869e-01" nType="-99"/>
            <Node pos="r" depth="3" NCoef="0" IVar="-1" Cut="0.0000000000000000e+00" cType="1" res="3.2046765089035034e-02" rms="2.0008596777915955e-01" purity="5.3062826395034790e-01" nType="-99"/>
          </Node>
        </Node>
        <Node pos="r" depth="1" NCoef="0" IVar="1" Cut="1.4118160307407379e-01" cType="1" res="-1.2813439825549722e-03" rms="1.8087160587310791e-01" purity="5.0441867113113403e-01" nType="0">
          <Node pos="l" depth="2" NCoef="0" IVar="11" Cut="1.6573008298873901e+00" cType="1" res="-2.5223148986697197e-03" rms="1.8908335268497467e-01" purity="4.1084000468254089e-01" nType="0">
            <Node pos="l" depth="3" NCoef="0" IVar="-1" Cut="0.0000000000000000e+00" cType="1" res="-1.0989804752171040e-02" rms="1.8436157703399658e-01" purity="4.2880308628082275e-01" nType="-99"/>
            <Node pos="r" depth="3" NCoef="0" IVar="-1" Cut="0.0000000000000000e+00" cType="1" res="1.6308758407831192e-02" rms="2.2098425030708313e-01" purity="2.7647873759269714e-01" nType="-99"/>
          </Node>
          <Node pos="r" depth="2" NCoef="0" IVar="10" Cut="-4.3852305412292480e-01" cType="1" res="3.4139975905418396e-03" rms="1.4557531476020813e-01" purity="8.5848307609558105e-01" nType="0">
            <Node pos="l" depth="3" NCoef="0" IVar="-1" Cut="0.0000000000000000e+00" cType="1" res="4.8317909240722656e-02" rms="1.5217456221580505e-01" purity="8.7730914354324341e-01" nType="-99"/>
            <Node pos="r" depth="3" NCoef="0" IVar="-1" Cut="0.0000000000000000e+00" cType="1" res="-4.8502874560654163e-03" rms="1.4195476472377777e-01" purity="8.4909307956695557e-01" nType="-99"/>
          </Node>
        </Node>
      </Node>
    </BinaryTree>
    <BinaryTree type="DecisionTree" boostWeight="1.0000000000000000e+00" itree="233">
      <Node pos="s" depth="0" NCoef="0" IVar="10" Cut="-3.9946129918098450e-01" cType="1" res="1.0291967191733420e-04" rms="1.7975257337093353e-01" purity="4.8762527108192444e-01" nType="0">
        <Node pos="l" depth="1" NCoef="0" IVar="11" Cut="1.3237807154655457e-01" cType="1" res="-2.4588799569755793e-03" rms="1.8357314169406891e-01" purity="4.6430894732475281e-01" nType="0">
          <Node pos="l" depth="2" NCoef="0" IVar="0" Cut="2.5212480468750000e+03" cType="1" res="-6.0829706490039825e-03" rms="1.8254624307155609e-01" purity="4.5353505015373230e-01" nType="0">
            <Node pos="l" depth="3" NCoef="0" IVar="-1" Cut="0.0000000000000000e+00" cType="1" res="-2.6282468810677528e-02" rms="2.0884406566619873e-01" purity="1.1359734088182449e-01" nType="-99"/>
            <Node pos="r" depth="3" NCoef="0" IVar="-1" Cut="0.0000000000000000e+00" cType="1" res="1.0430203750729561e-02" rms="1.3304166495800018e-01" purity="9.6571409702301025e-01" nType="-99"/>
          </Node>
          <Node pos="r" depth="2" NCoef="0" IVar="1" Cut="3.7307240068912506e-02" cType="1" res="2.5200855452567339e-03" rms="1.8485884368419647e-01" purity="4.7911065816879272e-01" nType="0">
            <Node pos="l" depth="3" NCoef="0" IVar="-1" Cut="0.0000000000000000e+00" cType="1" res="-3.2885499298572540e-02" rms="1.4311718940734863e-01" purity="1.3732858002185822e-01" nType="-99"/>
            <Node pos="r" depth="3" NCoef="0" IVar="-1" Cut="0.0000000000000000e+00" cType="1" res="1.9668249413371086e-02" rms="2.0147092640399933e-01" purity="6.4179480075836182e-01" nType="-99"/>
          </Node>
        </Node>
        <Node pos="r" depth="1" NCoef="0" IVar="3" Cut="4.1329559326171875e+02" cType="1" res="1.5558026498183608e-03" rms="1.7753283679485321e-01" purity="5.0084871053695679e-01" nType="0">
          <Node pos="l" depth="2" NCoef="0" IVar="0" Cut="1.9960921630859375e+03" cType="1" res="3.6479253321886063e-03" rms="1.8961371481418610e-01" purity="2.3680290579795837e-01" nType="0">
            <Node pos="l" depth="3" NCoef="0" IVar="-1" Cut="0.0000000000000000e+00" cType="1" res="5.7879580708686262e-05" rms="1.4575956761837006e-01" purity="2.6383532211184502e-02" nType="-99"/>
            <Node pos="r" depth="3" NCoef="0" IVar="-1" Cut="0.0000000000000000e+00" cType="1" res="1.6921019181609154e-02" rms="2.6814278960227966e-01" purity="7.5269746780395508e-01" nType="-99"/>
          </Node>
          <Node pos="r" depth="2" NCoef="0" IVar="4" Cut="2.4105493164062500e+02" cType="1" res="-1.5491447411477566e-03" rms="1.5785770118236542e-01" purity="8.9272266626358032e-01" nType="0">
            <Node pos="l" depth="3" NCoef="0" IVar="-1" Cut="0.0000000000000000e+00" cType="1" res="-3.1373016536235809e-02" rms="2.5682312250137329e-01" purity="4.1536971926689148e-01" nType="-99"/>
            <Node pos="r" depth="3" NCoef="0" IVar="-1" Cut="0.0000000000000000e+00" cType="1" res="5.1466282457113266e-03" rms="1.3914883136749268e-01" purity="9.5666122436523438e-01" nType="-99"/>
          </Node>
        </Node>
      </Node>
    </BinaryTree>
    <BinaryTree type="DecisionTree" boostWeight="1.0000000000000000e+00" itree="234">
      <Node pos="s" depth="0" NCoef="0" IVar="11" Cut="1.9986604452133179e+00" cType="1" res="-1.2593537103384733e-03" rms="1.8128514289855957e-01" purity="4.9556404352188110e-01" nType="0">
        <Node pos="l" depth="1" NCoef="0" IVar="1" Cut="6.4243547618389130e-02" cType="1" res="-1.9089743727818131e-03" rms="1.7962396144866943e-01" purity="5.0185608863830566e-01" nType="0">
          <Node pos="l" depth="2" NCoef="0" IVar="11" Cut="-9.7112882137298584e-01" cType="1" res="-4.9240025691688061e-03" rms="1.8090005218982697e-01" purity="2.4912066757678986e-01" nType="0">
            <Node pos="l" depth="3" NCoef="0" IVar="-1" Cut="0.0000000000000000e+00" cType="1" res="3.9102314040064812e-03" rms="1.9718097150325775e-01" purity="2.1070705354213715e-01" nType="-99"/>
            <Node pos="r" depth="3" NCoef="0" IVar="-1" Cut="0.0000000000000000e+00" cType="1" res="-2.0329946652054787e-02" rms="1.7529565095901489e-01" purity="2.6147285103797913e-01" nType="-99"/>
          </Node>
          <Node pos="r" depth="2" NCoef="0" IVar="2" Cut="3.1098437500000000e+02" cType="1" res="9.5232197782024741e-04" rms="1.7835737764835358e-01" purity="7.4170482158660889e-01" nType="0">
            <Node pos="l" depth="3" NCoef="0" IVar="-1" Cut="0.0000000000000000e+00" cType="1" res="-4.6351950615644455e-02" rms="1.7033134400844574e-01" purity="6.1190526932477951e-02" nType="-99"/>
            <Node pos="r" depth="3" NCoef="0" IVar="-1" Cut="0.0000000000000000e+00" cType="1" res="6.1890860088169575e-03" rms="1.7881774902343750e-01" purity="7.8602558374404907e-01" nType="-99"/>
          </Node>
        </Node>
        <Node pos="r" depth="1" NCoef="0" IVar="-1" Cut="0.0000000000000000e+00" cType="1" res="3.4836474806070328e-02" rms="2.1541376411914825e-01" purity="3.5103690624237061e-01" nType="-99"/>
      </Node>
    </BinaryTree>
    <BinaryTree type="DecisionTree" boostWeight="1.0000000000000000e+00" itree="235">
      <Node pos="s" depth="0" NCoef="0" IVar="1" Cut="6.5095886588096619e-02" cType="1" res="-4.7265290049836040e-04" rms="1.8204377591609955e-01" purity="4.9831870198249817e-01" nType="0">
        <Node pos="l" depth="1" NCoef="0" IVar="3" Cut="5.5067791748046875e+02" cType="1" res="-2.9870897997170687e-03" rms="1.8360820412635803e-01" purity="2.5026026368141174e-01" nType="0">
          <Node pos="l" depth="2" NCoef="0" IVar="11" Cut="1.4661176204681396e+00" cType="1" res="-1.4671959215775132e-03" rms="1.7737755179405212e-01" purity="1.7741054296493530e-01" nType="0">
            <Node pos="l" depth="3" NCoef="0" IVar="-1" Cut="0.0000000000000000e+00" cType="1" res="-8.1662496086210012e-05" rms="1.7625555396080017e-01" purity="1.8547034263610840e-01" nType="-99"/>
            <Node pos="r" depth="3" NCoef="0" IVar="-1" Cut="0.0000000000000000e+00" cType="1" res="-2.8980998322367668e-02" rms="1.8380816280841827e-01" purity="1.2841725349426270e-01" nType="-99"/>
          </Node>
          <Node pos="r" depth="2" NCoef="0" IVar="-1" Cut="0.0000000000000000e+00" cType="1" res="-3.8273163139820099e-02" rms="2.2968132793903351e-01" purity="8.7311673164367676e-01" nType="-99"/>
        </Node>
        <Node pos="r" depth="1" NCoef="0" IVar="0" Cut="2.6326655273437500e+03" cType="1" res="2.0270457025617361e-03" rms="1.8044036626815796e-01" purity="7.4492311477661133e-01" nType="0">
          <Node pos="l" depth="2" NCoef="0" IVar="2" Cut="5.8274884033203125e+02" cType="1" res="7.0357434451580048e-03" rms="2.6640912890434265e-01" purity="3.4799200296401978e-01" nType="0">
            <Node pos="l" depth="3" NCoef="0" IVar="-1" Cut="0.0000000000000000e+00" cType="1" res="5.1894076168537140e-03" rms="2.5448548793792725e-01" purity="3.0409637093544006e-01" nType="-99"/>
            <Node pos="r" depth="3" NCoef="0" IVar="-1" Cut="0.0000000000000000e+00" cType="1" res="2.5350078940391541e-02" rms="3.2829919457435608e-01" purity="6.1231589317321777e-01" nType="-99"/>
          </Node>
          <Node pos="r" depth="2" NCoef="0" IVar="0" Cut="3.0084521484375000e+03" cType="1" res="-1.0639710817486048e-03" rms="9.3949891626834869e-02" purity="9.8988103866577148e-01" nType="0">
            <Node pos="l" depth="3" NCoef="0" IVar="-1" Cut="0.0000000000000000e+00" cType="1" res="-4.8231314867734909e-02" rms="1.5881025791168213e-01" purity="9.6980929374694824e-01" nType="-99"/>
            <Node pos="r" depth="3" NCoef="0" IVar="-1" Cut="0.0000000000000000e+00" cType="1" res="3.2533090561628342e-02" rms="5.7753469794988632e-02" purity="9.9656945466995239e-01" nType="-99"/>
          </Node>
        </Node>
      </Node>
    </BinaryTree>
    <BinaryTree type="DecisionTree" boostWeight="1.0000000000000000e+00" itree="236">
      <Node pos="s" depth="0" NCoef="0" IVar="9" Cut="1.7330489158630371e+00" cType="1" res="-1.3536901678889990e-03" rms="1.8458779156208038e-01" purity="5.0362253189086914e-01" nType="0">
        <Node pos="l" depth="1" NCoef="0" IVar="4" Cut="2.6023141479492188e+02" cType="1" res="-2.0029020961374044e-03" rms="1.8398514389991760e-01" purity="5.1934808492660522e-01" nType="0">
          <Node pos="l" depth="2" NCoef="0" IVar="8" Cut="4.0097257494926453e-01" cType="1" res="-4.6001807786524296e-03" rms="1.9443096220493317e-01" purity="1.5856203436851501e-01" nType="0">
            <Node pos="l" depth="3" NCoef="0" IVar="-1" Cut="0.0000000000000000e+00" cType="1" res="-2.0630663260817528e-02" rms="1.9696973264217377e-01" purity="1.6582600772380829e-01" nType="-99"/>
            <Node pos="r" depth="3" NCoef="0" IVar="-1" Cut="0.0000000000000000e+00" cType="1" res="4.6963752247393131e-03" rms="1.8982204794883728e-01" purity="1.4607617259025574e-01" nType="-99"/>
          </Node>
          <Node pos="r" depth="2" NCoef="0" IVar="4" Cut="3.0188735961914062e+02" cType="1" res="7.4826995842158794e-04" rms="1.7218810319900513e-01" purity="9.0151131153106689e-01" nType="0">
            <Node pos="l" depth="3" NCoef="0" IVar="-1" Cut="0.0000000000000000e+00" cType="1" res="2.2679874673485756e-02" rms="2.3304182291030884e-01" purity="7.1112936735153198e-01" nType="-99"/>
            <Node pos="r" depth="3" NCoef="0" IVar="-1" Cut="0.0000000000000000e+00" cType="1" res="-1.0576247237622738e-02" rms="1.5367084741592407e-01" purity="9.4771546125411987e-01" nType="-99"/>
          </Node>
        </Node>
        <Node pos="r" depth="1" NCoef="0" IVar="-1" Cut="0.0000000000000000e+00" cType="1" res="3.7674915045499802e-02" rms="1.9647754728794098e-01" purity="1.6867585480213165e-01" nType="-99"/>
      </Node>
    </BinaryTree>
    <BinaryTree type="DecisionTree" boostWeight="1.0000000000000000e+00" itree="237">
      <Node pos="s" depth="0" NCoef="0" IVar="1" Cut="1.0831500589847565e-01" cType="1" res="1.0576416971161962e-03" rms="1.8453928828239441e-01" purity="5.0076258182525635e-01" nType="0">
        <Node pos="l" depth="1" NCoef="0" IVar="4" Cut="2.3790390014648438e+02" cType="1" res="3.7336994428187609e-03" rms="1.9399793446063995e-01" purity="3.6364349722862244e-01" nType="0">
          <Node pos="l" depth="2" NCoef="0" IVar="10" Cut="1.9982117414474487e+00" cType="1" res="-2.8323873993940651e-04" rms="1.7722146213054657e-01" purity="9.3413121998310089e-02" nType="0">
            <Node pos="l" depth="3" NCoef="0" IVar="-1" Cut="0.0000000000000000e+00" cType="1" res="-5.2658175118267536e-03" rms="1.7532479763031006e-01" purity="9.3512848019599915e-02" nType="-99"/>
            <Node pos="r" depth="3" NCoef="0" IVar="-1" Cut="0.0000000000000000e+00" cType="1" res="5.9090144932270050e-02" rms="2.0201663672924042e-01" purity="9.1949261724948883e-02" nType="-99"/>
          </Node>
          <Node pos="r" depth="2" NCoef="0" IVar="0" Cut="2.7330852050781250e+03" cType="1" res="9.6081243827939034e-03" rms="2.1606628596782684e-01" purity="7.5883203744888306e-01" nType="0">
            <Node pos="l" depth="3" NCoef="0" IVar="-1" Cut="0.0000000000000000e+00" cType="1" res="2.3782033473253250e-02" rms="3.0769488215446472e-01" purity="3.9623352885246277e-01" nType="-99"/>
            <Node pos="r" depth="3" NCoef="0" IVar="-1" Cut="0.0000000000000000e+00" cType="1" res="1.1943892575800419e-02" rms="1.3310304284095764e-01" purity="9.7665888071060181e-01" nType="-99"/>
          </Node>
        </Node>
        <Node pos="r" depth="1" NCoef="0" IVar="0" Cut="2.3259313964843750e+03" cType="1" res="-5.0278832204639912e-03" rms="1.6080817580223083e-01" purity="8.1258010864257812e-01" nType="0">
          <Node pos="l" depth="2" NCoef="0" IVar="0" Cut="1.7966990966796875e+03" cType="1" res="-2.6486765593290329e-02" rms="2.7534627914428711e-01" purity="2.2020652890205383e-01" nType="0">
            <Node pos="l" depth="3" NCoef="0" IVar="-1" Cut="0.0000000000000000e+00" cType="1" res="2.7134069241583347e-03" rms="1.5861777961254120e-01" purity="2.7042293921113014e-02" nType="-99"/>
            <Node pos="r" depth="3" NCoef="0" IVar="-1" Cut="0.0000000000000000e+00" cType="1" res="-3.8969516754150391e-02" rms="3.6852788925170898e-01" purity="4.5663797855377197e-01" nType="-99"/>
          </Node>
          <Node pos="r" depth="2" NCoef="0" IVar="4" Cut="2.9119418334960938e+02" cType="1" res="1.3205789728090167e-03" rms="1.0441987961530685e-01" purity="9.8782974481582642e-01" nType="0">
            <Node pos="l" depth="3" NCoef="0" IVar="-1" Cut="0.0000000000000000e+00" cType="1" res="2.9079623520374298e-02" rms="1.5449856221675873e-01" purity="9.7403144836425781e-01" nType="-99"/>
            <Node pos="r" depth="3" NCoef="0" IVar="-1" Cut="0.0000000000000000e+00" cType="1" res="-2.1311398595571518e-03" rms="9.0122133493423462e-02" purity="9.9077624082565308e-01" nType="-99"/>
          </Node>
        </Node>
      </Node>
    </BinaryTree>
    <BinaryTree type="DecisionTree" boostWeight="1.0000000000000000e+00" itree="238">
      <Node pos="s" depth="0" NCoef="0" IVar="8" Cut="-1.3039875030517578e-01" cType="1" res="-4.8543792217969894e-04" rms="1.8334627151489258e-01" purity="4.9896723031997681e-01" nType="0">
        <Node pos="l" depth="1" NCoef="0" IVar="11" Cut="1.4655901193618774e+00" cType="1" res="1.8886695615947247e-03" rms="1.8541449308395386e-01" purity="4.8357695341110229e-01" nType="0">
          <Node pos="l" depth="2" NCoef="0" IVar="0" Cut="2.3833269042968750e+03" cType="1" res="3.5664162132889032e-03" rms="1.8393771350383759e-01" purity="4.9747845530509949e-01" nType="0">
            <Node pos="l" depth="3" NCoef="0" IVar="-1" Cut="0.0000000000000000e+00" cType="1" res="2.1109808236360550e-02" rms="1.9999279081821442e-01" purity="9.7397372126579285e-02" nType="-99"/>
            <Node pos="r" depth="3" NCoef="0" IVar="-1" Cut="0.0000000000000000e+00" cType="1" res="-7.7156596817076206e-03" rms="1.6372095048427582e-01" purity="9.4996803998947144e-01" nType="-99"/>
          </Node>
          <Node pos="r" depth="2" NCoef="0" IVar="-1" Cut="0.0000000000000000e+00" cType="1" res="-2.9972402378916740e-02" rms="1.9745722413063049e-01" purity="3.5973089933395386e-01" nType="-99"/>
        </Node>
        <Node pos="r" depth="1" NCoef="0" IVar="11" Cut="-1.1962066888809204e+00" cType="1" res="-2.3845664691179991e-03" rms="1.8165254592895508e-01" purity="5.1127839088439941e-01" nType="0">
          <Node pos="l" depth="2" NCoef="0" IVar="5" Cut="1.2554193115234375e+02" cType="1" res="-1.1249756440520287e-02" rms="2.0543316006660461e-01" purity="4.3865329027175903e-01" nType="0">
            <Node pos="l" depth="3" NCoef="0" IVar="-1" Cut="0.0000000000000000e+00" cType="1" res="1.6135077923536301e-02" rms="1.6433414816856384e-01" purity="8.1442333757877350e-02" nType="-99"/>
            <Node pos="r" depth="3" NCoef="0" IVar="-1" Cut="0.0000000000000000e+00" cType="1" res="-4.0143176913261414e-02" rms="2.2261069715023041e-01" purity="6.1569529771804810e-01" nType="-99"/>
          </Node>
          <Node pos="r" depth="2" NCoef="0" IVar="11" Cut="-6.2511235475540161e-01" cType="1" res="-7.2966981679201126e-04" rms="1.7681029438972473e-01" purity="5.2483564615249634e-01" nType="0">
            <Node pos="l" depth="3" NCoef="0" IVar="-1" Cut="0.0000000000000000e+00" cType="1" res="1.8462864682078362e-02" rms="1.8185602128505707e-01" purity="6.0303479433059692e-01" nType="-99"/>
            <Node pos="r" depth="3" NCoef="0" IVar="-1" Cut="0.0000000000000000e+00" cType="1" res="-5.8863535523414612e-03" rms="1.7585638165473938e-01" purity="5.1069092750549316e-01" nType="-99"/>
          </Node>
        </Node>
      </Node>
    </BinaryTree>
    <BinaryTree type="DecisionTree" boostWeight="1.0000000000000000e+00" itree="239">
      <Node pos="s" depth="0" NCoef="0" IVar="11" Cut="9.3312209844589233e-01" cType="1" res="1.4577261172235012e-03" rms="1.8701703846454620e-01" purity="5.0454574823379517e-01" nType="0">
        <Node pos="l" depth="1" NCoef="0" IVar="10" Cut="1.7335636615753174e+00" cType="1" res="-1.7856087652035058e-04" rms="1.8322987854480743e-01" purity="5.1362192630767822e-01" nType="0">
          <Node pos="l" depth="2" NCoef="0" IVar="8" Cut="-6.6626107692718506e-01" cType="1" res="-1.0481724748387933e-03" rms="1.7969092726707458e-01" purity="5.2869117259979248e-01" nType="0">
            <Node pos="l" depth="3" NCoef="0" IVar="-1" Cut="0.0000000000000000e+00" cType="1" res="1.0453939437866211e-02" rms="1.8714940547943115e-01" purity="3.8939997553825378e-01" nType="-99"/>
            <Node pos="r" depth="3" NCoef="0" IVar="-1" Cut="0.0000000000000000e+00" cType="1" res="-8.0837709829211235e-03" rms="1.7723953723907471e-01" purity="5.7274842262268066e-01" nType="-99"/>
          </Node>
          <Node pos="r" depth="2" NCoef="0" IVar="-1" Cut="0.0000000000000000e+00" cType="1" res="3.6161851137876511e-02" rms="2.3310643434524536e-01" purity="2.6747137308120728e-01" nType="-99"/>
        </Node>
        <Node pos="r" depth="1" NCoef="0" IVar="5" Cut="1.6639318847656250e+02" cType="1" res="6.9865859113633633e-03" rms="1.9918236136436462e-01" purity="4.7387826442718506e-01" nType="0">
          <Node pos="l" depth="2" NCoef="0" IVar="0" Cut="1.8375834960937500e+03" cType="1" res="1.1648307554423809e-02" rms="2.0467044413089752e-01" purity="1.4545252919197083e-01" nType="0">
            <Node pos="l" depth="3" NCoef="0" IVar="-1" Cut="0.0000000000000000e+00" cType="1" res="3.5228528082370758e-02" rms="1.2247014045715332e-01" purity="1.5749350190162659e-02" nType="-99"/>
            <Node pos="r" depth="3" NCoef="0" IVar="-1" Cut="0.0000000000000000e+00" cType="1" res="3.0864961445331573e-02" rms="3.2458487153053284e-01" purity="4.5389333367347717e-01" nType="-99"/>
          </Node>
          <Node pos="r" depth="2" NCoef="0" IVar="2" Cut="6.1244378662109375e+02" cType="1" res="1.9151330925524235e-03" rms="1.9290688633918762e-01" purity="8.3117014169692993e-01" nType="0">
            <Node pos="l" depth="3" NCoef="0" IVar="-1" Cut="0.0000000000000000e+00" cType="1" res="1.5553028322756290e-02" rms="2.3178395628929138e-01" purity="6.7673879861831665e-01" nType="-99"/>
            <Node pos="r" depth="3" NCoef="0" IVar="-1" Cut="0.0000000000000000e+00" cType="1" res="-1.6607303172349930e-02" rms="1.5402789413928986e-01" purity="9.5663821697235107e-01" nType="-99"/>
          </Node>
        </Node>
      </Node>
    </BinaryTree>
    <BinaryTree type="DecisionTree" boostWeight="1.0000000000000000e+00" itree="240">
      <Node pos="s" depth="0" NCoef="0" IVar="5" Cut="1.5328689575195312e+02" cType="1" res="-1.6731807263568044e-03" rms="1.8327407538890839e-01" purity="5.0024616718292236e-01" nType="0">
        <Node pos="l" depth="1" NCoef="0" IVar="0" Cut="2.2864877929687500e+03" cType="1" res="1.2819268740713596e-03" rms="1.7798779904842377e-01" purity="9.9588140845298767e-02" nType="0">
          <Node pos="l" depth="2" NCoef="0" IVar="0" Cut="1.8643040771484375e+03" cType="1" res="-1.1437390930950642e-03" rms="1.4737725257873535e-01" purity="2.9952643439173698e-02" nType="0">
            <Node pos="l" depth="3" NCoef="0" IVar="-1" Cut="0.0000000000000000e+00" cType="1" res="1.5044271945953369e-02" rms="1.0509640723466873e-01" purity="1.2194648385047913e-02" nType="-99"/>
            <Node pos="r" depth="3" NCoef="0" IVar="-1" Cut="0.0000000000000000e+00" cType="1" res="-1.9103707745671272e-02" rms="2.8206294775009155e-01" purity="1.2658123672008514e-01" nType="-99"/>
          </Node>
          <Node pos="r" depth="2" NCoef="0" IVar="-1" Cut="0.0000000000000000e+00" cType="1" res="1.9352734088897705e-02" rms="3.3639723062515259e-01" purity="6.7242592573165894e-01" nType="-99"/>
        </Node>
        <Node pos="r" depth="1" NCoef="0" IVar="0" Cut="2.7314458007812500e+03" cType="1" res="-3.7697732914239168e-03" rms="1.8690562248229980e-01" purity="7.8450536727905273e-01" nType="0">
          <Node pos="l" depth="2" NCoef="0" IVar="3" Cut="3.1862619018554688e+02" cType="1" res="-1.0575995780527592e-02" rms="2.7905887365341187e-01" purity="4.3265309929847717e-01" nType="0">
            <Node pos="l" depth="3" NCoef="0" IVar="-1" Cut="0.0000000000000000e+00" cType="1" res="-3.1249355524778366e-03" rms="2.5603741407394409e-01" purity="2.1481199562549591e-01" nType="-99"/>
            <Node pos="r" depth="3" NCoef="0" IVar="-1" Cut="0.0000000000000000e+00" cType="1" res="-2.0817749202251434e-02" rms="2.9965639114379883e-01" purity="6.4596551656723022e-01" nType="-99"/>
          </Node>
          <Node pos="r" depth="2" NCoef="0" IVar="7" Cut="-7.3872351646423340e-01" cType="1" res="1.6005092766135931e-04" rms="1.0049096494913101e-01" purity="9.8766028881072998e-01" nType="0">
            <Node pos="l" depth="3" NCoef="0" IVar="-1" Cut="0.0000000000000000e+00" cType="1" res="-5.3089942783117294e-02" rms="1.6112276911735535e-01" purity="9.6400094032287598e-01" nType="-99"/>
            <Node pos="r" depth="3" NCoef="0" IVar="-1" Cut="0.0000000000000000e+00" cType="1" res="1.3507318682968616e-02" rms="9.1295659542083740e-02" purity="9.9027031660079956e-01" nType="-99"/>
          </Node>
        </Node>
      </Node>
    </BinaryTree>
    <BinaryTree type="DecisionTree" boostWeight="1.0000000000000000e+00" itree="241">
      <Node pos="s" depth="0" NCoef="0" IVar="10" Cut="-9.3279838562011719e-01" cType="1" res="3.6329089198261499e-04" rms="1.8326915800571442e-01" purity="5.0065559148788452e-01" nType="0">
        <Node pos="l" depth="1" NCoef="0" IVar="10" Cut="-1.5548567771911621e+00" cType="1" res="-5.0651933997869492e-03" rms="2.0033745467662811e-01" purity="3.9506444334983826e-01" nType="0">
          <Node pos="l" depth="2" NCoef="0" IVar="1" Cut="3.5102821886539459e-02" cType="1" res="8.4723299369215965e-03" rms="2.1114847064018250e-01" purity="2.9070004820823669e-01" nType="0">
            <Node pos="l" depth="3" NCoef="0" IVar="-1" Cut="0.0000000000000000e+00" cType="1" res="-8.6046680808067322e-03" rms="1.6911970078945160e-01" purity="6.9783829152584076e-02" nType="-99"/>
            <Node pos="r" depth="3" NCoef="0" IVar="-1" Cut="0.0000000000000000e+00" cType="1" res="3.0666088685393333e-02" rms="2.3738986253738403e-01" purity="4.5548108220100403e-01" nType="-99"/>
          </Node>
          <Node pos="r" depth="2" NCoef="0" IVar="11" Cut="6.6625016927719116e-01" cType="1" res="-1.3933913782238960e-02" rms="1.9241106510162354e-01" purity="4.6343576908111572e-01" nType="0">
            <Node pos="l" depth="3" NCoef="0" IVar="-1" Cut="0.0000000000000000e+00" cType="1" res="-1.7886675894260406e-02" rms="1.8015433847904205e-01" purity="4.7301959991455078e-01" nType="-99"/>
            <Node pos="r" depth="3" NCoef="0" IVar="-1" Cut="0.0000000000000000e+00" cType="1" res="-7.0300899446010590e-02" rms="2.1910671889781952e-01" purity="4.3922066688537598e-01" nType="-99"/>
          </Node>
        </Node>
        <Node pos="r" depth="1" NCoef="0" IVar="4" Cut="2.4191406250000000e+02" cType="1" res="1.8212962895631790e-03" rms="1.7837877571582794e-01" purity="5.2901566028594971e-01" nType="0">
          <Node pos="l" depth="2" NCoef="0" IVar="9" Cut="-1.1991752386093140e+00" cType="1" res="-1.3024091022089124e-03" rms="1.8328614532947540e-01" purity="1.2853105366230011e-01" nType="0">
            <Node pos="l" depth="3" NCoef="0" IVar="-1" Cut="0.0000000000000000e+00" cType="1" res="2.5357231497764587e-02" rms="1.8875882029533386e-01" purity="1.2334113568067551e-01" nType="-99"/>
            <Node pos="r" depth="3" NCoef="0" IVar="-1" Cut="0.0000000000000000e+00" cType="1" res="-9.5721557736396790e-03" rms="1.8209578096866608e-01" purity="1.2958116829395294e-01" nType="-99"/>
          </Node>
          <Node pos="r" depth="2" NCoef="0" IVar="0" Cut="2.3803737792968750e+03" cType="1" res="4.5487261377274990e-03" rms="1.7393493652343750e-01" purity="8.7869459390640259e-01" nType="0">
            <Node pos="l" depth="3" NCoef="0" IVar="-1" Cut="0.0000000000000000e+00" cType="1" res="2.2728795185685158e-02" rms="3.1948542594909668e-01" purity="3.1439808011054993e-01" nType="-99"/>
            <Node pos="r" depth="3" NCoef="0" IVar="-1" Cut="0.0000000000000000e+00" cType="1" res="7.8483074903488159e-03" rms="1.3379895687103271e-01" purity="9.7522598505020142e-01" nType="-99"/>
          </Node>
        </Node>
      </Node>
    </BinaryTree>
    <BinaryTree type="DecisionTree" boostWeight="1.0000000000000000e+00" itree="242">
      <Node pos="s" depth="0" NCoef="0" IVar="8" Cut="-1.3242316246032715e-01" cType="1" res="-5.4660590831190348e-04" rms="1.8535667657852173e-01" purity="4.9994179606437683e-01" nType="0">
        <Node pos="l" depth="1" NCoef="0" IVar="0" Cut="1.8930422363281250e+03" cType="1" res="-4.4337981380522251e-03" rms="1.8864522874355316e-01" purity="4.7290256619453430e-01" nType="0">
          <Node pos="l" depth="2" NCoef="0" IVar="2" Cut="4.6428192138671875e+02" cType="1" res="2.6483705732971430e-03" rms="1.3885061442852020e-01" purity="2.1561762318015099e-02" nType="0">
            <Node pos="l" depth="3" NCoef="0" IVar="-1" Cut="0.0000000000000000e+00" cType="1" res="3.5340987145900726e-02" rms="1.5000578761100769e-01" purity="2.5373768061399460e-02" nType="-99"/>
            <Node pos="r" depth="3" NCoef="0" IVar="-1" Cut="0.0000000000000000e+00" cType="1" res="-1.9967598840594292e-02" rms="1.1629384011030197e-01" purity="1.4818081632256508e-02" nType="-99"/>
          </Node>
          <Node pos="r" depth="2" NCoef="0" IVar="0" Cut="2.5623393554687500e+03" cType="1" res="-9.5993326976895332e-03" rms="2.1775676310062408e-01" purity="8.0209779739379883e-01" nType="0">
            <Node pos="l" depth="3" NCoef="0" IVar="-1" Cut="0.0000000000000000e+00" cType="1" res="-2.3031381890177727e-02" rms="3.3229708671569824e-01" purity="3.9439079165458679e-01" nType="-99"/>
            <Node pos="r" depth="3" NCoef="0" IVar="-1" Cut="0.0000000000000000e+00" cType="1" res="-1.4065028168261051e-02" rms="1.4913350343704224e-01" purity="9.6399021148681641e-01" nType="-99"/>
          </Node>
        </Node>
        <Node pos="r" depth="1" NCoef="0" IVar="7" Cut="-2.8073050081729889e-02" cType="1" res="2.5829414371401072e-03" rms="1.8260595202445984e-01" purity="5.2171081304550171e-01" nType="0">
          <Node pos="l" depth="2" NCoef="0" IVar="8" Cut="2.8631323575973511e-01" cType="1" res="-5.4102228023111820e-04" rms="1.8269425630569458e-01" purity="4.9755299091339111e-01" nType="0">
            <Node pos="l" depth="3" NCoef="0" IVar="-1" Cut="0.0000000000000000e+00" cType="1" res="2.0192530006170273e-02" rms="1.7897392809391022e-01" purity="6.4555323123931885e-01" nType="-99"/>
            <Node pos="r" depth="3" NCoef="0" IVar="-1" Cut="0.0000000000000000e+00" cType="1" res="-1.1736016720533371e-02" rms="1.8437772989273071e-01" purity="4.2560741305351257e-01" nType="-99"/>
          </Node>
          <Node pos="r" depth="2" NCoef="0" IVar="3" Cut="2.7739617919921875e+02" cType="1" res="5.5845156311988831e-03" rms="1.8247069418430328e-01" purity="5.4492223262786865e-01" nType="0">
            <Node pos="l" depth="3" NCoef="0" IVar="-1" Cut="0.0000000000000000e+00" cType="1" res="-8.2881581038236618e-03" rms="1.5466639399528503e-01" purity="7.2059430181980133e-02" nType="-99"/>
            <Node pos="r" depth="3" NCoef="0" IVar="-1" Cut="0.0000000000000000e+00" cType="1" res="2.3279402405023575e-02" rms="1.9296973943710327e-01" purity="7.4562060832977295e-01" nType="-99"/>
          </Node>
        </Node>
      </Node>
    </BinaryTree>
    <BinaryTree type="DecisionTree" boostWeight="1.0000000000000000e+00" itree="243">
      <Node pos="s" depth="0" NCoef="0" IVar="6" Cut="1.1242726898193359e+02" cType="1" res="1.9138728966936469e-03" rms="1.8237517774105072e-01" purity="4.9951902031898499e-01" nType="0">
        <Node pos="l" depth="1" NCoef="0" IVar="11" Cut="1.9999635219573975e+00" cType="1" res="-3.5169752663932741e-04" rms="1.7769797146320343e-01" purity="1.5244072675704956e-01" nType="0">
          <Node pos="l" depth="2" NCoef="0" IVar="3" Cut="3.8946539306640625e+02" cType="1" res="7.8126078005880117e-04" rms="1.7846731841564178e-01" purity="1.5299299359321594e-01" nType="0">
            <Node pos="l" depth="3" NCoef="0" IVar="-1" Cut="0.0000000000000000e+00" cType="1" res="-5.9512900188565254e-03" rms="1.5116368234157562e-01" purity="5.4386008530855179e-02" nType="-99"/>
            <Node pos="r" depth="3" NCoef="0" IVar="-1" Cut="0.0000000000000000e+00" cType="1" res="1.4162622392177582e-02" rms="2.5920984148979187e-01" purity="5.4119992256164551e-01" nType="-99"/>
          </Node>
          <Node pos="r" depth="2" NCoef="0" IVar="-1" Cut="0.0000000000000000e+00" cType="1" res="-4.8373855650424957e-02" rms="1.6618672013282776e-01" purity="1.4497062563896179e-01" nType="-99"/>
        </Node>
        <Node pos="r" depth="1" NCoef="0" IVar="0" Cut="2.1988544921875000e+03" cType="1" res="3.8484954275190830e-03" rms="1.8625441193580627e-01" purity="7.9589706659317017e-01" nType="0">
          <Node pos="l" depth="2" NCoef="0" IVar="3" Cut="2.5925634765625000e+02" cType="1" res="1.4041085727512836e-02" rms="2.8550583124160767e-01" purity="1.5407223999500275e-01" nType="0">
            <Node pos="l" depth="3" NCoef="0" IVar="-1" Cut="0.0000000000000000e+00" cType="1" res="1.3320115394890308e-03" rms="2.1250002086162567e-01" purity="7.0796169340610504e-02" nType="-99"/>
            <Node pos="r" depth="3" NCoef="0" IVar="-1" Cut="0.0000000000000000e+00" cType="1" res="2.5858717039227486e-02" rms="3.4626904129981995e-01" purity="2.4291376769542694e-01" nType="-99"/>
          </Node>
          <Node pos="r" depth="2" NCoef="0" IVar="8" Cut="3.8365060091018677e-01" cType="1" res="1.1528095928952098e-03" rms="1.4923968911170959e-01" purity="9.6564376354217529e-01" nType="0">
            <Node pos="l" depth="3" NCoef="0" IVar="-1" Cut="0.0000000000000000e+00" cType="1" res="1.5252363868057728e-02" rms="1.3896423578262329e-01" purity="9.7149640321731567e-01" nType="-99"/>
            <Node pos="r" depth="3" NCoef="0" IVar="-1" Cut="0.0000000000000000e+00" cType="1" res="-1.4349675737321377e-02" rms="1.7133416235446930e-01" purity="9.5157176256179810e-01" nType="-99"/>
          </Node>
        </Node>
      </Node>
    </BinaryTree>
    <BinaryTree type="DecisionTree" boostWeight="1.0000000000000000e+00" itree="244">
      <Node pos="s" depth="0" NCoef="0" IVar="8" Cut="-6.6591632366180420e-01" cType="1" res="2.6346411323174834e-04" rms="1.8687129020690918e-01" purity="5.0059449672698975e-01" nType="0">
        <Node pos="l" depth="1" NCoef="0" IVar="7" Cut="5.0373166799545288e-01" cType="1" res="-4.6563050709664822e-03" rms="1.8939034640789032e-01" purity="3.5269746184349060e-01" nType="0">
          <Node pos="l" depth="2" NCoef="0" IVar="0" Cut="2.5265996093750000e+03" cType="1" res="-8.0965422093868256e-03" rms="1.9101968407630920e-01" purity="4.1168418526649475e-01" nType="0">
            <Node pos="l" depth="3" NCoef="0" IVar="-1" Cut="0.0000000000000000e+00" cType="1" res="-3.0522972345352173e-02" rms="2.0542025566101074e-01" purity="1.0390850901603699e-01" nType="-99"/>
            <Node pos="r" depth="3" NCoef="0" IVar="-1" Cut="0.0000000000000000e+00" cType="1" res="1.0478878393769264e-02" rms="1.6190573573112488e-01" purity="9.5578509569168091e-01" nType="-99"/>
          </Node>
          <Node pos="r" depth="2" NCoef="0" IVar="8" Cut="-1.3768383264541626e+00" cType="1" res="3.6946071777492762e-03" rms="1.8510989844799042e-01" purity="2.0951172709465027e-01" nType="0">
            <Node pos="l" depth="3" NCoef="0" IVar="-1" Cut="0.0000000000000000e+00" cType="1" res="-3.8736954331398010e-02" rms="1.3206839561462402e-01" purity="4.6788521111011505e-02" nType="-99"/>
            <Node pos="r" depth="3" NCoef="0" IVar="-1" Cut="0.0000000000000000e+00" cType="1" res="2.7486545965075493e-02" rms="2.1220576763153076e-01" purity="3.1492301821708679e-01" nType="-99"/>
          </Node>
        </Node>
        <Node pos="r" depth="1" NCoef="0" IVar="7" Cut="-5.3723907470703125e-01" cType="1" res="1.7991005443036556e-03" rms="1.8605136871337891e-01" purity="5.4675847291946411e-01" nType="0">
          <Node pos="l" depth="2" NCoef="0" IVar="2" Cut="7.6151281738281250e+02" cType="1" res="7.3656425811350346e-03" rms="1.9393908977508545e-01" purity="3.9700797200202942e-01" nType="0">
            <Node pos="l" depth="3" NCoef="0" IVar="-1" Cut="0.0000000000000000e+00" cType="1" res="3.1483471393585205e-02" rms="1.9266912341117859e-01" purity="3.2351014018058777e-01" nType="-99"/>
            <Node pos="r" depth="3" NCoef="0" IVar="-1" Cut="0.0000000000000000e+00" cType="1" res="-3.3679105341434479e-02" rms="1.9963251054286957e-01" purity="7.9340213537216187e-01" nType="-99"/>
          </Node>
          <Node pos="r" depth="2" NCoef="0" IVar="9" Cut="1.1990951299667358e+00" cType="1" res="-3.0419691029237583e-05" rms="1.8334800004959106e-01" purity="5.9597599506378174e-01" nType="0">
            <Node pos="l" depth="3" NCoef="0" IVar="-1" Cut="0.0000000000000000e+00" cType="1" res="-3.9981426671147346e-03" rms="1.7994980514049530e-01" purity="6.2439858913421631e-01" nType="-99"/>
            <Node pos="r" depth="3" NCoef="0" IVar="-1" Cut="0.0000000000000000e+00" cType="1" res="2.2323761135339737e-02" rms="2.0596717298030853e-01" purity="3.9100340008735657e-01" nType="-99"/>
          </Node>
        </Node>
      </Node>
    </BinaryTree>
    <BinaryTree type="DecisionTree" boostWeight="1.0000000000000000e+00" itree="245">
      <Node pos="s" depth="0" NCoef="0" IVar="10" Cut="-1.4659913778305054e+00" cType="1" res="-3.2413215376436710e-04" rms="1.8240052461624146e-01" purity="4.9652475118637085e-01" nType="0">
        <Node pos="l" depth="1" NCoef="0" IVar="6" Cut="1.0123060607910156e+02" cType="1" res="-7.4862521141767502e-03" rms="2.0476944744586945e-01" purity="3.0211344361305237e-01" nType="0">
          <Node pos="l" depth="2" NCoef="0" IVar="1" Cut="2.8897179290652275e-02" cType="1" res="7.9117948189377785e-03" rms="1.7302043735980988e-01" purity="1.1026863753795624e-01" nType="0">
            <Node pos="l" depth="3" NCoef="0" IVar="-1" Cut="0.0000000000000000e+00" cType="1" res="6.0221529565751553e-03" rms="1.0936731845140457e-01" purity="3.2506920397281647e-02" nType="-99"/>
            <Node pos="r" depth="3" NCoef="0" IVar="-1" Cut="0.0000000000000000e+00" cType="1" res="3.1765114516019821e-02" rms="2.1827617287635803e-01" purity="1.8729621171951294e-01" nType="-99"/>
          </Node>
          <Node pos="r" depth="2" NCoef="0" IVar="-1" Cut="0.0000000000000000e+00" cType="1" res="-4.4961046427488327e-02" rms="2.3775632679462433e-01" purity="5.4658395051956177e-01" nType="-99"/>
        </Node>
        <Node pos="r" depth="1" NCoef="0" IVar="8" Cut="-3.9672064781188965e-01" cType="1" res="4.5446510193869472e-04" rms="1.7978395521640778e-01" purity="5.1765924692153931e-01" nType="0">
          <Node pos="l" depth="2" NCoef="0" IVar="7" Cut="-5.1771003007888794e-01" cType="1" res="4.0988167747855186e-03" rms="1.8329092860221863e-01" purity="4.5702236890792847e-01" nType="0">
            <Node pos="l" depth="3" NCoef="0" IVar="-1" Cut="0.0000000000000000e+00" cType="1" res="3.7104051560163498e-02" rms="1.9971303641796112e-01" purity="3.8738220930099487e-01" nType="-99"/>
            <Node pos="r" depth="3" NCoef="0" IVar="-1" Cut="0.0000000000000000e+00" cType="1" res="2.3558933753520250e-03" rms="1.7706063389778137e-01" purity="4.8140838742256165e-01" nType="-99"/>
          </Node>
          <Node pos="r" depth="2" NCoef="0" IVar="7" Cut="7.3949611186981201e-01" cType="1" res="-1.3467844109982252e-03" rms="1.7799754440784454e-01" purity="5.4762953519821167e-01" nType="0">
            <Node pos="l" depth="3" NCoef="0" IVar="-1" Cut="0.0000000000000000e+00" cType="1" res="-8.2889441400766373e-03" rms="1.7668385803699493e-01" purity="5.8751320838928223e-01" nType="-99"/>
            <Node pos="r" depth="3" NCoef="0" IVar="-1" Cut="0.0000000000000000e+00" cType="1" res="1.3020379468798637e-02" rms="1.8380194902420044e-01" purity="3.6448588967323303e-01" nType="-99"/>
          </Node>
        </Node>
      </Node>
    </BinaryTree>
    <BinaryTree type="DecisionTree" boostWeight="1.0000000000000000e+00" itree="246">
      <Node pos="s" depth="0" NCoef="0" IVar="1" Cut="2.1680036559700966e-02" cType="1" res="-1.0625761933624744e-03" rms="1.8488264083862305e-01" purity="4.9612122774124146e-01" nType="0">
        <Node pos="l" depth="1" NCoef="0" IVar="0" Cut="2.1315441894531250e+03" cType="1" res="4.4468678534030914e-03" rms="1.5726637840270996e-01" purity="9.8922058939933777e-02" nType="0">
          <Node pos="l" depth="2" NCoef="0" IVar="4" Cut="1.7960449218750000e+02" cType="1" res="-8.0235529458150268e-04" rms="8.5830338299274445e-02" purity="7.9372012987732887e-03" nType="0">
            <Node pos="l" depth="3" NCoef="0" IVar="-1" Cut="0.0000000000000000e+00" cType="1" res="4.0707882493734360e-02" rms="8.0518491566181183e-02" purity="7.0918742567300797e-03" nType="-99"/>
            <Node pos="r" depth="3" NCoef="0" IVar="-1" Cut="0.0000000000000000e+00" cType="1" res="-4.3328989297151566e-02" rms="9.4964809715747833e-02" purity="9.5588862895965576e-03" nType="-99"/>
          </Node>
          <Node pos="r" depth="2" NCoef="0" IVar="-1" Cut="0.0000000000000000e+00" cType="1" res="2.7585502713918686e-02" rms="3.1518000364303589e-01" purity="4.9313890933990479e-01" nType="-99"/>
        </Node>
        <Node pos="r" depth="1" NCoef="0" IVar="7" Cut="6.3131767511367798e-01" cType="1" res="-2.3154818918555975e-03" rms="1.9058302044868469e-01" purity="5.8644849061965942e-01" nType="0">
          <Node pos="l" depth="2" NCoef="0" IVar="8" Cut="1.1954475641250610e+00" cType="1" res="-4.0900713065639138e-04" rms="1.8882422149181366e-01" purity="6.2483054399490356e-01" nType="0">
            <Node pos="l" depth="3" NCoef="0" IVar="-1" Cut="0.0000000000000000e+00" cType="1" res="-3.9424672722816467e-03" rms="1.8586903810501099e-01" purity="6.5059900283813477e-01" nType="-99"/>
            <Node pos="r" depth="3" NCoef="0" IVar="-1" Cut="0.0000000000000000e+00" cType="1" res="2.6725532487034798e-02" rms="2.2081407904624939e-01" purity="3.1638491153717041e-01" nType="-99"/>
          </Node>
          <Node pos="r" depth="2" NCoef="0" IVar="11" Cut="-9.3076473474502563e-01" cType="1" res="-1.0327101685106754e-02" rms="1.9760222733020782e-01" purity="4.2515495419502258e-01" nType="0">
            <Node pos="l" depth="3" NCoef="0" IVar="-1" Cut="0.0000000000000000e+00" cType="1" res="-5.4099045693874359e-02" rms="2.2179387509822845e-01" purity="3.7772890925407410e-01" nType="-99"/>
            <Node pos="r" depth="3" NCoef="0" IVar="-1" Cut="0.0000000000000000e+00" cType="1" res="-1.5258353203535080e-02" rms="1.9077239930629730e-01" purity="4.3716323375701904e-01" nType="-99"/>
          </Node>
        </Node>
      </Node>
    </BinaryTree>
    <BinaryTree type="DecisionTree" boostWeight="1.0000000000000000e+00" itree="247">
      <Node pos="s" depth="0" NCoef="0" IVar="11" Cut="1.7330756187438965e+00" cType="1" res="8.1807799870148301e-04" rms="1.8659336864948273e-01" purity="5.0156205892562866e-01" nType="0">
        <Node pos="l" depth="1" NCoef="0" IVar="8" Cut="9.3077182769775391e-01" cType="1" res="1.5179661568254232e-03" rms="1.8469917774200439e-01" purity="5.1354891061782837e-01" nType="0">
          <Node pos="l" depth="2" NCoef="0" IVar="1" Cut="8.6749166250228882e-02" cType="1" res="2.6990179903805256e-03" rms="1.8459005653858185e-01" purity="5.5503231287002563e-01" nType="0">
            <Node pos="l" depth="3" NCoef="0" IVar="-1" Cut="0.0000000000000000e+00" cType="1" res="1.4550915919244289e-02" rms="2.0016266405582428e-01" purity="3.6171343922615051e-01" nType="-99"/>
            <Node pos="r" depth="3" NCoef="0" IVar="-1" Cut="0.0000000000000000e+00" cType="1" res="-3.3425039146095514e-03" rms="1.6218174993991852e-01" purity="8.0500447750091553e-01" nType="-99"/>
          </Node>
          <Node pos="r" depth="2" NCoef="0" IVar="11" Cut="8.6945641040802002e-01" cType="1" res="-4.5390883460640907e-03" rms="1.8513941764831543e-01" purity="3.0079999566078186e-01" nType="0">
            <Node pos="l" depth="3" NCoef="0" IVar="-1" Cut="0.0000000000000000e+00" cType="1" res="-1.9634524360299110e-03" rms="1.8526352941989899e-01" purity="3.2465016841888428e-01" nType="-99"/>
            <Node pos="r" depth="3" NCoef="0" IVar="-1" Cut="0.0000000000000000e+00" cType="1" res="-4.7851171344518661e-02" rms="1.8413950502872467e-01" purity="2.2067339718341827e-01" nType="-99"/>
          </Node>
        </Node>
        <Node pos="r" depth="1" NCoef="0" IVar="2" Cut="5.3010333251953125e+02" cType="1" res="-7.6876757666468620e-03" rms="2.0805273950099945e-01" purity="3.5588589310646057e-01" nType="0">
          <Node pos="l" depth="2" NCoef="0" IVar="-1" Cut="0.0000000000000000e+00" cType="1" res="-4.2083859443664551e-02" rms="1.8634875118732452e-01" purity="1.3028554618358612e-01" nType="-99"/>
          <Node pos="r" depth="2" NCoef="0" IVar="-1" Cut="0.0000000000000000e+00" cType="1" res="2.7552335523068905e-03" rms="2.2889804840087891e-01" purity="5.9999573230743408e-01" nType="-99"/>
        </Node>
      </Node>
    </BinaryTree>
    <BinaryTree type="DecisionTree" boostWeight="1.0000000000000000e+00" itree="248">
      <Node pos="s" depth="0" NCoef="0" IVar="8" Cut="-3.9676669239997864e-01" cType="1" res="1.9771653751377016e-04" rms="1.8505516648292542e-01" purity="4.9887216091156006e-01" nType="0">
        <Node pos="l" depth="1" NCoef="0" IVar="3" Cut="4.5899078369140625e+02" cType="1" res="-3.1708686146885157e-03" rms="1.8803696334362030e-01" purity="4.2388972640037537e-01" nType="0">
          <Node pos="l" depth="2" NCoef="0" IVar="8" Cut="-9.6762365102767944e-01" cType="1" res="1.1602712220337708e-05" rms="1.9017843902111053e-01" purity="2.6412138342857361e-01" nType="0">
            <Node pos="l" depth="3" NCoef="0" IVar="-1" Cut="0.0000000000000000e+00" cType="1" res="1.9491681829094887e-02" rms="1.8433757126331329e-01" purity="1.8320851027965546e-01" nType="-99"/>
            <Node pos="r" depth="3" NCoef="0" IVar="-1" Cut="0.0000000000000000e+00" cType="1" res="-1.6739765182137489e-02" rms="1.9645407795906067e-01" purity="3.5766160488128662e-01" nType="-99"/>
          </Node>
          <Node pos="r" depth="2" NCoef="0" IVar="0" Cut="3.2286147460937500e+03" cType="1" res="-1.2461181730031967e-02" rms="1.8132188916206360e-01" purity="8.9028769731521606e-01" nType="0">
            <Node pos="l" depth="3" NCoef="0" IVar="-1" Cut="0.0000000000000000e+00" cType="1" res="-4.5690637081861496e-02" rms="2.4866251647472382e-01" purity="7.6158988475799561e-01" nType="-99"/>
            <Node pos="r" depth="3" NCoef="0" IVar="-1" Cut="0.0000000000000000e+00" cType="1" res="-3.8419347256422043e-02" rms="1.0687604546546936e-01" purity="9.8486691713333130e-01" nType="-99"/>
          </Node>
        </Node>
        <Node pos="r" depth="1" NCoef="0" IVar="4" Cut="2.5700576782226562e+02" cType="1" res="1.9530697027221322e-03" rms="1.8345765769481659e-01" purity="5.3794515132904053e-01" nType="0">
          <Node pos="l" depth="2" NCoef="0" IVar="5" Cut="1.8691630554199219e+02" cType="1" res="4.9356324598193169e-03" rms="1.9809064269065857e-01" purity="1.6671724617481232e-01" nType="0">
            <Node pos="l" depth="3" NCoef="0" IVar="-1" Cut="0.0000000000000000e+00" cType="1" res="8.1208227202296257e-03" rms="1.8309745192527771e-01" purity="1.1164510995149612e-01" nType="-99"/>
            <Node pos="r" depth="3" NCoef="0" IVar="-1" Cut="0.0000000000000000e+00" cType="1" res="2.9882632195949554e-02" rms="2.8920826315879822e-01" purity="5.9793812036514282e-01" nType="-99"/>
          </Node>
          <Node pos="r" depth="2" NCoef="0" IVar="2" Cut="4.8479385375976562e+02" cType="1" res="-1.0089277056977153e-03" rms="1.6761386394500732e-01" purity="9.0661323070526123e-01" nType="0">
            <Node pos="l" depth="3" NCoef="0" IVar="-1" Cut="0.0000000000000000e+00" cType="1" res="-3.0700691044330597e-02" rms="2.6765963435173035e-01" purity="6.4692217111587524e-01" nType="-99"/>
            <Node pos="r" depth="3" NCoef="0" IVar="-1" Cut="0.0000000000000000e+00" cType="1" res="8.7286811321973801e-03" rms="1.4618484675884247e-01" purity="9.4630837440490723e-01" nType="-99"/>
          </Node>
        </Node>
      </Node>
    </BinaryTree>
    <BinaryTree type="DecisionTree" boostWeight="1.0000000000000000e+00" itree="249">
      <Node pos="s" depth="0" NCoef="0" IVar="11" Cut="1.9989178180694580e+00" cType="1" res="4.6414788812398911e-04" rms="1.8459303677082062e-01" purity="4.9990311264991760e-01" nType="0">
        <Node pos="l" depth="1" NCoef="0" IVar="10" Cut="-1.9991481304168701e+00" cType="1" res="-2.5343199376948178e-04" rms="1.8316695094108582e-01" purity="5.0877690315246582e-01" nType="0">
          <Node pos="l" depth="2" NCoef="0" IVar="-1" Cut="0.0000000000000000e+00" cType="1" res="4.2629580944776535e-02" rms="2.1139189600944519e-01" purity="2.2201660275459290e-01" nType="-99"/>
          <Node pos="r" depth="2" NCoef="0" IVar="10" Cut="2.1139795780181885e+00" cType="1" res="-8.2675431622192264e-04" rms="1.8208144605159760e-01" purity="5.1873397827148438e-01" nType="0">
            <Node pos="l" depth="3" NCoef="0" IVar="-1" Cut="0.0000000000000000e+00" cType="1" res="-1.0222410783171654e-03" rms="1.8024592101573944e-01" purity="5.2976918220520020e-01" nType="-99"/>
            <Node pos="r" depth="3" NCoef="0" IVar="-1" Cut="0.0000000000000000e+00" cType="1" res="-3.7981122732162476e-02" rms="2.3472148180007935e-01" purity="1.5013669431209564e-01" nType="-99"/>
          </Node>
        </Node>
        <Node pos="r" depth="1" NCoef="0" IVar="-1" Cut="0.0000000000000000e+00" cType="1" res="3.8969144225120544e-02" rms="2.1260935068130493e-01" purity="3.0732414126396179e-01" nType="-99"/>
      </Node>
    </BinaryTree>
    <BinaryTree type="DecisionTree" boostWeight="1.0000000000000000e+00" itree="250">
      <Node pos="s" depth="0" NCoef="0" IVar="7" Cut="-4.9438022077083588e-02" cType="1" res="-1.3113801833242178e-03" rms="1.8146261572837830e-01" purity="5.0644290447235107e-01" nType="0">
        <Node pos="l" depth="1" NCoef="0" IVar="10" Cut="-1.7324783802032471e+00" cType="1" res="-4.7562108375132084e-03" rms="1.8177905678749084e-01" purity="4.9371036887168884e-01" nType="0">
          <Node pos="l" depth="2" NCoef="0" IVar="-1" Cut="0.0000000000000000e+00" cType="1" res="-5.2820131182670593e-02" rms="1.8130293488502502e-01" purity="2.3908835649490356e-01" nType="-99"/>
          <Node pos="r" depth="2" NCoef="0" IVar="8" Cut="4.0073373913764954e-01" cType="1" res="-3.2893542665988207e-03" rms="1.8173415958881378e-01" purity="5.1353716850280762e-01" nType="0">
            <Node pos="l" depth="3" NCoef="0" IVar="-1" Cut="0.0000000000000000e+00" cType="1" res="1.7848537536337972e-03" rms="1.7918951809406281e-01" purity="5.6289869546890259e-01" nType="-99"/>
            <Node pos="r" depth="3" NCoef="0" IVar="-1" Cut="0.0000000000000000e+00" cType="1" res="-3.2022774219512939e-02" rms="1.8640109896659851e-01" purity="4.1648751497268677e-01" nType="-99"/>
          </Node>
        </Node>
        <Node pos="r" depth="1" NCoef="0" IVar="5" Cut="1.4867298889160156e+02" cType="1" res="1.7169124912470579e-03" rms="1.8112987279891968e-01" purity="5.1763588190078735e-01" nType="0">
          <Node pos="l" depth="2" NCoef="0" IVar="6" Cut="6.4048683166503906e+01" cType="1" res="6.3446648418903351e-03" rms="1.8376190960407257e-01" purity="1.0847643017768860e-01" nType="0">
            <Node pos="l" depth="3" NCoef="0" IVar="-1" Cut="0.0000000000000000e+00" cType="1" res="-1.0513660311698914e-01" rms="8.5098177194595337e-02" purity="1.0183152742683887e-02" nType="-99"/>
            <Node pos="r" depth="3" NCoef="0" IVar="-1" Cut="0.0000000000000000e+00" cType="1" res="2.9772846028208733e-02" rms="1.9528946280479431e-01" purity="1.2500382959842682e-01" nType="-99"/>
          </Node>
          <Node pos="r" depth="2" NCoef="0" IVar="4" Cut="2.7984542846679688e+02" cType="1" res="-1.2069441145285964e-03" rms="1.7938549816608429e-01" purity="7.7614659070968628e-01" nType="0">
            <Node pos="l" depth="3" NCoef="0" IVar="-1" Cut="0.0000000000000000e+00" cType="1" res="-1.1783106252551079e-02" rms="2.4745659530162811e-01" purity="4.1503480076789856e-01" nType="-99"/>
            <Node pos="r" depth="3" NCoef="0" IVar="-1" Cut="0.0000000000000000e+00" cType="1" res="8.7295398116111755e-03" rms="1.3303653895854950e-01" purity="9.5577919483184814e-01" nType="-99"/>
          </Node>
        </Node>
      </Node>
    </BinaryTree>
    <BinaryTree type="DecisionTree" boostWeight="1.0000000000000000e+00" itree="251">
      <Node pos="s" depth="0" NCoef="0" IVar="5" Cut="1.8012045288085938e+02" cType="1" res="-1.9398665754124522e-03" rms="1.8563406169414520e-01" purity="5.0902354717254639e-01" nType="0">
        <Node pos="l" depth="1" NCoef="0" IVar="0" Cut="2.0649047851562500e+03" cType="1" res="1.4748281100764871e-03" rms="1.9295448064804077e-01" purity="1.6198855638504028e-01" nType="0">
          <Node pos="l" depth="2" NCoef="0" IVar="5" Cut="1.4328530883789062e+02" cType="1" res="-8.9200853835791349e-04" rms="1.4348404109477997e-01" purity="2.5719547644257545e-02" nType="0">
            <Node pos="l" depth="3" NCoef="0" IVar="-1" Cut="0.0000000000000000e+00" cType="1" res="-2.1136071532964706e-02" rms="1.1590351164340973e-01" purity="1.5009105205535889e-02" nType="-99"/>
            <Node pos="r" depth="3" NCoef="0" IVar="-1" Cut="0.0000000000000000e+00" cType="1" res="1.8776513636112213e-02" rms="2.1812607347965240e-01" purity="6.6280715167522430e-02" nType="-99"/>
          </Node>
          <Node pos="r" depth="2" NCoef="0" IVar="10" Cut="-9.3351274728775024e-01" cType="1" res="9.9657149985432625e-03" rms="3.1120371818542480e-01" purity="6.5084570646286011e-01" nType="0">
            <Node pos="l" depth="3" NCoef="0" IVar="-1" Cut="0.0000000000000000e+00" cType="1" res="2.9044928029179573e-02" rms="3.1259778141975403e-01" purity="6.7514127492904663e-01" nType="-99"/>
            <Node pos="r" depth="3" NCoef="0" IVar="-1" Cut="0.0000000000000000e+00" cType="1" res="4.4514830224215984e-03" rms="3.1052139401435852e-01" purity="6.4257860183715820e-01" nType="-99"/>
          </Node>
        </Node>
        <Node pos="r" depth="1" NCoef="0" IVar="0" Cut="2.6298459472656250e+03" cType="1" res="-5.5537633597850800e-03" rms="1.7748662829399109e-01" purity="8.7630343437194824e-01" nType="0">
          <Node pos="l" depth="2" NCoef="0" IVar="10" Cut="-9.0665191411972046e-01" cType="1" res="-2.3465342819690704e-02" rms="3.2068794965744019e-01" purity="4.9562299251556396e-01" nType="0">
            <Node pos="l" depth="3" NCoef="0" IVar="-1" Cut="0.0000000000000000e+00" cType="1" res="-5.9926945716142654e-02" rms="3.3774149417877197e-01" purity="3.9797478914260864e-01" nType="-99"/>
            <Node pos="r" depth="3" NCoef="0" IVar="-1" Cut="0.0000000000000000e+00" cType="1" res="-8.1089623272418976e-03" rms="3.1281062960624695e-01" purity="5.3146708011627197e-01" nType="-99"/>
          </Node>
          <Node pos="r" depth="2" NCoef="0" IVar="6" Cut="1.3239537048339844e+02" cType="1" res="-3.4512783167883754e-04" rms="1.0313018411397934e-01" purity="9.8700416088104248e-01" nType="0">
            <Node pos="l" depth="3" NCoef="0" IVar="-1" Cut="0.0000000000000000e+00" cType="1" res="-2.9619175940752029e-02" rms="1.8038778007030487e-01" purity="9.5683360099792480e-01" nType="-99"/>
            <Node pos="r" depth="3" NCoef="0" IVar="-1" Cut="0.0000000000000000e+00" cType="1" res="9.1662667691707611e-03" rms="8.6491905152797699e-02" purity="9.9133586883544922e-01" nType="-99"/>
          </Node>
        </Node>
      </Node>
    </BinaryTree>
    <BinaryTree type="DecisionTree" boostWeight="1.0000000000000000e+00" itree="252">
      <Node pos="s" depth="0" NCoef="0" IVar="0" Cut="2.4651013183593750e+03" cType="1" res="-1.1732988059520721e-03" rms="1.8306806683540344e-01" purity="4.9927115440368652e-01" nType="0">
        <Node pos="l" depth="1" NCoef="0" IVar="0" Cut="2.3129282226562500e+03" cType="1" res="-3.7077923770993948e-03" rms="2.0619882643222809e-01" purity="1.0696401447057724e-01" nType="0">
          <Node pos="l" depth="2" NCoef="0" IVar="1" Cut="1.5201930701732635e-01" cType="1" res="-1.8942652968689799e-03" rms="1.9275702536106110e-01" purity="7.4412629008293152e-02" nType="0">
            <Node pos="l" depth="3" NCoef="0" IVar="-1" Cut="0.0000000000000000e+00" cType="1" res="-1.2544629862532020e-03" rms="1.8591032922267914e-01" purity="6.3734218478202820e-02" nType="-99"/>
            <Node pos="r" depth="3" NCoef="0" IVar="-1" Cut="0.0000000000000000e+00" cType="1" res="-2.9690001159906387e-02" rms="2.8315901756286621e-01" purity="2.5420561432838440e-01" nType="-99"/>
          </Node>
          <Node pos="r" depth="2" NCoef="0" IVar="-1" Cut="0.0000000000000000e+00" cType="1" res="-2.6236422359943390e-02" rms="3.5311806201934814e-01" purity="6.1085337400436401e-01" nType="-99"/>
        </Node>
        <Node pos="r" depth="1" NCoef="0" IVar="1" Cut="4.0566384792327881e-02" cType="1" res="1.8266326515004039e-03" rms="1.5112826228141785e-01" purity="9.6362215280532837e-01" nType="0">
          <Node pos="l" depth="2" NCoef="0" IVar="1" Cut="2.9052516445517540e-02" cType="1" res="1.4223636128008366e-02" rms="2.6674160361289978e-01" purity="8.4501916170120239e-01" nType="0">
            <Node pos="l" depth="3" NCoef="0" IVar="-1" Cut="0.0000000000000000e+00" cType="1" res="3.1709644943475723e-02" rms="2.9644578695297241e-01" purity="7.9366379976272583e-01" nType="-99"/>
            <Node pos="r" depth="3" NCoef="0" IVar="-1" Cut="0.0000000000000000e+00" cType="1" res="-6.9511053152382374e-03" rms="2.2089610993862152e-01" purity="9.1190934181213379e-01" nType="-99"/>
          </Node>
          <Node pos="r" depth="2" NCoef="0" IVar="8" Cut="-6.1628258228302002e-01" cType="1" res="3.9046437450451776e-05" rms="1.2588940560817719e-01" purity="9.8072415590286255e-01" nType="0">
            <Node pos="l" depth="3" NCoef="0" IVar="-1" Cut="0.0000000000000000e+00" cType="1" res="2.2486295551061630e-02" rms="1.3542121648788452e-01" purity="9.7703331708908081e-01" nType="-99"/>
            <Node pos="r" depth="3" NCoef="0" IVar="-1" Cut="0.0000000000000000e+00" cType="1" res="-7.3118088766932487e-03" rms="1.2367955595254898e-01" purity="9.8153144121170044e-01" nType="-99"/>
          </Node>
        </Node>
      </Node>
    </BinaryTree>
    <BinaryTree type="DecisionTree" boostWeight="1.0000000000000000e+00" itree="253">
      <Node pos="s" depth="0" NCoef="0" IVar="10" Cut="1.3221716880798340e-01" cType="1" res="-2.2214688360691071e-03" rms="1.8081609904766083e-01" purity="4.8718678951263428e-01" nType="0">
        <Node pos="l" depth="1" NCoef="0" IVar="11" Cut="-1.4669634103775024e+00" cType="1" res="7.4594357283785939e-04" rms="1.8191324174404144e-01" purity="4.9339839816093445e-01" nType="0">
          <Node pos="l" depth="2" NCoef="0" IVar="5" Cut="1.3660914611816406e+02" cType="1" res="1.1098367162048817e-02" rms="2.0796315371990204e-01" purity="3.9116153120994568e-01" nType="0">
            <Node pos="l" depth="3" NCoef="0" IVar="-1" Cut="0.0000000000000000e+00" cType="1" res="-5.3544673137366772e-03" rms="1.6202393174171448e-01" purity="8.2095094025135040e-02" nType="-99"/>
            <Node pos="r" depth="3" NCoef="0" IVar="-1" Cut="0.0000000000000000e+00" cType="1" res="4.3611917644739151e-02" rms="2.3878824710845947e-01" purity="6.4594095945358276e-01" nType="-99"/>
          </Node>
          <Node pos="r" depth="2" NCoef="0" IVar="1" Cut="7.9771898686885834e-02" cType="1" res="-6.8287196336314082e-04" rms="1.7797151207923889e-01" purity="5.0750881433486938e-01" nType="0">
            <Node pos="l" depth="3" NCoef="0" IVar="-1" Cut="0.0000000000000000e+00" cType="1" res="4.8495060764253139e-03" rms="1.8657223880290985e-01" purity="3.1175521016120911e-01" nType="-99"/>
            <Node pos="r" depth="3" NCoef="0" IVar="-1" Cut="0.0000000000000000e+00" cType="1" res="-1.2988520786166191e-02" rms="1.6636876761913300e-01" purity="7.5591993331909180e-01" nType="-99"/>
          </Node>
        </Node>
        <Node pos="r" depth="1" NCoef="0" IVar="7" Cut="-8.1330198049545288e-01" cType="1" res="-5.8899782598018646e-03" rms="1.7938260734081268e-01" purity="4.7950768470764160e-01" nType="0">
          <Node pos="l" depth="2" NCoef="0" IVar="5" Cut="1.4552194213867188e+02" cType="1" res="-1.6019159927964211e-02" rms="1.8625885248184204e-01" purity="2.2495040297508240e-01" nType="0">
            <Node pos="l" depth="3" NCoef="0" IVar="-1" Cut="0.0000000000000000e+00" cType="1" res="-1.1180315166711807e-02" rms="1.2396256625652313e-01" purity="3.2549306750297546e-02" nType="-99"/>
            <Node pos="r" depth="3" NCoef="0" IVar="-1" Cut="0.0000000000000000e+00" cType="1" res="-5.9626955538988113e-02" rms="2.3782590031623840e-01" purity="4.4748923182487488e-01" nType="-99"/>
          </Node>
          <Node pos="r" depth="2" NCoef="0" IVar="8" Cut="-4.0252068638801575e-01" cType="1" res="-4.0476857684552670e-03" rms="1.7804148793220520e-01" purity="5.2580648660659790e-01" nType="0">
            <Node pos="l" depth="3" NCoef="0" IVar="-1" Cut="0.0000000000000000e+00" cType="1" res="3.6521467845886946e-03" rms="1.8692414462566376e-01" purity="4.7140717506408691e-01" nType="-99"/>
            <Node pos="r" depth="3" NCoef="0" IVar="-1" Cut="0.0000000000000000e+00" cType="1" res="-1.8895201385021210e-02" rms="1.7423187196254730e-01" purity="5.4804885387420654e-01" nType="-99"/>
          </Node>
        </Node>
      </Node>
    </BinaryTree>
    <BinaryTree type="DecisionTree" boostWeight="1.0000000000000000e+00" itree="254">
      <Node pos="s" depth="0" NCoef="0" IVar="7" Cut="-1.4041074514389038e+00" cType="1" res="5.2621663780882955e-04" rms="1.8254831433296204e-01" purity="4.9615108966827393e-01" nType="0">
        <Node pos="l" depth="1" NCoef="0" IVar="3" Cut="2.4794914245605469e+02" cType="1" res="-8.4688682109117508e-03" rms="1.2705026566982269e-01" purity="5.9697285294532776e-02" nType="0">
          <Node pos="l" depth="2" NCoef="0" IVar="-1" Cut="0.0000000000000000e+00" cType="1" res="1.3173199258744717e-02" rms="8.6053468286991119e-02" purity="1.0209962725639343e-02" nType="-99"/>
          <Node pos="r" depth="2" NCoef="0" IVar="-1" Cut="0.0000000000000000e+00" cType="1" res="-5.3776450455188751e-02" rms="1.5087783336639404e-01" purity="9.7918391227722168e-02" nType="-99"/>
        </Node>
        <Node pos="r" depth="1" NCoef="0" IVar="4" Cut="4.1449218750000000e+02" cType="1" res="1.1137853143736720e-03" rms="1.8558181822299957e-01" purity="5.2466076612472534e-01" nType="0">
          <Node pos="l" depth="2" NCoef="0" IVar="10" Cut="1.1998654603958130e+00" cType="1" res="2.2554160095751286e-03" rms="1.9770137965679169e-01" purity="4.2510411143302917e-01" nType="0">
            <Node pos="l" depth="3" NCoef="0" IVar="-1" Cut="0.0000000000000000e+00" cType="1" res="2.5257747620344162e-03" rms="1.9578024744987488e-01" purity="4.4327422976493835e-01" nType="-99"/>
            <Node pos="r" depth="3" NCoef="0" IVar="-1" Cut="0.0000000000000000e+00" cType="1" res="2.0491369068622589e-02" rms="2.0727609097957611e-01" purity="3.3060231804847717e-01" nType="-99"/>
          </Node>
          <Node pos="r" depth="2" NCoef="0" IVar="5" Cut="2.6634252929687500e+02" cType="1" res="-4.1257408447563648e-03" rms="1.1440219730138779e-01" purity="9.8157691955566406e-01" nType="0">
            <Node pos="l" depth="3" NCoef="0" IVar="-1" Cut="0.0000000000000000e+00" cType="1" res="-5.7940077036619186e-02" rms="1.8698439002037048e-01" purity="9.4894909858703613e-01" nType="-99"/>
            <Node pos="r" depth="3" NCoef="0" IVar="-1" Cut="0.0000000000000000e+00" cType="1" res="-1.7554666846990585e-03" rms="6.9380439817905426e-02" purity="9.9382948875427246e-01" nType="-99"/>
          </Node>
        </Node>
      </Node>
    </BinaryTree>
    <BinaryTree type="DecisionTree" boostWeight="1.0000000000000000e+00" itree="255">
      <Node pos="s" depth="0" NCoef="0" IVar="4" Cut="1.9899803161621094e+02" cType="1" res="3.1013006810098886e-03" rms="1.8304175138473511e-01" purity="5.0719767808914185e-01" nType="0">
        <Node pos="l" depth="1" NCoef="0" IVar="1" Cut="1.1059861630201340e-01" cType="1" res="-1.7843225505203009e-03" rms="1.5636190772056580e-01" purity="6.6562943160533905e-02" nType="0">
          <Node pos="l" depth="2" NCoef="0" IVar="6" Cut="1.1809017944335938e+02" cType="1" res="-1.7885373381432146e-04" rms="1.5075001120567322e-01" purity="5.7586923241615295e-02" nType="0">
            <Node pos="l" depth="3" NCoef="0" IVar="-1" Cut="0.0000000000000000e+00" cType="1" res="-1.1445254087448120e-02" rms="1.3013584911823273e-01" purity="3.6786146461963654e-02" nType="-99"/>
            <Node pos="r" depth="3" NCoef="0" IVar="-1" Cut="0.0000000000000000e+00" cType="1" res="2.5319436565041542e-02" rms="2.4942734837532043e-01" purity="2.0030634105205536e-01" nType="-99"/>
          </Node>
          <Node pos="r" depth="2" NCoef="0" IVar="-1" Cut="0.0000000000000000e+00" cType="1" res="-3.8204681128263474e-02" rms="2.0109845697879791e-01" purity="1.5116739273071289e-01" nType="-99"/>
        </Node>
        <Node pos="r" depth="1" NCoef="0" IVar="0" Cut="2.9977402343750000e+03" cType="1" res="5.8146174997091293e-03" rms="1.9624640047550201e-01" purity="7.5191193819046021e-01" nType="0">
          <Node pos="l" depth="2" NCoef="0" IVar="2" Cut="7.3276275634765625e+02" cType="1" res="1.1920930817723274e-02" rms="2.5859147310256958e-01" purity="5.2645128965377808e-01" nType="0">
            <Node pos="l" depth="3" NCoef="0" IVar="-1" Cut="0.0000000000000000e+00" cType="1" res="1.4367710798978806e-02" rms="2.5277683138847351e-01" purity="5.0362443923950195e-01" nType="-99"/>
            <Node pos="r" depth="3" NCoef="0" IVar="-1" Cut="0.0000000000000000e+00" cType="1" res="3.7673618644475937e-02" rms="3.0405774712562561e-01" purity="7.2694540023803711e-01" nType="-99"/>
          </Node>
          <Node pos="r" depth="2" NCoef="0" IVar="1" Cut="4.4415645301342010e-02" cType="1" res="-6.1829015612602234e-04" rms="9.2511780560016632e-02" purity="9.8943120241165161e-01" nType="0">
            <Node pos="l" depth="3" NCoef="0" IVar="-1" Cut="0.0000000000000000e+00" cType="1" res="-4.3887965381145477e-02" rms="1.8987911939620972e-01" purity="9.4942623376846313e-01" nType="-99"/>
            <Node pos="r" depth="3" NCoef="0" IVar="-1" Cut="0.0000000000000000e+00" cType="1" res="1.9231043756008148e-02" rms="6.8367511034011841e-02" purity="9.9504667520523071e-01" nType="-99"/>
          </Node>
        </Node>
      </Node>
    </BinaryTree>
    <BinaryTree type="DecisionTree" boostWeight="1.0000000000000000e+00" itree="256">
      <Node pos="s" depth="0" NCoef="0" IVar="6" Cut="1.0446188354492188e+02" cType="1" res="-1.3072611181996763e-04" rms="1.8621382117271423e-01" purity="4.9993288516998291e-01" nType="0">
        <Node pos="l" depth="1" NCoef="0" IVar="5" Cut="1.1911629486083984e+02" cType="1" res="3.6623936612159014e-03" rms="1.7966802418231964e-01" purity="1.3410551846027374e-01" nType="0">
          <Node pos="l" depth="2" NCoef="0" IVar="11" Cut="-1.4652935266494751e+00" cType="1" res="-7.0986500941216946e-04" rms="1.3880515098571777e-01" purity="4.5627225190401077e-02" nType="0">
            <Node pos="l" depth="3" NCoef="0" IVar="-1" Cut="0.0000000000000000e+00" cType="1" res="3.5686153918504715e-02" rms="1.6943059861660004e-01" purity="6.4864411950111389e-02" nType="-99"/>
            <Node pos="r" depth="3" NCoef="0" IVar="-1" Cut="0.0000000000000000e+00" cType="1" res="-1.1987322010099888e-02" rms="1.3241125643253326e-01" purity="4.2127169668674469e-02" nType="-99"/>
          </Node>
          <Node pos="r" depth="2" NCoef="0" IVar="11" Cut="1.3174216449260712e-01" cType="1" res="1.0474404320120811e-02" rms="2.2908492386341095e-01" purity="2.7195537090301514e-01" nType="0">
            <Node pos="l" depth="3" NCoef="0" IVar="-1" Cut="0.0000000000000000e+00" cType="1" res="4.4051799923181534e-03" rms="2.2424791753292084e-01" purity="2.5185307860374451e-01" nType="-99"/>
            <Node pos="r" depth="3" NCoef="0" IVar="-1" Cut="0.0000000000000000e+00" cType="1" res="4.0738176554441452e-02" rms="2.3415076732635498e-01" purity="2.9509821534156799e-01" nType="-99"/>
          </Node>
        </Node>
        <Node pos="r" depth="1" NCoef="0" IVar="8" Cut="9.3433433771133423e-01" cType="1" res="-2.6575035881251097e-03" rms="1.9040754437446594e-01" purity="7.4362784624099731e-01" nType="0">
          <Node pos="l" depth="2" NCoef="0" IVar="10" Cut="-1.4622224569320679e+00" cType="1" res="-1.1982365977019072e-03" rms="1.8572700023651123e-01" purity="7.6792782545089722e-01" nType="0">
            <Node pos="l" depth="3" NCoef="0" IVar="-1" Cut="0.0000000000000000e+00" cType="1" res="2.3619070649147034e-02" rms="2.2349372506141663e-01" purity="6.2687265872955322e-01" nType="-99"/>
            <Node pos="r" depth="3" NCoef="0" IVar="-1" Cut="0.0000000000000000e+00" cType="1" res="-6.7276572808623314e-03" rms="1.8252964317798615e-01" purity="7.7853244543075562e-01" nType="-99"/>
          </Node>
          <Node pos="r" depth="2" NCoef="0" IVar="9" Cut="-1.1164487153291702e-01" cType="1" res="-1.2931944802403450e-02" rms="2.2029514610767365e-01" purity="5.7253628969192505e-01" nType="0">
            <Node pos="l" depth="3" NCoef="0" IVar="-1" Cut="0.0000000000000000e+00" cType="1" res="-4.6583972871303558e-02" rms="2.4204088747501373e-01" purity="5.4329901933670044e-01" nType="-99"/>
            <Node pos="r" depth="3" NCoef="0" IVar="-1" Cut="0.0000000000000000e+00" cType="1" res="-7.0335357449948788e-03" rms="2.0189678668975830e-01" purity="5.9450316429138184e-01" nType="-99"/>
          </Node>
        </Node>
      </Node>
    </BinaryTree>
    <BinaryTree type="DecisionTree" boostWeight="1.0000000000000000e+00" itree="257">
      <Node pos="s" depth="0" NCoef="0" IVar="8" Cut="6.6647154092788696e-01" cType="1" res="5.1836750935763121e-04" rms="1.8200373649597168e-01" purity="5.0200414657592773e-01" nType="0">
        <Node pos="l" depth="1" NCoef="0" IVar="2" Cut="5.6537268066406250e+02" cType="1" res="-1.7326840898022056e-03" rms="1.8093401193618774e-01" purity="5.4633778333663940e-01" nType="0">
          <Node pos="l" depth="2" NCoef="0" IVar="10" Cut="-1.7261402606964111e+00" cType="1" res="5.1392789464443922e-04" rms="1.9472366571426392e-01" purity="2.8633010387420654e-01" nType="0">
            <Node pos="l" depth="3" NCoef="0" IVar="-1" Cut="0.0000000000000000e+00" cType="1" res="4.4667411595582962e-02" rms="2.1674007177352905e-01" purity="1.7621979117393494e-01" nType="-99"/>
            <Node pos="r" depth="3" NCoef="0" IVar="-1" Cut="0.0000000000000000e+00" cType="1" res="-1.8833610229194164e-03" rms="1.9290353357791901e-01" purity="2.9464617371559143e-01" nType="-99"/>
          </Node>
          <Node pos="r" depth="2" NCoef="0" IVar="0" Cut="2.3894997558593750e+03" cType="1" res="-3.7900682073086500e-03" rms="1.6728535294532776e-01" purity="7.8444552421569824e-01" nType="0">
            <Node pos="l" depth="3" NCoef="0" IVar="-1" Cut="0.0000000000000000e+00" cType="1" res="-3.2600402832031250e-02" rms="2.0917400717735291e-01" purity="8.7492883205413818e-02" nType="-99"/>
            <Node pos="r" depth="3" NCoef="0" IVar="-1" Cut="0.0000000000000000e+00" cType="1" res="-2.4254056625068188e-03" rms="1.5541134774684906e-01" purity="9.5147007703781128e-01" nType="-99"/>
          </Node>
        </Node>
        <Node pos="r" depth="1" NCoef="0" IVar="0" Cut="1.8686837158203125e+03" cType="1" res="7.5504570268094540e-03" rms="1.8512947857379913e-01" purity="3.6350974440574646e-01" nType="0">
          <Node pos="l" depth="2" NCoef="0" IVar="1" Cut="5.1245369017124176e-02" cType="1" res="8.4395852172747254e-04" rms="1.1564525961875916e-01" purity="1.4806459657847881e-02" nType="0">
            <Node pos="l" depth="3" NCoef="0" IVar="-1" Cut="0.0000000000000000e+00" cType="1" res="-4.4527534395456314e-02" rms="7.0849187672138214e-02" purity="5.2727982401847839e-03" nType="-99"/>
            <Node pos="r" depth="3" NCoef="0" IVar="-1" Cut="0.0000000000000000e+00" cType="1" res="5.5167187005281448e-02" rms="1.8716396391391754e-01" purity="3.9759457111358643e-02" nType="-99"/>
          </Node>
          <Node pos="r" depth="2" NCoef="0" IVar="0" Cut="2.7165886230468750e+03" cType="1" res="1.4934773556888103e-02" rms="2.3912385106086731e-01" purity="7.4745607376098633e-01" nType="0">
            <Node pos="l" depth="3" NCoef="0" IVar="-1" Cut="0.0000000000000000e+00" cType="1" res="2.7796342968940735e-02" rms="3.2492262125015259e-01" purity="4.7250241041183472e-01" nType="-99"/>
            <Node pos="r" depth="3" NCoef="0" IVar="-1" Cut="0.0000000000000000e+00" cType="1" res="1.3526293449103832e-02" rms="1.3306811451911926e-01" purity="9.6987313032150269e-01" nType="-99"/>
          </Node>
        </Node>
      </Node>
    </BinaryTree>
    <BinaryTree type="DecisionTree" boostWeight="1.0000000000000000e+00" itree="258">
      <Node pos="s" depth="0" NCoef="0" IVar="7" Cut="-3.5445883870124817e-01" cType="1" res="-3.2924144761636853e-05" rms="1.8461219966411591e-01" purity="4.9959495663642883e-01" nType="0">
        <Node pos="l" depth="1" NCoef="0" IVar="1" Cut="7.7095322310924530e-02" cType="1" res="-3.3430603798478842e-03" rms="1.8645714223384857e-01" purity="4.2542850971221924e-01" nType="0">
          <Node pos="l" depth="2" NCoef="0" IVar="1" Cut="5.8771006762981415e-02" cType="1" res="-6.6094193607568741e-03" rms="1.8453958630561829e-01" purity="2.4107666313648224e-01" nType="0">
            <Node pos="l" depth="3" NCoef="0" IVar="-1" Cut="0.0000000000000000e+00" cType="1" res="-9.7608910873532295e-03" rms="1.7600518465042114e-01" purity="1.9481807947158813e-01" nType="-99"/>
            <Node pos="r" depth="3" NCoef="0" IVar="-1" Cut="0.0000000000000000e+00" cType="1" res="-5.0386361777782440e-02" rms="2.2350730001926422e-01" purity="4.8607587814331055e-01" nType="-99"/>
          </Node>
          <Node pos="r" depth="2" NCoef="0" IVar="11" Cut="-3.9804282784461975e-01" cType="1" res="2.4321081582456827e-03" rms="1.8966254591941833e-01" purity="7.5137639045715332e-01" nType="0">
            <Node pos="l" depth="3" NCoef="0" IVar="-1" Cut="0.0000000000000000e+00" cType="1" res="-2.3727813735604286e-02" rms="1.9174759089946747e-01" purity="7.3496198654174805e-01" nType="-99"/>
            <Node pos="r" depth="3" NCoef="0" IVar="-1" Cut="0.0000000000000000e+00" cType="1" res="2.8105570003390312e-02" rms="1.8788741528987885e-01" purity="7.6251411437988281e-01" nType="-99"/>
          </Node>
        </Node>
        <Node pos="r" depth="1" NCoef="0" IVar="2" Cut="3.1393209838867188e+02" cType="1" res="1.5579509781673551e-03" rms="1.8369770050048828e-01" purity="5.3523987531661987e-01" nType="0">
          <Node pos="l" depth="2" NCoef="0" IVar="-1" Cut="0.0000000000000000e+00" cType="1" res="-4.6361137181520462e-02" rms="1.2994606792926788e-01" purity="3.0068643391132355e-02" nType="-99"/>
          <Node pos="r" depth="2" NCoef="0" IVar="0" Cut="2.6325827636718750e+03" cType="1" res="2.3696913849562407e-03" rms="1.8702472746372223e-01" purity="5.7248610258102417e-01" nType="0">
            <Node pos="l" depth="3" NCoef="0" IVar="-1" Cut="0.0000000000000000e+00" cType="1" res="1.0217450559139252e-02" rms="2.2867213189601898e-01" purity="1.9777759909629822e-01" nType="-99"/>
            <Node pos="r" depth="3" NCoef="0" IVar="-1" Cut="0.0000000000000000e+00" cType="1" res="-5.2808853797614574e-03" rms="1.2762166559696198e-01" purity="9.7659593820571899e-01" nType="-99"/>
          </Node>
        </Node>
      </Node>
    </BinaryTree>
    <BinaryTree type="DecisionTree" boostWeight="1.0000000000000000e+00" itree="259">
      <Node pos="s" depth="0" NCoef="0" IVar="10" Cut="-1.9988764524459839e+00" cType="1" res="-9.5992855494841933e-04" rms="1.7709709703922272e-01" purity="4.9864080548286438e-01" nType="0">
        <Node pos="l" depth="1" NCoef="0" IVar="-1" Cut="0.0000000000000000e+00" cType="1" res="-5.6852478533983231e-02" rms="2.0454758405685425e-01" purity="1.7439942061901093e-01" nType="-99"/>
        <Node pos="r" depth="1" NCoef="0" IVar="5" Cut="1.8048564147949219e+02" cType="1" res="-1.4033708430361003e-04" rms="1.7598278820514679e-01" purity="5.1021444797515869e-01" nType="0">
          <Node pos="l" depth="2" NCoef="0" IVar="5" Cut="1.6821197509765625e+02" cType="1" res="-2.9430000577121973e-03" rms="1.8331642448902130e-01" purity="1.5472017228603363e-01" nType="0">
            <Node pos="l" depth="3" NCoef="0" IVar="-1" Cut="0.0000000000000000e+00" cType="1" res="-4.6052592806518078e-03" rms="1.7820392549037933e-01" purity="1.3025490939617157e-01" nType="-99"/>
            <Node pos="r" depth="3" NCoef="0" IVar="-1" Cut="0.0000000000000000e+00" cType="1" res="-3.1473517417907715e-02" rms="2.3222972452640533e-01" purity="4.2726966738700867e-01" nType="-99"/>
          </Node>
          <Node pos="r" depth="2" NCoef="0" IVar="4" Cut="2.7087365722656250e+02" cType="1" res="2.8798922430723906e-03" rms="1.6766883432865143e-01" purity="8.9330524206161499e-01" nType="0">
            <Node pos="l" depth="3" NCoef="0" IVar="-1" Cut="0.0000000000000000e+00" cType="1" res="1.6752587631344795e-02" rms="2.5156861543655396e-01" purity="6.1148405075073242e-01" nType="-99"/>
            <Node pos="r" depth="3" NCoef="0" IVar="-1" Cut="0.0000000000000000e+00" cType="1" res="4.0009799413383007e-03" rms="1.4212006330490112e-01" purity="9.5654159784317017e-01" nType="-99"/>
          </Node>
        </Node>
      </Node>
    </BinaryTree>
    <BinaryTree type="DecisionTree" boostWeight="1.0000000000000000e+00" itree="260">
      <Node pos="s" depth="0" NCoef="0" IVar="8" Cut="-1.3165897130966187e-01" cType="1" res="3.0915418756194413e-04" rms="1.8352773785591125e-01" purity="4.9831172823905945e-01" nType="0">
        <Node pos="l" depth="1" NCoef="0" IVar="2" Cut="5.3163031005859375e+02" cType="1" res="3.9125639013946056e-03" rms="1.8410998582839966e-01" purity="4.8037463426589966e-01" nType="0">
          <Node pos="l" depth="2" NCoef="0" IVar="0" Cut="1.9377313232421875e+03" cType="1" res="8.1766964867711067e-03" rms="1.9455015659332275e-01" purity="2.1422275900840759e-01" nType="0">
            <Node pos="l" depth="3" NCoef="0" IVar="-1" Cut="0.0000000000000000e+00" cType="1" res="1.7316071316599846e-02" rms="1.5296101570129395e-01" purity="2.9224608093500137e-02" nType="-99"/>
            <Node pos="r" depth="3" NCoef="0" IVar="-1" Cut="0.0000000000000000e+00" cType="1" res="2.7816113084554672e-02" rms="2.8926768898963928e-01" purity="8.0433285236358643e-01" nType="-99"/>
          </Node>
          <Node pos="r" depth="2" NCoef="0" IVar="8" Cut="-1.1466772556304932e+00" cType="1" res="1.4860511873848736e-04" rms="1.7428913712501526e-01" purity="7.1530747413635254e-01" nType="0">
            <Node pos="l" depth="3" NCoef="0" IVar="-1" Cut="0.0000000000000000e+00" cType="1" res="-2.2143425419926643e-02" rms="1.9511842727661133e-01" purity="4.0823549032211304e-01" nType="-99"/>
            <Node pos="r" depth="3" NCoef="0" IVar="-1" Cut="0.0000000000000000e+00" cType="1" res="6.8136011250317097e-03" rms="1.6946287453174591e-01" purity="7.8060787916183472e-01" nType="-99"/>
          </Node>
        </Node>
        <Node pos="r" depth="1" NCoef="0" IVar="8" Cut="1.2639647722244263e+00" cType="1" res="-2.5756733957678080e-03" rms="1.8300911784172058e-01" purity="5.1267188787460327e-01" nType="0">
          <Node pos="l" depth="2" NCoef="0" IVar="7" Cut="-1.0212091207504272e+00" cType="1" res="-4.1183065623044968e-03" rms="1.8197132647037506e-01" purity="5.7877469062805176e-01" nType="0">
            <Node pos="l" depth="3" NCoef="0" IVar="-1" Cut="0.0000000000000000e+00" cType="1" res="1.9195219501852989e-02" rms="1.8008516728878021e-01" purity="2.3125866055488586e-01" nType="-99"/>
            <Node pos="r" depth="3" NCoef="0" IVar="-1" Cut="0.0000000000000000e+00" cType="1" res="-1.5788290649652481e-02" rms="1.8216852843761444e-01" purity="6.2282341718673706e-01" nType="-99"/>
          </Node>
          <Node pos="r" depth="2" NCoef="0" IVar="8" Cut="1.8488323688507080e+00" cType="1" res="5.2797743119299412e-03" rms="1.8800888955593109e-01" purity="1.7606075108051300e-01" nType="0">
            <Node pos="l" depth="3" NCoef="0" IVar="-1" Cut="0.0000000000000000e+00" cType="1" res="2.7710346505045891e-02" rms="2.0586131513118744e-01" purity="2.3669610917568207e-01" nType="-99"/>
            <Node pos="r" depth="3" NCoef="0" IVar="-1" Cut="0.0000000000000000e+00" cType="1" res="-2.4441044777631760e-02" rms="1.4293488860130310e-01" purity="4.8919849097728729e-02" nType="-99"/>
          </Node>
        </Node>
      </Node>
    </BinaryTree>
    <BinaryTree type="DecisionTree" boostWeight="1.0000000000000000e+00" itree="261">
      <Node pos="s" depth="0" NCoef="0" IVar="8" Cut="-9.2913311719894409e-01" cType="1" res="7.6546559284906834e-05" rms="1.8466293811798096e-01" purity="4.9358719587326050e-01" nType="0">
        <Node pos="l" depth="1" NCoef="0" IVar="0" Cut="2.5993549804687500e+03" cType="1" res="-1.0862900875508785e-02" rms="1.9148835539817810e-01" purity="2.7069032192230225e-01" nType="0">
          <Node pos="l" depth="2" NCoef="0" IVar="10" Cut="-9.3114250898361206e-01" cType="1" res="-4.1741193272173405e-03" rms="1.7609934508800507e-01" purity="8.8795088231563568e-02" nType="0">
            <Node pos="l" depth="3" NCoef="0" IVar="-1" Cut="0.0000000000000000e+00" cType="1" res="2.1165041252970695e-02" rms="1.9596585631370544e-01" purity="9.5801353454589844e-02" nType="-99"/>
            <Node pos="r" depth="3" NCoef="0" IVar="-1" Cut="0.0000000000000000e+00" cType="1" res="-2.6026800274848938e-02" rms="1.6702763736248016e-01" purity="8.5916914045810699e-02" nType="-99"/>
          </Node>
          <Node pos="r" depth="2" NCoef="0" IVar="-1" Cut="0.0000000000000000e+00" cType="1" res="-9.9961780011653900e-02" rms="2.3588731884956360e-01" purity="9.0323472023010254e-01" nType="-99"/>
        </Node>
        <Node pos="r" depth="1" NCoef="0" IVar="11" Cut="4.0120768547058105e-01" cType="1" res="2.3017404600977898e-03" rms="1.8316352367401123e-01" purity="5.3892672061920166e-01" nType="0">
          <Node pos="l" depth="2" NCoef="0" IVar="11" Cut="9.6596322953701019e-02" cType="1" res="-6.9067545700818300e-04" rms="1.7905969917774200e-01" purity="5.4899680614471436e-01" nType="0">
            <Node pos="l" depth="3" NCoef="0" IVar="-1" Cut="0.0000000000000000e+00" cType="1" res="1.9802888855338097e-03" rms="1.8107315897941589e-01" purity="5.4441505670547485e-01" nType="-99"/>
            <Node pos="r" depth="3" NCoef="0" IVar="-1" Cut="0.0000000000000000e+00" cType="1" res="-3.0119417235255241e-02" rms="1.6665209829807281e-01" purity="5.7564169168472290e-01" nType="-99"/>
          </Node>
          <Node pos="r" depth="2" NCoef="0" IVar="7" Cut="1.2428628206253052e+00" cType="1" res="7.2020455263555050e-03" rms="1.8959023058414459e-01" purity="5.2243620157241821e-01" nType="0">
            <Node pos="l" depth="3" NCoef="0" IVar="-1" Cut="0.0000000000000000e+00" cType="1" res="1.5109180472791195e-02" rms="1.9734708964824677e-01" purity="5.5680847167968750e-01" nType="-99"/>
            <Node pos="r" depth="3" NCoef="0" IVar="-1" Cut="0.0000000000000000e+00" cType="1" res="1.0973285883665085e-01" rms="3.9710275828838348e-02" purity="1.3386890292167664e-01" nType="-99"/>
          </Node>
        </Node>
      </Node>
    </BinaryTree>
    <BinaryTree type="DecisionTree" boostWeight="1.0000000000000000e+00" itree="262">
      <Node pos="s" depth="0" NCoef="0" IVar="8" Cut="6.6622978448867798e-01" cType="1" res="-1.9643926061689854e-03" rms="1.8127261102199554e-01" purity="4.9693503975868225e-01" nType="0">
        <Node pos="l" depth="1" NCoef="0" IVar="7" Cut="1.2682950496673584e+00" cType="1" res="-4.9411121290177107e-04" rms="1.7888957262039185e-01" purity="5.4365271329879761e-01" nType="0">
          <Node pos="l" depth="2" NCoef="0" IVar="11" Cut="1.9997268915176392e+00" cType="1" res="5.3744058823212981e-04" rms="1.8075934052467346e-01" purity="5.7604110240936279e-01" nType="0">
            <Node pos="l" depth="3" NCoef="0" IVar="-1" Cut="0.0000000000000000e+00" cType="1" res="3.4421887248754501e-03" rms="1.7930698394775391e-01" purity="5.8501952886581421e-01" nType="-99"/>
            <Node pos="r" depth="3" NCoef="0" IVar="-1" Cut="0.0000000000000000e+00" cType="1" res="-3.1376264989376068e-02" rms="2.1263544261455536e-01" purity="3.5664764046669006e-01" nType="-99"/>
          </Node>
          <Node pos="r" depth="2" NCoef="0" IVar="3" Cut="2.7416500854492188e+02" cType="1" res="-1.4223556965589523e-02" rms="1.5115793049335480e-01" purity="1.1257897317409515e-01" nType="0">
            <Node pos="l" depth="3" NCoef="0" IVar="-1" Cut="0.0000000000000000e+00" cType="1" res="2.4986831471323967e-02" rms="7.1208819746971130e-02" purity="1.0948825627565384e-02" nType="-99"/>
            <Node pos="r" depth="3" NCoef="0" IVar="-1" Cut="0.0000000000000000e+00" cType="1" res="-7.1652501821517944e-02" rms="1.9883215427398682e-01" purity="2.1069777011871338e-01" nType="-99"/>
          </Node>
        </Node>
        <Node pos="r" depth="1" NCoef="0" IVar="4" Cut="2.8296051025390625e+02" cType="1" res="-6.5017058514058590e-03" rms="1.8836444616317749e-01" purity="3.5276350378990173e-01" nType="0">
          <Node pos="l" depth="2" NCoef="0" IVar="9" Cut="-1.3389419019222260e-01" cType="1" res="-2.1235032472759485e-03" rms="1.8334311246871948e-01" purity="1.3855554163455963e-01" nType="0">
            <Node pos="l" depth="3" NCoef="0" IVar="-1" Cut="0.0000000000000000e+00" cType="1" res="2.1928479894995689e-02" rms="2.0081250369548798e-01" purity="1.6066093742847443e-01" nType="-99"/>
            <Node pos="r" depth="3" NCoef="0" IVar="-1" Cut="0.0000000000000000e+00" cType="1" res="-3.1039422377943993e-02" rms="1.6823408007621765e-01" purity="1.2151484191417694e-01" nType="-99"/>
          </Node>
          <Node pos="r" depth="2" NCoef="0" IVar="1" Cut="7.5612947344779968e-02" cType="1" res="-1.6912190243601799e-02" rms="1.9941234588623047e-01" purity="8.6210685968399048e-01" nType="0">
            <Node pos="l" depth="3" NCoef="0" IVar="-1" Cut="0.0000000000000000e+00" cType="1" res="-5.9009417891502380e-02" rms="2.5825268030166626e-01" purity="7.3237389326095581e-01" nType="-99"/>
            <Node pos="r" depth="3" NCoef="0" IVar="-1" Cut="0.0000000000000000e+00" cType="1" res="-2.6719907298684120e-02" rms="1.5295359492301941e-01" purity="9.3939411640167236e-01" nType="-99"/>
          </Node>
        </Node>
      </Node>
    </BinaryTree>
    <BinaryTree type="DecisionTree" boostWeight="1.0000000000000000e+00" itree="263">
      <Node pos="s" depth="0" NCoef="0" IVar="10" Cut="-1.1989319324493408e+00" cType="1" res="-1.3970840955153108e-03" rms="1.8317851424217224e-01" purity="4.9534147977828979e-01" nType="0">
        <Node pos="l" depth="1" NCoef="0" IVar="10" Cut="-1.3513348102569580e+00" cType="1" res="-8.5399411618709564e-03" rms="1.9439670443534851e-01" purity="3.5901021957397461e-01" nType="0">
          <Node pos="l" depth="2" NCoef="0" IVar="8" Cut="6.6509938240051270e-01" cType="1" res="-1.7963802674785256e-03" rms="2.0363140106201172e-01" purity="3.4565493464469910e-01" nType="0">
            <Node pos="l" depth="3" NCoef="0" IVar="-1" Cut="0.0000000000000000e+00" cType="1" res="1.0154702700674534e-02" rms="2.0885932445526123e-01" purity="3.8354906439781189e-01" nType="-99"/>
            <Node pos="r" depth="3" NCoef="0" IVar="-1" Cut="0.0000000000000000e+00" cType="1" res="-5.4310455918312073e-02" rms="1.8284443020820618e-01" purity="2.1514688432216644e-01" nType="-99"/>
          </Node>
          <Node pos="r" depth="2" NCoef="0" IVar="-1" Cut="0.0000000000000000e+00" cType="1" res="-6.6157512366771698e-02" rms="1.5998746454715729e-01" purity="4.0115019679069519e-01" nType="-99"/>
        </Node>
        <Node pos="r" depth="1" NCoef="0" IVar="4" Cut="2.6082638549804688e+02" cType="1" res="-1.2252248416189104e-04" rms="1.8107408285140991e-01" purity="5.1966828107833862e-01" nType="0">
          <Node pos="l" depth="2" NCoef="0" IVar="6" Cut="9.8393402099609375e+01" cType="1" res="3.0072599183768034e-03" rms="1.9149042665958405e-01" purity="1.6592326760292053e-01" nType="0">
            <Node pos="l" depth="3" NCoef="0" IVar="-1" Cut="0.0000000000000000e+00" cType="1" res="-9.6434056758880615e-03" rms="1.4381206035614014e-01" purity="4.3774515390396118e-02" nType="-99"/>
            <Node pos="r" depth="3" NCoef="0" IVar="-1" Cut="0.0000000000000000e+00" cType="1" res="1.7288483679294586e-02" rms="2.4068948626518250e-01" purity="3.2900500297546387e-01" nType="-99"/>
          </Node>
          <Node pos="r" depth="2" NCoef="0" IVar="6" Cut="1.1290534973144531e+02" cType="1" res="-3.4905553329735994e-03" rms="1.6908507049083710e-01" purity="9.0034168958663940e-01" nType="0">
            <Node pos="l" depth="3" NCoef="0" IVar="-1" Cut="0.0000000000000000e+00" cType="1" res="-2.3337883874773979e-02" rms="2.6805934309959412e-01" purity="6.0938906669616699e-01" nType="-99"/>
            <Node pos="r" depth="3" NCoef="0" IVar="-1" Cut="0.0000000000000000e+00" cType="1" res="-6.1019188724458218e-03" rms="1.4395840466022491e-01" purity="9.5303010940551758e-01" nType="-99"/>
          </Node>
        </Node>
      </Node>
    </BinaryTree>
    <BinaryTree type="DecisionTree" boostWeight="1.0000000000000000e+00" itree="264">
      <Node pos="s" depth="0" NCoef="0" IVar="10" Cut="1.7330137491226196e+00" cType="1" res="2.4330760061275214e-04" rms="1.8518091738224030e-01" purity="5.0001782178878784e-01" nType="0">
        <Node pos="l" depth="1" NCoef="0" IVar="10" Cut="4.3808066844940186e-01" cType="1" res="9.1150944354012609e-04" rms="1.8347568809986115e-01" purity="5.1930665969848633e-01" nType="0">
          <Node pos="l" depth="2" NCoef="0" IVar="10" Cut="-2.0281202793121338e+00" cType="1" res="-1.1480470420792699e-03" rms="1.8130496144294739e-01" purity="5.1781523227691650e-01" nType="0">
            <Node pos="l" depth="3" NCoef="0" IVar="-1" Cut="0.0000000000000000e+00" cType="1" res="3.1351558864116669e-02" rms="2.0684160292148590e-01" purity="2.0508520305156708e-01" nType="-99"/>
            <Node pos="r" depth="3" NCoef="0" IVar="-1" Cut="0.0000000000000000e+00" cType="1" res="-5.5990875698626041e-03" rms="1.7994996905326843e-01" purity="5.3290396928787231e-01" nType="-99"/>
          </Node>
          <Node pos="r" depth="2" NCoef="0" IVar="7" Cut="-7.6003575325012207e-01" cType="1" res="5.5859843268990517e-03" rms="1.8822604417800903e-01" purity="5.2269166707992554e-01" nType="0">
            <Node pos="l" depth="3" NCoef="0" IVar="-1" Cut="0.0000000000000000e+00" cType="1" res="5.0139430910348892e-02" rms="2.1506275236606598e-01" purity="2.9300168156623840e-01" nType="-99"/>
            <Node pos="r" depth="3" NCoef="0" IVar="-1" Cut="0.0000000000000000e+00" cType="1" res="8.8088968768715858e-03" rms="1.8231074512004852e-01" purity="5.6833714246749878e-01" nType="-99"/>
          </Node>
        </Node>
        <Node pos="r" depth="1" NCoef="0" IVar="6" Cut="9.8659645080566406e+01" cType="1" res="-9.6335746347904205e-03" rms="2.0851869881153107e-01" purity="2.1490405499935150e-01" nType="0">
          <Node pos="l" depth="2" NCoef="0" IVar="-1" Cut="0.0000000000000000e+00" cType="1" res="1.8589729443192482e-02" rms="1.9435647130012512e-01" purity="7.5928501784801483e-02" nType="-99"/>
          <Node pos="r" depth="2" NCoef="0" IVar="-1" Cut="0.0000000000000000e+00" cType="1" res="-4.4330440461635590e-02" rms="2.2094498574733734e-01" purity="3.5566341876983643e-01" nType="-99"/>
        </Node>
      </Node>
    </BinaryTree>
    <BinaryTree type="DecisionTree" boostWeight="1.0000000000000000e+00" itree="265">
      <Node pos="s" depth="0" NCoef="0" IVar="10" Cut="1.9998332262039185e+00" cType="1" res="-4.3781384010799229e-04" rms="1.8353542685508728e-01" purity="4.9768459796905518e-01" nType="0">
        <Node pos="l" depth="1" NCoef="0" IVar="10" Cut="1.0858551263809204e+00" cType="1" res="2.2679041649098508e-05" rms="1.8321631848812103e-01" purity="5.1196563243865967e-01" nType="0">
          <Node pos="l" depth="2" NCoef="0" IVar="9" Cut="1.7322655916213989e+00" cType="1" res="-9.4683148199692369e-04" rms="1.8170188367366791e-01" purity="5.2382504940032959e-01" nType="0">
            <Node pos="l" depth="3" NCoef="0" IVar="-1" Cut="0.0000000000000000e+00" cType="1" res="-1.2224408565089107e-03" rms="1.8127249181270599e-01" purity="5.4020047187805176e-01" nType="-99"/>
            <Node pos="r" depth="3" NCoef="0" IVar="-1" Cut="0.0000000000000000e+00" cType="1" res="-4.1085150092840195e-02" rms="1.9069766998291016e-01" purity="1.5581578016281128e-01" nType="-99"/>
          </Node>
          <Node pos="r" depth="2" NCoef="0" IVar="6" Cut="9.6586914062500000e+01" cType="1" res="5.7367044501006603e-03" rms="1.9179980456829071e-01" purity="4.4206991791725159e-01" nType="0">
            <Node pos="l" depth="3" NCoef="0" IVar="-1" Cut="0.0000000000000000e+00" cType="1" res="-2.1035978570580482e-03" rms="1.7013348639011383e-01" purity="1.0756137222051620e-01" nType="-99"/>
            <Node pos="r" depth="3" NCoef="0" IVar="-1" Cut="0.0000000000000000e+00" cType="1" res="2.2422809153795242e-02" rms="2.0459969341754913e-01" purity="6.6034919023513794e-01" nType="-99"/>
          </Node>
        </Node>
        <Node pos="r" depth="1" NCoef="0" IVar="-1" Cut="0.0000000000000000e+00" cType="1" res="-2.8536142781376839e-02" rms="1.9071456789970398e-01" purity="1.5423971414566040e-01" nType="-99"/>
      </Node>
    </BinaryTree>
    <BinaryTree type="DecisionTree" boostWeight="1.0000000000000000e+00" itree="266">
      <Node pos="s" depth="0" NCoef="0" IVar="9" Cut="-1.7326565980911255e+00" cType="1" res="1.3373561669141054e-03" rms="1.8359842896461487e-01" purity="4.9554345011711121e-01" nType="0">
        <Node pos="l" depth="1" NCoef="0" IVar="-1" Cut="0.0000000000000000e+00" cType="1" res="3.5477798432111740e-02" rms="1.9381214678287506e-01" purity="1.6311672329902649e-01" nType="-99"/>
        <Node pos="r" depth="1" NCoef="0" IVar="2" Cut="1.0523405761718750e+03" cType="1" res="7.9305464169010520e-04" rms="1.8304431438446045e-01" purity="5.1253807544708252e-01" nType="0">
          <Node pos="l" depth="2" NCoef="0" IVar="8" Cut="-9.3127006292343140e-01" cType="1" res="1.8157828890252858e-04" rms="1.8292501568794250e-01" purity="4.9049314856529236e-01" nType="0">
            <Node pos="l" depth="3" NCoef="0" IVar="-1" Cut="0.0000000000000000e+00" cType="1" res="-1.6134504228830338e-02" rms="1.8575888872146606e-01" purity="2.7030688524246216e-01" nType="-99"/>
            <Node pos="r" depth="3" NCoef="0" IVar="-1" Cut="0.0000000000000000e+00" cType="1" res="4.2725796811282635e-03" rms="1.8230554461479187e-01" purity="5.3624266386032104e-01" nType="-99"/>
          </Node>
          <Node pos="r" depth="2" NCoef="0" IVar="-1" Cut="0.0000000000000000e+00" cType="1" res="3.2262805849313736e-02" rms="1.8489551544189453e-01" purity="9.2654365301132202e-01" nType="-99"/>
        </Node>
      </Node>
    </BinaryTree>
    <BinaryTree type="DecisionTree" boostWeight="1.0000000000000000e+00" itree="267">
      <Node pos="s" depth="0" NCoef="0" IVar="7" Cut="-1.1420267820358276e+00" cType="1" res="2.7334124315530062e-03" rms="1.8572594225406647e-01" purity="4.9951452016830444e-01" nType="0">
        <Node pos="l" depth="1" NCoef="0" IVar="6" Cut="1.1256556701660156e+02" cType="1" res="-7.0105702616274357e-03" rms="1.6430240869522095e-01" purity="1.3245496153831482e-01" nType="0">
          <Node pos="l" depth="2" NCoef="0" IVar="7" Cut="-1.4420886039733887e+00" cType="1" res="-9.9377497099339962e-04" rms="1.1876103281974792e-01" purity="2.3952379822731018e-02" nType="0">
            <Node pos="l" depth="3" NCoef="0" IVar="-1" Cut="0.0000000000000000e+00" cType="1" res="-7.5449086725711823e-02" rms="6.9717608392238617e-02" purity="7.2612841613590717e-03" nType="-99"/>
            <Node pos="r" depth="3" NCoef="0" IVar="-1" Cut="0.0000000000000000e+00" cType="1" res="4.2088232934474945e-02" rms="1.7004637420177460e-01" purity="5.0990533083677292e-02" nType="-99"/>
          </Node>
          <Node pos="r" depth="2" NCoef="0" IVar="-1" Cut="0.0000000000000000e+00" cType="1" res="-3.5276424139738083e-02" rms="2.3878769576549530e-01" purity="3.8756603002548218e-01" nType="-99"/>
        </Node>
        <Node pos="r" depth="1" NCoef="0" IVar="1" Cut="6.4997516572475433e-02" cType="1" res="3.8010019343346357e-03" rms="1.8789407610893250e-01" purity="5.3973102569580078e-01" nType="0">
          <Node pos="l" depth="2" NCoef="0" IVar="0" Cut="1.6662799072265625e+03" cType="1" res="7.5727822259068489e-03" rms="1.9496308267116547e-01" purity="2.9254007339477539e-01" nType="0">
            <Node pos="l" depth="3" NCoef="0" IVar="-1" Cut="0.0000000000000000e+00" cType="1" res="-6.4190099947154522e-03" rms="6.7955814301967621e-02" purity="4.6527953818440437e-03" nType="-99"/>
            <Node pos="r" depth="3" NCoef="0" IVar="-1" Cut="0.0000000000000000e+00" cType="1" res="2.2057756781578064e-02" rms="2.4438504874706268e-01" purity="4.8031580448150635e-01" nType="-99"/>
          </Node>
          <Node pos="r" depth="2" NCoef="0" IVar="10" Cut="-1.4627079963684082e+00" cType="1" res="5.9931620489805937e-04" rms="1.8161638081073761e-01" purity="7.4955970048904419e-01" nType="0">
            <Node pos="l" depth="3" NCoef="0" IVar="-1" Cut="0.0000000000000000e+00" cType="1" res="-3.0362242832779884e-02" rms="2.2513644397258759e-01" purity="5.8754384517669678e-01" nType="-99"/>
            <Node pos="r" depth="3" NCoef="0" IVar="-1" Cut="0.0000000000000000e+00" cType="1" res="5.8916560374200344e-03" rms="1.7781054973602295e-01" purity="7.6187336444854736e-01" nType="-99"/>
          </Node>
        </Node>
      </Node>
    </BinaryTree>
    <BinaryTree type="DecisionTree" boostWeight="1.0000000000000000e+00" itree="268">
      <Node pos="s" depth="0" NCoef="0" IVar="9" Cut="-4.0027663111686707e-01" cType="1" res="4.5036940719000995e-04" rms="1.8577452003955841e-01" purity="5.0465297698974609e-01" nType="0">
        <Node pos="l" depth="1" NCoef="0" IVar="8" Cut="1.2018682956695557e+00" cType="1" res="-3.5215115640312433e-03" rms="1.8119297921657562e-01" purity="4.5431151986122131e-01" nType="0">
          <Node pos="l" depth="2" NCoef="0" IVar="2" Cut="4.9710571289062500e+02" cType="1" res="-1.4629049692302942e-03" rms="1.8242640793323517e-01" purity="4.8458680510520935e-01" nType="0">
            <Node pos="l" depth="3" NCoef="0" IVar="-1" Cut="0.0000000000000000e+00" cType="1" res="-1.9915441051125526e-02" rms="1.8046197295188904e-01" purity="1.7555370926856995e-01" nType="-99"/>
            <Node pos="r" depth="3" NCoef="0" IVar="-1" Cut="0.0000000000000000e+00" cType="1" res="5.9315077960491180e-03" rms="1.8364556133747101e-01" purity="6.9160598516464233e-01" nType="-99"/>
          </Node>
          <Node pos="r" depth="2" NCoef="0" IVar="-1" Cut="0.0000000000000000e+00" cType="1" res="-6.2706679105758667e-02" rms="1.6839750111103058e-01" purity="1.7867079377174377e-01" nType="-99"/>
        </Node>
        <Node pos="r" depth="1" NCoef="0" IVar="10" Cut="-1.4646655321121216e+00" cType="1" res="2.6373637374490499e-03" rms="1.8821381032466888e-01" purity="5.3237199783325195e-01" nType="0">
          <Node pos="l" depth="2" NCoef="0" IVar="7" Cut="-1.0601171106100082e-01" cType="1" res="-1.0181285440921783e-02" rms="2.2513206303119659e-01" purity="3.5216340422630310e-01" nType="0">
            <Node pos="l" depth="3" NCoef="0" IVar="-1" Cut="0.0000000000000000e+00" cType="1" res="7.6420940458774567e-03" rms="2.2768199443817139e-01" purity="3.9086741209030151e-01" nType="-99"/>
            <Node pos="r" depth="3" NCoef="0" IVar="-1" Cut="0.0000000000000000e+00" cType="1" res="-4.4895704835653305e-02" rms="2.2218565642833710e-01" purity="3.1833168864250183e-01" nType="-99"/>
          </Node>
          <Node pos="r" depth="2" NCoef="0" IVar="11" Cut="1.7308713197708130e+00" cType="1" res="3.8268193602561951e-03" rms="1.8436862528324127e-01" purity="5.4909372329711914e-01" nType="0">
            <Node pos="l" depth="3" NCoef="0" IVar="-1" Cut="0.0000000000000000e+00" cType="1" res="6.8830745294690132e-03" rms="1.8132977187633514e-01" purity="5.5915451049804688e-01" nType="-99"/>
            <Node pos="r" depth="3" NCoef="0" IVar="-1" Cut="0.0000000000000000e+00" cType="1" res="5.9010922908782959e-02" rms="2.1855057775974274e-01" purity="4.2036178708076477e-01" nType="-99"/>
          </Node>
        </Node>
      </Node>
    </BinaryTree>
    <BinaryTree type="DecisionTree" boostWeight="1.0000000000000000e+00" itree="269">
      <Node pos="s" depth="0" NCoef="0" IVar="11" Cut="1.4668498039245605e+00" cType="1" res="-1.2835065135732293e-03" rms="1.8166205286979675e-01" purity="4.9848434329032898e-01" nType="0">
        <Node pos="l" depth="1" NCoef="0" IVar="10" Cut="1.4671074151992798e+00" cType="1" res="-2.2487142996396869e-04" rms="1.8015126883983612e-01" purity="5.1033461093902588e-01" nType="0">
          <Node pos="l" depth="2" NCoef="0" IVar="8" Cut="6.6732788085937500e-01" cType="1" res="5.3302070591598749e-04" rms="1.7761391401290894e-01" purity="5.3061926364898682e-01" nType="0">
            <Node pos="l" depth="3" NCoef="0" IVar="-1" Cut="0.0000000000000000e+00" cType="1" res="6.2463781796395779e-03" rms="1.7685048282146454e-01" purity="5.6958627700805664e-01" nType="-99"/>
            <Node pos="r" depth="3" NCoef="0" IVar="-1" Cut="0.0000000000000000e+00" cType="1" res="-1.2491952627897263e-02" rms="1.8015150725841522e-01" purity="3.9522770047187805e-01" nType="-99"/>
          </Node>
          <Node pos="r" depth="2" NCoef="0" IVar="10" Cut="2.0382432937622070e+00" cType="1" res="-7.6671526767313480e-03" rms="2.0324259996414185e-01" purity="3.1114476919174194e-01" nType="0">
            <Node pos="l" depth="3" NCoef="0" IVar="-1" Cut="0.0000000000000000e+00" cType="1" res="-3.8210451602935791e-02" rms="2.0778073370456696e-01" purity="3.7769147753715515e-01" nType="-99"/>
            <Node pos="r" depth="3" NCoef="0" IVar="-1" Cut="0.0000000000000000e+00" cType="1" res="2.1576987579464912e-02" rms="1.9261139631271362e-01" purity="1.7345382273197174e-01" nType="-99"/>
          </Node>
        </Node>
        <Node pos="r" depth="1" NCoef="0" IVar="9" Cut="6.6810756921768188e-01" cType="1" res="-9.4162765890359879e-03" rms="1.9268031418323517e-01" purity="4.0744659304618835e-01" nType="0">
          <Node pos="l" depth="2" NCoef="0" IVar="11" Cut="1.8478715419769287e+00" cType="1" res="-2.0890901796519756e-03" rms="1.9330178201198578e-01" purity="4.5640590786933899e-01" nType="0">
            <Node pos="l" depth="3" NCoef="0" IVar="-1" Cut="0.0000000000000000e+00" cType="1" res="1.6474861651659012e-02" rms="1.8089981377124786e-01" purity="5.2738231420516968e-01" nType="-99"/>
            <Node pos="r" depth="3" NCoef="0" IVar="-1" Cut="0.0000000000000000e+00" cType="1" res="-2.3598823696374893e-02" rms="2.0462979376316071e-01" purity="3.8547000288963318e-01" nType="-99"/>
          </Node>
          <Node pos="r" depth="2" NCoef="0" IVar="-1" Cut="0.0000000000000000e+00" cType="1" res="-5.5839154869318008e-02" rms="1.9031085073947906e-01" purity="2.9957112669944763e-01" nType="-99"/>
        </Node>
      </Node>
    </BinaryTree>
    <BinaryTree type="DecisionTree" boostWeight="1.0000000000000000e+00" itree="270">
      <Node pos="s" depth="0" NCoef="0" IVar="10" Cut="-9.3274396657943726e-01" cType="1" res="2.4004427541512996e-04" rms="1.8383631110191345e-01" purity="4.9697530269622803e-01" nType="0">
        <Node pos="l" depth="1" NCoef="0" IVar="8" Cut="4.0279656648635864e-01" cType="1" res="4.9532991833984852e-03" rms="1.9283819198608398e-01" purity="4.1447451710700989e-01" nType="0">
          <Node pos="l" depth="2" NCoef="0" IVar="8" Cut="-6.6290611028671265e-01" cType="1" res="1.8966691568493843e-03" rms="1.9085915386676788e-01" purity="4.3980139493942261e-01" nType="0">
            <Node pos="l" depth="3" NCoef="0" IVar="-1" Cut="0.0000000000000000e+00" cType="1" res="2.5128241628408432e-02" rms="1.9456553459167480e-01" purity="2.8399223089218140e-01" nType="-99"/>
            <Node pos="r" depth="3" NCoef="0" IVar="-1" Cut="0.0000000000000000e+00" cType="1" res="-1.0255245491862297e-02" rms="1.8791380524635315e-01" purity="5.5308121442794800e-01" nType="-99"/>
          </Node>
          <Node pos="r" depth="2" NCoef="0" IVar="0" Cut="1.7772363281250000e+03" cType="1" res="1.1503983289003372e-02" rms="1.9685274362564087e-01" purity="3.6019635200500488e-01" nType="0">
            <Node pos="l" depth="3" NCoef="0" IVar="-1" Cut="0.0000000000000000e+00" cType="1" res="-3.3334217965602875e-02" rms="8.4476903080940247e-02" purity="7.6395543292164803e-03" nType="-99"/>
            <Node pos="r" depth="3" NCoef="0" IVar="-1" Cut="0.0000000000000000e+00" cType="1" res="3.9599023759365082e-02" rms="2.6560258865356445e-01" purity="7.1996110677719116e-01" nType="-99"/>
          </Node>
        </Node>
        <Node pos="r" depth="1" NCoef="0" IVar="7" Cut="-2.7680486440658569e-01" cType="1" res="-1.0572001338005066e-03" rms="1.8125875294208527e-01" purity="5.1968216896057129e-01" nType="0">
          <Node pos="l" depth="2" NCoef="0" IVar="9" Cut="1.3395437598228455e-01" cType="1" res="2.8912492562085390e-03" rms="1.8208408355712891e-01" purity="4.6880531311035156e-01" nType="0">
            <Node pos="l" depth="3" NCoef="0" IVar="-1" Cut="0.0000000000000000e+00" cType="1" res="-4.4181612320244312e-03" rms="1.7953026294708252e-01" purity="4.9348065257072449e-01" nType="-99"/>
            <Node pos="r" depth="3" NCoef="0" IVar="-1" Cut="0.0000000000000000e+00" cType="1" res="2.4277057498693466e-02" rms="1.8511563539505005e-01" purity="4.3758344650268555e-01" nType="-99"/>
          </Node>
          <Node pos="r" depth="2" NCoef="0" IVar="7" Cut="-1.3036273419857025e-01" cType="1" res="-3.1739145051687956e-03" rms="1.8077926337718964e-01" purity="5.4695671796798706e-01" nType="0">
            <Node pos="l" depth="3" NCoef="0" IVar="-1" Cut="0.0000000000000000e+00" cType="1" res="-5.5276099592447281e-02" rms="1.7818808555603027e-01" purity="6.3840192556381226e-01" nType="-99"/>
            <Node pos="r" depth="3" NCoef="0" IVar="-1" Cut="0.0000000000000000e+00" cType="1" res="-4.4415281154215336e-03" rms="1.8102863430976868e-01" purity="5.3541946411132812e-01" nType="-99"/>
          </Node>
        </Node>
      </Node>
    </BinaryTree>
    <BinaryTree type="DecisionTree" boostWeight="1.0000000000000000e+00" itree="271">
      <Node pos="s" depth="0" NCoef="0" IVar="9" Cut="-3.9921030402183533e-01" cType="1" res="-7.4594584293663502e-04" rms="1.8232603371143341e-01" purity="4.9827161431312561e-01" nType="0">
        <Node pos="l" depth="1" NCoef="0" IVar="10" Cut="1.3413773477077484e-01" cType="1" res="-4.1819042526185513e-03" rms="1.8458282947540283e-01" purity="4.5548662543296814e-01" nType="0">
          <Node pos="l" depth="2" NCoef="0" IVar="0" Cut="1.6342567138671875e+03" cType="1" res="-9.7019486129283905e-03" rms="1.7720973491668701e-01" purity="4.4383883476257324e-01" nType="0">
            <Node pos="l" depth="3" NCoef="0" IVar="-1" Cut="0.0000000000000000e+00" cType="1" res="1.0212882421910763e-02" rms="7.0305310189723969e-02" purity="5.0302208401262760e-03" nType="-99"/>
            <Node pos="r" depth="3" NCoef="0" IVar="-1" Cut="0.0000000000000000e+00" cType="1" res="-2.9494652524590492e-02" rms="2.0500835776329041e-01" purity="6.2101238965988159e-01" nType="-99"/>
          </Node>
          <Node pos="r" depth="2" NCoef="0" IVar="1" Cut="5.9460565447807312e-02" cType="1" res="3.2401671633124352e-03" rms="1.9380775094032288e-01" purity="4.7114792466163635e-01" nType="0">
            <Node pos="l" depth="3" NCoef="0" IVar="-1" Cut="0.0000000000000000e+00" cType="1" res="2.7528140693902969e-02" rms="1.9900265336036682e-01" purity="2.3578704893589020e-01" nType="-99"/>
            <Node pos="r" depth="3" NCoef="0" IVar="-1" Cut="0.0000000000000000e+00" cType="1" res="-9.9307326599955559e-03" rms="1.8866744637489319e-01" purity="6.8739145994186401e-01" nType="-99"/>
          </Node>
        </Node>
        <Node pos="r" depth="1" NCoef="0" IVar="2" Cut="8.7266387939453125e+02" cType="1" res="1.1612520320340991e-03" rms="1.8103305995464325e-01" purity="5.2202022075653076e-01" nType="0">
          <Node pos="l" depth="2" NCoef="0" IVar="11" Cut="-1.4644858837127686e+00" cType="1" res="2.4310150183737278e-03" rms="1.8297013640403748e-01" purity="4.6357870101928711e-01" nType="0">
            <Node pos="l" depth="3" NCoef="0" IVar="-1" Cut="0.0000000000000000e+00" cType="1" res="-1.9912166520953178e-02" rms="2.1026076376438141e-01" purity="3.7178790569305420e-01" nType="-99"/>
            <Node pos="r" depth="3" NCoef="0" IVar="-1" Cut="0.0000000000000000e+00" cType="1" res="1.1379884555935860e-02" rms="1.7957708239555359e-01" purity="4.7397357225418091e-01" nType="-99"/>
          </Node>
          <Node pos="r" depth="2" NCoef="0" IVar="0" Cut="3.5021103515625000e+03" cType="1" res="-7.2827558033168316e-03" rms="1.6733784973621368e-01" purity="9.1066032648086548e-01" nType="0">
            <Node pos="l" depth="3" NCoef="0" IVar="-1" Cut="0.0000000000000000e+00" cType="1" res="-3.9625916630029678e-02" rms="2.3562245070934296e-01" purity="7.8058481216430664e-01" nType="-99"/>
            <Node pos="r" depth="3" NCoef="0" IVar="-1" Cut="0.0000000000000000e+00" cType="1" res="5.8699762448668480e-03" rms="1.0947723686695099e-01" purity="9.8553192615509033e-01" nType="-99"/>
          </Node>
        </Node>
      </Node>
    </BinaryTree>
    <BinaryTree type="DecisionTree" boostWeight="1.0000000000000000e+00" itree="272">
      <Node pos="s" depth="0" NCoef="0" IVar="2" Cut="4.2920382690429688e+02" cType="1" res="1.7335588345304132e-03" rms="1.8294878304004669e-01" purity="5.0420522689819336e-01" nType="0">
        <Node pos="l" depth="1" NCoef="0" IVar="0" Cut="1.9202247314453125e+03" cType="1" res="-3.2625438179820776e-03" rms="1.7600943148136139e-01" purity="1.1770918965339661e-01" nType="0">
          <Node pos="l" depth="2" NCoef="0" IVar="2" Cut="3.4196783447265625e+02" cType="1" res="1.7857193597592413e-04" rms="1.3785830140113831e-01" purity="2.3450721055269241e-02" nType="0">
            <Node pos="l" depth="3" NCoef="0" IVar="-1" Cut="0.0000000000000000e+00" cType="1" res="3.5642039030790329e-02" rms="1.5487350523471832e-01" purity="3.0282529070973396e-02" nType="-99"/>
            <Node pos="r" depth="3" NCoef="0" IVar="-1" Cut="0.0000000000000000e+00" cType="1" res="-2.9738683253526688e-02" rms="1.2002573162317276e-01" purity="1.7244789749383926e-02" nType="-99"/>
          </Node>
          <Node pos="r" depth="2" NCoef="0" IVar="-1" Cut="0.0000000000000000e+00" cType="1" res="-2.4263447150588036e-02" rms="3.2688942551612854e-01" purity="7.1938276290893555e-01" nType="-99"/>
        </Node>
        <Node pos="r" depth="1" NCoef="0" IVar="10" Cut="9.3362253904342651e-01" cType="1" res="3.4539257176220417e-03" rms="1.8524697422981262e-01" purity="6.3729196786880493e-01" nType="0">
          <Node pos="l" depth="2" NCoef="0" IVar="0" Cut="2.7315612792968750e+03" cType="1" res="4.9186688847839832e-03" rms="1.8135310709476471e-01" purity="6.6013556718826294e-01" nType="0">
            <Node pos="l" depth="3" NCoef="0" IVar="-1" Cut="0.0000000000000000e+00" cType="1" res="1.4913951046764851e-02" rms="2.3953618109226227e-01" purity="2.7556198835372925e-01" nType="-99"/>
            <Node pos="r" depth="3" NCoef="0" IVar="-1" Cut="0.0000000000000000e+00" cType="1" res="1.3861693441867828e-02" rms="1.1126382648944855e-01" purity="9.8193603754043579e-01" nType="-99"/>
          </Node>
          <Node pos="r" depth="2" NCoef="0" IVar="2" Cut="5.8378210449218750e+02" cType="1" res="-2.5420198217034340e-03" rms="2.0028768479824066e-01" purity="5.4378128051757812e-01" nType="0">
            <Node pos="l" depth="3" NCoef="0" IVar="-1" Cut="0.0000000000000000e+00" cType="1" res="1.8213460221886635e-02" rms="2.1021819114685059e-01" purity="3.6752149462699890e-01" nType="-99"/>
            <Node pos="r" depth="3" NCoef="0" IVar="-1" Cut="0.0000000000000000e+00" cType="1" res="-2.4206262081861496e-02" rms="1.9266943633556366e-01" purity="6.6733825206756592e-01" nType="-99"/>
          </Node>
        </Node>
      </Node>
    </BinaryTree>
    <BinaryTree type="DecisionTree" boostWeight="1.0000000000000000e+00" itree="273">
      <Node pos="s" depth="0" NCoef="0" IVar="1" Cut="6.5069943666458130e-02" cType="1" res="-7.9766853014007211e-04" rms="1.8224653601646423e-01" purity="5.0086420774459839e-01" nType="0">
        <Node pos="l" depth="1" NCoef="0" IVar="1" Cut="4.6508464962244034e-02" cType="1" res="-3.5650001373142004e-03" rms="1.8439950048923492e-01" purity="2.5285300612449646e-01" nType="0">
          <Node pos="l" depth="2" NCoef="0" IVar="1" Cut="4.2086154222488403e-02" cType="1" res="-7.6356797944754362e-04" rms="1.7841413617134094e-01" purity="1.9347669184207916e-01" nType="0">
            <Node pos="l" depth="3" NCoef="0" IVar="-1" Cut="0.0000000000000000e+00" cType="1" res="-5.9760371223092079e-03" rms="1.7144748568534851e-01" purity="1.7594538629055023e-01" nType="-99"/>
            <Node pos="r" depth="3" NCoef="0" IVar="-1" Cut="0.0000000000000000e+00" cType="1" res="2.4302463978528976e-02" rms="2.4496933817863464e-01" purity="3.9740476012229919e-01" nType="-99"/>
          </Node>
          <Node pos="r" depth="2" NCoef="0" IVar="0" Cut="2.8837236328125000e+03" cType="1" res="-1.1955443769693375e-02" rms="2.0103044807910919e-01" purity="4.3068832159042358e-01" nType="0">
            <Node pos="l" depth="3" NCoef="0" IVar="-1" Cut="0.0000000000000000e+00" cType="1" res="-3.3090360462665558e-02" rms="2.2366665303707123e-01" purity="1.9997368752956390e-01" nType="-99"/>
            <Node pos="r" depth="3" NCoef="0" IVar="-1" Cut="0.0000000000000000e+00" cType="1" res="1.0214012116193771e-02" rms="1.3104352355003357e-01" purity="9.8198652267456055e-01" nType="-99"/>
          </Node>
        </Node>
        <Node pos="r" depth="1" NCoef="0" IVar="7" Cut="-7.0991289615631104e-01" cType="1" res="1.8963281763717532e-03" rms="1.8008506298065186e-01" purity="7.4230307340621948e-01" nType="0">
          <Node pos="l" depth="2" NCoef="0" IVar="-1" Cut="0.0000000000000000e+00" cType="1" res="3.4786637872457504e-02" rms="1.9791203737258911e-01" purity="6.4751487970352173e-01" nType="-99"/>
          <Node pos="r" depth="2" NCoef="0" IVar="8" Cut="3.0611196160316467e-01" cType="1" res="1.5773958875797689e-04" rms="1.7737376689910889e-01" purity="7.5559026002883911e-01" nType="0">
            <Node pos="l" depth="3" NCoef="0" IVar="-1" Cut="0.0000000000000000e+00" cType="1" res="-8.9673902839422226e-03" rms="1.7498515546321869e-01" purity="7.6474100351333618e-01" nType="-99"/>
            <Node pos="r" depth="3" NCoef="0" IVar="-1" Cut="0.0000000000000000e+00" cType="1" res="1.6006249934434891e-02" rms="1.8175943195819855e-01" purity="7.3795902729034424e-01" nType="-99"/>
          </Node>
        </Node>
      </Node>
    </BinaryTree>
    <BinaryTree type="DecisionTree" boostWeight="1.0000000000000000e+00" itree="274">
      <Node pos="s" depth="0" NCoef="0" IVar="8" Cut="1.2000687122344971e+00" cType="1" res="-1.8392128404229879e-03" rms="1.8240785598754883e-01" purity="4.9051842093467712e-01" nType="0">
        <Node pos="l" depth="1" NCoef="0" IVar="0" Cut="2.9976416015625000e+03" cType="1" res="-3.2093257177621126e-03" rms="1.8083381652832031e-01" purity="5.2410429716110229e-01" nType="0">
          <Node pos="l" depth="2" NCoef="0" IVar="1" Cut="5.9695545583963394e-02" cType="1" res="-5.7792449370026588e-03" rms="2.1270492672920227e-01" purity="2.8632560372352600e-01" nType="0">
            <Node pos="l" depth="3" NCoef="0" IVar="-1" Cut="0.0000000000000000e+00" cType="1" res="-4.1494696051813662e-04" rms="1.8642860651016235e-01" purity="1.1836841702461243e-01" nType="-99"/>
            <Node pos="r" depth="3" NCoef="0" IVar="-1" Cut="0.0000000000000000e+00" cType="1" res="-2.0427690818905830e-02" rms="2.3979453742504120e-01" purity="4.8393204808235168e-01" nType="-99"/>
          </Node>
          <Node pos="r" depth="2" NCoef="0" IVar="11" Cut="1.2014172077178955e+00" cType="1" res="1.8118553562089801e-03" rms="9.0315200388431549e-02" purity="9.8868316411972046e-01" nType="0">
            <Node pos="l" depth="3" NCoef="0" IVar="-1" Cut="0.0000000000000000e+00" cType="1" res="2.9322043992578983e-03" rms="9.7164966166019440e-02" purity="9.8735642433166504e-01" nType="-99"/>
            <Node pos="r" depth="3" NCoef="0" IVar="-1" Cut="0.0000000000000000e+00" cType="1" res="1.0236401110887527e-01" rms="-nan" purity="9.9805670976638794e-01" nType="-99"/>
          </Node>
        </Node>
        <Node pos="r" depth="1" NCoef="0" IVar="0" Cut="1.7706040039062500e+03" cType="1" res="9.8410695791244507e-03" rms="1.9492162764072418e-01" purity="2.0419685542583466e-01" nType="0">
          <Node pos="l" depth="2" NCoef="0" IVar="8" Cut="1.6573135852813721e+00" cType="1" res="2.6485850103199482e-03" rms="9.4825625419616699e-02" purity="9.5929605886340141e-03" nType="0">
            <Node pos="l" depth="3" NCoef="0" IVar="-1" Cut="0.0000000000000000e+00" cType="1" res="9.3395039439201355e-02" rms="1.2417129427194595e-01" purity="1.6671197488903999e-02" nType="-99"/>
            <Node pos="r" depth="3" NCoef="0" IVar="-1" Cut="0.0000000000000000e+00" cType="1" res="-4.7078680247068405e-02" rms="5.2410535514354706e-02" purity="2.7709330897778273e-03" nType="-99"/>
          </Node>
          <Node pos="r" depth="2" NCoef="0" IVar="-1" Cut="0.0000000000000000e+00" cType="1" res="2.8989465907216072e-02" rms="2.8595948219299316e-01" purity="4.9926942586898804e-01" nType="-99"/>
        </Node>
      </Node>
    </BinaryTree>
    <BinaryTree type="DecisionTree" boostWeight="1.0000000000000000e+00" itree="275">
      <Node pos="s" depth="0" NCoef="0" IVar="2" Cut="5.4383477783203125e+02" cType="1" res="3.1411058444064111e-05" rms="1.8100741505622864e-01" purity="4.9740907549858093e-01" nType="0">
        <Node pos="l" depth="1" NCoef="0" IVar="5" Cut="1.9832539367675781e+02" cType="1" res="2.2292574867606163e-03" rms="1.8797451257705688e-01" purity="2.2891756892204285e-01" nType="0">
          <Node pos="l" depth="2" NCoef="0" IVar="10" Cut="-9.3282699584960938e-01" cType="1" res="1.5011595678515732e-04" rms="1.7483039200305939e-01" purity="8.6554966866970062e-02" nType="0">
            <Node pos="l" depth="3" NCoef="0" IVar="-1" Cut="0.0000000000000000e+00" cType="1" res="2.7007600292563438e-02" rms="1.7844359576702118e-01" purity="8.6908608675003052e-02" nType="-99"/>
            <Node pos="r" depth="3" NCoef="0" IVar="-1" Cut="0.0000000000000000e+00" cType="1" res="-7.8739831224083900e-03" rms="1.7350324988365173e-01" purity="8.6434237658977509e-02" nType="-99"/>
          </Node>
          <Node pos="r" depth="2" NCoef="0" IVar="0" Cut="2.4129345703125000e+03" cType="1" res="1.0261540301144123e-02" rms="2.3168121278285980e-01" purity="7.7890253067016602e-01" nType="0">
            <Node pos="l" depth="3" NCoef="0" IVar="-1" Cut="0.0000000000000000e+00" cType="1" res="1.7421940341591835e-02" rms="3.3789142966270447e-01" purity="4.4935312867164612e-01" nType="-99"/>
            <Node pos="r" depth="3" NCoef="0" IVar="-1" Cut="0.0000000000000000e+00" cType="1" res="1.8502432852983475e-02" rms="1.2906767427921295e-01" purity="9.7993481159210205e-01" nType="-99"/>
          </Node>
        </Node>
        <Node pos="r" depth="1" NCoef="0" IVar="3" Cut="4.7078958129882812e+02" cType="1" res="-1.9026950467377901e-03" rms="1.7462371289730072e-01" purity="7.3368173837661743e-01" nType="0">
          <Node pos="l" depth="2" NCoef="0" IVar="10" Cut="9.3352127075195312e-01" cType="1" res="-5.5544986389577389e-03" rms="1.9747421145439148e-01" purity="5.1477354764938354e-01" nType="0">
            <Node pos="l" depth="3" NCoef="0" IVar="-1" Cut="0.0000000000000000e+00" cType="1" res="-6.3009634613990784e-03" rms="1.9297096133232117e-01" purity="5.2751940488815308e-01" nType="-99"/>
            <Node pos="r" depth="3" NCoef="0" IVar="-1" Cut="0.0000000000000000e+00" cType="1" res="-3.7135593593120575e-02" rms="2.1329893171787262e-01" purity="4.6644634008407593e-01" nType="-99"/>
          </Node>
          <Node pos="r" depth="2" NCoef="0" IVar="5" Cut="1.8063825988769531e+02" cType="1" res="1.3775115367025137e-03" rms="1.5110684931278229e-01" purity="9.3031448125839233e-01" nType="0">
            <Node pos="l" depth="3" NCoef="0" IVar="-1" Cut="0.0000000000000000e+00" cType="1" res="2.7409903705120087e-02" rms="2.6409560441970825e-01" purity="7.0154082775115967e-01" nType="-99"/>
            <Node pos="r" depth="3" NCoef="0" IVar="-1" Cut="0.0000000000000000e+00" cType="1" res="-2.0871961489319801e-02" rms="1.1217682063579559e-01" purity="9.7986656427383423e-01" nType="-99"/>
          </Node>
        </Node>
      </Node>
    </BinaryTree>
    <BinaryTree type="DecisionTree" boostWeight="1.0000000000000000e+00" itree="276">
      <Node pos="s" depth="0" NCoef="0" IVar="5" Cut="1.5630731201171875e+02" cType="1" res="1.7669841181486845e-03" rms="1.8286094069480896e-01" purity="5.0527250766754150e-01" nType="0">
        <Node pos="l" depth="1" NCoef="0" IVar="5" Cut="1.4629629516601562e+02" cType="1" res="-1.8748721340671182e-03" rms="1.7677462100982666e-01" purity="1.0682898759841919e-01" nType="0">
          <Node pos="l" depth="2" NCoef="0" IVar="5" Cut="1.3723489379882812e+02" cType="1" res="-5.9798598522320390e-04" rms="1.6872692108154297e-01" purity="9.2864610254764557e-02" nType="0">
            <Node pos="l" depth="3" NCoef="0" IVar="-1" Cut="0.0000000000000000e+00" cType="1" res="-6.8259686231613159e-03" rms="1.6003102064132690e-01" purity="7.6946467161178589e-02" nType="-99"/>
            <Node pos="r" depth="3" NCoef="0" IVar="-1" Cut="0.0000000000000000e+00" cType="1" res="2.0935399457812309e-02" rms="2.2617654502391815e-01" purity="2.1982584893703461e-01" nType="-99"/>
          </Node>
          <Node pos="r" depth="2" NCoef="0" IVar="-1" Cut="0.0000000000000000e+00" cType="1" res="-2.4859903380274773e-02" rms="2.3618116974830627e-01" purity="2.3075415194034576e-01" nType="-99"/>
        </Node>
        <Node pos="r" depth="1" NCoef="0" IVar="4" Cut="2.9674600219726562e+02" cType="1" res="4.5673856511712074e-03" rms="1.8735849857330322e-01" purity="8.1165528297424316e-01" nType="0">
          <Node pos="l" depth="2" NCoef="0" IVar="7" Cut="7.4663805961608887e-01" cType="1" res="1.2823361903429031e-02" rms="2.4826480448246002e-01" purity="5.4785549640655518e-01" nType="0">
            <Node pos="l" depth="3" NCoef="0" IVar="-1" Cut="0.0000000000000000e+00" cType="1" res="1.2440210208296776e-02" rms="2.5360900163650513e-01" purity="5.8952778577804565e-01" nType="-99"/>
            <Node pos="r" depth="3" NCoef="0" IVar="-1" Cut="0.0000000000000000e+00" cType="1" res="4.8081103712320328e-02" rms="2.2269099950790405e-01" purity="3.6844450235366821e-01" nType="-99"/>
          </Node>
          <Node pos="r" depth="2" NCoef="0" IVar="5" Cut="2.1641998291015625e+02" cType="1" res="-1.8244927923660725e-04" rms="1.4063037931919098e-01" purity="9.6342468261718750e-01" nType="0">
            <Node pos="l" depth="3" NCoef="0" IVar="-1" Cut="0.0000000000000000e+00" cType="1" res="1.2922576628625393e-02" rms="2.1449173986911774e-01" purity="8.9711314439773560e-01" nType="-99"/>
            <Node pos="r" depth="3" NCoef="0" IVar="-1" Cut="0.0000000000000000e+00" cType="1" res="-8.6784195154905319e-03" rms="1.2363816052675247e-01" purity="9.7475683689117432e-01" nType="-99"/>
          </Node>
        </Node>
      </Node>
    </BinaryTree>
    <BinaryTree type="DecisionTree" boostWeight="1.0000000000000000e+00" itree="277">
      <Node pos="s" depth="0" NCoef="0" IVar="8" Cut="1.3300172984600067e-01" cType="1" res="1.3612286420539021e-03" rms="1.8560841679573059e-01" purity="5.0029289722442627e-01" nType="0">
        <Node pos="l" depth="1" NCoef="0" IVar="0" Cut="2.6219665527343750e+03" cType="1" res="4.4856569729745388e-03" rms="1.8441717326641083e-01" purity="5.1735359430313110e-01" nType="0">
          <Node pos="l" depth="2" NCoef="0" IVar="0" Cut="1.7491158447265625e+03" cType="1" res="8.5778981447219849e-03" rms="2.1858257055282593e-01" purity="1.6920956969261169e-01" nType="0">
            <Node pos="l" depth="3" NCoef="0" IVar="-1" Cut="0.0000000000000000e+00" cType="1" res="-1.5389081090688705e-03" rms="9.9354624748229980e-02" purity="1.0324680246412754e-02" nType="-99"/>
            <Node pos="r" depth="3" NCoef="0" IVar="-1" Cut="0.0000000000000000e+00" cType="1" res="2.1645637229084969e-02" rms="3.2021176815032959e-01" purity="3.9985850453376770e-01" nType="-99"/>
          </Node>
          <Node pos="r" depth="2" NCoef="0" IVar="7" Cut="5.7509028911590576e-01" cType="1" res="-8.6744234431535006e-04" rms="1.2628631293773651e-01" purity="9.7276395559310913e-01" nType="0">
            <Node pos="l" depth="3" NCoef="0" IVar="-1" Cut="0.0000000000000000e+00" cType="1" res="8.6591420695185661e-03" rms="1.1776469647884369e-01" purity="9.7902858257293701e-01" nType="-99"/>
            <Node pos="r" depth="3" NCoef="0" IVar="-1" Cut="0.0000000000000000e+00" cType="1" res="-5.0165873020887375e-02" rms="1.6726335883140564e-01" purity="9.3593353033065796e-01" nType="-99"/>
          </Node>
        </Node>
        <Node pos="r" depth="1" NCoef="0" IVar="8" Cut="5.1390600204467773e-01" cType="1" res="-2.5939659681171179e-03" rms="1.8703068792819977e-01" purity="4.7869580984115601e-01" nType="0">
          <Node pos="l" depth="2" NCoef="0" IVar="10" Cut="-9.2712855339050293e-01" cType="1" res="-9.2848064377903938e-03" rms="1.8553657829761505e-01" purity="6.3060855865478516e-01" nType="0">
            <Node pos="l" depth="3" NCoef="0" IVar="-1" Cut="0.0000000000000000e+00" cType="1" res="-6.4763359725475311e-02" rms="2.1563959121704102e-01" purity="5.2585422992706299e-01" nType="-99"/>
            <Node pos="r" depth="3" NCoef="0" IVar="-1" Cut="0.0000000000000000e+00" cType="1" res="-1.6212012618780136e-02" rms="1.7686854302883148e-01" purity="6.5698581933975220e-01" nType="-99"/>
          </Node>
          <Node pos="r" depth="2" NCoef="0" IVar="3" Cut="4.1947897338867188e+02" cType="1" res="7.6110061490908265e-04" rms="1.8768563866615295e-01" purity="4.0252047777175903e-01" nType="0">
            <Node pos="l" depth="3" NCoef="0" IVar="-1" Cut="0.0000000000000000e+00" cType="1" res="1.1780248954892159e-02" rms="1.8757043778896332e-01" purity="2.1047440171241760e-01" nType="-99"/>
            <Node pos="r" depth="3" NCoef="0" IVar="-1" Cut="0.0000000000000000e+00" cType="1" res="-2.2155927494168282e-02" rms="1.8770070374011993e-01" purity="8.6628299951553345e-01" nType="-99"/>
          </Node>
        </Node>
      </Node>
    </BinaryTree>
    <BinaryTree type="DecisionTree" boostWeight="1.0000000000000000e+00" itree="278">
      <Node pos="s" depth="0" NCoef="0" IVar="10" Cut="-1.9991667270660400e+00" cType="1" res="-7.1137456689029932e-04" rms="1.7939017713069916e-01" purity="4.9972775578498840e-01" nType="0">
        <Node pos="l" depth="1" NCoef="0" IVar="-1" Cut="0.0000000000000000e+00" cType="1" res="-4.2677696794271469e-02" rms="1.9753791391849518e-01" purity="1.9731649756431580e-01" nType="-99"/>
        <Node pos="r" depth="1" NCoef="0" IVar="10" Cut="9.7142791748046875e-01" cType="1" res="-1.4849480066914111e-04" rms="1.7869807779788971e-01" purity="5.1026856899261475e-01" nType="0">
          <Node pos="l" depth="2" NCoef="0" IVar="10" Cut="-1.7159194946289062e+00" cType="1" res="1.0882564820349216e-03" rms="1.7358119785785675e-01" purity="5.3996366262435913e-01" nType="0">
            <Node pos="l" depth="3" NCoef="0" IVar="-1" Cut="0.0000000000000000e+00" cType="1" res="5.3847242146730423e-02" rms="2.4254931509494781e-01" purity="3.7504896521568298e-01" nType="-99"/>
            <Node pos="r" depth="3" NCoef="0" IVar="-1" Cut="0.0000000000000000e+00" cType="1" res="9.4770692521706223e-04" rms="1.7058995366096497e-01" purity="5.4577529430389404e-01" nType="-99"/>
          </Node>
          <Node pos="r" depth="2" NCoef="0" IVar="3" Cut="5.0386569213867188e+02" cType="1" res="-4.8993960954248905e-03" rms="1.9705083966255188e-01" purity="3.9619645476341248e-01" nType="0">
            <Node pos="l" depth="3" NCoef="0" IVar="-1" Cut="0.0000000000000000e+00" cType="1" res="-5.1325657404959202e-03" rms="1.9861176609992981e-01" purity="2.8935912251472473e-01" nType="-99"/>
            <Node pos="r" depth="3" NCoef="0" IVar="-1" Cut="0.0000000000000000e+00" cType="1" res="-5.4554205387830734e-02" rms="1.9007609784603119e-01" purity="8.3405488729476929e-01" nType="-99"/>
          </Node>
        </Node>
      </Node>
    </BinaryTree>
    <BinaryTree type="DecisionTree" boostWeight="1.0000000000000000e+00" itree="279">
      <Node pos="s" depth="0" NCoef="0" IVar="3" Cut="3.8537490844726562e+02" cType="1" res="-3.1930679688230157e-04" rms="1.8280981481075287e-01" purity="4.9871134757995605e-01" nType="0">
        <Node pos="l" depth="1" NCoef="0" IVar="4" Cut="2.4144486999511719e+02" cType="1" res="-2.0328587852418423e-03" rms="1.9103373587131500e-01" purity="1.9228954613208771e-01" nType="0">
          <Node pos="l" depth="2" NCoef="0" IVar="5" Cut="1.8592501831054688e+02" cType="1" res="-2.8277115779928863e-04" rms="1.6918182373046875e-01" purity="8.4550157189369202e-02" nType="0">
            <Node pos="l" depth="3" NCoef="0" IVar="-1" Cut="0.0000000000000000e+00" cType="1" res="3.0182693153619766e-03" rms="1.5880428254604340e-01" purity="6.1492010951042175e-02" nType="-99"/>
            <Node pos="r" depth="3" NCoef="0" IVar="-1" Cut="0.0000000000000000e+00" cType="1" res="-1.7316542565822601e-02" rms="2.6573923230171204e-01" purity="3.7031614780426025e-01" nType="-99"/>
          </Node>
          <Node pos="r" depth="2" NCoef="0" IVar="5" Cut="2.1837535095214844e+02" cType="1" res="-8.1260204315185547e-03" rms="2.5268834829330444e-01" purity="5.6739854812622070e-01" nType="0">
            <Node pos="l" depth="3" NCoef="0" IVar="-1" Cut="0.0000000000000000e+00" cType="1" res="-2.2792413830757141e-02" rms="2.6282715797424316e-01" purity="3.4612286090850830e-01" nType="-99"/>
            <Node pos="r" depth="3" NCoef="0" IVar="-1" Cut="0.0000000000000000e+00" cType="1" res="2.8638013172894716e-03" rms="2.3982398211956024e-01" purity="8.2808762788772583e-01" nType="-99"/>
          </Node>
        </Node>
        <Node pos="r" depth="1" NCoef="0" IVar="5" Cut="1.3953456115722656e+02" cType="1" res="1.7784157535061240e-03" rms="1.7218504846096039e-01" purity="8.7383157014846802e-01" nType="0">
          <Node pos="l" depth="2" NCoef="0" IVar="5" Cut="1.0688247680664062e+02" cType="1" res="1.5960540622472763e-02" rms="2.7810788154602051e-01" purity="3.3554819226264954e-01" nType="0">
            <Node pos="l" depth="3" NCoef="0" IVar="-1" Cut="0.0000000000000000e+00" cType="1" res="1.3974201865494251e-02" rms="2.4999551475048065e-01" purity="1.9166238605976105e-01" nType="-99"/>
            <Node pos="r" depth="3" NCoef="0" IVar="-1" Cut="0.0000000000000000e+00" cType="1" res="2.7843626216053963e-02" rms="3.0344149470329285e-01" purity="4.7954332828521729e-01" nType="-99"/>
          </Node>
          <Node pos="r" depth="2" NCoef="0" IVar="10" Cut="-1.3711328804492950e-01" cType="1" res="-1.1539107072167099e-04" rms="1.5247339010238647e-01" purity="9.4571107625961304e-01" nType="0">
            <Node pos="l" depth="3" NCoef="0" IVar="-1" Cut="0.0000000000000000e+00" cType="1" res="2.2712193429470062e-02" rms="1.4992518723011017e-01" purity="9.5520186424255371e-01" nType="-99"/>
            <Node pos="r" depth="3" NCoef="0" IVar="-1" Cut="0.0000000000000000e+00" cType="1" res="-1.8868651241064072e-02" rms="1.5433490276336670e-01" purity="9.3810772895812988e-01" nType="-99"/>
          </Node>
        </Node>
      </Node>
    </BinaryTree>
    <BinaryTree type="DecisionTree" boostWeight="1.0000000000000000e+00" itree="280">
      <Node pos="s" depth="0" NCoef="0" IVar="5" Cut="1.2120568847656250e+02" cType="1" res="-1.4512456255033612e-03" rms="1.8292777240276337e-01" purity="5.0209897756576538e-01" nType="0">
        <Node pos="l" depth="1" NCoef="0" IVar="1" Cut="5.2917283028364182e-02" cType="1" res="2.8800049331039190e-03" rms="1.5119287371635437e-01" purity="5.6153353303670883e-02" nType="0">
          <Node pos="l" depth="2" NCoef="0" IVar="11" Cut="-1.4644259214401245e+00" cType="1" res="-5.0299294525757432e-04" rms="1.1975525319576263e-01" purity="3.2503705471754074e-02" nType="0">
            <Node pos="l" depth="3" NCoef="0" IVar="-1" Cut="0.0000000000000000e+00" cType="1" res="5.0190985202789307e-02" rms="1.5136797726154327e-01" purity="4.3274499475955963e-02" nType="-99"/>
            <Node pos="r" depth="3" NCoef="0" IVar="-1" Cut="0.0000000000000000e+00" cType="1" res="-1.2708920054137707e-02" rms="1.1383380740880966e-01" purity="3.0785007402300835e-02" nType="-99"/>
          </Node>
          <Node pos="r" depth="2" NCoef="0" IVar="11" Cut="1.3533546030521393e-01" cType="1" res="1.1537740938365459e-02" rms="2.1107850968837738e-01" purity="1.1667731404304504e-01" nType="0">
            <Node pos="l" depth="3" NCoef="0" IVar="-1" Cut="0.0000000000000000e+00" cType="1" res="1.7989603802561760e-03" rms="1.9185800850391388e-01" purity="9.4941563904285431e-02" nType="-99"/>
            <Node pos="r" depth="3" NCoef="0" IVar="-1" Cut="0.0000000000000000e+00" cType="1" res="5.4933633655309677e-02" rms="2.2999371588230133e-01" purity="1.4088070392608643e-01" nType="-99"/>
          </Node>
        </Node>
        <Node pos="r" depth="1" NCoef="0" IVar="4" Cut="2.6657656860351562e+02" cType="1" res="-3.0381113756448030e-03" rms="1.9323034584522247e-01" purity="6.6548269987106323e-01" nType="0">
          <Node pos="l" depth="2" NCoef="0" IVar="9" Cut="-1.3366308808326721e-01" cType="1" res="-8.4202177822589874e-03" rms="2.2720101475715637e-01" purity="2.7852001786231995e-01" nType="0">
            <Node pos="l" depth="3" NCoef="0" IVar="-1" Cut="0.0000000000000000e+00" cType="1" res="1.7238487489521503e-03" rms="2.2613860666751862e-01" purity="2.7347251772880554e-01" nType="-99"/>
            <Node pos="r" depth="3" NCoef="0" IVar="-1" Cut="0.0000000000000000e+00" cType="1" res="-2.8543174266815186e-02" rms="2.2781723737716675e-01" purity="2.8299131989479065e-01" nType="-99"/>
          </Node>
          <Node pos="r" depth="2" NCoef="0" IVar="10" Cut="-1.1969349384307861e+00" cType="1" res="6.2885333318263292e-04" rms="1.6605383157730103e-01" purity="9.2913007736206055e-01" nType="0">
            <Node pos="l" depth="3" NCoef="0" IVar="-1" Cut="0.0000000000000000e+00" cType="1" res="2.8698340058326721e-02" rms="2.0247443020343781e-01" purity="8.9333599805831909e-01" nType="-99"/>
            <Node pos="r" depth="3" NCoef="0" IVar="-1" Cut="0.0000000000000000e+00" cType="1" res="-2.2080724593251944e-03" rms="1.6158734261989594e-01" purity="9.3299257755279541e-01" nType="-99"/>
          </Node>
        </Node>
      </Node>
    </BinaryTree>
    <BinaryTree type="DecisionTree" boostWeight="1.0000000000000000e+00" itree="281">
      <Node pos="s" depth="0" NCoef="0" IVar="0" Cut="1.8946121826171875e+03" cType="1" res="8.7404216174036264e-04" rms="1.7926792800426483e-01" purity="5.0188994407653809e-01" nType="0">
        <Node pos="l" depth="1" NCoef="0" IVar="1" Cut="6.9767713546752930e-02" cType="1" res="-2.1108598448336124e-03" rms="1.2031632661819458e-01" purity="1.6463240608572960e-02" nType="0">
          <Node pos="l" depth="2" NCoef="0" IVar="0" Cut="1.7532432861328125e+03" cType="1" res="3.2135337824001908e-04" rms="1.0241113603115082e-01" purity="1.1792183853685856e-02" nType="0">
            <Node pos="l" depth="3" NCoef="0" IVar="-1" Cut="0.0000000000000000e+00" cType="1" res="-2.4191360920667648e-02" rms="7.2261765599250793e-02" purity="5.3888577967882156e-03" nType="-99"/>
            <Node pos="r" depth="3" NCoef="0" IVar="-1" Cut="0.0000000000000000e+00" cType="1" res="3.4538425505161285e-02" rms="1.9157819449901581e-01" purity="4.3808843940496445e-02" nType="-99"/>
          </Node>
          <Node pos="r" depth="2" NCoef="0" IVar="0" Cut="1.6826811523437500e+03" cType="1" res="-9.4714062288403511e-03" rms="1.6270421445369720e-01" purity="3.0599141493439674e-02" nType="0">
            <Node pos="l" depth="3" NCoef="0" IVar="-1" Cut="0.0000000000000000e+00" cType="1" res="1.3922802172601223e-02" rms="1.1524584144353867e-01" purity="1.3901477679610252e-02" nType="-99"/>
            <Node pos="r" depth="3" NCoef="0" IVar="-1" Cut="0.0000000000000000e+00" cType="1" res="-4.2582280933856964e-02" rms="2.3979347944259644e-01" purity="7.1181446313858032e-02" nType="-99"/>
          </Node>
        </Node>
        <Node pos="r" depth="1" NCoef="0" IVar="4" Cut="1.9781573486328125e+02" cType="1" res="2.8781464789062738e-03" rms="2.0972555875778198e-01" purity="8.2781207561492920e-01" nType="0">
          <Node pos="l" depth="2" NCoef="0" IVar="9" Cut="-1.3459841907024384e-01" cType="1" res="1.6488917171955109e-02" rms="3.1008312106132507e-01" purity="3.2475632429122925e-01" nType="0">
            <Node pos="l" depth="3" NCoef="0" IVar="-1" Cut="0.0000000000000000e+00" cType="1" res="3.4311067312955856e-02" rms="3.2695868611335754e-01" purity="3.5389029979705811e-01" nType="-99"/>
            <Node pos="r" depth="3" NCoef="0" IVar="-1" Cut="0.0000000000000000e+00" cType="1" res="3.1398129649460316e-03" rms="2.9528513550758362e-01" purity="3.0161216855049133e-01" nType="-99"/>
          </Node>
          <Node pos="r" depth="2" NCoef="0" IVar="11" Cut="-1.4644858837127686e+00" cType="1" res="1.2941597960889339e-03" rms="1.9465279579162598e-01" purity="8.8635641336441040e-01" nType="0">
            <Node pos="l" depth="3" NCoef="0" IVar="-1" Cut="0.0000000000000000e+00" cType="1" res="-2.9448918998241425e-02" rms="2.3655213415622711e-01" purity="8.3197021484375000e-01" nType="-99"/>
            <Node pos="r" depth="3" NCoef="0" IVar="-1" Cut="0.0000000000000000e+00" cType="1" res="7.5774346478283405e-03" rms="1.9006839394569397e-01" purity="8.9156717061996460e-01" nType="-99"/>
          </Node>
        </Node>
      </Node>
    </BinaryTree>
    <BinaryTree type="DecisionTree" boostWeight="1.0000000000000000e+00" itree="282">
      <Node pos="s" depth="0" NCoef="0" IVar="10" Cut="-1.1992443799972534e+00" cType="1" res="-1.9663067068904638e-03" rms="1.8277774751186371e-01" purity="4.9344432353973389e-01" nType="0">
        <Node pos="l" depth="1" NCoef="0" IVar="0" Cut="2.5653510742187500e+03" cType="1" res="-1.0733806528151035e-02" rms="1.9211900234222412e-01" purity="3.6117678880691528e-01" nType="0">
          <Node pos="l" depth="2" NCoef="0" IVar="6" Cut="1.1557371520996094e+02" cType="1" res="-1.6278369352221489e-02" rms="2.0281240344047546e-01" purity="1.1567293107509613e-01" nType="0">
            <Node pos="l" depth="3" NCoef="0" IVar="-1" Cut="0.0000000000000000e+00" cType="1" res="-1.1207223869860172e-02" rms="1.6392521560192108e-01" purity="5.6125085800886154e-02" nType="-99"/>
            <Node pos="r" depth="3" NCoef="0" IVar="-1" Cut="0.0000000000000000e+00" cType="1" res="-4.9631401896476746e-02" rms="2.7747264504432678e-01" purity="2.7215179800987244e-01" nType="-99"/>
          </Node>
          <Node pos="r" depth="2" NCoef="0" IVar="-1" Cut="0.0000000000000000e+00" cType="1" res="9.7504053264856339e-03" rms="1.6227389872074127e-01" purity="9.6100562810897827e-01" nType="-99"/>
        </Node>
        <Node pos="r" depth="1" NCoef="0" IVar="2" Cut="5.4374713134765625e+02" cType="1" res="-4.7343425103463233e-04" rms="1.8109689652919769e-01" purity="5.1596599817276001e-01" nType="0">
          <Node pos="l" depth="2" NCoef="0" IVar="11" Cut="1.4670659303665161e+00" cType="1" res="3.3613981213420630e-03" rms="1.8883164227008820e-01" purity="2.3975318670272827e-01" nType="0">
            <Node pos="l" depth="3" NCoef="0" IVar="-1" Cut="0.0000000000000000e+00" cType="1" res="4.4334768317639828e-03" rms="1.8721878528594971e-01" purity="2.4779084324836731e-01" nType="-99"/>
            <Node pos="r" depth="3" NCoef="0" IVar="-1" Cut="0.0000000000000000e+00" cType="1" res="4.3749663978815079e-02" rms="1.9840793311595917e-01" purity="1.8848039209842682e-01" nType="-99"/>
          </Node>
          <Node pos="r" depth="2" NCoef="0" IVar="7" Cut="7.6598471403121948e-01" cType="1" res="-3.7191917654126883e-03" rms="1.7421633005142212e-01" purity="7.4974924325942993e-01" nType="0">
            <Node pos="l" depth="3" NCoef="0" IVar="-1" Cut="0.0000000000000000e+00" cType="1" res="-4.4548395089805126e-03" rms="1.7244990170001984e-01" purity="7.8535962104797363e-01" nType="-99"/>
            <Node pos="r" depth="3" NCoef="0" IVar="-1" Cut="0.0000000000000000e+00" cType="1" res="-5.2295543253421783e-02" rms="1.8502697348594666e-01" purity="5.0678861141204834e-01" nType="-99"/>
          </Node>
        </Node>
      </Node>
    </BinaryTree>
    <BinaryTree type="DecisionTree" boostWeight="1.0000000000000000e+00" itree="283">
      <Node pos="s" depth="0" NCoef="0" IVar="8" Cut="4.0121394395828247e-01" cType="1" res="3.8068919093348086e-04" rms="1.8010716140270233e-01" purity="4.9429091811180115e-01" nType="0">
        <Node pos="l" depth="1" NCoef="0" IVar="6" Cut="1.3163687133789062e+02" cType="1" res="3.4484262578189373e-03" rms="1.7781448364257812e-01" purity="5.2835130691528320e-01" nType="0">
          <Node pos="l" depth="2" NCoef="0" IVar="10" Cut="6.6527199745178223e-01" cType="1" res="1.9447979866527021e-04" rms="1.9389045238494873e-01" purity="2.1138389408588409e-01" nType="0">
            <Node pos="l" depth="3" NCoef="0" IVar="-1" Cut="0.0000000000000000e+00" cType="1" res="-8.6630173027515411e-03" rms="1.8878674507141113e-01" purity="2.0674912631511688e-01" nType="-99"/>
            <Node pos="r" depth="3" NCoef="0" IVar="-1" Cut="0.0000000000000000e+00" cType="1" res="1.9570151343941689e-02" rms="2.0562037825584412e-01" purity="2.2270631790161133e-01" nType="-99"/>
          </Node>
          <Node pos="r" depth="2" NCoef="0" IVar="0" Cut="2.3785917968750000e+03" cType="1" res="7.1253841742873192e-03" rms="1.5760764479637146e-01" purity="8.8652426004409790e-01" nType="0">
            <Node pos="l" depth="3" NCoef="0" IVar="-1" Cut="0.0000000000000000e+00" cType="1" res="2.6304762810468674e-02" rms="3.1831794977188110e-01" purity="3.5332283377647400e-01" nType="-99"/>
            <Node pos="r" depth="3" NCoef="0" IVar="-1" Cut="0.0000000000000000e+00" cType="1" res="2.2636706009507179e-02" rms="1.0236608982086182e-01" purity="9.8594272136688232e-01" nType="-99"/>
          </Node>
        </Node>
        <Node pos="r" depth="1" NCoef="0" IVar="7" Cut="-6.2056934833526611e-01" cType="1" res="-5.8146337978541851e-03" rms="1.8449503183364868e-01" purity="4.2550575733184814e-01" nType="0">
          <Node pos="l" depth="2" NCoef="0" IVar="0" Cut="1.8877227783203125e+03" cType="1" res="-1.6547426581382751e-02" rms="1.8731623888015747e-01" purity="2.3065245151519775e-01" nType="0">
            <Node pos="l" depth="3" NCoef="0" IVar="-1" Cut="0.0000000000000000e+00" cType="1" res="-1.8787097651511431e-03" rms="8.8917344808578491e-02" purity="8.7406905367970467e-03" nType="-99"/>
            <Node pos="r" depth="3" NCoef="0" IVar="-1" Cut="0.0000000000000000e+00" cType="1" res="-5.3315781056880951e-02" rms="2.7379244565963745e-01" purity="5.6446546316146851e-01" nType="-99"/>
          </Node>
          <Node pos="r" depth="2" NCoef="0" IVar="3" Cut="4.2044229125976562e+02" cType="1" res="-2.3955011274665594e-03" rms="1.8345534801483154e-01" purity="4.8757991194725037e-01" nType="0">
            <Node pos="l" depth="3" NCoef="0" IVar="-1" Cut="0.0000000000000000e+00" cType="1" res="-1.8944934010505676e-02" rms="1.9288627803325653e-01" purity="2.4325078725814819e-01" nType="-99"/>
            <Node pos="r" depth="3" NCoef="0" IVar="-1" Cut="0.0000000000000000e+00" cType="1" res="2.2434430196881294e-02" rms="1.6526608169078827e-01" purity="9.1622531414031982e-01" nType="-99"/>
          </Node>
        </Node>
      </Node>
    </BinaryTree>
    <BinaryTree type="DecisionTree" boostWeight="1.0000000000000000e+00" itree="284">
      <Node pos="s" depth="0" NCoef="0" IVar="3" Cut="3.3368139648437500e+02" cType="1" res="2.1742181852459908e-03" rms="1.8569235503673553e-01" purity="5.0008088350296021e-01" nType="0">
        <Node pos="l" depth="1" NCoef="0" IVar="6" Cut="9.9194633483886719e+01" cType="1" res="5.3850072436034679e-03" rms="1.8915052711963654e-01" purity="1.3102912902832031e-01" nType="0">
          <Node pos="l" depth="2" NCoef="0" IVar="2" Cut="6.4588916015625000e+02" cType="1" res="1.3754686806350946e-03" rms="1.3595215976238251e-01" purity="3.0296208336949348e-02" nType="0">
            <Node pos="l" depth="3" NCoef="0" IVar="-1" Cut="0.0000000000000000e+00" cType="1" res="2.2560575976967812e-02" rms="1.2439186125993729e-01" purity="2.3878155276179314e-02" nType="-99"/>
            <Node pos="r" depth="3" NCoef="0" IVar="-1" Cut="0.0000000000000000e+00" cType="1" res="-2.8400465846061707e-02" rms="2.0265227556228638e-01" purity="7.8855276107788086e-02" nType="-99"/>
          </Node>
          <Node pos="r" depth="2" NCoef="0" IVar="6" Cut="1.3885890197753906e+02" cType="1" res="1.1321710422635078e-02" rms="2.4764193594455719e-01" purity="2.8017878532409668e-01" nType="0">
            <Node pos="l" depth="3" NCoef="0" IVar="-1" Cut="0.0000000000000000e+00" cType="1" res="4.2383305728435516e-02" rms="2.2879955172538757e-01" purity="1.4739665389060974e-01" nType="-99"/>
            <Node pos="r" depth="3" NCoef="0" IVar="-1" Cut="0.0000000000000000e+00" cType="1" res="-3.7152178119868040e-03" rms="2.8037345409393311e-01" purity="5.4029965400695801e-01" nType="-99"/>
          </Node>
        </Node>
        <Node pos="r" depth="1" NCoef="0" IVar="3" Cut="4.1021856689453125e+02" cType="1" res="-4.3774722144007683e-04" rms="1.8278929591178894e-01" purity="8.0030310153961182e-01" nType="0">
          <Node pos="l" depth="2" NCoef="0" IVar="7" Cut="-3.0236420035362244e-01" cType="1" res="-6.4958613365888596e-03" rms="2.3473688960075378e-01" purity="5.4780483245849609e-01" nType="0">
            <Node pos="l" depth="3" NCoef="0" IVar="-1" Cut="0.0000000000000000e+00" cType="1" res="8.2316370680928230e-03" rms="2.3604975640773773e-01" purity="5.1617908477783203e-01" nType="-99"/>
            <Node pos="r" depth="3" NCoef="0" IVar="-1" Cut="0.0000000000000000e+00" cType="1" res="-2.1832557395100594e-02" rms="2.3378804326057434e-01" purity="5.6520354747772217e-01" nType="-99"/>
          </Node>
          <Node pos="r" depth="2" NCoef="0" IVar="10" Cut="-1.2000557184219360e+00" cType="1" res="1.8239183118566871e-03" rms="1.5904656052589417e-01" purity="8.9456784725189209e-01" nType="0">
            <Node pos="l" depth="3" NCoef="0" IVar="-1" Cut="0.0000000000000000e+00" cType="1" res="-3.4705996513366699e-02" rms="2.2623836994171143e-01" purity="8.0700230598449707e-01" nType="-99"/>
            <Node pos="r" depth="3" NCoef="0" IVar="-1" Cut="0.0000000000000000e+00" cType="1" res="1.4973916113376617e-02" rms="1.4888961613178253e-01" purity="9.0500652790069580e-01" nType="-99"/>
          </Node>
        </Node>
      </Node>
    </BinaryTree>
    <BinaryTree type="DecisionTree" boostWeight="1.0000000000000000e+00" itree="285">
      <Node pos="s" depth="0" NCoef="0" IVar="2" Cut="5.6537268066406250e+02" cType="1" res="-1.5388341853395104e-03" rms="1.8220244348049164e-01" purity="4.9551308155059814e-01" nType="0">
        <Node pos="l" depth="1" NCoef="0" IVar="6" Cut="1.8210418701171875e+02" cType="1" res="-4.8506171442568302e-03" rms="1.8807199597358704e-01" purity="2.4864642322063446e-01" nType="0">
          <Node pos="l" depth="2" NCoef="0" IVar="2" Cut="4.4365408325195312e+02" cType="1" res="-2.6145335286855698e-03" rms="1.8735647201538086e-01" purity="1.5344795584678650e-01" nType="0">
            <Node pos="l" depth="3" NCoef="0" IVar="-1" Cut="0.0000000000000000e+00" cType="1" res="2.5998747441917658e-03" rms="1.7661890387535095e-01" purity="8.3393350243568420e-02" nType="-99"/>
            <Node pos="r" depth="3" NCoef="0" IVar="-1" Cut="0.0000000000000000e+00" cType="1" res="-1.7040984705090523e-02" rms="2.0256434381008148e-01" purity="2.6054397225379944e-01" nType="-99"/>
          </Node>
          <Node pos="r" depth="2" NCoef="0" IVar="-1" Cut="0.0000000000000000e+00" cType="1" res="-5.6302219629287720e-02" rms="1.9215965270996094e-01" purity="8.9247834682464600e-01" nType="-99"/>
        </Node>
        <Node pos="r" depth="1" NCoef="0" IVar="8" Cut="-1.3283041119575500e-01" cType="1" res="1.9692506175488234e-03" rms="1.7570325732231140e-01" purity="7.5701242685317993e-01" nType="0">
          <Node pos="l" depth="2" NCoef="0" IVar="7" Cut="-4.5304638147354126e-01" cType="1" res="-3.0763100367039442e-03" rms="1.7682455480098724e-01" purity="7.3509365320205688e-01" nType="0">
            <Node pos="l" depth="3" NCoef="0" IVar="-1" Cut="0.0000000000000000e+00" cType="1" res="3.0903635546565056e-02" rms="1.8388915061950684e-01" purity="7.0308470726013184e-01" nType="-99"/>
            <Node pos="r" depth="3" NCoef="0" IVar="-1" Cut="0.0000000000000000e+00" cType="1" res="-2.2094862535595894e-02" rms="1.7427878081798553e-01" purity="7.4531280994415283e-01" nType="-99"/>
          </Node>
          <Node pos="r" depth="2" NCoef="0" IVar="6" Cut="7.7530204772949219e+01" cType="1" res="5.8666486293077469e-03" rms="1.7473249137401581e-01" purity="7.7394342422485352e-01" nType="0">
            <Node pos="l" depth="3" NCoef="0" IVar="-1" Cut="0.0000000000000000e+00" cType="1" res="5.6010391563177109e-02" rms="2.2015336155891418e-01" purity="2.1244658529758453e-01" nType="-99"/>
            <Node pos="r" depth="3" NCoef="0" IVar="-1" Cut="0.0000000000000000e+00" cType="1" res="1.1791169643402100e-02" rms="1.6731116175651550e-01" purity="8.5204559564590454e-01" nType="-99"/>
          </Node>
        </Node>
      </Node>
    </BinaryTree>
    <BinaryTree type="DecisionTree" boostWeight="1.0000000000000000e+00" itree="286">
      <Node pos="s" depth="0" NCoef="0" IVar="8" Cut="-1.3283041119575500e-01" cType="1" res="4.6454707626253366e-04" rms="1.8152962625026703e-01" purity="5.0152701139450073e-01" nType="0">
        <Node pos="l" depth="1" NCoef="0" IVar="0" Cut="2.6326152343750000e+03" cType="1" res="-3.0320794321596622e-03" rms="1.8087255954742432e-01" purity="4.8330238461494446e-01" nType="0">
          <Node pos="l" depth="2" NCoef="0" IVar="0" Cut="2.1042890625000000e+03" cType="1" res="-6.3143786974251270e-03" rms="2.0795115828514099e-01" purity="1.4917629957199097e-01" nType="0">
            <Node pos="l" depth="3" NCoef="0" IVar="-1" Cut="0.0000000000000000e+00" cType="1" res="-1.4140318380668759e-03" rms="1.6471561789512634e-01" purity="3.9432741701602936e-02" nType="-99"/>
            <Node pos="r" depth="3" NCoef="0" IVar="-1" Cut="0.0000000000000000e+00" cType="1" res="-2.6800053194165230e-02" rms="3.2874003052711487e-01" purity="5.9563028812408447e-01" nType="-99"/>
          </Node>
          <Node pos="r" depth="2" NCoef="0" IVar="3" Cut="6.2201544189453125e+02" cType="1" res="1.7798389308154583e-03" rms="1.3130304217338562e-01" purity="9.7313797473907471e-01" nType="0">
            <Node pos="l" depth="3" NCoef="0" IVar="-1" Cut="0.0000000000000000e+00" cType="1" res="2.0574692636728287e-02" rms="1.2618798017501831e-01" purity="9.7656571865081787e-01" nType="-99"/>
            <Node pos="r" depth="3" NCoef="0" IVar="-1" Cut="0.0000000000000000e+00" cType="1" res="-2.7052640914916992e-02" rms="1.4685037732124329e-01" purity="9.6171343326568604e-01" nType="-99"/>
          </Node>
        </Node>
        <Node pos="r" depth="1" NCoef="0" IVar="3" Cut="2.6011096191406250e+02" cType="1" res="3.2578133977949619e-03" rms="1.8200455605983734e-01" purity="5.1608562469482422e-01" nType="0">
          <Node pos="l" depth="2" NCoef="0" IVar="6" Cut="1.2242952728271484e+02" cType="1" res="-2.3039728403091431e-03" rms="1.4991225302219391e-01" purity="5.2055511623620987e-02" nType="0">
            <Node pos="l" depth="3" NCoef="0" IVar="-1" Cut="0.0000000000000000e+00" cType="1" res="8.5354270413517952e-03" rms="1.3202834129333496e-01" purity="2.7436168864369392e-02" nType="-99"/>
            <Node pos="r" depth="3" NCoef="0" IVar="-1" Cut="0.0000000000000000e+00" cType="1" res="-3.4992966800928116e-02" rms="2.1272611618041992e-01" purity="1.6500420868396759e-01" nType="-99"/>
          </Node>
          <Node pos="r" depth="2" NCoef="0" IVar="11" Cut="1.2009282112121582e+00" cType="1" res="5.2627404220402241e-03" rms="1.9222469627857208e-01" purity="6.8336039781570435e-01" nType="0">
            <Node pos="l" depth="3" NCoef="0" IVar="-1" Cut="0.0000000000000000e+00" cType="1" res="1.0053643956780434e-02" rms="1.8961024284362793e-01" purity="6.9009345769882202e-01" nType="-99"/>
            <Node pos="r" depth="3" NCoef="0" IVar="-1" Cut="0.0000000000000000e+00" cType="1" res="3.0293226242065430e-02" rms="2.0524853467941284e-01" purity="6.4788717031478882e-01" nType="-99"/>
          </Node>
        </Node>
      </Node>
    </BinaryTree>
    <BinaryTree type="DecisionTree" boostWeight="1.0000000000000000e+00" itree="287">
      <Node pos="s" depth="0" NCoef="0" IVar="7" Cut="4.3406167626380920e-01" cType="1" res="1.4083548740018159e-04" rms="1.8259130418300629e-01" purity="5.0589364767074585e-01" nType="0">
        <Node pos="l" depth="1" NCoef="0" IVar="7" Cut="-1.0665255784988403e+00" cType="1" res="2.1733914036303759e-03" rms="1.8686117231845856e-01" purity="5.6141215562820435e-01" nType="0">
          <Node pos="l" depth="2" NCoef="0" IVar="0" Cut="1.7447536621093750e+03" cType="1" res="-6.2339808791875839e-03" rms="1.5142329037189484e-01" purity="1.6546177864074707e-01" nType="0">
            <Node pos="l" depth="3" NCoef="0" IVar="-1" Cut="0.0000000000000000e+00" cType="1" res="-4.2353153228759766e-02" rms="5.8745156973600388e-02" purity="3.5165203735232353e-03" nType="-99"/>
            <Node pos="r" depth="3" NCoef="0" IVar="-1" Cut="0.0000000000000000e+00" cType="1" res="-1.9956286996603012e-02" rms="2.3085868358612061e-01" purity="4.1840374469757080e-01" nType="-99"/>
          </Node>
          <Node pos="r" depth="2" NCoef="0" IVar="11" Cut="-1.1989735364913940e+00" cType="1" res="3.7268870510160923e-03" rms="1.9265709817409515e-01" purity="6.3457494974136353e-01" nType="0">
            <Node pos="l" depth="3" NCoef="0" IVar="-1" Cut="0.0000000000000000e+00" cType="1" res="3.2630693167448044e-02" rms="2.2779941558837891e-01" purity="5.8223295211791992e-01" nType="-99"/>
            <Node pos="r" depth="3" NCoef="0" IVar="-1" Cut="0.0000000000000000e+00" cType="1" res="5.2478383295238018e-03" rms="1.8544329702854156e-01" purity="6.4414995908737183e-01" nType="-99"/>
          </Node>
        </Node>
        <Node pos="r" depth="1" NCoef="0" IVar="11" Cut="9.3068736791610718e-01" cType="1" res="-4.4258451089262962e-03" rms="1.7252577841281891e-01" purity="3.8115647435188293e-01" nType="0">
          <Node pos="l" depth="2" NCoef="0" IVar="10" Cut="6.6066855192184448e-01" cType="1" res="-1.1185836046934128e-03" rms="1.7150163650512695e-01" purity="4.0094786882400513e-01" nType="0">
            <Node pos="l" depth="3" NCoef="0" IVar="-1" Cut="0.0000000000000000e+00" cType="1" res="-1.5770312398672104e-02" rms="1.7009744048118591e-01" purity="4.1788384318351746e-01" nType="-99"/>
            <Node pos="r" depth="3" NCoef="0" IVar="-1" Cut="0.0000000000000000e+00" cType="1" res="2.1826285868883133e-02" rms="1.7420163750648499e-01" purity="3.6436215043067932e-01" nType="-99"/>
          </Node>
          <Node pos="r" depth="2" NCoef="0" IVar="0" Cut="1.8191790771484375e+03" cType="1" res="-1.3426760211586952e-02" rms="1.7496642470359802e-01" purity="3.2729300856590271e-01" nType="0">
            <Node pos="l" depth="3" NCoef="0" IVar="-1" Cut="0.0000000000000000e+00" cType="1" res="-2.9828436672687531e-02" rms="8.6649738252162933e-02" purity="8.2204015925526619e-03" nType="-99"/>
            <Node pos="r" depth="3" NCoef="0" IVar="-1" Cut="0.0000000000000000e+00" cType="1" res="-4.0395326912403107e-02" rms="2.3521953821182251e-01" purity="6.7184937000274658e-01" nType="-99"/>
          </Node>
        </Node>
      </Node>
    </BinaryTree>
    <BinaryTree type="DecisionTree" boostWeight="1.0000000000000000e+00" itree="288">
      <Node pos="s" depth="0" NCoef="0" IVar="10" Cut="-9.3298918008804321e-01" cType="1" res="-3.3812050241976976e-04" rms="1.8320430815219879e-01" purity="5.0321525335311890e-01" nType="0">
        <Node pos="l" depth="1" NCoef="0" IVar="7" Cut="4.8323461413383484e-01" cType="1" res="4.1500166989862919e-03" rms="1.9497857987880707e-01" purity="4.2319729924201965e-01" nType="0">
          <Node pos="l" depth="2" NCoef="0" IVar="5" Cut="1.2977597045898438e+02" cType="1" res="-2.2852567490190268e-03" rms="1.9251294434070587e-01" purity="4.6278968453407288e-01" nType="0">
            <Node pos="l" depth="3" NCoef="0" IVar="-1" Cut="0.0000000000000000e+00" cType="1" res="-4.2213536798954010e-02" rms="1.6589941084384918e-01" purity="8.0437585711479187e-02" nType="-99"/>
            <Node pos="r" depth="3" NCoef="0" IVar="-1" Cut="0.0000000000000000e+00" cType="1" res="8.8484985753893852e-03" rms="2.0474608242511749e-01" purity="6.6185551881790161e-01" nType="-99"/>
          </Node>
          <Node pos="r" depth="2" NCoef="0" IVar="11" Cut="-1.3405466079711914e-01" cType="1" res="2.1593309938907623e-02" rms="2.0047403872013092e-01" purity="3.1587904691696167e-01" nType="0">
            <Node pos="l" depth="3" NCoef="0" IVar="-1" Cut="0.0000000000000000e+00" cType="1" res="8.7521508336067200e-02" rms="2.1474914252758026e-01" purity="3.1266906857490540e-01" nType="-99"/>
            <Node pos="r" depth="3" NCoef="0" IVar="-1" Cut="0.0000000000000000e+00" cType="1" res="2.7891492471098900e-02" rms="1.8424776196479797e-01" purity="3.1912752985954285e-01" nType="-99"/>
          </Node>
        </Node>
        <Node pos="r" depth="1" NCoef="0" IVar="4" Cut="2.4341104125976562e+02" cType="1" res="-1.5274771722033620e-03" rms="1.7993628978729248e-01" purity="5.2442002296447754e-01" nType="0">
          <Node pos="l" depth="2" NCoef="0" IVar="1" Cut="1.4434832334518433e-01" cType="1" res="1.3582644751295447e-03" rms="1.8524985015392303e-01" purity="1.3283200562000275e-01" nType="0">
            <Node pos="l" depth="3" NCoef="0" IVar="-1" Cut="0.0000000000000000e+00" cType="1" res="-9.4323465600609779e-04" rms="1.7931205034255981e-01" purity="1.1123181134462357e-01" nType="-99"/>
            <Node pos="r" depth="3" NCoef="0" IVar="-1" Cut="0.0000000000000000e+00" cType="1" res="3.5187333822250366e-02" rms="2.4664632976055145e-01" purity="4.0202412009239197e-01" nType="-99"/>
          </Node>
          <Node pos="r" depth="2" NCoef="0" IVar="0" Cut="2.3868679199218750e+03" cType="1" res="-4.1085029952228069e-03" rms="1.7500691115856171e-01" purity="8.7465882301330566e-01" nType="0">
            <Node pos="l" depth="3" NCoef="0" IVar="-1" Cut="0.0000000000000000e+00" cType="1" res="-1.6279658302664757e-02" rms="3.1302478909492493e-01" purity="2.9796230792999268e-01" nType="-99"/>
            <Node pos="r" depth="3" NCoef="0" IVar="-1" Cut="0.0000000000000000e+00" cType="1" res="-9.5673836767673492e-03" rms="1.3914445042610168e-01" purity="9.7078508138656616e-01" nType="-99"/>
          </Node>
        </Node>
      </Node>
    </BinaryTree>
    <BinaryTree type="DecisionTree" boostWeight="1.0000000000000000e+00" itree="289">
      <Node pos="s" depth="0" NCoef="0" IVar="8" Cut="-9.3228006362915039e-01" cType="1" res="-7.2618691774550825e-05" rms="1.8176400661468506e-01" purity="5.0112652778625488e-01" nType="0">
        <Node pos="l" depth="1" NCoef="0" IVar="7" Cut="-2.6784753799438477e-01" cType="1" res="5.5127595551311970e-03" rms="1.9041559100151062e-01" purity="2.9599210619926453e-01" nType="0">
          <Node pos="l" depth="2" NCoef="0" IVar="10" Cut="-1.3565890491008759e-01" cType="1" res="-2.9348742682486773e-03" rms="1.8093405663967133e-01" purity="3.2036119699478149e-01" nType="0">
            <Node pos="l" depth="3" NCoef="0" IVar="-1" Cut="0.0000000000000000e+00" cType="1" res="-3.1542196869850159e-02" rms="1.8521946668624878e-01" purity="2.9271721839904785e-01" nType="-99"/>
            <Node pos="r" depth="3" NCoef="0" IVar="-1" Cut="0.0000000000000000e+00" cType="1" res="1.6779754310846329e-02" rms="1.7551723122596741e-01" purity="3.5146954655647278e-01" nType="-99"/>
          </Node>
          <Node pos="r" depth="2" NCoef="0" IVar="7" Cut="1.7021156847476959e-01" cType="1" res="1.0550736449658871e-02" rms="1.9567826390266418e-01" purity="2.8145897388458252e-01" nType="0">
            <Node pos="l" depth="3" NCoef="0" IVar="-1" Cut="0.0000000000000000e+00" cType="1" res="6.0932416468858719e-02" rms="2.2538211941719055e-01" purity="4.6333926916122437e-01" nType="-99"/>
            <Node pos="r" depth="3" NCoef="0" IVar="-1" Cut="0.0000000000000000e+00" cType="1" res="1.1665007099509239e-02" rms="1.8230600655078888e-01" purity="2.1024310588836670e-01" nType="-99"/>
          </Node>
        </Node>
        <Node pos="r" depth="1" NCoef="0" IVar="8" Cut="3.1137004494667053e-01" cType="1" res="-1.1547757312655449e-03" rms="1.8001966178417206e-01" purity="5.4087096452713013e-01" nType="0">
          <Node pos="l" depth="2" NCoef="0" IVar="7" Cut="-7.7082896232604980e-01" cType="1" res="-3.9511858485639095e-03" rms="1.7941795289516449e-01" purity="6.1318486928939819e-01" nType="0">
            <Node pos="l" depth="3" NCoef="0" IVar="-1" Cut="0.0000000000000000e+00" cType="1" res="-3.0174279585480690e-02" rms="1.8002229928970337e-01" purity="4.1136249899864197e-01" nType="-99"/>
            <Node pos="r" depth="3" NCoef="0" IVar="-1" Cut="0.0000000000000000e+00" cType="1" res="-8.1408210098743439e-03" rms="1.7927770316600800e-01" purity="6.4995670318603516e-01" nType="-99"/>
          </Node>
          <Node pos="r" depth="2" NCoef="0" IVar="11" Cut="1.4653192758560181e+00" cType="1" res="2.3815704043954611e-03" rms="1.8071576952934265e-01" purity="4.4942265748977661e-01" nType="0">
            <Node pos="l" depth="3" NCoef="0" IVar="-1" Cut="0.0000000000000000e+00" cType="1" res="1.2986776418983936e-02" rms="1.8169879913330078e-01" purity="4.7543784976005554e-01" nType="-99"/>
            <Node pos="r" depth="3" NCoef="0" IVar="-1" Cut="0.0000000000000000e+00" cType="1" res="-2.5857178494334221e-02" rms="1.7446334660053253e-01" purity="2.9856166243553162e-01" nType="-99"/>
          </Node>
        </Node>
      </Node>
    </BinaryTree>
    <BinaryTree type="DecisionTree" boostWeight="1.0000000000000000e+00" itree="290">
      <Node pos="s" depth="0" NCoef="0" IVar="1" Cut="8.6656264960765839e-02" cType="1" res="-2.0078909583389759e-03" rms="1.8017035722732544e-01" purity="5.0620889663696289e-01" nType="0">
        <Node pos="l" depth="1" NCoef="0" IVar="0" Cut="1.6458402099609375e+03" cType="1" res="-5.0596683286130428e-03" rms="1.8829542398452759e-01" purity="3.1612479686737061e-01" nType="0">
          <Node pos="l" depth="2" NCoef="0" IVar="8" Cut="-3.9985984563827515e-01" cType="1" res="8.9602416846901178e-04" rms="7.4554659426212311e-02" purity="5.6895897723734379e-03" nType="0">
            <Node pos="l" depth="3" NCoef="0" IVar="-1" Cut="0.0000000000000000e+00" cType="1" res="9.4883605837821960e-02" rms="9.9237643182277679e-02" purity="1.0139743797481060e-02" nType="-99"/>
            <Node pos="r" depth="3" NCoef="0" IVar="-1" Cut="0.0000000000000000e+00" cType="1" res="-3.1757153570652008e-02" rms="5.5313818156719208e-02" purity="3.1125678215175867e-03" nType="-99"/>
          </Node>
          <Node pos="r" depth="2" NCoef="0" IVar="1" Cut="3.7150330841541290e-02" cType="1" res="-8.4877442568540573e-03" rms="2.2941550612449646e-01" purity="4.9481025338172913e-01" nType="0">
            <Node pos="l" depth="3" NCoef="0" IVar="-1" Cut="0.0000000000000000e+00" cType="1" res="-4.1118427179753780e-03" rms="2.2332260012626648e-01" purity="2.9151704907417297e-01" nType="-99"/>
            <Node pos="r" depth="3" NCoef="0" IVar="-1" Cut="0.0000000000000000e+00" cType="1" res="-2.2591501474380493e-02" rms="2.3406192660331726e-01" purity="6.5779960155487061e-01" nType="-99"/>
          </Node>
        </Node>
        <Node pos="r" depth="1" NCoef="0" IVar="0" Cut="2.3650417480468750e+03" cType="1" res="2.7085379697382450e-03" rms="1.6672696173191071e-01" purity="7.9997807741165161e-01" nType="0">
          <Node pos="l" depth="2" NCoef="0" IVar="2" Cut="4.6751800537109375e+02" cType="1" res="9.0737147256731987e-03" rms="2.7503752708435059e-01" purity="2.4859976768493652e-01" nType="0">
            <Node pos="l" depth="3" NCoef="0" IVar="-1" Cut="0.0000000000000000e+00" cType="1" res="-1.2632793514057994e-03" rms="2.4228321015834808e-01" purity="1.8181832134723663e-01" nType="-99"/>
            <Node pos="r" depth="3" NCoef="0" IVar="-1" Cut="0.0000000000000000e+00" cType="1" res="2.8439933434128761e-02" rms="3.4174606204032898e-01" purity="4.1406369209289551e-01" nType="-99"/>
          </Node>
          <Node pos="r" depth="2" NCoef="0" IVar="10" Cut="-6.6183495521545410e-01" cType="1" res="5.6890718406066298e-04" rms="1.0814729332923889e-01" purity="9.8532193899154663e-01" nType="0">
            <Node pos="l" depth="3" NCoef="0" IVar="-1" Cut="0.0000000000000000e+00" cType="1" res="3.4435536712408066e-02" rms="1.0112041980028152e-01" purity="9.8315697908401489e-01" nType="-99"/>
            <Node pos="r" depth="3" NCoef="0" IVar="-1" Cut="0.0000000000000000e+00" cType="1" res="-7.8083737753331661e-03" rms="1.1041656881570816e-01" purity="9.8606437444686890e-01" nType="-99"/>
          </Node>
        </Node>
      </Node>
    </BinaryTree>
    <BinaryTree type="DecisionTree" boostWeight="1.0000000000000000e+00" itree="291">
      <Node pos="s" depth="0" NCoef="0" IVar="10" Cut="-1.7311486005783081e+00" cType="1" res="1.5052043600007892e-03" rms="1.8093942105770111e-01" purity="5.0292813777923584e-01" nType="0">
        <Node pos="l" depth="1" NCoef="0" IVar="0" Cut="1.8446770019531250e+03" cType="1" res="-1.2049159035086632e-02" rms="2.0735956728458405e-01" purity="2.3354153335094452e-01" nType="0">
          <Node pos="l" depth="2" NCoef="0" IVar="-1" Cut="0.0000000000000000e+00" cType="1" res="-1.9384650513529778e-02" rms="1.1122830957174301e-01" purity="1.3286259956657887e-02" nType="-99"/>
          <Node pos="r" depth="2" NCoef="0" IVar="-1" Cut="0.0000000000000000e+00" cType="1" res="-3.0591895803809166e-02" rms="2.8896528482437134e-01" purity="5.2670574188232422e-01" nType="-99"/>
        </Node>
        <Node pos="r" depth="1" NCoef="0" IVar="4" Cut="2.3086267089843750e+02" cType="1" res="2.4225211236625910e-03" rms="1.7897349596023560e-01" purity="5.2115941047668457e-01" nType="0">
          <Node pos="l" depth="2" NCoef="0" IVar="11" Cut="-9.3343633413314819e-01" cType="1" res="-6.5826560603454709e-04" rms="1.8016916513442993e-01" purity="1.1166460812091827e-01" nType="0">
            <Node pos="l" depth="3" NCoef="0" IVar="-1" Cut="0.0000000000000000e+00" cType="1" res="1.9886218011379242e-02" rms="1.8545162677764893e-01" purity="1.2656681239604950e-01" nType="-99"/>
            <Node pos="r" depth="3" NCoef="0" IVar="-1" Cut="0.0000000000000000e+00" cType="1" res="-9.2107765376567841e-03" rms="1.7845287919044495e-01" purity="1.0709005594253540e-01" nType="-99"/>
          </Node>
          <Node pos="r" depth="2" NCoef="0" IVar="2" Cut="4.5359854125976562e+02" cType="1" res="4.8862779513001442e-03" rms="1.7797313630580902e-01" purity="8.4863913059234619e-01" nType="0">
            <Node pos="l" depth="3" NCoef="0" IVar="-1" Cut="0.0000000000000000e+00" cType="1" res="2.0552361384034157e-02" rms="2.6094245910644531e-01" purity="4.3325543403625488e-01" nType="-99"/>
            <Node pos="r" depth="3" NCoef="0" IVar="-1" Cut="0.0000000000000000e+00" cType="1" res="1.1562181636691093e-02" rms="1.6102248430252075e-01" purity="9.1400456428527832e-01" nType="-99"/>
          </Node>
        </Node>
      </Node>
    </BinaryTree>
    <BinaryTree type="DecisionTree" boostWeight="1.0000000000000000e+00" itree="292">
      <Node pos="s" depth="0" NCoef="0" IVar="10" Cut="1.9996954202651978e+00" cType="1" res="4.4856875319965184e-04" rms="1.8349039554595947e-01" purity="4.9646189808845520e-01" nType="0">
        <Node pos="l" depth="1" NCoef="0" IVar="10" Cut="-1.4276690483093262e+00" cType="1" res="-1.3424579265119974e-05" rms="1.8252651393413544e-01" purity="5.0754165649414062e-01" nType="0">
          <Node pos="l" depth="2" NCoef="0" IVar="4" Cut="2.5108787536621094e+02" cType="1" res="6.1331577599048615e-03" rms="1.9214443862438202e-01" purity="3.2817876338958740e-01" nType="0">
            <Node pos="l" depth="3" NCoef="0" IVar="-1" Cut="0.0000000000000000e+00" cType="1" res="-3.2313605770468712e-03" rms="1.8153913319110870e-01" purity="1.0753493010997772e-01" nType="-99"/>
            <Node pos="r" depth="3" NCoef="0" IVar="-1" Cut="0.0000000000000000e+00" cType="1" res="4.2016509920358658e-02" rms="2.1243649721145630e-01" purity="8.0488801002502441e-01" nType="-99"/>
          </Node>
          <Node pos="r" depth="2" NCoef="0" IVar="11" Cut="1.9991441965103149e+00" cType="1" res="-7.3991215322166681e-04" rms="1.8134227395057678e-01" purity="5.2874118089675903e-01" nType="0">
            <Node pos="l" depth="3" NCoef="0" IVar="-1" Cut="0.0000000000000000e+00" cType="1" res="-3.8379968609660864e-03" rms="1.8000327050685883e-01" purity="5.3640043735504150e-01" nType="-99"/>
            <Node pos="r" depth="3" NCoef="0" IVar="-1" Cut="0.0000000000000000e+00" cType="1" res="2.8408125042915344e-02" rms="2.0862287282943726e-01" purity="3.5796368122100830e-01" nType="-99"/>
          </Node>
        </Node>
        <Node pos="r" depth="1" NCoef="0" IVar="-1" Cut="0.0000000000000000e+00" cType="1" res="3.0346911400556564e-02" rms="2.0803886651992798e-01" purity="1.8927094340324402e-01" nType="-99"/>
      </Node>
    </BinaryTree>
    <BinaryTree type="DecisionTree" boostWeight="1.0000000000000000e+00" itree="293">
      <Node pos="s" depth="0" NCoef="0" IVar="2" Cut="5.4369018554687500e+02" cType="1" res="2.9756600270047784e-04" rms="1.8437851965427399e-01" purity="5.0347799062728882e-01" nType="0">
        <Node pos="l" depth="1" NCoef="0" IVar="6" Cut="1.5905587768554688e+02" cType="1" res="3.5135548096150160e-03" rms="1.9158242642879486e-01" purity="2.4135017395019531e-01" nType="0">
          <Node pos="l" depth="2" NCoef="0" IVar="5" Cut="2.0685012817382812e+02" cType="1" res="-1.4579848539142404e-05" rms="1.8772587180137634e-01" purity="1.1457439512014389e-01" nType="0">
            <Node pos="l" depth="3" NCoef="0" IVar="-1" Cut="0.0000000000000000e+00" cType="1" res="-4.4820550829172134e-03" rms="1.7583958804607391e-01" purity="7.6416119933128357e-02" nType="-99"/>
            <Node pos="r" depth="3" NCoef="0" IVar="-1" Cut="0.0000000000000000e+00" cType="1" res="1.8978975713253021e-02" rms="3.0141606926918030e-01" purity="6.0835748910903931e-01" nType="-99"/>
          </Node>
          <Node pos="r" depth="2" NCoef="0" IVar="0" Cut="2.4139797363281250e+03" cType="1" res="2.0361630246043205e-02" rms="2.0819705724716187e-01" purity="8.4674900770187378e-01" nType="0">
            <Node pos="l" depth="3" NCoef="0" IVar="-1" Cut="0.0000000000000000e+00" cType="1" res="3.9525099098682404e-02" rms="3.3086037635803223e-01" purity="5.3996163606643677e-01" nType="-99"/>
            <Node pos="r" depth="3" NCoef="0" IVar="-1" Cut="0.0000000000000000e+00" cType="1" res="4.3210692703723907e-02" rms="1.1212763190269470e-01" purity="9.8712605237960815e-01" nType="-99"/>
          </Node>
        </Node>
        <Node pos="r" depth="1" NCoef="0" IVar="1" Cut="1.9368687644600868e-02" cType="1" res="-2.4810212198644876e-03" rms="1.7787286639213562e-01" purity="7.2995424270629883e-01" nType="0">
          <Node pos="l" depth="2" NCoef="0" IVar="6" Cut="9.0497741699218750e+01" cType="1" res="6.9124414585530758e-03" rms="1.8958136439323425e-01" purity="1.7611359059810638e-01" nType="0">
            <Node pos="l" depth="3" NCoef="0" IVar="-1" Cut="0.0000000000000000e+00" cType="1" res="-1.4072173275053501e-02" rms="1.4846365153789520e-01" purity="5.1686488091945648e-02" nType="-99"/>
            <Node pos="r" depth="3" NCoef="0" IVar="-1" Cut="0.0000000000000000e+00" cType="1" res="3.5742942243814468e-02" rms="2.4177452921867371e-01" purity="3.8168016076087952e-01" nType="-99"/>
          </Node>
          <Node pos="r" depth="2" NCoef="0" IVar="7" Cut="-6.7725652456283569e-01" cType="1" res="-4.0103672072291374e-03" rms="1.7584535479545593e-01" purity="8.2012486457824707e-01" nType="0">
            <Node pos="l" depth="3" NCoef="0" IVar="-1" Cut="0.0000000000000000e+00" cType="1" res="-3.9673697203397751e-02" rms="2.1790143847465515e-01" purity="7.0209628343582153e-01" nType="-99"/>
            <Node pos="r" depth="3" NCoef="0" IVar="-1" Cut="0.0000000000000000e+00" cType="1" res="-6.9473623298108578e-03" rms="1.6874998807907104e-01" purity="8.3733755350112915e-01" nType="-99"/>
          </Node>
        </Node>
      </Node>
    </BinaryTree>
    <BinaryTree type="DecisionTree" boostWeight="1.0000000000000000e+00" itree="294">
      <Node pos="s" depth="0" NCoef="0" IVar="9" Cut="1.1995261907577515e+00" cType="1" res="-1.2490261578932405e-03" rms="1.8249681591987610e-01" purity="4.9607121944427490e-01" nType="0">
        <Node pos="l" depth="1" NCoef="0" IVar="1" Cut="2.1668930351734161e-01" cType="1" res="-2.4281141813844442e-03" rms="1.7821420729160309e-01" purity="5.2000236511230469e-01" nType="0">
          <Node pos="l" depth="2" NCoef="0" IVar="10" Cut="1.4665089845657349e+00" cType="1" res="-3.2633910886943340e-03" rms="1.8078769743442535e-01" purity="4.8882651329040527e-01" nType="0">
            <Node pos="l" depth="3" NCoef="0" IVar="-1" Cut="0.0000000000000000e+00" cType="1" res="-1.2314038351178169e-02" rms="1.7715950310230255e-01" purity="5.0845009088516235e-01" nType="-99"/>
            <Node pos="r" depth="3" NCoef="0" IVar="-1" Cut="0.0000000000000000e+00" cType="1" res="1.2613761238753796e-02" rms="2.1165901422500610e-01" purity="3.0449083447456360e-01" nType="-99"/>
          </Node>
          <Node pos="r" depth="2" NCoef="0" IVar="-1" Cut="0.0000000000000000e+00" cType="1" res="4.4448118656873703e-02" rms="1.4210750162601471e-01" purity="9.0637284517288208e-01" nType="-99"/>
        </Node>
        <Node pos="r" depth="1" NCoef="0" IVar="0" Cut="1.8507038574218750e+03" cType="1" res="7.3879836127161980e-03" rms="2.1103580296039581e-01" purity="3.2077187299728394e-01" nType="0">
          <Node pos="l" depth="2" NCoef="0" IVar="4" Cut="1.6309498596191406e+02" cType="1" res="-2.1514294203370810e-03" rms="1.1093255132436752e-01" purity="1.2761301361024380e-02" nType="0">
            <Node pos="l" depth="3" NCoef="0" IVar="-1" Cut="0.0000000000000000e+00" cType="1" res="7.1441613137722015e-02" rms="1.1048918217420578e-01" purity="1.2235173955559731e-02" nType="-99"/>
            <Node pos="r" depth="3" NCoef="0" IVar="-1" Cut="0.0000000000000000e+00" cType="1" res="-4.6646032482385635e-02" rms="1.1092925816774368e-01" purity="1.3272930867969990e-02" nType="-99"/>
          </Node>
          <Node pos="r" depth="2" NCoef="0" IVar="0" Cut="2.6661826171875000e+03" cType="1" res="1.8845386803150177e-02" rms="2.8810724616050720e-01" purity="6.9071096181869507e-01" nType="0">
            <Node pos="l" depth="3" NCoef="0" IVar="-1" Cut="0.0000000000000000e+00" cType="1" res="3.7294507026672363e-02" rms="3.4979113936424255e-01" purity="4.4280564785003662e-01" nType="-99"/>
            <Node pos="r" depth="3" NCoef="0" IVar="-1" Cut="0.0000000000000000e+00" cType="1" res="-1.6485868021845818e-02" rms="2.0386929810047150e-01" purity="9.4448637962341309e-01" nType="-99"/>
          </Node>
        </Node>
      </Node>
    </BinaryTree>
    <BinaryTree type="DecisionTree" boostWeight="1.0000000000000000e+00" itree="295">
      <Node pos="s" depth="0" NCoef="0" IVar="9" Cut="-1.4656727313995361e+00" cType="1" res="-3.4177844645455480e-04" rms="1.7882283031940460e-01" purity="4.9730223417282104e-01" nType="0">
        <Node pos="l" depth="1" NCoef="0" IVar="1" Cut="4.9384441226720810e-02" cType="1" res="-9.4009945169091225e-03" rms="1.7920224368572235e-01" purity="2.0257954299449921e-01" nType="0">
          <Node pos="l" depth="2" NCoef="0" IVar="-1" Cut="0.0000000000000000e+00" cType="1" res="-4.0487586520612240e-03" rms="1.5351404249668121e-01" purity="9.4354242086410522e-02" nType="-99"/>
          <Node pos="r" depth="2" NCoef="0" IVar="-1" Cut="0.0000000000000000e+00" cType="1" res="-4.2989954352378845e-02" rms="2.1003809571266174e-01" purity="3.5760775208473206e-01" nType="-99"/>
        </Node>
        <Node pos="r" depth="1" NCoef="0" IVar="11" Cut="1.9999537467956543e+00" cType="1" res="4.5450945617631078e-04" rms="1.7876748740673065e-01" purity="5.2320784330368042e-01" nType="0">
          <Node pos="l" depth="2" NCoef="0" IVar="9" Cut="1.3776117563247681e+00" cType="1" res="-6.3658844737801701e-05" rms="1.7718747258186340e-01" purity="5.3076732158660889e-01" nType="0">
            <Node pos="l" depth="3" NCoef="0" IVar="-1" Cut="0.0000000000000000e+00" cType="1" res="2.5688246823847294e-03" rms="1.7488558590412140e-01" purity="5.6115633249282837e-01" nType="-99"/>
            <Node pos="r" depth="3" NCoef="0" IVar="-1" Cut="0.0000000000000000e+00" cType="1" res="-2.4022627621889114e-02" rms="1.9720476865768433e-01" purity="2.4680940806865692e-01" nType="-99"/>
          </Node>
          <Node pos="r" depth="2" NCoef="0" IVar="-1" Cut="0.0000000000000000e+00" cType="1" res="2.9780441895127296e-02" rms="2.1165256202220917e-01" purity="3.4862861037254333e-01" nType="-99"/>
        </Node>
      </Node>
    </BinaryTree>
    <BinaryTree type="DecisionTree" boostWeight="1.0000000000000000e+00" itree="296">
      <Node pos="s" depth="0" NCoef="0" IVar="7" Cut="-2.9920011758804321e-01" cType="1" res="1.2017380213364959e-03" rms="1.8207894265651703e-01" purity="5.0568556785583496e-01" nType="0">
        <Node pos="l" depth="1" NCoef="0" IVar="10" Cut="4.0420773625373840e-01" cType="1" res="-2.4884261656552553e-03" rms="1.8598775565624237e-01" purity="4.4595018029212952e-01" nType="0">
          <Node pos="l" depth="2" NCoef="0" IVar="9" Cut="-6.6552633047103882e-01" cType="1" res="7.8732834663242102e-04" rms="1.7578218877315521e-01" purity="4.6422770619392395e-01" nType="0">
            <Node pos="l" depth="3" NCoef="0" IVar="-1" Cut="0.0000000000000000e+00" cType="1" res="-2.2469762712717056e-02" rms="1.9335168600082397e-01" purity="3.9331546425819397e-01" nType="-99"/>
            <Node pos="r" depth="3" NCoef="0" IVar="-1" Cut="0.0000000000000000e+00" cType="1" res="1.4473677612841129e-02" rms="1.6800701618194580e-01" purity="4.9291136860847473e-01" nType="-99"/>
          </Node>
          <Node pos="r" depth="2" NCoef="0" IVar="0" Cut="1.6663333740234375e+03" cType="1" res="-8.5072480142116547e-03" rms="2.0327137410640717e-01" purity="4.1236743330955505e-01" nType="0">
            <Node pos="l" depth="3" NCoef="0" IVar="-1" Cut="0.0000000000000000e+00" cType="1" res="4.1472818702459335e-02" rms="9.8512992262840271e-02" purity="1.0298155248165131e-02" nType="-99"/>
            <Node pos="r" depth="3" NCoef="0" IVar="-1" Cut="0.0000000000000000e+00" cType="1" res="-2.6334661990404129e-02" rms="2.3601402342319489e-01" purity="5.9641170501708984e-01" nType="-99"/>
          </Node>
        </Node>
        <Node pos="r" depth="1" NCoef="0" IVar="11" Cut="1.4663697481155396e+00" cType="1" res="3.1545986421406269e-03" rms="1.7994540929794312e-01" purity="5.3729796409606934e-01" nType="0">
          <Node pos="l" depth="2" NCoef="0" IVar="11" Cut="6.5369415283203125e-01" cType="1" res="4.5932475477457047e-03" rms="1.7663738131523132e-01" purity="5.5476927757263184e-01" nType="0">
            <Node pos="l" depth="3" NCoef="0" IVar="-1" Cut="0.0000000000000000e+00" cType="1" res="8.4445942193269730e-03" rms="1.7662236094474792e-01" purity="5.5603939294815063e-01" nType="-99"/>
            <Node pos="r" depth="3" NCoef="0" IVar="-1" Cut="0.0000000000000000e+00" cType="1" res="3.1801786273717880e-02" rms="1.7654585838317871e-01" purity="5.5051887035369873e-01" nType="-99"/>
          </Node>
          <Node pos="r" depth="2" NCoef="0" IVar="0" Cut="2.0622412109375000e+03" cType="1" res="-6.4970967359840870e-03" rms="2.0046687126159668e-01" purity="4.2008489370346069e-01" nType="0">
            <Node pos="l" depth="3" NCoef="0" IVar="-1" Cut="0.0000000000000000e+00" cType="1" res="6.7216055467724800e-03" rms="1.7306227982044220e-01" purity="4.7842428088188171e-02" nType="-99"/>
            <Node pos="r" depth="3" NCoef="0" IVar="-1" Cut="0.0000000000000000e+00" cType="1" res="-2.9770180583000183e-02" rms="2.2547166049480438e-01" purity="8.1319248676300049e-01" nType="-99"/>
          </Node>
        </Node>
      </Node>
    </BinaryTree>
    <BinaryTree type="DecisionTree" boostWeight="1.0000000000000000e+00" itree="297">
      <Node pos="s" depth="0" NCoef="0" IVar="11" Cut="1.7336440086364746e+00" cType="1" res="8.0902851186692715e-04" rms="1.7974650859832764e-01" purity="4.9722069501876831e-01" nType="0">
        <Node pos="l" depth="1" NCoef="0" IVar="3" Cut="3.2821328735351562e+02" cType="1" res="1.6336430562660098e-03" rms="1.7835210263729095e-01" purity="5.1003003120422363e-01" nType="0">
          <Node pos="l" depth="2" NCoef="0" IVar="3" Cut="2.9112130737304688e+02" cType="1" res="-1.5321215614676476e-03" rms="1.7392966151237488e-01" purity="1.1564812809228897e-01" nType="0">
            <Node pos="l" depth="3" NCoef="0" IVar="-1" Cut="0.0000000000000000e+00" cType="1" res="4.9157342873513699e-03" rms="1.5920016169548035e-01" purity="7.6237753033638000e-02" nType="-99"/>
            <Node pos="r" depth="3" NCoef="0" IVar="-1" Cut="0.0000000000000000e+00" cType="1" res="-2.3831050843000412e-02" rms="2.2169597446918488e-01" purity="2.6863539218902588e-01" nType="-99"/>
          </Node>
          <Node pos="r" depth="2" NCoef="0" IVar="0" Cut="2.6069604492187500e+03" cType="1" res="3.9543490856885910e-03" rms="1.8149052560329437e-01" purity="7.9913699626922607e-01" nType="0">
            <Node pos="l" depth="3" NCoef="0" IVar="-1" Cut="0.0000000000000000e+00" cType="1" res="1.3339458033442497e-02" rms="2.8081640601158142e-01" purity="3.4207525849342346e-01" nType="-99"/>
            <Node pos="r" depth="3" NCoef="0" IVar="-1" Cut="0.0000000000000000e+00" cType="1" res="7.8802444040775299e-03" rms="1.2289295345544815e-01" purity="9.7643041610717773e-01" nType="-99"/>
          </Node>
        </Node>
        <Node pos="r" depth="1" NCoef="0" IVar="9" Cut="1.3205496966838837e-01" cType="1" res="-9.3504125252366066e-03" rms="1.9582937657833099e-01" purity="3.3940631151199341e-01" nType="0">
          <Node pos="l" depth="2" NCoef="0" IVar="-1" Cut="0.0000000000000000e+00" cType="1" res="-4.6124000102281570e-02" rms="2.0596569776535034e-01" purity="3.5302039980888367e-01" nType="-99"/>
          <Node pos="r" depth="2" NCoef="0" IVar="-1" Cut="0.0000000000000000e+00" cType="1" res="2.5298090185970068e-03" rms="1.8461827933788300e-01" purity="3.2585537433624268e-01" nType="-99"/>
        </Node>
      </Node>
    </BinaryTree>
    <BinaryTree type="DecisionTree" boostWeight="1.0000000000000000e+00" itree="298">
      <Node pos="s" depth="0" NCoef="0" IVar="3" Cut="5.1192538452148438e+02" cType="1" res="-7.5670651858672500e-04" rms="1.8233737349510193e-01" purity="4.8752263188362122e-01" nType="0">
        <Node pos="l" depth="1" NCoef="0" IVar="2" Cut="8.9853710937500000e+02" cType="1" res="-2.1189835388213396e-03" rms="1.9268064200878143e-01" purity="3.5119834542274475e-01" nType="0">
          <Node pos="l" depth="2" NCoef="0" IVar="3" Cut="2.1496214294433594e+02" cType="1" res="-1.1641116579994559e-03" rms="1.9114018976688385e-01" purity="3.2665771245956421e-01" nType="0">
            <Node pos="l" depth="3" NCoef="0" IVar="-1" Cut="0.0000000000000000e+00" cType="1" res="3.5898350179195404e-02" rms="1.3700212538242340e-01" purity="2.8088238090276718e-02" nType="-99"/>
            <Node pos="r" depth="3" NCoef="0" IVar="-1" Cut="0.0000000000000000e+00" cType="1" res="-6.4111514948308468e-03" rms="2.0209814608097076e-01" purity="3.9927983283996582e-01" nType="-99"/>
          </Node>
          <Node pos="r" depth="2" NCoef="0" IVar="-1" Cut="0.0000000000000000e+00" cType="1" res="-4.4031184166669846e-02" rms="2.1841445565223694e-01" purity="8.0386608839035034e-01" nType="-99"/>
        </Node>
        <Node pos="r" depth="1" NCoef="0" IVar="4" Cut="3.0948684692382812e+02" cType="1" res="3.8242305163294077e-03" rms="1.4204245805740356e-01" purity="9.4594115018844604e-01" nType="0">
          <Node pos="l" depth="2" NCoef="0" IVar="-1" Cut="0.0000000000000000e+00" cType="1" res="3.6756932735443115e-02" rms="2.2294358909130096e-01" purity="7.9461270570755005e-01" nType="-99"/>
          <Node pos="r" depth="2" NCoef="0" IVar="10" Cut="-6.0271435976028442e-01" cType="1" res="-1.6629016317892820e-04" rms="1.1483054608106613e-01" purity="9.8133397102355957e-01" nType="0">
            <Node pos="l" depth="3" NCoef="0" IVar="-1" Cut="0.0000000000000000e+00" cType="1" res="-4.0789153426885605e-02" rms="1.4044262468814850e-01" purity="9.6875649690628052e-01" nType="-99"/>
            <Node pos="r" depth="3" NCoef="0" IVar="-1" Cut="0.0000000000000000e+00" cType="1" res="1.6823984682559967e-02" rms="1.0441155731678009e-01" purity="9.8569047451019287e-01" nType="-99"/>
          </Node>
        </Node>
      </Node>
    </BinaryTree>
    <BinaryTree type="DecisionTree" boostWeight="1.0000000000000000e+00" itree="299">
      <Node pos="s" depth="0" NCoef="0" IVar="1" Cut="2.1428711712360382e-02" cType="1" res="7.1081123314797878e-04" rms="1.7964313924312592e-01" purity="4.9166318774223328e-01" nType="0">
        <Node pos="l" depth="1" NCoef="0" IVar="0" Cut="2.0866569824218750e+03" cType="1" res="-3.8025982212275267e-03" rms="1.3986852765083313e-01" purity="9.1764584183692932e-02" nType="0">
          <Node pos="l" depth="2" NCoef="0" IVar="0" Cut="1.7923913574218750e+03" cType="1" res="2.6004971005022526e-04" rms="8.4259554743766785e-02" purity="8.1671727821230888e-03" nType="0">
            <Node pos="l" depth="3" NCoef="0" IVar="-1" Cut="0.0000000000000000e+00" cType="1" res="-6.2582395970821381e-02" rms="3.8520805537700653e-02" purity="1.4790811110287905e-03" nType="-99"/>
            <Node pos="r" depth="3" NCoef="0" IVar="-1" Cut="0.0000000000000000e+00" cType="1" res="5.1570288836956024e-02" rms="1.7341674864292145e-01" purity="3.5698331892490387e-02" nType="-99"/>
          </Node>
          <Node pos="r" depth="2" NCoef="0" IVar="-1" Cut="0.0000000000000000e+00" cType="1" res="-2.1320750936865807e-02" rms="2.5871154665946960e-01" purity="4.1152507066726685e-01" nType="-99"/>
        </Node>
        <Node pos="r" depth="1" NCoef="0" IVar="11" Cut="3.9971822500228882e-01" cType="1" res="1.7859041690826416e-03" rms="1.8786378204822540e-01" purity="5.8691895008087158e-01" nType="0">
          <Node pos="l" depth="2" NCoef="0" IVar="1" Cut="1.0298556089401245e-01" cType="1" res="4.0298420935869217e-03" rms="1.8717347085475922e-01" purity="5.9107828140258789e-01" nType="0">
            <Node pos="l" depth="3" NCoef="0" IVar="-1" Cut="0.0000000000000000e+00" cType="1" res="1.7394134774804115e-02" rms="2.0682118833065033e-01" purity="4.4013625383377075e-01" nType="-99"/>
            <Node pos="r" depth="3" NCoef="0" IVar="-1" Cut="0.0000000000000000e+00" cType="1" res="-2.1116505376994610e-03" rms="1.5234769880771637e-01" purity="8.2095813751220703e-01" nType="-99"/>
          </Node>
          <Node pos="r" depth="2" NCoef="0" IVar="2" Cut="7.6462188720703125e+02" cType="1" res="-1.9517814507707953e-03" rms="1.8894888460636139e-01" purity="5.7999080419540405e-01" nType="0">
            <Node pos="l" depth="3" NCoef="0" IVar="-1" Cut="0.0000000000000000e+00" cType="1" res="-1.0423365980386734e-02" rms="1.9965618848800659e-01" purity="4.7705486416816711e-01" nType="-99"/>
            <Node pos="r" depth="3" NCoef="0" IVar="-1" Cut="0.0000000000000000e+00" cType="1" res="2.4524087086319923e-02" rms="1.4598427712917328e-01" purity="9.3369096517562866e-01" nType="-99"/>
          </Node>
        </Node>
      </Node>
    </BinaryTree>
    <BinaryTree type="DecisionTree" boostWeight="1.0000000000000000e+00" itree="300">
      <Node pos="s" depth="0" NCoef="0" IVar="9" Cut="6.6669136285781860e-01" cType="1" res="2.1982338512316346e-04" rms="1.8577799201011658e-01" purity="5.0275778770446777e-01" nType="0">
        <Node pos="l" depth="1" NCoef="0" IVar="11" Cut="1.9999537467956543e+00" cType="1" res="-1.2915198458358645e-03" rms="1.8004922568798065e-01" purity="5.3206646442413330e-01" nType="0">
          <Node pos="l" depth="2" NCoef="0" IVar="10" Cut="1.7330832481384277e+00" cType="1" res="-4.3976231245324016e-04" rms="1.7776298522949219e-01" purity="5.4140841960906982e-01" nType="0">
            <Node pos="l" depth="3" NCoef="0" IVar="-1" Cut="0.0000000000000000e+00" cType="1" res="8.2601810572668910e-04" rms="1.7667599022388458e-01" purity="5.5863332748413086e-01" nType="-99"/>
            <Node pos="r" depth="3" NCoef="0" IVar="-1" Cut="0.0000000000000000e+00" cType="1" res="-3.1100794672966003e-02" rms="1.9566722214221954e-01" purity="2.3507234454154968e-01" nType="-99"/>
          </Node>
          <Node pos="r" depth="2" NCoef="0" IVar="-1" Cut="0.0000000000000000e+00" cType="1" res="-5.5624224245548248e-02" rms="2.2706797719001770e-01" purity="3.0852207541465759e-01" nType="-99"/>
        </Node>
        <Node pos="r" depth="1" NCoef="0" IVar="8" Cut="-3.9965853095054626e-01" cType="1" res="4.6011558733880520e-03" rms="2.0140288770198822e-01" purity="4.1779276728630066e-01" nType="0">
          <Node pos="l" depth="2" NCoef="0" IVar="8" Cut="-9.7078043222427368e-01" cType="1" res="1.3445771299302578e-02" rms="2.1246877312660217e-01" purity="3.5589534044265747e-01" nType="0">
            <Node pos="l" depth="3" NCoef="0" IVar="-1" Cut="0.0000000000000000e+00" cType="1" res="1.0713929310441017e-02" rms="1.9315098226070404e-01" purity="1.9344073534011841e-01" nType="-99"/>
            <Node pos="r" depth="3" NCoef="0" IVar="-1" Cut="0.0000000000000000e+00" cType="1" res="5.4965253919363022e-02" rms="2.2943492233753204e-01" purity="5.1518893241882324e-01" nType="-99"/>
          </Node>
          <Node pos="r" depth="2" NCoef="0" IVar="9" Cut="1.6817497014999390e+00" cType="1" res="2.5276746600866318e-04" rms="1.9558656215667725e-01" purity="4.4822424650192261e-01" nType="0">
            <Node pos="l" depth="3" NCoef="0" IVar="-1" Cut="0.0000000000000000e+00" cType="1" res="9.2050665989518166e-03" rms="1.9327040016651154e-01" purity="5.1029157638549805e-01" nType="-99"/>
            <Node pos="r" depth="3" NCoef="0" IVar="-1" Cut="0.0000000000000000e+00" cType="1" res="-3.5713519901037216e-02" rms="2.0463123917579651e-01" purity="1.8274989724159241e-01" nType="-99"/>
          </Node>
        </Node>
      </Node>
    </BinaryTree>
    <BinaryTree type="DecisionTree" boostWeight="1.0000000000000000e+00" itree="301">
      <Node pos="s" depth="0" NCoef="0" IVar="8" Cut="9.3373483419418335e-01" cType="1" res="-8.1549311289563775e-04" rms="1.8304163217544556e-01" purity="4.9950975179672241e-01" nType="0">
        <Node pos="l" depth="1" NCoef="0" IVar="7" Cut="1.2502262592315674e+00" cType="1" res="3.3662037458270788e-04" rms="1.8263596296310425e-01" purity="5.4019707441329956e-01" nType="0">
          <Node pos="l" depth="2" NCoef="0" IVar="11" Cut="-1.4654194116592407e+00" cType="1" res="1.1475614737719297e-03" rms="1.8584404885768890e-01" purity="5.7507848739624023e-01" nType="0">
            <Node pos="l" depth="3" NCoef="0" IVar="-1" Cut="0.0000000000000000e+00" cType="1" res="2.2500470280647278e-02" rms="2.0150923728942871e-01" purity="4.5354929566383362e-01" nType="-99"/>
            <Node pos="r" depth="3" NCoef="0" IVar="-1" Cut="0.0000000000000000e+00" cType="1" res="1.7266948998440057e-04" rms="1.8368478119373322e-01" purity="5.9085166454315186e-01" nType="-99"/>
          </Node>
          <Node pos="r" depth="2" NCoef="0" IVar="0" Cut="1.7240373535156250e+03" cType="1" res="-9.6247177571058273e-03" rms="1.3684985041618347e-01" purity="1.1172483116388321e-01" nType="0">
            <Node pos="l" depth="3" NCoef="0" IVar="-1" Cut="0.0000000000000000e+00" cType="1" res="-6.7762285470962524e-02" rms="3.6225900053977966e-02" purity="1.3193945633247495e-03" nType="-99"/>
            <Node pos="r" depth="3" NCoef="0" IVar="-1" Cut="0.0000000000000000e+00" cType="1" res="-3.4386310726404190e-02" rms="2.0728610455989838e-01" purity="2.6643136143684387e-01" nType="-99"/>
          </Node>
        </Node>
        <Node pos="r" depth="1" NCoef="0" IVar="5" Cut="1.5689465332031250e+02" cType="1" res="-6.7382236011326313e-03" rms="1.8499986827373505e-01" purity="2.9034614562988281e-01" nType="0">
          <Node pos="l" depth="2" NCoef="0" IVar="8" Cut="1.5554414987564087e+00" cType="1" res="-9.1472751228138804e-04" rms="1.5237876772880554e-01" purity="6.2943607568740845e-02" nType="0">
            <Node pos="l" depth="3" NCoef="0" IVar="-1" Cut="0.0000000000000000e+00" cType="1" res="2.0608277991414070e-02" rms="1.8501093983650208e-01" purity="1.0198508203029633e-01" nType="-99"/>
            <Node pos="r" depth="3" NCoef="0" IVar="-1" Cut="0.0000000000000000e+00" cType="1" res="-1.0038030892610550e-01" rms="9.0978175401687622e-02" purity="1.0570376180112362e-02" nType="-99"/>
          </Node>
          <Node pos="r" depth="2" NCoef="0" IVar="4" Cut="2.5365708923339844e+02" cType="1" res="-1.4440589584410191e-02" rms="2.2062921524047852e-01" purity="5.9111702442169189e-01" nType="0">
            <Node pos="l" depth="3" NCoef="0" IVar="-1" Cut="0.0000000000000000e+00" cType="1" res="-5.1611471921205521e-02" rms="2.3219583928585052e-01" purity="2.0395134389400482e-01" nType="-99"/>
            <Node pos="r" depth="3" NCoef="0" IVar="-1" Cut="0.0000000000000000e+00" cType="1" res="-1.0816046036779881e-02" rms="2.1187043190002441e-01" purity="8.5466957092285156e-01" nType="-99"/>
          </Node>
        </Node>
      </Node>
    </BinaryTree>
    <BinaryTree type="DecisionTree" boostWeight="1.0000000000000000e+00" itree="302">
      <Node pos="s" depth="0" NCoef="0" IVar="2" Cut="9.3051434326171875e+02" cType="1" res="7.2904565604403615e-04" rms="1.8544869124889374e-01" purity="5.0073289871215820e-01" nType="0">
        <Node pos="l" depth="1" NCoef="0" IVar="3" Cut="5.6119769287109375e+02" cType="1" res="-2.5076954625546932e-04" rms="1.8813548982143402e-01" purity="4.5974999666213989e-01" nType="0">
          <Node pos="l" depth="2" NCoef="0" IVar="7" Cut="4.9077349901199341e-01" cType="1" res="1.0486817918717861e-03" rms="1.9298854470252991e-01" purity="3.8652068376541138e-01" nType="0">
            <Node pos="l" depth="3" NCoef="0" IVar="-1" Cut="0.0000000000000000e+00" cType="1" res="9.1441748663783073e-03" rms="2.0075930655002594e-01" purity="4.3847608566284180e-01" nType="-99"/>
            <Node pos="r" depth="3" NCoef="0" IVar="-1" Cut="0.0000000000000000e+00" cType="1" res="-1.2401300482451916e-02" rms="1.7450743913650513e-01" purity="2.7189773321151733e-01" nType="-99"/>
          </Node>
          <Node pos="r" depth="2" NCoef="0" IVar="1" Cut="6.5545514225959778e-02" cType="1" res="-8.9230751618742943e-03" rms="1.5154027938842773e-01" purity="9.4846922159194946e-01" nType="0">
            <Node pos="l" depth="3" NCoef="0" IVar="-1" Cut="0.0000000000000000e+00" cType="1" res="-6.7277319729328156e-02" rms="2.5010722875595093e-01" purity="8.3900904655456543e-01" nType="-99"/>
            <Node pos="r" depth="3" NCoef="0" IVar="-1" Cut="0.0000000000000000e+00" cType="1" res="-6.1025321483612061e-03" rms="9.1117352247238159e-02" purity="9.8827695846557617e-01" nType="-99"/>
          </Node>
        </Node>
        <Node pos="r" depth="1" NCoef="0" IVar="0" Cut="3.5631640625000000e+03" cType="1" res="1.0820424184203148e-02" rms="1.5473084151744843e-01" purity="9.2282694578170776e-01" nType="0">
          <Node pos="l" depth="2" NCoef="0" IVar="-1" Cut="0.0000000000000000e+00" cType="1" res="4.2245808988809586e-02" rms="2.1733942627906799e-01" purity="8.0960881710052490e-01" nType="-99"/>
          <Node pos="r" depth="2" NCoef="0" IVar="-1" Cut="0.0000000000000000e+00" cType="1" res="1.0820413008332253e-02" rms="1.0395858436822891e-01" purity="9.8546445369720459e-01" nType="-99"/>
        </Node>
      </Node>
    </BinaryTree>
    <BinaryTree type="DecisionTree" boostWeight="1.0000000000000000e+00" itree="303">
      <Node pos="s" depth="0" NCoef="0" IVar="9" Cut="-1.2001172304153442e+00" cType="1" res="-8.0559711204841733e-04" rms="1.8591599166393280e-01" purity="5.0281882286071777e-01" nType="0">
        <Node pos="l" depth="1" NCoef="0" IVar="1" Cut="1.7395090311765671e-02" cType="1" res="8.5443221032619476e-03" rms="2.0792652666568756e-01" purity="3.1664493680000305e-01" nType="0">
          <Node pos="l" depth="2" NCoef="0" IVar="-1" Cut="0.0000000000000000e+00" cType="1" res="-2.9752034693956375e-02" rms="1.3376484811306000e-01" purity="4.4451843947172165e-02" nType="-99"/>
          <Node pos="r" depth="2" NCoef="0" IVar="4" Cut="2.4534910583496094e+02" cType="1" res="1.2727185152471066e-02" rms="2.2413022816181183e-01" purity="3.9270558953285217e-01" nType="0">
            <Node pos="l" depth="3" NCoef="0" IVar="-1" Cut="0.0000000000000000e+00" cType="1" res="5.0941720604896545e-02" rms="2.2438517212867737e-01" purity="1.8322871625423431e-01" nType="-99"/>
            <Node pos="r" depth="3" NCoef="0" IVar="-1" Cut="0.0000000000000000e+00" cType="1" res="-2.6647790800780058e-03" rms="2.2298072278499603e-01" purity="7.4692195653915405e-01" nType="-99"/>
          </Node>
        </Node>
        <Node pos="r" depth="1" NCoef="0" IVar="6" Cut="8.1363189697265625e+01" cType="1" res="-2.0668189972639084e-03" rms="1.8270753324031830e-01" purity="5.2793204784393311e-01" nType="0">
          <Node pos="l" depth="2" NCoef="0" IVar="0" Cut="1.8634041748046875e+03" cType="1" res="3.5157736856490374e-03" rms="1.6825032234191895e-01" purity="9.7460389137268066e-02" nType="0">
            <Node pos="l" depth="3" NCoef="0" IVar="-1" Cut="0.0000000000000000e+00" cType="1" res="-1.5498555265367031e-02" rms="7.6156564056873322e-02" purity="6.0574733652174473e-03" nType="-99"/>
            <Node pos="r" depth="3" NCoef="0" IVar="-1" Cut="0.0000000000000000e+00" cType="1" res="1.9083049148321152e-02" rms="3.0436474084854126e-01" purity="3.5963475704193115e-01" nType="-99"/>
          </Node>
          <Node pos="r" depth="2" NCoef="0" IVar="11" Cut="-1.7314432859420776e+00" cType="1" res="-3.4776038955897093e-03" rms="1.8615692853927612e-01" purity="6.3671714067459106e-01" nType="0">
            <Node pos="l" depth="3" NCoef="0" IVar="-1" Cut="0.0000000000000000e+00" cType="1" res="-3.1364154070615768e-02" rms="2.3269064724445343e-01" purity="4.8458874225616455e-01" nType="-99"/>
            <Node pos="r" depth="3" NCoef="0" IVar="-1" Cut="0.0000000000000000e+00" cType="1" res="-7.6523832976818085e-03" rms="1.8280912935733795e-01" purity="6.4625495672225952e-01" nType="-99"/>
          </Node>
        </Node>
      </Node>
    </BinaryTree>
    <BinaryTree type="DecisionTree" boostWeight="1.0000000000000000e+00" itree="304">
      <Node pos="s" depth="0" NCoef="0" IVar="11" Cut="1.4652748107910156e+00" cType="1" res="7.8058027429506183e-04" rms="1.8573147058486938e-01" purity="5.0636208057403564e-01" nType="0">
        <Node pos="l" depth="1" NCoef="0" IVar="11" Cut="-2.1906816959381104e+00" cType="1" res="-1.3946634135209024e-04" rms="1.8230944871902466e-01" purity="5.1811593770980835e-01" nType="0">
          <Node pos="l" depth="2" NCoef="0" IVar="-1" Cut="0.0000000000000000e+00" cType="1" res="-4.1887111961841583e-02" rms="1.9377338886260986e-01" purity="2.5238397717475891e-01" nType="-99"/>
          <Node pos="r" depth="2" NCoef="0" IVar="9" Cut="-1.2000806331634521e+00" cType="1" res="4.3064326746389270e-04" rms="1.8190060555934906e-01" purity="5.2664983272552490e-01" nType="0">
            <Node pos="l" depth="3" NCoef="0" IVar="-1" Cut="0.0000000000000000e+00" cType="1" res="1.9758805632591248e-02" rms="1.8819709122180939e-01" purity="3.0454289913177490e-01" nType="-99"/>
            <Node pos="r" depth="3" NCoef="0" IVar="-1" Cut="0.0000000000000000e+00" cType="1" res="-1.6655009239912033e-03" rms="1.8095372617244720e-01" purity="5.5867624282836914e-01" nType="-99"/>
          </Node>
        </Node>
        <Node pos="r" depth="1" NCoef="0" IVar="11" Cut="2.1001188755035400e+00" cType="1" res="8.2600740715861320e-03" rms="2.1135753393173218e-01" purity="4.1080975532531738e-01" nType="0">
          <Node pos="l" depth="2" NCoef="0" IVar="8" Cut="4.1072028875350952e-01" cType="1" res="1.4354222454130650e-02" rms="2.1786957979202271e-01" purity="4.6314349770545959e-01" nType="0">
            <Node pos="l" depth="3" NCoef="0" IVar="-1" Cut="0.0000000000000000e+00" cType="1" res="4.5279771089553833e-02" rms="2.2029221057891846e-01" purity="5.1489388942718506e-01" nType="-99"/>
            <Node pos="r" depth="3" NCoef="0" IVar="-1" Cut="0.0000000000000000e+00" cType="1" res="7.4123614467680454e-03" rms="2.1300731599330902e-01" purity="3.7062892317771912e-01" nType="-99"/>
          </Node>
          <Node pos="r" depth="2" NCoef="0" IVar="-1" Cut="0.0000000000000000e+00" cType="1" res="-1.2766999192535877e-02" rms="1.9570460915565491e-01" purity="2.9635807871818542e-01" nType="-99"/>
        </Node>
      </Node>
    </BinaryTree>
    <BinaryTree type="DecisionTree" boostWeight="1.0000000000000000e+00" itree="305">
      <Node pos="s" depth="0" NCoef="0" IVar="2" Cut="7.7266290283203125e+02" cType="1" res="-1.4569399645552039e-03" rms="1.8190446496009827e-01" purity="4.9728915095329285e-01" nType="0">
        <Node pos="l" depth="1" NCoef="0" IVar="10" Cut="-1.1993846893310547e+00" cType="1" res="-1.6222016711253673e-04" rms="1.8419595062732697e-01" purity="4.0300062298774719e-01" nType="0">
          <Node pos="l" depth="2" NCoef="0" IVar="0" Cut="2.1461101074218750e+03" cType="1" res="6.1689037829637527e-03" rms="1.9824773073196411e-01" purity="2.9837045073509216e-01" nType="0">
            <Node pos="l" depth="3" NCoef="0" IVar="-1" Cut="0.0000000000000000e+00" cType="1" res="-6.7060748115181923e-03" rms="1.7440448701381683e-01" purity="4.1849996894598007e-02" nType="-99"/>
            <Node pos="r" depth="3" NCoef="0" IVar="-1" Cut="0.0000000000000000e+00" cType="1" res="3.9105661213397980e-02" rms="2.4332012236118317e-01" purity="8.8774567842483521e-01" nType="-99"/>
          </Node>
          <Node pos="r" depth="2" NCoef="0" IVar="5" Cut="2.1994374084472656e+02" cType="1" res="-1.3794248225167394e-03" rms="1.8134433031082153e-01" purity="4.2311656475067139e-01" nType="0">
            <Node pos="l" depth="3" NCoef="0" IVar="-1" Cut="0.0000000000000000e+00" cType="1" res="-8.6436923593282700e-03" rms="1.9149552285671234e-01" purity="1.8790121376514435e-01" nType="-99"/>
            <Node pos="r" depth="3" NCoef="0" IVar="-1" Cut="0.0000000000000000e+00" cType="1" res="1.0478842072188854e-02" rms="1.5647526085376740e-01" purity="9.4376897811889648e-01" nType="-99"/>
          </Node>
        </Node>
        <Node pos="r" depth="1" NCoef="0" IVar="0" Cut="2.8796396484375000e+03" cType="1" res="-6.5016965381801128e-03" rms="1.7259345948696136e-01" purity="8.6467564105987549e-01" nType="0">
          <Node pos="l" depth="2" NCoef="0" IVar="-1" Cut="0.0000000000000000e+00" cType="1" res="-2.7275187894701958e-02" rms="2.9468002915382385e-01" purity="3.2815816998481750e-01" nType="-99"/>
          <Node pos="r" depth="2" NCoef="0" IVar="7" Cut="-3.8114547729492188e-01" cType="1" res="-2.7461296413093805e-03" rms="1.3489128649234772e-01" purity="9.7291260957717896e-01" nType="0">
            <Node pos="l" depth="3" NCoef="0" IVar="-1" Cut="0.0000000000000000e+00" cType="1" res="-4.4850122183561325e-02" rms="1.6359652578830719e-01" purity="9.5228093862533569e-01" nType="-99"/>
            <Node pos="r" depth="3" NCoef="0" IVar="-1" Cut="0.0000000000000000e+00" cType="1" res="-3.2862215302884579e-03" rms="1.2537582218647003e-01" purity="9.7882181406021118e-01" nType="-99"/>
          </Node>
        </Node>
      </Node>
    </BinaryTree>
    <BinaryTree type="DecisionTree" boostWeight="1.0000000000000000e+00" itree="306">
      <Node pos="s" depth="0" NCoef="0" IVar="5" Cut="1.5156152343750000e+02" cType="1" res="-1.5742145478725433e-03" rms="1.7996075749397278e-01" purity="4.9608424305915833e-01" nType="0">
        <Node pos="l" depth="1" NCoef="0" IVar="7" Cut="-2.7570089697837830e-01" cType="1" res="1.6255230875685811e-03" rms="1.7444361746311188e-01" purity="1.0619614273309708e-01" nType="0">
          <Node pos="l" depth="2" NCoef="0" IVar="0" Cut="1.8876715087890625e+03" cType="1" res="8.0010984092950821e-03" rms="1.7391566932201385e-01" purity="8.6392045021057129e-02" nType="0">
            <Node pos="l" depth="3" NCoef="0" IVar="-1" Cut="0.0000000000000000e+00" cType="1" res="1.7468171194195747e-02" rms="1.0548272728919983e-01" purity="1.2514517642557621e-02" nType="-99"/>
            <Node pos="r" depth="3" NCoef="0" IVar="-1" Cut="0.0000000000000000e+00" cType="1" res="3.3577088266611099e-02" rms="3.1640616059303284e-01" purity="3.5896110534667969e-01" nType="-99"/>
          </Node>
          <Node pos="r" depth="2" NCoef="0" IVar="0" Cut="1.8319158935546875e+03" cType="1" res="-2.2977867629379034e-03" rms="1.7465206980705261e-01" purity="1.1838290095329285e-01" nType="0">
            <Node pos="l" depth="3" NCoef="0" IVar="-1" Cut="0.0000000000000000e+00" cType="1" res="4.6818442642688751e-03" rms="9.6097752451896667e-02" purity="1.0271145030856133e-02" nType="-99"/>
            <Node pos="r" depth="3" NCoef="0" IVar="-1" Cut="0.0000000000000000e+00" cType="1" res="-1.0522191412746906e-02" rms="2.9447287321090698e-01" purity="4.0447899699211121e-01" nType="-99"/>
          </Node>
        </Node>
        <Node pos="r" depth="1" NCoef="0" IVar="0" Cut="2.4650954589843750e+03" cType="1" res="-3.8410022389143705e-03" rms="1.8373532593250275e-01" purity="7.7229237556457520e-01" nType="0">
          <Node pos="l" depth="2" NCoef="0" IVar="4" Cut="2.2990353393554688e+02" cType="1" res="-1.1598127894103527e-02" rms="2.7756980061531067e-01" purity="2.5398847460746765e-01" nType="0">
            <Node pos="l" depth="3" NCoef="0" IVar="-1" Cut="0.0000000000000000e+00" cType="1" res="-2.8611482121050358e-03" rms="2.2028280794620514e-01" purity="1.3868285715579987e-01" nType="-99"/>
            <Node pos="r" depth="3" NCoef="0" IVar="-1" Cut="0.0000000000000000e+00" cType="1" res="-2.0759437233209610e-02" rms="3.3703306317329407e-01" purity="4.0292862057685852e-01" nType="-99"/>
          </Node>
          <Node pos="r" depth="2" NCoef="0" IVar="8" Cut="-9.7492831945419312e-01" cType="1" res="-7.9041626304388046e-04" rms="1.2923936545848846e-01" purity="9.7612178325653076e-01" nType="0">
            <Node pos="l" depth="3" NCoef="0" IVar="-1" Cut="0.0000000000000000e+00" cType="1" res="-3.0069062486290932e-02" rms="2.0619946718215942e-01" purity="9.2141830921173096e-01" nType="-99"/>
            <Node pos="r" depth="3" NCoef="0" IVar="-1" Cut="0.0000000000000000e+00" cType="1" res="1.7268038354814053e-03" rms="1.1985420435667038e-01" purity="9.8104697465896606e-01" nType="-99"/>
          </Node>
        </Node>
      </Node>
    </BinaryTree>
    <BinaryTree type="DecisionTree" boostWeight="1.0000000000000000e+00" itree="307">
      <Node pos="s" depth="0" NCoef="0" IVar="6" Cut="1.2661697387695312e+02" cType="1" res="-5.5650074500590563e-05" rms="1.8148280680179596e-01" purity="5.0238758325576782e-01" nType="0">
        <Node pos="l" depth="1" NCoef="0" IVar="1" Cut="1.5163248777389526e-01" cType="1" res="-3.8133591879159212e-03" rms="1.8841890990734100e-01" purity="1.9205731153488159e-01" nType="0">
          <Node pos="l" depth="2" NCoef="0" IVar="0" Cut="2.6364621582031250e+03" cType="1" res="-2.6852081064134836e-03" rms="1.8424189090728760e-01" purity="1.6229346394538879e-01" nType="0">
            <Node pos="l" depth="3" NCoef="0" IVar="-1" Cut="0.0000000000000000e+00" cType="1" res="-3.8699198048561811e-03" rms="1.7281126976013184e-01" purity="6.4356468617916107e-02" nType="-99"/>
            <Node pos="r" depth="3" NCoef="0" IVar="-1" Cut="0.0000000000000000e+00" cType="1" res="-2.1899884566664696e-02" rms="2.5146600604057312e-01" purity="8.6829197406768799e-01" nType="-99"/>
          </Node>
          <Node pos="r" depth="2" NCoef="0" IVar="-1" Cut="0.0000000000000000e+00" cType="1" res="-3.4885153174400330e-02" rms="2.3278321325778961e-01" purity="5.5323576927185059e-01" nType="-99"/>
        </Node>
        <Node pos="r" depth="1" NCoef="0" IVar="9" Cut="-9.2986160516738892e-01" cType="1" res="4.1782702319324017e-03" rms="1.7323783040046692e-01" purity="8.5204577445983887e-01" nType="0">
          <Node pos="l" depth="2" NCoef="0" IVar="1" Cut="7.5414344668388367e-02" cType="1" res="1.9111778587102890e-02" rms="2.1467135846614838e-01" purity="7.9260647296905518e-01" nType="0">
            <Node pos="l" depth="3" NCoef="0" IVar="-1" Cut="0.0000000000000000e+00" cType="1" res="4.3064281344413757e-02" rms="2.6441419124603271e-01" purity="5.9658610820770264e-01" nType="-99"/>
            <Node pos="r" depth="3" NCoef="0" IVar="-1" Cut="0.0000000000000000e+00" cType="1" res="3.4157499670982361e-02" rms="1.7324112355709076e-01" purity="9.2352074384689331e-01" nType="-99"/>
          </Node>
          <Node pos="r" depth="2" NCoef="0" IVar="10" Cut="4.0118640661239624e-01" cType="1" res="1.7317497404292226e-03" rms="1.6533516347408295e-01" purity="8.6178350448608398e-01" nType="0">
            <Node pos="l" depth="3" NCoef="0" IVar="-1" Cut="0.0000000000000000e+00" cType="1" res="-3.8935481570661068e-03" rms="1.6103810071945190e-01" purity="8.8097715377807617e-01" nType="-99"/>
            <Node pos="r" depth="3" NCoef="0" IVar="-1" Cut="0.0000000000000000e+00" cType="1" res="2.1257638931274414e-02" rms="1.7277620732784271e-01" purity="8.2680392265319824e-01" nType="-99"/>
          </Node>
        </Node>
      </Node>
    </BinaryTree>
    <BinaryTree type="DecisionTree" boostWeight="1.0000000000000000e+00" itree="308">
      <Node pos="s" depth="0" NCoef="0" IVar="6" Cut="7.3083717346191406e+01" cType="1" res="1.6544883837923408e-03" rms="1.8044236302375793e-01" purity="5.0481086969375610e-01" nType="0">
        <Node pos="l" depth="1" NCoef="0" IVar="1" Cut="1.8143121153116226e-02" cType="1" res="-5.2826800383627415e-03" rms="1.3214117288589478e-01" purity="5.1337111741304398e-02" nType="0">
          <Node pos="l" depth="2" NCoef="0" IVar="9" Cut="-1.2957476079463959e-01" cType="1" res="2.9277370776981115e-03" rms="1.0584346204996109e-01" purity="2.1379081532359123e-02" nType="0">
            <Node pos="l" depth="3" NCoef="0" IVar="-1" Cut="0.0000000000000000e+00" cType="1" res="-3.0418392270803452e-02" rms="6.7066386342048645e-02" purity="1.4354538172483444e-02" nType="-99"/>
            <Node pos="r" depth="3" NCoef="0" IVar="-1" Cut="0.0000000000000000e+00" cType="1" res="9.0387880802154541e-02" rms="1.3676871359348297e-01" purity="2.9321251437067986e-02" nType="-99"/>
          </Node>
          <Node pos="r" depth="2" NCoef="0" IVar="0" Cut="1.6097008056640625e+03" cType="1" res="-1.0255732573568821e-02" rms="1.4555573463439941e-01" purity="6.9482699036598206e-02" nType="0">
            <Node pos="l" depth="3" NCoef="0" IVar="-1" Cut="0.0000000000000000e+00" cType="1" res="-4.4220481067895889e-02" rms="4.7524608671665192e-02" purity="2.2501775529235601e-03" nType="-99"/>
            <Node pos="r" depth="3" NCoef="0" IVar="-1" Cut="0.0000000000000000e+00" cType="1" res="-3.9173826575279236e-02" rms="2.1310801804065704e-01" purity="1.5630209445953369e-01" nType="-99"/>
          </Node>
        </Node>
        <Node pos="r" depth="1" NCoef="0" IVar="11" Cut="1.2004652023315430e+00" cType="1" res="2.8903894126415253e-03" rms="1.8772101402282715e-01" purity="5.8560013771057129e-01" nType="0">
          <Node pos="l" depth="2" NCoef="0" IVar="8" Cut="1.3442893326282501e-01" cType="1" res="1.7707195365801454e-03" rms="1.8577191233634949e-01" purity="5.9981286525726318e-01" nType="0">
            <Node pos="l" depth="3" NCoef="0" IVar="-1" Cut="0.0000000000000000e+00" cType="1" res="-2.3135517258197069e-03" rms="1.8308572471141815e-01" purity="6.1395543813705444e-01" nType="-99"/>
            <Node pos="r" depth="3" NCoef="0" IVar="-1" Cut="0.0000000000000000e+00" cType="1" res="1.4929923228919506e-02" rms="1.8922448158264160e-01" purity="5.8103746175765991e-01" nType="-99"/>
          </Node>
          <Node pos="r" depth="2" NCoef="0" IVar="5" Cut="1.5652409362792969e+02" cType="1" res="8.6743887513875961e-03" rms="1.9738246500492096e-01" purity="5.1217985153198242e-01" nType="0">
            <Node pos="l" depth="3" NCoef="0" IVar="-1" Cut="0.0000000000000000e+00" cType="1" res="2.3717540316283703e-03" rms="1.9757279753684998e-01" purity="1.5625543892383575e-01" nType="-99"/>
            <Node pos="r" depth="3" NCoef="0" IVar="-1" Cut="0.0000000000000000e+00" cType="1" res="3.3778347074985504e-02" rms="1.9699944555759430e-01" purity="8.0394285917282104e-01" nType="-99"/>
          </Node>
        </Node>
      </Node>
    </BinaryTree>
    <BinaryTree type="DecisionTree" boostWeight="1.0000000000000000e+00" itree="309">
      <Node pos="s" depth="0" NCoef="0" IVar="9" Cut="-1.4667003154754639e+00" cType="1" res="-7.3784723645076156e-04" rms="1.8453149497509003e-01" purity="4.9546074867248535e-01" nType="0">
        <Node pos="l" depth="1" NCoef="0" IVar="2" Cut="4.6651992797851562e+02" cType="1" res="-1.0902998968958855e-02" rms="1.7848660051822662e-01" purity="1.9727736711502075e-01" nType="0">
          <Node pos="l" depth="2" NCoef="0" IVar="-1" Cut="0.0000000000000000e+00" cType="1" res="-7.0701763033866882e-02" rms="1.3652046024799347e-01" purity="5.5280219763517380e-02" nType="-99"/>
          <Node pos="r" depth="2" NCoef="0" IVar="-1" Cut="0.0000000000000000e+00" cType="1" res="-3.1026711221784353e-03" rms="2.1481475234031677e-01" purity="3.5260874032974243e-01" nType="-99"/>
        </Node>
        <Node pos="r" depth="1" NCoef="0" IVar="8" Cut="9.3225115537643433e-01" cType="1" res="1.9011819676961750e-04" rms="1.8504567444324493e-01" purity="5.2268153429031372e-01" nType="0">
          <Node pos="l" depth="2" NCoef="0" IVar="10" Cut="1.4665524959564209e+00" cType="1" res="-9.3478534836322069e-04" rms="1.8256491422653198e-01" purity="5.5891621112823486e-01" nType="0">
            <Node pos="l" depth="3" NCoef="0" IVar="-1" Cut="0.0000000000000000e+00" cType="1" res="-2.4584407219663262e-04" rms="1.7953833937644958e-01" purity="5.7709312438964844e-01" nType="-99"/>
            <Node pos="r" depth="3" NCoef="0" IVar="-1" Cut="0.0000000000000000e+00" cType="1" res="-2.3947607725858688e-02" rms="2.1309490501880646e-01" purity="3.5693472623825073e-01" nType="-99"/>
          </Node>
          <Node pos="r" depth="2" NCoef="0" IVar="11" Cut="9.3728166818618774e-01" cType="1" res="6.0549015179276466e-03" rms="1.9737139344215393e-01" purity="3.3376899361610413e-01" nType="0">
            <Node pos="l" depth="3" NCoef="0" IVar="-1" Cut="0.0000000000000000e+00" cType="1" res="5.5477921850979328e-03" rms="1.8654754757881165e-01" purity="3.5005041956901550e-01" nType="-99"/>
            <Node pos="r" depth="3" NCoef="0" IVar="-1" Cut="0.0000000000000000e+00" cType="1" res="4.7591399401426315e-02" rms="2.2625142335891724e-01" purity="2.8502669930458069e-01" nType="-99"/>
          </Node>
        </Node>
      </Node>
    </BinaryTree>
    <BinaryTree type="DecisionTree" boostWeight="1.0000000000000000e+00" itree="310">
      <Node pos="s" depth="0" NCoef="0" IVar="11" Cut="-9.3228536844253540e-01" cType="1" res="-4.2689271504059434e-04" rms="1.7906452715396881e-01" purity="5.0640934705734253e-01" nType="0">
        <Node pos="l" depth="1" NCoef="0" IVar="11" Cut="-1.2877447605133057e+00" cType="1" res="-5.2654989995062351e-03" rms="1.8909440934658051e-01" purity="4.4843989610671997e-01" nType="0">
          <Node pos="l" depth="2" NCoef="0" IVar="4" Cut="2.4417559814453125e+02" cType="1" res="-7.8068370930850506e-04" rms="1.9039596617221832e-01" purity="4.0981444716453552e-01" nType="0">
            <Node pos="l" depth="3" NCoef="0" IVar="-1" Cut="0.0000000000000000e+00" cType="1" res="-2.0134301856160164e-02" rms="1.8110182881355286e-01" purity="1.1464647203683853e-01" nType="-99"/>
            <Node pos="r" depth="3" NCoef="0" IVar="-1" Cut="0.0000000000000000e+00" cType="1" res="2.0230855792760849e-02" rms="2.0235240459442139e-01" purity="8.2419317960739136e-01" nType="-99"/>
          </Node>
          <Node pos="r" depth="2" NCoef="0" IVar="7" Cut="-4.2967568151652813e-04" cType="1" res="-1.2953273020684719e-02" rms="1.8659162521362305e-01" purity="5.1465076208114624e-01" nType="0">
            <Node pos="l" depth="3" NCoef="0" IVar="-1" Cut="0.0000000000000000e+00" cType="1" res="-6.6523805260658264e-02" rms="2.0010930299758911e-01" purity="4.7544273734092712e-01" nType="-99"/>
            <Node pos="r" depth="3" NCoef="0" IVar="-1" Cut="0.0000000000000000e+00" cType="1" res="-5.1096747629344463e-03" rms="1.6999286413192749e-01" purity="5.5722063779830933e-01" nType="-99"/>
          </Node>
        </Node>
        <Node pos="r" depth="1" NCoef="0" IVar="10" Cut="1.9995913505554199e+00" cType="1" res="1.0501884389668703e-03" rms="1.7586228251457214e-01" purity="5.2410566806793213e-01" nType="0">
          <Node pos="l" depth="2" NCoef="0" IVar="11" Cut="1.0227417945861816e+00" cType="1" res="5.1536405226215720e-04" rms="1.7415805160999298e-01" purity="5.3698688745498657e-01" nType="0">
            <Node pos="l" depth="3" NCoef="0" IVar="-1" Cut="0.0000000000000000e+00" cType="1" res="6.9634569808840752e-03" rms="1.6833567619323730e-01" purity="5.5875742435455322e-01" nType="-99"/>
            <Node pos="r" depth="3" NCoef="0" IVar="-1" Cut="0.0000000000000000e+00" cType="1" res="-1.0975842364132404e-02" rms="1.8938934803009033e-01" purity="4.7623604536056519e-01" nType="-99"/>
          </Node>
          <Node pos="r" depth="2" NCoef="0" IVar="-1" Cut="0.0000000000000000e+00" cType="1" res="3.4020122140645981e-02" rms="2.1468228101730347e-01" purity="1.9246491789817810e-01" nType="-99"/>
        </Node>
      </Node>
    </BinaryTree>
    <BinaryTree type="DecisionTree" boostWeight="1.0000000000000000e+00" itree="311">
      <Node pos="s" depth="0" NCoef="0" IVar="8" Cut="6.6753089427947998e-01" cType="1" res="4.7289588837884367e-04" rms="1.8015328049659729e-01" purity="4.9671050906181335e-01" nType="0">
        <Node pos="l" depth="1" NCoef="0" IVar="4" Cut="3.1008084106445312e+02" cType="1" res="-1.0483483783900738e-03" rms="1.8006649613380432e-01" purity="5.3906315565109253e-01" nType="0">
          <Node pos="l" depth="2" NCoef="0" IVar="11" Cut="-9.3343633413314819e-01" cType="1" res="-3.6656935699284077e-03" rms="2.0380897819995880e-01" purity="2.6709097623825073e-01" nType="0">
            <Node pos="l" depth="3" NCoef="0" IVar="-1" Cut="0.0000000000000000e+00" cType="1" res="1.4410040341317654e-02" rms="2.1272478997707367e-01" purity="2.6480627059936523e-01" nType="-99"/>
            <Node pos="r" depth="3" NCoef="0" IVar="-1" Cut="0.0000000000000000e+00" cType="1" res="-1.6519714146852493e-02" rms="2.0052324235439301e-01" purity="2.6788228750228882e-01" nType="-99"/>
          </Node>
          <Node pos="r" depth="2" NCoef="0" IVar="1" Cut="4.0297165513038635e-02" cType="1" res="2.9705155175179243e-03" rms="1.3565665483474731e-01" purity="9.5666915178298950e-01" nType="0">
            <Node pos="l" depth="3" NCoef="0" IVar="-1" Cut="0.0000000000000000e+00" cType="1" res="3.4806679934263229e-02" rms="2.1392981708049774e-01" purity="8.3138436079025269e-01" nType="-99"/>
            <Node pos="r" depth="3" NCoef="0" IVar="-1" Cut="0.0000000000000000e+00" cType="1" res="5.5136028677225113e-03" rms="1.2224239110946655e-01" purity="9.7232937812805176e-01" nType="-99"/>
          </Node>
        </Node>
        <Node pos="r" depth="1" NCoef="0" IVar="7" Cut="4.7025546431541443e-01" cType="1" res="5.1356945186853409e-03" rms="1.8033909797668457e-01" purity="3.6689454317092896e-01" nType="0">
          <Node pos="l" depth="2" NCoef="0" IVar="11" Cut="1.1998637914657593e+00" cType="1" res="2.1728936117142439e-03" rms="1.7514331638813019e-01" purity="3.8237804174423218e-01" nType="0">
            <Node pos="l" depth="3" NCoef="0" IVar="-1" Cut="0.0000000000000000e+00" cType="1" res="1.5910590067505836e-02" rms="1.7131000757217407e-01" purity="4.0122303366661072e-01" nType="-99"/>
            <Node pos="r" depth="3" NCoef="0" IVar="-1" Cut="0.0000000000000000e+00" cType="1" res="-2.8491400182247162e-02" rms="1.9113045930862427e-01" purity="2.9617145657539368e-01" nType="-99"/>
          </Node>
          <Node pos="r" depth="2" NCoef="0" IVar="10" Cut="1.3517992198467255e-01" cType="1" res="1.2310644611716270e-02" rms="1.9215181469917297e-01" purity="3.2939854264259338e-01" nType="0">
            <Node pos="l" depth="3" NCoef="0" IVar="-1" Cut="0.0000000000000000e+00" cType="1" res="7.3439694941043854e-02" rms="2.1073852479457855e-01" purity="3.9333927631378174e-01" nType="-99"/>
            <Node pos="r" depth="3" NCoef="0" IVar="-1" Cut="0.0000000000000000e+00" cType="1" res="1.0733602102845907e-03" rms="1.7458967864513397e-01" purity="2.7711960673332214e-01" nType="-99"/>
          </Node>
        </Node>
      </Node>
    </BinaryTree>
    <BinaryTree type="DecisionTree" boostWeight="1.0000000000000000e+00" itree="312">
      <Node pos="s" depth="0" NCoef="0" IVar="2" Cut="6.8708654785156250e+02" cType="1" res="1.2158538447692990e-03" rms="1.8308703601360321e-01" purity="4.9856108427047729e-01" nType="0">
        <Node pos="l" depth="1" NCoef="0" IVar="4" Cut="1.4218780517578125e+02" cType="1" res="2.9722850304096937e-03" rms="1.9055123627185822e-01" purity="3.5345724225044250e-01" nType="0">
          <Node pos="l" depth="2" NCoef="0" IVar="1" Cut="4.9941454082727432e-02" cType="1" res="-3.8716061972081661e-03" rms="8.9536033570766449e-02" purity="9.4931786879897118e-03" nType="0">
            <Node pos="l" depth="3" NCoef="0" IVar="-1" Cut="0.0000000000000000e+00" cType="1" res="2.6640661526471376e-03" rms="7.8355558216571808e-02" purity="7.4137537740170956e-03" nType="-99"/>
            <Node pos="r" depth="3" NCoef="0" IVar="-1" Cut="0.0000000000000000e+00" cType="1" res="-6.7772395908832550e-02" rms="1.1258079111576080e-01" purity="1.4816950075328350e-02" nType="-99"/>
          </Node>
          <Node pos="r" depth="2" NCoef="0" IVar="8" Cut="-3.9575725793838501e-01" cType="1" res="4.6034967526793480e-03" rms="2.0745958387851715e-01" purity="4.3543955683708191e-01" nType="0">
            <Node pos="l" depth="3" NCoef="0" IVar="-1" Cut="0.0000000000000000e+00" cType="1" res="2.5891518220305443e-02" rms="2.0798787474632263e-01" purity="3.8670948147773743e-01" nType="-99"/>
            <Node pos="r" depth="3" NCoef="0" IVar="-1" Cut="0.0000000000000000e+00" cType="1" res="3.3006512094289064e-03" rms="2.0709674060344696e-01" purity="4.6215099096298218e-01" nType="-99"/>
          </Node>
        </Node>
        <Node pos="r" depth="1" NCoef="0" IVar="7" Cut="-7.3610311746597290e-01" cType="1" res="-2.7716460172086954e-03" rms="1.6482262313365936e-01" purity="8.2797998189926147e-01" nType="0">
          <Node pos="l" depth="2" NCoef="0" IVar="-1" Cut="0.0000000000000000e+00" cType="1" res="-4.3146610260009766e-02" rms="1.9510622322559357e-01" purity="5.8728259801864624e-01" nType="-99"/>
          <Node pos="r" depth="2" NCoef="0" IVar="11" Cut="-1.3732603192329407e-01" cType="1" res="-7.5049989391118288e-04" rms="1.6077648103237152e-01" purity="8.5621255636215210e-01" nType="0">
            <Node pos="l" depth="3" NCoef="0" IVar="-1" Cut="0.0000000000000000e+00" cType="1" res="1.7413463443517685e-02" rms="1.5732344985008240e-01" purity="8.5236436128616333e-01" nType="-99"/>
            <Node pos="r" depth="3" NCoef="0" IVar="-1" Cut="0.0000000000000000e+00" cType="1" res="-1.9255662336945534e-02" rms="1.6355678439140320e-01" purity="8.5953944921493530e-01" nType="-99"/>
          </Node>
        </Node>
      </Node>
    </BinaryTree>
    <BinaryTree type="DecisionTree" boostWeight="1.0000000000000000e+00" itree="313">
      <Node pos="s" depth="0" NCoef="0" IVar="11" Cut="-1.1988506317138672e+00" cType="1" res="-1.6426235670223832e-03" rms="1.8148151040077209e-01" purity="4.9449384212493896e-01" nType="0">
        <Node pos="l" depth="1" NCoef="0" IVar="0" Cut="2.7368991699218750e+03" cType="1" res="-9.1398246586322784e-03" rms="1.9133862853050232e-01" purity="3.9966458082199097e-01" nType="0">
          <Node pos="l" depth="2" NCoef="0" IVar="0" Cut="1.9730096435546875e+03" cType="1" res="-1.3804892078042030e-02" rms="2.1208648383617401e-01" purity="1.7172282934188843e-01" nType="0">
            <Node pos="l" depth="3" NCoef="0" IVar="-1" Cut="0.0000000000000000e+00" cType="1" res="-1.0986598208546638e-02" rms="1.4256517589092255e-01" purity="2.9196767136454582e-02" nType="-99"/>
            <Node pos="r" depth="3" NCoef="0" IVar="-1" Cut="0.0000000000000000e+00" cType="1" res="-3.9507314562797546e-02" rms="3.1242245435714722e-01" purity="4.8089671134948730e-01" nType="-99"/>
          </Node>
          <Node pos="r" depth="2" NCoef="0" IVar="-1" Cut="0.0000000000000000e+00" cType="1" res="1.4780684374272823e-02" rms="1.2343187630176544e-01" purity="9.7646635770797729e-01" nType="-99"/>
        </Node>
        <Node pos="r" depth="1" NCoef="0" IVar="11" Cut="1.6572510004043579e+00" cType="1" res="-1.3584844418801367e-04" rms="1.7939729988574982e-01" purity="5.1355248689651489e-01" nType="0">
          <Node pos="l" depth="2" NCoef="0" IVar="8" Cut="-1.7301148176193237e+00" cType="1" res="-1.1061920085921884e-03" rms="1.7681854963302612e-01" purity="5.2758550643920898e-01" nType="0">
            <Node pos="l" depth="3" NCoef="0" IVar="-1" Cut="0.0000000000000000e+00" cType="1" res="8.0207787454128265e-02" rms="1.6999866068363190e-01" purity="7.2050631046295166e-02" nType="-99"/>
            <Node pos="r" depth="3" NCoef="0" IVar="-1" Cut="0.0000000000000000e+00" cType="1" res="-5.1467102020978928e-03" rms="1.7704841494560242e-01" purity="5.4500460624694824e-01" nType="-99"/>
          </Node>
          <Node pos="r" depth="2" NCoef="0" IVar="10" Cut="1.3844363391399384e-01" cType="1" res="8.6338175460696220e-03" rms="2.0099729299545288e-01" purity="3.8672605156898499e-01" nType="0">
            <Node pos="l" depth="3" NCoef="0" IVar="-1" Cut="0.0000000000000000e+00" cType="1" res="5.4170180112123489e-02" rms="2.0744901895523071e-01" purity="4.3279978632926941e-01" nType="-99"/>
            <Node pos="r" depth="3" NCoef="0" IVar="-1" Cut="0.0000000000000000e+00" cType="1" res="-1.2841961346566677e-02" rms="1.9323542714118958e-01" purity="3.3970421552658081e-01" nType="-99"/>
          </Node>
        </Node>
      </Node>
    </BinaryTree>
    <BinaryTree type="DecisionTree" boostWeight="1.0000000000000000e+00" itree="314">
      <Node pos="s" depth="0" NCoef="0" IVar="11" Cut="1.9997268915176392e+00" cType="1" res="2.0551073830574751e-03" rms="1.8355582654476166e-01" purity="5.0721389055252075e-01" nType="0">
        <Node pos="l" depth="1" NCoef="0" IVar="9" Cut="-4.0047046542167664e-01" cType="1" res="1.4505450380966067e-03" rms="1.8201199173927307e-01" purity="5.1580429077148438e-01" nType="0">
          <Node pos="l" depth="2" NCoef="0" IVar="8" Cut="1.3644899427890778e-01" cType="1" res="-2.1237912587821484e-03" rms="1.8453148007392883e-01" purity="4.7349736094474792e-01" nType="0">
            <Node pos="l" depth="3" NCoef="0" IVar="-1" Cut="0.0000000000000000e+00" cType="1" res="-1.9370662048459053e-02" rms="1.7107619345188141e-01" purity="4.8202165961265564e-01" nType="-99"/>
            <Node pos="r" depth="3" NCoef="0" IVar="-1" Cut="0.0000000000000000e+00" cType="1" res="1.0795195586979389e-02" rms="2.0197720825672150e-01" purity="4.6137484908103943e-01" nType="-99"/>
          </Node>
          <Node pos="r" depth="2" NCoef="0" IVar="8" Cut="1.3571634888648987e-01" cType="1" res="3.4194586332887411e-03" rms="1.8057891726493835e-01" purity="5.3910899162292480e-01" nType="0">
            <Node pos="l" depth="3" NCoef="0" IVar="-1" Cut="0.0000000000000000e+00" cType="1" res="2.3398146033287048e-02" rms="1.8277683854103088e-01" purity="5.4857885837554932e-01" nType="-99"/>
            <Node pos="r" depth="3" NCoef="0" IVar="-1" Cut="0.0000000000000000e+00" cType="1" res="-5.7371496222913265e-03" rms="1.7760534584522247e-01" purity="5.2706742286682129e-01" nType="-99"/>
          </Node>
        </Node>
        <Node pos="r" depth="1" NCoef="0" IVar="-1" Cut="0.0000000000000000e+00" cType="1" res="3.9225265383720398e-02" rms="2.1391044557094574e-01" purity="3.2083320617675781e-01" nType="-99"/>
      </Node>
    </BinaryTree>
    <BinaryTree type="DecisionTree" boostWeight="1.0000000000000000e+00" itree="315">
      <Node pos="s" depth="0" NCoef="0" IVar="7" Cut="-6.1632066965103149e-01" cType="1" res="-5.1467126468196511e-04" rms="1.8252028524875641e-01" purity="5.1209497451782227e-01" nType="0">
        <Node pos="l" depth="1" NCoef="0" IVar="0" Cut="2.8629860839843750e+03" cType="1" res="4.3457243591547012e-03" rms="1.8676087260246277e-01" purity="3.4653285145759583e-01" nType="0">
          <Node pos="l" depth="2" NCoef="0" IVar="0" Cut="2.2359851074218750e+03" cType="1" res="7.4841445311903954e-03" rms="1.9585527479648590e-01" purity="1.7305026948451996e-01" nType="0">
            <Node pos="l" depth="3" NCoef="0" IVar="-1" Cut="0.0000000000000000e+00" cType="1" res="9.5097180455923080e-03" rms="1.7117293179035187e-01" purity="4.8243965953588486e-02" nType="-99"/>
            <Node pos="r" depth="3" NCoef="0" IVar="-1" Cut="0.0000000000000000e+00" cType="1" res="3.3712405711412430e-02" rms="2.8497827053070068e-01" purity="7.7248197793960571e-01" nType="-99"/>
          </Node>
          <Node pos="r" depth="2" NCoef="0" IVar="-1" Cut="0.0000000000000000e+00" cType="1" res="-3.3018894493579865e-02" rms="1.4948756992816925e-01" purity="9.6342808008193970e-01" nType="-99"/>
        </Node>
        <Node pos="r" depth="1" NCoef="0" IVar="1" Cut="1.2102974951267242e-01" cType="1" res="-1.9664471037685871e-03" rms="1.8120911717414856e-01" purity="5.6154757738113403e-01" nType="0">
          <Node pos="l" depth="2" NCoef="0" IVar="7" Cut="3.3950082957744598e-02" cType="1" res="-4.4781924225389957e-03" rms="1.9127760827541351e-01" purity="4.2929893732070923e-01" nType="0">
            <Node pos="l" depth="3" NCoef="0" IVar="-1" Cut="0.0000000000000000e+00" cType="1" res="-2.5402098894119263e-02" rms="2.0430134236812592e-01" purity="4.9788379669189453e-01" nType="-99"/>
            <Node pos="r" depth="3" NCoef="0" IVar="-1" Cut="0.0000000000000000e+00" cType="1" res="-3.6212899722158909e-03" rms="1.8418642878532410e-01" purity="3.9424753189086914e-01" nType="-99"/>
          </Node>
          <Node pos="r" depth="2" NCoef="0" IVar="0" Cut="2.1963933105468750e+03" cType="1" res="3.7132992874830961e-03" rms="1.5591526031494141e-01" purity="8.6059808731079102e-01" nType="0">
            <Node pos="l" depth="3" NCoef="0" IVar="-1" Cut="0.0000000000000000e+00" cType="1" res="2.3975960910320282e-02" rms="3.0517527461051941e-01" purity="1.9623002409934998e-01" nType="-99"/>
            <Node pos="r" depth="3" NCoef="0" IVar="-1" Cut="0.0000000000000000e+00" cType="1" res="5.7394080795347691e-03" rms="1.0601238161325455e-01" purity="9.8622214794158936e-01" nType="-99"/>
          </Node>
        </Node>
      </Node>
    </BinaryTree>
    <BinaryTree type="DecisionTree" boostWeight="1.0000000000000000e+00" itree="316">
      <Node pos="s" depth="0" NCoef="0" IVar="2" Cut="5.4374713134765625e+02" cType="1" res="-3.0152703402563930e-04" rms="1.8125763535499573e-01" purity="4.9820017814636230e-01" nType="0">
        <Node pos="l" depth="1" NCoef="0" IVar="9" Cut="6.6827297210693359e-01" cType="1" res="-2.8585337568074465e-03" rms="1.8808418512344360e-01" purity="2.3017656803131104e-01" nType="0">
          <Node pos="l" depth="2" NCoef="0" IVar="1" Cut="1.1062651127576828e-01" cType="1" res="-1.9773146777879447e-04" rms="1.9228115677833557e-01" purity="2.5170463323593140e-01" nType="0">
            <Node pos="l" depth="3" NCoef="0" IVar="-1" Cut="0.0000000000000000e+00" cType="1" res="8.8439257815480232e-03" rms="1.8769295513629913e-01" purity="1.4555895328521729e-01" nType="-99"/>
            <Node pos="r" depth="3" NCoef="0" IVar="-1" Cut="0.0000000000000000e+00" cType="1" res="-2.1670052781701088e-02" rms="2.0449611544609070e-01" purity="5.5358147621154785e-01" nType="-99"/>
          </Node>
          <Node pos="r" depth="2" NCoef="0" IVar="0" Cut="1.9464234619140625e+03" cType="1" res="-9.2108231037855148e-03" rms="1.7750288546085358e-01" purity="1.7878130078315735e-01" nType="0">
            <Node pos="l" depth="3" NCoef="0" IVar="-1" Cut="0.0000000000000000e+00" cType="1" res="-1.3024262152612209e-02" rms="1.3160547614097595e-01" purity="2.2372186183929443e-02" nType="-99"/>
            <Node pos="r" depth="3" NCoef="0" IVar="-1" Cut="0.0000000000000000e+00" cType="1" res="-3.9205878973007202e-02" rms="2.8167122602462769e-01" purity="7.1342557668685913e-01" nType="-99"/>
          </Node>
        </Node>
        <Node pos="r" depth="1" NCoef="0" IVar="0" Cut="2.7315080566406250e+03" cType="1" res="1.9564297981560230e-03" rms="1.7497715353965759e-01" purity="7.3487758636474609e-01" nType="0">
          <Node pos="l" depth="2" NCoef="0" IVar="0" Cut="2.0340640869140625e+03" cType="1" res="6.9996938109397888e-03" rms="2.4284932017326355e-01" purity="2.7910903096199036e-01" nType="0">
            <Node pos="l" depth="3" NCoef="0" IVar="-1" Cut="0.0000000000000000e+00" cType="1" res="-4.8639059066772461e-02" rms="9.9168628454208374e-02" purity="1.1048884131014347e-02" nType="-99"/>
            <Node pos="r" depth="3" NCoef="0" IVar="-1" Cut="0.0000000000000000e+00" cType="1" res="2.1935719996690750e-02" rms="3.3198589086532593e-01" purity="5.6139457225799561e-01" nType="-99"/>
          </Node>
          <Node pos="r" depth="2" NCoef="0" IVar="5" Cut="1.5754196166992188e+02" cType="1" res="-6.9315446307882667e-04" rms="1.2529060244560242e-01" purity="9.7432518005371094e-01" nType="0">
            <Node pos="l" depth="3" NCoef="0" IVar="-1" Cut="0.0000000000000000e+00" cType="1" res="-1.7138957977294922e-02" rms="2.7627441287040710e-01" purity="8.2554441690444946e-01" nType="-99"/>
            <Node pos="r" depth="3" NCoef="0" IVar="-1" Cut="0.0000000000000000e+00" cType="1" res="2.3412727750837803e-03" rms="1.0381185263395309e-01" purity="9.8636966943740845e-01" nType="-99"/>
          </Node>
        </Node>
      </Node>
    </BinaryTree>
    <BinaryTree type="DecisionTree" boostWeight="1.0000000000000000e+00" itree="317">
      <Node pos="s" depth="0" NCoef="0" IVar="9" Cut="-1.3267496228218079e-01" cType="1" res="1.6208970919251442e-05" rms="1.7978022992610931e-01" purity="4.9543172121047974e-01" nType="0">
        <Node pos="l" depth="1" NCoef="0" IVar="10" Cut="1.4676851034164429e+00" cType="1" res="2.8614834882318974e-03" rms="1.8181988596916199e-01" purity="4.8159295320510864e-01" nType="0">
          <Node pos="l" depth="2" NCoef="0" IVar="11" Cut="-1.4626244306564331e+00" cType="1" res="4.2564440518617630e-03" rms="1.8028450012207031e-01" purity="5.0215184688568115e-01" nType="0">
            <Node pos="l" depth="3" NCoef="0" IVar="-1" Cut="0.0000000000000000e+00" cType="1" res="3.3499099314212799e-02" rms="2.0001560449600220e-01" purity="4.1520038247108459e-01" nType="-99"/>
            <Node pos="r" depth="3" NCoef="0" IVar="-1" Cut="0.0000000000000000e+00" cType="1" res="9.6569173038005829e-03" rms="1.7723403871059418e-01" purity="5.1465815305709839e-01" nType="-99"/>
          </Node>
          <Node pos="r" depth="2" NCoef="0" IVar="-1" Cut="0.0000000000000000e+00" cType="1" res="-2.5613760575652122e-02" rms="1.9611679017543793e-01" purity="2.7370011806488037e-01" nType="-99"/>
        </Node>
        <Node pos="r" depth="1" NCoef="0" IVar="1" Cut="7.7654823660850525e-02" cType="1" res="-2.3702925536781549e-03" rms="1.7801636457443237e-01" purity="5.0703907012939453e-01" nType="0">
          <Node pos="l" depth="2" NCoef="0" IVar="1" Cut="3.7056814879179001e-02" cType="1" res="1.3186876894906163e-03" rms="1.8510603904724121e-01" purity="3.0506005883216858e-01" nType="0">
            <Node pos="l" depth="3" NCoef="0" IVar="-1" Cut="0.0000000000000000e+00" cType="1" res="-1.2255786918103695e-02" rms="1.5907578170299530e-01" purity="1.5947467088699341e-01" nType="-99"/>
            <Node pos="r" depth="3" NCoef="0" IVar="-1" Cut="0.0000000000000000e+00" cType="1" res="1.6475386917591095e-02" rms="2.1463002264499664e-01" purity="4.9800398945808411e-01" nType="-99"/>
          </Node>
          <Node pos="r" depth="2" NCoef="0" IVar="5" Cut="2.4298469543457031e+02" cType="1" res="-6.8237334489822388e-03" rms="1.6895459592342377e-01" purity="7.5087398290634155e-01" nType="0">
            <Node pos="l" depth="3" NCoef="0" IVar="-1" Cut="0.0000000000000000e+00" cType="1" res="-3.0225802212953568e-02" rms="2.1750378608703613e-01" purity="5.2898359298706055e-01" nType="-99"/>
            <Node pos="r" depth="3" NCoef="0" IVar="-1" Cut="0.0000000000000000e+00" cType="1" res="1.2856548652052879e-02" rms="9.1574527323246002e-02" purity="9.8778682947158813e-01" nType="-99"/>
          </Node>
        </Node>
      </Node>
    </BinaryTree>
    <BinaryTree type="DecisionTree" boostWeight="1.0000000000000000e+00" itree="318">
      <Node pos="s" depth="0" NCoef="0" IVar="10" Cut="-1.1993846893310547e+00" cType="1" res="1.3429893879219890e-03" rms="1.7923296988010406e-01" purity="4.9839234352111816e-01" nType="0">
        <Node pos="l" depth="1" NCoef="0" IVar="1" Cut="5.5779222398996353e-02" cType="1" res="6.5213725902140141e-03" rms="1.9195219874382019e-01" purity="3.7954157590866089e-01" nType="0">
          <Node pos="l" depth="2" NCoef="0" IVar="1" Cut="2.9279571026563644e-02" cType="1" res="-1.9279309781268239e-03" rms="1.7607179284095764e-01" purity="1.5301725268363953e-01" nType="0">
            <Node pos="l" depth="3" NCoef="0" IVar="-1" Cut="0.0000000000000000e+00" cType="1" res="2.3560825735330582e-02" rms="1.5455034375190735e-01" purity="8.4198564291000366e-02" nType="-99"/>
            <Node pos="r" depth="3" NCoef="0" IVar="-1" Cut="0.0000000000000000e+00" cType="1" res="-2.6860168203711510e-02" rms="2.0527283847332001e-01" purity="2.6271033287048340e-01" nType="-99"/>
          </Node>
          <Node pos="r" depth="2" NCoef="0" IVar="0" Cut="2.2297968750000000e+03" cType="1" res="1.6063177958130836e-02" rms="2.0802409946918488e-01" purity="6.3535565137863159e-01" nType="0">
            <Node pos="l" depth="3" NCoef="0" IVar="-1" Cut="0.0000000000000000e+00" cType="1" res="4.8323020339012146e-02" rms="2.6438507437705994e-01" purity="1.5251156687736511e-01" nType="-99"/>
            <Node pos="r" depth="3" NCoef="0" IVar="-1" Cut="0.0000000000000000e+00" cType="1" res="2.3522254079580307e-02" rms="1.5780109167098999e-01" purity="9.6518272161483765e-01" nType="-99"/>
          </Node>
        </Node>
        <Node pos="r" depth="1" NCoef="0" IVar="10" Cut="1.2760605812072754e+00" cType="1" res="4.4885571696795523e-04" rms="1.7692889273166656e-01" purity="5.1891392469406128e-01" nType="0">
          <Node pos="l" depth="2" NCoef="0" IVar="9" Cut="-1.1990067958831787e+00" cType="1" res="-6.4608542015776038e-04" rms="1.7163915932178497e-01" purity="5.4878377914428711e-01" nType="0">
            <Node pos="l" depth="3" NCoef="0" IVar="-1" Cut="0.0000000000000000e+00" cType="1" res="2.1955603733658791e-02" rms="1.8963168561458588e-01" purity="3.2063165307044983e-01" nType="-99"/>
            <Node pos="r" depth="3" NCoef="0" IVar="-1" Cut="0.0000000000000000e+00" cType="1" res="-5.9828814119100571e-03" rms="1.6897712647914886e-01" purity="5.8023029565811157e-01" nType="-99"/>
          </Node>
          <Node pos="r" depth="2" NCoef="0" IVar="1" Cut="5.2835453301668167e-02" cType="1" res="6.5711634233593941e-03" rms="2.0388561487197876e-01" purity="3.5189813375473022e-01" nType="0">
            <Node pos="l" depth="3" NCoef="0" IVar="-1" Cut="0.0000000000000000e+00" cType="1" res="-2.2222509142011404e-03" rms="1.8558593094348907e-01" purity="1.4011014997959137e-01" nType="-99"/>
            <Node pos="r" depth="3" NCoef="0" IVar="-1" Cut="0.0000000000000000e+00" cType="1" res="2.8555706143379211e-02" rms="2.2274577617645264e-01" purity="5.9495514631271362e-01" nType="-99"/>
          </Node>
        </Node>
      </Node>
    </BinaryTree>
    <BinaryTree type="DecisionTree" boostWeight="1.0000000000000000e+00" itree="319">
      <Node pos="s" depth="0" NCoef="0" IVar="11" Cut="-6.6616141796112061e-01" cType="1" res="-3.4692281042225659e-04" rms="1.8100650608539581e-01" purity="5.0244587659835815e-01" nType="0">
        <Node pos="l" depth="1" NCoef="0" IVar="7" Cut="9.3819504976272583e-01" cType="1" res="-3.9212810806930065e-03" rms="1.8351244926452637e-01" purity="4.7006312012672424e-01" nType="0">
          <Node pos="l" depth="2" NCoef="0" IVar="8" Cut="-1.3674414157867432e-01" cType="1" res="-2.3345367517322302e-03" rms="1.8814329802989960e-01" purity="5.1080948114395142e-01" nType="0">
            <Node pos="l" depth="3" NCoef="0" IVar="-1" Cut="0.0000000000000000e+00" cType="1" res="-2.1130807697772980e-02" rms="1.8635675311088562e-01" purity="4.7207725048065186e-01" nType="-99"/>
            <Node pos="r" depth="3" NCoef="0" IVar="-1" Cut="0.0000000000000000e+00" cType="1" res="6.7078331485390663e-03" rms="1.8974216282367706e-01" purity="5.4836839437484741e-01" nType="-99"/>
          </Node>
          <Node pos="r" depth="2" NCoef="0" IVar="-1" Cut="0.0000000000000000e+00" cType="1" res="-4.5677639544010162e-02" rms="1.4789147675037384e-01" purity="1.9372849166393280e-01" nType="-99"/>
        </Node>
        <Node pos="r" depth="1" NCoef="0" IVar="9" Cut="4.0096166729927063e-01" cType="1" res="1.2321237009018660e-03" rms="1.7986570298671722e-01" purity="5.1675164699554443e-01" nType="0">
          <Node pos="l" depth="2" NCoef="0" IVar="8" Cut="-1.4668081998825073e+00" cType="1" res="3.2052225433290005e-03" rms="1.7680253088474274e-01" purity="5.5265885591506958e-01" nType="0">
            <Node pos="l" depth="3" NCoef="0" IVar="-1" Cut="0.0000000000000000e+00" cType="1" res="-4.8487208783626556e-02" rms="1.8742135167121887e-01" purity="1.3005100190639496e-01" nType="-99"/>
            <Node pos="r" depth="3" NCoef="0" IVar="-1" Cut="0.0000000000000000e+00" cType="1" res="1.3638162054121494e-02" rms="1.7605197429656982e-01" purity="5.7894283533096313e-01" nType="-99"/>
          </Node>
          <Node pos="r" depth="2" NCoef="0" IVar="10" Cut="1.4670419692993164e+00" cType="1" res="-2.1583950147032738e-03" rms="1.8496182560920715e-01" purity="4.5504960417747498e-01" nType="0">
            <Node pos="l" depth="3" NCoef="0" IVar="-1" Cut="0.0000000000000000e+00" cType="1" res="-8.5549795767292380e-04" rms="1.8440435826778412e-01" purity="4.8686870932579041e-01" nType="-99"/>
            <Node pos="r" depth="3" NCoef="0" IVar="-1" Cut="0.0000000000000000e+00" cType="1" res="-3.8097616285085678e-02" rms="1.8825876712799072e-01" purity="2.3507492244243622e-01" nType="-99"/>
          </Node>
        </Node>
      </Node>
    </BinaryTree>
    <BinaryTree type="DecisionTree" boostWeight="1.0000000000000000e+00" itree="320">
      <Node pos="s" depth="0" NCoef="0" IVar="8" Cut="6.6622978448867798e-01" cType="1" res="5.1946856547147036e-04" rms="1.7992430925369263e-01" purity="4.9862554669380188e-01" nType="0">
        <Node pos="l" depth="1" NCoef="0" IVar="4" Cut="1.9655262756347656e+02" cType="1" res="1.9810136873275042e-03" rms="1.7966647446155548e-01" purity="5.4218035936355591e-01" nType="0">
          <Node pos="l" depth="2" NCoef="0" IVar="4" Cut="1.6969499206542969e+02" cType="1" res="-3.4957374446094036e-03" rms="1.6101627051830292e-01" purity="6.6019684076309204e-02" nType="0">
            <Node pos="l" depth="3" NCoef="0" IVar="-1" Cut="0.0000000000000000e+00" cType="1" res="3.7347138859331608e-03" rms="1.4607451856136322e-01" purity="4.2183369398117065e-02" nType="-99"/>
            <Node pos="r" depth="3" NCoef="0" IVar="-1" Cut="0.0000000000000000e+00" cType="1" res="-3.2545838505029678e-02" rms="1.9342650473117828e-01" purity="1.2653832137584686e-01" nType="-99"/>
          </Node>
          <Node pos="r" depth="2" NCoef="0" IVar="9" Cut="-1.2001172304153442e+00" cType="1" res="4.5505207963287830e-03" rms="1.8772414326667786e-01" purity="7.6557886600494385e-01" nType="0">
            <Node pos="l" depth="3" NCoef="0" IVar="-1" Cut="0.0000000000000000e+00" cType="1" res="-1.6488712280988693e-02" rms="2.1963551640510559e-01" purity="5.4702430963516235e-01" nType="-99"/>
            <Node pos="r" depth="3" NCoef="0" IVar="-1" Cut="0.0000000000000000e+00" cType="1" res="1.6754308715462685e-02" rms="1.8393000960350037e-01" purity="7.8895074129104614e-01" nType="-99"/>
          </Node>
        </Node>
        <Node pos="r" depth="1" NCoef="0" IVar="9" Cut="-4.0062928199768066e-01" cType="1" res="-4.0467628277838230e-03" rms="1.8065133690834045e-01" purity="3.6254960298538208e-01" nType="0">
          <Node pos="l" depth="2" NCoef="0" IVar="4" Cut="1.9800942993164062e+02" cType="1" res="-1.0249303653836250e-02" rms="1.8693348765373230e-01" purity="3.2857570052146912e-01" nType="0">
            <Node pos="l" depth="3" NCoef="0" IVar="-1" Cut="0.0000000000000000e+00" cType="1" res="3.0599404126405716e-03" rms="1.5353330969810486e-01" purity="5.3682573139667511e-02" nType="-99"/>
            <Node pos="r" depth="3" NCoef="0" IVar="-1" Cut="0.0000000000000000e+00" cType="1" res="-3.7457179278135300e-02" rms="2.1102093160152435e-01" purity="5.6489062309265137e-01" nType="-99"/>
          </Node>
          <Node pos="r" depth="2" NCoef="0" IVar="8" Cut="9.7088259458541870e-01" cType="1" res="-6.5434718271717429e-04" rms="1.7702925205230713e-01" purity="3.8113132119178772e-01" nType="0">
            <Node pos="l" depth="3" NCoef="0" IVar="-1" Cut="0.0000000000000000e+00" cType="1" res="-2.7863144874572754e-02" rms="1.6621197760105133e-01" purity="5.3051632642745972e-01" nType="-99"/>
            <Node pos="r" depth="3" NCoef="0" IVar="-1" Cut="0.0000000000000000e+00" cType="1" res="9.8392050713300705e-03" rms="1.8239940702915192e-01" purity="3.0157217383384705e-01" nType="-99"/>
          </Node>
        </Node>
      </Node>
    </BinaryTree>
    <BinaryTree type="DecisionTree" boostWeight="1.0000000000000000e+00" itree="321">
      <Node pos="s" depth="0" NCoef="0" IVar="10" Cut="-1.9976519346237183e+00" cType="1" res="-4.2895768274320289e-05" rms="1.7894503474235535e-01" purity="5.0350791215896606e-01" nType="0">
        <Node pos="l" depth="1" NCoef="0" IVar="-1" Cut="0.0000000000000000e+00" cType="1" res="2.4696690961718559e-02" rms="2.1466214954853058e-01" purity="2.0522806048393250e-01" nType="-99"/>
        <Node pos="r" depth="1" NCoef="0" IVar="1" Cut="1.4111672341823578e-01" cType="1" res="-4.0766797610558569e-04" rms="1.7746841907501221e-01" purity="5.1459538936614990e-01" nType="0">
          <Node pos="l" depth="2" NCoef="0" IVar="3" Cut="4.1329559326171875e+02" cType="1" res="-1.4539754483848810e-03" rms="1.8399307131767273e-01" purity="4.2121163010597229e-01" nType="0">
            <Node pos="l" depth="3" NCoef="0" IVar="-1" Cut="0.0000000000000000e+00" cType="1" res="-8.7539311498403549e-03" rms="1.8353702127933502e-01" purity="1.8566255271434784e-01" nType="-99"/>
            <Node pos="r" depth="3" NCoef="0" IVar="-1" Cut="0.0000000000000000e+00" cType="1" res="5.1392368040978909e-03" rms="1.8481363356113434e-01" purity="8.6969143152236938e-01" nType="-99"/>
          </Node>
          <Node pos="r" depth="2" NCoef="0" IVar="0" Cut="2.4147028808593750e+03" cType="1" res="3.6373212933540344e-03" rms="1.4952224493026733e-01" purity="8.7561386823654175e-01" nType="0">
            <Node pos="l" depth="3" NCoef="0" IVar="-1" Cut="0.0000000000000000e+00" cType="1" res="2.3171551525592804e-02" rms="3.0339816212654114e-01" purity="3.6605173349380493e-01" nType="-99"/>
            <Node pos="r" depth="3" NCoef="0" IVar="-1" Cut="0.0000000000000000e+00" cType="1" res="-4.9336799420416355e-03" rms="7.9052299261093140e-02" purity="9.9277108907699585e-01" nType="-99"/>
          </Node>
        </Node>
      </Node>
    </BinaryTree>
    <BinaryTree type="DecisionTree" boostWeight="1.0000000000000000e+00" itree="322">
      <Node pos="s" depth="0" NCoef="0" IVar="7" Cut="1.2644902467727661e+00" cType="1" res="6.0936878435313702e-04" rms="1.8429704010486603e-01" purity="5.0018584728240967e-01" nType="0">
        <Node pos="l" depth="1" NCoef="0" IVar="11" Cut="-9.3228191137313843e-01" cType="1" res="-2.5606958661228418e-04" rms="1.8731041252613068e-01" purity="5.3120666742324829e-01" nType="0">
          <Node pos="l" depth="2" NCoef="0" IVar="7" Cut="-7.2503226995468140e-01" cType="1" res="5.1867226138710976e-03" rms="1.9603732228279114e-01" purity="4.8655435442924500e-01" nType="0">
            <Node pos="l" depth="3" NCoef="0" IVar="-1" Cut="0.0000000000000000e+00" cType="1" res="-1.8359489738941193e-02" rms="1.7591175436973572e-01" purity="2.3543776571750641e-01" nType="-99"/>
            <Node pos="r" depth="3" NCoef="0" IVar="-1" Cut="0.0000000000000000e+00" cType="1" res="2.2580524906516075e-02" rms="2.0230805873870850e-01" purity="5.7232117652893066e-01" nType="-99"/>
          </Node>
          <Node pos="r" depth="2" NCoef="0" IVar="4" Cut="2.4572888183593750e+02" cType="1" res="-1.9057353492826223e-03" rms="1.8455220758914948e-01" purity="5.4474043846130371e-01" nType="0">
            <Node pos="l" depth="3" NCoef="0" IVar="-1" Cut="0.0000000000000000e+00" cType="1" res="4.6668895520269871e-03" rms="1.9322626292705536e-01" purity="1.4374104142189026e-01" nType="-99"/>
            <Node pos="r" depth="3" NCoef="0" IVar="-1" Cut="0.0000000000000000e+00" cType="1" res="-1.6163116320967674e-02" rms="1.7683471739292145e-01" purity="8.8357770442962646e-01" nType="-99"/>
          </Node>
        </Node>
        <Node pos="r" depth="1" NCoef="0" IVar="8" Cut="-1.3632743060588837e-01" cType="1" res="1.1105745099484921e-02" rms="1.4235463738441467e-01" purity="1.2395256757736206e-01" nType="0">
          <Node pos="l" depth="2" NCoef="0" IVar="-1" Cut="0.0000000000000000e+00" cType="1" res="-9.2121353372931480e-03" rms="1.3752482831478119e-01" purity="8.3519503474235535e-02" nType="-99"/>
          <Node pos="r" depth="2" NCoef="0" IVar="-1" Cut="0.0000000000000000e+00" cType="1" res="8.5525542497634888e-02" rms="1.4554809033870697e-01" purity="1.5971359610557556e-01" nType="-99"/>
        </Node>
      </Node>
    </BinaryTree>
    <BinaryTree type="DecisionTree" boostWeight="1.0000000000000000e+00" itree="323">
      <Node pos="s" depth="0" NCoef="0" IVar="10" Cut="1.7330646514892578e+00" cType="1" res="1.8343169940635562e-03" rms="1.7983463406562805e-01" purity="4.9991095066070557e-01" nType="0">
        <Node pos="l" depth="1" NCoef="0" IVar="9" Cut="-4.0030869841575623e-01" cType="1" res="9.2696235515177250e-04" rms="1.7684620618820190e-01" purity="5.1331681013107300e-01" nType="0">
          <Node pos="l" depth="2" NCoef="0" IVar="10" Cut="-1.7201770544052124e+00" cType="1" res="-2.5315971579402685e-03" rms="1.7766202986240387e-01" purity="4.6345472335815430e-01" nType="0">
            <Node pos="l" depth="3" NCoef="0" IVar="-1" Cut="0.0000000000000000e+00" cType="1" res="3.1431347131729126e-02" rms="1.9697029888629913e-01" purity="2.2547039389610291e-01" nType="-99"/>
            <Node pos="r" depth="3" NCoef="0" IVar="-1" Cut="0.0000000000000000e+00" cType="1" res="-1.1207155883312225e-02" rms="1.7572104930877686e-01" purity="4.8548895120620728e-01" nType="-99"/>
          </Node>
          <Node pos="r" depth="2" NCoef="0" IVar="4" Cut="3.0831509399414062e+02" cType="1" res="2.8827444184571505e-03" rms="1.7635317146778107e-01" purity="5.4151332378387451e-01" nType="0">
            <Node pos="l" depth="3" NCoef="0" IVar="-1" Cut="0.0000000000000000e+00" cType="1" res="1.4369693584740162e-02" rms="2.0268243551254272e-01" purity="2.6488974690437317e-01" nType="-99"/>
            <Node pos="r" depth="3" NCoef="0" IVar="-1" Cut="0.0000000000000000e+00" cType="1" res="-7.7196154743432999e-03" rms="1.2704083323478699e-01" purity="9.5534944534301758e-01" nType="-99"/>
          </Node>
        </Node>
        <Node pos="r" depth="1" NCoef="0" IVar="8" Cut="1.3591858744621277e-01" cType="1" res="1.6741031780838966e-02" rms="2.2274735569953918e-01" purity="2.7966922521591187e-01" nType="0">
          <Node pos="l" depth="2" NCoef="0" IVar="-1" Cut="0.0000000000000000e+00" cType="1" res="8.3942030323669314e-04" rms="2.0727904140949249e-01" purity="2.5484481453895569e-01" nType="-99"/>
          <Node pos="r" depth="2" NCoef="0" IVar="-1" Cut="0.0000000000000000e+00" cType="1" res="7.6686985790729523e-02" rms="2.3617279529571533e-01" purity="3.0468919873237610e-01" nType="-99"/>
        </Node>
      </Node>
    </BinaryTree>
    <BinaryTree type="DecisionTree" boostWeight="1.0000000000000000e+00" itree="324">
      <Node pos="s" depth="0" NCoef="0" IVar="0" Cut="2.4650954589843750e+03" cType="1" res="-2.1873742807656527e-03" rms="1.8169648945331573e-01" purity="4.9198803305625916e-01" nType="0">
        <Node pos="l" depth="1" NCoef="0" IVar="3" Cut="4.3216207885742188e+02" cType="1" res="-5.9312386438250542e-03" rms="2.0255142450332642e-01" purity="1.0503065586090088e-01" nType="0">
          <Node pos="l" depth="2" NCoef="0" IVar="4" Cut="2.2824714660644531e+02" cType="1" res="-3.7885312922298908e-03" rms="1.9504703581333160e-01" purity="9.6177816390991211e-02" nType="0">
            <Node pos="l" depth="3" NCoef="0" IVar="-1" Cut="0.0000000000000000e+00" cType="1" res="-2.3350317496806383e-03" rms="1.5802848339080811e-01" purity="4.8637755215167999e-02" nType="-99"/>
            <Node pos="r" depth="3" NCoef="0" IVar="-1" Cut="0.0000000000000000e+00" cType="1" res="-1.7531603574752808e-02" rms="2.9558631777763367e-01" purity="2.7626761794090271e-01" nType="-99"/>
          </Node>
          <Node pos="r" depth="2" NCoef="0" IVar="-1" Cut="0.0000000000000000e+00" cType="1" res="-4.4070847332477570e-02" rms="2.9829990863800049e-01" purity="2.5125867128372192e-01" nType="-99"/>
        </Node>
        <Node pos="r" depth="1" NCoef="0" IVar="1" Cut="4.3592169880867004e-02" cType="1" res="2.3507685400545597e-03" rms="1.5252040326595306e-01" purity="9.6104025840759277e-01" nType="0">
          <Node pos="l" depth="2" NCoef="0" IVar="0" Cut="3.1118803710937500e+03" cType="1" res="1.5081881545484066e-02" rms="2.6447880268096924e-01" purity="8.4985667467117310e-01" nType="0">
            <Node pos="l" depth="3" NCoef="0" IVar="-1" Cut="0.0000000000000000e+00" cType="1" res="3.1611640006303787e-02" rms="3.3602201938629150e-01" purity="7.2728765010833740e-01" nType="-99"/>
            <Node pos="r" depth="3" NCoef="0" IVar="-1" Cut="0.0000000000000000e+00" cType="1" res="-1.8325274577364326e-03" rms="1.8757177889347076e-01" purity="9.4744074344635010e-01" nType="-99"/>
          </Node>
          <Node pos="r" depth="2" NCoef="0" IVar="7" Cut="2.8050044178962708e-01" cType="1" res="1.5508751675952226e-04" rms="1.2319846451282501e-01" purity="9.8021554946899414e-01" nType="0">
            <Node pos="l" depth="3" NCoef="0" IVar="-1" Cut="0.0000000000000000e+00" cType="1" res="-1.4863155782222748e-02" rms="1.2406514585018158e-01" purity="9.7938895225524902e-01" nType="-99"/>
            <Node pos="r" depth="3" NCoef="0" IVar="-1" Cut="0.0000000000000000e+00" cType="1" res="2.9823189601302147e-02" rms="1.2110879272222519e-01" purity="9.8203790187835693e-01" nType="-99"/>
          </Node>
        </Node>
      </Node>
    </BinaryTree>
    <BinaryTree type="DecisionTree" boostWeight="1.0000000000000000e+00" itree="325">
      <Node pos="s" depth="0" NCoef="0" IVar="11" Cut="1.4666348695755005e+00" cType="1" res="-4.6651225420646369e-04" rms="1.7901569604873657e-01" purity="5.0107067823410034e-01" nType="0">
        <Node pos="l" depth="1" NCoef="0" IVar="4" Cut="3.6312072753906250e+02" cType="1" res="-1.1737269815057516e-03" rms="1.7650733888149261e-01" purity="5.1303237676620483e-01" nType="0">
          <Node pos="l" depth="2" NCoef="0" IVar="9" Cut="4.0021517872810364e-01" cType="1" res="-2.7899621054530144e-03" rms="1.9690655171871185e-01" purity="3.3983385562896729e-01" nType="0">
            <Node pos="l" depth="3" NCoef="0" IVar="-1" Cut="0.0000000000000000e+00" cType="1" res="-1.3388225808739662e-02" rms="1.9227719306945801e-01" purity="3.3944725990295410e-01" nType="-99"/>
            <Node pos="r" depth="3" NCoef="0" IVar="-1" Cut="0.0000000000000000e+00" cType="1" res="3.5325677599757910e-03" rms="2.0515856146812439e-01" purity="3.4055167436599731e-01" nType="-99"/>
          </Node>
          <Node pos="r" depth="2" NCoef="0" IVar="10" Cut="-6.5890556573867798e-01" cType="1" res="3.1781385187059641e-03" rms="1.0304581373929977e-01" purity="9.7938561439514160e-01" nType="0">
            <Node pos="l" depth="3" NCoef="0" IVar="-1" Cut="0.0000000000000000e+00" cType="1" res="5.3013749420642853e-02" rms="1.0887601971626282e-01" purity="9.8431330919265747e-01" nType="-99"/>
            <Node pos="r" depth="3" NCoef="0" IVar="-1" Cut="0.0000000000000000e+00" cType="1" res="1.0925294831395149e-02" rms="1.0107807815074921e-01" purity="9.7783690690994263e-01" nType="-99"/>
          </Node>
        </Node>
        <Node pos="r" depth="1" NCoef="0" IVar="9" Cut="-3.9786639809608459e-01" cType="1" res="4.9787554889917374e-03" rms="1.9717872142791748e-01" purity="4.0897044539451599e-01" nType="0">
          <Node pos="l" depth="2" NCoef="0" IVar="-1" Cut="0.0000000000000000e+00" cType="1" res="3.9714328944683075e-02" rms="2.3078739643096924e-01" purity="4.0289372205734253e-01" nType="-99"/>
          <Node pos="r" depth="2" NCoef="0" IVar="10" Cut="-3.9311817288398743e-01" cType="1" res="-7.2723330231383443e-04" rms="1.7908279597759247e-01" purity="4.1180381178855896e-01" nType="0">
            <Node pos="l" depth="3" NCoef="0" IVar="-1" Cut="0.0000000000000000e+00" cType="1" res="-2.7229446917772293e-02" rms="1.8103411793708801e-01" purity="4.0597125887870789e-01" nType="-99"/>
            <Node pos="r" depth="3" NCoef="0" IVar="-1" Cut="0.0000000000000000e+00" cType="1" res="1.3410547748208046e-02" rms="1.7785255610942841e-01" purity="4.1459769010543823e-01" nType="-99"/>
          </Node>
        </Node>
      </Node>
    </BinaryTree>
    <BinaryTree type="DecisionTree" boostWeight="1.0000000000000000e+00" itree="326">
      <Node pos="s" depth="0" NCoef="0" IVar="1" Cut="6.5095886588096619e-02" cType="1" res="2.6818405603989959e-04" rms="1.8197838962078094e-01" purity="5.0743657350540161e-01" nType="0">
        <Node pos="l" depth="1" NCoef="0" IVar="4" Cut="3.6312072753906250e+02" cType="1" res="-2.2882048506289721e-03" rms="1.8375360965728760e-01" purity="2.5719907879829407e-01" nType="0">
          <Node pos="l" depth="2" NCoef="0" IVar="0" Cut="2.3753542480468750e+03" cType="1" res="-8.1165361916646361e-04" rms="1.8156832456588745e-01" purity="1.7050267755985260e-01" nType="0">
            <Node pos="l" depth="3" NCoef="0" IVar="-1" Cut="0.0000000000000000e+00" cType="1" res="-1.0470679029822350e-02" rms="1.5427452325820923e-01" purity="3.8738768547773361e-02" nType="-99"/>
            <Node pos="r" depth="3" NCoef="0" IVar="-1" Cut="0.0000000000000000e+00" cType="1" res="9.9440775811672211e-03" rms="2.7749326825141907e-01" purity="8.0486071109771729e-01" nType="-99"/>
          </Node>
          <Node pos="r" depth="2" NCoef="0" IVar="-1" Cut="0.0000000000000000e+00" cType="1" res="-4.0827710181474686e-02" rms="1.9946286082267761e-01" purity="9.2691236734390259e-01" nType="-99"/>
        </Node>
        <Node pos="r" depth="1" NCoef="0" IVar="0" Cut="2.3776264648437500e+03" cType="1" res="2.7449186891317368e-03" rms="1.8020720779895782e-01" purity="7.4987691640853882e-01" nType="0">
          <Node pos="l" depth="2" NCoef="0" IVar="3" Cut="3.5331246948242188e+02" cType="1" res="1.2005050666630268e-02" rms="2.7279257774353027e-01" purity="2.1457034349441528e-01" nType="0">
            <Node pos="l" depth="3" NCoef="0" IVar="-1" Cut="0.0000000000000000e+00" cType="1" res="7.9086543992161751e-03" rms="2.4460382759571075e-01" purity="1.5243004262447357e-01" nType="-99"/>
            <Node pos="r" depth="3" NCoef="0" IVar="-1" Cut="0.0000000000000000e+00" cType="1" res="3.2697446644306183e-02" rms="3.7265646457672119e-01" purity="4.9483358860015869e-01" nType="-99"/>
          </Node>
          <Node pos="r" depth="2" NCoef="0" IVar="6" Cut="1.1059395599365234e+02" cType="1" res="-1.2611824786290526e-03" rms="1.1948635429143906e-01" purity="9.8146027326583862e-01" nType="0">
            <Node pos="l" depth="3" NCoef="0" IVar="-1" Cut="0.0000000000000000e+00" cType="1" res="-3.4135755151510239e-02" rms="2.3260796070098877e-01" purity="9.0894603729248047e-01" nType="-99"/>
            <Node pos="r" depth="3" NCoef="0" IVar="-1" Cut="0.0000000000000000e+00" cType="1" res="2.7083614841103554e-03" rms="1.0167843848466873e-01" purity="9.8858171701431274e-01" nType="-99"/>
          </Node>
        </Node>
      </Node>
    </BinaryTree>
    <BinaryTree type="DecisionTree" boostWeight="1.0000000000000000e+00" itree="327">
      <Node pos="s" depth="0" NCoef="0" IVar="9" Cut="-6.6605526208877563e-01" cType="1" res="-8.2650443073362112e-04" rms="1.8142646551132202e-01" purity="5.0369727611541748e-01" nType="0">
        <Node pos="l" depth="1" NCoef="0" IVar="10" Cut="-1.4663791656494141e+00" cType="1" res="4.6332799829542637e-03" rms="1.8899789452552795e-01" purity="4.1752830147743225e-01" nType="0">
          <Node pos="l" depth="2" NCoef="0" IVar="-1" Cut="0.0000000000000000e+00" cType="1" res="6.2078606337308884e-02" rms="2.2501030564308167e-01" purity="2.9923975467681885e-01" nType="-99"/>
          <Node pos="r" depth="2" NCoef="0" IVar="6" Cut="9.1169685363769531e+01" cType="1" res="2.0409342832863331e-03" rms="1.8380184471607208e-01" purity="4.3241995573043823e-01" nType="0">
            <Node pos="l" depth="3" NCoef="0" IVar="-1" Cut="0.0000000000000000e+00" cType="1" res="-1.7333487048745155e-02" rms="1.4869065582752228e-01" purity="7.2061397135257721e-02" nType="-99"/>
            <Node pos="r" depth="3" NCoef="0" IVar="-1" Cut="0.0000000000000000e+00" cType="1" res="1.3147235848009586e-02" rms="2.0048774778842926e-01" purity="6.3136142492294312e-01" nType="-99"/>
          </Node>
        </Node>
        <Node pos="r" depth="1" NCoef="0" IVar="5" Cut="1.5273854064941406e+02" cType="1" res="-2.7645302470773458e-03" rms="1.7862160503864288e-01" purity="5.3428411483764648e-01" nType="0">
          <Node pos="l" depth="2" NCoef="0" IVar="7" Cut="-5.9539931826293468e-03" cType="1" res="9.7685120999813080e-04" rms="1.7726278305053711e-01" purity="1.0956461727619171e-01" nType="0">
            <Node pos="l" depth="3" NCoef="0" IVar="-1" Cut="0.0000000000000000e+00" cType="1" res="2.8479412198066711e-02" rms="1.9048030674457550e-01" purity="1.1403742432594299e-01" nType="-99"/>
            <Node pos="r" depth="3" NCoef="0" IVar="-1" Cut="0.0000000000000000e+00" cType="1" res="-2.0129291340708733e-02" rms="1.6392531991004944e-01" purity="1.0547340661287308e-01" nType="-99"/>
          </Node>
          <Node pos="r" depth="2" NCoef="0" IVar="0" Cut="2.8837272949218750e+03" cType="1" res="-5.1908092573285103e-03" rms="1.7945560812950134e-01" purity="8.0971390008926392e-01" nType="0">
            <Node pos="l" depth="3" NCoef="0" IVar="-1" Cut="0.0000000000000000e+00" cType="1" res="-1.7729725688695908e-02" rms="2.6244476437568665e-01" purity="5.3744292259216309e-01" nType="-99"/>
            <Node pos="r" depth="3" NCoef="0" IVar="-1" Cut="0.0000000000000000e+00" cType="1" res="-3.6450065672397614e-03" rms="8.8077835738658905e-02" purity="9.9076706171035767e-01" nType="-99"/>
          </Node>
        </Node>
      </Node>
    </BinaryTree>
    <BinaryTree type="DecisionTree" boostWeight="1.0000000000000000e+00" itree="328">
      <Node pos="s" depth="0" NCoef="0" IVar="11" Cut="1.9993711709976196e+00" cType="1" res="-7.9988630022853613e-04" rms="1.8322077393531799e-01" purity="4.9722689390182495e-01" nType="0">
        <Node pos="l" depth="1" NCoef="0" IVar="8" Cut="-6.6559052467346191e-01" cType="1" res="-4.1563820559531450e-05" rms="1.8217344582080841e-01" purity="5.0437796115875244e-01" nType="0">
          <Node pos="l" depth="2" NCoef="0" IVar="3" Cut="3.7004714965820312e+02" cType="1" res="-5.7410467416048050e-03" rms="1.9901831448078156e-01" purity="3.6809790134429932e-01" nType="0">
            <Node pos="l" depth="3" NCoef="0" IVar="-1" Cut="0.0000000000000000e+00" cType="1" res="5.8987489901483059e-03" rms="1.8511147797107697e-01" purity="1.4068111777305603e-01" nType="-99"/>
            <Node pos="r" depth="3" NCoef="0" IVar="-1" Cut="0.0000000000000000e+00" cType="1" res="-4.2209338396787643e-02" rms="2.1953289210796356e-01" purity="7.4480390548706055e-01" nType="-99"/>
          </Node>
          <Node pos="r" depth="2" NCoef="0" IVar="8" Cut="3.2458874583244324e-01" cType="1" res="1.7073282506316900e-03" rms="1.7664600908756256e-01" purity="5.4619562625885010e-01" nType="0">
            <Node pos="l" depth="3" NCoef="0" IVar="-1" Cut="0.0000000000000000e+00" cType="1" res="-8.6209463188424706e-04" rms="1.6677258908748627e-01" purity="6.2786173820495605e-01" nType="-99"/>
            <Node pos="r" depth="3" NCoef="0" IVar="-1" Cut="0.0000000000000000e+00" cType="1" res="1.1436019092798233e-02" rms="1.8705719709396362e-01" purity="4.5477232336997986e-01" nType="-99"/>
          </Node>
        </Node>
        <Node pos="r" depth="1" NCoef="0" IVar="-1" Cut="0.0000000000000000e+00" cType="1" res="-4.3310552835464478e-02" rms="2.0559743046760559e-01" purity="3.2840344309806824e-01" nType="-99"/>
      </Node>
    </BinaryTree>
    <BinaryTree type="DecisionTree" boostWeight="1.0000000000000000e+00" itree="329">
      <Node pos="s" depth="0" NCoef="0" IVar="10" Cut="9.3328458070755005e-01" cType="1" res="3.7818957935087383e-04" rms="1.8285092711448669e-01" purity="5.0107961893081665e-01" nType="0">
        <Node pos="l" depth="1" NCoef="0" IVar="10" Cut="-8.4395241737365723e-01" cType="1" res="-1.1590078938752413e-03" rms="1.7556715011596680e-01" purity="5.1689416170120239e-01" nType="0">
          <Node pos="l" depth="2" NCoef="0" IVar="3" Cut="5.1513439941406250e+02" cType="1" res="-5.5540082976222038e-03" rms="1.8667922914028168e-01" purity="4.0692561864852905e-01" nType="0">
            <Node pos="l" depth="3" NCoef="0" IVar="-1" Cut="0.0000000000000000e+00" cType="1" res="-2.1641692146658897e-02" rms="1.9219949841499329e-01" purity="2.9577708244323730e-01" nType="-99"/>
            <Node pos="r" depth="3" NCoef="0" IVar="-1" Cut="0.0000000000000000e+00" cType="1" res="2.6542069390416145e-02" rms="1.5725088119506836e-01" purity="9.3365001678466797e-01" nType="-99"/>
          </Node>
          <Node pos="r" depth="2" NCoef="0" IVar="9" Cut="-3.9877507090568542e-01" cType="1" res="7.8855507308617234e-04" rms="1.7037527263164520e-01" purity="5.6562465429306030e-01" nType="0">
            <Node pos="l" depth="3" NCoef="0" IVar="-1" Cut="0.0000000000000000e+00" cType="1" res="2.2190442308783531e-02" rms="1.7990499734878540e-01" purity="5.3473836183547974e-01" nType="-99"/>
            <Node pos="r" depth="3" NCoef="0" IVar="-1" Cut="0.0000000000000000e+00" cType="1" res="-8.6005125194787979e-03" rms="1.6500779986381531e-01" purity="5.8198744058609009e-01" nType="-99"/>
          </Node>
        </Node>
        <Node pos="r" depth="1" NCoef="0" IVar="11" Cut="4.0046566724777222e-01" cType="1" res="6.4320079982280731e-03" rms="2.0897310972213745e-01" purity="4.3879842758178711e-01" nType="0">
          <Node pos="l" depth="2" NCoef="0" IVar="3" Cut="2.8403439331054688e+02" cType="1" res="9.0492592426016927e-04" rms="1.9997338950634003e-01" purity="4.5700570940971375e-01" nType="0">
            <Node pos="l" depth="3" NCoef="0" IVar="-1" Cut="0.0000000000000000e+00" cType="1" res="-2.6843795552849770e-02" rms="1.7933933436870575e-01" purity="7.7711224555969238e-02" nType="-99"/>
            <Node pos="r" depth="3" NCoef="0" IVar="-1" Cut="0.0000000000000000e+00" cType="1" res="1.4924618415534496e-02" rms="2.1019151806831360e-01" purity="6.6422629356384277e-01" nType="-99"/>
          </Node>
          <Node pos="r" depth="2" NCoef="0" IVar="7" Cut="-8.0945715308189392e-03" cType="1" res="1.3995122164487839e-02" rms="2.2046980261802673e-01" purity="4.1388413310050964e-01" nType="0">
            <Node pos="l" depth="3" NCoef="0" IVar="-1" Cut="0.0000000000000000e+00" cType="1" res="5.8876197785139084e-02" rms="2.2440654039382935e-01" purity="4.4961175322532654e-01" nType="-99"/>
            <Node pos="r" depth="3" NCoef="0" IVar="-1" Cut="0.0000000000000000e+00" cType="1" res="1.4620696194469929e-02" rms="2.1755608916282654e-01" purity="3.9134952425956726e-01" nType="-99"/>
          </Node>
        </Node>
      </Node>
    </BinaryTree>
    <BinaryTree type="DecisionTree" boostWeight="1.0000000000000000e+00" itree="330">
      <Node pos="s" depth="0" NCoef="0" IVar="10" Cut="-1.4659709930419922e+00" cType="1" res="-2.6253043324686587e-04" rms="1.8072374165058136e-01" purity="5.0026005506515503e-01" nType="0">
        <Node pos="l" depth="1" NCoef="0" IVar="10" Cut="-1.6566243171691895e+00" cType="1" res="-1.0005379095673561e-02" rms="2.0706370472908020e-01" purity="3.3316347002983093e-01" nType="0">
          <Node pos="l" depth="2" NCoef="0" IVar="10" Cut="-2.0374753475189209e+00" cType="1" res="-1.9350271904841065e-03" rms="2.0572705566883087e-01" purity="2.9360601305961609e-01" nType="0">
            <Node pos="l" depth="3" NCoef="0" IVar="-1" Cut="0.0000000000000000e+00" cType="1" res="-2.8644490987062454e-02" rms="1.8277472257614136e-01" purity="1.9802041351795197e-01" nType="-99"/>
            <Node pos="r" depth="3" NCoef="0" IVar="-1" Cut="0.0000000000000000e+00" cType="1" res="1.4644001610577106e-02" rms="2.2248114645481110e-01" purity="3.7215533852577209e-01" nType="-99"/>
          </Node>
          <Node pos="r" depth="2" NCoef="0" IVar="-1" Cut="0.0000000000000000e+00" cType="1" res="-7.5507208704948425e-02" rms="2.0904505252838135e-01" purity="4.3587979674339294e-01" nType="-99"/>
        </Node>
        <Node pos="r" depth="1" NCoef="0" IVar="11" Cut="9.3379408121109009e-01" cType="1" res="7.4699171818792820e-04" rms="1.7774093151092529e-01" purity="5.1757407188415527e-01" nType="0">
          <Node pos="l" depth="2" NCoef="0" IVar="3" Cut="3.2899578857421875e+02" cType="1" res="2.2861913312226534e-03" rms="1.7381890118122101e-01" purity="5.3616195917129517e-01" nType="0">
            <Node pos="l" depth="3" NCoef="0" IVar="-1" Cut="0.0000000000000000e+00" cType="1" res="-3.1536892056465149e-03" rms="1.7583565413951874e-01" purity="1.2098210304975510e-01" nType="-99"/>
            <Node pos="r" depth="3" NCoef="0" IVar="-1" Cut="0.0000000000000000e+00" cType="1" res="1.4341410249471664e-02" rms="1.7236284911632538e-01" purity="8.2552611827850342e-01" nType="-99"/>
          </Node>
          <Node pos="r" depth="2" NCoef="0" IVar="1" Cut="7.9534597694873810e-02" cType="1" res="-4.2933570221066475e-03" rms="1.8993119895458221e-01" purity="4.5670515298843384e-01" nType="0">
            <Node pos="l" depth="3" NCoef="0" IVar="-1" Cut="0.0000000000000000e+00" cType="1" res="8.5030645132064819e-03" rms="1.9125907123088837e-01" purity="2.6655152440071106e-01" nType="-99"/>
            <Node pos="r" depth="3" NCoef="0" IVar="-1" Cut="0.0000000000000000e+00" cType="1" res="-3.8300268352031708e-02" rms="1.8779198825359344e-01" purity="6.9998067617416382e-01" nType="-99"/>
          </Node>
        </Node>
      </Node>
    </BinaryTree>
    <BinaryTree type="DecisionTree" boostWeight="1.0000000000000000e+00" itree="331">
      <Node pos="s" depth="0" NCoef="0" IVar="11" Cut="1.3403065502643585e-01" cType="1" res="8.3910749526694417e-04" rms="1.7979091405868530e-01" purity="5.0393366813659668e-01" nType="0">
        <Node pos="l" depth="1" NCoef="0" IVar="8" Cut="1.2726306915283203e-01" cType="1" res="-1.4734510332345963e-03" rms="1.7640945315361023e-01" purity="5.0312566757202148e-01" nType="0">
          <Node pos="l" depth="2" NCoef="0" IVar="11" Cut="-8.4342706203460693e-01" cType="1" res="-4.1169500909745693e-03" rms="1.7107963562011719e-01" purity="5.0134819746017456e-01" nType="0">
            <Node pos="l" depth="3" NCoef="0" IVar="-1" Cut="0.0000000000000000e+00" cType="1" res="3.5541532561182976e-03" rms="1.8467552959918976e-01" purity="4.6274825930595398e-01" nType="-99"/>
            <Node pos="r" depth="3" NCoef="0" IVar="-1" Cut="0.0000000000000000e+00" cType="1" res="-3.0878975987434387e-02" rms="1.5677703917026520e-01" purity="5.3834545612335205e-01" nType="-99"/>
          </Node>
          <Node pos="r" depth="2" NCoef="0" IVar="7" Cut="6.3894122838973999e-01" cType="1" res="2.2507316898554564e-03" rms="1.8359130620956421e-01" purity="5.0562965869903564e-01" nType="0">
            <Node pos="l" depth="3" NCoef="0" IVar="-1" Cut="0.0000000000000000e+00" cType="1" res="1.3549435883760452e-02" rms="1.8293437361717224e-01" purity="5.4342329502105713e-01" nType="-99"/>
            <Node pos="r" depth="3" NCoef="0" IVar="-1" Cut="0.0000000000000000e+00" cType="1" res="-1.8152961507439613e-02" rms="1.8589061498641968e-01" purity="3.5874015092849731e-01" nType="-99"/>
          </Node>
        </Node>
        <Node pos="r" depth="1" NCoef="0" IVar="1" Cut="7.6034463942050934e-02" cType="1" res="3.6568918731063604e-03" rms="1.8378774821758270e-01" purity="5.0491821765899658e-01" nType="0">
          <Node pos="l" depth="2" NCoef="0" IVar="1" Cut="1.0878426954150200e-02" cType="1" res="7.3589184321463108e-03" rms="1.9129049777984619e-01" purity="2.9585814476013184e-01" nType="0">
            <Node pos="l" depth="3" NCoef="0" IVar="-1" Cut="0.0000000000000000e+00" cType="1" res="-4.0885370224714279e-02" rms="1.1074978858232498e-01" purity="5.1997579634189606e-02" nType="-99"/>
            <Node pos="r" depth="3" NCoef="0" IVar="-1" Cut="0.0000000000000000e+00" cType="1" res="2.5666570290923119e-02" rms="2.0377856492996216e-01" purity="3.4582483768463135e-01" nType="-99"/>
          </Node>
          <Node pos="r" depth="2" NCoef="0" IVar="11" Cut="1.5288782119750977e+00" cType="1" res="-7.7534036245197058e-04" rms="1.7427763342857361e-01" purity="7.5521439313888550e-01" nType="0">
            <Node pos="l" depth="3" NCoef="0" IVar="-1" Cut="0.0000000000000000e+00" cType="1" res="7.4093393050134182e-03" rms="1.6542091965675354e-01" purity="7.7379941940307617e-01" nType="-99"/>
            <Node pos="r" depth="3" NCoef="0" IVar="-1" Cut="0.0000000000000000e+00" cType="1" res="-3.0846256762742996e-02" rms="2.0715270936489105e-01" purity="6.7661458253860474e-01" nType="-99"/>
          </Node>
        </Node>
      </Node>
    </BinaryTree>
    <BinaryTree type="DecisionTree" boostWeight="1.0000000000000000e+00" itree="332">
      <Node pos="s" depth="0" NCoef="0" IVar="10" Cut="1.9995774030685425e+00" cType="1" res="3.4599442733451724e-04" rms="1.8149577081203461e-01" purity="4.9773988127708435e-01" nType="0">
        <Node pos="l" depth="1" NCoef="0" IVar="2" Cut="4.2457714843750000e+02" cType="1" res="8.4918184438720345e-04" rms="1.8048347532749176e-01" purity="5.0953775644302368e-01" nType="0">
          <Node pos="l" depth="2" NCoef="0" IVar="0" Cut="1.9202214355468750e+03" cType="1" res="-3.2823139335960150e-03" rms="1.7275813221931458e-01" purity="1.0902253538370132e-01" nType="0">
            <Node pos="l" depth="3" NCoef="0" IVar="-1" Cut="0.0000000000000000e+00" cType="1" res="-5.7225739583373070e-03" rms="1.3606326282024384e-01" purity="2.1893257275223732e-02" nType="-99"/>
            <Node pos="r" depth="3" NCoef="0" IVar="-1" Cut="0.0000000000000000e+00" cType="1" res="-1.6407174989581108e-02" rms="3.2488718628883362e-01" purity="6.9300454854965210e-01" nType="-99"/>
          </Node>
          <Node pos="r" depth="2" NCoef="0" IVar="8" Cut="-1.1953381299972534e+00" cType="1" res="2.2397583816200495e-03" rms="1.8298934400081635e-01" purity="6.4434289932250977e-01" nType="0">
            <Node pos="l" depth="3" NCoef="0" IVar="-1" Cut="0.0000000000000000e+00" cType="1" res="3.5428054630756378e-02" rms="2.0944181084632874e-01" purity="2.9863885045051575e-01" nType="-99"/>
            <Node pos="r" depth="3" NCoef="0" IVar="-1" Cut="0.0000000000000000e+00" cType="1" res="3.3527149353176355e-03" rms="1.8040931224822998e-01" purity="6.7500507831573486e-01" nType="-99"/>
          </Node>
        </Node>
        <Node pos="r" depth="1" NCoef="0" IVar="-1" Cut="0.0000000000000000e+00" cType="1" res="-2.9566392302513123e-02" rms="2.0704287290573120e-01" purity="1.7170614004135132e-01" nType="-99"/>
      </Node>
    </BinaryTree>
    <BinaryTree type="DecisionTree" boostWeight="1.0000000000000000e+00" itree="333">
      <Node pos="s" depth="0" NCoef="0" IVar="2" Cut="1.1739420166015625e+03" cType="1" res="6.2924320809543133e-04" rms="1.8272812664508820e-01" purity="4.9499079585075378e-01" nType="0">
        <Node pos="l" depth="1" NCoef="0" IVar="1" Cut="5.9248823672533035e-02" cType="1" res="1.0413089767098427e-03" rms="1.8205848336219788e-01" purity="4.8437404632568359e-01" nType="0">
          <Node pos="l" depth="2" NCoef="0" IVar="1" Cut="5.0785474479198456e-02" cType="1" res="3.3448904287070036e-03" rms="1.8304325640201569e-01" purity="2.1806113421916962e-01" nType="0">
            <Node pos="l" depth="3" NCoef="0" IVar="-1" Cut="0.0000000000000000e+00" cType="1" res="6.4194030128419399e-03" rms="1.7716811597347260e-01" purity="1.9042681157588959e-01" nType="-99"/>
            <Node pos="r" depth="3" NCoef="0" IVar="-1" Cut="0.0000000000000000e+00" cType="1" res="3.3371876925230026e-02" rms="2.2538414597511292e-01" purity="4.4568109512329102e-01" nType="-99"/>
          </Node>
          <Node pos="r" depth="2" NCoef="0" IVar="2" Cut="3.8550018310546875e+02" cType="1" res="-9.8212528973817825e-04" rms="1.8116490542888641e-01" purity="7.1829956769943237e-01" nType="0">
            <Node pos="l" depth="3" NCoef="0" IVar="-1" Cut="0.0000000000000000e+00" cType="1" res="1.8748722970485687e-02" rms="2.1080397069454193e-01" purity="1.4981950819492340e-01" nType="-99"/>
            <Node pos="r" depth="3" NCoef="0" IVar="-1" Cut="0.0000000000000000e+00" cType="1" res="-8.0488212406635284e-03" rms="1.7555113136768341e-01" purity="8.1551718711853027e-01" nType="-99"/>
          </Node>
        </Node>
        <Node pos="r" depth="1" NCoef="0" IVar="-1" Cut="0.0000000000000000e+00" cType="1" res="-4.2542885988950729e-02" rms="2.0672677457332611e-01" purity="9.1293382644653320e-01" nType="-99"/>
      </Node>
    </BinaryTree>
    <BinaryTree type="DecisionTree" boostWeight="1.0000000000000000e+00" itree="334">
      <Node pos="s" depth="0" NCoef="0" IVar="11" Cut="-2.0001382827758789e+00" cType="1" res="-3.9991360972635448e-04" rms="1.8085950613021851e-01" purity="4.9887424707412720e-01" nType="0">
        <Node pos="l" depth="1" NCoef="0" IVar="-1" Cut="0.0000000000000000e+00" cType="1" res="2.3309223353862762e-02" rms="2.0172585546970367e-01" purity="2.8374180197715759e-01" nType="-99"/>
        <Node pos="r" depth="1" NCoef="0" IVar="1" Cut="7.9761512577533722e-02" cType="1" res="-8.6904590716585517e-04" rms="1.7978972196578979e-01" purity="5.0914108753204346e-01" nType="0">
          <Node pos="l" depth="2" NCoef="0" IVar="1" Cut="3.8037057965993881e-02" cType="1" res="-2.8611070010811090e-03" rms="1.8540443480014801e-01" purity="3.0017206072807312e-01" nType="0">
            <Node pos="l" depth="3" NCoef="0" IVar="-1" Cut="0.0000000000000000e+00" cType="1" res="2.8889749664813280e-03" rms="1.6998092830181122e-01" purity="1.6663208603858948e-01" nType="-99"/>
            <Node pos="r" depth="3" NCoef="0" IVar="-1" Cut="0.0000000000000000e+00" cType="1" res="-1.7312388867139816e-02" rms="2.0262520015239716e-01" purity="4.6388620138168335e-01" nType="-99"/>
          </Node>
          <Node pos="r" depth="2" NCoef="0" IVar="0" Cut="2.1398105468750000e+03" cType="1" res="1.7963845748454332e-03" rms="1.7195454239845276e-01" purity="7.8874719142913818e-01" nType="0">
            <Node pos="l" depth="3" NCoef="0" IVar="-1" Cut="0.0000000000000000e+00" cType="1" res="1.9179677590727806e-02" rms="2.5894185900688171e-01" purity="1.2143878638744354e-01" nType="-99"/>
            <Node pos="r" depth="3" NCoef="0" IVar="-1" Cut="0.0000000000000000e+00" cType="1" res="-5.0001102499663830e-03" rms="1.3884416222572327e-01" purity="9.7131484746932983e-01" nType="-99"/>
          </Node>
        </Node>
      </Node>
    </BinaryTree>
    <BinaryTree type="DecisionTree" boostWeight="1.0000000000000000e+00" itree="335">
      <Node pos="s" depth="0" NCoef="0" IVar="10" Cut="-1.7320338487625122e+00" cType="1" res="-2.0610115025192499e-03" rms="1.8054381012916565e-01" purity="4.9259701371192932e-01" nType="0">
        <Node pos="l" depth="1" NCoef="0" IVar="0" Cut="1.8448319091796875e+03" cType="1" res="-1.6627620905637741e-02" rms="2.0803824067115784e-01" purity="2.3649238049983978e-01" nType="0">
          <Node pos="l" depth="2" NCoef="0" IVar="-1" Cut="0.0000000000000000e+00" cType="1" res="-1.9426148384809494e-02" rms="1.1914743483066559e-01" purity="1.5065689571201801e-02" nType="-99"/>
          <Node pos="r" depth="2" NCoef="0" IVar="-1" Cut="0.0000000000000000e+00" cType="1" res="-4.7119006514549255e-02" rms="2.9033240675926208e-01" purity="5.5350399017333984e-01" nType="-99"/>
        </Node>
        <Node pos="r" depth="1" NCoef="0" IVar="11" Cut="-1.7319355010986328e+00" cType="1" res="-1.0979432845488191e-03" rms="1.7853501439094543e-01" purity="5.0952929258346558e-01" nType="0">
          <Node pos="l" depth="2" NCoef="0" IVar="5" Cut="1.3350784301757812e+02" cType="1" res="8.4271747618913651e-03" rms="2.0232772827148438e-01" purity="3.6536943912506104e-01" nType="0">
            <Node pos="l" depth="3" NCoef="0" IVar="-1" Cut="0.0000000000000000e+00" cType="1" res="-1.5579553321003914e-02" rms="1.5398539602756500e-01" purity="7.1026772260665894e-02" nType="-99"/>
            <Node pos="r" depth="3" NCoef="0" IVar="-1" Cut="0.0000000000000000e+00" cType="1" res="3.5600993782281876e-02" rms="2.3564046621322632e-01" purity="6.1915671825408936e-01" nType="-99"/>
          </Node>
          <Node pos="r" depth="2" NCoef="0" IVar="0" Cut="2.1988696289062500e+03" cType="1" res="-1.7943494021892548e-03" rms="1.7664965987205505e-01" purity="5.2006924152374268e-01" nType="0">
            <Node pos="l" depth="3" NCoef="0" IVar="-1" Cut="0.0000000000000000e+00" cType="1" res="2.5777358096092939e-03" rms="1.7509667575359344e-01" purity="5.3718741983175278e-02" nType="-99"/>
            <Node pos="r" depth="3" NCoef="0" IVar="-1" Cut="0.0000000000000000e+00" cType="1" res="-1.2786437757313251e-02" rms="1.7796385288238525e-01" purity="9.2757529020309448e-01" nType="-99"/>
          </Node>
        </Node>
      </Node>
    </BinaryTree>
    <BinaryTree type="DecisionTree" boostWeight="1.0000000000000000e+00" itree="336">
      <Node pos="s" depth="0" NCoef="0" IVar="6" Cut="7.9879669189453125e+01" cType="1" res="-3.3838461968116462e-04" rms="1.8408474326133728e-01" purity="4.9777758121490479e-01" nType="0">
        <Node pos="l" depth="1" NCoef="0" IVar="0" Cut="1.8506844482421875e+03" cType="1" res="6.2532890588045120e-03" rms="1.5881964564323425e-01" purity="8.4817200899124146e-02" nType="0">
          <Node pos="l" depth="2" NCoef="0" IVar="8" Cut="-6.6526067256927490e-01" cType="1" res="9.2517305165529251e-04" rms="8.1500582396984100e-02" purity="7.0489230565726757e-03" nType="0">
            <Node pos="l" depth="3" NCoef="0" IVar="-1" Cut="0.0000000000000000e+00" cType="1" res="1.0072796046733856e-01" rms="1.0309903323650360e-01" purity="1.1411225423216820e-02" nType="-99"/>
            <Node pos="r" depth="3" NCoef="0" IVar="-1" Cut="0.0000000000000000e+00" cType="1" res="-2.5341443717479706e-02" rms="6.7312166094779968e-02" purity="4.7580827958881855e-03" nType="-99"/>
          </Node>
          <Node pos="r" depth="2" NCoef="0" IVar="-1" Cut="0.0000000000000000e+00" cType="1" res="2.8509628027677536e-02" rms="2.9084944725036621e-01" purity="3.3490756154060364e-01" nType="-99"/>
        </Node>
        <Node pos="r" depth="1" NCoef="0" IVar="10" Cut="1.7329930067062378e+00" cType="1" res="-2.0263874903321266e-03" rms="1.8997836112976074e-01" purity="6.0352891683578491e-01" nType="0">
          <Node pos="l" depth="2" NCoef="0" IVar="11" Cut="1.1995937824249268e+00" cType="1" res="-1.0911716381087899e-03" rms="1.8705061078071594e-01" purity="6.2010616064071655e-01" nType="0">
            <Node pos="l" depth="3" NCoef="0" IVar="-1" Cut="0.0000000000000000e+00" cType="1" res="7.5358152389526367e-04" rms="1.8402743339538574e-01" purity="6.3338762521743774e-01" nType="-99"/>
            <Node pos="r" depth="3" NCoef="0" IVar="-1" Cut="0.0000000000000000e+00" cType="1" res="-1.9826695322990417e-02" rms="2.0297190546989441e-01" purity="5.4578870534896851e-01" nType="-99"/>
          </Node>
          <Node pos="r" depth="2" NCoef="0" IVar="-1" Cut="0.0000000000000000e+00" cType="1" res="-3.4602906554937363e-02" rms="2.3400472104549408e-01" purity="3.1911113858222961e-01" nType="-99"/>
        </Node>
      </Node>
    </BinaryTree>
    <BinaryTree type="DecisionTree" boostWeight="1.0000000000000000e+00" itree="337">
      <Node pos="s" depth="0" NCoef="0" IVar="10" Cut="-1.4659709930419922e+00" cType="1" res="-1.5333638293668628e-03" rms="1.8317249417304993e-01" purity="4.9682205915451050e-01" nType="0">
        <Node pos="l" depth="1" NCoef="0" IVar="6" Cut="1.0731357574462891e+02" cType="1" res="-1.6194542869925499e-02" rms="2.0059804618358612e-01" purity="2.9658704996109009e-01" nType="0">
          <Node pos="l" depth="2" NCoef="0" IVar="8" Cut="-1.3098955154418945e-01" cType="1" res="-4.3131667189300060e-03" rms="1.6905266046524048e-01" purity="8.9517123997211456e-02" nType="0">
            <Node pos="l" depth="3" NCoef="0" IVar="-1" Cut="0.0000000000000000e+00" cType="1" res="-3.1430881470441818e-02" rms="1.5763583779335022e-01" purity="7.6168239116668701e-02" nType="-99"/>
            <Node pos="r" depth="3" NCoef="0" IVar="-1" Cut="0.0000000000000000e+00" cType="1" res="5.2752060582861304e-04" rms="1.7874920368194580e-01" purity="1.0173773020505905e-01" nType="-99"/>
          </Node>
          <Node pos="r" depth="2" NCoef="0" IVar="-1" Cut="0.0000000000000000e+00" cType="1" res="-5.5529978126287460e-02" rms="2.3411214351654053e-01" purity="5.6265950202941895e-01" nType="-99"/>
        </Node>
        <Node pos="r" depth="1" NCoef="0" IVar="8" Cut="4.0170264244079590e-01" cType="1" res="5.3815754654351622e-05" rms="1.8111436069011688e-01" purity="5.1849895715713501e-01" nType="0">
          <Node pos="l" depth="2" NCoef="0" IVar="5" Cut="1.8786785888671875e+02" cType="1" res="1.9020901527255774e-03" rms="1.7901876568794250e-01" purity="5.5487567186355591e-01" nType="0">
            <Node pos="l" depth="3" NCoef="0" IVar="-1" Cut="0.0000000000000000e+00" cType="1" res="1.2175476178526878e-02" rms="1.9692704081535339e-01" purity="1.9727139174938202e-01" nType="-99"/>
            <Node pos="r" depth="3" NCoef="0" IVar="-1" Cut="0.0000000000000000e+00" cType="1" res="-3.0546905472874641e-03" rms="1.5930235385894775e-01" purity="9.0840065479278564e-01" nType="-99"/>
          </Node>
          <Node pos="r" depth="2" NCoef="0" IVar="9" Cut="6.6614389419555664e-01" cType="1" res="-3.6970160435885191e-03" rms="1.8523760139942169e-01" purity="4.4467720389366150e-01" nType="0">
            <Node pos="l" depth="3" NCoef="0" IVar="-1" Cut="0.0000000000000000e+00" cType="1" res="-2.6829184498637915e-03" rms="1.8605174124240875e-01" purity="4.8954278230667114e-01" nType="-99"/>
            <Node pos="r" depth="3" NCoef="0" IVar="-1" Cut="0.0000000000000000e+00" cType="1" res="-3.1529005616903305e-02" rms="1.8311761319637299e-01" purity="3.3801117539405823e-01" nType="-99"/>
          </Node>
        </Node>
      </Node>
    </BinaryTree>
    <BinaryTree type="DecisionTree" boostWeight="1.0000000000000000e+00" itree="338">
      <Node pos="s" depth="0" NCoef="0" IVar="10" Cut="-1.4654859304428101e+00" cType="1" res="3.0136381974443793e-04" rms="1.8025229871273041e-01" purity="4.9720409512519836e-01" nType="0">
        <Node pos="l" depth="1" NCoef="0" IVar="0" Cut="1.8191213378906250e+03" cType="1" res="9.2044873163104057e-03" rms="2.1147012710571289e-01" purity="3.2479134202003479e-01" nType="0">
          <Node pos="l" depth="2" NCoef="0" IVar="-1" Cut="0.0000000000000000e+00" cType="1" res="-3.8257811684161425e-03" rms="1.1762708425521851e-01" purity="1.4988770708441734e-02" nType="-99"/>
          <Node pos="r" depth="2" NCoef="0" IVar="-1" Cut="0.0000000000000000e+00" cType="1" res="2.7191283181309700e-02" rms="2.8019499778747559e-01" purity="6.6595441102981567e-01" nType="-99"/>
        </Node>
        <Node pos="r" depth="1" NCoef="0" IVar="2" Cut="6.8746276855468750e+02" cType="1" res="-6.0726248193532228e-04" rms="1.7673128843307495e-01" purity="5.1480001211166382e-01" nType="0">
          <Node pos="l" depth="2" NCoef="0" IVar="8" Cut="1.2007036209106445e+00" cType="1" res="-2.4352676700800657e-03" rms="1.8181520700454712e-01" purity="3.6568918824195862e-01" nType="0">
            <Node pos="l" depth="3" NCoef="0" IVar="-1" Cut="0.0000000000000000e+00" cType="1" res="-4.0718619711697102e-03" rms="1.8447685241699219e-01" purity="4.0020763874053955e-01" nType="-99"/>
            <Node pos="r" depth="3" NCoef="0" IVar="-1" Cut="0.0000000000000000e+00" cType="1" res="-2.9027989134192467e-02" rms="1.6268020868301392e-01" purity="1.3387233018875122e-01" nType="-99"/>
          </Node>
          <Node pos="r" depth="2" NCoef="0" IVar="3" Cut="3.1109674072265625e+02" cType="1" res="3.5381410270929337e-03" rms="1.6454645991325378e-01" purity="8.5294157266616821e-01" nType="0">
            <Node pos="l" depth="3" NCoef="0" IVar="-1" Cut="0.0000000000000000e+00" cType="1" res="3.9481163024902344e-02" rms="2.5170269608497620e-01" purity="3.2996499538421631e-01" nType="-99"/>
            <Node pos="r" depth="3" NCoef="0" IVar="-1" Cut="0.0000000000000000e+00" cType="1" res="4.5773084275424480e-03" rms="1.5006354451179504e-01" purity="9.1788864135742188e-01" nType="-99"/>
          </Node>
        </Node>
      </Node>
    </BinaryTree>
    <BinaryTree type="DecisionTree" boostWeight="1.0000000000000000e+00" itree="339">
      <Node pos="s" depth="0" NCoef="0" IVar="4" Cut="2.4355023193359375e+02" cType="1" res="-1.4580783899873495e-03" rms="1.7826053500175476e-01" purity="4.9918210506439209e-01" nType="0">
        <Node pos="l" depth="1" NCoef="0" IVar="4" Cut="2.1669308471679688e+02" cType="1" res="-4.1679684072732925e-03" rms="1.8085581064224243e-01" purity="1.2348926812410355e-01" nType="0">
          <Node pos="l" depth="2" NCoef="0" IVar="10" Cut="1.4665524959564209e+00" cType="1" res="-1.6644872957840562e-03" rms="1.6529783606529236e-01" purity="8.6380697786808014e-02" nType="0">
            <Node pos="l" depth="3" NCoef="0" IVar="-1" Cut="0.0000000000000000e+00" cType="1" res="-1.0396890342235565e-02" rms="1.6295704245567322e-01" purity="8.6934916675090790e-02" nType="-99"/>
            <Node pos="r" depth="3" NCoef="0" IVar="-1" Cut="0.0000000000000000e+00" cType="1" res="2.3671042174100876e-02" rms="1.7813204228878021e-01" purity="8.3141550421714783e-02" nType="-99"/>
          </Node>
          <Node pos="r" depth="2" NCoef="0" IVar="0" Cut="2.0259516601562500e+03" cType="1" res="-1.7502065747976303e-02" rms="2.4734947085380554e-01" purity="3.2113772630691528e-01" nType="0">
            <Node pos="l" depth="3" NCoef="0" IVar="-1" Cut="0.0000000000000000e+00" cType="1" res="-8.8581359013915062e-03" rms="1.9577814638614655e-01" purity="5.4028134793043137e-02" nType="-99"/>
            <Node pos="r" depth="3" NCoef="0" IVar="-1" Cut="0.0000000000000000e+00" cType="1" res="-4.1571572422981262e-02" rms="3.0398282408714294e-01" purity="6.9361829757690430e-01" nType="-99"/>
          </Node>
        </Node>
        <Node pos="r" depth="1" NCoef="0" IVar="3" Cut="3.0604882812500000e+02" cType="1" res="1.1973457876592875e-03" rms="1.7563967406749725e-01" purity="8.6732393503189087e-01" nType="0">
          <Node pos="l" depth="2" NCoef="0" IVar="-1" Cut="0.0000000000000000e+00" cType="1" res="-2.6565251871943474e-02" rms="2.6411619782447815e-01" purity="3.7402349710464478e-01" nType="-99"/>
          <Node pos="r" depth="2" NCoef="0" IVar="9" Cut="4.0471029281616211e-01" cType="1" res="2.4465380702167749e-03" rms="1.6801643371582031e-01" purity="9.0022259950637817e-01" nType="0">
            <Node pos="l" depth="3" NCoef="0" IVar="-1" Cut="0.0000000000000000e+00" cType="1" res="1.9499501213431358e-02" rms="1.6168577969074249e-01" purity="9.1370069980621338e-01" nType="-99"/>
            <Node pos="r" depth="3" NCoef="0" IVar="-1" Cut="0.0000000000000000e+00" cType="1" res="-1.3501513749361038e-02" rms="1.8064281344413757e-01" purity="8.7131154537200928e-01" nType="-99"/>
          </Node>
        </Node>
      </Node>
    </BinaryTree>
    <BinaryTree type="DecisionTree" boostWeight="1.0000000000000000e+00" itree="340">
      <Node pos="s" depth="0" NCoef="0" IVar="7" Cut="7.4687755107879639e-01" cType="1" res="-5.8825645828619599e-04" rms="1.8006651103496552e-01" purity="4.9677079916000366e-01" nType="0">
        <Node pos="l" depth="1" NCoef="0" IVar="7" Cut="-4.5872926712036133e-02" cType="1" res="-1.9834570121020079e-03" rms="1.7993457615375519e-01" purity="5.4759120941162109e-01" nType="0">
          <Node pos="l" depth="2" NCoef="0" IVar="3" Cut="2.5539028930664062e+02" cType="1" res="5.9917930047959089e-04" rms="1.7944863438606262e-01" purity="4.9977368116378784e-01" nType="0">
            <Node pos="l" depth="3" NCoef="0" IVar="-1" Cut="0.0000000000000000e+00" cType="1" res="-3.2766483724117279e-02" rms="1.3615047931671143e-01" purity="4.9315925687551498e-02" nType="-99"/>
            <Node pos="r" depth="3" NCoef="0" IVar="-1" Cut="0.0000000000000000e+00" cType="1" res="8.5702240467071533e-03" rms="1.9150568544864655e-01" purity="6.4816862344741821e-01" nType="-99"/>
          </Node>
          <Node pos="r" depth="2" NCoef="0" IVar="10" Cut="1.4664129018783569e+00" cType="1" res="-5.5966018699109554e-03" rms="1.8055024743080139e-01" purity="6.1448854207992554e-01" nType="0">
            <Node pos="l" depth="3" NCoef="0" IVar="-1" Cut="0.0000000000000000e+00" cType="1" res="-2.3260364308953285e-02" rms="1.7507760226726532e-01" purity="6.2713235616683960e-01" nType="-99"/>
            <Node pos="r" depth="3" NCoef="0" IVar="-1" Cut="0.0000000000000000e+00" cType="1" res="2.8172789141535759e-02" rms="2.3020035028457642e-01" purity="4.7929656505584717e-01" nType="-99"/>
          </Node>
        </Node>
        <Node pos="r" depth="1" NCoef="0" IVar="10" Cut="4.0020588040351868e-01" cType="1" res="5.1883030682802200e-03" rms="1.8049696087837219e-01" purity="2.8635862469673157e-01" nType="0">
          <Node pos="l" depth="2" NCoef="0" IVar="7" Cut="1.2347335815429688e+00" cType="1" res="1.1599319986999035e-02" rms="1.8654762208461761e-01" purity="3.1348887085914612e-01" nType="0">
            <Node pos="l" depth="3" NCoef="0" IVar="-1" Cut="0.0000000000000000e+00" cType="1" res="5.1978863775730133e-02" rms="2.0359091460704803e-01" purity="4.5192548632621765e-01" nType="-99"/>
            <Node pos="r" depth="3" NCoef="0" IVar="-1" Cut="0.0000000000000000e+00" cType="1" res="-8.3467742661014199e-04" rms="1.5939712524414062e-01" purity="1.2293895334005356e-01" nType="-99"/>
          </Node>
          <Node pos="r" depth="2" NCoef="0" IVar="2" Cut="5.5562481689453125e+02" cType="1" res="-3.9488151669502258e-03" rms="1.7109024524688721e-01" purity="2.4769203364849091e-01" nType="0">
            <Node pos="l" depth="3" NCoef="0" IVar="-1" Cut="0.0000000000000000e+00" cType="1" res="-2.3939542006701231e-03" rms="1.5891616046428680e-01" purity="1.4407037198543549e-01" nType="-99"/>
            <Node pos="r" depth="3" NCoef="0" IVar="-1" Cut="0.0000000000000000e+00" cType="1" res="-2.8449775651097298e-02" rms="1.9353099167346954e-01" purity="4.6041172742843628e-01" nType="-99"/>
          </Node>
        </Node>
      </Node>
    </BinaryTree>
    <BinaryTree type="DecisionTree" boostWeight="1.0000000000000000e+00" itree="341">
      <Node pos="s" depth="0" NCoef="0" IVar="9" Cut="-6.6351360082626343e-01" cType="1" res="1.4061484253033996e-03" rms="1.8393768370151520e-01" purity="4.9802619218826294e-01" nType="0">
        <Node pos="l" depth="1" NCoef="0" IVar="1" Cut="1.8884707242250443e-02" cType="1" res="-3.6265936214476824e-03" rms="1.9366459548473358e-01" purity="4.0615743398666382e-01" nType="0">
          <Node pos="l" depth="2" NCoef="0" IVar="9" Cut="-1.3738899230957031e+00" cType="1" res="8.5430303588509560e-03" rms="1.5283466875553131e-01" purity="8.2059308886528015e-02" nType="0">
            <Node pos="l" depth="3" NCoef="0" IVar="-1" Cut="0.0000000000000000e+00" cType="1" res="2.0703339949250221e-02" rms="1.3960161805152893e-01" purity="4.8089351505041122e-02" nType="-99"/>
            <Node pos="r" depth="3" NCoef="0" IVar="-1" Cut="0.0000000000000000e+00" cType="1" res="4.7089803963899612e-02" rms="1.6508714854717255e-01" purity="1.1665765941143036e-01" nType="-99"/>
          </Node>
          <Node pos="r" depth="2" NCoef="0" IVar="8" Cut="8.7854641675949097e-01" cType="1" res="-6.4806551672518253e-03" rms="2.0194312930107117e-01" purity="4.8216602206230164e-01" nType="0">
            <Node pos="l" depth="3" NCoef="0" IVar="-1" Cut="0.0000000000000000e+00" cType="1" res="-2.4823144078254700e-02" rms="2.0051243901252747e-01" purity="5.0045835971832275e-01" nType="-99"/>
            <Node pos="r" depth="3" NCoef="0" IVar="-1" Cut="0.0000000000000000e+00" cType="1" res="3.0015731230378151e-02" rms="2.0921784639358521e-01" purity="3.7359431385993958e-01" nType="-99"/>
          </Node>
        </Node>
        <Node pos="r" depth="1" NCoef="0" IVar="8" Cut="-1.1954963207244873e+00" cType="1" res="3.2516631763428450e-03" rms="1.8020409345626831e-01" purity="5.3171467781066895e-01" nType="0">
          <Node pos="l" depth="2" NCoef="0" IVar="10" Cut="-1.3393695652484894e-01" cType="1" res="-7.3272371664643288e-03" rms="1.7239443957805634e-01" purity="1.7763881385326385e-01" nType="0">
            <Node pos="l" depth="3" NCoef="0" IVar="-1" Cut="0.0000000000000000e+00" cType="1" res="4.7493730671703815e-03" rms="1.5784382820129395e-01" purity="1.7133870720863342e-01" nType="-99"/>
            <Node pos="r" depth="3" NCoef="0" IVar="-1" Cut="0.0000000000000000e+00" cType="1" res="-4.7371316701173782e-02" rms="1.8579219281673431e-01" purity="1.8413999676704407e-01" nType="-99"/>
          </Node>
          <Node pos="r" depth="2" NCoef="0" IVar="3" Cut="2.0599594116210938e+02" cType="1" res="4.4041140936315060e-03" rms="1.8099717795848846e-01" purity="5.7028716802597046e-01" nType="0">
            <Node pos="l" depth="3" NCoef="0" IVar="-1" Cut="0.0000000000000000e+00" cType="1" res="-3.4926209598779678e-02" rms="9.7728595137596130e-02" purity="1.6914013773202896e-02" nType="-99"/>
            <Node pos="r" depth="3" NCoef="0" IVar="-1" Cut="0.0000000000000000e+00" cType="1" res="1.5690330415964127e-02" rms="1.8785676360130310e-01" purity="6.3089066743850708e-01" nType="-99"/>
          </Node>
        </Node>
      </Node>
    </BinaryTree>
    <BinaryTree type="DecisionTree" boostWeight="1.0000000000000000e+00" itree="342">
      <Node pos="s" depth="0" NCoef="0" IVar="0" Cut="2.3649755859375000e+03" cType="1" res="1.8482087180018425e-03" rms="1.8558962643146515e-01" purity="5.0544780492782593e-01" nType="0">
        <Node pos="l" depth="1" NCoef="0" IVar="6" Cut="1.5269482421875000e+02" cType="1" res="4.6903425827622414e-03" rms="2.0140509307384491e-01" purity="9.2931665480136871e-02" nType="0">
          <Node pos="l" depth="2" NCoef="0" IVar="11" Cut="-1.4669005870819092e+00" cType="1" res="3.2315920107066631e-03" rms="1.8710592389106750e-01" purity="6.8263173103332520e-02" nType="0">
            <Node pos="l" depth="3" NCoef="0" IVar="-1" Cut="0.0000000000000000e+00" cType="1" res="-1.6897847875952721e-02" rms="1.8378369510173798e-01" purity="6.6419184207916260e-02" nType="-99"/>
            <Node pos="r" depth="3" NCoef="0" IVar="-1" Cut="0.0000000000000000e+00" cType="1" res="1.4528609812259674e-02" rms="1.8762318789958954e-01" purity="6.8580463528633118e-02" nType="-99"/>
          </Node>
          <Node pos="r" depth="2" NCoef="0" IVar="-1" Cut="0.0000000000000000e+00" cType="1" res="2.0825957879424095e-02" rms="3.5055643320083618e-01" purity="4.6073770523071289e-01" nType="-99"/>
        </Node>
        <Node pos="r" depth="1" NCoef="0" IVar="2" Cut="1.1416595458984375e+03" cType="1" res="-1.2010793434455991e-03" rms="1.6690997779369354e-01" purity="9.4803094863891602e-01" nType="0">
          <Node pos="l" depth="2" NCoef="0" IVar="8" Cut="9.2513298988342285e-01" cType="1" res="-1.4847995771560818e-04" rms="1.6321542859077454e-01" purity="9.5113563537597656e-01" nType="0">
            <Node pos="l" depth="3" NCoef="0" IVar="-1" Cut="0.0000000000000000e+00" cType="1" res="5.4578646086156368e-03" rms="1.5495461225509644e-01" purity="9.5688349008560181e-01" nType="-99"/>
            <Node pos="r" depth="3" NCoef="0" IVar="-1" Cut="0.0000000000000000e+00" cType="1" res="-3.0963178724050522e-02" rms="2.2672666609287262e-01" purity="8.9649766683578491e-01" nType="-99"/>
          </Node>
          <Node pos="r" depth="2" NCoef="0" IVar="-1" Cut="0.0000000000000000e+00" cType="1" res="-4.8168502748012543e-02" rms="2.1858513355255127e-01" purity="8.9649987220764160e-01" nType="-99"/>
        </Node>
      </Node>
    </BinaryTree>
    <BinaryTree type="DecisionTree" boostWeight="1.0000000000000000e+00" itree="343">
      <Node pos="s" depth="0" NCoef="0" IVar="6" Cut="1.0435879516601562e+02" cType="1" res="1.9164144759997725e-03" rms="1.7947115004062653e-01" purity="4.9336767196655273e-01" nType="0">
        <Node pos="l" depth="1" NCoef="0" IVar="0" Cut="2.1314873046875000e+03" cType="1" res="-1.1070548789575696e-03" rms="1.7286798357963562e-01" purity="1.1957853287458420e-01" nType="0">
          <Node pos="l" depth="2" NCoef="0" IVar="3" Cut="3.5627709960937500e+02" cType="1" res="1.0583874536678195e-03" rms="1.2879751622676849e-01" purity="2.0649207755923271e-02" nType="0">
            <Node pos="l" depth="3" NCoef="0" IVar="-1" Cut="0.0000000000000000e+00" cType="1" res="-1.0013635037466884e-03" rms="1.1529078334569931e-01" purity="1.5975447371602058e-02" nType="-99"/>
            <Node pos="r" depth="3" NCoef="0" IVar="-1" Cut="0.0000000000000000e+00" cType="1" res="2.8188509866595268e-02" rms="2.0339705049991608e-01" purity="5.5910583585500717e-02" nType="-99"/>
          </Node>
          <Node pos="r" depth="2" NCoef="0" IVar="5" Cut="1.3573287963867188e+02" cType="1" res="-1.2350562028586864e-02" rms="3.1426274776458740e-01" purity="6.3324385881423950e-01" nType="0">
            <Node pos="l" depth="3" NCoef="0" IVar="-1" Cut="0.0000000000000000e+00" cType="1" res="-2.4588370695710182e-02" rms="3.3370813727378845e-01" purity="4.1942468285560608e-01" nType="-99"/>
            <Node pos="r" depth="3" NCoef="0" IVar="-1" Cut="0.0000000000000000e+00" cType="1" res="3.8698347634635866e-04" rms="2.9859906435012817e-01" purity="7.8968554735183716e-01" nType="-99"/>
          </Node>
        </Node>
        <Node pos="r" depth="1" NCoef="0" IVar="0" Cut="2.4651672363281250e+03" cType="1" res="4.0059471502900124e-03" rms="1.8386708199977875e-01" purity="7.5169491767883301e-01" nType="0">
          <Node pos="l" depth="2" NCoef="0" IVar="3" Cut="3.6047702026367188e+02" cType="1" res="1.1155766434967518e-02" rms="2.7273043990135193e-01" purity="2.5699627399444580e-01" nType="0">
            <Node pos="l" depth="3" NCoef="0" IVar="-1" Cut="0.0000000000000000e+00" cType="1" res="4.1036675684154034e-03" rms="2.5030580163002014e-01" purity="1.8021190166473389e-01" nType="-99"/>
            <Node pos="r" depth="3" NCoef="0" IVar="-1" Cut="0.0000000000000000e+00" cType="1" res="3.6306735128164291e-02" rms="3.5041508078575134e-01" purity="5.8442336320877075e-01" nType="-99"/>
          </Node>
          <Node pos="r" depth="2" NCoef="0" IVar="3" Cut="6.8085321044921875e+02" cType="1" res="7.1817549178376794e-04" rms="1.2294260412454605e-01" purity="9.7917711734771729e-01" nType="0">
            <Node pos="l" depth="3" NCoef="0" IVar="-1" Cut="0.0000000000000000e+00" cType="1" res="-6.7817065864801407e-03" rms="1.3372701406478882e-01" purity="9.7582548856735229e-01" nType="-99"/>
            <Node pos="r" depth="3" NCoef="0" IVar="-1" Cut="0.0000000000000000e+00" cType="1" res="1.2426883727312088e-01" rms="-nan" purity="1.0008527040481567e+00" nType="-99"/>
          </Node>
        </Node>
      </Node>
    </BinaryTree>
    <BinaryTree type="DecisionTree" boostWeight="1.0000000000000000e+00" itree="344">
      <Node pos="s" depth="0" NCoef="0" IVar="5" Cut="1.2142406463623047e+02" cType="1" res="-1.7362628132104874e-03" rms="1.8102630972862244e-01" purity="5.0299525260925293e-01" nType="0">
        <Node pos="l" depth="1" NCoef="0" IVar="3" Cut="3.9339715576171875e+02" cType="1" res="3.8766229990869761e-03" rms="1.5698592364788055e-01" purity="5.8804530650377274e-02" nType="0">
          <Node pos="l" depth="2" NCoef="0" IVar="11" Cut="-1.4635467529296875e+00" cType="1" res="1.6637550434097648e-03" rms="1.2675264477729797e-01" purity="2.5742862373590469e-02" nType="0">
            <Node pos="l" depth="3" NCoef="0" IVar="-1" Cut="0.0000000000000000e+00" cType="1" res="7.4109189212322235e-02" rms="1.6916671395301819e-01" purity="4.4696848839521408e-02" nType="-99"/>
            <Node pos="r" depth="3" NCoef="0" IVar="-1" Cut="0.0000000000000000e+00" cType="1" res="-2.8096216265112162e-03" rms="1.1812926828861237e-01" purity="2.2598948329687119e-02" nType="-99"/>
          </Node>
          <Node pos="r" depth="2" NCoef="0" IVar="-1" Cut="0.0000000000000000e+00" cType="1" res="2.6038471609354019e-02" rms="2.8496649861335754e-01" purity="2.7774930000305176e-01" nType="-99"/>
        </Node>
        <Node pos="r" depth="1" NCoef="0" IVar="1" Cut="8.5719361901283264e-02" cType="1" res="-3.7069898098707199e-03" rms="1.8870258331298828e-01" purity="6.5895402431488037e-01" nType="0">
          <Node pos="l" depth="2" NCoef="0" IVar="11" Cut="-1.7335697412490845e+00" cType="1" res="-8.0297039821743965e-03" rms="2.0932848751544952e-01" purity="4.7437784075737000e-01" nType="0">
            <Node pos="l" depth="3" NCoef="0" IVar="-1" Cut="0.0000000000000000e+00" cType="1" res="-5.8149889111518860e-02" rms="2.1332551538944244e-01" purity="3.2532340288162231e-01" nType="-99"/>
            <Node pos="r" depth="3" NCoef="0" IVar="-1" Cut="0.0000000000000000e+00" cType="1" res="-1.3145072385668755e-02" rms="2.0891189575195312e-01" purity="4.8545300960540771e-01" nType="-99"/>
          </Node>
          <Node pos="r" depth="2" NCoef="0" IVar="0" Cut="2.3776396484375000e+03" cType="1" res="6.5330759389325976e-04" rms="1.6519586741924286e-01" purity="8.4513491392135620e-01" nType="0">
            <Node pos="l" depth="3" NCoef="0" IVar="-1" Cut="0.0000000000000000e+00" cType="1" res="9.4497418031096458e-03" rms="2.9181608557701111e-01" purity="3.1582790613174438e-01" nType="-99"/>
            <Node pos="r" depth="3" NCoef="0" IVar="-1" Cut="0.0000000000000000e+00" cType="1" res="-1.3350300490856171e-02" rms="1.0854589194059372e-01" purity="9.8679119348526001e-01" nType="-99"/>
          </Node>
        </Node>
      </Node>
    </BinaryTree>
    <BinaryTree type="DecisionTree" boostWeight="1.0000000000000000e+00" itree="345">
      <Node pos="s" depth="0" NCoef="0" IVar="11" Cut="9.3383556604385376e-01" cType="1" res="3.5645160824060440e-04" rms="1.7975801229476929e-01" purity="5.0120502710342407e-01" nType="0">
        <Node pos="l" depth="1" NCoef="0" IVar="10" Cut="-9.3451476097106934e-01" cType="1" res="-1.0613182093948126e-03" rms="1.7847317457199097e-01" purity="5.2023088932037354e-01" nType="0">
          <Node pos="l" depth="2" NCoef="0" IVar="11" Cut="-3.0829373002052307e-01" cType="1" res="3.8632769137620926e-03" rms="1.9657380878925323e-01" purity="4.1883951425552368e-01" nType="0">
            <Node pos="l" depth="3" NCoef="0" IVar="-1" Cut="0.0000000000000000e+00" cType="1" res="2.6656575500965118e-02" rms="2.0442323386669159e-01" purity="3.9190024137496948e-01" nType="-99"/>
            <Node pos="r" depth="3" NCoef="0" IVar="-1" Cut="0.0000000000000000e+00" cType="1" res="-1.0553473606705666e-02" rms="1.8475151062011719e-01" purity="4.5650392770767212e-01" nType="-99"/>
          </Node>
          <Node pos="r" depth="2" NCoef="0" IVar="0" Cut="2.6325856933593750e+03" cType="1" res="-2.4382895790040493e-03" rms="1.7304863035678864e-01" purity="5.4858106374740601e-01" nType="0">
            <Node pos="l" depth="3" NCoef="0" IVar="-1" Cut="0.0000000000000000e+00" cType="1" res="-1.1457164771854877e-02" rms="2.0871566236019135e-01" purity="1.6237258911132812e-01" nType="-99"/>
            <Node pos="r" depth="3" NCoef="0" IVar="-1" Cut="0.0000000000000000e+00" cType="1" res="4.8432173207402229e-03" rms="1.2187531590461731e-01" purity="9.7608613967895508e-01" nType="-99"/>
          </Node>
        </Node>
        <Node pos="r" depth="1" NCoef="0" IVar="8" Cut="3.9810445904731750e-01" cType="1" res="5.0506303086876869e-03" rms="1.8387000262737274e-01" purity="4.3821123242378235e-01" nType="0">
          <Node pos="l" depth="2" NCoef="0" IVar="5" Cut="1.3762809753417969e+02" cType="1" res="9.6784904599189758e-03" rms="1.7887414991855621e-01" purity="4.8648133873939514e-01" nType="0">
            <Node pos="l" depth="3" NCoef="0" IVar="-1" Cut="0.0000000000000000e+00" cType="1" res="2.2743530571460724e-03" rms="1.5287640690803528e-01" purity="8.3746902644634247e-02" nType="-99"/>
            <Node pos="r" depth="3" NCoef="0" IVar="-1" Cut="0.0000000000000000e+00" cType="1" res="3.7056133151054382e-02" rms="1.9390693306922913e-01" purity="7.5236624479293823e-01" nType="-99"/>
          </Node>
          <Node pos="r" depth="2" NCoef="0" IVar="7" Cut="-2.7816304564476013e-01" cType="1" res="-2.7148080989718437e-03" rms="1.9171020388603210e-01" purity="3.5721510648727417e-01" nType="0">
            <Node pos="l" depth="3" NCoef="0" IVar="-1" Cut="0.0000000000000000e+00" cType="1" res="2.9981838539242744e-02" rms="2.1231739223003387e-01" purity="3.1010395288467407e-01" nType="-99"/>
            <Node pos="r" depth="3" NCoef="0" IVar="-1" Cut="0.0000000000000000e+00" cType="1" res="-2.5273213163018227e-02" rms="1.8067522346973419e-01" purity="3.7971571087837219e-01" nType="-99"/>
          </Node>
        </Node>
      </Node>
    </BinaryTree>
    <BinaryTree type="DecisionTree" boostWeight="1.0000000000000000e+00" itree="346">
      <Node pos="s" depth="0" NCoef="0" IVar="9" Cut="1.4661157131195068e+00" cType="1" res="1.1174496030434966e-03" rms="1.8127638101577759e-01" purity="4.9952939152717590e-01" nType="0">
        <Node pos="l" depth="1" NCoef="0" IVar="9" Cut="-1.5904515981674194e-01" cType="1" res="4.2034802027046680e-04" rms="1.7929390072822571e-01" purity="5.2040296792984009e-01" nType="0">
          <Node pos="l" depth="2" NCoef="0" IVar="3" Cut="4.8583471679687500e+02" cType="1" res="3.3966184128075838e-03" rms="1.8502494692802429e-01" purity="4.8340457677841187e-01" nType="0">
            <Node pos="l" depth="3" NCoef="0" IVar="-1" Cut="0.0000000000000000e+00" cType="1" res="1.5849431976675987e-02" rms="1.9438104331493378e-01" purity="3.3074855804443359e-01" nType="-99"/>
            <Node pos="r" depth="3" NCoef="0" IVar="-1" Cut="0.0000000000000000e+00" cType="1" res="-1.9054612144827843e-02" rms="1.5381252765655518e-01" purity="9.3483972549438477e-01" nType="-99"/>
          </Node>
          <Node pos="r" depth="2" NCoef="0" IVar="5" Cut="1.7541795349121094e+02" cType="1" res="-2.3589187767356634e-03" rms="1.7372559010982513e-01" purity="5.5495244264602661e-01" nType="0">
            <Node pos="l" depth="3" NCoef="0" IVar="-1" Cut="0.0000000000000000e+00" cType="1" res="-2.0996190607547760e-02" rms="1.8547850847244263e-01" purity="1.4826880395412445e-01" nType="-99"/>
            <Node pos="r" depth="3" NCoef="0" IVar="-1" Cut="0.0000000000000000e+00" cType="1" res="7.4607930146157742e-03" rms="1.6322405636310577e-01" purity="8.9158099889755249e-01" nType="-99"/>
          </Node>
        </Node>
        <Node pos="r" depth="1" NCoef="0" IVar="9" Cut="1.9106727838516235e+00" cType="1" res="9.5814382657408714e-03" rms="2.0362402498722076e-01" purity="2.4608859419822693e-01" nType="0">
          <Node pos="l" depth="2" NCoef="0" IVar="-1" Cut="0.0000000000000000e+00" cType="1" res="5.0056315958499908e-02" rms="2.3258359730243683e-01" purity="3.7233698368072510e-01" nType="-99"/>
          <Node pos="r" depth="2" NCoef="0" IVar="-1" Cut="0.0000000000000000e+00" cType="1" res="-1.9931774586439133e-02" rms="1.6327822208404541e-01" purity="1.0232779383659363e-01" nType="-99"/>
        </Node>
      </Node>
    </BinaryTree>
    <BinaryTree type="DecisionTree" boostWeight="1.0000000000000000e+00" itree="347">
      <Node pos="s" depth="0" NCoef="0" IVar="7" Cut="-3.5372510552406311e-01" cType="1" res="2.3065377899911255e-04" rms="1.8276672065258026e-01" purity="4.9499011039733887e-01" nType="0">
        <Node pos="l" depth="1" NCoef="0" IVar="11" Cut="1.1994303464889526e+00" cType="1" res="-3.4872679971158504e-03" rms="1.9252586364746094e-01" purity="4.1612166166305542e-01" nType="0">
          <Node pos="l" depth="2" NCoef="0" IVar="9" Cut="1.1949743032455444e+00" cType="1" res="-1.1242955224588513e-03" rms="1.8919405341148376e-01" purity="4.2785388231277466e-01" nType="0">
            <Node pos="l" depth="3" NCoef="0" IVar="-1" Cut="0.0000000000000000e+00" cType="1" res="4.1242423467338085e-03" rms="1.9082285463809967e-01" purity="4.6688991785049438e-01" nType="-99"/>
            <Node pos="r" depth="3" NCoef="0" IVar="-1" Cut="0.0000000000000000e+00" cType="1" res="-5.4028294980525970e-02" rms="1.7719459533691406e-01" purity="1.7027813196182251e-01" nType="-99"/>
          </Node>
          <Node pos="r" depth="2" NCoef="0" IVar="-1" Cut="0.0000000000000000e+00" cType="1" res="-4.0239695459604263e-02" rms="2.1064242720603943e-01" purity="3.4663167595863342e-01" nType="-99"/>
        </Node>
        <Node pos="r" depth="1" NCoef="0" IVar="7" Cut="9.9681502580642700e-01" cType="1" res="2.0048031583428383e-03" rms="1.7789381742477417e-01" purity="5.3262519836425781e-01" nType="0">
          <Node pos="l" depth="2" NCoef="0" IVar="11" Cut="6.6665458679199219e-01" cType="1" res="3.5578373353928328e-03" rms="1.8344706296920776e-01" purity="6.1783951520919800e-01" nType="0">
            <Node pos="l" depth="3" NCoef="0" IVar="-1" Cut="0.0000000000000000e+00" cType="1" res="4.3724062852561474e-03" rms="1.7812485992908478e-01" purity="6.1729139089584351e-01" nType="-99"/>
            <Node pos="r" depth="3" NCoef="0" IVar="-1" Cut="0.0000000000000000e+00" cType="1" res="2.3354521021246910e-02" rms="1.9539734721183777e-01" purity="6.1913996934890747e-01" nType="-99"/>
          </Node>
          <Node pos="r" depth="2" NCoef="0" IVar="7" Cut="1.3397947549819946e+00" cType="1" res="-4.5361341908574104e-03" rms="1.5212485194206238e-01" purity="1.7372687160968781e-01" nType="0">
            <Node pos="l" depth="3" NCoef="0" IVar="-1" Cut="0.0000000000000000e+00" cType="1" res="-3.8365527987480164e-02" rms="1.7286324501037598e-01" purity="2.6827871799468994e-01" nType="-99"/>
            <Node pos="r" depth="3" NCoef="0" IVar="-1" Cut="0.0000000000000000e+00" cType="1" res="2.3373022675514221e-02" rms="1.2993438541889191e-01" purity="8.8410362601280212e-02" nType="-99"/>
          </Node>
        </Node>
      </Node>
    </BinaryTree>
    <BinaryTree type="DecisionTree" boostWeight="1.0000000000000000e+00" itree="348">
      <Node pos="s" depth="0" NCoef="0" IVar="9" Cut="-1.7323055267333984e+00" cType="1" res="-2.0748693495988846e-03" rms="1.7934139072895050e-01" purity="4.9450278282165527e-01" nType="0">
        <Node pos="l" depth="1" NCoef="0" IVar="6" Cut="8.9653343200683594e+01" cType="1" res="9.6924817189574242e-03" rms="1.8118278682231903e-01" purity="1.5143834054470062e-01" nType="0">
          <Node pos="l" depth="2" NCoef="0" IVar="-1" Cut="0.0000000000000000e+00" cType="1" res="1.9510420039296150e-02" rms="1.3508820533752441e-01" purity="2.3873880505561829e-02" nType="-99"/>
          <Node pos="r" depth="2" NCoef="0" IVar="-1" Cut="0.0000000000000000e+00" cType="1" res="3.2501775771379471e-02" rms="2.1676674485206604e-01" purity="2.7618539333343506e-01" nType="-99"/>
        </Node>
        <Node pos="r" depth="1" NCoef="0" IVar="0" Cut="3.1105737304687500e+03" cType="1" res="-2.6953471824526787e-03" rms="1.7922233045101166e-01" purity="5.1259219646453857e-01" nType="0">
          <Node pos="l" depth="2" NCoef="0" IVar="6" Cut="1.2804954528808594e+02" cType="1" res="-4.2168409563601017e-03" rms="2.0565824210643768e-01" purity="3.2019802927970886e-01" nType="0">
            <Node pos="l" depth="3" NCoef="0" IVar="-1" Cut="0.0000000000000000e+00" cType="1" res="-4.2878845706582069e-03" rms="1.9117908179759979e-01" purity="1.3914194703102112e-01" nType="-99"/>
            <Node pos="r" depth="3" NCoef="0" IVar="-1" Cut="0.0000000000000000e+00" cType="1" res="-1.7159625887870789e-02" rms="2.3360373079776764e-01" purity="7.0843046903610229e-01" nType="-99"/>
          </Node>
          <Node pos="r" depth="2" NCoef="0" IVar="1" Cut="3.9961881935596466e-02" cType="1" res="1.0842564515769482e-03" rms="8.2615405321121216e-02" purity="9.9052613973617554e-01" nType="0">
            <Node pos="l" depth="3" NCoef="0" IVar="-1" Cut="0.0000000000000000e+00" cType="1" res="-2.7206419035792351e-02" rms="1.8709953129291534e-01" purity="9.4709688425064087e-01" nType="-99"/>
            <Node pos="r" depth="3" NCoef="0" IVar="-1" Cut="0.0000000000000000e+00" cType="1" res="3.8858160376548767e-02" rms="5.8467429131269455e-02" purity="9.9575573205947876e-01" nType="-99"/>
          </Node>
        </Node>
      </Node>
    </BinaryTree>
    <BinaryTree type="DecisionTree" boostWeight="1.0000000000000000e+00" itree="349">
      <Node pos="s" depth="0" NCoef="0" IVar="9" Cut="-1.7333199977874756e+00" cType="1" res="-3.3630980760790408e-04" rms="1.7921790480613708e-01" purity="4.8995539546012878e-01" nType="0">
        <Node pos="l" depth="1" NCoef="0" IVar="8" Cut="-1.3131026923656464e-01" cType="1" res="-1.1222803965210915e-02" rms="1.8057242035865784e-01" purity="1.4780598878860474e-01" nType="0">
          <Node pos="l" depth="2" NCoef="0" IVar="-1" Cut="0.0000000000000000e+00" cType="1" res="-3.0845969915390015e-02" rms="1.8319690227508545e-01" purity="1.4464922249317169e-01" nType="-99"/>
          <Node pos="r" depth="2" NCoef="0" IVar="-1" Cut="0.0000000000000000e+00" cType="1" res="-3.1362067908048630e-02" rms="1.7790524661540985e-01" purity="1.5095634758472443e-01" nType="-99"/>
        </Node>
        <Node pos="r" depth="1" NCoef="0" IVar="8" Cut="1.7324316501617432e+00" cType="1" res="2.3937645892146975e-04" rms="1.7912757396697998e-01" purity="5.0804853439331055e-01" nType="0">
          <Node pos="l" depth="2" NCoef="0" IVar="3" Cut="7.1350164794921875e+02" cType="1" res="-2.3317862360272557e-04" rms="1.7976453900337219e-01" purity="5.2532845735549927e-01" nType="0">
            <Node pos="l" depth="3" NCoef="0" IVar="-1" Cut="0.0000000000000000e+00" cType="1" res="-2.1080730948597193e-03" rms="1.8307423591613770e-01" purity="5.0217056274414062e-01" nType="-99"/>
            <Node pos="r" depth="3" NCoef="0" IVar="-1" Cut="0.0000000000000000e+00" cType="1" res="6.0101639479398727e-02" rms="9.3338139355182648e-02" purity="9.7848349809646606e-01" nType="-99"/>
          </Node>
          <Node pos="r" depth="2" NCoef="0" IVar="-1" Cut="0.0000000000000000e+00" cType="1" res="5.4174628108739853e-02" rms="1.6203638911247253e-01" purity="7.8166477382183075e-02" nType="-99"/>
        </Node>
      </Node>
    </BinaryTree>
    <BinaryTree type="DecisionTree" boostWeight="1.0000000000000000e+00" itree="350">
      <Node pos="s" depth="0" NCoef="0" IVar="2" Cut="7.7284619140625000e+02" cType="1" res="-2.6046301354654133e-04" rms="1.7954865097999573e-01" purity="4.9792400002479553e-01" nType="0">
        <Node pos="l" depth="1" NCoef="0" IVar="8" Cut="1.4656695127487183e+00" cType="1" res="-1.6072376165539026e-03" rms="1.8323691189289093e-01" purity="3.9795321226119995e-01" nType="0">
          <Node pos="l" depth="2" NCoef="0" IVar="9" Cut="1.7327007055282593e+00" cType="1" res="-2.6943590492010117e-03" rms="1.8392899632453918e-01" purity="4.2291930317878723e-01" nType="0">
            <Node pos="l" depth="3" NCoef="0" IVar="-1" Cut="0.0000000000000000e+00" cType="1" res="-1.0121211409568787e-02" rms="1.8292866647243500e-01" purity="4.3853735923767090e-01" nType="-99"/>
            <Node pos="r" depth="3" NCoef="0" IVar="-1" Cut="0.0000000000000000e+00" cType="1" res="4.3801769614219666e-02" rms="2.0006360113620758e-01" purity="1.4840970933437347e-01" nType="-99"/>
          </Node>
          <Node pos="r" depth="2" NCoef="0" IVar="1" Cut="2.4024024605751038e-02" cType="1" res="1.0777975432574749e-02" rms="1.7468230426311493e-01" purity="1.1352317780256271e-01" nType="0">
            <Node pos="l" depth="3" NCoef="0" IVar="-1" Cut="0.0000000000000000e+00" cType="1" res="-2.3725623264908791e-02" rms="1.0360252112150192e-01" purity="2.2387387230992317e-02" nType="-99"/>
            <Node pos="r" depth="3" NCoef="0" IVar="-1" Cut="0.0000000000000000e+00" cType="1" res="6.6000007092952728e-02" rms="2.3360851407051086e-01" purity="2.2692537307739258e-01" nType="-99"/>
          </Node>
        </Node>
        <Node pos="r" depth="1" NCoef="0" IVar="1" Cut="4.3338779360055923e-02" cType="1" res="4.8719248734414577e-03" rms="1.6463693976402283e-01" purity="8.7889981269836426e-01" nType="0">
          <Node pos="l" depth="2" NCoef="0" IVar="9" Cut="1.3069936633110046e-01" cType="1" res="1.7862727865576744e-02" rms="2.3133794963359833e-01" purity="6.4627057313919067e-01" nType="0">
            <Node pos="l" depth="3" NCoef="0" IVar="-1" Cut="0.0000000000000000e+00" cType="1" res="5.0347004085779190e-02" rms="2.2435669600963593e-01" purity="6.6971862316131592e-01" nType="-99"/>
            <Node pos="r" depth="3" NCoef="0" IVar="-1" Cut="0.0000000000000000e+00" cType="1" res="6.5704267472028732e-03" rms="2.3755602538585663e-01" purity="6.2200981378555298e-01" nType="-99"/>
          </Node>
          <Node pos="r" depth="2" NCoef="0" IVar="11" Cut="-3.9615043997764587e-01" cType="1" res="8.8215674622915685e-05" rms="1.3150823116302490e-01" purity="9.6456289291381836e-01" nType="0">
            <Node pos="l" depth="3" NCoef="0" IVar="-1" Cut="0.0000000000000000e+00" cType="1" res="-2.7722429484128952e-02" rms="1.3561880588531494e-01" purity="9.6447646617889404e-01" nType="-99"/>
            <Node pos="r" depth="3" NCoef="0" IVar="-1" Cut="0.0000000000000000e+00" cType="1" res="1.4702143147587776e-02" rms="1.2904866039752960e-01" purity="9.6461170911788940e-01" nType="-99"/>
          </Node>
        </Node>
      </Node>
    </BinaryTree>
    <BinaryTree type="DecisionTree" boostWeight="1.0000000000000000e+00" itree="351">
      <Node pos="s" depth="0" NCoef="0" IVar="10" Cut="6.6669982671737671e-01" cType="1" res="-2.3546919692307711e-03" rms="1.8165004253387451e-01" purity="4.9175250530242920e-01" nType="0">
        <Node pos="l" depth="1" NCoef="0" IVar="11" Cut="-9.3392843008041382e-01" cType="1" res="-7.2196900146082044e-04" rms="1.7814183235168457e-01" purity="5.1466339826583862e-01" nType="0">
          <Node pos="l" depth="2" NCoef="0" IVar="1" Cut="5.8291647583246231e-02" cType="1" res="-5.9066130779683590e-03" rms="1.9049134850502014e-01" purity="4.4926387071609497e-01" nType="0">
            <Node pos="l" depth="3" NCoef="0" IVar="-1" Cut="0.0000000000000000e+00" cType="1" res="8.5587725043296814e-03" rms="1.8751256167888641e-01" purity="1.8685778975486755e-01" nType="-99"/>
            <Node pos="r" depth="3" NCoef="0" IVar="-1" Cut="0.0000000000000000e+00" cType="1" res="-3.9230491966009140e-02" rms="1.9285802543163300e-01" purity="6.9363445043563843e-01" nType="-99"/>
          </Node>
          <Node pos="r" depth="2" NCoef="0" IVar="7" Cut="-1.4114078283309937e+00" cType="1" res="9.3327357899397612e-04" rms="1.7398214340209961e-01" purity="5.3554284572601318e-01" nType="0">
            <Node pos="l" depth="3" NCoef="0" IVar="-1" Cut="0.0000000000000000e+00" cType="1" res="8.8177107274532318e-02" rms="1.6083638370037079e-01" purity="9.9070370197296143e-02" nType="-99"/>
            <Node pos="r" depth="3" NCoef="0" IVar="-1" Cut="0.0000000000000000e+00" cType="1" res="6.1364844441413879e-04" rms="1.7457975447177887e-01" purity="5.5733186006546021e-01" nType="-99"/>
          </Node>
        </Node>
        <Node pos="r" depth="1" NCoef="0" IVar="1" Cut="1.0081219673156738e-01" cType="1" res="-6.4198663458228111e-03" rms="1.9004282355308533e-01" purity="4.3470862507820129e-01" nType="0">
          <Node pos="l" depth="2" NCoef="0" IVar="2" Cut="7.8774468994140625e+02" cType="1" res="-1.0945711284875870e-02" rms="1.9510915875434875e-01" purity="2.8327783942222595e-01" nType="0">
            <Node pos="l" depth="3" NCoef="0" IVar="-1" Cut="0.0000000000000000e+00" cType="1" res="-2.0627349615097046e-02" rms="1.8400451540946960e-01" purity="2.0037293434143066e-01" nType="-99"/>
            <Node pos="r" depth="3" NCoef="0" IVar="-1" Cut="0.0000000000000000e+00" cType="1" res="-5.4833147674798965e-02" rms="2.5002110004425049e-01" purity="7.7319687604904175e-01" nType="-99"/>
          </Node>
          <Node pos="r" depth="2" NCoef="0" IVar="5" Cut="2.1498027038574219e+02" cType="1" res="4.1591115295886993e-03" rms="1.7718741297721863e-01" purity="7.8867173194885254e-01" nType="0">
            <Node pos="l" depth="3" NCoef="0" IVar="-1" Cut="0.0000000000000000e+00" cType="1" res="2.6178056374192238e-02" rms="2.4149368703365326e-01" purity="5.2847635746002197e-01" nType="-99"/>
            <Node pos="r" depth="3" NCoef="0" IVar="-1" Cut="0.0000000000000000e+00" cType="1" res="-2.4071156978607178e-02" rms="1.0845325142145157e-01" purity="9.7720789909362793e-01" nType="-99"/>
          </Node>
        </Node>
      </Node>
    </BinaryTree>
    <BinaryTree type="DecisionTree" boostWeight="1.0000000000000000e+00" itree="352">
      <Node pos="s" depth="0" NCoef="0" IVar="10" Cut="4.0015679597854614e-01" cType="1" res="9.7017950611189008e-04" rms="1.8352439999580383e-01" purity="5.0318986177444458e-01" nType="0">
        <Node pos="l" depth="1" NCoef="0" IVar="10" Cut="-1.7325452566146851e+00" cType="1" res="-1.6319778515025973e-03" rms="1.7608983814716339e-01" purity="5.1156330108642578e-01" nType="0">
          <Node pos="l" depth="2" NCoef="0" IVar="1" Cut="3.8281939923763275e-02" cType="1" res="-1.2744160369038582e-02" rms="1.9709657132625580e-01" purity="2.4353271722793579e-01" nType="0">
            <Node pos="l" depth="3" NCoef="0" IVar="-1" Cut="0.0000000000000000e+00" cType="1" res="-1.8742850050330162e-02" rms="1.5201869606971741e-01" purity="6.9470815360546112e-02" nType="-99"/>
            <Node pos="r" depth="3" NCoef="0" IVar="-1" Cut="0.0000000000000000e+00" cType="1" res="-3.4061741083860397e-02" rms="2.2742645442485809e-01" purity="3.8694894313812256e-01" nType="-99"/>
          </Node>
          <Node pos="r" depth="2" NCoef="0" IVar="9" Cut="6.6331017017364502e-01" cType="1" res="-5.0179427489638329e-04" rms="1.7377132177352905e-01" purity="5.3882378339767456e-01" nType="0">
            <Node pos="l" depth="3" NCoef="0" IVar="-1" Cut="0.0000000000000000e+00" cType="1" res="-7.6546156778931618e-03" rms="1.6816169023513794e-01" purity="5.6034541130065918e-01" nType="-99"/>
            <Node pos="r" depth="3" NCoef="0" IVar="-1" Cut="0.0000000000000000e+00" cType="1" res="1.4482273720204830e-02" rms="1.9048058986663818e-01" purity="4.7002676129341125e-01" nType="-99"/>
          </Node>
        </Node>
        <Node pos="r" depth="1" NCoef="0" IVar="8" Cut="-4.0038385987281799e-01" cType="1" res="5.7386737316846848e-03" rms="1.9632989168167114e-01" purity="4.8784545063972473e-01" nType="0">
          <Node pos="l" depth="2" NCoef="0" IVar="2" Cut="5.0712600708007812e+02" cType="1" res="1.3085061684250832e-02" rms="2.0637424290180206e-01" purity="4.4366857409477234e-01" nType="0">
            <Node pos="l" depth="3" NCoef="0" IVar="-1" Cut="0.0000000000000000e+00" cType="1" res="1.1626788415014744e-02" rms="2.0654353499412537e-01" purity="1.9013214111328125e-01" nType="-99"/>
            <Node pos="r" depth="3" NCoef="0" IVar="-1" Cut="0.0000000000000000e+00" cType="1" res="5.1601130515336990e-02" rms="2.0591031014919281e-01" purity="6.6895711421966553e-01" nType="-99"/>
          </Node>
          <Node pos="r" depth="2" NCoef="0" IVar="9" Cut="-6.6479516029357910e-01" cType="1" res="2.6849964633584023e-03" rms="1.9191749393939972e-01" purity="5.0620847940444946e-01" nType="0">
            <Node pos="l" depth="3" NCoef="0" IVar="-1" Cut="0.0000000000000000e+00" cType="1" res="-1.5888268128037453e-02" rms="2.0155079662799835e-01" purity="4.1345149278640747e-01" nType="-99"/>
            <Node pos="r" depth="3" NCoef="0" IVar="-1" Cut="0.0000000000000000e+00" cType="1" res="1.5990536659955978e-02" rms="1.8857447803020477e-01" purity="5.3650099039077759e-01" nType="-99"/>
          </Node>
        </Node>
      </Node>
    </BinaryTree>
    <BinaryTree type="DecisionTree" boostWeight="1.0000000000000000e+00" itree="353">
      <Node pos="s" depth="0" NCoef="0" IVar="10" Cut="-1.7318969964981079e+00" cType="1" res="-1.2191341957077384e-03" rms="1.8455259501934052e-01" purity="5.0017738342285156e-01" nType="0">
        <Node pos="l" depth="1" NCoef="0" IVar="7" Cut="1.2020973488688469e-02" cType="1" res="7.3199905455112457e-03" rms="2.1712397038936615e-01" purity="2.6782295107841492e-01" nType="0">
          <Node pos="l" depth="2" NCoef="0" IVar="-1" Cut="0.0000000000000000e+00" cType="1" res="3.9804521948099136e-02" rms="2.1812492609024048e-01" purity="2.8596645593643188e-01" nType="-99"/>
          <Node pos="r" depth="2" NCoef="0" IVar="-1" Cut="0.0000000000000000e+00" cType="1" res="-7.9857409000396729e-03" rms="2.1550129354000092e-01" purity="2.4704340100288391e-01" nType="-99"/>
        </Node>
        <Node pos="r" depth="1" NCoef="0" IVar="11" Cut="1.9999635219573975e+00" cType="1" res="-1.7654621042311192e-03" rms="1.8225708603858948e-01" purity="5.1504331827163696e-01" nType="0">
          <Node pos="l" depth="2" NCoef="0" IVar="11" Cut="8.5692596435546875e-01" cType="1" res="-2.1302695386111736e-03" rms="1.8118655681610107e-01" purity="5.2320289611816406e-01" nType="0">
            <Node pos="l" depth="3" NCoef="0" IVar="-1" Cut="0.0000000000000000e+00" cType="1" res="-2.0789050031453371e-03" rms="1.7900903522968292e-01" purity="5.3644073009490967e-01" nType="-99"/>
            <Node pos="r" depth="3" NCoef="0" IVar="-1" Cut="0.0000000000000000e+00" cType="1" res="-1.8210669979453087e-02" rms="1.8831680715084076e-01" purity="4.7820910811424255e-01" nType="-99"/>
          </Node>
          <Node pos="r" depth="2" NCoef="0" IVar="-1" Cut="0.0000000000000000e+00" cType="1" res="1.5621225349605083e-02" rms="2.0444941520690918e-01" purity="3.3362290263175964e-01" nType="-99"/>
        </Node>
      </Node>
    </BinaryTree>
    <BinaryTree type="DecisionTree" boostWeight="1.0000000000000000e+00" itree="354">
      <Node pos="s" depth="0" NCoef="0" IVar="6" Cut="9.9676864624023438e+01" cType="1" res="1.8376758089289069e-03" rms="1.7935444414615631e-01" purity="5.0254368782043457e-01" nType="0">
        <Node pos="l" depth="1" NCoef="0" IVar="5" Cut="1.5746745300292969e+02" cType="1" res="-1.1529728071764112e-03" rms="1.6651941835880280e-01" purity="1.1168003082275391e-01" nType="0">
          <Node pos="l" depth="2" NCoef="0" IVar="2" Cut="6.8723114013671875e+02" cType="1" res="9.5692637842148542e-04" rms="1.5322081744670868e-01" purity="6.1116069555282593e-02" nType="0">
            <Node pos="l" depth="3" NCoef="0" IVar="-1" Cut="0.0000000000000000e+00" cType="1" res="-6.7943478934466839e-03" rms="1.2993499636650085e-01" purity="3.1886603683233261e-02" nType="-99"/>
            <Node pos="r" depth="3" NCoef="0" IVar="-1" Cut="0.0000000000000000e+00" cType="1" res="2.4304321035742760e-02" rms="2.6359611749649048e-01" purity="2.6622283458709717e-01" nType="-99"/>
          </Node>
          <Node pos="r" depth="2" NCoef="0" IVar="1" Cut="5.2063826471567154e-02" cType="1" res="-1.2851152569055557e-02" rms="2.2614739835262299e-01" purity="3.9202812314033508e-01" nType="0">
            <Node pos="l" depth="3" NCoef="0" IVar="-1" Cut="0.0000000000000000e+00" cType="1" res="-6.7618400789797306e-03" rms="2.1219787001609802e-01" purity="2.3435093462467194e-01" nType="-99"/>
            <Node pos="r" depth="3" NCoef="0" IVar="-1" Cut="0.0000000000000000e+00" cType="1" res="-3.7569511681795120e-02" rms="2.4022525548934937e-01" purity="5.6671625375747681e-01" nType="-99"/>
          </Node>
        </Node>
        <Node pos="r" depth="1" NCoef="0" IVar="4" Cut="2.7586700439453125e+02" cType="1" res="3.6242580972611904e-03" rms="1.8657831847667694e-01" purity="7.3604154586791992e-01" nType="0">
          <Node pos="l" depth="2" NCoef="0" IVar="9" Cut="-1.3349670171737671e-01" cType="1" res="9.6859158948063850e-03" rms="2.4447818100452423e-01" purity="3.8023304939270020e-01" nType="0">
            <Node pos="l" depth="3" NCoef="0" IVar="-1" Cut="0.0000000000000000e+00" cType="1" res="5.9076992329210043e-04" rms="2.4346373975276947e-01" purity="3.7523877620697021e-01" nType="-99"/>
            <Node pos="r" depth="3" NCoef="0" IVar="-1" Cut="0.0000000000000000e+00" cType="1" res="2.8264630585908890e-02" rms="2.4503462016582489e-01" purity="3.8426190614700317e-01" nType="-99"/>
          </Node>
          <Node pos="r" depth="2" NCoef="0" IVar="3" Cut="6.3438537597656250e+02" cType="1" res="-2.9112665288266726e-05" rms="1.4047664403915405e-01" purity="9.5048785209655762e-01" nType="0">
            <Node pos="l" depth="3" NCoef="0" IVar="-1" Cut="0.0000000000000000e+00" cType="1" res="6.5828976221382618e-03" rms="1.4662860333919525e-01" purity="9.4328624010086060e-01" nType="-99"/>
            <Node pos="r" depth="3" NCoef="0" IVar="-1" Cut="0.0000000000000000e+00" cType="1" res="-7.9334743320941925e-02" rms="1.1069300770759583e-01" purity="9.8074972629547119e-01" nType="-99"/>
          </Node>
        </Node>
      </Node>
    </BinaryTree>
    <BinaryTree type="DecisionTree" boostWeight="1.0000000000000000e+00" itree="355">
      <Node pos="s" depth="0" NCoef="0" IVar="6" Cut="1.2178852844238281e+02" cType="1" res="9.0041093062609434e-04" rms="1.8428638577461243e-01" purity="4.9728235602378845e-01" nType="0">
        <Node pos="l" depth="1" NCoef="0" IVar="11" Cut="1.1999704837799072e+00" cType="1" res="2.9822171200066805e-03" rms="1.8992996215820312e-01" purity="1.8249745666980743e-01" nType="0">
          <Node pos="l" depth="2" NCoef="0" IVar="11" Cut="-3.2389920949935913e-01" cType="1" res="1.1585247702896595e-03" rms="1.8948353826999664e-01" purity="1.7436777055263519e-01" nType="0">
            <Node pos="l" depth="3" NCoef="0" IVar="-1" Cut="0.0000000000000000e+00" cType="1" res="1.6097048297524452e-02" rms="1.9598536193370819e-01" purity="1.8110470473766327e-01" nType="-99"/>
            <Node pos="r" depth="3" NCoef="0" IVar="-1" Cut="0.0000000000000000e+00" cType="1" res="-9.9587962031364441e-03" rms="1.8215399980545044e-01" purity="1.6716560721397400e-01" nType="-99"/>
          </Node>
          <Node pos="r" depth="2" NCoef="0" IVar="0" Cut="1.8947568359375000e+03" cType="1" res="1.0527917183935642e-02" rms="1.9158159196376801e-01" purity="2.1613484621047974e-01" nType="0">
            <Node pos="l" depth="3" NCoef="0" IVar="-1" Cut="0.0000000000000000e+00" cType="1" res="2.0099023357033730e-02" rms="1.1752417683601379e-01" purity="1.6157438978552818e-02" nType="-99"/>
            <Node pos="r" depth="3" NCoef="0" IVar="-1" Cut="0.0000000000000000e+00" cType="1" res="3.1713735312223434e-02" rms="2.9391795396804810e-01" purity="6.5411663055419922e-01" nType="-99"/>
          </Node>
        </Node>
        <Node pos="r" depth="1" NCoef="0" IVar="3" Cut="3.0296450805664062e+02" cType="1" res="-1.3053702423349023e-03" rms="1.7808517813682556e-01" purity="8.3081310987472534e-01" nType="0">
          <Node pos="l" depth="2" NCoef="0" IVar="4" Cut="2.2481196594238281e+02" cType="1" res="-1.2334115803241730e-02" rms="2.5978493690490723e-01" purity="2.8282487392425537e-01" nType="0">
            <Node pos="l" depth="3" NCoef="0" IVar="-1" Cut="0.0000000000000000e+00" cType="1" res="-2.1008558105677366e-03" rms="2.2693686187267303e-01" purity="1.7698340117931366e-01" nType="-99"/>
            <Node pos="r" depth="3" NCoef="0" IVar="-1" Cut="0.0000000000000000e+00" cType="1" res="-3.5282913595438004e-02" rms="3.0845180153846741e-01" purity="4.6991184353828430e-01" nType="-99"/>
          </Node>
          <Node pos="r" depth="2" NCoef="0" IVar="1" Cut="3.8923084735870361e-02" cType="1" res="6.3831428997218609e-04" rms="1.5932480990886688e-01" purity="9.2738950252532959e-01" nType="0">
            <Node pos="l" depth="3" NCoef="0" IVar="-1" Cut="0.0000000000000000e+00" cType="1" res="2.2823164239525795e-02" rms="2.3650453984737396e-01" purity="7.7110004425048828e-01" nType="-99"/>
            <Node pos="r" depth="3" NCoef="0" IVar="-1" Cut="0.0000000000000000e+00" cType="1" res="-4.3196147307753563e-03" rms="1.4784260094165802e-01" purity="9.4529777765274048e-01" nType="-99"/>
          </Node>
        </Node>
      </Node>
    </BinaryTree>
    <BinaryTree type="DecisionTree" boostWeight="1.0000000000000000e+00" itree="356">
      <Node pos="s" depth="0" NCoef="0" IVar="10" Cut="1.7330646514892578e+00" cType="1" res="-1.0095310426549986e-04" rms="1.8440607190132141e-01" purity="4.9780088663101196e-01" nType="0">
        <Node pos="l" depth="1" NCoef="0" IVar="7" Cut="-3.9103407412767410e-02" cType="1" res="-1.0717723052948713e-03" rms="1.8145933747291565e-01" purity="5.1435571908950806e-01" nType="0">
          <Node pos="l" depth="2" NCoef="0" IVar="7" Cut="-1.0214757919311523e+00" cType="1" res="-3.7411749362945557e-03" rms="1.8340434134006500e-01" purity="5.0373125076293945e-01" nType="0">
            <Node pos="l" depth="3" NCoef="0" IVar="-1" Cut="0.0000000000000000e+00" cType="1" res="2.2260861471295357e-02" rms="1.6066290438175201e-01" purity="2.0056219398975372e-01" nType="-99"/>
            <Node pos="r" depth="3" NCoef="0" IVar="-1" Cut="0.0000000000000000e+00" cType="1" res="-1.8335843458771706e-02" rms="1.8963323533535004e-01" purity="5.9528082609176636e-01" nType="-99"/>
          </Node>
          <Node pos="r" depth="2" NCoef="0" IVar="10" Cut="-1.2883574962615967e+00" cType="1" res="1.3677538372576237e-03" rms="1.7962871491909027e-01" purity="5.2406537532806396e-01" nType="0">
            <Node pos="l" depth="3" NCoef="0" IVar="-1" Cut="0.0000000000000000e+00" cType="1" res="3.8124967366456985e-02" rms="2.0306164026260376e-01" purity="3.7663242220878601e-01" nType="-99"/>
            <Node pos="r" depth="3" NCoef="0" IVar="-1" Cut="0.0000000000000000e+00" cType="1" res="-1.5647039981558919e-03" rms="1.7606371641159058e-01" purity="5.4444056749343872e-01" nType="-99"/>
          </Node>
        </Node>
        <Node pos="r" depth="1" NCoef="0" IVar="2" Cut="4.4941809082031250e+02" cType="1" res="1.4156185090541840e-02" rms="2.2275836765766144e-01" purity="2.5468149781227112e-01" nType="0">
          <Node pos="l" depth="2" NCoef="0" IVar="-1" Cut="0.0000000000000000e+00" cType="1" res="1.6964389011263847e-02" rms="1.7969550192356110e-01" purity="8.5003130137920380e-02" nType="-99"/>
          <Node pos="r" depth="2" NCoef="0" IVar="-1" Cut="0.0000000000000000e+00" cType="1" res="3.8625698536634445e-02" rms="2.5118610262870789e-01" purity="3.8764214515686035e-01" nType="-99"/>
        </Node>
      </Node>
    </BinaryTree>
    <BinaryTree type="DecisionTree" boostWeight="1.0000000000000000e+00" itree="357">
      <Node pos="s" depth="0" NCoef="0" IVar="2" Cut="7.6759075927734375e+02" cType="1" res="1.2987510999664664e-03" rms="1.8307143449783325e-01" purity="5.0028288364410400e-01" nType="0">
        <Node pos="l" depth="1" NCoef="0" IVar="5" Cut="1.3359077453613281e+02" cType="1" res="2.9389702249318361e-03" rms="1.8527548015117645e-01" purity="4.0374106168746948e-01" nType="0">
          <Node pos="l" depth="2" NCoef="0" IVar="2" Cut="6.0544494628906250e+02" cType="1" res="-1.3205837458372116e-03" rms="1.4340294897556305e-01" purity="4.3598864227533340e-02" nType="0">
            <Node pos="l" depth="3" NCoef="0" IVar="-1" Cut="0.0000000000000000e+00" cType="1" res="-1.8192671239376068e-02" rms="1.3077445328235626e-01" purity="2.8312956914305687e-02" nType="-99"/>
            <Node pos="r" depth="3" NCoef="0" IVar="-1" Cut="0.0000000000000000e+00" cType="1" res="2.2365646436810493e-02" rms="1.9717200100421906e-01" purity="1.2495423108339310e-01" nType="-99"/>
          </Node>
          <Node pos="r" depth="2" NCoef="0" IVar="0" Cut="2.6430427246093750e+03" cType="1" res="5.5209500715136528e-03" rms="2.0652288198471069e-01" purity="6.2204557657241821e-01" nType="0">
            <Node pos="l" depth="3" NCoef="0" IVar="-1" Cut="0.0000000000000000e+00" cType="1" res="1.5176467597484589e-02" rms="2.6300543546676636e-01" purity="3.0793505907058716e-01" nType="-99"/>
            <Node pos="r" depth="3" NCoef="0" IVar="-1" Cut="0.0000000000000000e+00" cType="1" res="-2.6258213911205530e-03" rms="1.0883805900812149e-01" purity="9.8616933822631836e-01" nType="-99"/>
          </Node>
        </Node>
        <Node pos="r" depth="1" NCoef="0" IVar="7" Cut="4.5969513058662415e-01" cType="1" res="-4.8557147383689880e-03" rms="1.7441596090793610e-01" purity="8.6252915859222412e-01" nType="0">
          <Node pos="l" depth="2" NCoef="0" IVar="6" Cut="1.0151507568359375e+02" cType="1" res="-1.1636801064014435e-03" rms="1.7404037714004517e-01" purity="8.8488876819610596e-01" nType="0">
            <Node pos="l" depth="3" NCoef="0" IVar="-1" Cut="0.0000000000000000e+00" cType="1" res="1.5008207410573959e-02" rms="2.8291857242584229e-01" purity="5.5026203393936157e-01" nType="-99"/>
            <Node pos="r" depth="3" NCoef="0" IVar="-1" Cut="0.0000000000000000e+00" cType="1" res="-2.2615432739257812e-02" rms="1.3823661208152771e-01" purity="9.5979279279708862e-01" nType="-99"/>
          </Node>
          <Node pos="r" depth="2" NCoef="0" IVar="-1" Cut="0.0000000000000000e+00" cType="1" res="-5.5170301347970963e-02" rms="1.7512904107570648e-01" purity="7.7658772468566895e-01" nType="-99"/>
        </Node>
      </Node>
    </BinaryTree>
    <BinaryTree type="DecisionTree" boostWeight="1.0000000000000000e+00" itree="358">
      <Node pos="s" depth="0" NCoef="0" IVar="8" Cut="1.1993901729583740e+00" cType="1" res="-4.5078792027197778e-05" rms="1.8175765872001648e-01" purity="5.0130671262741089e-01" nType="0">
        <Node pos="l" depth="1" NCoef="0" IVar="8" Cut="-1.6556950807571411e+00" cType="1" res="5.9842731570824981e-04" rms="1.8267749249935150e-01" purity="5.4083436727523804e-01" nType="0">
          <Node pos="l" depth="2" NCoef="0" IVar="-1" Cut="0.0000000000000000e+00" cType="1" res="-3.1105589121580124e-02" rms="1.4186647534370422e-01" purity="7.3676608502864838e-02" nType="-99"/>
          <Node pos="r" depth="2" NCoef="0" IVar="11" Cut="1.9984614849090576e+00" cType="1" res="1.0228579631075263e-03" rms="1.8455527722835541e-01" purity="5.6528425216674805e-01" nType="0">
            <Node pos="l" depth="3" NCoef="0" IVar="-1" Cut="0.0000000000000000e+00" cType="1" res="1.7324421787634492e-03" rms="1.8344418704509735e-01" purity="5.7290506362915039e-01" nType="-99"/>
            <Node pos="r" depth="3" NCoef="0" IVar="-1" Cut="0.0000000000000000e+00" cType="1" res="2.5853410363197327e-02" rms="2.1055017411708832e-01" purity="3.7163120508193970e-01" nType="-99"/>
          </Node>
        </Node>
        <Node pos="r" depth="1" NCoef="0" IVar="9" Cut="9.3417960405349731e-01" cType="1" res="-5.2992529235780239e-03" rms="1.7397646605968475e-01" purity="1.7856653034687042e-01" nType="0">
          <Node pos="l" depth="2" NCoef="0" IVar="3" Cut="3.2138302612304688e+02" cType="1" res="-9.5411306247115135e-03" rms="1.7413036525249481e-01" purity="1.9402377307415009e-01" nType="0">
            <Node pos="l" depth="3" NCoef="0" IVar="-1" Cut="0.0000000000000000e+00" cType="1" res="-1.5838826075196266e-02" rms="1.5394903719425201e-01" purity="6.1825659126043320e-02" nType="-99"/>
            <Node pos="r" depth="3" NCoef="0" IVar="-1" Cut="0.0000000000000000e+00" cType="1" res="-3.8476549088954926e-02" rms="2.0619864761829376e-01" purity="4.4039344787597656e-01" nType="-99"/>
          </Node>
          <Node pos="r" depth="2" NCoef="0" IVar="-1" Cut="0.0000000000000000e+00" cType="1" res="2.8140252456068993e-02" rms="1.7275501787662506e-01" purity="1.2825921177864075e-01" nType="-99"/>
        </Node>
      </Node>
    </BinaryTree>
    <BinaryTree type="DecisionTree" boostWeight="1.0000000000000000e+00" itree="359">
      <Node pos="s" depth="0" NCoef="0" IVar="8" Cut="-9.2966610193252563e-01" cType="1" res="-1.7644582840148360e-04" rms="1.8130666017532349e-01" purity="5.0170415639877319e-01" nType="0">
        <Node pos="l" depth="1" NCoef="0" IVar="8" Cut="-1.1072205305099487e+00" cType="1" res="7.2000529617071152e-03" rms="1.9683094322681427e-01" purity="2.8135222196578979e-01" nType="0">
          <Node pos="l" depth="2" NCoef="0" IVar="5" Cut="1.8225791931152344e+02" cType="1" res="2.6805563829839230e-03" rms="1.8587705492973328e-01" purity="2.1332351863384247e-01" nType="0">
            <Node pos="l" depth="3" NCoef="0" IVar="-1" Cut="0.0000000000000000e+00" cType="1" res="-1.2058809399604797e-02" rms="1.6359646618366241e-01" purity="6.5286576747894287e-02" nType="-99"/>
            <Node pos="r" depth="3" NCoef="0" IVar="-1" Cut="0.0000000000000000e+00" cType="1" res="3.5322308540344238e-02" rms="2.4136403203010559e-01" purity="6.7224055528640747e-01" nType="-99"/>
          </Node>
          <Node pos="r" depth="2" NCoef="0" IVar="-1" Cut="0.0000000000000000e+00" cType="1" res="5.4398797452449799e-02" rms="2.2732324898242950e-01" purity="4.9556237459182739e-01" nType="-99"/>
        </Node>
        <Node pos="r" depth="1" NCoef="0" IVar="7" Cut="-8.2083016633987427e-01" cType="1" res="-1.6715810634195805e-03" rms="1.7795784771442413e-01" purity="5.4636698961257935e-01" nType="0">
          <Node pos="l" depth="2" NCoef="0" IVar="8" Cut="1.0226715803146362e+00" cType="1" res="6.1027207411825657e-03" rms="1.8360814452171326e-01" purity="3.0190184712409973e-01" nType="0">
            <Node pos="l" depth="3" NCoef="0" IVar="-1" Cut="0.0000000000000000e+00" cType="1" res="2.5028418749570847e-02" rms="1.9167754054069519e-01" purity="3.6050304770469666e-01" nType="-99"/>
            <Node pos="r" depth="3" NCoef="0" IVar="-1" Cut="0.0000000000000000e+00" cType="1" res="-1.7968643456697464e-02" rms="1.5148082375526428e-01" purity="9.6614822745323181e-02" nType="-99"/>
          </Node>
          <Node pos="r" depth="2" NCoef="0" IVar="10" Cut="-1.3306549191474915e-01" cType="1" res="-3.0476469546556473e-03" rms="1.7690335214138031e-01" purity="5.8963787555694580e-01" nType="0">
            <Node pos="l" depth="3" NCoef="0" IVar="-1" Cut="0.0000000000000000e+00" cType="1" res="3.0585362110286951e-03" rms="1.7946659028530121e-01" purity="5.9640258550643921e-01" nType="-99"/>
            <Node pos="r" depth="3" NCoef="0" IVar="-1" Cut="0.0000000000000000e+00" cType="1" res="-1.9239546731114388e-02" rms="1.7476443946361542e-01" purity="5.8423990011215210e-01" nType="-99"/>
          </Node>
        </Node>
      </Node>
    </BinaryTree>
    <BinaryTree type="DecisionTree" boostWeight="1.0000000000000000e+00" itree="360">
      <Node pos="s" depth="0" NCoef="0" IVar="11" Cut="-1.9986540079116821e+00" cType="1" res="-1.1475839419290423e-03" rms="1.8322004377841949e-01" purity="4.9831923842430115e-01" nType="0">
        <Node pos="l" depth="1" NCoef="0" IVar="-1" Cut="0.0000000000000000e+00" cType="1" res="4.7043722122907639e-02" rms="2.1240937709808350e-01" purity="3.1383669376373291e-01" nType="-99"/>
        <Node pos="r" depth="1" NCoef="0" IVar="10" Cut="-1.7325572967529297e+00" cType="1" res="-2.0614932291209698e-03" rms="1.8176503479480743e-01" purity="5.0648826360702515e-01" nType="0">
          <Node pos="l" depth="2" NCoef="0" IVar="11" Cut="-1.7210552096366882e-01" cType="1" res="-1.5937183052301407e-02" rms="2.1423391997814178e-01" purity="2.7023294568061829e-01" nType="0">
            <Node pos="l" depth="3" NCoef="0" IVar="-1" Cut="0.0000000000000000e+00" cType="1" res="-1.0778878815472126e-02" rms="2.1027436852455139e-01" purity="2.6961734890937805e-01" nType="-99"/>
            <Node pos="r" depth="3" NCoef="0" IVar="-1" Cut="0.0000000000000000e+00" cType="1" res="-5.3778823465108871e-02" rms="2.1724067628383636e-01" purity="2.7078986167907715e-01" nType="-99"/>
          </Node>
          <Node pos="r" depth="2" NCoef="0" IVar="9" Cut="4.0043497085571289e-01" cType="1" res="-1.2406806927174330e-03" rms="1.7962703108787537e-01" purity="5.2046388387680054e-01" nType="0">
            <Node pos="l" depth="3" NCoef="0" IVar="-1" Cut="0.0000000000000000e+00" cType="1" res="-1.0054132901132107e-02" rms="1.7919023334980011e-01" purity="5.3578037023544312e-01" nType="-99"/>
            <Node pos="r" depth="3" NCoef="0" IVar="-1" Cut="0.0000000000000000e+00" cType="1" res="7.4945427477359772e-03" rms="1.8039722740650177e-01" purity="4.9113976955413818e-01" nType="-99"/>
          </Node>
        </Node>
      </Node>
    </BinaryTree>
    <BinaryTree type="DecisionTree" boostWeight="1.0000000000000000e+00" itree="361">
      <Node pos="s" depth="0" NCoef="0" IVar="11" Cut="-2.0000016689300537e+00" cType="1" res="-2.2335686662700027e-04" rms="1.8063288927078247e-01" purity="4.9831262230873108e-01" nType="0">
        <Node pos="l" depth="1" NCoef="0" IVar="-1" Cut="0.0000000000000000e+00" cType="1" res="-3.2643683254718781e-02" rms="1.9318997859954834e-01" purity="2.5878062844276428e-01" nType="-99"/>
        <Node pos="r" depth="1" NCoef="0" IVar="10" Cut="6.6671943664550781e-01" cType="1" res="3.6691999412141740e-04" rms="1.7999435961246490e-01" purity="5.0967019796371460e-01" nType="0">
          <Node pos="l" depth="2" NCoef="0" IVar="1" Cut="2.0163716375827789e-01" cType="1" res="2.1051121875643730e-03" rms="1.7645050585269928e-01" purity="5.3214490413665771e-01" nType="0">
            <Node pos="l" depth="3" NCoef="0" IVar="-1" Cut="0.0000000000000000e+00" cType="1" res="8.9951446279883385e-03" rms="1.7919372022151947e-01" purity="4.9522316455841064e-01" nType="-99"/>
            <Node pos="r" depth="3" NCoef="0" IVar="-1" Cut="0.0000000000000000e+00" cType="1" res="-3.7013214081525803e-02" rms="1.4618700742721558e-01" purity="8.9851826429367065e-01" nType="-99"/>
          </Node>
          <Node pos="r" depth="2" NCoef="0" IVar="11" Cut="9.7138404846191406e-01" cType="1" res="-3.9999494329094887e-03" rms="1.8853338062763214e-01" purity="4.5320692658424377e-01" nType="0">
            <Node pos="l" depth="3" NCoef="0" IVar="-1" Cut="0.0000000000000000e+00" cType="1" res="-2.8568143025040627e-03" rms="1.8445561826229095e-01" purity="4.9131798744201660e-01" nType="-99"/>
            <Node pos="r" depth="3" NCoef="0" IVar="-1" Cut="0.0000000000000000e+00" cType="1" res="-2.9052564874291420e-02" rms="1.9876459240913391e-01" purity="3.5175395011901855e-01" nType="-99"/>
          </Node>
        </Node>
      </Node>
    </BinaryTree>
    <BinaryTree type="DecisionTree" boostWeight="1.0000000000000000e+00" itree="362">
      <Node pos="s" depth="0" NCoef="0" IVar="0" Cut="2.7313659667968750e+03" cType="1" res="-2.4703382514417171e-03" rms="1.8128456175327301e-01" purity="4.9936145544052124e-01" nType="0">
        <Node pos="l" depth="1" NCoef="0" IVar="3" Cut="3.4746603393554688e+02" cType="1" res="-4.5261420309543610e-03" rms="2.1173520386219025e-01" purity="1.8818020820617676e-01" nType="0">
          <Node pos="l" depth="2" NCoef="0" IVar="11" Cut="4.0050038695335388e-01" cType="1" res="-5.3708639461547136e-04" rms="1.8174374103546143e-01" purity="1.0023028403520584e-01" nType="0">
            <Node pos="l" depth="3" NCoef="0" IVar="-1" Cut="0.0000000000000000e+00" cType="1" res="1.1063471436500549e-02" rms="1.8443964421749115e-01" purity="1.0401746630668640e-01" nType="-99"/>
            <Node pos="r" depth="3" NCoef="0" IVar="-1" Cut="0.0000000000000000e+00" cType="1" res="-1.9465310499072075e-02" rms="1.7728333175182343e-01" purity="9.4353750348091125e-02" nType="-99"/>
          </Node>
          <Node pos="r" depth="2" NCoef="0" IVar="7" Cut="7.6133024692535400e-01" cType="1" res="-1.6003180295228958e-02" rms="2.8037002682685852e-01" purity="4.4122374057769775e-01" nType="0">
            <Node pos="l" depth="3" NCoef="0" IVar="-1" Cut="0.0000000000000000e+00" cType="1" res="-2.6901995763182640e-02" rms="2.8607836365699768e-01" purity="4.7263628244400024e-01" nType="-99"/>
            <Node pos="r" depth="3" NCoef="0" IVar="-1" Cut="0.0000000000000000e+00" cType="1" res="1.5093240886926651e-02" rms="2.5497120618820190e-01" purity="3.1789252161979675e-01" nType="-99"/>
          </Node>
        </Node>
        <Node pos="r" depth="1" NCoef="0" IVar="11" Cut="1.4656245708465576e+00" cType="1" res="6.8363465834408998e-04" rms="1.2036213278770447e-01" purity="9.7676938772201538e-01" nType="0">
          <Node pos="l" depth="2" NCoef="0" IVar="10" Cut="-1.2916968762874603e-01" cType="1" res="1.5691972803324461e-03" rms="1.1669308692216873e-01" purity="9.7797524929046631e-01" nType="0">
            <Node pos="l" depth="3" NCoef="0" IVar="-1" Cut="0.0000000000000000e+00" cType="1" res="-1.0087455622851849e-02" rms="1.2302596867084503e-01" purity="9.7490108013153076e-01" nType="-99"/>
            <Node pos="r" depth="3" NCoef="0" IVar="-1" Cut="0.0000000000000000e+00" cType="1" res="2.5533629581332207e-02" rms="1.1122392863035202e-01" purity="9.8047071695327759e-01" nType="-99"/>
          </Node>
          <Node pos="r" depth="2" NCoef="0" IVar="-1" Cut="0.0000000000000000e+00" cType="1" res="-4.9594335258007050e-02" rms="1.5777169167995453e-01" purity="9.6217197179794312e-01" nType="-99"/>
        </Node>
      </Node>
    </BinaryTree>
    <BinaryTree type="DecisionTree" boostWeight="1.0000000000000000e+00" itree="363">
      <Node pos="s" depth="0" NCoef="0" IVar="11" Cut="-3.9767092466354370e-01" cType="1" res="1.8841547425836325e-03" rms="1.8383483588695526e-01" purity="5.0049722194671631e-01" nType="0">
        <Node pos="l" depth="1" NCoef="0" IVar="7" Cut="-5.3692448139190674e-01" cType="1" res="-1.4104637084528804e-03" rms="1.8565343320369720e-01" purity="4.8219314217567444e-01" nType="0">
          <Node pos="l" depth="2" NCoef="0" IVar="1" Cut="6.8241350352764130e-02" cType="1" res="-8.8216615840792656e-03" rms="1.7465467751026154e-01" purity="3.3562731742858887e-01" nType="0">
            <Node pos="l" depth="3" NCoef="0" IVar="-1" Cut="0.0000000000000000e+00" cType="1" res="-1.0869402438402176e-02" rms="1.6901612281799316e-01" purity="1.8014401197433472e-01" nType="-99"/>
            <Node pos="r" depth="3" NCoef="0" IVar="-1" Cut="0.0000000000000000e+00" cType="1" res="-4.9157395958900452e-02" rms="1.8440915644168854e-01" purity="6.2949776649475098e-01" nType="-99"/>
          </Node>
          <Node pos="r" depth="2" NCoef="0" IVar="11" Cut="-1.8822941780090332e+00" cType="1" res="1.5099970623850822e-03" rms="1.8973313271999359e-01" purity="5.3994894027709961e-01" nType="0">
            <Node pos="l" depth="3" NCoef="0" IVar="-1" Cut="0.0000000000000000e+00" cType="1" res="-2.1353384479880333e-02" rms="2.1008354425430298e-01" purity="3.3140170574188232e-01" nType="-99"/>
            <Node pos="r" depth="3" NCoef="0" IVar="-1" Cut="0.0000000000000000e+00" cType="1" res="1.0536809451878071e-02" rms="1.8587313592433929e-01" purity="5.7639420032501221e-01" nType="-99"/>
          </Node>
        </Node>
        <Node pos="r" depth="1" NCoef="0" IVar="5" Cut="1.4817701721191406e+02" cType="1" res="3.8290303200483322e-03" rms="1.8272492289543152e-01" purity="5.1130247116088867e-01" nType="0">
          <Node pos="l" depth="2" NCoef="0" IVar="5" Cut="1.3893690490722656e+02" cType="1" res="-2.6652042288333178e-04" rms="1.6951563954353333e-01" purity="9.2340581119060516e-02" nType="0">
            <Node pos="l" depth="3" NCoef="0" IVar="-1" Cut="0.0000000000000000e+00" cType="1" res="8.0446973443031311e-03" rms="1.6204276680946350e-01" purity="7.5379200279712677e-02" nType="-99"/>
            <Node pos="r" depth="3" NCoef="0" IVar="-1" Cut="0.0000000000000000e+00" cType="1" res="-3.6754574626684189e-02" rms="2.2184309363365173e-01" purity="2.3542289435863495e-01" nType="-99"/>
          </Node>
          <Node pos="r" depth="2" NCoef="0" IVar="5" Cut="2.3130102539062500e+02" cType="1" res="6.5581742674112320e-03" rms="1.9097192585468292e-01" purity="7.9048520326614380e-01" nType="0">
            <Node pos="l" depth="3" NCoef="0" IVar="-1" Cut="0.0000000000000000e+00" cType="1" res="2.6486821472644806e-02" rms="2.4658097326755524e-01" purity="5.7408285140991211e-01" nType="-99"/>
            <Node pos="r" depth="3" NCoef="0" IVar="-1" Cut="0.0000000000000000e+00" cType="1" res="-6.2680738046765327e-03" rms="1.3288469612598419e-01" purity="9.5657563209533691e-01" nType="-99"/>
          </Node>
        </Node>
      </Node>
    </BinaryTree>
    <BinaryTree type="DecisionTree" boostWeight="1.0000000000000000e+00" itree="364">
      <Node pos="s" depth="0" NCoef="0" IVar="3" Cut="2.4402763366699219e+02" cType="1" res="-9.0507121058180928e-04" rms="1.8041573464870453e-01" purity="4.9936375021934509e-01" nType="0">
        <Node pos="l" depth="1" NCoef="0" IVar="6" Cut="8.1429649353027344e+01" cType="1" res="3.3282097429037094e-03" rms="1.4056028425693512e-01" purity="4.0855344384908676e-02" nType="0">
          <Node pos="l" depth="2" NCoef="0" IVar="4" Cut="1.3501663208007812e+02" cType="1" res="-1.9661854021251202e-03" rms="7.4236810207366943e-02" purity="7.9379519447684288e-03" nType="0">
            <Node pos="l" depth="3" NCoef="0" IVar="-1" Cut="0.0000000000000000e+00" cType="1" res="5.6480426341295242e-02" rms="8.4132455289363861e-02" purity="8.2700140774250031e-03" nType="-99"/>
            <Node pos="r" depth="3" NCoef="0" IVar="-1" Cut="0.0000000000000000e+00" cType="1" res="-6.6121354699134827e-02" rms="6.1655867844820023e-02" purity="7.5863264501094818e-03" nType="-99"/>
          </Node>
          <Node pos="r" depth="2" NCoef="0" IVar="4" Cut="1.6810253906250000e+02" cType="1" res="6.6737574525177479e-03" rms="1.6950058937072754e-01" purity="6.1655972152948380e-02" nType="0">
            <Node pos="l" depth="3" NCoef="0" IVar="-1" Cut="0.0000000000000000e+00" cType="1" res="-4.9214889295399189e-03" rms="1.2599320709705353e-01" purity="2.3375542834401131e-02" nType="-99"/>
            <Node pos="r" depth="3" NCoef="0" IVar="-1" Cut="0.0000000000000000e+00" cType="1" res="4.2368296533823013e-02" rms="2.0892530679702759e-01" purity="1.0650305449962616e-01" nType="-99"/>
          </Node>
        </Node>
        <Node pos="r" depth="1" NCoef="0" IVar="10" Cut="1.7338583469390869e+00" cType="1" res="-2.1017396356910467e-03" rms="1.9015672802925110e-01" purity="6.2897539138793945e-01" nType="0">
          <Node pos="l" depth="2" NCoef="0" IVar="4" Cut="3.1223602294921875e+02" cType="1" res="-2.8831681702286005e-03" rms="1.8517731130123138e-01" purity="6.4182180166244507e-01" nType="0">
            <Node pos="l" depth="3" NCoef="0" IVar="-1" Cut="0.0000000000000000e+00" cType="1" res="-1.2604730203747749e-02" rms="2.2161424160003662e-01" purity="3.6627843976020813e-01" nType="-99"/>
            <Node pos="r" depth="3" NCoef="0" IVar="-1" Cut="0.0000000000000000e+00" cType="1" res="6.6246283240616322e-03" rms="1.3167469203472137e-01" purity="9.5633232593536377e-01" nType="-99"/>
          </Node>
          <Node pos="r" depth="2" NCoef="0" IVar="-1" Cut="0.0000000000000000e+00" cType="1" res="2.1287828683853149e-02" rms="2.6717028021812439e-01" purity="3.8529345393180847e-01" nType="-99"/>
        </Node>
      </Node>
    </BinaryTree>
    <BinaryTree type="DecisionTree" boostWeight="1.0000000000000000e+00" itree="365">
      <Node pos="s" depth="0" NCoef="0" IVar="7" Cut="-1.1415117979049683e+00" cType="1" res="1.1433572508394718e-03" rms="1.8105933070182800e-01" purity="5.0287479162216187e-01" nType="0">
        <Node pos="l" depth="1" NCoef="0" IVar="4" Cut="2.0626600646972656e+02" cType="1" res="-8.2709649577736855e-03" rms="1.5347793698310852e-01" purity="1.3761214911937714e-01" nType="0">
          <Node pos="l" depth="2" NCoef="0" IVar="3" Cut="2.1835440063476562e+02" cType="1" res="-1.9785093609243631e-03" rms="8.9927941560745239e-02" purity="1.3998755253851414e-02" nType="0">
            <Node pos="l" depth="3" NCoef="0" IVar="-1" Cut="0.0000000000000000e+00" cType="1" res="-6.9374285638332367e-02" rms="6.3127256929874420e-02" purity="5.3633656352758408e-03" nType="-99"/>
            <Node pos="r" depth="3" NCoef="0" IVar="-1" Cut="0.0000000000000000e+00" cType="1" res="1.1864348314702511e-02" rms="1.0518731176853180e-01" purity="2.0325103774666786e-02" nType="-99"/>
          </Node>
          <Node pos="r" depth="2" NCoef="0" IVar="-1" Cut="0.0000000000000000e+00" cType="1" res="-3.4515727311372757e-02" rms="2.3048603534698486e-01" purity="3.7568551301956177e-01" nType="-99"/>
        </Node>
        <Node pos="r" depth="1" NCoef="0" IVar="3" Cut="3.4549966430664062e+02" cType="1" res="2.1139476448297501e-03" rms="1.8364007771015167e-01" purity="5.4053235054016113e-01" nType="0">
          <Node pos="l" depth="2" NCoef="0" IVar="6" Cut="1.2722903442382812e+02" cType="1" res="5.7198447175323963e-03" rms="1.9288389384746552e-01" purity="1.6442757844924927e-01" nType="0">
            <Node pos="l" depth="3" NCoef="0" IVar="-1" Cut="0.0000000000000000e+00" cType="1" res="1.0213429108262062e-02" rms="1.6549788415431976e-01" purity="6.6313095390796661e-02" nType="-99"/>
            <Node pos="r" depth="3" NCoef="0" IVar="-1" Cut="0.0000000000000000e+00" cType="1" res="2.3127479478716850e-02" rms="2.7038177847862244e-01" purity="5.2495157718658447e-01" nType="-99"/>
          </Node>
          <Node pos="r" depth="2" NCoef="0" IVar="0" Cut="2.3873330078125000e+03" cType="1" res="-7.1312772342935205e-04" rms="1.7600204050540924e-01" purity="8.3540391921997070e-01" nType="0">
            <Node pos="l" depth="3" NCoef="0" IVar="-1" Cut="0.0000000000000000e+00" cType="1" res="-1.0920666158199310e-02" rms="2.8691089153289795e-01" purity="2.2866706550121307e-01" nType="-99"/>
            <Node pos="r" depth="3" NCoef="0" IVar="-1" Cut="0.0000000000000000e+00" cType="1" res="5.3226733580231667e-03" rms="1.4157976210117340e-01" purity="9.6435284614562988e-01" nType="-99"/>
          </Node>
        </Node>
      </Node>
    </BinaryTree>
    <BinaryTree type="DecisionTree" boostWeight="1.0000000000000000e+00" itree="366">
      <Node pos="s" depth="0" NCoef="0" IVar="10" Cut="1.7330983877182007e+00" cType="1" res="-3.2876036129891872e-04" rms="1.8093110620975494e-01" purity="4.9618890881538391e-01" nType="0">
        <Node pos="l" depth="1" NCoef="0" IVar="8" Cut="9.3341398239135742e-01" cType="1" res="5.6028517428785563e-04" rms="1.8001972138881683e-01" purity="5.1481932401657104e-01" nType="0">
          <Node pos="l" depth="2" NCoef="0" IVar="4" Cut="1.5800704956054688e+02" cType="1" res="1.8596785375848413e-03" rms="1.7779217660427094e-01" purity="5.5632191896438599e-01" nType="0">
            <Node pos="l" depth="3" NCoef="0" IVar="-1" Cut="0.0000000000000000e+00" cType="1" res="-2.1353410556912422e-02" rms="1.1839962005615234e-01" purity="2.6234077289700508e-02" nType="-99"/>
            <Node pos="r" depth="3" NCoef="0" IVar="-1" Cut="0.0000000000000000e+00" cType="1" res="8.3401212468743324e-03" rms="1.8859995901584625e-01" purity="6.7589265108108521e-01" nType="-99"/>
          </Node>
          <Node pos="r" depth="2" NCoef="0" IVar="1" Cut="3.5005435347557068e-02" cType="1" res="-6.2687117606401443e-03" rms="1.9115559756755829e-01" purity="2.9670119285583496e-01" nType="0">
            <Node pos="l" depth="3" NCoef="0" IVar="-1" Cut="0.0000000000000000e+00" cType="1" res="-4.9975764704868197e-04" rms="1.4347137510776520e-01" purity="8.8953949511051178e-02" nType="-99"/>
            <Node pos="r" depth="3" NCoef="0" IVar="-1" Cut="0.0000000000000000e+00" cType="1" res="-2.4636365473270416e-02" rms="2.2497315704822540e-01" purity="4.8074460029602051e-01" nType="-99"/>
          </Node>
        </Node>
        <Node pos="r" depth="1" NCoef="0" IVar="5" Cut="1.3247177124023438e+02" cType="1" res="-1.3056372292339802e-02" rms="1.9306015968322754e-01" purity="2.2947531938552856e-01" nType="0">
          <Node pos="l" depth="2" NCoef="0" IVar="-1" Cut="0.0000000000000000e+00" cType="1" res="-5.1333033479750156e-03" rms="1.6096219420433044e-01" purity="8.3477094769477844e-02" nType="-99"/>
          <Node pos="r" depth="2" NCoef="0" IVar="-1" Cut="0.0000000000000000e+00" cType="1" res="-4.4727690517902374e-02" rms="2.1721524000167847e-01" purity="3.5972392559051514e-01" nType="-99"/>
        </Node>
      </Node>
    </BinaryTree>
    <BinaryTree type="DecisionTree" boostWeight="1.0000000000000000e+00" itree="367">
      <Node pos="s" depth="0" NCoef="0" IVar="9" Cut="-1.9987834692001343e+00" cType="1" res="2.5019152089953423e-03" rms="1.8346127867698669e-01" purity="4.9378162622451782e-01" nType="0">
        <Node pos="l" depth="1" NCoef="0" IVar="-1" Cut="0.0000000000000000e+00" cType="1" res="6.3377499580383301e-02" rms="1.9168367981910706e-01" purity="9.4967305660247803e-02" nType="-99"/>
        <Node pos="r" depth="1" NCoef="0" IVar="6" Cut="8.1283607482910156e+01" cType="1" res="2.1166570950299501e-03" rms="1.8321199715137482e-01" purity="5.0489145517349243e-01" nType="0">
          <Node pos="l" depth="2" NCoef="0" IVar="6" Cut="7.2397438049316406e+01" cType="1" res="-1.6754241660237312e-03" rms="1.5091699361801147e-01" purity="8.4368571639060974e-02" nType="0">
            <Node pos="l" depth="3" NCoef="0" IVar="-1" Cut="0.0000000000000000e+00" cType="1" res="-3.0833339318633080e-02" rms="1.3628621399402618e-01" purity="5.6539382785558701e-02" nType="-99"/>
            <Node pos="r" depth="3" NCoef="0" IVar="-1" Cut="0.0000000000000000e+00" cType="1" res="2.3282486945390701e-02" rms="1.7450773715972900e-01" purity="1.3606753945350647e-01" nType="-99"/>
          </Node>
          <Node pos="r" depth="2" NCoef="0" IVar="4" Cut="3.6327178955078125e+02" cType="1" res="3.1612925231456757e-03" rms="1.9113917648792267e-01" purity="6.2073630094528198e-01" nType="0">
            <Node pos="l" depth="3" NCoef="0" IVar="-1" Cut="0.0000000000000000e+00" cType="1" res="1.0754049755632877e-02" rms="2.1750356256961823e-01" purity="4.5402231812477112e-01" nType="-99"/>
            <Node pos="r" depth="3" NCoef="0" IVar="-1" Cut="0.0000000000000000e+00" cType="1" res="-1.0576421394944191e-02" rms="1.1517233401536942e-01" purity="9.8034793138504028e-01" nType="-99"/>
          </Node>
        </Node>
      </Node>
    </BinaryTree>
    <BinaryTree type="DecisionTree" boostWeight="1.0000000000000000e+00" itree="368">
      <Node pos="s" depth="0" NCoef="0" IVar="9" Cut="1.1992057561874390e+00" cType="1" res="-3.4866580972447991e-04" rms="1.8492010235786438e-01" purity="5.0058549642562866e-01" nType="0">
        <Node pos="l" depth="1" NCoef="0" IVar="1" Cut="4.3338779360055923e-02" cType="1" res="-1.2086766073480248e-03" rms="1.8249030411243439e-01" purity="5.2209150791168213e-01" nType="0">
          <Node pos="l" depth="2" NCoef="0" IVar="10" Cut="-3.9803463220596313e-01" cType="1" res="-4.3371166102588177e-03" rms="1.7476117610931396e-01" purity="1.9481641054153442e-01" nType="0">
            <Node pos="l" depth="3" NCoef="0" IVar="-1" Cut="0.0000000000000000e+00" cType="1" res="-3.5566002130508423e-02" rms="1.5892764925956726e-01" purity="1.6186751425266266e-01" nType="-99"/>
            <Node pos="r" depth="3" NCoef="0" IVar="-1" Cut="0.0000000000000000e+00" cType="1" res="-5.6612389016663656e-05" rms="1.8461789190769196e-01" purity="2.1719439327716827e-01" nType="-99"/>
          </Node>
          <Node pos="r" depth="2" NCoef="0" IVar="7" Cut="-1.0301336050033569e+00" cType="1" res="4.1076992056332529e-04" rms="1.8634481728076935e-01" purity="6.9150644540786743e-01" nType="0">
            <Node pos="l" depth="3" NCoef="0" IVar="-1" Cut="0.0000000000000000e+00" cType="1" res="3.2787833362817764e-02" rms="2.2273440659046173e-01" purity="4.8225909471511841e-01" nType="-99"/>
            <Node pos="r" depth="3" NCoef="0" IVar="-1" Cut="0.0000000000000000e+00" cType="1" res="-1.4589205384254456e-03" rms="1.8389369547367096e-01" purity="7.0406180620193481e-01" nType="-99"/>
          </Node>
        </Node>
        <Node pos="r" depth="1" NCoef="0" IVar="8" Cut="4.0496125817298889e-01" cType="1" res="6.3528106547892094e-03" rms="2.0273427665233612e-01" purity="3.3300408720970154e-01" nType="0">
          <Node pos="l" depth="2" NCoef="0" IVar="3" Cut="2.8194000244140625e+02" cType="1" res="-4.7675357200205326e-04" rms="2.0853175222873688e-01" purity="3.7047678232192993e-01" nType="0">
            <Node pos="l" depth="3" NCoef="0" IVar="-1" Cut="0.0000000000000000e+00" cType="1" res="3.4989405423402786e-02" rms="1.6037872433662415e-01" purity="8.9140035212039948e-02" nType="-99"/>
            <Node pos="r" depth="3" NCoef="0" IVar="-1" Cut="0.0000000000000000e+00" cType="1" res="-1.3443565927445889e-02" rms="2.3666156828403473e-01" purity="5.7050162553787231e-01" nType="-99"/>
          </Node>
          <Node pos="r" depth="2" NCoef="0" IVar="-1" Cut="0.0000000000000000e+00" cType="1" res="4.1357122361660004e-02" rms="1.9391585886478424e-01" purity="2.8049728274345398e-01" nType="-99"/>
        </Node>
      </Node>
    </BinaryTree>
    <BinaryTree type="DecisionTree" boostWeight="1.0000000000000000e+00" itree="369">
      <Node pos="s" depth="0" NCoef="0" IVar="11" Cut="-1.3229520618915558e-01" cType="1" res="-9.2261179815977812e-04" rms="1.8117125332355499e-01" purity="5.0123494863510132e-01" nType="0">
        <Node pos="l" depth="1" NCoef="0" IVar="9" Cut="-9.3352866172790527e-01" cType="1" res="-4.2789946310222149e-03" rms="1.8145625293254852e-01" purity="4.9807050824165344e-01" nType="0">
          <Node pos="l" depth="2" NCoef="0" IVar="0" Cut="1.8277203369140625e+03" cType="1" res="2.6238621212542057e-03" rms="1.9356617331504822e-01" purity="3.6792325973510742e-01" nType="0">
            <Node pos="l" depth="3" NCoef="0" IVar="-1" Cut="0.0000000000000000e+00" cType="1" res="-4.1232295334339142e-02" rms="9.3760751187801361e-02" purity="8.6936494335532188e-03" nType="-99"/>
            <Node pos="r" depth="3" NCoef="0" IVar="-1" Cut="0.0000000000000000e+00" cType="1" res="1.6463728621602058e-02" rms="2.5583967566490173e-01" purity="7.2006571292877197e-01" nType="-99"/>
          </Node>
          <Node pos="r" depth="2" NCoef="0" IVar="0" Cut="2.6192426757812500e+03" cType="1" res="-6.1041843146085739e-03" rms="1.7807196080684662e-01" purity="5.3248286247253418e-01" nType="0">
            <Node pos="l" depth="3" NCoef="0" IVar="-1" Cut="0.0000000000000000e+00" cType="1" res="-2.2390365600585938e-02" rms="2.1047283709049225e-01" purity="1.6159817576408386e-01" nType="-99"/>
            <Node pos="r" depth="3" NCoef="0" IVar="-1" Cut="0.0000000000000000e+00" cType="1" res="-5.0529227592051029e-03" rms="1.2886786460876465e-01" purity="9.7591125965118408e-01" nType="-99"/>
          </Node>
        </Node>
        <Node pos="r" depth="1" NCoef="0" IVar="7" Cut="-4.4414237141609192e-02" cType="1" res="1.9906575325876474e-03" rms="1.8087303638458252e-01" purity="5.0398164987564087e-01" nType="0">
          <Node pos="l" depth="2" NCoef="0" IVar="11" Cut="1.4717775583267212e-01" cType="1" res="6.2065711244940758e-03" rms="1.9074742496013641e-01" purity="5.1154237985610962e-01" nType="0">
            <Node pos="l" depth="3" NCoef="0" IVar="-1" Cut="0.0000000000000000e+00" cType="1" res="5.0957173109054565e-02" rms="1.8232250213623047e-01" purity="5.4766327142715454e-01" nType="-99"/>
            <Node pos="r" depth="3" NCoef="0" IVar="-1" Cut="0.0000000000000000e+00" cType="1" res="1.1302787810564041e-02" rms="1.9234772026538849e-01" purity="5.0417470932006836e-01" nType="-99"/>
          </Node>
          <Node pos="r" depth="2" NCoef="0" IVar="0" Cut="2.3649755859375000e+03" cType="1" res="-1.5335868811234832e-03" rms="1.7210544645786285e-01" purity="4.9766132235527039e-01" nType="0">
            <Node pos="l" depth="3" NCoef="0" IVar="-1" Cut="0.0000000000000000e+00" cType="1" res="-1.6421334818005562e-02" rms="1.9465948641300201e-01" purity="7.8742526471614838e-02" nType="-99"/>
            <Node pos="r" depth="3" NCoef="0" IVar="-1" Cut="0.0000000000000000e+00" cType="1" res="1.5846280381083488e-02" rms="1.4329244196414948e-01" purity="9.5462840795516968e-01" nType="-99"/>
          </Node>
        </Node>
      </Node>
    </BinaryTree>
    <BinaryTree type="DecisionTree" boostWeight="1.0000000000000000e+00" itree="370">
      <Node pos="s" depth="0" NCoef="0" IVar="9" Cut="9.3287640810012817e-01" cType="1" res="2.4224350636359304e-04" rms="1.7941923439502716e-01" purity="5.0383096933364868e-01" nType="0">
        <Node pos="l" depth="1" NCoef="0" IVar="11" Cut="-1.9985568523406982e+00" cType="1" res="1.7409158172085881e-03" rms="1.7789521813392639e-01" purity="5.3527337312698364e-01" nType="0">
          <Node pos="l" depth="2" NCoef="0" IVar="-1" Cut="0.0000000000000000e+00" cType="1" res="5.1145236939191818e-02" rms="2.1578443050384521e-01" purity="3.2858946919441223e-01" nType="-99"/>
          <Node pos="r" depth="2" NCoef="0" IVar="11" Cut="-1.3130375146865845e+00" cType="1" res="9.6122652757912874e-04" rms="1.7607837915420532e-01" purity="5.4397612810134888e-01" nType="0">
            <Node pos="l" depth="3" NCoef="0" IVar="-1" Cut="0.0000000000000000e+00" cType="1" res="-1.9100226461887360e-02" rms="1.8802806735038757e-01" purity="4.7375425696372986e-01" nType="-99"/>
            <Node pos="r" depth="3" NCoef="0" IVar="-1" Cut="0.0000000000000000e+00" cType="1" res="5.7647689245641232e-03" rms="1.7463260889053345e-01" purity="5.5203360319137573e-01" nType="-99"/>
          </Node>
        </Node>
        <Node pos="r" depth="1" NCoef="0" IVar="7" Cut="4.9461099505424500e-01" cType="1" res="-6.6201360896229744e-03" rms="1.8608430027961731e-01" purity="3.5985696315765381e-01" nType="0">
          <Node pos="l" depth="2" NCoef="0" IVar="11" Cut="-3.9912629127502441e-01" cType="1" res="-9.8304096609354019e-03" rms="1.9164974987506866e-01" purity="3.9203661680221558e-01" nType="0">
            <Node pos="l" depth="3" NCoef="0" IVar="-1" Cut="0.0000000000000000e+00" cType="1" res="-5.4330557584762573e-02" rms="1.6815854609012604e-01" purity="3.7021121382713318e-01" nType="-99"/>
            <Node pos="r" depth="3" NCoef="0" IVar="-1" Cut="0.0000000000000000e+00" cType="1" res="-1.0943737812340260e-02" rms="2.0322465896606445e-01" purity="4.0405121445655823e-01" nType="-99"/>
          </Node>
          <Node pos="r" depth="2" NCoef="0" IVar="4" Cut="1.9787574768066406e+02" cType="1" res="7.2200392605736852e-04" rms="1.7245829105377197e-01" purity="2.8625962138175964e-01" nType="0">
            <Node pos="l" depth="3" NCoef="0" IVar="-1" Cut="0.0000000000000000e+00" cType="1" res="-2.7191920205950737e-02" rms="1.4408732950687408e-01" purity="3.9525650441646576e-02" nType="-99"/>
            <Node pos="r" depth="3" NCoef="0" IVar="-1" Cut="0.0000000000000000e+00" cType="1" res="1.5731500461697578e-02" rms="1.9786196947097778e-01" purity="5.4736661911010742e-01" nType="-99"/>
          </Node>
        </Node>
      </Node>
    </BinaryTree>
    <BinaryTree type="DecisionTree" boostWeight="1.0000000000000000e+00" itree="371">
      <Node pos="s" depth="0" NCoef="0" IVar="10" Cut="-1.9983290433883667e+00" cType="1" res="7.4916955782100558e-04" rms="1.7919084429740906e-01" purity="5.0109523534774780e-01" nType="0">
        <Node pos="l" depth="1" NCoef="0" IVar="-1" Cut="0.0000000000000000e+00" cType="1" res="3.7931289523839951e-02" rms="2.1074749529361725e-01" purity="2.3090569674968719e-01" nType="-99"/>
        <Node pos="r" depth="1" NCoef="0" IVar="7" Cut="1.2603085041046143e+00" cType="1" res="2.5021031615324318e-04" rms="1.7795744538307190e-01" purity="5.1060682535171509e-01" nType="0">
          <Node pos="l" depth="2" NCoef="0" IVar="11" Cut="-2.0000410079956055e+00" cType="1" res="1.0354538680985570e-03" rms="1.8082126975059509e-01" purity="5.4705560207366943e-01" nType="0">
            <Node pos="l" depth="3" NCoef="0" IVar="-1" Cut="0.0000000000000000e+00" cType="1" res="-2.6290917769074440e-02" rms="2.0032973587512970e-01" purity="2.9737111926078796e-01" nType="-99"/>
            <Node pos="r" depth="3" NCoef="0" IVar="-1" Cut="0.0000000000000000e+00" cType="1" res="4.8787784762680531e-03" rms="1.7987702786922455e-01" purity="5.5819827318191528e-01" nType="-99"/>
          </Node>
          <Node pos="r" depth="2" NCoef="0" IVar="5" Cut="1.4426831054687500e+02" cType="1" res="-8.5709346458315849e-03" rms="1.4156916737556458e-01" purity="1.0115486383438110e-01" nType="0">
            <Node pos="l" depth="3" NCoef="0" IVar="-1" Cut="0.0000000000000000e+00" cType="1" res="5.8890376240015030e-03" rms="9.6682369709014893e-02" purity="1.1484228074550629e-02" nType="-99"/>
            <Node pos="r" depth="3" NCoef="0" IVar="-1" Cut="0.0000000000000000e+00" cType="1" res="-5.2455451339483261e-02" rms="1.9701130688190460e-01" purity="2.6199474930763245e-01" nType="-99"/>
          </Node>
        </Node>
      </Node>
    </BinaryTree>
    <BinaryTree type="DecisionTree" boostWeight="1.0000000000000000e+00" itree="372">
      <Node pos="s" depth="0" NCoef="0" IVar="7" Cut="7.3084074258804321e-01" cType="1" res="4.4995420466875657e-05" rms="1.8099181354045868e-01" purity="5.0712847709655762e-01" nType="0">
        <Node pos="l" depth="1" NCoef="0" IVar="8" Cut="-1.4652649164199829e+00" cType="1" res="1.0847302619367838e-03" rms="1.8243554234504700e-01" purity="5.6222981214523315e-01" nType="0">
          <Node pos="l" depth="2" NCoef="0" IVar="-1" Cut="0.0000000000000000e+00" cType="1" res="3.7783216685056686e-02" rms="1.8340393900871277e-01" purity="1.6379630565643311e-01" nType="-99"/>
          <Node pos="r" depth="2" NCoef="0" IVar="4" Cut="1.5901519775390625e+02" cType="1" res="3.6057434044778347e-04" rms="1.8234954774379730e-01" purity="5.8769255876541138e-01" nType="0">
            <Node pos="l" depth="3" NCoef="0" IVar="-1" Cut="0.0000000000000000e+00" cType="1" res="2.5824293494224548e-02" rms="1.4969144761562347e-01" purity="4.4106926769018173e-02" nType="-99"/>
            <Node pos="r" depth="3" NCoef="0" IVar="-1" Cut="0.0000000000000000e+00" cType="1" res="-1.7099416581913829e-03" rms="1.8839171528816223e-01" purity="7.0027089118957520e-01" nType="-99"/>
          </Node>
        </Node>
        <Node pos="r" depth="1" NCoef="0" IVar="2" Cut="6.7416760253906250e+02" cType="1" res="-4.3623009696602821e-03" rms="1.7467091977596283e-01" purity="2.7356132864952087e-01" nType="0">
          <Node pos="l" depth="2" NCoef="0" IVar="1" Cut="5.0873387604951859e-02" cType="1" res="-5.6591513566672802e-04" rms="1.6741165518760681e-01" purity="2.0291429758071899e-01" nType="0">
            <Node pos="l" depth="3" NCoef="0" IVar="-1" Cut="0.0000000000000000e+00" cType="1" res="1.8019303679466248e-02" rms="1.4193066954612732e-01" purity="6.9423444569110870e-02" nType="-99"/>
            <Node pos="r" depth="3" NCoef="0" IVar="-1" Cut="0.0000000000000000e+00" cType="1" res="-1.8554402515292168e-02" rms="2.0768612623214722e-01" purity="4.6061128377914429e-01" nType="-99"/>
          </Node>
          <Node pos="r" depth="2" NCoef="0" IVar="-1" Cut="0.0000000000000000e+00" cType="1" res="-5.4720338433980942e-02" rms="2.0544335246086121e-01" purity="6.1808401346206665e-01" nType="-99"/>
        </Node>
      </Node>
    </BinaryTree>
    <BinaryTree type="DecisionTree" boostWeight="1.0000000000000000e+00" itree="373">
      <Node pos="s" depth="0" NCoef="0" IVar="11" Cut="9.3312209844589233e-01" cType="1" res="5.9824157506227493e-04" rms="1.8230745196342468e-01" purity="4.9805581569671631e-01" nType="0">
        <Node pos="l" depth="1" NCoef="0" IVar="11" Cut="-1.7334738969802856e+00" cType="1" res="2.5116645265370607e-03" rms="1.7952714860439301e-01" purity="5.1543867588043213e-01" nType="0">
          <Node pos="l" depth="2" NCoef="0" IVar="9" Cut="3.9876845479011536e-01" cType="1" res="1.0693497955799103e-02" rms="1.9819548726081848e-01" purity="3.6594918370246887e-01" nType="0">
            <Node pos="l" depth="3" NCoef="0" IVar="-1" Cut="0.0000000000000000e+00" cType="1" res="3.4976073075085878e-03" rms="1.8965101242065430e-01" purity="3.7015956640243530e-01" nType="-99"/>
            <Node pos="r" depth="3" NCoef="0" IVar="-1" Cut="0.0000000000000000e+00" cType="1" res="6.3793167471885681e-02" rms="2.1266554296016693e-01" purity="3.5775801539421082e-01" nType="-99"/>
          </Node>
          <Node pos="r" depth="2" NCoef="0" IVar="7" Cut="-6.1700725555419922e-01" cType="1" res="1.6368394717574120e-03" rms="1.7739254236221313e-01" purity="5.3142249584197998e-01" nType="0">
            <Node pos="l" depth="3" NCoef="0" IVar="-1" Cut="0.0000000000000000e+00" cType="1" res="-9.4998395070433617e-03" rms="1.7198014259338379e-01" purity="3.4887978434562683e-01" nType="-99"/>
            <Node pos="r" depth="3" NCoef="0" IVar="-1" Cut="0.0000000000000000e+00" cType="1" res="9.6597485244274139e-03" rms="1.7893500626087189e-01" purity="5.8532607555389404e-01" nType="-99"/>
          </Node>
        </Node>
        <Node pos="r" depth="1" NCoef="0" IVar="10" Cut="1.2012177705764771e+00" cType="1" res="-5.7209492661058903e-03" rms="1.9106644392013550e-01" purity="4.4064795970916748e-01" nType="0">
          <Node pos="l" depth="2" NCoef="0" IVar="9" Cut="9.3548202514648438e-01" cType="1" res="-3.0990801751613617e-03" rms="1.8640761077404022e-01" purity="4.7629880905151367e-01" nType="0">
            <Node pos="l" depth="3" NCoef="0" IVar="-1" Cut="0.0000000000000000e+00" cType="1" res="-4.0940576582215726e-04" rms="1.7950373888015747e-01" purity="5.2204561233520508e-01" nType="-99"/>
            <Node pos="r" depth="3" NCoef="0" IVar="-1" Cut="0.0000000000000000e+00" cType="1" res="-3.2755617052316666e-02" rms="2.0942504703998566e-01" purity="3.0859729647636414e-01" nType="-99"/>
          </Node>
          <Node pos="r" depth="2" NCoef="0" IVar="-1" Cut="0.0000000000000000e+00" cType="1" res="-3.8372606039047241e-02" rms="2.0994205772876740e-01" purity="2.8389337658882141e-01" nType="-99"/>
        </Node>
      </Node>
    </BinaryTree>
    <BinaryTree type="DecisionTree" boostWeight="1.0000000000000000e+00" itree="374">
      <Node pos="s" depth="0" NCoef="0" IVar="7" Cut="1.4734616279602051e+00" cType="1" res="1.2374620418995619e-03" rms="1.8051782250404358e-01" purity="4.9251785874366760e-01" nType="0">
        <Node pos="l" depth="1" NCoef="0" IVar="10" Cut="-1.9991436004638672e+00" cType="1" res="1.7861368833109736e-03" rms="1.8345628678798676e-01" purity="5.1562219858169556e-01" nType="0">
          <Node pos="l" depth="2" NCoef="0" IVar="-1" Cut="0.0000000000000000e+00" cType="1" res="-2.2585961967706680e-02" rms="1.9376809895038605e-01" purity="1.7749494314193726e-01" nType="-99"/>
          <Node pos="r" depth="2" NCoef="0" IVar="3" Cut="2.4610797119140625e+02" cType="1" res="2.1806254517287016e-03" rms="1.8303823471069336e-01" purity="5.2857339382171631e-01" nType="0">
            <Node pos="l" depth="3" NCoef="0" IVar="-1" Cut="0.0000000000000000e+00" cType="1" res="-8.1746559590101242e-03" rms="1.4557129144668579e-01" purity="4.3028324842453003e-02" nType="-99"/>
            <Node pos="r" depth="3" NCoef="0" IVar="-1" Cut="0.0000000000000000e+00" cType="1" res="8.3884336054325104e-03" rms="1.9154991209506989e-01" purity="6.5451031923294067e-01" nType="-99"/>
          </Node>
        </Node>
        <Node pos="r" depth="1" NCoef="0" IVar="-1" Cut="0.0000000000000000e+00" cType="1" res="-5.6431606411933899e-02" rms="1.0758728533983231e-01" purity="4.1222397238016129e-02" nType="-99"/>
      </Node>
    </BinaryTree>
    <BinaryTree type="DecisionTree" boostWeight="1.0000000000000000e+00" itree="375">
      <Node pos="s" depth="0" NCoef="0" IVar="10" Cut="1.9996237754821777e+00" cType="1" res="-1.9347475608810782e-03" rms="1.8076461553573608e-01" purity="4.9757406115531921e-01" nType="0">
        <Node pos="l" depth="1" NCoef="0" IVar="4" Cut="2.0869264221191406e+02" cType="1" res="-1.4384672977030277e-03" rms="1.7989413440227509e-01" purity="5.1030963659286499e-01" nType="0">
          <Node pos="l" depth="2" NCoef="0" IVar="7" Cut="1.0078002214431763e+00" cType="1" res="1.6343916067853570e-03" rms="1.6924655437469482e-01" purity="7.6451025903224945e-02" nType="0">
            <Node pos="l" depth="3" NCoef="0" IVar="-1" Cut="0.0000000000000000e+00" cType="1" res="1.0737757198512554e-02" rms="1.7964532971382141e-01" purity="8.8618412613868713e-02" nType="-99"/>
            <Node pos="r" depth="3" NCoef="0" IVar="-1" Cut="0.0000000000000000e+00" cType="1" res="-3.9576116949319839e-02" rms="1.0824376344680786e-01" purity="1.9897464662790298e-02" nType="-99"/>
          </Node>
          <Node pos="r" depth="2" NCoef="0" IVar="0" Cut="2.7314765625000000e+03" cType="1" res="-3.3136722631752491e-03" rms="1.8606778979301453e-01" purity="7.7507078647613525e-01" nType="0">
            <Node pos="l" depth="3" NCoef="0" IVar="-1" Cut="0.0000000000000000e+00" cType="1" res="-1.3981744647026062e-02" rms="2.7544555068016052e-01" purity="4.2059189081192017e-01" nType="-99"/>
            <Node pos="r" depth="3" NCoef="0" IVar="-1" Cut="0.0000000000000000e+00" cType="1" res="8.8940542191267014e-03" rms="1.0043179988861084e-01" purity="9.8546671867370605e-01" nType="-99"/>
          </Node>
        </Node>
        <Node pos="r" depth="1" NCoef="0" IVar="-1" Cut="0.0000000000000000e+00" cType="1" res="-3.2744392752647400e-02" rms="2.0138584077358246e-01" purity="1.7107535898685455e-01" nType="-99"/>
      </Node>
    </BinaryTree>
    <BinaryTree type="DecisionTree" boostWeight="1.0000000000000000e+00" itree="376">
      <Node pos="s" depth="0" NCoef="0" IVar="2" Cut="6.5817657470703125e+02" cType="1" res="-2.3574796505272388e-03" rms="1.8616390228271484e-01" purity="4.9015134572982788e-01" nType="0">
        <Node pos="l" depth="1" NCoef="0" IVar="6" Cut="1.9508702087402344e+02" cType="1" res="-4.5657018199563026e-03" rms="1.9407615065574646e-01" purity="3.2102277874946594e-01" nType="0">
          <Node pos="l" depth="2" NCoef="0" IVar="9" Cut="-6.6635334491729736e-01" cType="1" res="-1.8974023405462503e-03" rms="1.9673897325992584e-01" purity="2.1769377589225769e-01" nType="0">
            <Node pos="l" depth="3" NCoef="0" IVar="-1" Cut="0.0000000000000000e+00" cType="1" res="-2.0168665796518326e-02" rms="1.9467256963253021e-01" purity="1.8733969330787659e-01" nType="-99"/>
            <Node pos="r" depth="3" NCoef="0" IVar="-1" Cut="0.0000000000000000e+00" cType="1" res="1.5231258003041148e-03" rms="1.9755223393440247e-01" purity="2.3050536215305328e-01" nType="-99"/>
          </Node>
          <Node pos="r" depth="2" NCoef="0" IVar="0" Cut="2.9733083496093750e+03" cType="1" res="-2.0367056131362915e-02" rms="1.7666625976562500e-01" purity="9.3292492628097534e-01" nType="0">
            <Node pos="l" depth="3" NCoef="0" IVar="-1" Cut="0.0000000000000000e+00" cType="1" res="-9.4833619892597198e-02" rms="2.6450961828231812e-01" purity="8.4781694412231445e-01" nType="-99"/>
            <Node pos="r" depth="3" NCoef="0" IVar="-1" Cut="0.0000000000000000e+00" cType="1" res="1.1724203824996948e-02" rms="4.4028501957654953e-02" purity="9.9494576454162598e-01" nType="-99"/>
          </Node>
        </Node>
        <Node pos="r" depth="1" NCoef="0" IVar="7" Cut="7.8165423870086670e-01" cType="1" res="1.8669685814529657e-03" rms="1.6992439329624176e-01" purity="8.1370335817337036e-01" nType="0">
          <Node pos="l" depth="2" NCoef="0" IVar="7" Cut="-3.0263665318489075e-01" cType="1" res="4.0540963527746499e-04" rms="1.7098720371723175e-01" purity="8.3713811635971069e-01" nType="0">
            <Node pos="l" depth="3" NCoef="0" IVar="-1" Cut="0.0000000000000000e+00" cType="1" res="1.5496007166802883e-02" rms="1.9139631092548370e-01" purity="7.5316876173019409e-01" nType="-99"/>
            <Node pos="r" depth="3" NCoef="0" IVar="-1" Cut="0.0000000000000000e+00" cType="1" res="-8.9923683553934097e-03" rms="1.5951350331306458e-01" purity="8.7994593381881714e-01" nType="-99"/>
          </Node>
          <Node pos="r" depth="2" NCoef="0" IVar="-1" Cut="0.0000000000000000e+00" cType="1" res="3.5122729837894440e-02" rms="1.5901045501232147e-01" purity="5.9485048055648804e-01" nType="-99"/>
        </Node>
      </Node>
    </BinaryTree>
    <BinaryTree type="DecisionTree" boostWeight="1.0000000000000000e+00" itree="377">
      <Node pos="s" depth="0" NCoef="0" IVar="7" Cut="-5.5483525991439819e-01" cType="1" res="9.8181678913533688e-04" rms="1.8318095803260803e-01" purity="5.0415134429931641e-01" nType="0">
        <Node pos="l" depth="1" NCoef="0" IVar="9" Cut="-1.1876696348190308e+00" cType="1" res="6.9441739469766617e-03" rms="1.9147183001041412e-01" purity="3.7734439969062805e-01" nType="0">
          <Node pos="l" depth="2" NCoef="0" IVar="-1" Cut="0.0000000000000000e+00" cType="1" res="-1.9868854433298111e-02" rms="1.8373668193817139e-01" purity="2.4733911454677582e-01" nType="-99"/>
          <Node pos="r" depth="2" NCoef="0" IVar="1" Cut="1.8545923754572868e-02" cType="1" res="9.3847103416919708e-03" rms="1.9263680279254913e-01" purity="3.9923965930938721e-01" nType="0">
            <Node pos="l" depth="3" NCoef="0" IVar="-1" Cut="0.0000000000000000e+00" cType="1" res="-9.0446770191192627e-03" rms="1.3328221440315247e-01" purity="5.3493093699216843e-02" nType="-99"/>
            <Node pos="r" depth="3" NCoef="0" IVar="-1" Cut="0.0000000000000000e+00" cType="1" res="3.2028019428253174e-02" rms="2.0836329460144043e-01" purity="5.1290351152420044e-01" nType="-99"/>
          </Node>
        </Node>
        <Node pos="r" depth="1" NCoef="0" IVar="10" Cut="-1.1991866827011108e+00" cType="1" res="-1.0306725744158030e-03" rms="1.8025197088718414e-01" purity="5.4695278406143188e-01" nType="0">
          <Node pos="l" depth="2" NCoef="0" IVar="1" Cut="9.5206692814826965e-02" cType="1" res="-7.8698815777897835e-03" rms="2.0421956479549408e-01" purity="4.0392950177192688e-01" nType="0">
            <Node pos="l" depth="3" NCoef="0" IVar="-1" Cut="0.0000000000000000e+00" cType="1" res="-3.3138163387775421e-02" rms="1.9940151274204254e-01" purity="2.3520746827125549e-01" nType="-99"/>
            <Node pos="r" depth="3" NCoef="0" IVar="-1" Cut="0.0000000000000000e+00" cType="1" res="1.3850182294845581e-02" rms="2.1270957589149475e-01" purity="7.3467719554901123e-01" nType="-99"/>
          </Node>
          <Node pos="r" depth="2" NCoef="0" IVar="10" Cut="-4.3754804134368896e-01" cType="1" res="3.8446465623565018e-05" rms="1.7618691921234131e-01" purity="5.6931042671203613e-01" nType="0">
            <Node pos="l" depth="3" NCoef="0" IVar="-1" Cut="0.0000000000000000e+00" cType="1" res="1.7340164631605148e-02" rms="1.8085102736949921e-01" purity="6.0728931427001953e-01" nType="-99"/>
            <Node pos="r" depth="3" NCoef="0" IVar="-1" Cut="0.0000000000000000e+00" cType="1" res="-5.3827427327632904e-03" rms="1.7456433176994324e-01" purity="5.5662882328033447e-01" nType="-99"/>
          </Node>
        </Node>
      </Node>
    </BinaryTree>
    <BinaryTree type="DecisionTree" boostWeight="1.0000000000000000e+00" itree="378">
      <Node pos="s" depth="0" NCoef="0" IVar="8" Cut="-9.3263530731201172e-01" cType="1" res="-2.3835450701881200e-04" rms="1.8260343372821808e-01" purity="5.0194174051284790e-01" nType="0">
        <Node pos="l" depth="1" NCoef="0" IVar="3" Cut="3.7145730590820312e+02" cType="1" res="-8.3411680534482002e-03" rms="1.8759536743164062e-01" purity="2.6776647567749023e-01" nType="0">
          <Node pos="l" depth="2" NCoef="0" IVar="6" Cut="1.1243303680419922e+02" cType="1" res="-3.7108804099261761e-03" rms="1.7357634007930756e-01" purity="1.1893610656261444e-01" nType="0">
            <Node pos="l" depth="3" NCoef="0" IVar="-1" Cut="0.0000000000000000e+00" cType="1" res="1.7880361527204514e-02" rms="1.4449296891689301e-01" purity="3.6129042506217957e-02" nType="-99"/>
            <Node pos="r" depth="3" NCoef="0" IVar="-1" Cut="0.0000000000000000e+00" cType="1" res="-3.1607817858457565e-02" rms="2.2429761290550232e-01" purity="3.0262058973312378e-01" nType="-99"/>
          </Node>
          <Node pos="r" depth="2" NCoef="0" IVar="-1" Cut="0.0000000000000000e+00" cType="1" res="-3.9722457528114319e-02" rms="2.1935851871967316e-01" purity="6.5358734130859375e-01" nType="-99"/>
        </Node>
        <Node pos="r" depth="1" NCoef="0" IVar="11" Cut="1.7333624362945557e+00" cType="1" res="1.3947576517239213e-03" rms="1.8153691291809082e-01" purity="5.4913949966430664e-01" nType="0">
          <Node pos="l" depth="2" NCoef="0" IVar="9" Cut="-9.3292564153671265e-01" cType="1" res="6.1439117416739464e-04" rms="1.7942510545253754e-01" purity="5.6278198957443237e-01" nType="0">
            <Node pos="l" depth="3" NCoef="0" IVar="-1" Cut="0.0000000000000000e+00" cType="1" res="-1.6601266339421272e-02" rms="1.8698169291019440e-01" purity="4.2165699601173401e-01" nType="-99"/>
            <Node pos="r" depth="3" NCoef="0" IVar="-1" Cut="0.0000000000000000e+00" cType="1" res="6.8580843508243561e-03" rms="1.7774550616741180e-01" purity="5.9266108274459839e-01" nType="-99"/>
          </Node>
          <Node pos="r" depth="2" NCoef="0" IVar="0" Cut="1.8318493652343750e+03" cType="1" res="1.0570579208433628e-02" rms="2.0451760292053223e-01" purity="3.8872620463371277e-01" nType="0">
            <Node pos="l" depth="3" NCoef="0" IVar="-1" Cut="0.0000000000000000e+00" cType="1" res="-3.1757829710841179e-03" rms="1.2415414303541183e-01" purity="1.6073726117610931e-02" nType="-99"/>
            <Node pos="r" depth="3" NCoef="0" IVar="-1" Cut="0.0000000000000000e+00" cType="1" res="3.1238893046975136e-02" rms="2.6057684421539307e-01" purity="7.5999349355697632e-01" nType="-99"/>
          </Node>
        </Node>
      </Node>
    </BinaryTree>
    <BinaryTree type="DecisionTree" boostWeight="1.0000000000000000e+00" itree="379">
      <Node pos="s" depth="0" NCoef="0" IVar="11" Cut="1.7318021059036255e+00" cType="1" res="5.7558214757591486e-04" rms="1.8267406523227692e-01" purity="5.0332957506179810e-01" nType="0">
        <Node pos="l" depth="1" NCoef="0" IVar="10" Cut="-9.3274396657943726e-01" cType="1" res="1.9211550243198872e-03" rms="1.7935858666896820e-01" purity="5.1665878295898438e-01" nType="0">
          <Node pos="l" depth="2" NCoef="0" IVar="0" Cut="2.7985207519531250e+03" cType="1" res="7.9495906829833984e-03" rms="1.9082413613796234e-01" purity="4.3508699536323547e-01" nType="0">
            <Node pos="l" depth="3" NCoef="0" IVar="-1" Cut="0.0000000000000000e+00" cType="1" res="2.6411863043904305e-02" rms="2.1238601207733154e-01" purity="2.0633165538311005e-01" nType="-99"/>
            <Node pos="r" depth="3" NCoef="0" IVar="-1" Cut="0.0000000000000000e+00" cType="1" res="-7.2229006327688694e-03" rms="1.2637649476528168e-01" purity="9.6972727775573730e-01" nType="-99"/>
          </Node>
          <Node pos="r" depth="2" NCoef="0" IVar="10" Cut="-7.5490158796310425e-01" cType="1" res="3.0863343272358179e-04" rms="1.7613029479980469e-01" purity="5.3847813606262207e-01" nType="0">
            <Node pos="l" depth="3" NCoef="0" IVar="-1" Cut="0.0000000000000000e+00" cType="1" res="-3.2999560236930847e-02" rms="1.5366251766681671e-01" purity="5.4529529809951782e-01" nType="-99"/>
            <Node pos="r" depth="3" NCoef="0" IVar="-1" Cut="0.0000000000000000e+00" cType="1" res="3.0545669142156839e-03" rms="1.7748828232288361e-01" purity="5.3802943229675293e-01" nType="-99"/>
          </Node>
        </Node>
        <Node pos="r" depth="1" NCoef="0" IVar="7" Cut="-2.5810533761978149e-01" cType="1" res="-1.5466380864381790e-02" rms="2.1771773695945740e-01" purity="3.4441828727722168e-01" nType="0">
          <Node pos="l" depth="2" NCoef="0" IVar="-1" Cut="0.0000000000000000e+00" cType="1" res="-8.0704681575298309e-02" rms="2.4594996869564056e-01" purity="2.8470885753631592e-01" nType="-99"/>
          <Node pos="r" depth="2" NCoef="0" IVar="-1" Cut="0.0000000000000000e+00" cType="1" res="-4.3070698156952858e-03" rms="1.9867436587810516e-01" purity="3.7818309664726257e-01" nType="-99"/>
        </Node>
      </Node>
    </BinaryTree>
    <BinaryTree type="DecisionTree" boostWeight="1.0000000000000000e+00" itree="380">
      <Node pos="s" depth="0" NCoef="0" IVar="11" Cut="2.0001904964447021e+00" cType="1" res="-2.0916890935041010e-04" rms="1.8170143663883209e-01" purity="5.0556999444961548e-01" nType="0">
        <Node pos="l" depth="1" NCoef="0" IVar="8" Cut="-1.1954995393753052e+00" cType="1" res="-8.1396190216764808e-04" rms="1.8045066297054291e-01" purity="5.1165699958801270e-01" nType="0">
          <Node pos="l" depth="2" NCoef="0" IVar="11" Cut="-9.6597826480865479e-01" cType="1" res="6.5626176074147224e-03" rms="1.8788062036037445e-01" purity="2.0999349653720856e-01" nType="0">
            <Node pos="l" depth="3" NCoef="0" IVar="-1" Cut="0.0000000000000000e+00" cType="1" res="6.3945315778255463e-02" rms="1.9579580426216125e-01" purity="1.9008754193782806e-01" nType="-99"/>
            <Node pos="r" depth="3" NCoef="0" IVar="-1" Cut="0.0000000000000000e+00" cType="1" res="-1.8076238920912147e-03" rms="1.8360151350498199e-01" purity="2.1934923529624939e-01" nType="-99"/>
          </Node>
          <Node pos="r" depth="2" NCoef="0" IVar="6" Cut="1.7449977111816406e+02" cType="1" res="-1.6747523332014680e-03" rms="1.7954386770725250e-01" purity="5.4685878753662109e-01" nType="0">
            <Node pos="l" depth="3" NCoef="0" IVar="-1" Cut="0.0000000000000000e+00" cType="1" res="-8.7909363210201263e-03" rms="2.0263440907001495e-01" purity="3.5412010550498962e-01" nType="-99"/>
            <Node pos="r" depth="3" NCoef="0" IVar="-1" Cut="0.0000000000000000e+00" cType="1" res="1.7625926062464714e-02" rms="1.1276117712259293e-01" purity="9.7261357307434082e-01" nType="-99"/>
          </Node>
        </Node>
        <Node pos="r" depth="1" NCoef="0" IVar="-1" Cut="0.0000000000000000e+00" cType="1" res="3.1456816941499710e-02" rms="2.0761781930923462e-01" purity="3.6733868718147278e-01" nType="-99"/>
      </Node>
    </BinaryTree>
    <BinaryTree type="DecisionTree" boostWeight="1.0000000000000000e+00" itree="381">
      <Node pos="s" depth="0" NCoef="0" IVar="4" Cut="2.1008924865722656e+02" cType="1" res="-1.0689094197005033e-03" rms="1.8097941577434540e-01" purity="5.0250828266143799e-01" nType="0">
        <Node pos="l" depth="1" NCoef="0" IVar="0" Cut="2.3427556152343750e+03" cType="1" res="-4.6418942511081696e-03" rms="1.6359467804431915e-01" purity="7.5937084853649139e-02" nType="0">
          <Node pos="l" depth="2" NCoef="0" IVar="6" Cut="1.2733425140380859e+02" cType="1" res="-2.7290738653391600e-03" rms="1.4573538303375244e-01" purity="3.4944660961627960e-02" nType="0">
            <Node pos="l" depth="3" NCoef="0" IVar="-1" Cut="0.0000000000000000e+00" cType="1" res="-2.1742423996329308e-03" rms="1.3268399238586426e-01" purity="2.6042368263006210e-02" nType="-99"/>
            <Node pos="r" depth="3" NCoef="0" IVar="-1" Cut="0.0000000000000000e+00" cType="1" res="-3.7132039666175842e-02" rms="2.3931945860385895e-01" purity="1.2470770627260208e-01" nType="-99"/>
          </Node>
          <Node pos="r" depth="2" NCoef="0" IVar="-1" Cut="0.0000000000000000e+00" cType="1" res="-2.7879614382982254e-02" rms="3.1702759861946106e-01" purity="6.2842696905136108e-01" nType="-99"/>
        </Node>
        <Node pos="r" depth="1" NCoef="0" IVar="2" Cut="5.5513806152343750e+02" cType="1" res="1.2670618016272783e-03" rms="1.9145795702934265e-01" purity="7.8139507770538330e-01" nType="0">
          <Node pos="l" depth="2" NCoef="0" IVar="2" Cut="3.6480084228515625e+02" cType="1" res="7.6551809906959534e-03" rms="2.3428760468959808e-01" purity="5.3184288740158081e-01" nType="0">
            <Node pos="l" depth="3" NCoef="0" IVar="-1" Cut="0.0000000000000000e+00" cType="1" res="-1.9544165581464767e-02" rms="2.0702767372131348e-01" purity="1.4368876814842224e-01" nType="-99"/>
            <Node pos="r" depth="3" NCoef="0" IVar="-1" Cut="0.0000000000000000e+00" cType="1" res="2.1097533404827118e-02" rms="2.4119862914085388e-01" purity="6.4112734794616699e-01" nType="-99"/>
          </Node>
          <Node pos="r" depth="2" NCoef="0" IVar="7" Cut="-5.3205138444900513e-01" cType="1" res="-2.0498959347605705e-03" rms="1.6479043662548065e-01" purity="9.1097211837768555e-01" nType="0">
            <Node pos="l" depth="3" NCoef="0" IVar="-1" Cut="0.0000000000000000e+00" cType="1" res="-3.2733216881752014e-02" rms="2.0151360332965851e-01" purity="8.5046201944351196e-01" nType="-99"/>
            <Node pos="r" depth="3" NCoef="0" IVar="-1" Cut="0.0000000000000000e+00" cType="1" res="6.4881547586992383e-04" rms="1.5581774711608887e-01" purity="9.2378562688827515e-01" nType="-99"/>
          </Node>
        </Node>
      </Node>
    </BinaryTree>
    <BinaryTree type="DecisionTree" boostWeight="1.0000000000000000e+00" itree="382">
      <Node pos="s" depth="0" NCoef="0" IVar="8" Cut="-1.3361231982707977e-01" cType="1" res="8.9307723101228476e-04" rms="1.8326586484909058e-01" purity="5.0392794609069824e-01" nType="0">
        <Node pos="l" depth="1" NCoef="0" IVar="7" Cut="7.5390893220901489e-01" cType="1" res="4.4681257568299770e-03" rms="1.8414406478404999e-01" purity="4.9011725187301636e-01" nType="0">
          <Node pos="l" depth="2" NCoef="0" IVar="6" Cut="1.5224179077148438e+02" cType="1" res="6.8800998851656914e-03" rms="1.8678675591945648e-01" purity="5.5512952804565430e-01" nType="0">
            <Node pos="l" depth="3" NCoef="0" IVar="-1" Cut="0.0000000000000000e+00" cType="1" res="2.5681177154183388e-02" rms="2.1278923749923706e-01" purity="3.1080994009971619e-01" nType="-99"/>
            <Node pos="r" depth="3" NCoef="0" IVar="-1" Cut="0.0000000000000000e+00" cType="1" res="-2.0309730898588896e-03" rms="1.3659437000751495e-01" purity="9.3474155664443970e-01" nType="-99"/>
          </Node>
          <Node pos="r" depth="2" NCoef="0" IVar="0" Cut="2.0089835205078125e+03" cType="1" res="-5.5494275875389576e-03" rms="1.7237538099288940e-01" purity="2.2010448575019836e-01" nType="0">
            <Node pos="l" depth="3" NCoef="0" IVar="-1" Cut="0.0000000000000000e+00" cType="1" res="6.2575433403253555e-03" rms="1.1673454195261002e-01" purity="1.8774822354316711e-02" nType="-99"/>
            <Node pos="r" depth="3" NCoef="0" IVar="-1" Cut="0.0000000000000000e+00" cType="1" res="-2.7436202391982079e-02" rms="2.5230103731155396e-01" purity="6.4833974838256836e-01" nType="-99"/>
          </Node>
        </Node>
        <Node pos="r" depth="1" NCoef="0" IVar="11" Cut="3.9979961514472961e-01" cType="1" res="-2.0001993980258703e-03" rms="1.8250079452991486e-01" purity="5.1510488986968994e-01" nType="0">
          <Node pos="l" depth="2" NCoef="0" IVar="11" Cut="-1.5784822702407837e+00" cType="1" res="-5.8214846067130566e-03" rms="1.7968969047069550e-01" purity="5.3155356645584106e-01" nType="0">
            <Node pos="l" depth="3" NCoef="0" IVar="-1" Cut="0.0000000000000000e+00" cType="1" res="-3.7116166204214096e-02" rms="1.9519150257110596e-01" purity="3.6988189816474915e-01" nType="-99"/>
            <Node pos="r" depth="3" NCoef="0" IVar="-1" Cut="0.0000000000000000e+00" cType="1" res="-1.3449534773826599e-02" rms="1.7668741941452026e-01" purity="5.6080996990203857e-01" nType="-99"/>
          </Node>
          <Node pos="r" depth="2" NCoef="0" IVar="9" Cut="-9.3213266134262085e-01" cType="1" res="3.9518638513982296e-03" rms="1.8663936853408813e-01" purity="4.8948419094085693e-01" nType="0">
            <Node pos="l" depth="3" NCoef="0" IVar="-1" Cut="0.0000000000000000e+00" cType="1" res="-3.4114576876163483e-02" rms="1.8234269320964813e-01" purity="3.6172726750373840e-01" nType="-99"/>
            <Node pos="r" depth="3" NCoef="0" IVar="-1" Cut="0.0000000000000000e+00" cType="1" res="2.0234981551766396e-02" rms="1.8721468746662140e-01" purity="5.1147562265396118e-01" nType="-99"/>
          </Node>
        </Node>
      </Node>
    </BinaryTree>
    <BinaryTree type="DecisionTree" boostWeight="1.0000000000000000e+00" itree="383">
      <Node pos="s" depth="0" NCoef="0" IVar="9" Cut="9.3279105424880981e-01" cType="1" res="6.7807233426719904e-04" rms="1.7842428386211395e-01" purity="4.9961370229721069e-01" nType="0">
        <Node pos="l" depth="1" NCoef="0" IVar="8" Cut="-3.9985984563827515e-01" cType="1" res="-8.8610133389011025e-04" rms="1.7470294237136841e-01" purity="5.2407026290893555e-01" nType="0">
          <Node pos="l" depth="2" NCoef="0" IVar="1" Cut="1.1648709326982498e-01" cType="1" res="-5.1296814344823360e-03" rms="1.8020708858966827e-01" purity="4.4117426872253418e-01" nType="0">
            <Node pos="l" depth="3" NCoef="0" IVar="-1" Cut="0.0000000000000000e+00" cType="1" res="-2.3143487051129341e-02" rms="1.8838164210319519e-01" purity="3.2037881016731262e-01" nType="-99"/>
            <Node pos="r" depth="3" NCoef="0" IVar="-1" Cut="0.0000000000000000e+00" cType="1" res="2.0599126815795898e-02" rms="1.5124502778053284e-01" purity="8.2010066509246826e-01" nType="-99"/>
          </Node>
          <Node pos="r" depth="2" NCoef="0" IVar="11" Cut="1.7336016893386841e+00" cType="1" res="1.3033755822107196e-03" rms="1.7175312340259552e-01" purity="5.6684046983718872e-01" nType="0">
            <Node pos="l" depth="3" NCoef="0" IVar="-1" Cut="0.0000000000000000e+00" cType="1" res="7.9518724232912064e-03" rms="1.6974379122257233e-01" purity="5.7888299226760864e-01" nType="-99"/>
            <Node pos="r" depth="3" NCoef="0" IVar="-1" Cut="0.0000000000000000e+00" cType="1" res="-3.1877644360065460e-02" rms="1.9514532387256622e-01" purity="4.1211807727813721e-01" nType="-99"/>
          </Node>
        </Node>
        <Node pos="r" depth="1" NCoef="0" IVar="2" Cut="5.3907257080078125e+02" cType="1" res="8.0212531611323357e-03" rms="1.9477947056293488e-01" purity="3.8479983806610107e-01" nType="0">
          <Node pos="l" depth="2" NCoef="0" IVar="11" Cut="3.9748105406761169e-01" cType="1" res="6.4228149130940437e-04" rms="1.8261790275573730e-01" purity="1.7444789409637451e-01" nType="0">
            <Node pos="l" depth="3" NCoef="0" IVar="-1" Cut="0.0000000000000000e+00" cType="1" res="2.5363516062498093e-02" rms="1.9563297927379608e-01" purity="1.9936601817607880e-01" nType="-99"/>
            <Node pos="r" depth="3" NCoef="0" IVar="-1" Cut="0.0000000000000000e+00" cType="1" res="-3.1464673578739166e-02" rms="1.6373838484287262e-01" purity="1.4234438538551331e-01" nType="-99"/>
          </Node>
          <Node pos="r" depth="2" NCoef="0" IVar="0" Cut="2.8673347167968750e+03" cType="1" res="1.6788573935627937e-02" rms="2.0796822011470795e-01" purity="6.3472938537597656e-01" nType="0">
            <Node pos="l" depth="3" NCoef="0" IVar="-1" Cut="0.0000000000000000e+00" cType="1" res="4.0832698345184326e-02" rms="2.5336232781410217e-01" purity="3.5803624987602234e-01" nType="-99"/>
            <Node pos="r" depth="3" NCoef="0" IVar="-1" Cut="0.0000000000000000e+00" cType="1" res="2.6098072528839111e-02" rms="1.3108690083026886e-01" purity="9.7583585977554321e-01" nType="-99"/>
          </Node>
        </Node>
      </Node>
    </BinaryTree>
    <BinaryTree type="DecisionTree" boostWeight="1.0000000000000000e+00" itree="384">
      <Node pos="s" depth="0" NCoef="0" IVar="7" Cut="2.1419546008110046e-01" cType="1" res="-2.5110613205470145e-04" rms="1.8240219354629517e-01" purity="4.9692144989967346e-01" nType="0">
        <Node pos="l" depth="1" NCoef="0" IVar="8" Cut="-6.6202312707901001e-01" cType="1" res="-2.6379732880741358e-03" rms="1.8493896722793579e-01" purity="5.3046131134033203e-01" nType="0">
          <Node pos="l" depth="2" NCoef="0" IVar="7" Cut="-4.4511693716049194e-01" cType="1" res="-9.7090322524309158e-03" rms="1.8902742862701416e-01" purity="4.1739094257354736e-01" nType="0">
            <Node pos="l" depth="3" NCoef="0" IVar="-1" Cut="0.0000000000000000e+00" cType="1" res="-9.7285835072398186e-03" rms="1.7492753267288208e-01" purity="3.2229775190353394e-01" nType="-99"/>
            <Node pos="r" depth="3" NCoef="0" IVar="-1" Cut="0.0000000000000000e+00" cType="1" res="-3.7955258041620255e-02" rms="2.0227785408496857e-01" purity="5.1489019393920898e-01" nType="-99"/>
          </Node>
          <Node pos="r" depth="2" NCoef="0" IVar="8" Cut="-4.9717900156974792e-01" cType="1" res="-5.4254609858617187e-04" rms="1.8365764617919922e-01" purity="5.6396830081939697e-01" nType="0">
            <Node pos="l" depth="3" NCoef="0" IVar="-1" Cut="0.0000000000000000e+00" cType="1" res="-4.4200435280799866e-02" rms="1.7128601670265198e-01" purity="6.0340881347656250e-01" nType="-99"/>
            <Node pos="r" depth="3" NCoef="0" IVar="-1" Cut="0.0000000000000000e+00" cType="1" res="2.1461530122905970e-03" rms="1.8459549546241760e-01" purity="5.6068646907806396e-01" nType="-99"/>
          </Node>
        </Node>
        <Node pos="r" depth="1" NCoef="0" IVar="11" Cut="-9.3452435731887817e-01" cType="1" res="3.2847614493221045e-03" rms="1.7851938307285309e-01" purity="4.4723618030548096e-01" nType="0">
          <Node pos="l" depth="2" NCoef="0" IVar="1" Cut="3.7129290401935577e-02" cType="1" res="-4.5999116264283657e-03" rms="1.7395737767219543e-01" purity="3.7310549616813660e-01" nType="0">
            <Node pos="l" depth="3" NCoef="0" IVar="-1" Cut="0.0000000000000000e+00" cType="1" res="-4.6753562986850739e-02" rms="1.3724480569362640e-01" purity="8.3524174988269806e-02" nType="-99"/>
            <Node pos="r" depth="3" NCoef="0" IVar="-1" Cut="0.0000000000000000e+00" cType="1" res="1.4627120690420270e-03" rms="1.9553820788860321e-01" purity="5.7686859369277954e-01" nType="-99"/>
          </Node>
          <Node pos="r" depth="2" NCoef="0" IVar="10" Cut="9.3379735946655273e-01" cType="1" res="5.5392272770404816e-03" rms="1.7973893880844116e-01" purity="4.6843233704566956e-01" nType="0">
            <Node pos="l" depth="3" NCoef="0" IVar="-1" Cut="0.0000000000000000e+00" cType="1" res="8.9667886495590210e-03" rms="1.7135143280029297e-01" purity="4.8453044891357422e-01" nType="-99"/>
            <Node pos="r" depth="3" NCoef="0" IVar="-1" Cut="0.0000000000000000e+00" cType="1" res="4.2447753250598907e-02" rms="2.0631276071071625e-01" purity="4.1173931956291199e-01" nType="-99"/>
          </Node>
        </Node>
      </Node>
    </BinaryTree>
    <BinaryTree type="DecisionTree" boostWeight="1.0000000000000000e+00" itree="385">
      <Node pos="s" depth="0" NCoef="0" IVar="5" Cut="2.2322763061523438e+02" cType="1" res="7.1710580959916115e-04" rms="1.8021434545516968e-01" purity="4.9580398201942444e-01" nType="0">
        <Node pos="l" depth="1" NCoef="0" IVar="6" Cut="1.7267864990234375e+02" cType="1" res="-1.1176877887919545e-03" rms="1.9993181526660919e-01" purity="2.5395560264587402e-01" nType="0">
          <Node pos="l" depth="2" NCoef="0" IVar="6" Cut="9.6856460571289062e+01" cType="1" res="-2.1475383546203375e-03" rms="1.9869719445705414e-01" purity="2.1517109870910645e-01" nType="0">
            <Node pos="l" depth="3" NCoef="0" IVar="-1" Cut="0.0000000000000000e+00" cType="1" res="8.1366878002882004e-03" rms="1.6658081114292145e-01" purity="8.3652779459953308e-02" nType="-99"/>
            <Node pos="r" depth="3" NCoef="0" IVar="-1" Cut="0.0000000000000000e+00" cType="1" res="-1.2721734121441841e-02" rms="2.3100182414054871e-01" purity="3.7132999300956726e-01" nType="-99"/>
          </Node>
          <Node pos="r" depth="2" NCoef="0" IVar="-1" Cut="0.0000000000000000e+00" cType="1" res="2.9565285891294479e-02" rms="2.1672990918159485e-01" purity="8.2486450672149658e-01" nType="-99"/>
        </Node>
        <Node pos="r" depth="1" NCoef="0" IVar="4" Cut="2.9890118408203125e+02" cType="1" res="4.2102774605154991e-03" rms="1.3486382365226746e-01" purity="9.5624697208404541e-01" nType="0">
          <Node pos="l" depth="2" NCoef="0" IVar="-1" Cut="0.0000000000000000e+00" cType="1" res="3.1710710376501083e-02" rms="2.3248109221458435e-01" purity="8.1412935256958008e-01" nType="-99"/>
          <Node pos="r" depth="2" NCoef="0" IVar="3" Cut="4.4776290893554688e+02" cType="1" res="1.4001148520037532e-03" rms="1.0644642263650894e-01" purity="9.8322820663452148e-01" nType="0">
            <Node pos="l" depth="3" NCoef="0" IVar="-1" Cut="0.0000000000000000e+00" cType="1" res="2.4234985932707787e-02" rms="1.4261053502559662e-01" purity="9.6374756097793579e-01" nType="-99"/>
            <Node pos="r" depth="3" NCoef="0" IVar="-1" Cut="0.0000000000000000e+00" cType="1" res="-3.4508032258599997e-03" rms="9.0041942894458771e-02" purity="9.9017655849456787e-01" nType="-99"/>
          </Node>
        </Node>
      </Node>
    </BinaryTree>
    <BinaryTree type="DecisionTree" boostWeight="1.0000000000000000e+00" itree="386">
      <Node pos="s" depth="0" NCoef="0" IVar="11" Cut="-1.7323852777481079e+00" cType="1" res="-2.9383652145043015e-04" rms="1.8105754256248474e-01" purity="4.9806722998619080e-01" nType="0">
        <Node pos="l" depth="1" NCoef="0" IVar="1" Cut="5.5804874747991562e-02" cType="1" res="1.0264032520353794e-02" rms="2.0970840752124786e-01" purity="3.8678079843521118e-01" nType="0">
          <Node pos="l" depth="2" NCoef="0" IVar="-1" Cut="0.0000000000000000e+00" cType="1" res="-3.7492301780730486e-03" rms="1.9226196408271790e-01" purity="1.4249932765960693e-01" nType="-99"/>
          <Node pos="r" depth="2" NCoef="0" IVar="-1" Cut="0.0000000000000000e+00" cType="1" res="4.3465215712785721e-02" rms="2.2586199641227722e-01" purity="6.4199608564376831e-01" nType="-99"/>
        </Node>
        <Node pos="r" depth="1" NCoef="0" IVar="10" Cut="1.3353021442890167e-01" cType="1" res="-1.0974174365401268e-03" rms="1.7866329848766327e-01" purity="5.0653749704360962e-01" nType="0">
          <Node pos="l" depth="2" NCoef="0" IVar="9" Cut="1.3332416117191315e-01" cType="1" res="-3.1274533830583096e-03" rms="1.7626094818115234e-01" purity="5.1206904649734497e-01" nType="0">
            <Node pos="l" depth="3" NCoef="0" IVar="-1" Cut="0.0000000000000000e+00" cType="1" res="-3.0344387050718069e-04" rms="1.7307272553443909e-01" purity="5.0527954101562500e-01" nType="-99"/>
            <Node pos="r" depth="3" NCoef="0" IVar="-1" Cut="0.0000000000000000e+00" cType="1" res="-2.1950619295239449e-02" rms="1.8042825162410736e-01" purity="5.2131032943725586e-01" nType="-99"/>
          </Node>
          <Node pos="r" depth="2" NCoef="0" IVar="10" Cut="2.6049360632896423e-01" cType="1" res="1.2907872442156076e-03" rms="1.8141970038414001e-01" purity="5.0003004074096680e-01" nType="0">
            <Node pos="l" depth="3" NCoef="0" IVar="-1" Cut="0.0000000000000000e+00" cType="1" res="-3.3250875771045685e-02" rms="1.7080962657928467e-01" purity="5.7811218500137329e-01" nType="-99"/>
            <Node pos="r" depth="3" NCoef="0" IVar="-1" Cut="0.0000000000000000e+00" cType="1" res="7.6084160245954990e-03" rms="1.8254843354225159e-01" purity="4.9111041426658630e-01" nType="-99"/>
          </Node>
        </Node>
      </Node>
    </BinaryTree>
    <BinaryTree type="DecisionTree" boostWeight="1.0000000000000000e+00" itree="387">
      <Node pos="s" depth="0" NCoef="0" IVar="9" Cut="1.9994157552719116e+00" cType="1" res="8.0392911331728101e-04" rms="1.8068367242813110e-01" purity="5.0259727239608765e-01" nType="0">
        <Node pos="l" depth="1" NCoef="0" IVar="11" Cut="-3.9898100495338440e-01" cType="1" res="1.2090167729184031e-03" rms="1.8089845776557922e-01" purity="5.1432710886001587e-01" nType="0">
          <Node pos="l" depth="2" NCoef="0" IVar="2" Cut="4.2944534301757812e+02" cType="1" res="4.0427623316645622e-03" rms="1.8130806088447571e-01" purity="5.0931054353713989e-01" nType="0">
            <Node pos="l" depth="3" NCoef="0" IVar="-1" Cut="0.0000000000000000e+00" cType="1" res="-8.2552200183272362e-03" rms="1.6877746582031250e-01" purity="1.1350878328084946e-01" nType="-99"/>
            <Node pos="r" depth="3" NCoef="0" IVar="-1" Cut="0.0000000000000000e+00" cType="1" res="1.8190797418355942e-02" rms="1.8545737862586975e-01" purity="6.4848762750625610e-01" nType="-99"/>
          </Node>
          <Node pos="r" depth="2" NCoef="0" IVar="10" Cut="-1.1993613243103027e+00" cType="1" res="-5.2841100841760635e-04" rms="1.8062488734722137e-01" purity="5.1740282773971558e-01" nType="0">
            <Node pos="l" depth="3" NCoef="0" IVar="-1" Cut="0.0000000000000000e+00" cType="1" res="1.3375202193856239e-02" rms="2.0404273271560669e-01" purity="4.0998956561088562e-01" nType="-99"/>
            <Node pos="r" depth="3" NCoef="0" IVar="-1" Cut="0.0000000000000000e+00" cType="1" res="-4.5650214888155460e-03" rms="1.7693595588207245e-01" purity="5.3304845094680786e-01" nType="-99"/>
          </Node>
        </Node>
        <Node pos="r" depth="1" NCoef="0" IVar="-1" Cut="0.0000000000000000e+00" cType="1" res="-4.4164463877677917e-02" rms="1.7226067185401917e-01" purity="8.5778079926967621e-02" nType="-99"/>
      </Node>
    </BinaryTree>
    <BinaryTree type="DecisionTree" boostWeight="1.0000000000000000e+00" itree="388">
      <Node pos="s" depth="0" NCoef="0" IVar="9" Cut="1.4662170410156250e+00" cType="1" res="-1.7976261442527175e-03" rms="1.8191196024417877e-01" purity="4.9526545405387878e-01" nType="0">
        <Node pos="l" depth="1" NCoef="0" IVar="1" Cut="1.2846580147743225e-01" cType="1" res="-7.9254806041717529e-04" rms="1.8149685859680176e-01" purity="5.1706987619400024e-01" nType="0">
          <Node pos="l" depth="2" NCoef="0" IVar="9" Cut="-7.6821136474609375e-01" cType="1" res="8.8296836474910378e-04" rms="1.8930833041667938e-01" purity="4.0942829847335815e-01" nType="0">
            <Node pos="l" depth="3" NCoef="0" IVar="-1" Cut="0.0000000000000000e+00" cType="1" res="1.5882881358265877e-02" rms="1.9686137139797211e-01" purity="3.0821675062179565e-01" nType="-99"/>
            <Node pos="r" depth="3" NCoef="0" IVar="-1" Cut="0.0000000000000000e+00" cType="1" res="-3.2035997137427330e-03" rms="1.8618313968181610e-01" purity="4.4965896010398865e-01" nType="-99"/>
          </Node>
          <Node pos="r" depth="2" NCoef="0" IVar="0" Cut="2.5945793457031250e+03" cType="1" res="-5.8104172348976135e-03" rms="1.5566930174827576e-01" purity="8.3943694829940796e-01" nType="0">
            <Node pos="l" depth="3" NCoef="0" IVar="-1" Cut="0.0000000000000000e+00" cType="1" res="-3.0893774703145027e-02" rms="2.7692320942878723e-01" purity="4.1839513182640076e-01" nType="-99"/>
            <Node pos="r" depth="3" NCoef="0" IVar="-1" Cut="0.0000000000000000e+00" cType="1" res="1.0054430924355984e-02" rms="6.8433113396167755e-02" purity="9.9517214298248291e-01" nType="-99"/>
          </Node>
        </Node>
        <Node pos="r" depth="1" NCoef="0" IVar="3" Cut="2.6786038208007812e+02" cType="1" res="-1.4040299691259861e-02" rms="1.8645976483821869e-01" purity="2.2966983914375305e-01" nType="0">
          <Node pos="l" depth="2" NCoef="0" IVar="-1" Cut="0.0000000000000000e+00" cType="1" res="-1.0770856169983745e-03" rms="1.3610666990280151e-01" purity="4.9352433532476425e-02" nType="-99"/>
          <Node pos="r" depth="2" NCoef="0" IVar="-1" Cut="0.0000000000000000e+00" cType="1" res="-4.7670971602201462e-02" rms="2.2064769268035889e-01" purity="3.8766491413116455e-01" nType="-99"/>
        </Node>
      </Node>
    </BinaryTree>
    <BinaryTree type="DecisionTree" boostWeight="1.0000000000000000e+00" itree="389">
      <Node pos="s" depth="0" NCoef="0" IVar="11" Cut="-1.2000086307525635e+00" cType="1" res="-1.3721480499953032e-03" rms="1.7805822193622589e-01" purity="4.9611243605613708e-01" nType="0">
        <Node pos="l" depth="1" NCoef="0" IVar="0" Cut="1.6439702148437500e+03" cType="1" res="-7.8324181959033012e-03" rms="1.9543674588203430e-01" purity="4.0483286976814270e-01" nType="0">
          <Node pos="l" depth="2" NCoef="0" IVar="-1" Cut="0.0000000000000000e+00" cType="1" res="8.0867484211921692e-02" rms="1.0469541698694229e-01" purity="1.1422089301049709e-02" nType="-99"/>
          <Node pos="r" depth="2" NCoef="0" IVar="3" Cut="4.2597875976562500e+02" cType="1" res="-1.3229382224380970e-02" rms="2.2249935567378998e-01" purity="5.6964147090911865e-01" nType="0">
            <Node pos="l" depth="3" NCoef="0" IVar="-1" Cut="0.0000000000000000e+00" cType="1" res="-3.1055541709065437e-02" rms="2.4425131082534790e-01" purity="3.4754186868667603e-01" nType="-99"/>
            <Node pos="r" depth="3" NCoef="0" IVar="-1" Cut="0.0000000000000000e+00" cType="1" res="-6.7925541661679745e-03" rms="1.8956805765628815e-01" purity="8.6204558610916138e-01" nType="-99"/>
          </Node>
        </Node>
        <Node pos="r" depth="1" NCoef="0" IVar="2" Cut="8.7261645507812500e+02" cType="1" res="-7.4551717261783779e-05" rms="1.7432996630668640e-01" purity="5.1444661617279053e-01" nType="0">
          <Node pos="l" depth="2" NCoef="0" IVar="11" Cut="1.6571149826049805e+00" cType="1" res="-1.1464782292023301e-03" rms="1.7686726152896881e-01" purity="4.5766878128051758e-01" nType="0">
            <Node pos="l" depth="3" NCoef="0" IVar="-1" Cut="0.0000000000000000e+00" cType="1" res="-6.7413570359349251e-03" rms="1.7308503389358521e-01" purity="4.7334378957748413e-01" nType="-99"/>
            <Node pos="r" depth="3" NCoef="0" IVar="-1" Cut="0.0000000000000000e+00" cType="1" res="1.8002901226282120e-02" rms="2.0619064569473267e-01" purity="3.2367575168609619e-01" nType="-99"/>
          </Node>
          <Node pos="r" depth="2" NCoef="0" IVar="1" Cut="5.3894087672233582e-02" cType="1" res="7.4621606618165970e-03" rms="1.5511547029018402e-01" purity="9.1365140676498413e-01" nType="0">
            <Node pos="l" depth="3" NCoef="0" IVar="-1" Cut="0.0000000000000000e+00" cType="1" res="4.1573788970708847e-02" rms="2.0454359054565430e-01" purity="8.0709129571914673e-01" nType="-99"/>
            <Node pos="r" depth="3" NCoef="0" IVar="-1" Cut="0.0000000000000000e+00" cType="1" res="-9.7626233473420143e-03" rms="1.1766964942216873e-01" purity="9.7354543209075928e-01" nType="-99"/>
          </Node>
        </Node>
      </Node>
    </BinaryTree>
    <BinaryTree type="DecisionTree" boostWeight="1.0000000000000000e+00" itree="390">
      <Node pos="s" depth="0" NCoef="0" IVar="5" Cut="1.8973593139648438e+02" cType="1" res="1.8270299769937992e-03" rms="1.8280798196792603e-01" purity="5.0640416145324707e-01" nType="0">
        <Node pos="l" depth="1" NCoef="0" IVar="4" Cut="3.3675473022460938e+02" cType="1" res="4.5510474592447281e-03" rms="1.9769264757633209e-01" purity="1.8938913941383362e-01" nType="0">
          <Node pos="l" depth="2" NCoef="0" IVar="0" Cut="2.0130472412109375e+03" cType="1" res="6.0316692106425762e-03" rms="1.9348978996276855e-01" purity="1.4782658219337463e-01" nType="0">
            <Node pos="l" depth="3" NCoef="0" IVar="-1" Cut="0.0000000000000000e+00" cType="1" res="6.1751506291329861e-03" rms="1.3767115771770477e-01" purity="2.4168349802494049e-02" nType="-99"/>
            <Node pos="r" depth="3" NCoef="0" IVar="-1" Cut="0.0000000000000000e+00" cType="1" res="2.2962426766753197e-02" rms="3.2584190368652344e-01" purity="6.1047124862670898e-01" nType="-99"/>
          </Node>
          <Node pos="r" depth="2" NCoef="0" IVar="-1" Cut="0.0000000000000000e+00" cType="1" res="-2.8082448989152908e-02" rms="2.5170144438743591e-01" purity="8.1641626358032227e-01" nType="-99"/>
        </Node>
        <Node pos="r" depth="1" NCoef="0" IVar="0" Cut="2.1995793457031250e+03" cType="1" res="-1.5470926882699132e-03" rms="1.6242811083793640e-01" purity="8.9907693862915039e-01" nType="0">
          <Node pos="l" depth="2" NCoef="0" IVar="-1" Cut="0.0000000000000000e+00" cType="1" res="-1.8783340230584145e-02" rms="3.1370073556900024e-01" purity="1.9070976972579956e-01" nType="-99"/>
          <Node pos="r" depth="2" NCoef="0" IVar="4" Cut="2.7941046142578125e+02" cType="1" res="2.8944836230948567e-04" rms="1.3792532682418823e-01" purity="9.7109794616699219e-01" nType="0">
            <Node pos="l" depth="3" NCoef="0" IVar="-1" Cut="0.0000000000000000e+00" cType="1" res="-1.9593825563788414e-02" rms="2.1809047460556030e-01" purity="9.1907840967178345e-01" nType="-99"/>
            <Node pos="r" depth="3" NCoef="0" IVar="-1" Cut="0.0000000000000000e+00" cType="1" res="1.0123113170266151e-02" rms="1.2112442404031754e-01" purity="9.7900480031967163e-01" nType="-99"/>
          </Node>
        </Node>
      </Node>
    </BinaryTree>
    <BinaryTree type="DecisionTree" boostWeight="1.0000000000000000e+00" itree="391">
      <Node pos="s" depth="0" NCoef="0" IVar="3" Cut="4.0944573974609375e+02" cType="1" res="-5.8235472533851862e-04" rms="1.8256232142448425e-01" purity="5.0408113002777100e-01" nType="0">
        <Node pos="l" depth="1" NCoef="0" IVar="0" Cut="1.7484334716796875e+03" cType="1" res="-2.9346370138227940e-03" rms="1.9407843053340912e-01" purity="2.3034061491489410e-01" nType="0">
          <Node pos="l" depth="2" NCoef="0" IVar="1" Cut="1.2917394936084747e-01" cType="1" res="1.5452426159754395e-03" rms="1.0052014887332916e-01" purity="1.0876784101128578e-02" nType="0">
            <Node pos="l" depth="3" NCoef="0" IVar="-1" Cut="0.0000000000000000e+00" cType="1" res="-5.1850925956387073e-05" rms="8.6342722177505493e-02" purity="7.8377518802881241e-03" nType="-99"/>
            <Node pos="r" depth="3" NCoef="0" IVar="-1" Cut="0.0000000000000000e+00" cType="1" res="7.8574940562248230e-02" rms="1.9867931306362152e-01" purity="4.4944036751985550e-02" nType="-99"/>
          </Node>
          <Node pos="r" depth="2" NCoef="0" IVar="9" Cut="-1.1998347043991089e+00" cType="1" res="-8.5259629413485527e-03" rms="2.6834744215011597e-01" purity="5.0425285100936890e-01" nType="0">
            <Node pos="l" depth="3" NCoef="0" IVar="-1" Cut="0.0000000000000000e+00" cType="1" res="2.1559761837124825e-02" rms="2.8191566467285156e-01" purity="4.3505489826202393e-01" nType="-99"/>
            <Node pos="r" depth="3" NCoef="0" IVar="-1" Cut="0.0000000000000000e+00" cType="1" res="-1.6680888831615448e-02" rms="2.6602479815483093e-01" purity="5.1468098163604736e-01" nType="-99"/>
          </Node>
        </Node>
        <Node pos="r" depth="1" NCoef="0" IVar="0" Cut="2.6224675292968750e+03" cType="1" res="2.8279931284487247e-03" rms="1.6438041627407074e-01" purity="9.0095126628875732e-01" nType="0">
          <Node pos="l" depth="2" NCoef="0" IVar="11" Cut="-1.2778443098068237e-01" cType="1" res="2.1180685609579086e-02" rms="3.0846804380416870e-01" purity="4.7190785408020020e-01" nType="0">
            <Node pos="l" depth="3" NCoef="0" IVar="-1" Cut="0.0000000000000000e+00" cType="1" res="7.9393796622753143e-03" rms="3.0777090787887573e-01" purity="4.4434192776679993e-01" nType="-99"/>
            <Node pos="r" depth="3" NCoef="0" IVar="-1" Cut="0.0000000000000000e+00" cType="1" res="3.5699151456356049e-02" rms="3.0854335427284241e-01" purity="4.9744099378585815e-01" nType="-99"/>
          </Node>
          <Node pos="r" depth="2" NCoef="0" IVar="4" Cut="2.9794149780273438e+02" cType="1" res="-4.8334879102185369e-04" rms="1.2106329947710037e-01" purity="9.7836267948150635e-01" nType="0">
            <Node pos="l" depth="3" NCoef="0" IVar="-1" Cut="0.0000000000000000e+00" cType="1" res="-2.9929714277386665e-02" rms="2.0348171889781952e-01" purity="9.2577791213989258e-01" nType="-99"/>
            <Node pos="r" depth="3" NCoef="0" IVar="-1" Cut="0.0000000000000000e+00" cType="1" res="1.0591063648462296e-02" rms="1.0138695687055588e-01" purity="9.8692697286605835e-01" nType="-99"/>
          </Node>
        </Node>
      </Node>
    </BinaryTree>
    <BinaryTree type="DecisionTree" boostWeight="1.0000000000000000e+00" itree="392">
      <Node pos="s" depth="0" NCoef="0" IVar="4" Cut="1.4818341064453125e+02" cType="1" res="1.5557685401290655e-03" rms="1.7694507539272308e-01" purity="5.0140267610549927e-01" nType="0">
        <Node pos="l" depth="1" NCoef="0" IVar="0" Cut="1.8087113037109375e+03" cType="1" res="-4.0619759820401669e-03" rms="1.0653158277273178e-01" purity="1.9452422857284546e-02" nType="0">
          <Node pos="l" depth="2" NCoef="0" IVar="0" Cut="1.6335531005859375e+03" cType="1" res="-1.9938619807362556e-03" rms="6.0709748417139053e-02" purity="3.6757676862180233e-03" nType="0">
            <Node pos="l" depth="3" NCoef="0" IVar="-1" Cut="0.0000000000000000e+00" cType="1" res="-4.1478369385004044e-03" rms="5.9775117784738541e-02" purity="3.6769821308553219e-03" nType="-99"/>
            <Node pos="r" depth="3" NCoef="0" IVar="-1" Cut="0.0000000000000000e+00" cType="1" res="-7.2991281747817993e-02" rms="6.3453309237957001e-02" purity="3.6715234164148569e-03" nType="-99"/>
          </Node>
          <Node pos="r" depth="2" NCoef="0" IVar="-1" Cut="0.0000000000000000e+00" cType="1" res="-2.5203196331858635e-02" rms="2.2041974961757660e-01" purity="9.6363149583339691e-02" nType="-99"/>
        </Node>
        <Node pos="r" depth="1" NCoef="0" IVar="9" Cut="1.4660181999206543e+00" cType="1" res="2.7131002862006426e-03" rms="1.8818572163581848e-01" purity="6.0069102048873901e-01" nType="0">
          <Node pos="l" depth="2" NCoef="0" IVar="6" Cut="1.3943945312500000e+02" cType="1" res="3.5327579826116562e-03" rms="1.8670579791069031e-01" purity="6.2252789735794067e-01" nType="0">
            <Node pos="l" depth="3" NCoef="0" IVar="-1" Cut="0.0000000000000000e+00" cType="1" res="1.2832053005695343e-02" rms="2.1958875656127930e-01" purity="3.3219540119171143e-01" nType="-99"/>
            <Node pos="r" depth="3" NCoef="0" IVar="-1" Cut="0.0000000000000000e+00" cType="1" res="3.4070545807480812e-03" rms="1.4797765016555786e-01" purity="9.0388238430023193e-01" nType="-99"/>
          </Node>
          <Node pos="r" depth="2" NCoef="0" IVar="5" Cut="1.4711906433105469e+02" cType="1" res="-8.3871502429246902e-03" rms="2.0686988532543182e-01" purity="3.0496388673782349e-01" nType="0">
            <Node pos="l" depth="3" NCoef="0" IVar="-1" Cut="0.0000000000000000e+00" cType="1" res="7.9902019351720810e-03" rms="1.8179453909397125e-01" purity="9.2211119830608368e-02" nType="-99"/>
            <Node pos="r" depth="3" NCoef="0" IVar="-1" Cut="0.0000000000000000e+00" cType="1" res="-3.1567383557558060e-02" rms="2.2544133663177490e-01" purity="4.8430398106575012e-01" nType="-99"/>
          </Node>
        </Node>
      </Node>
    </BinaryTree>
    <BinaryTree type="DecisionTree" boostWeight="1.0000000000000000e+00" itree="393">
      <Node pos="s" depth="0" NCoef="0" IVar="11" Cut="-1.9986796379089355e+00" cType="1" res="4.1818182216957211e-04" rms="1.8179638683795929e-01" purity="5.0258612632751465e-01" nType="0">
        <Node pos="l" depth="1" NCoef="0" IVar="-1" Cut="0.0000000000000000e+00" cType="1" res="-3.0408727005124092e-02" rms="1.9411654770374298e-01" purity="2.6359832286834717e-01" nType="-99"/>
        <Node pos="r" depth="1" NCoef="0" IVar="11" Cut="1.6572588682174683e+00" cType="1" res="1.0107492562383413e-03" rms="1.8116185069084167e-01" purity="5.1407569646835327e-01" nType="0">
          <Node pos="l" depth="2" NCoef="0" IVar="11" Cut="-9.5407736301422119e-01" cType="1" res="2.1070153161417693e-04" rms="1.7706540226936340e-01" purity="5.2639478445053101e-01" nType="0">
            <Node pos="l" depth="3" NCoef="0" IVar="-1" Cut="0.0000000000000000e+00" cType="1" res="1.6770193353295326e-02" rms="1.8723294138908386e-01" purity="5.1092624664306641e-01" nType="-99"/>
            <Node pos="r" depth="3" NCoef="0" IVar="-1" Cut="0.0000000000000000e+00" cType="1" res="-4.3293125927448273e-03" rms="1.7429843544960022e-01" purity="5.3040570020675659e-01" nType="-99"/>
          </Node>
          <Node pos="r" depth="2" NCoef="0" IVar="8" Cut="-1.2486603111028671e-01" cType="1" res="9.8308324813842773e-03" rms="2.2116217017173767e-01" purity="3.7826463580131531e-01" nType="0">
            <Node pos="l" depth="3" NCoef="0" IVar="-1" Cut="0.0000000000000000e+00" cType="1" res="5.1847305148839951e-02" rms="2.4226666986942291e-01" purity="3.6683583259582520e-01" nType="-99"/>
            <Node pos="r" depth="3" NCoef="0" IVar="-1" Cut="0.0000000000000000e+00" cType="1" res="2.6831068098545074e-03" rms="2.0523685216903687e-01" purity="3.8597950339317322e-01" nType="-99"/>
          </Node>
        </Node>
      </Node>
    </BinaryTree>
    <BinaryTree type="DecisionTree" boostWeight="1.0000000000000000e+00" itree="394">
      <Node pos="s" depth="0" NCoef="0" IVar="11" Cut="2.0001904964447021e+00" cType="1" res="-1.0852473787963390e-03" rms="1.8065790832042694e-01" purity="4.9691921472549438e-01" nType="0">
        <Node pos="l" depth="1" NCoef="0" IVar="11" Cut="-5.6418590247631073e-02" cType="1" res="-3.9891464984975755e-04" rms="1.7989796400070190e-01" purity="5.0824928283691406e-01" nType="0">
          <Node pos="l" depth="2" NCoef="0" IVar="5" Cut="1.5328689575195312e+02" cType="1" res="2.0224028266966343e-03" rms="1.7799995839595795e-01" purity="5.0095951557159424e-01" nType="0">
            <Node pos="l" depth="3" NCoef="0" IVar="-1" Cut="0.0000000000000000e+00" cType="1" res="-8.2506509497761726e-03" rms="1.7008714377880096e-01" purity="9.8235085606575012e-02" nType="-99"/>
            <Node pos="r" depth="3" NCoef="0" IVar="-1" Cut="0.0000000000000000e+00" cType="1" res="1.5560235828161240e-02" rms="1.8357387185096741e-01" purity="7.9938375949859619e-01" nType="-99"/>
          </Node>
          <Node pos="r" depth="2" NCoef="0" IVar="3" Cut="3.3693701171875000e+02" cType="1" res="-2.8397031128406525e-03" rms="1.8175855278968811e-01" purity="5.1559770107269287e-01" nType="0">
            <Node pos="l" depth="3" NCoef="0" IVar="-1" Cut="0.0000000000000000e+00" cType="1" res="-2.2483665496110916e-02" rms="1.7668882012367249e-01" purity="1.2167064845561981e-01" nType="-99"/>
            <Node pos="r" depth="3" NCoef="0" IVar="-1" Cut="0.0000000000000000e+00" cType="1" res="2.9840299393981695e-03" rms="1.8564336001873016e-01" purity="8.3216118812561035e-01" nType="-99"/>
          </Node>
        </Node>
        <Node pos="r" depth="1" NCoef="0" IVar="-1" Cut="0.0000000000000000e+00" cType="1" res="-4.1755903512239456e-02" rms="1.9527080655097961e-01" purity="2.6090413331985474e-01" nType="-99"/>
      </Node>
    </BinaryTree>
    <BinaryTree type="DecisionTree" boostWeight="1.0000000000000000e+00" itree="395">
      <Node pos="s" depth="0" NCoef="0" IVar="11" Cut="-1.9986401796340942e+00" cType="1" res="1.3455173466354609e-03" rms="1.8056967854499817e-01" purity="4.9848592281341553e-01" nType="0">
        <Node pos="l" depth="1" NCoef="0" IVar="-1" Cut="0.0000000000000000e+00" cType="1" res="3.5590671002864838e-02" rms="1.9778491556644440e-01" purity="2.6277589797973633e-01" nType="-99"/>
        <Node pos="r" depth="1" NCoef="0" IVar="7" Cut="4.9123427271842957e-01" cType="1" res="6.6227791830897331e-04" rms="1.7954142391681671e-01" purity="5.1156449317932129e-01" nType="0">
          <Node pos="l" depth="2" NCoef="0" IVar="8" Cut="-1.4624429941177368e+00" cType="1" res="-1.1019939556717873e-03" rms="1.8069596588611603e-01" purity="5.6005972623825073e-01" nType="0">
            <Node pos="l" depth="3" NCoef="0" IVar="-1" Cut="0.0000000000000000e+00" cType="1" res="3.2591063529253006e-02" rms="2.0106364786624908e-01" purity="1.9011338055133820e-01" nType="-99"/>
            <Node pos="r" depth="3" NCoef="0" IVar="-1" Cut="0.0000000000000000e+00" cType="1" res="-5.5954214185476303e-03" rms="1.7940869927406311e-01" purity="5.8161538839340210e-01" nType="-99"/>
          </Node>
          <Node pos="r" depth="2" NCoef="0" IVar="0" Cut="1.8331127929687500e+03" cType="1" res="5.2720052190124989e-03" rms="1.7640590667724609e-01" purity="3.8485497236251831e-01" nType="0">
            <Node pos="l" depth="3" NCoef="0" IVar="-1" Cut="0.0000000000000000e+00" cType="1" res="3.4592088777571917e-03" rms="1.0005865246057510e-01" purity="1.0864727199077606e-02" nType="-99"/>
            <Node pos="r" depth="3" NCoef="0" IVar="-1" Cut="0.0000000000000000e+00" cType="1" res="1.7828835174441338e-02" rms="2.2575108706951141e-01" purity="7.3726093769073486e-01" nType="-99"/>
          </Node>
        </Node>
      </Node>
    </BinaryTree>
    <BinaryTree type="DecisionTree" boostWeight="1.0000000000000000e+00" itree="396">
      <Node pos="s" depth="0" NCoef="0" IVar="1" Cut="4.3338779360055923e-02" cType="1" res="-8.5690908599644899e-04" rms="1.8013037741184235e-01" purity="4.9555054306983948e-01" nType="0">
        <Node pos="l" depth="1" NCoef="0" IVar="0" Cut="3.1067910156250000e+03" cType="1" res="-4.3005524203181267e-03" rms="1.6788671910762787e-01" purity="1.7455381155014038e-01" nType="0">
          <Node pos="l" depth="2" NCoef="0" IVar="6" Cut="1.4457815551757812e+02" cType="1" res="-2.5256746448576450e-03" rms="1.6328313946723938e-01" purity="8.9668221771717072e-02" nType="0">
            <Node pos="l" depth="3" NCoef="0" IVar="-1" Cut="0.0000000000000000e+00" cType="1" res="-2.4905926547944546e-03" rms="1.5180628001689911e-01" purity="5.9515248984098434e-02" nType="-99"/>
            <Node pos="r" depth="3" NCoef="0" IVar="-1" Cut="0.0000000000000000e+00" cType="1" res="-3.1913783401250839e-02" rms="2.5608474016189575e-01" purity="4.1812327504158020e-01" nType="-99"/>
          </Node>
          <Node pos="r" depth="2" NCoef="0" IVar="-1" Cut="0.0000000000000000e+00" cType="1" res="-7.0656396448612213e-02" rms="2.0413734018802643e-01" purity="9.4133776426315308e-01" nType="-99"/>
        </Node>
        <Node pos="r" depth="1" NCoef="0" IVar="8" Cut="4.6345970034599304e-01" cType="1" res="1.0806139325723052e-03" rms="1.8663848936557770e-01" purity="6.7615532875061035e-01" nType="0">
          <Node pos="l" depth="2" NCoef="0" IVar="9" Cut="-1.1932016611099243e+00" cType="1" res="-9.1540516586974263e-04" rms="1.7909429967403412e-01" purity="6.9885694980621338e-01" nType="0">
            <Node pos="l" depth="3" NCoef="0" IVar="-1" Cut="0.0000000000000000e+00" cType="1" res="-2.4511307477951050e-02" rms="2.0825289189815521e-01" purity="5.0057721138000488e-01" nType="-99"/>
            <Node pos="r" depth="3" NCoef="0" IVar="-1" Cut="0.0000000000000000e+00" cType="1" res="6.5493880538269877e-04" rms="1.7570593953132629e-01" purity="7.1972769498825073e-01" nType="-99"/>
          </Node>
          <Node pos="r" depth="2" NCoef="0" IVar="2" Cut="4.5192837524414062e+02" cType="1" res="6.1659831553697586e-03" rms="2.0451790094375610e-01" purity="6.1831730604171753e-01" nType="0">
            <Node pos="l" depth="3" NCoef="0" IVar="-1" Cut="0.0000000000000000e+00" cType="1" res="4.8272080719470978e-02" rms="2.2638422250747681e-01" purity="2.2097130119800568e-01" nType="-99"/>
            <Node pos="r" depth="3" NCoef="0" IVar="-1" Cut="0.0000000000000000e+00" cType="1" res="-9.5754524227231741e-04" rms="1.9329993426799774e-01" purity="8.0080598592758179e-01" nType="-99"/>
          </Node>
        </Node>
      </Node>
    </BinaryTree>
    <BinaryTree type="DecisionTree" boostWeight="1.0000000000000000e+00" itree="397">
      <Node pos="s" depth="0" NCoef="0" IVar="10" Cut="-1.3391447067260742e-01" cType="1" res="-3.6298006307333708e-04" rms="1.8072932958602905e-01" purity="4.9986869096755981e-01" nType="0">
        <Node pos="l" depth="1" NCoef="0" IVar="7" Cut="-1.9954930990934372e-02" cType="1" res="-3.5567006561905146e-03" rms="1.8351653218269348e-01" purity="4.8693108558654785e-01" nType="0">
          <Node pos="l" depth="2" NCoef="0" IVar="2" Cut="5.9452880859375000e+02" cType="1" res="-9.4412127509713173e-03" rms="1.8553638458251953e-01" purity="4.7360777854919434e-01" nType="0">
            <Node pos="l" depth="3" NCoef="0" IVar="-1" Cut="0.0000000000000000e+00" cType="1" res="-4.1827388107776642e-02" rms="1.9499321281909943e-01" purity="2.5938975811004639e-01" nType="-99"/>
            <Node pos="r" depth="3" NCoef="0" IVar="-1" Cut="0.0000000000000000e+00" cType="1" res="-3.6385473795235157e-03" rms="1.7137400805950165e-01" purity="7.6733112335205078e-01" nType="-99"/>
          </Node>
          <Node pos="r" depth="2" NCoef="0" IVar="11" Cut="6.6616207361221313e-01" cType="1" res="2.8375072870403528e-03" rms="1.8107955157756805e-01" purity="5.0140839815139771e-01" nType="0">
            <Node pos="l" depth="3" NCoef="0" IVar="-1" Cut="0.0000000000000000e+00" cType="1" res="-1.7594771925359964e-03" rms="1.8093262612819672e-01" purity="5.1751530170440674e-01" nType="-99"/>
            <Node pos="r" depth="3" NCoef="0" IVar="-1" Cut="0.0000000000000000e+00" cType="1" res="3.0815085396170616e-02" rms="1.8117345869541168e-01" purity="4.6468725800514221e-01" nType="-99"/>
          </Node>
        </Node>
        <Node pos="r" depth="1" NCoef="0" IVar="7" Cut="-3.0322220921516418e-01" cType="1" res="2.3465889971703291e-03" rms="1.7828562855720520e-01" purity="5.1084506511688232e-01" nType="0">
          <Node pos="l" depth="2" NCoef="0" IVar="0" Cut="2.0793002929687500e+03" cType="1" res="7.4043953791260719e-03" rms="1.8739598989486694e-01" purity="4.6158275008201599e-01" nType="0">
            <Node pos="l" depth="3" NCoef="0" IVar="-1" Cut="0.0000000000000000e+00" cType="1" res="-2.7468462940305471e-03" rms="1.5511025488376617e-01" purity="3.2380495220422745e-02" nType="-99"/>
            <Node pos="r" depth="3" NCoef="0" IVar="-1" Cut="0.0000000000000000e+00" cType="1" res="3.1877279281616211e-02" rms="2.1416087448596954e-01" purity="8.8368272781372070e-01" nType="-99"/>
          </Node>
          <Node pos="r" depth="2" NCoef="0" IVar="8" Cut="9.3137431144714355e-01" cType="1" res="-3.2139857648871839e-04" rms="1.7322759330272675e-01" purity="5.3683090209960938e-01" nType="0">
            <Node pos="l" depth="3" NCoef="0" IVar="-1" Cut="0.0000000000000000e+00" cType="1" res="5.2641495130956173e-03" rms="1.6808377206325531e-01" purity="5.7863903045654297e-01" nType="-99"/>
            <Node pos="r" depth="3" NCoef="0" IVar="-1" Cut="0.0000000000000000e+00" cType="1" res="-2.8082681819796562e-02" rms="1.9706049561500549e-01" purity="3.2389608025550842e-01" nType="-99"/>
          </Node>
        </Node>
      </Node>
    </BinaryTree>
    <BinaryTree type="DecisionTree" boostWeight="1.0000000000000000e+00" itree="398">
      <Node pos="s" depth="0" NCoef="0" IVar="4" Cut="2.6125915527343750e+02" cType="1" res="-6.0523051070049405e-04" rms="1.7511415481567383e-01" purity="5.0446170568466187e-01" nType="0">
        <Node pos="l" depth="1" NCoef="0" IVar="9" Cut="1.7326316833496094e+00" cType="1" res="-3.1768756452947855e-03" rms="1.8373645842075348e-01" purity="1.5601843595504761e-01" nType="0">
          <Node pos="l" depth="2" NCoef="0" IVar="10" Cut="-1.9990645647048950e+00" cType="1" res="-4.4009522534906864e-03" rms="1.8385973572731018e-01" purity="1.5943515300750732e-01" nType="0">
            <Node pos="l" depth="3" NCoef="0" IVar="-1" Cut="0.0000000000000000e+00" cType="1" res="4.2116444557905197e-02" rms="2.1416357159614563e-01" purity="1.1054243892431259e-01" nType="-99"/>
            <Node pos="r" depth="3" NCoef="0" IVar="-1" Cut="0.0000000000000000e+00" cType="1" res="-1.4658147469162941e-02" rms="1.8187178671360016e-01" purity="1.6228416562080383e-01" nType="-99"/>
          </Node>
          <Node pos="r" depth="2" NCoef="0" IVar="-1" Cut="0.0000000000000000e+00" cType="1" res="4.2323507368564606e-02" rms="1.8150089681148529e-01" purity="1.1342377215623856e-01" nType="-99"/>
        </Node>
        <Node pos="r" depth="1" NCoef="0" IVar="7" Cut="9.8396831750869751e-01" cType="1" res="2.3266377393156290e-03" rms="1.6468547284603119e-01" purity="9.0171319246292114e-01" nType="0">
          <Node pos="l" depth="2" NCoef="0" IVar="9" Cut="-6.5249508619308472e-01" cType="1" res="1.2731244787573814e-03" rms="1.6074308753013611e-01" purity="9.1398251056671143e-01" nType="0">
            <Node pos="l" depth="3" NCoef="0" IVar="-1" Cut="0.0000000000000000e+00" cType="1" res="2.1286772564053535e-02" rms="1.8379789590835571e-01" purity="8.8330280780792236e-01" nType="-99"/>
            <Node pos="r" depth="3" NCoef="0" IVar="-1" Cut="0.0000000000000000e+00" cType="1" res="-1.9037193851545453e-03" rms="1.5382027626037598e-01" purity="9.2233806848526001e-01" nType="-99"/>
          </Node>
          <Node pos="r" depth="2" NCoef="0" IVar="-1" Cut="0.0000000000000000e+00" cType="1" res="3.0903285369277000e-02" rms="2.1628725528717041e-01" purity="7.1097970008850098e-01" nType="-99"/>
        </Node>
      </Node>
    </BinaryTree>
    <BinaryTree type="DecisionTree" boostWeight="1.0000000000000000e+00" itree="399">
      <Node pos="s" depth="0" NCoef="0" IVar="8" Cut="6.6732788085937500e-01" cType="1" res="-1.1953616049140692e-03" rms="1.8064571917057037e-01" purity="5.0254929065704346e-01" nType="0">
        <Node pos="l" depth="1" NCoef="0" IVar="10" Cut="-1.9991481304168701e+00" cType="1" res="1.0232763997919392e-05" rms="1.7997682094573975e-01" purity="5.4785084724426270e-01" nType="0">
          <Node pos="l" depth="2" NCoef="0" IVar="-1" Cut="0.0000000000000000e+00" cType="1" res="4.7864884138107300e-02" rms="2.2137266397476196e-01" purity="2.5037318468093872e-01" nType="-99"/>
          <Node pos="r" depth="2" NCoef="0" IVar="6" Cut="1.1242726898193359e+02" cType="1" res="-6.6399550996720791e-04" rms="1.7830416560173035e-01" purity="5.5834197998046875e-01" nType="0">
            <Node pos="l" depth="3" NCoef="0" IVar="-1" Cut="0.0000000000000000e+00" cType="1" res="-1.0211633518338203e-02" rms="1.9111956655979156e-01" purity="1.7626255750656128e-01" nType="-99"/>
            <Node pos="r" depth="3" NCoef="0" IVar="-1" Cut="0.0000000000000000e+00" cType="1" res="4.3414947576820850e-03" rms="1.6908094286918640e-01" purity="8.1611883640289307e-01" nType="-99"/>
          </Node>
        </Node>
        <Node pos="r" depth="1" NCoef="0" IVar="2" Cut="3.9980718994140625e+02" cType="1" res="-4.9177189357578754e-03" rms="1.8264530599117279e-01" purity="3.6267784237861633e-01" nType="0">
          <Node pos="l" depth="2" NCoef="0" IVar="7" Cut="1.6217456758022308e-01" cType="1" res="5.9454711154103279e-03" rms="1.6744849085807800e-01" purity="8.3883628249168396e-02" nType="0">
            <Node pos="l" depth="3" NCoef="0" IVar="-1" Cut="0.0000000000000000e+00" cType="1" res="5.8658208698034286e-02" rms="1.7375302314758301e-01" purity="9.4824902713298798e-02" nType="-99"/>
            <Node pos="r" depth="3" NCoef="0" IVar="-1" Cut="0.0000000000000000e+00" cType="1" res="-1.4114022254943848e-02" rms="1.5954956412315369e-01" purity="7.1687906980514526e-02" nType="-99"/>
          </Node>
          <Node pos="r" depth="2" NCoef="0" IVar="4" Cut="1.4725570678710938e+02" cType="1" res="-8.3759296685457230e-03" rms="1.8709212541580200e-01" purity="4.5142975449562073e-01" nType="0">
            <Node pos="l" depth="3" NCoef="0" IVar="-1" Cut="0.0000000000000000e+00" cType="1" res="1.7417214810848236e-02" rms="1.0392618179321289e-01" purity="2.0601663738489151e-02" nType="-99"/>
            <Node pos="r" depth="3" NCoef="0" IVar="-1" Cut="0.0000000000000000e+00" cType="1" res="-2.5237733498215675e-02" rms="2.0658013224601746e-01" purity="5.8878958225250244e-01" nType="-99"/>
          </Node>
        </Node>
      </Node>
    </BinaryTree>
    <BinaryTree type="DecisionTree" boostWeight="1.0000000000000000e+00" itree="400">
      <Node pos="s" depth="0" NCoef="0" IVar="9" Cut="-9.3239289522171021e-01" cType="1" res="2.1444845478981733e-03" rms="1.7680926620960236e-01" purity="5.0377112627029419e-01" nType="0">
        <Node pos="l" depth="1" NCoef="0" IVar="0" Cut="1.8375257568359375e+03" cType="1" res="-4.2293425649404526e-03" rms="1.8364137411117554e-01" purity="3.5162323713302612e-01" nType="0">
          <Node pos="l" depth="2" NCoef="0" IVar="8" Cut="-6.6241490840911865e-01" cType="1" res="1.3788481010124087e-03" rms="1.1457192152738571e-01" purity="1.4737215824425220e-02" nType="0">
            <Node pos="l" depth="3" NCoef="0" IVar="-1" Cut="0.0000000000000000e+00" cType="1" res="-5.1351889967918396e-02" rms="8.4538727998733521e-02" purity="6.5541444346308708e-03" nType="-99"/>
            <Node pos="r" depth="3" NCoef="0" IVar="-1" Cut="0.0000000000000000e+00" cType="1" res="5.4877046495676041e-02" rms="1.3260082900524139e-01" purity="2.0930062979459763e-02" nType="-99"/>
          </Node>
          <Node pos="r" depth="2" NCoef="0" IVar="1" Cut="7.1819409728050232e-02" cType="1" res="-1.0289168916642666e-02" rms="2.3645214736461639e-01" purity="7.1563911437988281e-01" nType="0">
            <Node pos="l" depth="3" NCoef="0" IVar="-1" Cut="0.0000000000000000e+00" cType="1" res="-3.0023518949747086e-02" rms="2.5861483812332153e-01" purity="5.2023339271545410e-01" nType="-99"/>
            <Node pos="r" depth="3" NCoef="0" IVar="-1" Cut="0.0000000000000000e+00" cType="1" res="2.8273141942918301e-03" rms="2.1405579149723053e-01" purity="8.9025187492370605e-01" nType="-99"/>
          </Node>
        </Node>
        <Node pos="r" depth="1" NCoef="0" IVar="5" Cut="1.2072373962402344e+02" cType="1" res="3.6580914165824652e-03" rms="1.7511358857154846e-01" purity="5.3990203142166138e-01" nType="0">
          <Node pos="l" depth="2" NCoef="0" IVar="4" Cut="1.9945051574707031e+02" cType="1" res="-1.5175221487879753e-03" rms="1.4169371128082275e-01" purity="5.3893484175205231e-02" nType="0">
            <Node pos="l" depth="3" NCoef="0" IVar="-1" Cut="0.0000000000000000e+00" cType="1" res="-2.4721572175621986e-02" rms="1.1032254248857498e-01" purity="2.0314887166023254e-02" nType="-99"/>
            <Node pos="r" depth="3" NCoef="0" IVar="-1" Cut="0.0000000000000000e+00" cType="1" res="1.5455930493772030e-02" rms="2.2689369320869446e-01" purity="1.8766681849956512e-01" nType="-99"/>
          </Node>
          <Node pos="r" depth="2" NCoef="0" IVar="0" Cut="2.6364443359375000e+03" cType="1" res="5.4144100286066532e-03" rms="1.8505530059337616e-01" purity="7.0482659339904785e-01" nType="0">
            <Node pos="l" depth="3" NCoef="0" IVar="-1" Cut="0.0000000000000000e+00" cType="1" res="1.5834985300898552e-02" rms="2.5961712002754211e-01" purity="2.9551726579666138e-01" nType="-99"/>
            <Node pos="r" depth="3" NCoef="0" IVar="-1" Cut="0.0000000000000000e+00" cType="1" res="1.3700001873075962e-02" rms="1.0781429708003998e-01" purity="9.8371845483779907e-01" nType="-99"/>
          </Node>
        </Node>
      </Node>
    </BinaryTree>
    <BinaryTree type="DecisionTree" boostWeight="1.0000000000000000e+00" itree="401">
      <Node pos="s" depth="0" NCoef="0" IVar="3" Cut="4.1059170532226562e+02" cType="1" res="-1.2788572348654270e-03" rms="1.8299658596515656e-01" purity="5.0230199098587036e-01" nType="0">
        <Node pos="l" depth="1" NCoef="0" IVar="6" Cut="1.4452821350097656e+02" cType="1" res="8.9528964599594474e-04" rms="1.9328160583972931e-01" purity="2.3448322713375092e-01" nType="0">
          <Node pos="l" depth="2" NCoef="0" IVar="6" Cut="1.1759756469726562e+02" cType="1" res="-1.5574516728520393e-03" rms="1.8078160285949707e-01" purity="1.0153055936098099e-01" nType="0">
            <Node pos="l" depth="3" NCoef="0" IVar="-1" Cut="0.0000000000000000e+00" cType="1" res="3.1389310024678707e-03" rms="1.6475532948970795e-01" purity="7.0105828344821930e-02" nType="-99"/>
            <Node pos="r" depth="3" NCoef="0" IVar="-1" Cut="0.0000000000000000e+00" cType="1" res="-2.1661723032593727e-02" rms="2.4885992705821991e-01" purity="2.6860821247100830e-01" nType="-99"/>
          </Node>
          <Node pos="r" depth="2" NCoef="0" IVar="0" Cut="2.3027141113281250e+03" cType="1" res="1.0722192935645580e-02" rms="2.3658120632171631e-01" purity="7.6715779304504395e-01" nType="0">
            <Node pos="l" depth="3" NCoef="0" IVar="-1" Cut="0.0000000000000000e+00" cType="1" res="2.8000771999359131e-02" rms="3.4001934528350830e-01" purity="3.5074254870414734e-01" nType="-99"/>
            <Node pos="r" depth="3" NCoef="0" IVar="-1" Cut="0.0000000000000000e+00" cType="1" res="2.4481697473675013e-03" rms="1.6678553819656372e-01" purity="9.6152061223983765e-01" nType="-99"/>
          </Node>
        </Node>
        <Node pos="r" depth="1" NCoef="0" IVar="0" Cut="2.4140454101562500e+03" cType="1" res="-4.4939094223082066e-03" rms="1.6657599806785583e-01" purity="8.9834302663803101e-01" nType="0">
          <Node pos="l" depth="2" NCoef="0" IVar="-1" Cut="0.0000000000000000e+00" cType="1" res="-2.3594660684466362e-02" rms="2.9484531283378601e-01" purity="2.5713869929313660e-01" nType="-99"/>
          <Node pos="r" depth="2" NCoef="0" IVar="3" Cut="6.2406152343750000e+02" cType="1" res="-2.7030936907976866e-03" rms="1.4723531901836395e-01" purity="9.6372061967849731e-01" nType="0">
            <Node pos="l" depth="3" NCoef="0" IVar="-1" Cut="0.0000000000000000e+00" cType="1" res="-3.3017096575349569e-03" rms="1.4508637785911560e-01" purity="9.6571129560470581e-01" nType="-99"/>
            <Node pos="r" depth="3" NCoef="0" IVar="-1" Cut="0.0000000000000000e+00" cType="1" res="-4.3742522597312927e-02" rms="1.5256601572036743e-01" purity="9.5853495597839355e-01" nType="-99"/>
          </Node>
        </Node>
      </Node>
    </BinaryTree>
    <BinaryTree type="DecisionTree" boostWeight="1.0000000000000000e+00" itree="402">
      <Node pos="s" depth="0" NCoef="0" IVar="10" Cut="-1.1994092464447021e+00" cType="1" res="-2.1270606666803360e-03" rms="1.7853625118732452e-01" purity="5.0002288818359375e-01" nType="0">
        <Node pos="l" depth="1" NCoef="0" IVar="1" Cut="7.4360795319080353e-02" cType="1" res="-8.8799288496375084e-03" rms="1.9425781071186066e-01" purity="3.6790394783020020e-01" nType="0">
          <Node pos="l" depth="2" NCoef="0" IVar="1" Cut="2.4987755343317986e-02" cType="1" res="-3.7883024197071791e-03" rms="1.9008898735046387e-01" purity="1.9608247280120850e-01" nType="0">
            <Node pos="l" depth="3" NCoef="0" IVar="-1" Cut="0.0000000000000000e+00" cType="1" res="-4.9549944698810577e-02" rms="1.1614423990249634e-01" purity="6.7807950079441071e-02" nType="-99"/>
            <Node pos="r" depth="3" NCoef="0" IVar="-1" Cut="0.0000000000000000e+00" cType="1" res="4.6791001223027706e-03" rms="2.2965380549430847e-01" purity="2.9065349698066711e-01" nType="-99"/>
          </Node>
          <Node pos="r" depth="2" NCoef="0" IVar="-1" Cut="0.0000000000000000e+00" cType="1" res="-3.6142315715551376e-02" rms="2.0052319765090942e-01" purity="6.4485245943069458e-01" nType="-99"/>
        </Node>
        <Node pos="r" depth="1" NCoef="0" IVar="11" Cut="-1.3350278139114380e-01" cType="1" res="-9.7113777883350849e-04" rms="1.7567813396453857e-01" purity="5.2263838052749634e-01" nType="0">
          <Node pos="l" depth="2" NCoef="0" IVar="5" Cut="1.5384666442871094e+02" cType="1" res="-3.7917564623057842e-03" rms="1.7175512015819550e-01" purity="5.1711601018905640e-01" nType="0">
            <Node pos="l" depth="3" NCoef="0" IVar="-1" Cut="0.0000000000000000e+00" cType="1" res="-2.8297467157244682e-02" rms="1.6336719691753387e-01" purity="9.9298812448978424e-02" nType="-99"/>
            <Node pos="r" depth="3" NCoef="0" IVar="-1" Cut="0.0000000000000000e+00" cType="1" res="-2.4314795155078173e-03" rms="1.7717577517032623e-01" purity="8.0155169963836670e-01" nType="-99"/>
          </Node>
          <Node pos="r" depth="2" NCoef="0" IVar="8" Cut="1.4665575027465820e+00" cType="1" res="1.4248529914766550e-03" rms="1.7890809476375580e-01" purity="5.2732938528060913e-01" nType="0">
            <Node pos="l" depth="3" NCoef="0" IVar="-1" Cut="0.0000000000000000e+00" cType="1" res="2.0655284170061350e-03" rms="1.7918148636817932e-01" purity="5.5282306671142578e-01" nType="-99"/>
            <Node pos="r" depth="3" NCoef="0" IVar="-1" Cut="0.0000000000000000e+00" cType="1" res="4.6140402555465698e-02" rms="1.7450493574142456e-01" purity="1.5590362250804901e-01" nType="-99"/>
          </Node>
        </Node>
      </Node>
    </BinaryTree>
    <BinaryTree type="DecisionTree" boostWeight="1.0000000000000000e+00" itree="403">
      <Node pos="s" depth="0" NCoef="0" IVar="10" Cut="1.7330832481384277e+00" cType="1" res="1.5300908125936985e-03" rms="1.8024708330631256e-01" purity="5.0458353757858276e-01" nType="0">
        <Node pos="l" depth="1" NCoef="0" IVar="7" Cut="7.4793738126754761e-01" cType="1" res="2.0585178863257170e-03" rms="1.7876602709293365e-01" purity="5.2194637060165405e-01" nType="0">
          <Node pos="l" depth="2" NCoef="0" IVar="8" Cut="-1.7285025119781494e+00" cType="1" res="1.1959903640672565e-03" rms="1.7846091091632843e-01" purity="5.6905382871627808e-01" nType="0">
            <Node pos="l" depth="3" NCoef="0" IVar="-1" Cut="0.0000000000000000e+00" cType="1" res="5.6065343320369720e-02" rms="1.7121411859989166e-01" purity="9.3620531260967255e-02" nType="-99"/>
            <Node pos="r" depth="3" NCoef="0" IVar="-1" Cut="0.0000000000000000e+00" cType="1" res="2.2000991739332676e-03" rms="1.7870801687240601e-01" purity="5.8671969175338745e-01" nType="-99"/>
          </Node>
          <Node pos="r" depth="2" NCoef="0" IVar="1" Cut="6.7127600312232971e-02" cType="1" res="5.9354836121201515e-03" rms="1.8008011579513550e-01" purity="3.1020352244377136e-01" nType="0">
            <Node pos="l" depth="3" NCoef="0" IVar="-1" Cut="0.0000000000000000e+00" cType="1" res="6.7294379696249962e-03" rms="1.6829000413417816e-01" purity="1.6320811212062836e-01" nType="-99"/>
            <Node pos="r" depth="3" NCoef="0" IVar="-1" Cut="0.0000000000000000e+00" cType="1" res="3.6142975091934204e-02" rms="2.0615945756435394e-01" purity="6.7537534236907959e-01" nType="-99"/>
          </Node>
        </Node>
        <Node pos="r" depth="1" NCoef="0" IVar="7" Cut="2.4702042341232300e-01" cType="1" res="-6.7671011202037334e-03" rms="2.0190262794494629e-01" purity="2.3195795714855194e-01" nType="0">
          <Node pos="l" depth="2" NCoef="0" IVar="-1" Cut="0.0000000000000000e+00" cType="1" res="4.2737950570881367e-03" rms="2.1818728744983673e-01" purity="2.4981163442134857e-01" nType="-99"/>
          <Node pos="r" depth="2" NCoef="0" IVar="-1" Cut="0.0000000000000000e+00" cType="1" res="-4.6480339020490646e-02" rms="1.7663024365901947e-01" purity="2.0761954784393311e-01" nType="-99"/>
        </Node>
      </Node>
    </BinaryTree>
    <BinaryTree type="DecisionTree" boostWeight="1.0000000000000000e+00" itree="404">
      <Node pos="s" depth="0" NCoef="0" IVar="1" Cut="4.0334273129701614e-02" cType="1" res="-1.5959471929818392e-03" rms="1.8413330614566803e-01" purity="5.0085777044296265e-01" nType="0">
        <Node pos="l" depth="1" NCoef="0" IVar="3" Cut="5.5292272949218750e+02" cType="1" res="3.2417816109955311e-03" rms="1.7152263224124908e-01" purity="1.7743855714797974e-01" nType="0">
          <Node pos="l" depth="2" NCoef="0" IVar="11" Cut="4.0056180953979492e-01" cType="1" res="7.8305549686774611e-04" rms="1.6459801793098450e-01" purity="1.1328860372304916e-01" nType="0">
            <Node pos="l" depth="3" NCoef="0" IVar="-1" Cut="0.0000000000000000e+00" cType="1" res="-1.2849715538322926e-02" rms="1.6035763919353485e-01" purity="1.1090040951967239e-01" nType="-99"/>
            <Node pos="r" depth="3" NCoef="0" IVar="-1" Cut="0.0000000000000000e+00" cType="1" res="2.8894845396280289e-02" rms="1.7147941887378693e-01" purity="1.1744730174541473e-01" nType="-99"/>
          </Node>
          <Node pos="r" depth="2" NCoef="0" IVar="-1" Cut="0.0000000000000000e+00" cType="1" res="4.7675233334302902e-02" rms="2.3080089688301086e-01" purity="8.5511183738708496e-01" nType="-99"/>
        </Node>
        <Node pos="r" depth="1" NCoef="0" IVar="9" Cut="-9.3073362112045288e-01" cType="1" res="-4.0216045454144478e-03" rms="1.9009546935558319e-01" purity="6.6302144527435303e-01" nType="0">
          <Node pos="l" depth="2" NCoef="0" IVar="11" Cut="-1.3530428707599640e-01" cType="1" res="4.5566880144178867e-03" rms="2.1252869069576263e-01" purity="5.2797359228134155e-01" nType="0">
            <Node pos="l" depth="3" NCoef="0" IVar="-1" Cut="0.0000000000000000e+00" cType="1" res="-1.0483796708285809e-02" rms="2.0372711122035980e-01" purity="4.6390917897224426e-01" nType="-99"/>
            <Node pos="r" depth="3" NCoef="0" IVar="-1" Cut="0.0000000000000000e+00" cType="1" res="3.1341742724180222e-02" rms="2.2159522771835327e-01" purity="5.9989792108535767e-01" nType="-99"/>
          </Node>
          <Node pos="r" depth="2" NCoef="0" IVar="0" Cut="3.1256247558593750e+03" cType="1" res="-5.7628527283668518e-03" rms="1.8516194820404053e-01" purity="6.9043391942977905e-01" nType="0">
            <Node pos="l" depth="3" NCoef="0" IVar="-1" Cut="0.0000000000000000e+00" cType="1" res="-1.9064763560891151e-02" rms="2.3240040242671967e-01" purity="4.9172538518905640e-01" nType="-99"/>
            <Node pos="r" depth="3" NCoef="0" IVar="-1" Cut="0.0000000000000000e+00" cType="1" res="1.7506800591945648e-02" rms="6.2401898205280304e-02" purity="9.9586796760559082e-01" nType="-99"/>
          </Node>
        </Node>
      </Node>
    </BinaryTree>
    <BinaryTree type="DecisionTree" boostWeight="1.0000000000000000e+00" itree="405">
      <Node pos="s" depth="0" NCoef="0" IVar="10" Cut="-1.3303947448730469e-01" cType="1" res="5.9131131274625659e-04" rms="1.8341068923473358e-01" purity="5.0252783298492432e-01" nType="0">
        <Node pos="l" depth="1" NCoef="0" IVar="3" Cut="3.9104498291015625e+02" cType="1" res="3.5623924341052771e-03" rms="1.8564812839031219e-01" purity="4.9763625860214233e-01" nType="0">
          <Node pos="l" depth="2" NCoef="0" IVar="3" Cut="3.6006414794921875e+02" cType="1" res="6.6618383862078190e-03" rms="1.9578211009502411e-01" purity="2.0841170847415924e-01" nType="0">
            <Node pos="l" depth="3" NCoef="0" IVar="-1" Cut="0.0000000000000000e+00" cType="1" res="1.1927632614970207e-02" rms="1.8846125900745392e-01" purity="1.5560282766819000e-01" nType="-99"/>
            <Node pos="r" depth="3" NCoef="0" IVar="-1" Cut="0.0000000000000000e+00" cType="1" res="4.6422529965639114e-02" rms="2.4794778227806091e-01" purity="6.5301680564880371e-01" nType="-99"/>
          </Node>
          <Node pos="r" depth="2" NCoef="0" IVar="3" Cut="4.4060678100585938e+02" cType="1" res="-5.0772045506164432e-04" rms="1.7134788632392883e-01" purity="8.7743854522705078e-01" nType="0">
            <Node pos="l" depth="3" NCoef="0" IVar="-1" Cut="0.0000000000000000e+00" cType="1" res="-2.4175731465220451e-02" rms="2.0808430016040802e-01" purity="7.3395383358001709e-01" nType="-99"/>
            <Node pos="r" depth="3" NCoef="0" IVar="-1" Cut="0.0000000000000000e+00" cType="1" res="7.7422126196324825e-03" rms="1.6087733209133148e-01" purity="9.1292393207550049e-01" nType="-99"/>
          </Node>
        </Node>
        <Node pos="r" depth="1" NCoef="0" IVar="11" Cut="9.3497467041015625e-01" cType="1" res="-1.8329289741814137e-03" rms="1.8152859807014465e-01" purity="5.0651901960372925e-01" nType="0">
          <Node pos="l" depth="2" NCoef="0" IVar="7" Cut="-7.9110646247863770e-01" cType="1" res="-7.1517279138788581e-05" rms="1.7486779391765594e-01" purity="5.2552497386932373e-01" nType="0">
            <Node pos="l" depth="3" NCoef="0" IVar="-1" Cut="0.0000000000000000e+00" cType="1" res="2.3048130795359612e-02" rms="1.9181491434574127e-01" purity="2.9958349466323853e-01" nType="-99"/>
            <Node pos="r" depth="3" NCoef="0" IVar="-1" Cut="0.0000000000000000e+00" cType="1" res="-5.1000458188354969e-03" rms="1.7150390148162842e-01" purity="5.6737399101257324e-01" nType="-99"/>
          </Node>
          <Node pos="r" depth="2" NCoef="0" IVar="5" Cut="1.3897271728515625e+02" cType="1" res="-7.4491291306912899e-03" rms="2.0119704306125641e-01" purity="4.4591918587684631e-01" nType="0">
            <Node pos="l" depth="3" NCoef="0" IVar="-1" Cut="0.0000000000000000e+00" cType="1" res="2.3734357208013535e-02" rms="1.7545215785503387e-01" purity="9.4940185546875000e-02" nType="-99"/>
            <Node pos="r" depth="3" NCoef="0" IVar="-1" Cut="0.0000000000000000e+00" cType="1" res="-3.8571227341890335e-02" rms="2.1653215587139130e-01" purity="6.8604964017868042e-01" nType="-99"/>
          </Node>
        </Node>
      </Node>
    </BinaryTree>
    <BinaryTree type="DecisionTree" boostWeight="1.0000000000000000e+00" itree="406">
      <Node pos="s" depth="0" NCoef="0" IVar="0" Cut="1.8945874023437500e+03" cType="1" res="-3.8457353366538882e-04" rms="1.7604227364063263e-01" purity="4.9556794762611389e-01" nType="0">
        <Node pos="l" depth="1" NCoef="0" IVar="6" Cut="1.2651028442382812e+02" cType="1" res="-3.4151535946875811e-03" rms="1.1626939475536346e-01" purity="1.5405240468680859e-02" nType="0">
          <Node pos="l" depth="2" NCoef="0" IVar="1" Cut="8.6766816675662994e-02" cType="1" res="-1.0407117661088705e-03" rms="1.0656952857971191e-01" purity="1.2585959397256374e-02" nType="0">
            <Node pos="l" depth="3" NCoef="0" IVar="-1" Cut="0.0000000000000000e+00" cType="1" res="-2.6190061122179031e-02" rms="8.4692649543285370e-02" purity="7.6887933537364006e-03" nType="-99"/>
            <Node pos="r" depth="3" NCoef="0" IVar="-1" Cut="0.0000000000000000e+00" cType="1" res="2.2427108138799667e-02" rms="1.7913694679737091e-01" purity="3.6923449486494064e-02" nType="-99"/>
          </Node>
          <Node pos="r" depth="2" NCoef="0" IVar="-1" Cut="0.0000000000000000e+00" cType="1" res="-4.6653285622596741e-02" rms="1.7203107476234436e-01" purity="3.6855153739452362e-02" nType="-99"/>
        </Node>
        <Node pos="r" depth="1" NCoef="0" IVar="4" Cut="1.5724275207519531e+02" cType="1" res="1.7051988979801536e-03" rms="2.0743292570114136e-01" purity="8.2666981220245361e-01" nType="0">
          <Node pos="l" depth="2" NCoef="0" IVar="-1" Cut="0.0000000000000000e+00" cType="1" res="3.3631041646003723e-02" rms="2.7781519293785095e-01" purity="1.9554401934146881e-01" nType="-99"/>
          <Node pos="r" depth="2" NCoef="0" IVar="6" Cut="7.5998863220214844e+01" cType="1" res="5.3284422028809786e-04" rms="2.0335738360881805e-01" purity="8.5705506801605225e-01" nType="0">
            <Node pos="l" depth="3" NCoef="0" IVar="-1" Cut="0.0000000000000000e+00" cType="1" res="-1.7899855971336365e-02" rms="3.0369478464126587e-01" purity="4.1390979290008545e-01" nType="-99"/>
            <Node pos="r" depth="3" NCoef="0" IVar="-1" Cut="0.0000000000000000e+00" cType="1" res="3.2994071952998638e-03" rms="1.9737988710403442e-01" purity="8.7778365612030029e-01" nType="-99"/>
          </Node>
        </Node>
      </Node>
    </BinaryTree>
    <BinaryTree type="DecisionTree" boostWeight="1.0000000000000000e+00" itree="407">
      <Node pos="s" depth="0" NCoef="0" IVar="2" Cut="7.7266290283203125e+02" cType="1" res="-3.2233336241915822e-04" rms="1.8171595036983490e-01" purity="4.9837705492973328e-01" nType="0">
        <Node pos="l" depth="1" NCoef="0" IVar="9" Cut="-1.2001968622207642e+00" cType="1" res="9.6581742400303483e-04" rms="1.8497991561889648e-01" purity="4.0297201275825500e-01" nType="0">
          <Node pos="l" depth="2" NCoef="0" IVar="8" Cut="-1.3601602613925934e-01" cType="1" res="8.3237197250127792e-03" rms="2.0264507830142975e-01" purity="2.5853741168975830e-01" nType="0">
            <Node pos="l" depth="3" NCoef="0" IVar="-1" Cut="0.0000000000000000e+00" cType="1" res="-4.2189713567495346e-03" rms="1.8340933322906494e-01" purity="2.5164392590522766e-01" nType="-99"/>
            <Node pos="r" depth="3" NCoef="0" IVar="-1" Cut="0.0000000000000000e+00" cType="1" res="4.5122850686311722e-02" rms="2.1950840950012207e-01" purity="2.6532283425331116e-01" nType="-99"/>
          </Node>
          <Node pos="r" depth="2" NCoef="0" IVar="10" Cut="-1.9945670366287231e+00" cType="1" res="-1.5753172920085490e-04" rms="1.8210607767105103e-01" purity="4.2502322793006897e-01" nType="0">
            <Node pos="l" depth="3" NCoef="0" IVar="-1" Cut="0.0000000000000000e+00" cType="1" res="-4.6234842389822006e-02" rms="2.0303449034690857e-01" purity="1.6946631669998169e-01" nType="-99"/>
            <Node pos="r" depth="3" NCoef="0" IVar="-1" Cut="0.0000000000000000e+00" cType="1" res="1.6678675310686231e-03" rms="1.8121066689491272e-01" purity="4.3489569425582886e-01" nType="-99"/>
          </Node>
        </Node>
        <Node pos="r" depth="1" NCoef="0" IVar="0" Cut="2.8010100097656250e+03" cType="1" res="-5.3182067349553108e-03" rms="1.6836684942245483e-01" purity="8.6838918924331665e-01" nType="0">
          <Node pos="l" depth="2" NCoef="0" IVar="-1" Cut="0.0000000000000000e+00" cType="1" res="-2.4860225617885590e-02" rms="2.8852409124374390e-01" purity="2.7648958563804626e-01" nType="-99"/>
          <Node pos="r" depth="2" NCoef="0" IVar="1" Cut="3.7844985723495483e-02" cType="1" res="-2.3189398925751448e-03" rms="1.3774473965167999e-01" purity="9.6878528594970703e-01" nType="0">
            <Node pos="l" depth="3" NCoef="0" IVar="-1" Cut="0.0000000000000000e+00" cType="1" res="-2.6625325903296471e-02" rms="2.4167284369468689e-01" purity="8.7529045343399048e-01" nType="-99"/>
            <Node pos="r" depth="3" NCoef="0" IVar="-1" Cut="0.0000000000000000e+00" cType="1" res="5.1703723147511482e-04" rms="1.0885839909315109e-01" purity="9.8558706045150757e-01" nType="-99"/>
          </Node>
        </Node>
      </Node>
    </BinaryTree>
    <BinaryTree type="DecisionTree" boostWeight="1.0000000000000000e+00" itree="408">
      <Node pos="s" depth="0" NCoef="0" IVar="5" Cut="1.9128137207031250e+02" cType="1" res="1.7911316826939583e-03" rms="1.8233351409435272e-01" purity="5.0059068202972412e-01" nType="0">
        <Node pos="l" depth="1" NCoef="0" IVar="0" Cut="2.0670178222656250e+03" cType="1" res="4.1676624678075314e-03" rms="1.9322556257247925e-01" purity="1.8724854290485382e-01" nType="0">
          <Node pos="l" depth="2" NCoef="0" IVar="7" Cut="-6.1925933696329594e-03" cType="1" res="7.1508559631183743e-04" rms="1.4276984333992004e-01" purity="2.7321739122271538e-02" nType="0">
            <Node pos="l" depth="3" NCoef="0" IVar="-1" Cut="0.0000000000000000e+00" cType="1" res="-1.4140560291707516e-02" rms="1.3335819542407990e-01" purity="2.3383561521768570e-02" nType="-99"/>
            <Node pos="r" depth="3" NCoef="0" IVar="-1" Cut="0.0000000000000000e+00" cType="1" res="2.1820051595568657e-02" rms="1.5163427591323853e-01" purity="3.1317956745624542e-02" nType="-99"/>
          </Node>
          <Node pos="r" depth="2" NCoef="0" IVar="8" Cut="4.0894851088523865e-01" cType="1" res="1.5205350704491138e-02" rms="3.0228063464164734e-01" purity="6.9852513074874878e-01" nType="0">
            <Node pos="l" depth="3" NCoef="0" IVar="-1" Cut="0.0000000000000000e+00" cType="1" res="7.8377220779657364e-03" rms="2.9225739836692810e-01" purity="7.0260220766067505e-01" nType="-99"/>
            <Node pos="r" depth="3" NCoef="0" IVar="-1" Cut="0.0000000000000000e+00" cType="1" res="3.1042728573083878e-02" rms="3.2165375351905823e-01" purity="6.8996149301528931e-01" nType="-99"/>
          </Node>
        </Node>
        <Node pos="r" depth="1" NCoef="0" IVar="1" Cut="4.0415819734334946e-02" cType="1" res="-1.3050356646999717e-03" rms="1.6703076660633087e-01" purity="9.0881580114364624e-01" nType="0">
          <Node pos="l" depth="2" NCoef="0" IVar="-1" Cut="0.0000000000000000e+00" cType="1" res="-1.4574548229575157e-02" rms="2.3523332178592682e-01" purity="6.8092942237854004e-01" nType="-99"/>
          <Node pos="r" depth="2" NCoef="0" IVar="9" Cut="-6.0536426305770874e-01" cType="1" res="-3.1060792389325798e-04" rms="1.5529769659042358e-01" purity="9.4016140699386597e-01" nType="0">
            <Node pos="l" depth="3" NCoef="0" IVar="-1" Cut="0.0000000000000000e+00" cType="1" res="2.0853331312537193e-02" rms="1.6672047972679138e-01" purity="9.2784076929092407e-01" nType="-99"/>
            <Node pos="r" depth="3" NCoef="0" IVar="-1" Cut="0.0000000000000000e+00" cType="1" res="-9.9743623286485672e-03" rms="1.5148448944091797e-01" purity="9.4403016567230225e-01" nType="-99"/>
          </Node>
        </Node>
      </Node>
    </BinaryTree>
    <BinaryTree type="DecisionTree" boostWeight="1.0000000000000000e+00" itree="409">
      <Node pos="s" depth="0" NCoef="0" IVar="3" Cut="3.3332687377929688e+02" cType="1" res="-7.3161750333383679e-04" rms="1.8214257061481476e-01" purity="4.9613511562347412e-01" nType="0">
        <Node pos="l" depth="1" NCoef="0" IVar="3" Cut="3.0781030273437500e+02" cType="1" res="1.8249595304951072e-03" rms="1.8187415599822998e-01" purity="1.2653644382953644e-01" nType="0">
          <Node pos="l" depth="2" NCoef="0" IVar="6" Cut="1.4268487548828125e+02" cType="1" res="-2.6700465241447091e-04" rms="1.7312127351760864e-01" purity="9.2333726584911346e-02" nType="0">
            <Node pos="l" depth="3" NCoef="0" IVar="-1" Cut="0.0000000000000000e+00" cType="1" res="5.7930299080908298e-03" rms="1.5577815473079681e-01" purity="5.1102444529533386e-02" nType="-99"/>
            <Node pos="r" depth="3" NCoef="0" IVar="-1" Cut="0.0000000000000000e+00" cType="1" res="-1.7829546704888344e-02" rms="2.7789035439491272e-01" purity="4.3534624576568604e-01" nType="-99"/>
          </Node>
          <Node pos="r" depth="2" NCoef="0" IVar="11" Cut="-1.2901532649993896e-01" cType="1" res="1.5327948145568371e-02" rms="2.3005186021327972e-01" purity="3.4730446338653564e-01" nType="0">
            <Node pos="l" depth="3" NCoef="0" IVar="-1" Cut="0.0000000000000000e+00" cType="1" res="1.0170194320380688e-02" rms="2.1310736238956451e-01" purity="3.0493873357772827e-01" nType="-99"/>
            <Node pos="r" depth="3" NCoef="0" IVar="-1" Cut="0.0000000000000000e+00" cType="1" res="4.4998709112405777e-02" rms="2.4620826542377472e-01" purity="3.9207258820533752e-01" nType="-99"/>
          </Node>
        </Node>
        <Node pos="r" depth="1" NCoef="0" IVar="8" Cut="1.2074806690216064e+00" cType="1" res="-2.7832337655127048e-03" rms="1.8233175575733185e-01" purity="7.9273271560668945e-01" nType="0">
          <Node pos="l" depth="2" NCoef="0" IVar="1" Cut="4.2952787131071091e-02" cType="1" res="-1.7600572900846601e-03" rms="1.7841272056102753e-01" purity="8.1204742193222046e-01" nType="0">
            <Node pos="l" depth="3" NCoef="0" IVar="-1" Cut="0.0000000000000000e+00" cType="1" res="-1.8888087943196297e-02" rms="2.2422507405281067e-01" purity="4.7235867381095886e-01" nType="-99"/>
            <Node pos="r" depth="3" NCoef="0" IVar="-1" Cut="0.0000000000000000e+00" cType="1" res="1.6133422031998634e-03" rms="1.6482576727867126e-01" purity="8.9748108386993408e-01" nType="-99"/>
          </Node>
          <Node pos="r" depth="2" NCoef="0" IVar="-1" Cut="0.0000000000000000e+00" cType="1" res="-3.5052254796028137e-02" rms="2.3776084184646606e-01" purity="4.7039085626602173e-01" nType="-99"/>
        </Node>
      </Node>
    </BinaryTree>
    <BinaryTree type="DecisionTree" boostWeight="1.0000000000000000e+00" itree="410">
      <Node pos="s" depth="0" NCoef="0" IVar="11" Cut="-1.7321177721023560e+00" cType="1" res="-6.2899920158088207e-04" rms="1.8045224249362946e-01" purity="4.9806609749794006e-01" nType="0">
        <Node pos="l" depth="1" NCoef="0" IVar="3" Cut="2.7315213012695312e+02" cType="1" res="9.4255870208144188e-03" rms="2.1071439981460571e-01" purity="3.7244462966918945e-01" nType="0">
          <Node pos="l" depth="2" NCoef="0" IVar="-1" Cut="0.0000000000000000e+00" cType="1" res="-2.0484313368797302e-02" rms="1.5654918551445007e-01" purity="5.8533839881420135e-02" nType="-99"/>
          <Node pos="r" depth="2" NCoef="0" IVar="-1" Cut="0.0000000000000000e+00" cType="1" res="3.4054599702358246e-02" rms="2.3782292008399963e-01" purity="5.6814473867416382e-01" nType="-99"/>
        </Node>
        <Node pos="r" depth="1" NCoef="0" IVar="11" Cut="1.9365237951278687e+00" cType="1" res="-1.4131061034277081e-03" rms="1.7785207927227020e-01" purity="5.0786268711090088e-01" nType="0">
          <Node pos="l" depth="2" NCoef="0" IVar="11" Cut="1.2376372814178467e+00" cType="1" res="-8.8591530220583081e-04" rms="1.7654502391815186e-01" purity="5.1751285791397095e-01" nType="0">
            <Node pos="l" depth="3" NCoef="0" IVar="-1" Cut="0.0000000000000000e+00" cType="1" res="-5.7545453310012817e-03" rms="1.7413678765296936e-01" purity="5.2421224117279053e-01" nType="-99"/>
            <Node pos="r" depth="3" NCoef="0" IVar="-1" Cut="0.0000000000000000e+00" cType="1" res="1.5410088934004307e-02" rms="1.9255663454532623e-01" purity="4.7025412321090698e-01" nType="-99"/>
          </Node>
          <Node pos="r" depth="2" NCoef="0" IVar="-1" Cut="0.0000000000000000e+00" cType="1" res="-2.6982095092535019e-02" rms="2.0025260746479034e-01" purity="3.2932421565055847e-01" nType="-99"/>
        </Node>
      </Node>
    </BinaryTree>
    <BinaryTree type="DecisionTree" boostWeight="1.0000000000000000e+00" itree="411">
      <Node pos="s" depth="0" NCoef="0" IVar="7" Cut="-9.3887329101562500e-02" cType="1" res="1.4329624827951193e-03" rms="1.8155534565448761e-01" purity="5.0209122896194458e-01" nType="0">
        <Node pos="l" depth="1" NCoef="0" IVar="0" Cut="2.9977358398437500e+03" cType="1" res="3.6141262389719486e-03" rms="1.8767093122005463e-01" purity="4.8899784684181213e-01" nType="0">
          <Node pos="l" depth="2" NCoef="0" IVar="2" Cut="7.1268231201171875e+02" cType="1" res="5.6485421955585480e-03" rms="2.1414099633693695e-01" purity="2.7526891231536865e-01" nType="0">
            <Node pos="l" depth="3" NCoef="0" IVar="-1" Cut="0.0000000000000000e+00" cType="1" res="9.4305584207177162e-03" rms="2.0428465306758881e-01" purity="2.5187346339225769e-01" nType="-99"/>
            <Node pos="r" depth="3" NCoef="0" IVar="-1" Cut="0.0000000000000000e+00" cType="1" res="2.7794588357210159e-02" rms="2.8683504462242126e-01" purity="4.8365622758865356e-01" nType="-99"/>
          </Node>
          <Node pos="r" depth="2" NCoef="0" IVar="1" Cut="5.9525273740291595e-02" cType="1" res="-1.1058364761993289e-03" rms="1.0252989083528519e-01" purity="9.8486125469207764e-01" nType="0">
            <Node pos="l" depth="3" NCoef="0" IVar="-1" Cut="0.0000000000000000e+00" cType="1" res="-3.0151894316077232e-02" rms="1.8635134398937225e-01" purity="9.4541257619857788e-01" nType="-99"/>
            <Node pos="r" depth="3" NCoef="0" IVar="-1" Cut="0.0000000000000000e+00" cType="1" res="3.0600685626268387e-02" rms="5.7581733912229538e-02" purity="9.9653935432434082e-01" nType="-99"/>
          </Node>
        </Node>
        <Node pos="r" depth="1" NCoef="0" IVar="2" Cut="5.3638012695312500e+02" cType="1" res="-2.9329612152650952e-04" rms="1.7654605209827423e-01" purity="5.1245385408401489e-01" nType="0">
          <Node pos="l" depth="2" NCoef="0" IVar="7" Cut="1.1428176164627075e+00" cType="1" res="-2.6224495377391577e-03" rms="1.8484905362129211e-01" purity="2.2257499396800995e-01" nType="0">
            <Node pos="l" depth="3" NCoef="0" IVar="-1" Cut="0.0000000000000000e+00" cType="1" res="-1.6135046258568764e-02" rms="1.9607217609882355e-01" purity="2.7634128928184509e-01" nType="-99"/>
            <Node pos="r" depth="3" NCoef="0" IVar="-1" Cut="0.0000000000000000e+00" cType="1" res="3.7677966058254242e-02" rms="1.5164381265640259e-01" purity="8.3907552063465118e-02" nType="-99"/>
          </Node>
          <Node pos="r" depth="2" NCoef="0" IVar="1" Cut="3.9913125336170197e-02" cType="1" res="1.5775295905768871e-03" rms="1.6955956816673279e-01" purity="7.4529075622558594e-01" nType="0">
            <Node pos="l" depth="3" NCoef="0" IVar="-1" Cut="0.0000000000000000e+00" cType="1" res="-1.5374166890978813e-02" rms="2.0863921940326691e-01" purity="3.1918263435363770e-01" nType="-99"/>
            <Node pos="r" depth="3" NCoef="0" IVar="-1" Cut="0.0000000000000000e+00" cType="1" res="1.7703814432024956e-02" rms="1.5366961061954498e-01" purity="8.9244079589843750e-01" nType="-99"/>
          </Node>
        </Node>
      </Node>
    </BinaryTree>
    <BinaryTree type="DecisionTree" boostWeight="1.0000000000000000e+00" itree="412">
      <Node pos="s" depth="0" NCoef="0" IVar="10" Cut="-1.1987059116363525e+00" cType="1" res="1.4589076163247228e-03" rms="1.8479478359222412e-01" purity="5.0824469327926636e-01" nType="0">
        <Node pos="l" depth="1" NCoef="0" IVar="8" Cut="-6.5620964765548706e-01" cType="1" res="8.0195032060146332e-03" rms="2.0951756834983826e-01" purity="3.9605450630187988e-01" nType="0">
          <Node pos="l" depth="2" NCoef="0" IVar="-1" Cut="0.0000000000000000e+00" cType="1" res="-6.1542904004454613e-03" rms="1.9610701501369476e-01" purity="2.5221973657608032e-01" nType="-99"/>
          <Node pos="r" depth="2" NCoef="0" IVar="0" Cut="2.5116459960937500e+03" cType="1" res="1.3054282404482365e-02" rms="2.1559555828571320e-01" purity="4.6641635894775391e-01" nType="0">
            <Node pos="l" depth="3" NCoef="0" IVar="-1" Cut="0.0000000000000000e+00" cType="1" res="4.4091343879699707e-02" rms="2.3768563568592072e-01" purity="1.6476663947105408e-01" nType="-99"/>
            <Node pos="r" depth="3" NCoef="0" IVar="-1" Cut="0.0000000000000000e+00" cType="1" res="-4.3720817193388939e-03" rms="1.7296379804611206e-01" purity="9.5551162958145142e-01" nType="-99"/>
          </Node>
        </Node>
        <Node pos="r" depth="1" NCoef="0" IVar="1" Cut="2.3555754125118256e-01" cType="1" res="3.4062133636325598e-04" rms="1.8021887540817261e-01" purity="5.2736806869506836e-01" nType="0">
          <Node pos="l" depth="2" NCoef="0" IVar="8" Cut="1.1972085237503052e+00" cType="1" res="1.0098982602357864e-03" rms="1.8243867158889771e-01" purity="5.0742959976196289e-01" nType="0">
            <Node pos="l" depth="3" NCoef="0" IVar="-1" Cut="0.0000000000000000e+00" cType="1" res="1.6597748617641628e-04" rms="1.8129730224609375e-01" purity="5.4302507638931274e-01" nType="-99"/>
            <Node pos="r" depth="3" NCoef="0" IVar="-1" Cut="0.0000000000000000e+00" cType="1" res="2.3763895034790039e-02" rms="1.9116343557834625e-01" purity="2.2230987250804901e-01" nType="-99"/>
          </Node>
          <Node pos="r" depth="2" NCoef="0" IVar="-1" Cut="0.0000000000000000e+00" cType="1" res="-5.1622372120618820e-02" rms="1.3263365626335144e-01" purity="8.9216965436935425e-01" nType="-99"/>
        </Node>
      </Node>
    </BinaryTree>
    <BinaryTree type="DecisionTree" boostWeight="1.0000000000000000e+00" itree="413">
      <Node pos="s" depth="0" NCoef="0" IVar="10" Cut="-1.1993150711059570e+00" cType="1" res="1.6143957327585667e-04" rms="1.8200589716434479e-01" purity="5.0758141279220581e-01" nType="0">
        <Node pos="l" depth="1" NCoef="0" IVar="3" Cut="2.6096408081054688e+02" cType="1" res="-7.7544413506984711e-03" rms="1.9798170030117035e-01" purity="3.6726239323616028e-01" nType="0">
          <Node pos="l" depth="2" NCoef="0" IVar="-1" Cut="0.0000000000000000e+00" cType="1" res="1.6456238925457001e-02" rms="1.5149490535259247e-01" purity="5.3372878581285477e-02" nType="-99"/>
          <Node pos="r" depth="2" NCoef="0" IVar="3" Cut="3.7256069946289062e+02" cType="1" res="-1.3323568738996983e-02" rms="2.1699032187461853e-01" purity="5.2148598432540894e-01" nType="0">
            <Node pos="l" depth="3" NCoef="0" IVar="-1" Cut="0.0000000000000000e+00" cType="1" res="-4.7700412571430206e-02" rms="2.3027096688747406e-01" purity="2.1585270762443542e-01" nType="-99"/>
            <Node pos="r" depth="3" NCoef="0" IVar="-1" Cut="0.0000000000000000e+00" cType="1" res="-8.3601771621033549e-04" rms="2.0398445427417755e-01" purity="7.8452050685882568e-01" nType="-99"/>
          </Node>
        </Node>
        <Node pos="r" depth="1" NCoef="0" IVar="10" Cut="-2.4716758728027344e-01" cType="1" res="1.4724762877449393e-03" rms="1.7918880283832550e-01" purity="5.3082120418548584e-01" nType="0">
          <Node pos="l" depth="2" NCoef="0" IVar="6" Cut="1.0451007843017578e+02" cType="1" res="4.6001984737813473e-03" rms="1.7657150328159332e-01" purity="5.6953948736190796e-01" nType="0">
            <Node pos="l" depth="3" NCoef="0" IVar="-1" Cut="0.0000000000000000e+00" cType="1" res="3.1520120799541473e-02" rms="1.7597553133964539e-01" purity="1.5835373103618622e-01" nType="-99"/>
            <Node pos="r" depth="3" NCoef="0" IVar="-1" Cut="0.0000000000000000e+00" cType="1" res="6.1391005292534828e-03" rms="1.7684680223464966e-01" purity="7.9990947246551514e-01" nType="-99"/>
          </Node>
          <Node pos="r" depth="2" NCoef="0" IVar="9" Cut="1.7320812940597534e+00" cType="1" res="3.3986136259045452e-05" rms="1.8036158382892609e-01" purity="5.1301401853561401e-01" nType="0">
            <Node pos="l" depth="3" NCoef="0" IVar="-1" Cut="0.0000000000000000e+00" cType="1" res="-1.7841411754488945e-03" rms="1.7890654504299164e-01" purity="5.2704805135726929e-01" nType="-99"/>
            <Node pos="r" depth="3" NCoef="0" IVar="-1" Cut="0.0000000000000000e+00" cType="1" res="3.3500712364912033e-02" rms="2.0817902684211731e-01" purity="2.1790288388729095e-01" nType="-99"/>
          </Node>
        </Node>
      </Node>
    </BinaryTree>
    <BinaryTree type="DecisionTree" boostWeight="1.0000000000000000e+00" itree="414">
      <Node pos="s" depth="0" NCoef="0" IVar="4" Cut="2.5700576782226562e+02" cType="1" res="-5.7523878058418632e-04" rms="1.7922087013721466e-01" purity="4.9899530410766602e-01" nType="0">
        <Node pos="l" depth="1" NCoef="0" IVar="0" Cut="1.8087137451171875e+03" cType="1" res="-2.9412859585136175e-03" rms="1.8662704527378082e-01" purity="1.4727373421192169e-01" nType="0">
          <Node pos="l" depth="2" NCoef="0" IVar="9" Cut="-1.7333669662475586e+00" cType="1" res="5.3297565318644047e-04" rms="1.0892276465892792e-01" purity="1.2824539095163345e-02" nType="0">
            <Node pos="l" depth="3" NCoef="0" IVar="-1" Cut="0.0000000000000000e+00" cType="1" res="1.0359088331460953e-01" rms="1.2588249146938324e-01" purity="1.6684299334883690e-02" nType="-99"/>
            <Node pos="r" depth="3" NCoef="0" IVar="-1" Cut="0.0000000000000000e+00" cType="1" res="-2.9032302554696798e-03" rms="1.0680204629898071e-01" purity="1.2388463132083416e-02" nType="-99"/>
          </Node>
          <Node pos="r" depth="2" NCoef="0" IVar="8" Cut="3.9660421013832092e-01" cType="1" res="-1.0115831159055233e-02" rms="2.8666752576828003e-01" purity="4.2491886019706726e-01" nType="0">
            <Node pos="l" depth="3" NCoef="0" IVar="-1" Cut="0.0000000000000000e+00" cType="1" res="-1.9599849358201027e-02" rms="2.8201454877853394e-01" purity="4.2301693558692932e-01" nType="-99"/>
            <Node pos="r" depth="3" NCoef="0" IVar="-1" Cut="0.0000000000000000e+00" cType="1" res="4.8533906228840351e-03" rms="2.9527252912521362e-01" purity="4.2873930931091309e-01" nType="-99"/>
          </Node>
        </Node>
        <Node pos="r" depth="1" NCoef="0" IVar="0" Cut="2.3912839355468750e+03" cType="1" res="2.0751999691128731e-03" rms="1.7050401866436005e-01" purity="8.9299273490905762e-01" nType="0">
          <Node pos="l" depth="2" NCoef="0" IVar="2" Cut="4.6655966186523438e+02" cType="1" res="1.9548209384083748e-02" rms="3.2329002022743225e-01" purity="3.4931367635726929e-01" nType="0">
            <Node pos="l" depth="3" NCoef="0" IVar="-1" Cut="0.0000000000000000e+00" cType="1" res="-2.1165926009416580e-03" rms="3.0210673809051514e-01" purity="2.8690138459205627e-01" nType="-99"/>
            <Node pos="r" depth="3" NCoef="0" IVar="-1" Cut="0.0000000000000000e+00" cType="1" res="3.7875194102525711e-02" rms="3.4527477622032166e-01" purity="4.2436924576759338e-01" nType="-99"/>
          </Node>
          <Node pos="r" depth="2" NCoef="0" IVar="6" Cut="1.2468806457519531e+02" cType="1" res="-4.7511808224953711e-04" rms="1.3419692218303680e-01" purity="9.7234678268432617e-01" nType="0">
            <Node pos="l" depth="3" NCoef="0" IVar="-1" Cut="0.0000000000000000e+00" cType="1" res="-1.7327409237623215e-02" rms="2.3672935366630554e-01" purity="8.9571940898895264e-01" nType="-99"/>
            <Node pos="r" depth="3" NCoef="0" IVar="-1" Cut="0.0000000000000000e+00" cType="1" res="9.8777757957577705e-03" rms="1.0485658794641495e-01" purity="9.8644214868545532e-01" nType="-99"/>
          </Node>
        </Node>
      </Node>
    </BinaryTree>
    <BinaryTree type="DecisionTree" boostWeight="1.0000000000000000e+00" itree="415">
      <Node pos="s" depth="0" NCoef="0" IVar="7" Cut="1.7146608233451843e-01" cType="1" res="-1.3103666715323925e-03" rms="1.7979793250560760e-01" purity="4.9689763784408569e-01" nType="0">
        <Node pos="l" depth="1" NCoef="0" IVar="0" Cut="1.9326032714843750e+03" cType="1" res="-3.1903523486107588e-03" rms="1.8604029715061188e-01" purity="5.2069216966629028e-01" nType="0">
          <Node pos="l" depth="2" NCoef="0" IVar="9" Cut="4.0134295821189880e-01" cType="1" res="1.2925191549584270e-03" rms="1.3812470436096191e-01" purity="2.3339627310633659e-02" nType="0">
            <Node pos="l" depth="3" NCoef="0" IVar="-1" Cut="0.0000000000000000e+00" cType="1" res="2.9600001871585846e-02" rms="1.4711521565914154e-01" purity="2.6933375746011734e-02" nType="-99"/>
            <Node pos="r" depth="3" NCoef="0" IVar="-1" Cut="0.0000000000000000e+00" cType="1" res="-2.9536640271544456e-02" rms="1.2069828063249588e-01" purity="1.7126997932791710e-02" nType="-99"/>
          </Node>
          <Node pos="r" depth="2" NCoef="0" IVar="0" Cut="2.4144575195312500e+03" cType="1" res="-6.1306767165660858e-03" rms="2.1160577237606049e-01" purity="8.4690666198730469e-01" nType="0">
            <Node pos="l" depth="3" NCoef="0" IVar="-1" Cut="0.0000000000000000e+00" cType="1" res="-1.7118375748395920e-02" rms="3.5834029316902161e-01" purity="3.8635987043380737e-01" nType="-99"/>
            <Node pos="r" depth="3" NCoef="0" IVar="-1" Cut="0.0000000000000000e+00" cType="1" res="-9.9566709250211716e-03" rms="1.5877421200275421e-01" purity="9.5425945520401001e-01" nType="-99"/>
          </Node>
        </Node>
        <Node pos="r" depth="1" NCoef="0" IVar="7" Cut="9.2178863286972046e-01" cType="1" res="1.2879740679636598e-03" rms="1.7076109349727631e-01" purity="4.6401104331016541e-01" nType="0">
          <Node pos="l" depth="2" NCoef="0" IVar="1" Cut="1.0864911973476410e-01" cType="1" res="3.9405631832778454e-03" rms="1.7503170669078827e-01" purity="5.9233194589614868e-01" nType="0">
            <Node pos="l" depth="3" NCoef="0" IVar="-1" Cut="0.0000000000000000e+00" cType="1" res="1.9774273037910461e-02" rms="1.8994294106960297e-01" purity="4.5886129140853882e-01" nType="-99"/>
            <Node pos="r" depth="3" NCoef="0" IVar="-1" Cut="0.0000000000000000e+00" cType="1" res="-7.6294890604913235e-03" rms="1.4659683406352997e-01" purity="8.1532579660415649e-01" nType="-99"/>
          </Node>
          <Node pos="r" depth="2" NCoef="0" IVar="3" Cut="3.3328619384765625e+02" cType="1" res="-4.0850141085684299e-03" rms="1.6163226962089539e-01" purity="2.0408882200717926e-01" nType="0">
            <Node pos="l" depth="3" NCoef="0" IVar="-1" Cut="0.0000000000000000e+00" cType="1" res="8.9558819308876991e-03" rms="1.3863508403301239e-01" purity="5.2344940602779388e-02" nType="-99"/>
            <Node pos="r" depth="3" NCoef="0" IVar="-1" Cut="0.0000000000000000e+00" cType="1" res="-3.3058814704418182e-02" rms="1.9724911451339722e-01" purity="4.8906308412551880e-01" nType="-99"/>
          </Node>
        </Node>
      </Node>
    </BinaryTree>
    <BinaryTree type="DecisionTree" boostWeight="1.0000000000000000e+00" itree="416">
      <Node pos="s" depth="0" NCoef="0" IVar="11" Cut="1.4667820930480957e+00" cType="1" res="2.4256228061858565e-04" rms="1.7993162572383881e-01" purity="5.0661343336105347e-01" nType="0">
        <Node pos="l" depth="1" NCoef="0" IVar="11" Cut="4.5127743482589722e-01" cType="1" res="-1.1207968927919865e-03" rms="1.7722411453723907e-01" purity="5.2136844396591187e-01" nType="0">
          <Node pos="l" depth="2" NCoef="0" IVar="11" Cut="-3.2244008779525757e-01" cType="1" res="8.3807384362444282e-04" rms="1.7696572840213776e-01" purity="5.1635837554931641e-01" nType="0">
            <Node pos="l" depth="3" NCoef="0" IVar="-1" Cut="0.0000000000000000e+00" cType="1" res="-3.6516389809548855e-03" rms="1.7961642146110535e-01" purity="4.9511498212814331e-01" nType="-99"/>
            <Node pos="r" depth="3" NCoef="0" IVar="-1" Cut="0.0000000000000000e+00" cType="1" res="1.4214718714356422e-02" rms="1.7226704955101013e-01" purity="5.5280709266662598e-01" nType="-99"/>
          </Node>
          <Node pos="r" depth="2" NCoef="0" IVar="1" Cut="1.5944913029670715e-01" cType="1" res="-6.2131686136126518e-03" rms="1.7779311537742615e-01" purity="5.3439289331436157e-01" nType="0">
            <Node pos="l" depth="3" NCoef="0" IVar="-1" Cut="0.0000000000000000e+00" cType="1" res="-2.3143703117966652e-02" rms="1.8496933579444885e-01" purity="4.5745193958282471e-01" nType="-99"/>
            <Node pos="r" depth="3" NCoef="0" IVar="-1" Cut="0.0000000000000000e+00" cType="1" res="2.4806637316942215e-02" rms="1.3762614130973816e-01" purity="9.0442651510238647e-01" nType="-99"/>
          </Node>
        </Node>
        <Node pos="r" depth="1" NCoef="0" IVar="7" Cut="7.5537341833114624e-01" cType="1" res="1.0437947697937489e-02" rms="1.9871826469898224e-01" purity="3.9627328515052795e-01" nType="0">
          <Node pos="l" depth="2" NCoef="0" IVar="0" Cut="1.8415836181640625e+03" cType="1" res="1.7093455418944359e-02" rms="2.0661304891109467e-01" purity="4.6993967890739441e-01" nType="0">
            <Node pos="l" depth="3" NCoef="0" IVar="-1" Cut="0.0000000000000000e+00" cType="1" res="3.4995209425687790e-02" rms="1.4178617298603058e-01" purity="2.2755239158868790e-02" nType="-99"/>
            <Node pos="r" depth="3" NCoef="0" IVar="-1" Cut="0.0000000000000000e+00" cType="1" res="4.1724450886249542e-02" rms="2.4491599202156067e-01" purity="8.1608498096466064e-01" nType="-99"/>
          </Node>
          <Node pos="r" depth="2" NCoef="0" IVar="-1" Cut="0.0000000000000000e+00" cType="1" res="-3.2455388456583023e-02" rms="1.6966319084167480e-01" purity="1.6329845786094666e-01" nType="-99"/>
        </Node>
      </Node>
    </BinaryTree>
    <BinaryTree type="DecisionTree" boostWeight="1.0000000000000000e+00" itree="417">
      <Node pos="s" depth="0" NCoef="0" IVar="7" Cut="1.2212014198303223e+00" cType="1" res="-1.0624111164361238e-03" rms="1.7610926926136017e-01" purity="4.9597102403640747e-01" nType="0">
        <Node pos="l" depth="1" NCoef="0" IVar="11" Cut="1.2002167701721191e+00" cType="1" res="-2.0329938270151615e-03" rms="1.8021208047866821e-01" purity="5.3088420629501343e-01" nType="0">
          <Node pos="l" depth="2" NCoef="0" IVar="11" Cut="-2.0366492271423340e+00" cType="1" res="-4.4983642874285579e-04" rms="1.7715597152709961e-01" purity="5.4767799377441406e-01" nType="0">
            <Node pos="l" depth="3" NCoef="0" IVar="-1" Cut="0.0000000000000000e+00" cType="1" res="-3.4323330968618393e-02" rms="1.9565661251544952e-01" purity="2.7198576927185059e-01" nType="-99"/>
            <Node pos="r" depth="3" NCoef="0" IVar="-1" Cut="0.0000000000000000e+00" cType="1" res="7.4643106199800968e-04" rms="1.7613509297370911e-01" purity="5.6169831752777100e-01" nType="-99"/>
          </Node>
          <Node pos="r" depth="2" NCoef="0" IVar="10" Cut="-3.9599373936653137e-01" cType="1" res="-9.7781922668218613e-03" rms="1.9428648054599762e-01" purity="4.4872468709945679e-01" nType="0">
            <Node pos="l" depth="3" NCoef="0" IVar="-1" Cut="0.0000000000000000e+00" cType="1" res="-5.8934010565280914e-02" rms="1.9415616989135742e-01" purity="4.2605370283126831e-01" nType="-99"/>
            <Node pos="r" depth="3" NCoef="0" IVar="-1" Cut="0.0000000000000000e+00" cType="1" res="-4.8988447524607182e-03" rms="1.9385163486003876e-01" purity="4.5937055349349976e-01" nType="-99"/>
          </Node>
        </Node>
        <Node pos="r" depth="1" NCoef="0" IVar="3" Cut="2.9458428955078125e+02" cType="1" res="9.6353385597467422e-03" rms="1.2155821919441223e-01" purity="1.1115849763154984e-01" nType="0">
          <Node pos="l" depth="2" NCoef="0" IVar="8" Cut="1.3190507888793945e-01" cType="1" res="-1.4165907632559538e-03" rms="9.1702558100223541e-02" purity="1.6791012138128281e-02" nType="0">
            <Node pos="l" depth="3" NCoef="0" IVar="-1" Cut="0.0000000000000000e+00" cType="1" res="3.3146463334560394e-02" rms="9.3821272253990173e-02" purity="2.1087447181344032e-02" nType="-99"/>
            <Node pos="r" depth="3" NCoef="0" IVar="-1" Cut="0.0000000000000000e+00" cType="1" res="-4.3783254921436310e-02" rms="8.9545570313930511e-02" purity="1.2900249101221561e-02" nType="-99"/>
          </Node>
          <Node pos="r" depth="2" NCoef="0" IVar="-1" Cut="0.0000000000000000e+00" cType="1" res="6.7362204194068909e-02" rms="1.6001699864864349e-01" purity="2.8075945377349854e-01" nType="-99"/>
        </Node>
      </Node>
    </BinaryTree>
    <BinaryTree type="DecisionTree" boostWeight="1.0000000000000000e+00" itree="418">
      <Node pos="s" depth="0" NCoef="0" IVar="7" Cut="1.7146608233451843e-01" cType="1" res="5.5640982463955879e-04" rms="1.8338179588317871e-01" purity="5.0361299514770508e-01" nType="0">
        <Node pos="l" depth="1" NCoef="0" IVar="4" Cut="3.1159240722656250e+02" cType="1" res="3.1088851392269135e-03" rms="1.8650832772254944e-01" purity="5.3355377912521362e-01" nType="0">
          <Node pos="l" depth="2" NCoef="0" IVar="9" Cut="-1.3299225270748138e-01" cType="1" res="6.7329281009733677e-03" rms="2.0869807898998260e-01" purity="2.8166121244430542e-01" nType="0">
            <Node pos="l" depth="3" NCoef="0" IVar="-1" Cut="0.0000000000000000e+00" cType="1" res="-5.4364511743187904e-04" rms="2.0316858589649200e-01" purity="2.7147269248962402e-01" nType="-99"/>
            <Node pos="r" depth="3" NCoef="0" IVar="-1" Cut="0.0000000000000000e+00" cType="1" res="3.0166724696755409e-02" rms="2.1340955793857574e-01" purity="2.9093614220619202e-01" nType="-99"/>
          </Node>
          <Node pos="r" depth="2" NCoef="0" IVar="0" Cut="2.8449472656250000e+03" cType="1" res="-2.9074321500957012e-03" rms="1.4201742410659790e-01" purity="9.5172363519668579e-01" nType="0">
            <Node pos="l" depth="3" NCoef="0" IVar="-1" Cut="0.0000000000000000e+00" cType="1" res="-3.3290166407823563e-02" rms="2.8146240115165710e-01" purity="7.7819991111755371e-01" nType="-99"/>
            <Node pos="r" depth="3" NCoef="0" IVar="-1" Cut="0.0000000000000000e+00" cType="1" res="2.2772196680307388e-02" rms="7.9334214329719543e-02" purity="9.9213516712188721e-01" nType="-99"/>
          </Node>
        </Node>
        <Node pos="r" depth="1" NCoef="0" IVar="8" Cut="9.3334144353866577e-01" cType="1" res="-2.9953699558973312e-03" rms="1.7887976765632629e-01" purity="4.6195024251937866e-01" nType="0">
          <Node pos="l" depth="2" NCoef="0" IVar="9" Cut="6.6589754819869995e-01" cType="1" res="-4.4948440045118332e-03" rms="1.7562887072563171e-01" purity="4.9056544899940491e-01" nType="0">
            <Node pos="l" depth="3" NCoef="0" IVar="-1" Cut="0.0000000000000000e+00" cType="1" res="-2.0297121256589890e-02" rms="1.7046803236007690e-01" purity="5.0402581691741943e-01" nType="-99"/>
            <Node pos="r" depth="3" NCoef="0" IVar="-1" Cut="0.0000000000000000e+00" cType="1" res="1.1507330927997828e-03" rms="1.8939504027366638e-01" purity="4.5245161652565002e-01" nType="-99"/>
          </Node>
          <Node pos="r" depth="2" NCoef="0" IVar="4" Cut="2.2282788085937500e+02" cType="1" res="4.6042795293033123e-03" rms="1.9434446096420288e-01" purity="3.1692236661911011e-01" nType="0">
            <Node pos="l" depth="3" NCoef="0" IVar="-1" Cut="0.0000000000000000e+00" cType="1" res="-8.3942459896206856e-03" rms="1.7165359854698181e-01" purity="6.1855744570493698e-02" nType="-99"/>
            <Node pos="r" depth="3" NCoef="0" IVar="-1" Cut="0.0000000000000000e+00" cType="1" res="2.9383940622210503e-02" rms="2.2605766355991364e-01" purity="7.3252409696578979e-01" nType="-99"/>
          </Node>
        </Node>
      </Node>
    </BinaryTree>
    <BinaryTree type="DecisionTree" boostWeight="1.0000000000000000e+00" itree="419">
      <Node pos="s" depth="0" NCoef="0" IVar="4" Cut="4.3693701171875000e+02" cType="1" res="5.1783130038529634e-04" rms="1.8229974806308746e-01" purity="5.0484597682952881e-01" nType="0">
        <Node pos="l" depth="1" NCoef="0" IVar="9" Cut="6.6609984636306763e-01" cType="1" res="1.7804644303396344e-03" rms="1.9025294482707977e-01" purity="4.2964622378349304e-01" nType="0">
          <Node pos="l" depth="2" NCoef="0" IVar="9" Cut="-1.5882393717765808e-01" cType="1" res="3.6734691821038723e-03" rms="1.8890802562236786e-01" purity="4.5681858062744141e-01" nType="0">
            <Node pos="l" depth="3" NCoef="0" IVar="-1" Cut="0.0000000000000000e+00" cType="1" res="3.1082034111022949e-03" rms="1.9040733575820923e-01" purity="4.2278745770454407e-01" nType="-99"/>
            <Node pos="r" depth="3" NCoef="0" IVar="-1" Cut="0.0000000000000000e+00" cType="1" res="2.0990828052163124e-02" rms="1.8636195361614227e-01" purity="5.1233977079391479e-01" nType="-99"/>
          </Node>
          <Node pos="r" depth="2" NCoef="0" IVar="11" Cut="9.2910724878311157e-01" cType="1" res="-3.1898973975330591e-03" rms="1.9365173578262329e-01" purity="3.5830119252204895e-01" nType="0">
            <Node pos="l" depth="3" NCoef="0" IVar="-1" Cut="0.0000000000000000e+00" cType="1" res="-1.6986562404781580e-03" rms="1.9233569502830505e-01" purity="3.7565571069717407e-01" nType="-99"/>
            <Node pos="r" depth="3" NCoef="0" IVar="-1" Cut="0.0000000000000000e+00" cType="1" res="-2.5504434481263161e-02" rms="1.9708654284477234e-01" purity="3.1010091304779053e-01" nType="-99"/>
          </Node>
        </Node>
        <Node pos="r" depth="1" NCoef="0" IVar="0" Cut="3.4338271484375000e+03" cType="1" res="-7.3714023455977440e-03" rms="1.2102711945772171e-01" purity="9.7471201419830322e-01" nType="0">
          <Node pos="l" depth="2" NCoef="0" IVar="-1" Cut="0.0000000000000000e+00" cType="1" res="-9.7566746175289154e-02" rms="1.8657504022121429e-01" purity="9.3771433830261230e-01" nType="-99"/>
          <Node pos="r" depth="2" NCoef="0" IVar="-1" Cut="0.0000000000000000e+00" cType="1" res="5.0001950003206730e-03" rms="6.3780486583709717e-02" purity="9.9381101131439209e-01" nType="-99"/>
        </Node>
      </Node>
    </BinaryTree>
    <BinaryTree type="DecisionTree" boostWeight="1.0000000000000000e+00" itree="420">
      <Node pos="s" depth="0" NCoef="0" IVar="10" Cut="1.9996944665908813e+00" cType="1" res="-2.4595861759735271e-05" rms="1.8088848888874054e-01" purity="4.9982473254203796e-01" nType="0">
        <Node pos="l" depth="1" NCoef="0" IVar="11" Cut="-2.2652621269226074e+00" cType="1" res="-4.1123069240711629e-04" rms="1.7937597632408142e-01" purity="5.0955659151077271e-01" nType="0">
          <Node pos="l" depth="2" NCoef="0" IVar="-1" Cut="0.0000000000000000e+00" cType="1" res="-4.0661107748746872e-02" rms="1.6627691686153412e-01" purity="2.0646269619464874e-01" nType="-99"/>
          <Node pos="r" depth="2" NCoef="0" IVar="8" Cut="1.4660719633102417e+00" cType="1" res="-7.8291472163982689e-05" rms="1.7971451580524445e-01" purity="5.1796913146972656e-01" nType="0">
            <Node pos="l" depth="3" NCoef="0" IVar="-1" Cut="0.0000000000000000e+00" cType="1" res="1.4760490739718080e-03" rms="1.8095339834690094e-01" purity="5.4637825489044189e-01" nType="-99"/>
            <Node pos="r" depth="3" NCoef="0" IVar="-1" Cut="0.0000000000000000e+00" cType="1" res="-2.7953185141086578e-02" rms="1.6125689446926117e-01" purity="1.2221013009548187e-01" nType="-99"/>
          </Node>
        </Node>
        <Node pos="r" depth="1" NCoef="0" IVar="-1" Cut="0.0000000000000000e+00" cType="1" res="2.7648240327835083e-02" rms="2.2170662879943848e-01" purity="2.0377941429615021e-01" nType="-99"/>
      </Node>
    </BinaryTree>
    <BinaryTree type="DecisionTree" boostWeight="1.0000000000000000e+00" itree="421">
      <Node pos="s" depth="0" NCoef="0" IVar="7" Cut="-1.1417706012725830e+00" cType="1" res="-1.6787176718935370e-03" rms="1.8242704868316650e-01" purity="4.9466052651405334e-01" nType="0">
        <Node pos="l" depth="1" NCoef="0" IVar="0" Cut="1.8865252685546875e+03" cType="1" res="-8.4496289491653442e-03" rms="1.5526618063449860e-01" purity="1.3720647990703583e-01" nType="0">
          <Node pos="l" depth="2" NCoef="0" IVar="7" Cut="-1.5170884132385254e+00" cType="1" res="-1.7408183775842190e-03" rms="8.5749082267284393e-02" purity="8.5248360410332680e-03" nType="0">
            <Node pos="l" depth="3" NCoef="0" IVar="-1" Cut="0.0000000000000000e+00" cType="1" res="-8.9222624897956848e-02" rms="3.5036347806453705e-02" purity="1.1966909514740109e-03" nType="-99"/>
            <Node pos="r" depth="3" NCoef="0" IVar="-1" Cut="0.0000000000000000e+00" cType="1" res="3.2467022538185120e-02" rms="1.2071534991264343e-01" purity="1.7233809456229210e-02" nType="-99"/>
          </Node>
          <Node pos="r" depth="2" NCoef="0" IVar="-1" Cut="0.0000000000000000e+00" cType="1" res="-3.2684098929166794e-02" rms="2.5371342897415161e-01" purity="4.4931131601333618e-01" nType="-99"/>
        </Node>
        <Node pos="r" depth="1" NCoef="0" IVar="1" Cut="8.6817502975463867e-02" cType="1" res="-9.9966512061655521e-04" rms="1.8491736054420471e-01" purity="5.3050947189331055e-01" nType="0">
          <Node pos="l" depth="2" NCoef="0" IVar="7" Cut="-2.0393459498882294e-01" cType="1" res="9.1830862220376730e-04" rms="1.9780255854129791e-01" purity="3.4789666533470154e-01" nType="0">
            <Node pos="l" depth="3" NCoef="0" IVar="-1" Cut="0.0000000000000000e+00" cType="1" res="1.4540750533342361e-02" rms="2.0914995670318604e-01" purity="3.9527061581611633e-01" nType="-99"/>
            <Node pos="r" depth="3" NCoef="0" IVar="-1" Cut="0.0000000000000000e+00" cType="1" res="-4.5210537500679493e-03" rms="1.9214604794979095e-01" purity="3.2548099756240845e-01" nType="-99"/>
          </Node>
          <Node pos="r" depth="2" NCoef="0" IVar="4" Cut="2.8510943603515625e+02" cType="1" res="-3.5174947697669268e-03" rms="1.6646173596382141e-01" purity="7.7023535966873169e-01" nType="0">
            <Node pos="l" depth="3" NCoef="0" IVar="-1" Cut="0.0000000000000000e+00" cType="1" res="-1.8258465453982353e-02" rms="2.2894960641860962e-01" purity="4.1196882724761963e-01" nType="-99"/>
            <Node pos="r" depth="3" NCoef="0" IVar="-1" Cut="0.0000000000000000e+00" cType="1" res="1.0651961201801896e-03" rms="1.1740184575319290e-01" purity="9.7162121534347534e-01" nType="-99"/>
          </Node>
        </Node>
      </Node>
    </BinaryTree>
    <BinaryTree type="DecisionTree" boostWeight="1.0000000000000000e+00" itree="422">
      <Node pos="s" depth="0" NCoef="0" IVar="11" Cut="-4.0013390779495239e-01" cType="1" res="2.5488593382760882e-04" rms="1.8139070272445679e-01" purity="4.9929487705230713e-01" nType="0">
        <Node pos="l" depth="1" NCoef="0" IVar="8" Cut="3.9987525343894958e-01" cType="1" res="4.4434284791350365e-03" rms="1.8555192649364471e-01" purity="4.9280986189842224e-01" nType="0">
          <Node pos="l" depth="2" NCoef="0" IVar="8" Cut="-1.2755049467086792e+00" cType="1" res="9.9744787439703941e-04" rms="1.7920067906379700e-01" purity="4.9624690413475037e-01" nType="0">
            <Node pos="l" depth="3" NCoef="0" IVar="-1" Cut="0.0000000000000000e+00" cType="1" res="-2.6154343038797379e-02" rms="1.6020435094833374e-01" purity="1.3899822533130646e-01" nType="-99"/>
            <Node pos="r" depth="3" NCoef="0" IVar="-1" Cut="0.0000000000000000e+00" cType="1" res="8.7192747741937637e-03" rms="1.8273045122623444e-01" purity="5.6818336248397827e-01" nType="-99"/>
          </Node>
          <Node pos="r" depth="2" NCoef="0" IVar="6" Cut="1.3788591003417969e+02" cType="1" res="1.2640589848160744e-02" rms="1.9961161911487579e-01" purity="4.8463410139083862e-01" nType="0">
            <Node pos="l" depth="3" NCoef="0" IVar="-1" Cut="0.0000000000000000e+00" cType="1" res="4.6632274985313416e-02" rms="2.1560478210449219e-01" purity="2.5063991546630859e-01" nType="-99"/>
            <Node pos="r" depth="3" NCoef="0" IVar="-1" Cut="0.0000000000000000e+00" cType="1" res="6.5755378454923630e-03" rms="1.6962623596191406e-01" purity="8.6840993165969849e-01" nType="-99"/>
          </Node>
        </Node>
        <Node pos="r" depth="1" NCoef="0" IVar="10" Cut="-1.1993613243103027e+00" cType="1" res="-2.2697208914905787e-03" rms="1.7878839373588562e-01" purity="5.0320363044738770e-01" nType="0">
          <Node pos="l" depth="2" NCoef="0" IVar="11" Cut="5.1387673616409302e-01" cType="1" res="-1.2801020406186581e-02" rms="1.8080884218215942e-01" purity="3.6643478274345398e-01" nType="0">
            <Node pos="l" depth="3" NCoef="0" IVar="-1" Cut="0.0000000000000000e+00" cType="1" res="-5.2597681060433388e-03" rms="1.6656337678432465e-01" purity="4.1329964995384216e-01" nType="-99"/>
            <Node pos="r" depth="3" NCoef="0" IVar="-1" Cut="0.0000000000000000e+00" cType="1" res="-4.2870789766311646e-02" rms="1.9079819321632385e-01" purity="3.2971626520156860e-01" nType="-99"/>
          </Node>
          <Node pos="r" depth="2" NCoef="0" IVar="9" Cut="1.3613669574260712e-01" cType="1" res="-6.2078365590423346e-04" rms="1.7841370403766632e-01" purity="5.2461820840835571e-01" nType="0">
            <Node pos="l" depth="3" NCoef="0" IVar="-1" Cut="0.0000000000000000e+00" cType="1" res="1.0459250770509243e-02" rms="1.7725780606269836e-01" purity="5.5776697397232056e-01" nType="-99"/>
            <Node pos="r" depth="3" NCoef="0" IVar="-1" Cut="0.0000000000000000e+00" cType="1" res="-1.4964017085731030e-02" rms="1.7958156764507294e-01" purity="4.8805147409439087e-01" nType="-99"/>
          </Node>
        </Node>
      </Node>
    </BinaryTree>
    <BinaryTree type="DecisionTree" boostWeight="1.0000000000000000e+00" itree="423">
      <Node pos="s" depth="0" NCoef="0" IVar="10" Cut="1.9996509552001953e+00" cType="1" res="-2.3776119633112103e-04" rms="1.8147434294223785e-01" purity="5.1094377040863037e-01" nType="0">
        <Node pos="l" depth="1" NCoef="0" IVar="9" Cut="1.7324873208999634e+00" cType="1" res="3.3415542566217482e-04" rms="1.8058152496814728e-01" purity="5.2444225549697876e-01" nType="0">
          <Node pos="l" depth="2" NCoef="0" IVar="8" Cut="-6.6703867912292480e-01" cType="1" res="9.4260211335495114e-04" rms="1.7957355082035065e-01" purity="5.4151201248168945e-01" nType="0">
            <Node pos="l" depth="3" NCoef="0" IVar="-1" Cut="0.0000000000000000e+00" cType="1" res="1.4989519491791725e-02" rms="1.8483923375606537e-01" purity="3.9321681857109070e-01" nType="-99"/>
            <Node pos="r" depth="3" NCoef="0" IVar="-1" Cut="0.0000000000000000e+00" cType="1" res="-1.6088789561763406e-03" rms="1.7784987390041351e-01" purity="5.8844059705734253e-01" nType="-99"/>
          </Node>
          <Node pos="r" depth="2" NCoef="0" IVar="-1" Cut="0.0000000000000000e+00" cType="1" res="-3.7032522261142731e-02" rms="2.0103427767753601e-01" purity="1.4862167835235596e-01" nType="-99"/>
        </Node>
        <Node pos="r" depth="1" NCoef="0" IVar="-1" Cut="0.0000000000000000e+00" cType="1" res="-3.5908281803131104e-02" rms="2.0268027484416962e-01" purity="1.6123540699481964e-01" nType="-99"/>
      </Node>
    </BinaryTree>
    <BinaryTree type="DecisionTree" boostWeight="1.0000000000000000e+00" itree="424">
      <Node pos="s" depth="0" NCoef="0" IVar="5" Cut="1.8005667114257812e+02" cType="1" res="3.2211738289333880e-04" rms="1.7862685024738312e-01" purity="5.0571382045745850e-01" nType="0">
        <Node pos="l" depth="1" NCoef="0" IVar="10" Cut="1.9995261430740356e+00" cType="1" res="-2.6210013311356306e-03" rms="1.8978033959865570e-01" purity="1.5530669689178467e-01" nType="0">
          <Node pos="l" depth="2" NCoef="0" IVar="0" Cut="2.2912102050781250e+03" cType="1" res="-3.7703292910009623e-03" rms="1.8840104341506958e-01" purity="1.5677444636821747e-01" nType="0">
            <Node pos="l" depth="3" NCoef="0" IVar="-1" Cut="0.0000000000000000e+00" cType="1" res="-8.0747669562697411e-03" rms="1.6008904576301575e-01" purity="4.2420703917741776e-02" nType="-99"/>
            <Node pos="r" depth="3" NCoef="0" IVar="-1" Cut="0.0000000000000000e+00" cType="1" res="-1.3878647238016129e-02" rms="2.9472443461418152e-01" purity="7.5302410125732422e-01" nType="-99"/>
          </Node>
          <Node pos="r" depth="2" NCoef="0" IVar="-1" Cut="0.0000000000000000e+00" cType="1" res="5.0922915339469910e-02" rms="2.1064960956573486e-01" purity="1.3068425655364990e-01" nType="-99"/>
        </Node>
        <Node pos="r" depth="1" NCoef="0" IVar="0" Cut="2.4658366699218750e+03" cType="1" res="3.5539325326681137e-03" rms="1.6545546054840088e-01" purity="8.9049315452575684e-01" nType="0">
          <Node pos="l" depth="2" NCoef="0" IVar="7" Cut="3.6989312618970871e-02" cType="1" res="1.5327909961342812e-02" rms="3.1228888034820557e-01" purity="4.2447516322135925e-01" nType="0">
            <Node pos="l" depth="3" NCoef="0" IVar="-1" Cut="0.0000000000000000e+00" cType="1" res="2.9245775192975998e-02" rms="3.1324067711830139e-01" purity="4.5286262035369873e-01" nType="-99"/>
            <Node pos="r" depth="3" NCoef="0" IVar="-1" Cut="0.0000000000000000e+00" cType="1" res="-2.5971147697418928e-03" rms="3.1025925278663635e-01" purity="3.9505603909492493e-01" nType="-99"/>
          </Node>
          <Node pos="r" depth="2" NCoef="0" IVar="1" Cut="4.3328568339347839e-02" cType="1" res="1.2128428788855672e-03" rms="1.1573400348424911e-01" purity="9.8315429687500000e-01" nType="0">
            <Node pos="l" depth="3" NCoef="0" IVar="-1" Cut="0.0000000000000000e+00" cType="1" res="2.6944087818264961e-02" rms="1.9253599643707275e-01" purity="9.4386029243469238e-01" nType="-99"/>
            <Node pos="r" depth="3" NCoef="0" IVar="-1" Cut="0.0000000000000000e+00" cType="1" res="-2.3176730610430241e-03" rms="1.0195016860961914e-01" purity="9.8810261487960815e-01" nType="-99"/>
          </Node>
        </Node>
      </Node>
    </BinaryTree>
    <BinaryTree type="DecisionTree" boostWeight="1.0000000000000000e+00" itree="425">
      <Node pos="s" depth="0" NCoef="0" IVar="1" Cut="1.0838916152715683e-01" cType="1" res="-9.3133095651865005e-04" rms="1.7943355441093445e-01" purity="4.9805241823196411e-01" nType="0">
        <Node pos="l" depth="1" NCoef="0" IVar="8" Cut="4.0048387646675110e-01" cType="1" res="-2.4957163259387016e-03" rms="1.8751382827758789e-01" purity="3.5721984505653381e-01" nType="0">
          <Node pos="l" depth="2" NCoef="0" IVar="9" Cut="-1.4667590856552124e+00" cType="1" res="-6.1336945509538054e-04" rms="1.8455542623996735e-01" purity="3.8454160094261169e-01" nType="0">
            <Node pos="l" depth="3" NCoef="0" IVar="-1" Cut="0.0000000000000000e+00" cType="1" res="2.5548039004206657e-02" rms="1.8480744957923889e-01" purity="1.6438253223896027e-01" nType="-99"/>
            <Node pos="r" depth="3" NCoef="0" IVar="-1" Cut="0.0000000000000000e+00" cType="1" res="-4.5575536787509918e-03" rms="1.8449708819389343e-01" purity="4.0989699959754944e-01" nType="-99"/>
          </Node>
          <Node pos="r" depth="2" NCoef="0" IVar="5" Cut="2.2186717224121094e+02" cType="1" res="-5.8485777117311954e-03" rms="1.9262532889842987e-01" purity="3.0855396389961243e-01" nType="0">
            <Node pos="l" depth="3" NCoef="0" IVar="-1" Cut="0.0000000000000000e+00" cType="1" res="-7.4278833344578743e-03" rms="1.8723134696483612e-01" purity="1.6308008134365082e-01" nType="-99"/>
            <Node pos="r" depth="3" NCoef="0" IVar="-1" Cut="0.0000000000000000e+00" cType="1" res="-4.5319806784391403e-02" rms="2.1182824671268463e-01" purity="8.7357223033905029e-01" nType="-99"/>
          </Node>
        </Node>
        <Node pos="r" depth="1" NCoef="0" IVar="11" Cut="9.3432122468948364e-01" cType="1" res="2.5863251648843288e-03" rms="1.5972283482551575e-01" purity="8.1472671031951904e-01" nType="0">
          <Node pos="l" depth="2" NCoef="0" IVar="0" Cut="2.3654443359375000e+03" cType="1" res="4.6307328157126904e-03" rms="1.5405732393264771e-01" purity="8.3951431512832642e-01" nType="0">
            <Node pos="l" depth="3" NCoef="0" IVar="-1" Cut="0.0000000000000000e+00" cType="1" res="1.9811823964118958e-02" rms="2.8274112939834595e-01" purity="2.8260284662246704e-01" nType="-99"/>
            <Node pos="r" depth="3" NCoef="0" IVar="-1" Cut="0.0000000000000000e+00" cType="1" res="1.6675727441906929e-02" rms="9.1665849089622498e-02" purity="9.9097186326980591e-01" nType="-99"/>
          </Node>
          <Node pos="r" depth="2" NCoef="0" IVar="-1" Cut="0.0000000000000000e+00" cType="1" res="-1.2769894674420357e-02" rms="1.7694497108459473e-01" purity="7.3305612802505493e-01" nType="-99"/>
        </Node>
      </Node>
    </BinaryTree>
    <BinaryTree type="DecisionTree" boostWeight="1.0000000000000000e+00" itree="426">
      <Node pos="s" depth="0" NCoef="0" IVar="9" Cut="9.3293291330337524e-01" cType="1" res="-1.6181021928787231e-03" rms="1.8140722811222076e-01" purity="4.9479800462722778e-01" nType="0">
        <Node pos="l" depth="1" NCoef="0" IVar="9" Cut="7.5516736507415771e-01" cType="1" res="-3.1234524212777615e-03" rms="1.7822851240634918e-01" purity="5.2298855781555176e-01" nType="0">
          <Node pos="l" depth="2" NCoef="0" IVar="2" Cut="4.2435952758789062e+02" cType="1" res="-2.5208806619048119e-03" rms="1.7885228991508484e-01" purity="5.2463382482528687e-01" nType="0">
            <Node pos="l" depth="3" NCoef="0" IVar="-1" Cut="0.0000000000000000e+00" cType="1" res="-2.1982545033097267e-02" rms="1.7070746421813965e-01" purity="1.1329969763755798e-01" nType="-99"/>
            <Node pos="r" depth="3" NCoef="0" IVar="-1" Cut="0.0000000000000000e+00" cType="1" res="-2.9658547136932611e-03" rms="1.8124507367610931e-01" purity="6.5055793523788452e-01" nType="-99"/>
          </Node>
          <Node pos="r" depth="2" NCoef="0" IVar="-1" Cut="0.0000000000000000e+00" cType="1" res="-3.7381350994110107e-02" rms="1.6807506978511810e-01" purity="4.9769121408462524e-01" nType="-99"/>
        </Node>
        <Node pos="r" depth="1" NCoef="0" IVar="9" Cut="1.1107026338577271e+00" cType="1" res="5.0418023020029068e-03" rms="1.9470950961112976e-01" purity="3.7007871270179749e-01" nType="0">
          <Node pos="l" depth="2" NCoef="0" IVar="-1" Cut="0.0000000000000000e+00" cType="1" res="-1.4296748675405979e-02" rms="1.7645344138145447e-01" purity="4.9298352003097534e-01" nType="-99"/>
          <Node pos="r" depth="2" NCoef="0" IVar="0" Cut="1.6220092773437500e+03" cType="1" res="7.9013956710696220e-03" rms="1.9937865436077118e-01" purity="3.3601963520050049e-01" nType="0">
            <Node pos="l" depth="3" NCoef="0" IVar="-1" Cut="0.0000000000000000e+00" cType="1" res="-3.4868534654378891e-02" rms="5.8322984725236893e-02" purity="3.4540330525487661e-03" nType="-99"/>
            <Node pos="r" depth="3" NCoef="0" IVar="-1" Cut="0.0000000000000000e+00" cType="1" res="2.3012340068817139e-02" rms="2.4628160893917084e-01" purity="5.2804094552993774e-01" nType="-99"/>
          </Node>
        </Node>
      </Node>
    </BinaryTree>
    <BinaryTree type="DecisionTree" boostWeight="1.0000000000000000e+00" itree="427">
      <Node pos="s" depth="0" NCoef="0" IVar="10" Cut="-1.9988887310028076e+00" cType="1" res="-3.7088667158968747e-04" rms="1.7741546034812927e-01" purity="4.9813085794448853e-01" nType="0">
        <Node pos="l" depth="1" NCoef="0" IVar="-1" Cut="0.0000000000000000e+00" cType="1" res="-3.2074049115180969e-02" rms="1.9735865294933319e-01" purity="1.8804579973220825e-01" nType="-99"/>
        <Node pos="r" depth="1" NCoef="0" IVar="7" Cut="1.5164941549301147e+00" cType="1" res="1.0288955672876909e-04" rms="1.7664496600627899e-01" purity="5.0917798280715942e-01" nType="0">
          <Node pos="l" depth="2" NCoef="0" IVar="10" Cut="1.6569792032241821e+00" cType="1" res="5.2279612282291055e-04" rms="1.7893630266189575e-01" purity="5.3032171726226807e-01" nType="0">
            <Node pos="l" depth="3" NCoef="0" IVar="-1" Cut="0.0000000000000000e+00" cType="1" res="-8.4568288002628833e-05" rms="1.7521896958351135e-01" purity="5.4755824804306030e-01" nType="-99"/>
            <Node pos="r" depth="3" NCoef="0" IVar="-1" Cut="0.0000000000000000e+00" cType="1" res="1.8088655546307564e-02" rms="2.2464130818843842e-01" purity="2.8798121213912964e-01" nType="-99"/>
          </Node>
          <Node pos="r" depth="2" NCoef="0" IVar="-1" Cut="0.0000000000000000e+00" cType="1" res="-5.0264060497283936e-02" rms="1.1535672843456268e-01" purity="4.7039207071065903e-02" nType="-99"/>
        </Node>
      </Node>
    </BinaryTree>
    <BinaryTree type="DecisionTree" boostWeight="1.0000000000000000e+00" itree="428">
      <Node pos="s" depth="0" NCoef="0" IVar="2" Cut="6.5823034667968750e+02" cType="1" res="2.2888032253831625e-03" rms="1.8362845480442047e-01" purity="5.0577300786972046e-01" nType="0">
        <Node pos="l" depth="1" NCoef="0" IVar="0" Cut="1.5767568359375000e+03" cType="1" res="4.1570710018277168e-03" rms="1.9137427210807800e-01" purity="3.3954605460166931e-01" nType="0">
          <Node pos="l" depth="2" NCoef="0" IVar="3" Cut="1.9161488342285156e+02" cType="1" res="2.1831147023476660e-05" rms="6.8437598645687103e-02" purity="4.7785858623683453e-03" nType="0">
            <Node pos="l" depth="3" NCoef="0" IVar="-1" Cut="0.0000000000000000e+00" cType="1" res="9.4706289470195770e-02" rms="8.8504686951637268e-02" purity="8.1811295822262764e-03" nType="-99"/>
            <Node pos="r" depth="3" NCoef="0" IVar="-1" Cut="0.0000000000000000e+00" cType="1" res="-3.1209101900458336e-02" rms="5.8597926050424576e-02" purity="3.4372922964394093e-03" nType="-99"/>
          </Node>
          <Node pos="r" depth="2" NCoef="0" IVar="6" Cut="1.3678303527832031e+02" cType="1" res="6.0460455715656281e-03" rms="2.2628098726272583e-01" purity="4.9246764183044434e-01" nType="0">
            <Node pos="l" depth="3" NCoef="0" IVar="-1" Cut="0.0000000000000000e+00" cType="1" res="1.8790315836668015e-02" rms="2.4414038658142090e-01" purity="2.2200794517993927e-01" nType="-99"/>
            <Node pos="r" depth="3" NCoef="0" IVar="-1" Cut="0.0000000000000000e+00" cType="1" res="1.6148858703672886e-03" rms="2.0081423223018646e-01" purity="8.4097790718078613e-01" nType="-99"/>
          </Node>
        </Node>
        <Node pos="r" depth="1" NCoef="0" IVar="10" Cut="3.9883881807327271e-01" cType="1" res="-1.2547466903924942e-03" rms="1.6790136694908142e-01" purity="8.2105624675750732e-01" nType="0">
          <Node pos="l" depth="2" NCoef="0" IVar="11" Cut="1.1979762315750122e+00" cType="1" res="2.6863075327128172e-03" rms="1.5538311004638672e-01" purity="8.2827436923980713e-01" nType="0">
            <Node pos="l" depth="3" NCoef="0" IVar="-1" Cut="0.0000000000000000e+00" cType="1" res="1.8430555937811732e-03" rms="1.5173965692520142e-01" purity="8.2762247323989868e-01" nType="-99"/>
            <Node pos="r" depth="3" NCoef="0" IVar="-1" Cut="0.0000000000000000e+00" cType="1" res="4.4222667813301086e-02" rms="1.7776654660701752e-01" purity="8.3276951313018799e-01" nType="-99"/>
          </Node>
          <Node pos="r" depth="2" NCoef="0" IVar="3" Cut="4.1444155883789062e+02" cType="1" res="-8.8167833164334297e-03" rms="1.8939146399497986e-01" purity="8.0720633268356323e-01" nType="0">
            <Node pos="l" depth="3" NCoef="0" IVar="-1" Cut="0.0000000000000000e+00" cType="1" res="-5.1894735544919968e-02" rms="2.4275180697441101e-01" purity="4.8101490736007690e-01" nType="-99"/>
            <Node pos="r" depth="3" NCoef="0" IVar="-1" Cut="0.0000000000000000e+00" cType="1" res="-8.3690220490098000e-03" rms="1.6473364830017090e-01" purity="9.2833226919174194e-01" nType="-99"/>
          </Node>
        </Node>
      </Node>
    </BinaryTree>
    <BinaryTree type="DecisionTree" boostWeight="1.0000000000000000e+00" itree="429">
      <Node pos="s" depth="0" NCoef="0" IVar="0" Cut="3.2639045410156250e+03" cType="1" res="-2.1660439670085907e-03" rms="1.8105328083038330e-01" purity="4.9394205212593079e-01" nType="0">
        <Node pos="l" depth="1" NCoef="0" IVar="1" Cut="4.2912576347589493e-02" cType="1" res="-4.0735760703682899e-03" rms="2.0235851407051086e-01" purity="3.4886807203292847e-01" nType="0">
          <Node pos="l" depth="2" NCoef="0" IVar="2" Cut="6.9513031005859375e+02" cType="1" res="-3.3332293969579041e-04" rms="1.6971515119075775e-01" purity="1.1441490799188614e-01" nType="0">
            <Node pos="l" depth="3" NCoef="0" IVar="-1" Cut="0.0000000000000000e+00" cType="1" res="-1.2996830977499485e-02" rms="1.4540101587772369e-01" purity="7.6026305556297302e-02" nType="-99"/>
            <Node pos="r" depth="3" NCoef="0" IVar="-1" Cut="0.0000000000000000e+00" cType="1" res="2.0757552236318588e-02" rms="2.6002013683319092e-01" purity="3.1002709269523621e-01" nType="-99"/>
          </Node>
          <Node pos="r" depth="2" NCoef="0" IVar="2" Cut="4.7187524414062500e+02" cType="1" res="-6.7706350237131119e-03" rms="2.2291202843189240e-01" purity="5.1792991161346436e-01" nType="0">
            <Node pos="l" depth="3" NCoef="0" IVar="-1" Cut="0.0000000000000000e+00" cType="1" res="9.8519831226440147e-07" rms="2.1687237918376923e-01" purity="2.4370908737182617e-01" nType="-99"/>
            <Node pos="r" depth="3" NCoef="0" IVar="-1" Cut="0.0000000000000000e+00" cType="1" res="-2.2613313049077988e-02" rms="2.2708599269390106e-01" purity="7.1780753135681152e-01" nType="-99"/>
          </Node>
        </Node>
        <Node pos="r" depth="1" NCoef="0" IVar="1" Cut="4.0206488221883774e-02" cType="1" res="4.3993722647428513e-03" rms="6.7892514169216156e-02" purity="9.9326324462890625e-01" nType="0">
          <Node pos="l" depth="2" NCoef="0" IVar="-1" Cut="0.0000000000000000e+00" cType="1" res="7.0334084331989288e-02" rms="1.2698630988597870e-01" purity="9.7177302837371826e-01" nType="-99"/>
          <Node pos="r" depth="2" NCoef="0" IVar="6" Cut="1.6953443908691406e+02" cType="1" res="1.3605408603325486e-03" rms="5.5476706475019455e-02" purity="9.9596744775772095e-01" nType="0">
            <Node pos="l" depth="3" NCoef="0" IVar="-1" Cut="0.0000000000000000e+00" cType="1" res="4.6022955328226089e-02" rms="7.7953487634658813e-02" purity="9.9353158473968506e-01" nType="-99"/>
            <Node pos="r" depth="3" NCoef="0" IVar="-1" Cut="0.0000000000000000e+00" cType="1" res="1.6240035183727741e-03" rms="4.4193234294652939e-02" purity="9.9687570333480835e-01" nType="-99"/>
          </Node>
        </Node>
      </Node>
    </BinaryTree>
    <BinaryTree type="DecisionTree" boostWeight="1.0000000000000000e+00" itree="430">
      <Node pos="s" depth="0" NCoef="0" IVar="9" Cut="1.3288825750350952e-01" cType="1" res="1.0106705594807863e-03" rms="1.8321524560451508e-01" purity="4.9809896945953369e-01" nType="0">
        <Node pos="l" depth="1" NCoef="0" IVar="7" Cut="7.4596375226974487e-01" cType="1" res="-1.3916896423324943e-03" rms="1.8253305554389954e-01" purity="5.0485330820083618e-01" nType="0">
          <Node pos="l" depth="2" NCoef="0" IVar="2" Cut="8.7288281250000000e+02" cType="1" res="-4.0103667415678501e-03" rms="1.8268419802188873e-01" purity="5.5385959148406982e-01" nType="0">
            <Node pos="l" depth="3" NCoef="0" IVar="-1" Cut="0.0000000000000000e+00" cType="1" res="-5.4423953406512737e-03" rms="1.8263655900955200e-01" purity="4.9625235795974731e-01" nType="-99"/>
            <Node pos="r" depth="3" NCoef="0" IVar="-1" Cut="0.0000000000000000e+00" cType="1" res="-5.9212040156126022e-02" rms="1.8247532844543457e-01" purity="8.9970004558563232e-01" nType="-99"/>
          </Node>
          <Node pos="r" depth="2" NCoef="0" IVar="7" Cut="1.3308053016662598e+00" cType="1" res="1.0412093251943588e-02" rms="1.8138155341148376e-01" purity="2.8395584225654602e-01" nType="0">
            <Node pos="l" depth="3" NCoef="0" IVar="-1" Cut="0.0000000000000000e+00" cType="1" res="4.9683462828397751e-02" rms="2.0406731963157654e-01" purity="4.0641921758651733e-01" nType="-99"/>
            <Node pos="r" depth="3" NCoef="0" IVar="-1" Cut="0.0000000000000000e+00" cType="1" res="-3.5456042736768723e-02" rms="1.2852671742439270e-01" purity="6.0277253389358521e-02" nType="-99"/>
          </Node>
        </Node>
        <Node pos="r" depth="1" NCoef="0" IVar="11" Cut="-9.3393927812576294e-01" cType="1" res="3.9015007205307484e-03" rms="1.8399120867252350e-01" purity="4.8997125029563904e-01" nType="0">
          <Node pos="l" depth="2" NCoef="0" IVar="0" Cut="2.6218068847656250e+03" cType="1" res="1.3084826059639454e-02" rms="2.0763991773128510e-01" purity="4.7603344917297363e-01" nType="0">
            <Node pos="l" depth="3" NCoef="0" IVar="-1" Cut="0.0000000000000000e+00" cType="1" res="4.4427473098039627e-02" rms="2.3386172950267792e-01" purity="1.9789139926433563e-01" nType="-99"/>
            <Node pos="r" depth="3" NCoef="0" IVar="-1" Cut="0.0000000000000000e+00" cType="1" res="-9.3549666926264763e-03" rms="1.4985874295234680e-01" purity="9.6375942230224609e-01" nType="-99"/>
          </Node>
          <Node pos="r" depth="2" NCoef="0" IVar="7" Cut="7.4182450771331787e-01" cType="1" res="1.3975161127746105e-03" rms="1.7691291868686676e-01" purity="4.9377158284187317e-01" nType="0">
            <Node pos="l" depth="3" NCoef="0" IVar="-1" Cut="0.0000000000000000e+00" cType="1" res="1.1888955719769001e-02" rms="1.8088881671428680e-01" purity="5.4910701513290405e-01" nType="-99"/>
            <Node pos="r" depth="3" NCoef="0" IVar="-1" Cut="0.0000000000000000e+00" cType="1" res="-2.7481865137815475e-02" rms="1.5994742512702942e-01" purity="2.7649664878845215e-01" nType="-99"/>
          </Node>
        </Node>
      </Node>
    </BinaryTree>
    <BinaryTree type="DecisionTree" boostWeight="1.0000000000000000e+00" itree="431">
      <Node pos="s" depth="0" NCoef="0" IVar="11" Cut="4.0065816044807434e-01" cType="1" res="2.9740564059466124e-04" rms="1.8023869395256042e-01" purity="5.0835311412811279e-01" nType="0">
        <Node pos="l" depth="1" NCoef="0" IVar="4" Cut="3.8911276245117188e+02" cType="1" res="-1.5237298794090748e-03" rms="1.7803965508937836e-01" purity="5.1169097423553467e-01" nType="0">
          <Node pos="l" depth="2" NCoef="0" IVar="7" Cut="-3.9961598813533783e-02" cType="1" res="-2.8408709913492203e-03" rms="1.9437521696090698e-01" purity="3.7769308686256409e-01" nType="0">
            <Node pos="l" depth="3" NCoef="0" IVar="-1" Cut="0.0000000000000000e+00" cType="1" res="-1.5451891347765923e-02" rms="1.9132825732231140e-01" purity="3.6473271250724792e-01" nType="-99"/>
            <Node pos="r" depth="3" NCoef="0" IVar="-1" Cut="0.0000000000000000e+00" cType="1" res="4.8724320367909968e-04" rms="1.9733285903930664e-01" purity="3.9067131280899048e-01" nType="-99"/>
          </Node>
          <Node pos="r" depth="2" NCoef="0" IVar="6" Cut="1.7598541259765625e+02" cType="1" res="3.1032294500619173e-03" rms="1.0148708522319794e-01" purity="9.8240971565246582e-01" nType="0">
            <Node pos="l" depth="3" NCoef="0" IVar="-1" Cut="0.0000000000000000e+00" cType="1" res="4.0135417133569717e-02" rms="1.5123178064823151e-01" purity="9.6330976486206055e-01" nType="-99"/>
            <Node pos="r" depth="3" NCoef="0" IVar="-1" Cut="0.0000000000000000e+00" cType="1" res="-2.1769322454929352e-02" rms="6.2888972461223602e-02" purity="9.9196720123291016e-01" nType="-99"/>
          </Node>
        </Node>
        <Node pos="r" depth="1" NCoef="0" IVar="8" Cut="-9.3408840894699097e-01" cType="1" res="3.3972414676100016e-03" rms="1.8387985229492188e-01" purity="5.0267148017883301e-01" nType="0">
          <Node pos="l" depth="2" NCoef="0" IVar="4" Cut="1.8860702514648438e+02" cType="1" res="-8.2515357062220573e-03" rms="1.9230309128761292e-01" purity="2.8230485320091248e-01" nType="0">
            <Node pos="l" depth="3" NCoef="0" IVar="-1" Cut="0.0000000000000000e+00" cType="1" res="-3.2873975578695536e-03" rms="1.3300552964210510e-01" purity="4.0875807404518127e-02" nType="-99"/>
            <Node pos="r" depth="3" NCoef="0" IVar="-1" Cut="0.0000000000000000e+00" cType="1" res="-2.7419375255703926e-02" rms="2.3358862102031708e-01" purity="5.0360989570617676e-01" nType="-99"/>
          </Node>
          <Node pos="r" depth="2" NCoef="0" IVar="4" Cut="2.1162944030761719e+02" cType="1" res="5.3885402157902718e-03" rms="1.8232654035091400e-01" purity="5.4034203290939331e-01" nType="0">
            <Node pos="l" depth="3" NCoef="0" IVar="-1" Cut="0.0000000000000000e+00" cType="1" res="-3.9220703765749931e-03" rms="1.7462551593780518e-01" purity="9.9789492785930634e-02" nType="-99"/>
            <Node pos="r" depth="3" NCoef="0" IVar="-1" Cut="0.0000000000000000e+00" cType="1" res="2.5144033133983612e-02" rms="1.8679916858673096e-01" purity="8.1191045045852661e-01" nType="-99"/>
          </Node>
        </Node>
      </Node>
    </BinaryTree>
    <BinaryTree type="DecisionTree" boostWeight="1.0000000000000000e+00" itree="432">
      <Node pos="s" depth="0" NCoef="0" IVar="11" Cut="1.7330175638198853e+00" cType="1" res="-1.3630735338665545e-04" rms="1.7813156545162201e-01" purity="4.9360993504524231e-01" nType="0">
        <Node pos="l" depth="1" NCoef="0" IVar="6" Cut="1.4205242919921875e+02" cType="1" res="4.9791176570579410e-04" rms="1.7504285275936127e-01" purity="5.0660777091979980e-01" nType="0">
          <Node pos="l" depth="2" NCoef="0" IVar="6" Cut="1.3329931640625000e+02" cType="1" res="-1.7184704774990678e-03" rms="1.9024816155433655e-01" purity="2.2466398775577545e-01" nType="0">
            <Node pos="l" depth="3" NCoef="0" IVar="-1" Cut="0.0000000000000000e+00" cType="1" res="-1.3045800151303411e-03" rms="1.8678571283817291e-01" purity="2.0081873238086700e-01" nType="-99"/>
            <Node pos="r" depth="3" NCoef="0" IVar="-1" Cut="0.0000000000000000e+00" cType="1" res="-3.4498646855354309e-02" rms="2.3658120632171631e-01" purity="5.9306424856185913e-01" nType="-99"/>
          </Node>
          <Node pos="r" depth="2" NCoef="0" IVar="8" Cut="9.3234747648239136e-01" cType="1" res="3.7184203974902630e-03" rms="1.5017236769199371e-01" purity="9.1628545522689819e-01" nType="0">
            <Node pos="l" depth="3" NCoef="0" IVar="-1" Cut="0.0000000000000000e+00" cType="1" res="8.4456903859972954e-03" rms="1.4386035501956940e-01" purity="9.2381381988525391e-01" nType="-99"/>
            <Node pos="r" depth="3" NCoef="0" IVar="-1" Cut="0.0000000000000000e+00" cType="1" res="4.4033724814653397e-02" rms="1.9722303748130798e-01" purity="8.4866762161254883e-01" nType="-99"/>
          </Node>
        </Node>
        <Node pos="r" depth="1" NCoef="0" IVar="6" Cut="1.0236901092529297e+02" cType="1" res="-7.5722113251686096e-03" rms="2.1085672080516815e-01" purity="3.4121647477149963e-01" nType="0">
          <Node pos="l" depth="2" NCoef="0" IVar="-1" Cut="0.0000000000000000e+00" cType="1" res="1.6327869147062302e-02" rms="1.9237564504146576e-01" purity="1.5688735246658325e-01" nType="-99"/>
          <Node pos="r" depth="2" NCoef="0" IVar="-1" Cut="0.0000000000000000e+00" cType="1" res="-5.0155594944953918e-02" rms="2.3129801452159882e-01" purity="5.7740491628646851e-01" nType="-99"/>
        </Node>
      </Node>
    </BinaryTree>
    <BinaryTree type="DecisionTree" boostWeight="1.0000000000000000e+00" itree="433">
      <Node pos="s" depth="0" NCoef="0" IVar="11" Cut="1.9997268915176392e+00" cType="1" res="5.5765587603673339e-04" rms="1.8160764873027802e-01" purity="5.0370037555694580e-01" nType="0">
        <Node pos="l" depth="1" NCoef="0" IVar="8" Cut="-1.4666825532913208e+00" cType="1" res="-4.4737180360243656e-06" rms="1.8030698597431183e-01" purity="5.1198333501815796e-01" nType="0">
          <Node pos="l" depth="2" NCoef="0" IVar="6" Cut="1.0069924163818359e+02" cType="1" res="-9.7445985302329063e-03" rms="1.6070739924907684e-01" purity="1.2475536018610001e-01" nType="0">
            <Node pos="l" depth="3" NCoef="0" IVar="-1" Cut="0.0000000000000000e+00" cType="1" res="-2.4694398045539856e-02" rms="1.1905896663665771e-01" purity="2.1301055327057838e-02" nType="-99"/>
            <Node pos="r" depth="3" NCoef="0" IVar="-1" Cut="0.0000000000000000e+00" cType="1" res="-3.5275034606456757e-02" rms="2.0435160398483276e-01" purity="2.6733952760696411e-01" nType="-99"/>
          </Node>
          <Node pos="r" depth="2" NCoef="0" IVar="10" Cut="-1.9990600347518921e+00" cType="1" res="6.7217589821666479e-04" rms="1.8157058954238892e-01" purity="5.3888416290283203e-01" nType="0">
            <Node pos="l" depth="3" NCoef="0" IVar="-1" Cut="0.0000000000000000e+00" cType="1" res="3.2391335815191269e-02" rms="2.2408074140548706e-01" purity="2.0531100034713745e-01" nType="-99"/>
            <Node pos="r" depth="3" NCoef="0" IVar="-1" Cut="0.0000000000000000e+00" cType="1" res="7.6807918958365917e-04" rms="1.7991037666797638e-01" purity="5.5039542913436890e-01" nType="-99"/>
          </Node>
        </Node>
        <Node pos="r" depth="1" NCoef="0" IVar="-1" Cut="0.0000000000000000e+00" cType="1" res="3.1538940966129303e-02" rms="2.0750670135021210e-01" purity="3.2362371683120728e-01" nType="-99"/>
      </Node>
    </BinaryTree>
    <BinaryTree type="DecisionTree" boostWeight="1.0000000000000000e+00" itree="434">
      <Node pos="s" depth="0" NCoef="0" IVar="10" Cut="-1.1993937492370605e+00" cType="1" res="1.0395135032013059e-03" rms="1.8506552278995514e-01" purity="5.0265955924987793e-01" nType="0">
        <Node pos="l" depth="1" NCoef="0" IVar="0" Cut="2.0684150390625000e+03" cType="1" res="8.1735439598560333e-03" rms="2.0255726575851440e-01" purity="3.7550196051597595e-01" nType="0">
          <Node pos="l" depth="2" NCoef="0" IVar="1" Cut="3.7060614675283432e-02" cType="1" res="2.2511824499815702e-03" rms="1.6121967136859894e-01" purity="3.6898404359817505e-02" nType="0">
            <Node pos="l" depth="3" NCoef="0" IVar="-1" Cut="0.0000000000000000e+00" cType="1" res="-4.3150346726179123e-02" rms="8.3782978355884552e-02" purity="7.0300619117915630e-03" nType="-99"/>
            <Node pos="r" depth="3" NCoef="0" IVar="-1" Cut="0.0000000000000000e+00" cType="1" res="2.3717321455478668e-02" rms="2.2817496955394745e-01" purity="7.8158423304557800e-02" nType="-99"/>
          </Node>
          <Node pos="r" depth="2" NCoef="0" IVar="0" Cut="2.8327248535156250e+03" cType="1" res="1.6425929963588715e-02" rms="2.4872951209545135e-01" purity="8.4732174873352051e-01" nType="0">
            <Node pos="l" depth="3" NCoef="0" IVar="-1" Cut="0.0000000000000000e+00" cType="1" res="2.8607986867427826e-02" rms="3.3869019150733948e-01" purity="6.9586712121963501e-01" nType="-99"/>
            <Node pos="r" depth="3" NCoef="0" IVar="-1" Cut="0.0000000000000000e+00" cType="1" res="1.9189361482858658e-02" rms="1.2909241020679474e-01" purity="9.7585439682006836e-01" nType="-99"/>
          </Node>
        </Node>
        <Node pos="r" depth="1" NCoef="0" IVar="8" Cut="-1.1992608308792114e+00" cType="1" res="-1.9002157205250114e-04" rms="1.8185272812843323e-01" purity="5.2457493543624878e-01" nType="0">
          <Node pos="l" depth="2" NCoef="0" IVar="0" Cut="1.8506436767578125e+03" cType="1" res="1.0881828144192696e-02" rms="1.9609668850898743e-01" purity="2.2502548992633820e-01" nType="0">
            <Node pos="l" depth="3" NCoef="0" IVar="-1" Cut="0.0000000000000000e+00" cType="1" res="1.5215753577649593e-02" rms="1.0613863915205002e-01" purity="1.2310334481298923e-02" nType="-99"/>
            <Node pos="r" depth="3" NCoef="0" IVar="-1" Cut="0.0000000000000000e+00" cType="1" res="3.4263066947460175e-02" rms="2.8991979360580444e-01" purity="5.8491021394729614e-01" nType="-99"/>
          </Node>
          <Node pos="r" depth="2" NCoef="0" IVar="11" Cut="1.9999537467956543e+00" cType="1" res="-1.3476166641339660e-03" rms="1.8025924265384674e-01" purity="5.5589371919631958e-01" nType="0">
            <Node pos="l" depth="3" NCoef="0" IVar="-1" Cut="0.0000000000000000e+00" cType="1" res="-1.5767138684168458e-03" rms="1.7872337996959686e-01" purity="5.6640642881393433e-01" nType="-99"/>
            <Node pos="r" depth="3" NCoef="0" IVar="-1" Cut="0.0000000000000000e+00" cType="1" res="-4.5331794768571854e-02" rms="2.1104805171489716e-01" purity="3.1895059347152710e-01" nType="-99"/>
          </Node>
        </Node>
      </Node>
    </BinaryTree>
    <BinaryTree type="DecisionTree" boostWeight="1.0000000000000000e+00" itree="435">
      <Node pos="s" depth="0" NCoef="0" IVar="7" Cut="1.7146608233451843e-01" cType="1" res="-1.5001496067270637e-03" rms="1.7986726760864258e-01" purity="4.9478948116302490e-01" nType="0">
        <Node pos="l" depth="1" NCoef="0" IVar="9" Cut="-9.2901301383972168e-01" cType="1" res="-3.8830924313515425e-03" rms="1.8148167431354523e-01" purity="5.1269674301147461e-01" nType="0">
          <Node pos="l" depth="2" NCoef="0" IVar="1" Cut="5.3171880543231964e-02" cType="1" res="-1.2007457204163074e-02" rms="1.8302614986896515e-01" purity="3.5843244194984436e-01" nType="0">
            <Node pos="l" depth="3" NCoef="0" IVar="-1" Cut="0.0000000000000000e+00" cType="1" res="-3.2262571621686220e-03" rms="1.7248426377773285e-01" purity="1.6167774796485901e-01" nType="-99"/>
            <Node pos="r" depth="3" NCoef="0" IVar="-1" Cut="0.0000000000000000e+00" cType="1" res="-5.2011869847774506e-02" rms="1.9220328330993652e-01" purity="5.5153959989547729e-01" nType="-99"/>
          </Node>
          <Node pos="r" depth="2" NCoef="0" IVar="6" Cut="1.1879497528076172e+02" cType="1" res="-1.9176772329956293e-03" rms="1.8105129897594452e-01" purity="5.5001580715179443e-01" nType="0">
            <Node pos="l" depth="3" NCoef="0" IVar="-1" Cut="0.0000000000000000e+00" cType="1" res="-1.7147175967693329e-02" rms="1.9106677174568176e-01" purity="1.8399323523044586e-01" nType="-99"/>
            <Node pos="r" depth="3" NCoef="0" IVar="-1" Cut="0.0000000000000000e+00" cType="1" res="5.6963055394589901e-03" rms="1.7237751185894012e-01" purity="8.4823763370513916e-01" nType="-99"/>
          </Node>
        </Node>
        <Node pos="r" depth="1" NCoef="0" IVar="11" Cut="3.9977866411209106e-01" cType="1" res="1.8978184089064598e-03" rms="1.7748448252677917e-01" purity="4.6925449371337891e-01" nType="0">
          <Node pos="l" depth="2" NCoef="0" IVar="7" Cut="1.2970218658447266e+00" cType="1" res="-1.2456126278266311e-03" rms="1.7606823146343231e-01" purity="4.9224489927291870e-01" nType="0">
            <Node pos="l" depth="3" NCoef="0" IVar="-1" Cut="0.0000000000000000e+00" cType="1" res="-8.3159273490309715e-03" rms="1.7763675749301910e-01" purity="5.6445068120956421e-01" nType="-99"/>
            <Node pos="r" depth="3" NCoef="0" IVar="-1" Cut="0.0000000000000000e+00" cType="1" res="3.0319560319185257e-02" rms="1.6712109744548798e-01" purity="1.0430283844470978e-01" nType="-99"/>
          </Node>
          <Node pos="r" depth="2" NCoef="0" IVar="4" Cut="2.7880545043945312e+02" cType="1" res="6.7029553465545177e-03" rms="1.7952148616313934e-01" purity="4.3411073088645935e-01" nType="0">
            <Node pos="l" depth="3" NCoef="0" IVar="-1" Cut="0.0000000000000000e+00" cType="1" res="3.2707627862691879e-02" rms="1.8757611513137817e-01" purity="1.6016879677772522e-01" nType="-99"/>
            <Node pos="r" depth="3" NCoef="0" IVar="-1" Cut="0.0000000000000000e+00" cType="1" res="-7.4691097252070904e-03" rms="1.6417685151100159e-01" purity="9.1151481866836548e-01" nType="-99"/>
          </Node>
        </Node>
      </Node>
    </BinaryTree>
    <BinaryTree type="DecisionTree" boostWeight="1.0000000000000000e+00" itree="436">
      <Node pos="s" depth="0" NCoef="0" IVar="7" Cut="9.8855954408645630e-01" cType="1" res="9.7302824724465609e-04" rms="1.8253663182258606e-01" purity="5.0708556175231934e-01" nType="0">
        <Node pos="l" depth="1" NCoef="0" IVar="11" Cut="1.9999855756759644e+00" cType="1" res="1.7633747775107622e-03" rms="1.8409523367881775e-01" purity="5.5322355031967163e-01" nType="0">
          <Node pos="l" depth="2" NCoef="0" IVar="5" Cut="1.8729798889160156e+02" cType="1" res="2.1314886398613453e-03" rms="1.8201979994773865e-01" purity="5.5878776311874390e-01" nType="0">
            <Node pos="l" depth="3" NCoef="0" IVar="-1" Cut="0.0000000000000000e+00" cType="1" res="1.0100057348608971e-02" rms="2.0340301096439362e-01" purity="2.0896159112453461e-01" nType="-99"/>
            <Node pos="r" depth="3" NCoef="0" IVar="-1" Cut="0.0000000000000000e+00" cType="1" res="1.7076144285965711e-04" rms="1.5730462968349457e-01" purity="9.1439729928970337e-01" nType="-99"/>
          </Node>
          <Node pos="r" depth="2" NCoef="0" IVar="-1" Cut="0.0000000000000000e+00" cType="1" res="-1.5565257519483566e-02" rms="2.3196372389793396e-01" purity="4.0666526556015015e-01" nType="-99"/>
        </Node>
        <Node pos="r" depth="1" NCoef="0" IVar="10" Cut="1.1915078163146973e+00" cType="1" res="-4.4520315714180470e-03" rms="1.7135791480541229e-01" purity="1.9038748741149902e-01" nType="0">
          <Node pos="l" depth="2" NCoef="0" IVar="3" Cut="3.0652423095703125e+02" cType="1" res="-9.3275103718042374e-03" rms="1.6620551049709320e-01" purity="2.0189130306243896e-01" nType="0">
            <Node pos="l" depth="3" NCoef="0" IVar="-1" Cut="0.0000000000000000e+00" cType="1" res="1.6584900440648198e-03" rms="1.2151294201612473e-01" purity="3.6978989839553833e-02" nType="-99"/>
            <Node pos="r" depth="3" NCoef="0" IVar="-1" Cut="0.0000000000000000e+00" cType="1" res="-4.7914538532495499e-02" rms="2.1417751908302307e-01" purity="4.4007796049118042e-01" nType="-99"/>
          </Node>
          <Node pos="r" depth="2" NCoef="0" IVar="-1" Cut="0.0000000000000000e+00" cType="1" res="4.9376450479030609e-02" rms="1.8894602358341217e-01" purity="1.4546118676662445e-01" nType="-99"/>
        </Node>
      </Node>
    </BinaryTree>
    <BinaryTree type="DecisionTree" boostWeight="1.0000000000000000e+00" itree="437">
      <Node pos="s" depth="0" NCoef="0" IVar="8" Cut="1.3416051864624023e-01" cType="1" res="-1.5898363199084997e-03" rms="1.8018782138824463e-01" purity="5.0121903419494629e-01" nType="0">
        <Node pos="l" depth="1" NCoef="0" IVar="11" Cut="6.6708612442016602e-01" cType="1" res="9.8873977549374104e-04" rms="1.7939092218875885e-01" purity="5.1502722501754761e-01" nType="0">
          <Node pos="l" depth="2" NCoef="0" IVar="3" Cut="4.0618853759765625e+02" cType="1" res="-1.3160827802494168e-03" rms="1.7464953660964966e-01" purity="5.1747542619705200e-01" nType="0">
            <Node pos="l" depth="3" NCoef="0" IVar="-1" Cut="0.0000000000000000e+00" cType="1" res="-1.3816093094646931e-02" rms="1.9105249643325806e-01" purity="2.1871832013130188e-01" nType="-99"/>
            <Node pos="r" depth="3" NCoef="0" IVar="-1" Cut="0.0000000000000000e+00" cType="1" res="1.3324986211955547e-02" rms="1.5133661031723022e-01" purity="8.9387810230255127e-01" nType="-99"/>
          </Node>
          <Node pos="r" depth="2" NCoef="0" IVar="4" Cut="2.3936589050292969e+02" cType="1" res="6.7628594115376472e-03" rms="1.9063010811805725e-01" purity="5.0889396667480469e-01" nType="0">
            <Node pos="l" depth="3" NCoef="0" IVar="-1" Cut="0.0000000000000000e+00" cType="1" res="3.8929808884859085e-02" rms="2.0795989036560059e-01" purity="1.5109151601791382e-01" nType="-99"/>
            <Node pos="r" depth="3" NCoef="0" IVar="-1" Cut="0.0000000000000000e+00" cType="1" res="-2.3199727293103933e-03" rms="1.7228625714778900e-01" purity="8.4755206108093262e-01" nType="-99"/>
          </Node>
        </Node>
        <Node pos="r" depth="1" NCoef="0" IVar="9" Cut="-1.1973006725311279e+00" cType="1" res="-4.8541193827986717e-03" rms="1.8113896250724792e-01" purity="4.8373901844024658e-01" nType="0">
          <Node pos="l" depth="2" NCoef="0" IVar="0" Cut="1.7648909912109375e+03" cType="1" res="-1.8244089558720589e-02" rms="1.9573120772838593e-01" purity="2.7205675840377808e-01" nType="0">
            <Node pos="l" depth="3" NCoef="0" IVar="-1" Cut="0.0000000000000000e+00" cType="1" res="-4.0001392364501953e-02" rms="8.6832992732524872e-02" purity="8.0355852842330933e-03" nType="-99"/>
            <Node pos="r" depth="3" NCoef="0" IVar="-1" Cut="0.0000000000000000e+00" cType="1" res="-4.4796083122491837e-02" rms="2.6228353381156921e-01" purity="5.3667628765106201e-01" nType="-99"/>
          </Node>
          <Node pos="r" depth="2" NCoef="0" IVar="10" Cut="1.3183736801147461e-01" cType="1" res="-3.0367942526936531e-03" rms="1.7898964881896973e-01" purity="5.1246911287307739e-01" nType="0">
            <Node pos="l" depth="3" NCoef="0" IVar="-1" Cut="0.0000000000000000e+00" cType="1" res="-2.2834777832031250e-02" rms="1.7694507539272308e-01" purity="5.1534736156463623e-01" nType="-99"/>
            <Node pos="r" depth="3" NCoef="0" IVar="-1" Cut="0.0000000000000000e+00" cType="1" res="5.0335573032498360e-03" rms="1.8100878596305847e-01" purity="5.0942015647888184e-01" nType="-99"/>
          </Node>
        </Node>
      </Node>
    </BinaryTree>
    <BinaryTree type="DecisionTree" boostWeight="1.0000000000000000e+00" itree="438">
      <Node pos="s" depth="0" NCoef="0" IVar="3" Cut="7.1375769042968750e+02" cType="1" res="1.2143569765612483e-03" rms="1.7954605817794800e-01" purity="4.9558857083320618e-01" nType="0">
        <Node pos="l" depth="1" NCoef="0" IVar="7" Cut="6.9554162025451660e-01" cType="1" res="5.5594573495909572e-04" rms="1.8374353647232056e-01" purity="4.7293457388877869e-01" nType="0">
          <Node pos="l" depth="2" NCoef="0" IVar="4" Cut="3.6110180664062500e+02" cType="1" res="1.7805047100409865e-03" rms="1.8831352889537811e-01" purity="5.2276617288589478e-01" nType="0">
            <Node pos="l" depth="3" NCoef="0" IVar="-1" Cut="0.0000000000000000e+00" cType="1" res="7.5630233623087406e-03" rms="2.0606859028339386e-01" purity="3.6662027239799500e-01" nType="-99"/>
            <Node pos="r" depth="3" NCoef="0" IVar="-1" Cut="0.0000000000000000e+00" cType="1" res="-1.6452444717288017e-02" rms="1.2352705746889114e-01" purity="9.7274053096771240e-01" nType="-99"/>
          </Node>
          <Node pos="r" depth="2" NCoef="0" IVar="8" Cut="1.1969931125640869e+00" cType="1" res="-4.0228208526968956e-03" rms="1.6546145081520081e-01" purity="2.8660851716995239e-01" nType="0">
            <Node pos="l" depth="3" NCoef="0" IVar="-1" Cut="0.0000000000000000e+00" cType="1" res="-6.0267448425292969e-03" rms="1.7009475827217102e-01" purity="3.1084927916526794e-01" nType="-99"/>
            <Node pos="r" depth="3" NCoef="0" IVar="-1" Cut="0.0000000000000000e+00" cType="1" res="-5.2448872476816177e-02" rms="1.2966021895408630e-01" purity="1.2500317394733429e-01" nType="-99"/>
          </Node>
        </Node>
        <Node pos="r" depth="1" NCoef="0" IVar="-1" Cut="0.0000000000000000e+00" cType="1" res="1.0301402956247330e-01" rms="-nan" purity="9.8161643743515015e-01" nType="-99"/>
      </Node>
    </BinaryTree>
    <BinaryTree type="DecisionTree" boostWeight="1.0000000000000000e+00" itree="439">
      <Node pos="s" depth="0" NCoef="0" IVar="8" Cut="-9.3263530731201172e-01" cType="1" res="4.5549948117695749e-04" rms="1.7669208347797394e-01" purity="4.9489045143127441e-01" nType="0">
        <Node pos="l" depth="1" NCoef="0" IVar="6" Cut="1.2702430725097656e+02" cType="1" res="6.2660127878189087e-03" rms="1.8843692541122437e-01" purity="2.9082939028739929e-01" nType="0">
          <Node pos="l" depth="2" NCoef="0" IVar="11" Cut="-1.3303092122077942e-01" cType="1" res="1.3243576977401972e-03" rms="1.7222340404987335e-01" purity="9.6482753753662109e-02" nType="0">
            <Node pos="l" depth="3" NCoef="0" IVar="-1" Cut="0.0000000000000000e+00" cType="1" res="-1.7666006460785866e-02" rms="1.5736532211303711e-01" purity="8.6423963308334351e-02" nType="-99"/>
            <Node pos="r" depth="3" NCoef="0" IVar="-1" Cut="0.0000000000000000e+00" cType="1" res="2.7024112641811371e-02" rms="1.8828779458999634e-01" purity="1.0860061645507812e-01" nType="-99"/>
          </Node>
          <Node pos="r" depth="2" NCoef="0" IVar="-1" Cut="0.0000000000000000e+00" cType="1" res="3.3571228384971619e-02" rms="2.2131378948688507e-01" purity="7.4488091468811035e-01" nType="-99"/>
        </Node>
        <Node pos="r" depth="1" NCoef="0" IVar="11" Cut="1.9999635219573975e+00" cType="1" res="-6.6097703529521823e-04" rms="1.7432256042957306e-01" purity="5.3410029411315918e-01" nType="0">
          <Node pos="l" depth="2" NCoef="0" IVar="9" Cut="1.7330405712127686e+00" cType="1" res="-1.2768199667334557e-03" rms="1.7215387523174286e-01" purity="5.4009634256362915e-01" nType="0">
            <Node pos="l" depth="3" NCoef="0" IVar="-1" Cut="0.0000000000000000e+00" cType="1" res="-2.3433382157236338e-03" rms="1.7117498815059662e-01" purity="5.5417186021804810e-01" nType="-99"/>
            <Node pos="r" depth="3" NCoef="0" IVar="-1" Cut="0.0000000000000000e+00" cType="1" res="-4.0563032031059265e-02" rms="1.9507884979248047e-01" purity="1.7930139601230621e-01" nType="-99"/>
          </Node>
          <Node pos="r" depth="2" NCoef="0" IVar="-1" Cut="0.0000000000000000e+00" cType="1" res="3.3076249063014984e-02" rms="2.2198304533958435e-01" purity="3.8133519887924194e-01" nType="-99"/>
        </Node>
      </Node>
    </BinaryTree>
    <BinaryTree type="DecisionTree" boostWeight="1.0000000000000000e+00" itree="440">
      <Node pos="s" depth="0" NCoef="0" IVar="11" Cut="-1.9986540079116821e+00" cType="1" res="-7.1531505091115832e-04" rms="1.7979070544242859e-01" purity="5.0292712450027466e-01" nType="0">
        <Node pos="l" depth="1" NCoef="0" IVar="-1" Cut="0.0000000000000000e+00" cType="1" res="-3.2331522554159164e-02" rms="1.9155879318714142e-01" purity="2.7768242359161377e-01" nType="-99"/>
        <Node pos="r" depth="1" NCoef="0" IVar="9" Cut="-6.6589832305908203e-01" cType="1" res="-1.5928421635180712e-04" rms="1.7923282086849213e-01" purity="5.1287382841110229e-01" nType="0">
          <Node pos="l" depth="2" NCoef="0" IVar="6" Cut="7.2420509338378906e+01" cType="1" res="4.1404608637094498e-03" rms="1.8336758017539978e-01" purity="4.3212571740150452e-01" nType="0">
            <Node pos="l" depth="3" NCoef="0" IVar="-1" Cut="0.0000000000000000e+00" cType="1" res="-4.5308358967304230e-02" rms="1.0414802283048630e-01" purity="4.0445119142532349e-02" nType="-99"/>
            <Node pos="r" depth="3" NCoef="0" IVar="-1" Cut="0.0000000000000000e+00" cType="1" res="1.6952963545918465e-02" rms="1.9560901820659637e-01" purity="5.1252561807632446e-01" nType="-99"/>
          </Node>
          <Node pos="r" depth="2" NCoef="0" IVar="7" Cut="9.5805138349533081e-01" cType="1" res="-1.7139194533228874e-03" rms="1.7768855392932892e-01" purity="5.4206943511962891e-01" nType="0">
            <Node pos="l" depth="3" NCoef="0" IVar="-1" Cut="0.0000000000000000e+00" cType="1" res="-8.6862724274396896e-03" rms="1.7904847860336304e-01" purity="5.8577007055282593e-01" nType="-99"/>
            <Node pos="r" depth="3" NCoef="0" IVar="-1" Cut="0.0000000000000000e+00" cType="1" res="2.0876338705420494e-02" rms="1.6800013184547424e-01" purity="2.4671389162540436e-01" nType="-99"/>
          </Node>
        </Node>
      </Node>
    </BinaryTree>
    <BinaryTree type="DecisionTree" boostWeight="1.0000000000000000e+00" itree="441">
      <Node pos="s" depth="0" NCoef="0" IVar="11" Cut="1.4671148061752319e+00" cType="1" res="1.1466379510238767e-04" rms="1.8241296708583832e-01" purity="5.0001353025436401e-01" nType="0">
        <Node pos="l" depth="1" NCoef="0" IVar="10" Cut="9.3362253904342651e-01" cType="1" res="8.4226403851062059e-04" rms="1.7991717159748077e-01" purity="5.1383149623870850e-01" nType="0">
          <Node pos="l" depth="2" NCoef="0" IVar="2" Cut="8.7755926513671875e+02" cType="1" res="-2.5009841192513704e-04" rms="1.7646241188049316e-01" purity="5.3254467248916626e-01" nType="0">
            <Node pos="l" depth="3" NCoef="0" IVar="-1" Cut="0.0000000000000000e+00" cType="1" res="-3.6664730869233608e-03" rms="1.7792110145092010e-01" purity="4.7591117024421692e-01" nType="-99"/>
            <Node pos="r" depth="3" NCoef="0" IVar="-1" Cut="0.0000000000000000e+00" cType="1" res="2.1786605939269066e-02" rms="1.6605332493782043e-01" purity="9.1812604665756226e-01" nType="-99"/>
          </Node>
          <Node pos="r" depth="2" NCoef="0" IVar="5" Cut="2.1138168334960938e+02" cType="1" res="5.1800650544464588e-03" rms="1.9296580553054810e-01" purity="4.3952122330665588e-01" nType="0">
            <Node pos="l" depth="3" NCoef="0" IVar="-1" Cut="0.0000000000000000e+00" cType="1" res="1.9212335348129272e-02" rms="2.0472010970115662e-01" purity="2.4162647128105164e-01" nType="-99"/>
            <Node pos="r" depth="3" NCoef="0" IVar="-1" Cut="0.0000000000000000e+00" cType="1" res="-6.3687460497021675e-03" rms="1.6009640693664551e-01" purity="9.2800730466842651e-01" nType="-99"/>
          </Node>
        </Node>
        <Node pos="r" depth="1" NCoef="0" IVar="4" Cut="1.7174644470214844e+02" cType="1" res="-5.6069451384246349e-03" rms="2.0086981356143951e-01" purity="3.9135330915451050e-01" nType="0">
          <Node pos="l" depth="2" NCoef="0" IVar="-1" Cut="0.0000000000000000e+00" cType="1" res="3.1938564032316208e-02" rms="1.5585328638553619e-01" purity="4.8035167157649994e-02" nType="-99"/>
          <Node pos="r" depth="2" NCoef="0" IVar="2" Cut="5.2801147460937500e+02" cType="1" res="-1.1551997624337673e-02" rms="2.1931451559066772e-01" purity="5.5934643745422363e-01" nType="0">
            <Node pos="l" depth="3" NCoef="0" IVar="-1" Cut="0.0000000000000000e+00" cType="1" res="-4.3843910098075867e-02" rms="2.1948558092117310e-01" purity="2.5026601552963257e-01" nType="-99"/>
            <Node pos="r" depth="3" NCoef="0" IVar="-1" Cut="0.0000000000000000e+00" cType="1" res="-2.5238587986677885e-03" rms="2.1863704919815063e-01" purity="8.1458133459091187e-01" nType="-99"/>
          </Node>
        </Node>
      </Node>
    </BinaryTree>
    <BinaryTree type="DecisionTree" boostWeight="1.0000000000000000e+00" itree="442">
      <Node pos="s" depth="0" NCoef="0" IVar="4" Cut="3.1159240722656250e+02" cType="1" res="6.6915393108502030e-04" rms="1.7908288538455963e-01" purity="4.9691897630691528e-01" nType="0">
        <Node pos="l" depth="1" NCoef="0" IVar="6" Cut="1.2027675628662109e+02" cType="1" res="-1.2625379022210836e-03" rms="1.9794772565364838e-01" purity="2.4856440722942352e-01" nType="0">
          <Node pos="l" depth="2" NCoef="0" IVar="4" Cut="2.0134098815917969e+02" cType="1" res="1.4498903183266521e-03" rms="1.7956040799617767e-01" purity="9.4258397817611694e-02" nType="0">
            <Node pos="l" depth="3" NCoef="0" IVar="-1" Cut="0.0000000000000000e+00" cType="1" res="-7.8716529533267021e-03" rms="1.3816453516483307e-01" purity="3.9953932166099548e-02" nType="-99"/>
            <Node pos="r" depth="3" NCoef="0" IVar="-1" Cut="0.0000000000000000e+00" cType="1" res="1.5908306464552879e-02" rms="2.5531473755836487e-01" purity="2.3062066733837128e-01" nType="-99"/>
          </Node>
          <Node pos="r" depth="2" NCoef="0" IVar="0" Cut="2.0794360351562500e+03" cType="1" res="-7.3519502766430378e-03" rms="2.3390829563140869e-01" purity="5.9498202800750732e-01" nType="0">
            <Node pos="l" depth="3" NCoef="0" IVar="-1" Cut="0.0000000000000000e+00" cType="1" res="-2.8909223154187202e-02" rms="2.3927976191043854e-01" purity="9.5104895532131195e-02" nType="-99"/>
            <Node pos="r" depth="3" NCoef="0" IVar="-1" Cut="0.0000000000000000e+00" cType="1" res="1.1419332586228848e-03" rms="2.3028899729251862e-01" purity="8.9162021875381470e-01" nType="-99"/>
          </Node>
        </Node>
        <Node pos="r" depth="1" NCoef="0" IVar="0" Cut="2.8464692382812500e+03" cType="1" res="4.2783729732036591e-03" rms="1.3697187602519989e-01" purity="9.6095061302185059e-01" nType="0">
          <Node pos="l" depth="2" NCoef="0" IVar="6" Cut="1.2985443115234375e+02" cType="1" res="1.7236560583114624e-02" rms="2.5764325261116028e-01" purity="8.3700561523437500e-01" nType="0">
            <Node pos="l" depth="3" NCoef="0" IVar="-1" Cut="0.0000000000000000e+00" cType="1" res="2.9832094907760620e-02" rms="3.1048908829689026e-01" purity="6.8404680490493774e-01" nType="-99"/>
            <Node pos="r" depth="3" NCoef="0" IVar="-1" Cut="0.0000000000000000e+00" cType="1" res="1.5384921804070473e-02" rms="2.2228586673736572e-01" purity="9.2230868339538574e-01" nType="-99"/>
          </Node>
          <Node pos="r" depth="2" NCoef="0" IVar="11" Cut="4.0277999639511108e-01" cType="1" res="1.0581745300441980e-03" rms="8.2919292151927948e-02" purity="9.9175179004669189e-01" nType="0">
            <Node pos="l" depth="3" NCoef="0" IVar="-1" Cut="0.0000000000000000e+00" cType="1" res="-3.7042282056063414e-03" rms="8.5454024374485016e-02" purity="9.9104440212249756e-01" nType="-99"/>
            <Node pos="r" depth="3" NCoef="0" IVar="-1" Cut="0.0000000000000000e+00" cType="1" res="3.8457099348306656e-02" rms="7.8029073774814606e-02" purity="9.9304097890853882e-01" nType="-99"/>
          </Node>
        </Node>
      </Node>
    </BinaryTree>
    <BinaryTree type="DecisionTree" boostWeight="1.0000000000000000e+00" itree="443">
      <Node pos="s" depth="0" NCoef="0" IVar="8" Cut="-1.1986216306686401e+00" cType="1" res="6.0782645596191287e-04" rms="1.8254452943801880e-01" purity="4.9932625889778137e-01" nType="0">
        <Node pos="l" depth="1" NCoef="0" IVar="0" Cut="2.0686523437500000e+03" cType="1" res="-8.6262021213769913e-03" rms="1.8066474795341492e-01" purity="1.8721267580986023e-01" nType="0">
          <Node pos="l" depth="2" NCoef="0" IVar="7" Cut="-2.6083177328109741e-01" cType="1" res="-1.9892833661288023e-03" rms="1.2652231752872467e-01" purity="2.3107642307877541e-02" nType="0">
            <Node pos="l" depth="3" NCoef="0" IVar="-1" Cut="0.0000000000000000e+00" cType="1" res="-5.1351241767406464e-02" rms="1.2453208863735199e-01" purity="1.9943017512559891e-02" nType="-99"/>
            <Node pos="r" depth="3" NCoef="0" IVar="-1" Cut="0.0000000000000000e+00" cType="1" res="2.1647097542881966e-02" rms="1.2722034752368927e-01" purity="2.4766659364104271e-02" nType="-99"/>
          </Node>
          <Node pos="r" depth="2" NCoef="0" IVar="-1" Cut="0.0000000000000000e+00" cType="1" res="-3.3498410135507584e-02" rms="2.7635070681571960e-01" purity="6.2290984392166138e-01" nType="-99"/>
        </Node>
        <Node pos="r" depth="1" NCoef="0" IVar="10" Cut="1.7331877946853638e+00" cType="1" res="1.6433768905699253e-03" rms="1.8272504210472107e-01" purity="5.3432828187942505e-01" nType="0">
          <Node pos="l" depth="2" NCoef="0" IVar="3" Cut="7.1375769042968750e+02" cType="1" res="2.3604878224432468e-03" rms="1.8015280365943909e-01" purity="5.5351662635803223e-01" nType="0">
            <Node pos="l" depth="3" NCoef="0" IVar="-1" Cut="0.0000000000000000e+00" cType="1" res="8.8221924379467964e-03" rms="1.8256013095378876e-01" purity="5.3091084957122803e-01" nType="-99"/>
            <Node pos="r" depth="3" NCoef="0" IVar="-1" Cut="0.0000000000000000e+00" cType="1" res="-6.5975055098533630e-02" rms="1.2714800238609314e-01" purity="9.7222512960433960e-01" nType="-99"/>
          </Node>
          <Node pos="r" depth="2" NCoef="0" IVar="0" Cut="1.7370120849609375e+03" cType="1" res="-8.8539989665150642e-03" rms="2.1664325892925262e-01" purity="2.5344038009643555e-01" nType="0">
            <Node pos="l" depth="3" NCoef="0" IVar="-1" Cut="0.0000000000000000e+00" cType="1" res="-6.4443930750712752e-04" rms="1.0623233765363693e-01" purity="1.1459556408226490e-02" nType="-99"/>
            <Node pos="r" depth="3" NCoef="0" IVar="-1" Cut="0.0000000000000000e+00" cType="1" res="-2.2426947951316833e-02" rms="2.7959537506103516e-01" purity="4.6635469794273376e-01" nType="-99"/>
          </Node>
        </Node>
      </Node>
    </BinaryTree>
    <BinaryTree type="DecisionTree" boostWeight="1.0000000000000000e+00" itree="444">
      <Node pos="s" depth="0" NCoef="0" IVar="1" Cut="5.8063473552465439e-02" cType="1" res="-1.1076348600909114e-03" rms="1.8098074197769165e-01" purity="5.0471967458724976e-01" nType="0">
        <Node pos="l" depth="1" NCoef="0" IVar="1" Cut="3.3186156302690506e-02" cType="1" res="-5.3161070682108402e-03" rms="1.7946350574493408e-01" purity="2.3697848618030548e-01" nType="0">
          <Node pos="l" depth="2" NCoef="0" IVar="5" Cut="1.8324478149414062e+02" cType="1" res="-7.5314554851502180e-04" rms="1.6427084803581238e-01" purity="1.4282932877540588e-01" nType="0">
            <Node pos="l" depth="3" NCoef="0" IVar="-1" Cut="0.0000000000000000e+00" cType="1" res="-1.4198101125657558e-02" rms="1.4384034276008606e-01" purity="5.7447645813226700e-02" nType="-99"/>
            <Node pos="r" depth="3" NCoef="0" IVar="-1" Cut="0.0000000000000000e+00" cType="1" res="1.9197544082999229e-02" rms="2.4539469182491302e-01" purity="5.9601360559463501e-01" nType="-99"/>
          </Node>
          <Node pos="r" depth="2" NCoef="0" IVar="5" Cut="1.5645040893554688e+02" cType="1" res="-1.2701447121798992e-02" rms="2.0142319798469543e-01" purity="3.8936275243759155e-01" nType="0">
            <Node pos="l" depth="3" NCoef="0" IVar="-1" Cut="0.0000000000000000e+00" cType="1" res="-1.4848667196929455e-02" rms="1.7743206024169922e-01" purity="1.1604353785514832e-01" nType="-99"/>
            <Node pos="r" depth="3" NCoef="0" IVar="-1" Cut="0.0000000000000000e+00" cType="1" res="-4.0990281850099564e-02" rms="2.2385370731353760e-01" purity="6.7968821525573730e-01" nType="-99"/>
          </Node>
        </Node>
        <Node pos="r" depth="1" NCoef="0" IVar="8" Cut="9.7039029002189636e-02" cType="1" res="2.3675025440752506e-03" rms="1.8215079605579376e-01" purity="7.2580635547637939e-01" nType="0">
          <Node pos="l" depth="2" NCoef="0" IVar="8" Cut="-8.7331020832061768e-01" cType="1" res="-7.0727162528783083e-04" rms="1.8106296658515930e-01" purity="7.2683358192443848e-01" nType="0">
            <Node pos="l" depth="3" NCoef="0" IVar="-1" Cut="0.0000000000000000e+00" cType="1" res="2.0647730678319931e-02" rms="2.1124829351902008e-01" purity="5.8096981048583984e-01" nType="-99"/>
            <Node pos="r" depth="3" NCoef="0" IVar="-1" Cut="0.0000000000000000e+00" cType="1" res="-1.1725688353180885e-02" rms="1.7215290665626526e-01" purity="7.6514691114425659e-01" nType="-99"/>
          </Node>
          <Node pos="r" depth="2" NCoef="0" IVar="4" Cut="2.9688796997070312e+02" cType="1" res="6.1708660796284676e-03" rms="1.8341618776321411e-01" purity="7.2453558444976807e-01" nType="0">
            <Node pos="l" depth="3" NCoef="0" IVar="-1" Cut="0.0000000000000000e+00" cType="1" res="2.5123044848442078e-02" rms="2.3467557132244110e-01" purity="4.1836166381835938e-01" nType="-99"/>
            <Node pos="r" depth="3" NCoef="0" IVar="-1" Cut="0.0000000000000000e+00" cType="1" res="1.0358395520597696e-03" rms="1.2782382965087891e-01" purity="9.7057592868804932e-01" nType="-99"/>
          </Node>
        </Node>
      </Node>
    </BinaryTree>
    <BinaryTree type="DecisionTree" boostWeight="1.0000000000000000e+00" itree="445">
      <Node pos="s" depth="0" NCoef="0" IVar="7" Cut="1.0035191774368286e+00" cType="1" res="7.6235312735661864e-04" rms="1.8035052716732025e-01" purity="4.9877160787582397e-01" nType="0">
        <Node pos="l" depth="1" NCoef="0" IVar="11" Cut="-9.3302637338638306e-01" cType="1" res="-7.4865267379209399e-04" rms="1.8115301430225372e-01" purity="5.3976297378540039e-01" nType="0">
          <Node pos="l" depth="2" NCoef="0" IVar="7" Cut="-5.1813399791717529e-01" cType="1" res="4.1877087205648422e-03" rms="1.8951557576656342e-01" purity="4.9258273839950562e-01" nType="0">
            <Node pos="l" depth="3" NCoef="0" IVar="-1" Cut="0.0000000000000000e+00" cType="1" res="-1.0560110211372375e-02" rms="1.8138334155082703e-01" purity="3.2808527350425720e-01" nType="-99"/>
            <Node pos="r" depth="3" NCoef="0" IVar="-1" Cut="0.0000000000000000e+00" cType="1" res="2.2836361080408096e-02" rms="1.9362524151802063e-01" purity="5.8120965957641602e-01" nType="-99"/>
          </Node>
          <Node pos="r" depth="2" NCoef="0" IVar="10" Cut="1.7311904430389404e+00" cType="1" res="-2.2453672718256712e-03" rms="1.7851313948631287e-01" purity="5.5406808853149414e-01" nType="0">
            <Node pos="l" depth="3" NCoef="0" IVar="-1" Cut="0.0000000000000000e+00" cType="1" res="-4.4990568421781063e-03" rms="1.7534388601779938e-01" purity="5.7079297304153442e-01" nType="-99"/>
            <Node pos="r" depth="3" NCoef="0" IVar="-1" Cut="0.0000000000000000e+00" cType="1" res="-3.3521790057420731e-02" rms="2.2384320199489594e-01" purity="2.7933529019355774e-01" nType="-99"/>
          </Node>
        </Node>
        <Node pos="r" depth="1" NCoef="0" IVar="0" Cut="1.8060179443359375e+03" cType="1" res="1.1787549592554569e-02" rms="1.7398656904697418e-01" purity="1.9967442750930786e-01" nType="0">
          <Node pos="l" depth="2" NCoef="0" IVar="1" Cut="2.5049228221178055e-02" cType="1" res="3.2971990294754505e-03" rms="9.5286831259727478e-02" purity="9.7383866086602211e-03" nType="0">
            <Node pos="l" depth="3" NCoef="0" IVar="-1" Cut="0.0000000000000000e+00" cType="1" res="-5.9090226888656616e-02" rms="3.0617782846093178e-02" purity="9.2927936930209398e-04" nType="-99"/>
            <Node pos="r" depth="3" NCoef="0" IVar="-1" Cut="0.0000000000000000e+00" cType="1" res="8.7714783847332001e-02" rms="1.4610637724399567e-01" purity="2.3098481819033623e-02" nType="-99"/>
          </Node>
          <Node pos="r" depth="2" NCoef="0" IVar="-1" Cut="0.0000000000000000e+00" cType="1" res="3.7176977843046188e-02" rms="2.5519427657127380e-01" purity="5.1490271091461182e-01" nType="-99"/>
        </Node>
      </Node>
    </BinaryTree>
    <BinaryTree type="DecisionTree" boostWeight="1.0000000000000000e+00" itree="446">
      <Node pos="s" depth="0" NCoef="0" IVar="11" Cut="-2.0002520084381104e+00" cType="1" res="1.9158956129103899e-03" rms="1.8023782968521118e-01" purity="5.0326180458068848e-01" nType="0">
        <Node pos="l" depth="1" NCoef="0" IVar="-1" Cut="0.0000000000000000e+00" cType="1" res="3.3931910991668701e-02" rms="1.9933617115020752e-01" purity="2.7296179533004761e-01" nType="-99"/>
        <Node pos="r" depth="1" NCoef="0" IVar="11" Cut="1.6558535099029541e+00" cType="1" res="1.3477669563144445e-03" rms="1.7919889092445374e-01" purity="5.1491242647171021e-01" nType="0">
          <Node pos="l" depth="2" NCoef="0" IVar="7" Cut="2.3794910311698914e-01" cType="1" res="3.9822771213948727e-04" rms="1.7569471895694733e-01" purity="5.2725368738174438e-01" nType="0">
            <Node pos="l" depth="3" NCoef="0" IVar="-1" Cut="0.0000000000000000e+00" cType="1" res="6.6017298959195614e-03" rms="1.7652471363544464e-01" purity="5.6135171651840210e-01" nType="-99"/>
            <Node pos="r" depth="3" NCoef="0" IVar="-1" Cut="0.0000000000000000e+00" cType="1" res="-7.2950823232531548e-03" rms="1.7432211339473724e-01" purity="4.7261238098144531e-01" nType="-99"/>
          </Node>
          <Node pos="r" depth="2" NCoef="0" IVar="8" Cut="-4.0197014808654785e-01" cType="1" res="1.1020531877875328e-02" rms="2.1137137711048126e-01" purity="3.8919475674629211e-01" nType="0">
            <Node pos="l" depth="3" NCoef="0" IVar="-1" Cut="0.0000000000000000e+00" cType="1" res="-6.5311216749250889e-03" rms="2.3206001520156860e-01" purity="3.2691904902458191e-01" nType="-99"/>
            <Node pos="r" depth="3" NCoef="0" IVar="-1" Cut="0.0000000000000000e+00" cType="1" res="4.1837029159069061e-02" rms="2.0064416527748108e-01" purity="4.1826602816581726e-01" nType="-99"/>
          </Node>
        </Node>
      </Node>
    </BinaryTree>
    <BinaryTree type="DecisionTree" boostWeight="1.0000000000000000e+00" itree="447">
      <Node pos="s" depth="0" NCoef="0" IVar="8" Cut="1.1995071172714233e+00" cType="1" res="-1.1590879148570821e-04" rms="1.8050280213356018e-01" purity="5.0053083896636963e-01" nType="0">
        <Node pos="l" depth="1" NCoef="0" IVar="10" Cut="1.9996509552001953e+00" cType="1" res="-8.7508902652189136e-04" rms="1.8013910949230194e-01" purity="5.3582614660263062e-01" nType="0">
          <Node pos="l" depth="2" NCoef="0" IVar="10" Cut="-1.4283717870712280e+00" cType="1" res="-3.9233607822097838e-04" rms="1.7854176461696625e-01" purity="5.4697149991989136e-01" nType="0">
            <Node pos="l" depth="3" NCoef="0" IVar="-1" Cut="0.0000000000000000e+00" cType="1" res="1.8365070223808289e-02" rms="1.9863623380661011e-01" purity="3.6297929286956787e-01" nType="-99"/>
            <Node pos="r" depth="3" NCoef="0" IVar="-1" Cut="0.0000000000000000e+00" cType="1" res="-4.0232250466942787e-03" rms="1.7615811526775360e-01" purity="5.6730699539184570e-01" nType="-99"/>
          </Node>
          <Node pos="r" depth="2" NCoef="0" IVar="-1" Cut="0.0000000000000000e+00" cType="1" res="-3.0611746013164520e-02" rms="2.2107397019863129e-01" purity="2.1238957345485687e-01" nType="-99"/>
        </Node>
        <Node pos="r" depth="1" NCoef="0" IVar="6" Cut="1.0680342102050781e+02" cType="1" res="6.2385345809161663e-03" rms="1.8339549005031586e-01" purity="2.0510421693325043e-01" nType="0">
          <Node pos="l" depth="2" NCoef="0" IVar="8" Cut="1.5041341781616211e+00" cType="1" res="8.8675145525485277e-04" rms="1.3180883228778839e-01" purity="4.8964705318212509e-02" nType="0">
            <Node pos="l" depth="3" NCoef="0" IVar="-1" Cut="0.0000000000000000e+00" cType="1" res="3.0536945909261703e-02" rms="1.7046289145946503e-01" purity="1.0079652816057205e-01" nType="-99"/>
            <Node pos="r" depth="3" NCoef="0" IVar="-1" Cut="0.0000000000000000e+00" cType="1" res="-3.7886835634708405e-02" rms="9.7323402762413025e-02" purity="1.4222094789147377e-02" nType="-99"/>
          </Node>
          <Node pos="r" depth="2" NCoef="0" IVar="-1" Cut="0.0000000000000000e+00" cType="1" res="2.7211708948016167e-02" rms="2.5090885162353516e-01" purity="4.8806333541870117e-01" nType="-99"/>
        </Node>
      </Node>
    </BinaryTree>
    <BinaryTree type="DecisionTree" boostWeight="1.0000000000000000e+00" itree="448">
      <Node pos="s" depth="0" NCoef="0" IVar="10" Cut="-1.4659042358398438e+00" cType="1" res="1.1410564184188843e-03" rms="1.8011921644210815e-01" purity="5.0283586978912354e-01" nType="0">
        <Node pos="l" depth="1" NCoef="0" IVar="1" Cut="7.2768919169902802e-02" cType="1" res="-6.8949293345212936e-03" rms="1.9500781595706940e-01" purity="3.1381890177726746e-01" nType="0">
          <Node pos="l" depth="2" NCoef="0" IVar="8" Cut="1.3204522430896759e-01" cType="1" res="-9.5831340877339244e-04" rms="1.7762863636016846e-01" purity="1.6569530963897705e-01" nType="0">
            <Node pos="l" depth="3" NCoef="0" IVar="-1" Cut="0.0000000000000000e+00" cType="1" res="1.3465556316077709e-02" rms="1.7464737594127655e-01" purity="1.7179960012435913e-01" nType="-99"/>
            <Node pos="r" depth="3" NCoef="0" IVar="-1" Cut="0.0000000000000000e+00" cType="1" res="-2.9200108721852303e-02" rms="1.8171267211437225e-01" purity="1.5645767748355865e-01" nType="-99"/>
          </Node>
          <Node pos="r" depth="2" NCoef="0" IVar="-1" Cut="0.0000000000000000e+00" cType="1" res="-3.9047665894031525e-02" rms="2.2356288135051727e-01" purity="5.9154057502746582e-01" nType="-99"/>
        </Node>
        <Node pos="r" depth="1" NCoef="0" IVar="4" Cut="2.6014251708984375e+02" cType="1" res="2.0108683966100216e-03" rms="1.7841146886348724e-01" purity="5.2329498529434204e-01" nType="0">
          <Node pos="l" depth="2" NCoef="0" IVar="5" Cut="1.3043489074707031e+02" cType="1" res="4.7326791100203991e-03" rms="1.9184643030166626e-01" purity="1.6897462308406830e-01" nType="0">
            <Node pos="l" depth="3" NCoef="0" IVar="-1" Cut="0.0000000000000000e+00" cType="1" res="-2.8903835918754339e-03" rms="1.3830254971981049e-01" purity="3.7553735077381134e-02" nType="-99"/>
            <Node pos="r" depth="3" NCoef="0" IVar="-1" Cut="0.0000000000000000e+00" cType="1" res="1.9361985847353935e-02" rms="2.4138113856315613e-01" purity="3.2907545566558838e-01" nType="-99"/>
          </Node>
          <Node pos="r" depth="2" NCoef="0" IVar="6" Cut="1.1274250030517578e+02" cType="1" res="-8.9403457241132855e-04" rms="1.6280443966388702e-01" purity="9.0144997835159302e-01" nType="0">
            <Node pos="l" depth="3" NCoef="0" IVar="-1" Cut="0.0000000000000000e+00" cType="1" res="-1.6222929581999779e-02" rms="2.5915047526359558e-01" purity="6.2297642230987549e-01" nType="-99"/>
            <Node pos="r" depth="3" NCoef="0" IVar="-1" Cut="0.0000000000000000e+00" cType="1" res="5.2130189724266529e-03" rms="1.3732939958572388e-01" purity="9.5365822315216064e-01" nType="-99"/>
          </Node>
        </Node>
      </Node>
    </BinaryTree>
    <BinaryTree type="DecisionTree" boostWeight="1.0000000000000000e+00" itree="449">
      <Node pos="s" depth="0" NCoef="0" IVar="11" Cut="1.3297325372695923e-01" cType="1" res="-1.2702288804575801e-03" rms="1.8099716305732727e-01" purity="5.0155216455459595e-01" nType="0">
        <Node pos="l" depth="1" NCoef="0" IVar="5" Cut="2.2157540893554688e+02" cType="1" res="1.1224268237128854e-03" rms="1.7977638542652130e-01" purity="5.0490033626556396e-01" nType="0">
          <Node pos="l" depth="2" NCoef="0" IVar="0" Cut="2.1315144042968750e+03" cType="1" res="3.6416691727936268e-03" rms="1.9763682782649994e-01" purity="2.6198324561119080e-01" nType="0">
            <Node pos="l" depth="3" NCoef="0" IVar="-1" Cut="0.0000000000000000e+00" cType="1" res="5.6445592781528831e-04" rms="1.5781371295452118e-01" purity="3.7960458546876907e-02" nType="-99"/>
            <Node pos="r" depth="3" NCoef="0" IVar="-1" Cut="0.0000000000000000e+00" cType="1" res="1.6633508726954460e-02" rms="2.7086344361305237e-01" purity="8.0654293298721313e-01" nType="-99"/>
          </Node>
          <Node pos="r" depth="2" NCoef="0" IVar="2" Cut="5.5163421630859375e+02" cType="1" res="-3.5058038774877787e-03" rms="1.4107677340507507e-01" purity="9.5117604732513428e-01" nType="0">
            <Node pos="l" depth="3" NCoef="0" IVar="-1" Cut="0.0000000000000000e+00" cType="1" res="-2.9615623876452446e-02" rms="2.1715289354324341e-01" purity="8.4480142593383789e-01" nType="-99"/>
            <Node pos="r" depth="3" NCoef="0" IVar="-1" Cut="0.0000000000000000e+00" cType="1" res="-5.6415894068777561e-03" rms="1.1057686805725098e-01" purity="9.8099112510681152e-01" nType="-99"/>
          </Node>
        </Node>
        <Node pos="r" depth="1" NCoef="0" IVar="3" Cut="2.4783833312988281e+02" cType="1" res="-4.1433675214648247e-03" rms="1.8241085112094879e-01" purity="4.9753162264823914e-01" nType="0">
          <Node pos="l" depth="2" NCoef="0" IVar="11" Cut="8.9432424306869507e-01" cType="1" res="3.5795609001070261e-03" rms="1.5606057643890381e-01" purity="4.7995209693908691e-02" nType="0">
            <Node pos="l" depth="3" NCoef="0" IVar="-1" Cut="0.0000000000000000e+00" cType="1" res="-3.1351372599601746e-02" rms="1.2981544435024261e-01" purity="3.7114813923835754e-02" nType="-99"/>
            <Node pos="r" depth="3" NCoef="0" IVar="-1" Cut="0.0000000000000000e+00" cType="1" res="4.8074722290039062e-02" rms="1.7226003110408783e-01" purity="5.5874306708574295e-02" nType="-99"/>
          </Node>
          <Node pos="r" depth="2" NCoef="0" IVar="0" Cut="3.1311005859375000e+03" cType="1" res="-6.4831883646547794e-03" rms="1.8961094319820404e-01" purity="6.3372790813446045e-01" nType="0">
            <Node pos="l" depth="3" NCoef="0" IVar="-1" Cut="0.0000000000000000e+00" cType="1" res="-2.0252831280231476e-02" rms="2.3050655424594879e-01" purity="4.3960747122764587e-01" nType="-99"/>
            <Node pos="r" depth="3" NCoef="0" IVar="-1" Cut="0.0000000000000000e+00" cType="1" res="3.6070115864276886e-02" rms="6.2695473432540894e-02" purity="9.9408680200576782e-01" nType="-99"/>
          </Node>
        </Node>
      </Node>
    </BinaryTree>
    <BinaryTree type="DecisionTree" boostWeight="1.0000000000000000e+00" itree="450">
      <Node pos="s" depth="0" NCoef="0" IVar="10" Cut="4.0041023492813110e-01" cType="1" res="-2.0975889638066292e-03" rms="1.8041294813156128e-01" purity="5.0048804283142090e-01" nType="0">
        <Node pos="l" depth="1" NCoef="0" IVar="7" Cut="1.2565906047821045e+00" cType="1" res="2.3252713435795158e-04" rms="1.7549429833889008e-01" purity="5.1561862230300903e-01" nType="0">
          <Node pos="l" depth="2" NCoef="0" IVar="10" Cut="-2.0366992950439453e+00" cType="1" res="-5.4419622756540775e-04" rms="1.7960259318351746e-01" purity="5.4723280668258667e-01" nType="0">
            <Node pos="l" depth="3" NCoef="0" IVar="-1" Cut="0.0000000000000000e+00" cType="1" res="-2.9101610183715820e-02" rms="1.9894193112850189e-01" purity="2.1805466711521149e-01" nType="-99"/>
            <Node pos="r" depth="3" NCoef="0" IVar="-1" Cut="0.0000000000000000e+00" cType="1" res="8.4625025920104235e-05" rms="1.7855118215084076e-01" purity="5.6386023759841919e-01" nType="-99"/>
          </Node>
          <Node pos="r" depth="2" NCoef="0" IVar="-1" Cut="0.0000000000000000e+00" cType="1" res="4.4499166309833527e-02" rms="1.0919262468814850e-01" purity="1.0890989750623703e-01" nType="-99"/>
        </Node>
        <Node pos="r" depth="1" NCoef="0" IVar="6" Cut="9.3740997314453125e+01" cType="1" res="-6.2039317563176155e-03" rms="1.8869933485984802e-01" purity="4.7382339835166931e-01" nType="0">
          <Node pos="l" depth="2" NCoef="0" IVar="11" Cut="1.1988285779953003e+00" cType="1" res="4.6140296035446227e-04" rms="1.7359784245491028e-01" purity="1.0958647727966309e-01" nType="0">
            <Node pos="l" depth="3" NCoef="0" IVar="-1" Cut="0.0000000000000000e+00" cType="1" res="1.7412906512618065e-02" rms="1.7413456737995148e-01" purity="1.1388577520847321e-01" nType="-99"/>
            <Node pos="r" depth="3" NCoef="0" IVar="-1" Cut="0.0000000000000000e+00" cType="1" res="-3.6751762032508850e-02" rms="1.7151048779487610e-01" purity="9.7688958048820496e-02" nType="-99"/>
          </Node>
          <Node pos="r" depth="2" NCoef="0" IVar="7" Cut="-7.8901910781860352e-01" cType="1" res="-9.4762323424220085e-03" rms="1.9560414552688599e-01" purity="6.5264302492141724e-01" nType="0">
            <Node pos="l" depth="3" NCoef="0" IVar="-1" Cut="0.0000000000000000e+00" cType="1" res="-5.4693061858415604e-02" rms="2.3398423194885254e-01" purity="3.9923569560050964e-01" nType="-99"/>
            <Node pos="r" depth="3" NCoef="0" IVar="-1" Cut="0.0000000000000000e+00" cType="1" res="-1.7341647297143936e-02" rms="1.8828241527080536e-01" purity="6.9470214843750000e-01" nType="-99"/>
          </Node>
        </Node>
      </Node>
    </BinaryTree>
    <BinaryTree type="DecisionTree" boostWeight="1.0000000000000000e+00" itree="451">
      <Node pos="s" depth="0" NCoef="0" IVar="3" Cut="4.2296096801757812e+02" cType="1" res="2.8503636713139713e-04" rms="1.8261216580867767e-01" purity="4.9947625398635864e-01" nType="0">
        <Node pos="l" depth="1" NCoef="0" IVar="3" Cut="3.8894857788085938e+02" cType="1" res="2.3297597654163837e-03" rms="1.9665488600730896e-01" purity="2.5597077608108521e-01" nType="0">
          <Node pos="l" depth="2" NCoef="0" IVar="3" Cut="3.5817401123046875e+02" cType="1" res="3.7763575091958046e-03" rms="1.9395352900028229e-01" purity="2.0469561219215393e-01" nType="0">
            <Node pos="l" depth="3" NCoef="0" IVar="-1" Cut="0.0000000000000000e+00" cType="1" res="6.1454642564058304e-03" rms="1.9027748703956604e-01" purity="1.5558044612407684e-01" nType="-99"/>
            <Node pos="r" depth="3" NCoef="0" IVar="-1" Cut="0.0000000000000000e+00" cType="1" res="3.1397283077239990e-02" rms="2.2198677062988281e-01" purity="6.1719167232513428e-01" nType="-99"/>
          </Node>
          <Node pos="r" depth="2" NCoef="0" IVar="4" Cut="2.8734066772460938e+02" cType="1" res="-9.6351671963930130e-03" rms="2.1734790503978729e-01" purity="6.8007165193557739e-01" nType="0">
            <Node pos="l" depth="3" NCoef="0" IVar="-1" Cut="0.0000000000000000e+00" cType="1" res="8.0865895142778754e-04" rms="2.3712483048439026e-01" purity="4.1078251600265503e-01" nType="-99"/>
            <Node pos="r" depth="3" NCoef="0" IVar="-1" Cut="0.0000000000000000e+00" cType="1" res="-4.0958300232887268e-02" rms="2.0241944491863251e-01" purity="8.6427766084671021e-01" nType="-99"/>
          </Node>
        </Node>
        <Node pos="r" depth="1" NCoef="0" IVar="1" Cut="6.5150618553161621e-02" cType="1" res="-3.0288451816886663e-03" rms="1.5715499222278595e-01" purity="8.9412540197372437e-01" nType="0">
          <Node pos="l" depth="2" NCoef="0" IVar="10" Cut="6.6122877597808838e-01" cType="1" res="-9.9091669544577599e-03" rms="2.1337063610553741e-01" purity="7.3092126846313477e-01" nType="0">
            <Node pos="l" depth="3" NCoef="0" IVar="-1" Cut="0.0000000000000000e+00" cType="1" res="-4.9908142536878586e-03" rms="2.0059141516685486e-01" purity="7.6573419570922852e-01" nType="-99"/>
            <Node pos="r" depth="3" NCoef="0" IVar="-1" Cut="0.0000000000000000e+00" cType="1" res="-5.1875922828912735e-02" rms="2.4408602714538574e-01" purity="6.3442236185073853e-01" nType="-99"/>
          </Node>
          <Node pos="r" depth="2" NCoef="0" IVar="5" Cut="1.9006616210937500e+02" cType="1" res="7.8145370935089886e-05" rms="1.2353391945362091e-01" purity="9.6782451868057251e-01" nType="0">
            <Node pos="l" depth="3" NCoef="0" IVar="-1" Cut="0.0000000000000000e+00" cType="1" res="1.5448907390236855e-02" rms="2.1989488601684570e-01" purity="8.4934282302856445e-01" nType="-99"/>
            <Node pos="r" depth="3" NCoef="0" IVar="-1" Cut="0.0000000000000000e+00" cType="1" res="-1.5877626836299896e-02" rms="9.7391620278358459e-02" purity="9.8845207691192627e-01" nType="-99"/>
          </Node>
        </Node>
      </Node>
    </BinaryTree>
    <BinaryTree type="DecisionTree" boostWeight="1.0000000000000000e+00" itree="452">
      <Node pos="s" depth="0" NCoef="0" IVar="6" Cut="1.1236903381347656e+02" cType="1" res="-3.1321798451244831e-04" rms="1.8234217166900635e-01" purity="5.1018702983856201e-01" nType="0">
        <Node pos="l" depth="1" NCoef="0" IVar="3" Cut="4.5047451782226562e+02" cType="1" res="-2.6049120351672173e-03" rms="1.8306921422481537e-01" purity="1.4966073632240295e-01" nType="0">
          <Node pos="l" depth="2" NCoef="0" IVar="0" Cut="1.9900402832031250e+03" cType="1" res="-4.2637861333787441e-03" rms="1.6929896175861359e-01" purity="7.6685570180416107e-02" nType="0">
            <Node pos="l" depth="3" NCoef="0" IVar="-1" Cut="0.0000000000000000e+00" cType="1" res="-1.2989766895771027e-02" rms="1.1365193873643875e-01" purity="1.5044112689793110e-02" nType="-99"/>
            <Node pos="r" depth="3" NCoef="0" IVar="-1" Cut="0.0000000000000000e+00" cType="1" res="-1.6043053939938545e-02" rms="3.4477308392524719e-01" purity="4.3068861961364746e-01" nType="-99"/>
          </Node>
          <Node pos="r" depth="2" NCoef="0" IVar="3" Cut="5.4344824218750000e+02" cType="1" res="9.0490756556391716e-03" rms="2.5970569252967834e-01" purity="6.6232866048812866e-01" nType="0">
            <Node pos="l" depth="3" NCoef="0" IVar="-1" Cut="0.0000000000000000e+00" cType="1" res="-4.8084808513522148e-03" rms="2.5899258255958557e-01" purity="5.0136369466781616e-01" nType="-99"/>
            <Node pos="r" depth="3" NCoef="0" IVar="-1" Cut="0.0000000000000000e+00" cType="1" res="3.3036794513463974e-02" rms="2.5981310009956360e-01" purity="8.2084971666336060e-01" nType="-99"/>
          </Node>
        </Node>
        <Node pos="r" depth="1" NCoef="0" IVar="8" Cut="1.1998844146728516e+00" cType="1" res="1.5075068222358823e-03" rms="1.8174186348915100e-01" purity="7.9662108421325684e-01" nType="0">
          <Node pos="l" depth="2" NCoef="0" IVar="0" Cut="2.3650415039062500e+03" cType="1" res="2.6113877538591623e-03" rms="1.7747032642364502e-01" purity="8.1771224737167358e-01" nType="0">
            <Node pos="l" depth="3" NCoef="0" IVar="-1" Cut="0.0000000000000000e+00" cType="1" res="1.4003818854689598e-02" rms="2.8879848122596741e-01" purity="2.5196591019630432e-01" nType="-99"/>
            <Node pos="r" depth="3" NCoef="0" IVar="-1" Cut="0.0000000000000000e+00" cType="1" res="1.1106031161034480e-04" rms="1.2985685467720032e-01" purity="9.7686052322387695e-01" nType="-99"/>
          </Node>
          <Node pos="r" depth="2" NCoef="0" IVar="-1" Cut="0.0000000000000000e+00" cType="1" res="-2.3223929107189178e-02" rms="2.3442693054676056e-01" purity="4.9148803949356079e-01" nType="-99"/>
        </Node>
      </Node>
    </BinaryTree>
    <BinaryTree type="DecisionTree" boostWeight="1.0000000000000000e+00" itree="453">
      <Node pos="s" depth="0" NCoef="0" IVar="9" Cut="-1.4657210111618042e+00" cType="1" res="-6.6339748445898294e-04" rms="1.8197746574878693e-01" purity="5.0107723474502563e-01" nType="0">
        <Node pos="l" depth="1" NCoef="0" IVar="0" Cut="1.7468061523437500e+03" cType="1" res="-8.6511028930544853e-03" rms="1.7957535386085510e-01" purity="1.7863479256629944e-01" nType="0">
          <Node pos="l" depth="2" NCoef="0" IVar="-1" Cut="0.0000000000000000e+00" cType="1" res="-1.3005890883505344e-02" rms="8.6223483085632324e-02" purity="8.5389809682965279e-03" nType="-99"/>
          <Node pos="r" depth="2" NCoef="0" IVar="-1" Cut="0.0000000000000000e+00" cType="1" res="-2.8469540178775787e-02" rms="2.6493608951568604e-01" purity="4.4022610783576965e-01" nType="-99"/>
        </Node>
        <Node pos="r" depth="1" NCoef="0" IVar="11" Cut="-9.3143057823181152e-01" cType="1" res="5.2669292927021161e-05" rms="1.8217414617538452e-01" purity="5.2998292446136475e-01" nType="0">
          <Node pos="l" depth="2" NCoef="0" IVar="11" Cut="-1.1092156171798706e+00" cType="1" res="-4.4324332848191261e-03" rms="1.9157086312770844e-01" purity="4.8941588401794434e-01" nType="0">
            <Node pos="l" depth="3" NCoef="0" IVar="-1" Cut="0.0000000000000000e+00" cType="1" res="-6.3802124932408333e-03" rms="1.9652552902698517e-01" purity="4.7576040029525757e-01" nType="-99"/>
            <Node pos="r" depth="3" NCoef="0" IVar="-1" Cut="0.0000000000000000e+00" cType="1" res="-4.9195792526006699e-02" rms="1.6818910837173462e-01" purity="5.4853117465972900e-01" nType="-99"/>
          </Node>
          <Node pos="r" depth="2" NCoef="0" IVar="11" Cut="1.9115428924560547e+00" cType="1" res="1.3465298106893897e-03" rms="1.7935109138488770e-01" purity="5.4168576002120972e-01" nType="0">
            <Node pos="l" depth="3" NCoef="0" IVar="-1" Cut="0.0000000000000000e+00" cType="1" res="6.6249156370759010e-03" rms="1.7743848264217377e-01" purity="5.5499726533889771e-01" nType="-99"/>
            <Node pos="r" depth="3" NCoef="0" IVar="-1" Cut="0.0000000000000000e+00" cType="1" res="-2.1318813785910606e-02" rms="2.0511652529239655e-01" purity="3.4595972299575806e-01" nType="-99"/>
          </Node>
        </Node>
      </Node>
    </BinaryTree>
    <BinaryTree type="DecisionTree" boostWeight="1.0000000000000000e+00" itree="454">
      <Node pos="s" depth="0" NCoef="0" IVar="9" Cut="-1.7329754829406738e+00" cType="1" res="-1.4325919328257442e-03" rms="1.8169808387756348e-01" purity="4.9547725915908813e-01" nType="0">
        <Node pos="l" depth="1" NCoef="0" IVar="7" Cut="-2.7262346819043159e-02" cType="1" res="-1.2912442907691002e-02" rms="1.7107416689395905e-01" purity="1.1847682297229767e-01" nType="0">
          <Node pos="l" depth="2" NCoef="0" IVar="-1" Cut="0.0000000000000000e+00" cType="1" res="-2.4811733514070511e-02" rms="1.8745528161525726e-01" purity="1.2668570876121521e-01" nType="-99"/>
          <Node pos="r" depth="2" NCoef="0" IVar="-1" Cut="0.0000000000000000e+00" cType="1" res="-5.3256418555974960e-02" rms="1.5198177099227905e-01" purity="1.0990142822265625e-01" nType="-99"/>
        </Node>
        <Node pos="r" depth="1" NCoef="0" IVar="9" Cut="-6.5360093116760254e-01" cType="1" res="-7.9996278509497643e-04" rms="1.8224452435970306e-01" purity="5.1625293493270874e-01" nType="0">
          <Node pos="l" depth="2" NCoef="0" IVar="1" Cut="3.8312766700983047e-02" cType="1" res="4.1550658643245697e-03" rms="1.8570184707641602e-01" purity="4.6324566006660461e-01" nType="0">
            <Node pos="l" depth="3" NCoef="0" IVar="-1" Cut="0.0000000000000000e+00" cType="1" res="-1.3836142607033253e-02" rms="1.6210937500000000e-01" purity="1.4813515543937683e-01" nType="-99"/>
            <Node pos="r" depth="3" NCoef="0" IVar="-1" Cut="0.0000000000000000e+00" cType="1" res="2.2746713832020760e-02" rms="1.9737809896469116e-01" purity="6.3719922304153442e-01" nType="-99"/>
          </Node>
          <Node pos="r" depth="2" NCoef="0" IVar="10" Cut="-1.4659913778305054e+00" cType="1" res="-2.2909913677722216e-03" rms="1.8116472661495209e-01" purity="5.3220343589782715e-01" nType="0">
            <Node pos="l" depth="3" NCoef="0" IVar="-1" Cut="0.0000000000000000e+00" cType="1" res="1.7015628516674042e-02" rms="2.2347673773765564e-01" purity="3.8799577951431274e-01" nType="-99"/>
            <Node pos="r" depth="3" NCoef="0" IVar="-1" Cut="0.0000000000000000e+00" cType="1" res="-9.8740933462977409e-03" rms="1.7677457630634308e-01" purity="5.4535388946533203e-01" nType="-99"/>
          </Node>
        </Node>
      </Node>
    </BinaryTree>
    <BinaryTree type="DecisionTree" boostWeight="1.0000000000000000e+00" itree="455">
      <Node pos="s" depth="0" NCoef="0" IVar="9" Cut="1.1994045972824097e+00" cType="1" res="1.7575088349985890e-05" rms="1.7605492472648621e-01" purity="4.9355661869049072e-01" nType="0">
        <Node pos="l" depth="1" NCoef="0" IVar="2" Cut="3.1478073120117188e+02" cType="1" res="-9.0275070397183299e-04" rms="1.7476056516170502e-01" purity="5.1953917741775513e-01" nType="0">
          <Node pos="l" depth="2" NCoef="0" IVar="9" Cut="-3.2018297910690308e-01" cType="1" res="8.3590764552354813e-03" rms="1.7379567027091980e-01" purity="5.8218624442815781e-02" nType="0">
            <Node pos="l" depth="3" NCoef="0" IVar="-1" Cut="0.0000000000000000e+00" cType="1" res="6.2174431979656219e-02" rms="1.8678833544254303e-01" purity="6.9208629429340363e-02" nType="-99"/>
            <Node pos="r" depth="3" NCoef="0" IVar="-1" Cut="0.0000000000000000e+00" cType="1" res="8.5288919508457184e-03" rms="1.6123689711093903e-01" purity="4.8546135425567627e-02" nType="-99"/>
          </Node>
          <Node pos="r" depth="2" NCoef="0" IVar="0" Cut="2.6364296875000000e+03" cType="1" res="-1.5801005065441132e-03" rms="1.7481166124343872e-01" purity="5.5327713489532471e-01" nType="0">
            <Node pos="l" depth="3" NCoef="0" IVar="-1" Cut="0.0000000000000000e+00" cType="1" res="-8.1196129322052002e-03" rms="2.1331754326820374e-01" purity="1.7534083127975464e-01" nType="-99"/>
            <Node pos="r" depth="3" NCoef="0" IVar="-1" Cut="0.0000000000000000e+00" cType="1" res="6.5618013031780720e-03" rms="1.1737462133169174e-01" purity="9.7734284400939941e-01" nType="-99"/>
          </Node>
        </Node>
        <Node pos="r" depth="1" NCoef="0" IVar="5" Cut="1.7979794311523438e+02" cType="1" res="6.6404701210558414e-03" rms="1.8496774137020111e-01" purity="3.0657961964607239e-01" nType="0">
          <Node pos="l" depth="2" NCoef="0" IVar="7" Cut="2.3270304501056671e-01" cType="1" res="1.6472194110974669e-03" rms="1.6821645200252533e-01" purity="1.1732750385999680e-01" nType="0">
            <Node pos="l" depth="3" NCoef="0" IVar="-1" Cut="0.0000000000000000e+00" cType="1" res="2.3430012166500092e-02" rms="1.7834675312042236e-01" purity="1.2577876448631287e-01" nType="-99"/>
            <Node pos="r" depth="3" NCoef="0" IVar="-1" Cut="0.0000000000000000e+00" cType="1" res="-2.1141320466995239e-02" rms="1.5397460758686066e-01" purity="1.0654158145189285e-01" nType="-99"/>
          </Node>
          <Node pos="r" depth="2" NCoef="0" IVar="-1" Cut="0.0000000000000000e+00" cType="1" res="3.7838928401470184e-02" rms="2.2268436849117279e-01" purity="8.0606883764266968e-01" nType="-99"/>
        </Node>
      </Node>
    </BinaryTree>
    <BinaryTree type="DecisionTree" boostWeight="1.0000000000000000e+00" itree="456">
      <Node pos="s" depth="0" NCoef="0" IVar="10" Cut="-9.3259066343307495e-01" cType="1" res="1.3279609847813845e-03" rms="1.7825500667095184e-01" purity="4.9599117040634155e-01" nType="0">
        <Node pos="l" depth="1" NCoef="0" IVar="0" Cut="2.5140695800781250e+03" cType="1" res="-5.3768716752529144e-03" rms="1.7949229478836060e-01" purity="4.0668883919715881e-01" nType="0">
          <Node pos="l" depth="2" NCoef="0" IVar="0" Cut="1.6652641601562500e+03" cType="1" res="-9.2722782865166664e-03" rms="1.9146916270256042e-01" purity="1.1089429259300232e-01" nType="0">
            <Node pos="l" depth="3" NCoef="0" IVar="-1" Cut="0.0000000000000000e+00" cType="1" res="6.3342237845063210e-03" rms="8.1764943897724152e-02" purity="7.1446318179368973e-03" nType="-99"/>
            <Node pos="r" depth="3" NCoef="0" IVar="-1" Cut="0.0000000000000000e+00" cType="1" res="-2.5171689689159393e-02" rms="2.6746499538421631e-01" purity="2.3243734240531921e-01" nType="-99"/>
          </Node>
          <Node pos="r" depth="2" NCoef="0" IVar="9" Cut="-1.3314938545227051e-01" cType="1" res="1.8333607586100698e-03" rms="1.5464051067829132e-01" purity="9.5419192314147949e-01" nType="0">
            <Node pos="l" depth="3" NCoef="0" IVar="-1" Cut="0.0000000000000000e+00" cType="1" res="2.6263624429702759e-02" rms="1.5443973243236542e-01" purity="9.6134155988693237e-01" nType="-99"/>
            <Node pos="r" depth="3" NCoef="0" IVar="-1" Cut="0.0000000000000000e+00" cType="1" res="-1.0658003389835358e-02" rms="1.5466779470443726e-01" purity="9.4786095619201660e-01" nType="-99"/>
          </Node>
        </Node>
        <Node pos="r" depth="1" NCoef="0" IVar="5" Cut="1.3708111572265625e+02" cType="1" res="3.1291460618376732e-03" rms="1.7787808179855347e-01" purity="5.1998132467269897e-01" nType="0">
          <Node pos="l" depth="2" NCoef="0" IVar="0" Cut="1.8876590576171875e+03" cType="1" res="6.9621736183762550e-03" rms="1.6843295097351074e-01" purity="8.3854883909225464e-02" nType="0">
            <Node pos="l" depth="3" NCoef="0" IVar="-1" Cut="0.0000000000000000e+00" cType="1" res="2.7842838317155838e-02" rms="1.0056553035974503e-01" purity="1.1098416522145271e-02" nType="-99"/>
            <Node pos="r" depth="3" NCoef="0" IVar="-1" Cut="0.0000000000000000e+00" cType="1" res="2.6211010292172432e-02" rms="3.1112819910049438e-01" purity="3.5812872648239136e-01" nType="-99"/>
          </Node>
          <Node pos="r" depth="2" NCoef="0" IVar="3" Cut="3.3984484863281250e+02" cType="1" res="1.1921009281650186e-03" rms="1.8243475258350372e-01" purity="7.4038070440292358e-01" nType="0">
            <Node pos="l" depth="3" NCoef="0" IVar="-1" Cut="0.0000000000000000e+00" cType="1" res="-7.6900734566152096e-03" rms="2.2856232523918152e-01" purity="2.6908674836158752e-01" nType="-99"/>
            <Node pos="r" depth="3" NCoef="0" IVar="-1" Cut="0.0000000000000000e+00" cType="1" res="1.2068040668964386e-02" rms="1.6026957333087921e-01" purity="9.2879223823547363e-01" nType="-99"/>
          </Node>
        </Node>
      </Node>
    </BinaryTree>
    <BinaryTree type="DecisionTree" boostWeight="1.0000000000000000e+00" itree="457">
      <Node pos="s" depth="0" NCoef="0" IVar="0" Cut="2.7313776855468750e+03" cType="1" res="4.4236454414203763e-04" rms="1.8536792695522308e-01" purity="4.9829256534576416e-01" nType="0">
        <Node pos="l" depth="1" NCoef="0" IVar="8" Cut="4.0273374319076538e-01" cType="1" res="2.7015607338398695e-03" rms="2.1459648013114929e-01" purity="1.9691711664199829e-01" nType="0">
          <Node pos="l" depth="2" NCoef="0" IVar="3" Cut="4.5860406494140625e+02" cType="1" res="5.1622656174004078e-03" rms="2.1712225675582886e-01" purity="2.0944188535213470e-01" nType="0">
            <Node pos="l" depth="3" NCoef="0" IVar="-1" Cut="0.0000000000000000e+00" cType="1" res="8.2436557859182358e-03" rms="2.1140934526920319e-01" purity="1.7891332507133484e-01" nType="-99"/>
            <Node pos="r" depth="3" NCoef="0" IVar="-1" Cut="0.0000000000000000e+00" cType="1" res="2.7390433475375175e-02" rms="2.7826368808746338e-01" purity="5.9272640943527222e-01" nType="-99"/>
          </Node>
          <Node pos="r" depth="2" NCoef="0" IVar="4" Cut="2.7098361206054688e+02" cType="1" res="-1.4910009922459722e-03" rms="2.1015678346157074e-01" purity="1.7557735741138458e-01" nType="0">
            <Node pos="l" depth="3" NCoef="0" IVar="-1" Cut="0.0000000000000000e+00" cType="1" res="6.2810312956571579e-03" rms="1.8648338317871094e-01" purity="1.0308791697025299e-01" nType="-99"/>
            <Node pos="r" depth="3" NCoef="0" IVar="-1" Cut="0.0000000000000000e+00" cType="1" res="-2.2511929273605347e-02" rms="3.1623175740242004e-01" purity="6.1097556352615356e-01" nType="-99"/>
          </Node>
        </Node>
        <Node pos="r" depth="1" NCoef="0" IVar="0" Cut="2.9343120117187500e+03" cType="1" res="-3.1280904076993465e-03" rms="1.2595579028129578e-01" purity="9.7458922863006592e-01" nType="0">
          <Node pos="l" depth="2" NCoef="0" IVar="8" Cut="-5.7866800576448441e-02" cType="1" res="-1.4819399453699589e-02" rms="2.1239514648914337e-01" purity="9.1389971971511841e-01" nType="0">
            <Node pos="l" depth="3" NCoef="0" IVar="-1" Cut="0.0000000000000000e+00" cType="1" res="-7.7205464243888855e-02" rms="2.2750174999237061e-01" purity="8.9804792404174805e-01" nType="-99"/>
            <Node pos="r" depth="3" NCoef="0" IVar="-1" Cut="0.0000000000000000e+00" cType="1" res="2.0325293298810720e-03" rms="1.9494117796421051e-01" purity="9.2968195676803589e-01" nType="-99"/>
          </Node>
          <Node pos="r" depth="2" NCoef="0" IVar="10" Cut="1.3262997567653656e-01" cType="1" res="-1.1410663137212396e-03" rms="1.0424474626779556e-01" purity="9.8490387201309204e-01" nType="0">
            <Node pos="l" depth="3" NCoef="0" IVar="-1" Cut="0.0000000000000000e+00" cType="1" res="1.1602854356169701e-02" rms="9.7785785794258118e-02" purity="9.8754113912582397e-01" nType="-99"/>
            <Node pos="r" depth="3" NCoef="0" IVar="-1" Cut="0.0000000000000000e+00" cType="1" res="-3.8619130849838257e-02" rms="1.1178279668092728e-01" purity="9.8158109188079834e-01" nType="-99"/>
          </Node>
        </Node>
      </Node>
    </BinaryTree>
    <BinaryTree type="DecisionTree" boostWeight="1.0000000000000000e+00" itree="458">
      <Node pos="s" depth="0" NCoef="0" IVar="10" Cut="1.9968700408935547e+00" cType="1" res="3.6691207787953317e-04" rms="1.8336299061775208e-01" purity="5.0789481401443481e-01" nType="0">
        <Node pos="l" depth="1" NCoef="0" IVar="10" Cut="-1.8849693536758423e+00" cType="1" res="-2.8677191585302353e-04" rms="1.8187232315540314e-01" purity="5.1859283447265625e-01" nType="0">
          <Node pos="l" depth="2" NCoef="0" IVar="-1" Cut="0.0000000000000000e+00" cType="1" res="-3.0178697779774666e-02" rms="2.0552662014961243e-01" purity="2.0336635410785675e-01" nType="-99"/>
          <Node pos="r" depth="2" NCoef="0" IVar="1" Cut="6.4326971769332886e-02" cType="1" res="3.3116576378233731e-04" rms="1.8061420321464539e-01" purity="5.3399896621704102e-01" nType="0">
            <Node pos="l" depth="3" NCoef="0" IVar="-1" Cut="0.0000000000000000e+00" cType="1" res="8.6345691233873367e-03" rms="1.8858563899993896e-01" purity="2.8031975030899048e-01" nType="-99"/>
            <Node pos="r" depth="3" NCoef="0" IVar="-1" Cut="0.0000000000000000e+00" cType="1" res="-6.7467442713677883e-03" rms="1.7311991751194000e-01" purity="7.6143682003021240e-01" nType="-99"/>
          </Node>
        </Node>
        <Node pos="r" depth="1" NCoef="0" IVar="-1" Cut="0.0000000000000000e+00" cType="1" res="4.1986741125583649e-02" rms="2.1952310204505920e-01" purity="2.1511740982532501e-01" nType="-99"/>
      </Node>
    </BinaryTree>
    <BinaryTree type="DecisionTree" boostWeight="1.0000000000000000e+00" itree="459">
      <Node pos="s" depth="0" NCoef="0" IVar="11" Cut="1.7336289882659912e+00" cType="1" res="2.7536603738553822e-04" rms="1.8089769780635834e-01" purity="5.0570005178451538e-01" nType="0">
        <Node pos="l" depth="1" NCoef="0" IVar="10" Cut="-1.9991436004638672e+00" cType="1" res="-7.2157353861257434e-04" rms="1.7749133706092834e-01" purity="5.1602411270141602e-01" nType="0">
          <Node pos="l" depth="2" NCoef="0" IVar="-1" Cut="0.0000000000000000e+00" cType="1" res="2.5866307318210602e-02" rms="2.3166406154632568e-01" purity="2.1969704329967499e-01" nType="-99"/>
          <Node pos="r" depth="2" NCoef="0" IVar="7" Cut="-2.9770308732986450e-01" cType="1" res="-1.0941316140815616e-03" rms="1.7534467577934265e-01" purity="5.2609366178512573e-01" nType="0">
            <Node pos="l" depth="3" NCoef="0" IVar="-1" Cut="0.0000000000000000e+00" cType="1" res="4.6844151802361012e-03" rms="1.7814236879348755e-01" purity="4.6619179844856262e-01" nType="-99"/>
            <Node pos="r" depth="3" NCoef="0" IVar="-1" Cut="0.0000000000000000e+00" cType="1" res="-7.9652890563011169e-03" rms="1.7381154000759125e-01" purity="5.5816084146499634e-01" nType="-99"/>
          </Node>
        </Node>
        <Node pos="r" depth="1" NCoef="0" IVar="11" Cut="2.0385413169860840e+00" cType="1" res="1.2705025263130665e-02" rms="2.1858143806457520e-01" purity="3.7698236107826233e-01" nType="0">
          <Node pos="l" depth="2" NCoef="0" IVar="-1" Cut="0.0000000000000000e+00" cType="1" res="5.7321209460496902e-02" rms="2.2636747360229492e-01" purity="4.6328619122505188e-01" nType="-99"/>
          <Node pos="r" depth="2" NCoef="0" IVar="-1" Cut="0.0000000000000000e+00" cType="1" res="4.8228707164525986e-03" rms="2.1134762465953827e-01" purity="3.0593788623809814e-01" nType="-99"/>
        </Node>
      </Node>
    </BinaryTree>
    <BinaryTree type="DecisionTree" boostWeight="1.0000000000000000e+00" itree="460">
      <Node pos="s" depth="0" NCoef="0" IVar="9" Cut="-1.1997766494750977e+00" cType="1" res="4.8963644076138735e-04" rms="1.7866365611553192e-01" purity="5.0090348720550537e-01" nType="0">
        <Node pos="l" depth="1" NCoef="0" IVar="11" Cut="-1.1976273059844971e+00" cType="1" res="6.3300635665655136e-03" rms="2.0079044997692108e-01" purity="2.9237625002861023e-01" nType="0">
          <Node pos="l" depth="2" NCoef="0" IVar="-1" Cut="0.0000000000000000e+00" cType="1" res="6.5803587436676025e-02" rms="2.3322801291942596e-01" purity="2.6419699192047119e-01" nType="-99"/>
          <Node pos="r" depth="2" NCoef="0" IVar="6" Cut="1.0592249298095703e+02" cType="1" res="1.2734740739688277e-03" rms="1.9132174551486969e-01" purity="2.9955568909645081e-01" nType="0">
            <Node pos="l" depth="3" NCoef="0" IVar="-1" Cut="0.0000000000000000e+00" cType="1" res="2.0861973986029625e-02" rms="1.6043145954608917e-01" purity="8.3590537309646606e-02" nType="-99"/>
            <Node pos="r" depth="3" NCoef="0" IVar="-1" Cut="0.0000000000000000e+00" cType="1" res="-7.8955069184303284e-03" rms="2.2192135453224182e-01" purity="5.5189919471740723e-01" nType="-99"/>
          </Node>
        </Node>
        <Node pos="r" depth="1" NCoef="0" IVar="5" Cut="1.9128137207031250e+02" cType="1" res="-3.4428792423568666e-04" rms="1.7526066303253174e-01" purity="5.3067803382873535e-01" nType="0">
          <Node pos="l" depth="2" NCoef="0" IVar="8" Cut="-1.4656709432601929e+00" cType="1" res="-2.6330095715820789e-03" rms="1.9042001664638519e-01" purity="1.9373507797718048e-01" nType="0">
            <Node pos="l" depth="3" NCoef="0" IVar="-1" Cut="0.0000000000000000e+00" cType="1" res="3.6611665040254593e-02" rms="1.6255776584148407e-01" purity="5.6615054607391357e-02" nType="-99"/>
            <Node pos="r" depth="3" NCoef="0" IVar="-1" Cut="0.0000000000000000e+00" cType="1" res="-9.5300935208797455e-03" rms="1.9332250952720642e-01" purity="2.0946490764617920e-01" nType="-99"/>
          </Node>
          <Node pos="r" depth="2" NCoef="0" IVar="3" Cut="4.2228808593750000e+02" cType="1" res="2.3344210349023342e-03" rms="1.5561145544052124e-01" purity="9.2503434419631958e-01" nType="0">
            <Node pos="l" depth="3" NCoef="0" IVar="-1" Cut="0.0000000000000000e+00" cType="1" res="1.6916558146476746e-02" rms="2.2547559440135956e-01" purity="8.0010330677032471e-01" nType="-99"/>
            <Node pos="r" depth="3" NCoef="0" IVar="-1" Cut="0.0000000000000000e+00" cType="1" res="-5.2760755643248558e-03" rms="1.1210798472166061e-01" purity="9.7954386472702026e-01" nType="-99"/>
          </Node>
        </Node>
      </Node>
    </BinaryTree>
    <BinaryTree type="DecisionTree" boostWeight="1.0000000000000000e+00" itree="461">
      <Node pos="s" depth="0" NCoef="0" IVar="8" Cut="1.1996594667434692e+00" cType="1" res="-1.4689716044813395e-03" rms="1.8092927336692810e-01" purity="5.0132066011428833e-01" nType="0">
        <Node pos="l" depth="1" NCoef="0" IVar="11" Cut="-2.0000410079956055e+00" cType="1" res="-2.3689775262027979e-03" rms="1.8079753220081329e-01" purity="5.3694945573806763e-01" nType="0">
          <Node pos="l" depth="2" NCoef="0" IVar="-1" Cut="0.0000000000000000e+00" cType="1" res="-3.5424806177616119e-02" rms="1.7807181179523468e-01" purity="2.9310598969459534e-01" nType="-99"/>
          <Node pos="r" depth="2" NCoef="0" IVar="9" Cut="-1.7330141067504883e+00" cType="1" res="-1.8028672784566879e-03" rms="1.8091373145580292e-01" purity="5.4910945892333984e-01" nType="0">
            <Node pos="l" depth="3" NCoef="0" IVar="-1" Cut="0.0000000000000000e+00" cType="1" res="2.3769037798047066e-02" rms="2.0512206852436066e-01" purity="1.7193005979061127e-01" nType="-99"/>
            <Node pos="r" depth="3" NCoef="0" IVar="-1" Cut="0.0000000000000000e+00" cType="1" res="-6.7572803236544132e-03" rms="1.7972218990325928e-01" purity="5.6623107194900513e-01" nType="-99"/>
          </Node>
        </Node>
        <Node pos="r" depth="1" NCoef="0" IVar="11" Cut="1.2004600763320923e+00" cType="1" res="6.0742916539311409e-03" rms="1.8185470998287201e-01" purity="2.0270334184169769e-01" nType="0">
          <Node pos="l" depth="2" NCoef="0" IVar="8" Cut="1.8086569309234619e+00" cType="1" res="1.0541389696300030e-02" rms="1.8456672132015228e-01" purity="2.2226743400096893e-01" nType="0">
            <Node pos="l" depth="3" NCoef="0" IVar="-1" Cut="0.0000000000000000e+00" cType="1" res="4.6915397047996521e-02" rms="2.0700877904891968e-01" purity="3.1029966473579407e-01" nType="-99"/>
            <Node pos="r" depth="3" NCoef="0" IVar="-1" Cut="0.0000000000000000e+00" cType="1" res="-1.4139024540781975e-02" rms="1.3052329421043396e-01" purity="5.4247185587882996e-02" nType="-99"/>
          </Node>
          <Node pos="r" depth="2" NCoef="0" IVar="-1" Cut="0.0000000000000000e+00" cType="1" res="-2.7734769508242607e-02" rms="1.7215788364410400e-01" purity="1.4036145806312561e-01" nType="-99"/>
        </Node>
      </Node>
    </BinaryTree>
    <BinaryTree type="DecisionTree" boostWeight="1.0000000000000000e+00" itree="462">
      <Node pos="s" depth="0" NCoef="0" IVar="2" Cut="3.2200823974609375e+02" cType="1" res="-2.8731321799568832e-04" rms="1.7538310587406158e-01" purity="5.0079667568206787e-01" nType="0">
        <Node pos="l" depth="1" NCoef="0" IVar="6" Cut="1.1614626312255859e+02" cType="1" res="-1.0444427840411663e-02" rms="1.3684530556201935e-01" purity="3.6353822797536850e-02" nType="0">
          <Node pos="l" depth="2" NCoef="0" IVar="5" Cut="1.2523572540283203e+02" cType="1" res="-3.1477480661123991e-03" rms="1.0234984010457993e-01" purity="1.3399488292634487e-02" nType="0">
            <Node pos="l" depth="3" NCoef="0" IVar="-1" Cut="0.0000000000000000e+00" cType="1" res="5.0970250740647316e-03" rms="9.0054020285606384e-02" purity="9.7267953678965569e-03" nType="-99"/>
            <Node pos="r" depth="3" NCoef="0" IVar="-1" Cut="0.0000000000000000e+00" cType="1" res="-3.9273548871278763e-02" rms="1.1507254838943481e-01" purity="1.7744384706020355e-02" nType="-99"/>
          </Node>
          <Node pos="r" depth="2" NCoef="0" IVar="-1" Cut="0.0000000000000000e+00" cType="1" res="-5.1832377910614014e-02" rms="1.8142786622047424e-01" purity="7.6541520655155182e-02" nType="-99"/>
        </Node>
        <Node pos="r" depth="1" NCoef="0" IVar="8" Cut="-9.3029141426086426e-01" cType="1" res="6.6719012102112174e-04" rms="1.7854797840118408e-01" purity="5.4444217681884766e-01" nType="0">
          <Node pos="l" depth="2" NCoef="0" IVar="11" Cut="3.9832201600074768e-01" cType="1" res="-5.6623360142111778e-03" rms="1.8580789864063263e-01" purity="3.2095694541931152e-01" nType="0">
            <Node pos="l" depth="3" NCoef="0" IVar="-1" Cut="0.0000000000000000e+00" cType="1" res="8.5806258721277118e-04" rms="1.8708045780658722e-01" purity="3.3012050390243530e-01" nType="-99"/>
            <Node pos="r" depth="3" NCoef="0" IVar="-1" Cut="0.0000000000000000e+00" cType="1" res="-4.0612038224935532e-02" rms="1.8297536671161652e-01" purity="3.0430817604064941e-01" nType="-99"/>
          </Node>
          <Node pos="r" depth="2" NCoef="0" IVar="11" Cut="1.9997268915176392e+00" cType="1" res="1.8445273162797093e-03" rms="1.7713981866836548e-01" purity="5.8601200580596924e-01" nType="0">
            <Node pos="l" depth="3" NCoef="0" IVar="-1" Cut="0.0000000000000000e+00" cType="1" res="3.3118899445980787e-03" rms="1.7574189603328705e-01" purity="5.9364765882492065e-01" nType="-99"/>
            <Node pos="r" depth="3" NCoef="0" IVar="-1" Cut="0.0000000000000000e+00" cType="1" res="4.3504744768142700e-02" rms="2.0454727113246918e-01" purity="4.1963461041450500e-01" nType="-99"/>
          </Node>
        </Node>
      </Node>
    </BinaryTree>
    <BinaryTree type="DecisionTree" boostWeight="1.0000000000000000e+00" itree="463">
      <Node pos="s" depth="0" NCoef="0" IVar="10" Cut="-3.9963942766189575e-01" cType="1" res="1.9640801474452019e-04" rms="1.8084721267223358e-01" purity="5.0602787733078003e-01" nType="0">
        <Node pos="l" depth="1" NCoef="0" IVar="1" Cut="3.9961036294698715e-02" cType="1" res="4.0708691813051701e-03" rms="1.8464294075965881e-01" purity="4.9005606770515442e-01" nType="0">
          <Node pos="l" depth="2" NCoef="0" IVar="0" Cut="1.8887945556640625e+03" cType="1" res="-2.5545374955981970e-03" rms="1.6099618375301361e-01" purity="1.4308951795101166e-01" nType="0">
            <Node pos="l" depth="3" NCoef="0" IVar="-1" Cut="0.0000000000000000e+00" cType="1" res="2.6527974754571915e-02" rms="8.3648443222045898e-02" purity="7.8236004337668419e-03" nType="-99"/>
            <Node pos="r" depth="3" NCoef="0" IVar="-1" Cut="0.0000000000000000e+00" cType="1" res="-1.5557095408439636e-02" rms="2.5884988903999329e-01" purity="4.3761235475540161e-01" nType="-99"/>
          </Node>
          <Node pos="r" depth="2" NCoef="0" IVar="0" Cut="2.8055041503906250e+03" cType="1" res="7.7306008897721767e-03" rms="1.9639272987842560e-01" purity="6.8171292543411255e-01" nType="0">
            <Node pos="l" depth="3" NCoef="0" IVar="-1" Cut="0.0000000000000000e+00" cType="1" res="2.3788159713149071e-02" rms="2.5950673222541809e-01" purity="3.9074102044105530e-01" nType="-99"/>
            <Node pos="r" depth="3" NCoef="0" IVar="-1" Cut="0.0000000000000000e+00" cType="1" res="-1.2870961800217628e-02" rms="8.9014135301113129e-02" purity="9.9013322591781616e-01" nType="-99"/>
          </Node>
        </Node>
        <Node pos="r" depth="1" NCoef="0" IVar="1" Cut="8.0488763749599457e-02" cType="1" res="-2.0096856169402599e-03" rms="1.7861238121986389e-01" purity="5.1512205600738525e-01" nType="0">
          <Node pos="l" depth="2" NCoef="0" IVar="1" Cut="4.6001501381397247e-02" cType="1" res="-4.7195944935083389e-03" rms="1.8556064367294312e-01" purity="3.0923208594322205e-01" nType="0">
            <Node pos="l" depth="3" NCoef="0" IVar="-1" Cut="0.0000000000000000e+00" cType="1" res="-2.8222154360264540e-03" rms="1.7578727006912231e-01" purity="1.9851629436016083e-01" nType="-99"/>
            <Node pos="r" depth="3" NCoef="0" IVar="-1" Cut="0.0000000000000000e+00" cType="1" res="-2.5964573025703430e-02" rms="2.0164495706558228e-01" purity="5.0674009323120117e-01" nType="-99"/>
          </Node>
          <Node pos="r" depth="2" NCoef="0" IVar="10" Cut="-9.5908001065254211e-02" cType="1" res="1.4847443671897054e-03" rms="1.6916793584823608e-01" purity="7.8061741590499878e-01" nType="0">
            <Node pos="l" depth="3" NCoef="0" IVar="-1" Cut="0.0000000000000000e+00" cType="1" res="-4.0156859904527664e-02" rms="1.7838940024375916e-01" purity="7.6635700464248657e-01" nType="-99"/>
            <Node pos="r" depth="3" NCoef="0" IVar="-1" Cut="0.0000000000000000e+00" cType="1" res="1.3326143845915794e-02" rms="1.6714744269847870e-01" purity="7.8348219394683838e-01" nType="-99"/>
          </Node>
        </Node>
      </Node>
    </BinaryTree>
    <BinaryTree type="DecisionTree" boostWeight="1.0000000000000000e+00" itree="464">
      <Node pos="s" depth="0" NCoef="0" IVar="2" Cut="3.1307687377929688e+02" cType="1" res="-1.6771596856415272e-03" rms="1.8372927606105804e-01" purity="4.9813935160636902e-01" nType="0">
        <Node pos="l" depth="1" NCoef="0" IVar="7" Cut="2.2648532688617706e-01" cType="1" res="6.0129063203930855e-03" rms="1.5672415494918823e-01" purity="5.1605179905891418e-02" nType="0">
          <Node pos="l" depth="2" NCoef="0" IVar="-1" Cut="0.0000000000000000e+00" cType="1" res="5.1532711833715439e-02" rms="1.8481944501399994e-01" purity="7.1349546313285828e-02" nType="-99"/>
          <Node pos="r" depth="2" NCoef="0" IVar="-1" Cut="0.0000000000000000e+00" cType="1" res="-1.3033642433583736e-02" rms="1.1821392178535461e-01" purity="3.0096735805273056e-02" nType="-99"/>
        </Node>
        <Node pos="r" depth="1" NCoef="0" IVar="11" Cut="-9.3346023559570312e-01" cType="1" res="-2.2714359220117331e-03" rms="1.8563948571681976e-01" purity="5.3264683485031128e-01" nType="0">
          <Node pos="l" depth="2" NCoef="0" IVar="0" Cut="1.8887840576171875e+03" cType="1" res="-6.1641694046556950e-03" rms="1.9847968220710754e-01" purity="4.7111186385154724e-01" nType="0">
            <Node pos="l" depth="3" NCoef="0" IVar="-1" Cut="0.0000000000000000e+00" cType="1" res="1.7803076654672623e-02" rms="1.5300534665584564e-01" purity="2.6354851201176643e-02" nType="-99"/>
            <Node pos="r" depth="3" NCoef="0" IVar="-1" Cut="0.0000000000000000e+00" cType="1" res="-2.4744918569922447e-02" rms="2.2270286083221436e-01" purity="7.5777429342269897e-01" nType="-99"/>
          </Node>
          <Node pos="r" depth="2" NCoef="0" IVar="10" Cut="1.3329342007637024e-01" cType="1" res="-1.0696236276999116e-03" rms="1.8147499859333038e-01" purity="5.5164468288421631e-01" nType="0">
            <Node pos="l" depth="3" NCoef="0" IVar="-1" Cut="0.0000000000000000e+00" cType="1" res="-1.2470835819840431e-02" rms="1.7844484746456146e-01" purity="5.6010192632675171e-01" nType="-99"/>
            <Node pos="r" depth="3" NCoef="0" IVar="-1" Cut="0.0000000000000000e+00" cType="1" res="6.6563547588884830e-03" rms="1.8481524288654327e-01" purity="5.4198950529098511e-01" nType="-99"/>
          </Node>
        </Node>
      </Node>
    </BinaryTree>
    <BinaryTree type="DecisionTree" boostWeight="1.0000000000000000e+00" itree="465">
      <Node pos="s" depth="0" NCoef="0" IVar="7" Cut="9.7955387830734253e-01" cType="1" res="-7.3516386328265071e-04" rms="1.8266026675701141e-01" purity="4.9341875314712524e-01" nType="0">
        <Node pos="l" depth="1" NCoef="0" IVar="7" Cut="2.9219889640808105e-01" cType="1" res="7.0327783760149032e-05" rms="1.8475827574729919e-01" purity="5.4051804542541504e-01" nType="0">
          <Node pos="l" depth="2" NCoef="0" IVar="9" Cut="-1.1961089372634888e+00" cType="1" res="-1.6263307770714164e-03" rms="1.8360476195812225e-01" purity="5.3076797723770142e-01" nType="0">
            <Node pos="l" depth="3" NCoef="0" IVar="-1" Cut="0.0000000000000000e+00" cType="1" res="1.7720865085721016e-02" rms="1.9877487421035767e-01" purity="3.4215494990348816e-01" nType="-99"/>
            <Node pos="r" depth="3" NCoef="0" IVar="-1" Cut="0.0000000000000000e+00" cType="1" res="-8.7228491902351379e-03" rms="1.8125775456428528e-01" purity="5.5820751190185547e-01" nType="-99"/>
          </Node>
          <Node pos="r" depth="2" NCoef="0" IVar="9" Cut="3.9878636598587036e-01" cType="1" res="4.7860075719654560e-03" rms="1.8784672021865845e-01" purity="5.6761711835861206e-01" nType="0">
            <Node pos="l" depth="3" NCoef="0" IVar="-1" Cut="0.0000000000000000e+00" cType="1" res="-1.9482423085719347e-03" rms="1.8350687623023987e-01" purity="5.7718485593795776e-01" nType="-99"/>
            <Node pos="r" depth="3" NCoef="0" IVar="-1" Cut="0.0000000000000000e+00" cType="1" res="3.8508549332618713e-02" rms="1.9519764184951782e-01" purity="5.4997748136520386e-01" nType="-99"/>
          </Node>
        </Node>
        <Node pos="r" depth="1" NCoef="0" IVar="9" Cut="3.9757555723190308e-01" cType="1" res="-6.0190795920789242e-03" rms="1.6815450787544250e-01" purity="1.8445420265197754e-01" nType="0">
          <Node pos="l" depth="2" NCoef="0" IVar="0" Cut="1.7590628662109375e+03" cType="1" res="2.4994655977934599e-03" rms="1.6984261572360992e-01" purity="2.0564062893390656e-01" nType="0">
            <Node pos="l" depth="3" NCoef="0" IVar="-1" Cut="0.0000000000000000e+00" cType="1" res="-4.7489374876022339e-02" rms="5.9253677725791931e-02" purity="3.3513680100440979e-03" nType="-99"/>
            <Node pos="r" depth="3" NCoef="0" IVar="-1" Cut="0.0000000000000000e+00" cType="1" res="1.7516823485493660e-02" rms="2.5514075160026550e-01" purity="4.9584743380546570e-01" nType="-99"/>
          </Node>
          <Node pos="r" depth="2" NCoef="0" IVar="4" Cut="1.8557197570800781e+02" cType="1" res="-1.9307179376482964e-02" rms="1.6460901498794556e-01" purity="1.5140545368194580e-01" nType="0">
            <Node pos="l" depth="3" NCoef="0" IVar="-1" Cut="0.0000000000000000e+00" cType="1" res="-4.4306986033916473e-02" rms="8.1048637628555298e-02" purity="1.4126229099929333e-02" nType="-99"/>
            <Node pos="r" depth="3" NCoef="0" IVar="-1" Cut="0.0000000000000000e+00" cType="1" res="-6.5607093274593353e-02" rms="2.1866899728775024e-01" purity="2.9255938529968262e-01" nType="-99"/>
          </Node>
        </Node>
      </Node>
    </BinaryTree>
    <BinaryTree type="DecisionTree" boostWeight="1.0000000000000000e+00" itree="466">
      <Node pos="s" depth="0" NCoef="0" IVar="8" Cut="-1.3242316246032715e-01" cType="1" res="-2.4747988209128380e-04" rms="1.8091587722301483e-01" purity="5.0418221950531006e-01" nType="0">
        <Node pos="l" depth="1" NCoef="0" IVar="0" Cut="2.1395532226562500e+03" cType="1" res="2.8700751718133688e-03" rms="1.8229168653488159e-01" purity="4.9159401655197144e-01" nType="0">
          <Node pos="l" depth="2" NCoef="0" IVar="0" Cut="1.8577899169921875e+03" cType="1" res="3.3167267247335985e-05" rms="1.7698141932487488e-01" purity="4.6471953392028809e-02" nType="0">
            <Node pos="l" depth="3" NCoef="0" IVar="-1" Cut="0.0000000000000000e+00" cType="1" res="2.0685339346528053e-02" rms="1.3486206531524658e-01" purity="2.0496305078268051e-02" nType="-99"/>
            <Node pos="r" depth="3" NCoef="0" IVar="-1" Cut="0.0000000000000000e+00" cType="1" res="-1.3851986266672611e-02" rms="3.0031087994575500e-01" purity="1.6336879134178162e-01" nType="-99"/>
          </Node>
          <Node pos="r" depth="2" NCoef="0" IVar="8" Cut="-8.9410960674285889e-01" cType="1" res="5.4827965795993805e-03" rms="1.8701094388961792e-01" purity="9.0154039859771729e-01" nType="0">
            <Node pos="l" depth="3" NCoef="0" IVar="-1" Cut="0.0000000000000000e+00" cType="1" res="2.6641726493835449e-02" rms="2.2341430187225342e-01" purity="8.2017594575881958e-01" nType="-99"/>
            <Node pos="r" depth="3" NCoef="0" IVar="-1" Cut="0.0000000000000000e+00" cType="1" res="5.6489207781851292e-03" rms="1.7262335121631622e-01" purity="9.2942732572555542e-01" nType="-99"/>
          </Node>
        </Node>
        <Node pos="r" depth="1" NCoef="0" IVar="9" Cut="1.4662488698959351e+00" cType="1" res="-2.7557569555938244e-03" rms="1.7976205050945282e-01" purity="5.1431030035018921e-01" nType="0">
          <Node pos="l" depth="2" NCoef="0" IVar="4" Cut="4.2009713745117188e+02" cType="1" res="-3.5428581759333611e-03" rms="1.7849475145339966e-01" purity="5.3525871038436890e-01" nType="0">
            <Node pos="l" depth="3" NCoef="0" IVar="-1" Cut="0.0000000000000000e+00" cType="1" res="-1.3109788298606873e-02" rms="1.9301867485046387e-01" purity="4.3599101901054382e-01" nType="-99"/>
            <Node pos="r" depth="3" NCoef="0" IVar="-1" Cut="0.0000000000000000e+00" cType="1" res="3.0491201207041740e-02" rms="8.5110388696193695e-02" purity="9.8716866970062256e-01" nType="-99"/>
          </Node>
          <Node pos="r" depth="2" NCoef="0" IVar="-1" Cut="0.0000000000000000e+00" cType="1" res="1.7673894762992859e-02" rms="1.9460996985435486e-01" purity="2.5302818417549133e-01" nType="-99"/>
        </Node>
      </Node>
    </BinaryTree>
    <BinaryTree type="DecisionTree" boostWeight="1.0000000000000000e+00" itree="467">
      <Node pos="s" depth="0" NCoef="0" IVar="6" Cut="1.2448347473144531e+02" cType="1" res="5.0309131620451808e-04" rms="1.7791843414306641e-01" purity="5.0095349550247192e-01" nType="0">
        <Node pos="l" depth="1" NCoef="0" IVar="1" Cut="8.5719361901283264e-02" cType="1" res="-1.9658235833048820e-03" rms="1.8682359158992767e-01" purity="1.8002140522003174e-01" nType="0">
          <Node pos="l" depth="2" NCoef="0" IVar="6" Cut="1.1740256500244141e+02" cType="1" res="1.4276317087933421e-03" rms="1.7704199254512787e-01" purity="1.2530724704265594e-01" nType="0">
            <Node pos="l" depth="3" NCoef="0" IVar="-1" Cut="0.0000000000000000e+00" cType="1" res="2.2582303790841252e-04" rms="1.7146760225296021e-01" purity="1.1210523545742035e-01" nType="-99"/>
            <Node pos="r" depth="3" NCoef="0" IVar="-1" Cut="0.0000000000000000e+00" cType="1" res="4.1396223008632660e-02" rms="2.4688172340393066e-01" purity="3.2971045374870300e-01" nType="-99"/>
          </Node>
          <Node pos="r" depth="2" NCoef="0" IVar="0" Cut="1.8415424804687500e+03" cType="1" res="-1.4019452966749668e-02" rms="2.1762162446975708e-01" purity="3.7436732649803162e-01" nType="0">
            <Node pos="l" depth="3" NCoef="0" IVar="-1" Cut="0.0000000000000000e+00" cType="1" res="-5.0526089034974575e-03" rms="1.5484958887100220e-01" purity="2.9101289808750153e-02" nType="-99"/>
            <Node pos="r" depth="3" NCoef="0" IVar="-1" Cut="0.0000000000000000e+00" cType="1" res="-3.4929979592561722e-02" rms="2.6408466696739197e-01" purity="7.0940643548965454e-01" nType="-99"/>
          </Node>
        </Node>
        <Node pos="r" depth="1" NCoef="0" IVar="0" Cut="2.8749997558593750e+03" cType="1" res="3.2136081717908382e-03" rms="1.6755592823028564e-01" purity="8.5329115390777588e-01" nType="0">
          <Node pos="l" depth="2" NCoef="0" IVar="0" Cut="2.0321485595703125e+03" cType="1" res="1.0117945261299610e-02" rms="2.5442659854888916e-01" purity="6.1105561256408691e-01" nType="0">
            <Node pos="l" depth="3" NCoef="0" IVar="-1" Cut="0.0000000000000000e+00" cType="1" res="-7.8135402873158455e-03" rms="2.5186526775360107e-01" purity="9.5603346824645996e-02" nType="-99"/>
            <Node pos="r" depth="3" NCoef="0" IVar="-1" Cut="0.0000000000000000e+00" cType="1" res="2.3337071761488914e-02" rms="2.5534981489181519e-01" purity="8.6782616376876831e-01" nType="-99"/>
          </Node>
          <Node pos="r" depth="2" NCoef="0" IVar="5" Cut="2.1073570251464844e+02" cType="1" res="-7.4575643520802259e-04" rms="8.3726473152637482e-02" purity="9.9220365285873413e-01" nType="0">
            <Node pos="l" depth="3" NCoef="0" IVar="-1" Cut="0.0000000000000000e+00" cType="1" res="-4.9026411026716232e-02" rms="1.5150824189186096e-01" purity="9.7396892309188843e-01" nType="-99"/>
            <Node pos="r" depth="3" NCoef="0" IVar="-1" Cut="0.0000000000000000e+00" cType="1" res="7.1002496406435966e-03" rms="6.7703418433666229e-02" purity="9.9496799707412720e-01" nType="-99"/>
          </Node>
        </Node>
      </Node>
    </BinaryTree>
    <BinaryTree type="DecisionTree" boostWeight="1.0000000000000000e+00" itree="468">
      <Node pos="s" depth="0" NCoef="0" IVar="8" Cut="1.4676114320755005e+00" cType="1" res="6.1285897390916944e-04" rms="1.8161101639270782e-01" purity="5.0331217050552368e-01" nType="0">
        <Node pos="l" depth="1" NCoef="0" IVar="7" Cut="2.1603602170944214e-01" cType="1" res="-2.4420459521934390e-04" rms="1.8124274909496307e-01" purity="5.2797830104827881e-01" nType="0">
          <Node pos="l" depth="2" NCoef="0" IVar="1" Cut="4.3461851775646210e-02" cType="1" res="1.7288462258875370e-03" rms="1.8870340287685394e-01" purity="5.6803661584854126e-01" nType="0">
            <Node pos="l" depth="3" NCoef="0" IVar="-1" Cut="0.0000000000000000e+00" cType="1" res="2.0742919296026230e-02" rms="1.8826313316822052e-01" purity="2.3790511488914490e-01" nType="-99"/>
            <Node pos="r" depth="3" NCoef="0" IVar="-1" Cut="0.0000000000000000e+00" cType="1" res="-2.1634194999933243e-03" rms="1.8885210156440735e-01" purity="7.1843487024307251e-01" nType="-99"/>
          </Node>
          <Node pos="r" depth="2" NCoef="0" IVar="0" Cut="2.3592905273437500e+03" cType="1" res="-3.1451496761292219e-03" rms="1.6963712871074677e-01" purity="4.6908107399940491e-01" nType="0">
            <Node pos="l" depth="3" NCoef="0" IVar="-1" Cut="0.0000000000000000e+00" cType="1" res="-1.7096469178795815e-02" rms="1.7564150691032410e-01" purity="7.2788164019584656e-02" nType="-99"/>
            <Node pos="r" depth="3" NCoef="0" IVar="-1" Cut="0.0000000000000000e+00" cType="1" res="1.5117410803213716e-03" rms="1.6199257969856262e-01" purity="9.4925969839096069e-01" nType="-99"/>
          </Node>
        </Node>
        <Node pos="r" depth="1" NCoef="0" IVar="5" Cut="1.2615292358398438e+02" cType="1" res="1.3077385723590851e-02" rms="1.8644008040428162e-01" purity="1.4458641409873962e-01" nType="0">
          <Node pos="l" depth="2" NCoef="0" IVar="-1" Cut="0.0000000000000000e+00" cType="1" res="-1.1113196611404419e-02" rms="8.7086290121078491e-02" purity="8.7224217131733894e-03" nType="-99"/>
          <Node pos="r" depth="2" NCoef="0" IVar="-1" Cut="0.0000000000000000e+00" cType="1" res="5.6616641581058502e-02" rms="2.5797137618064880e-01" purity="3.0601948499679565e-01" nType="-99"/>
        </Node>
      </Node>
    </BinaryTree>
    <BinaryTree type="DecisionTree" boostWeight="1.0000000000000000e+00" itree="469">
      <Node pos="s" depth="0" NCoef="0" IVar="8" Cut="1.3265316188335419e-01" cType="1" res="-1.8609031394589692e-04" rms="1.8156732618808746e-01" purity="4.9246764183044434e-01" nType="0">
        <Node pos="l" depth="1" NCoef="0" IVar="11" Cut="-1.2001080513000488e+00" cType="1" res="2.2713639773428440e-03" rms="1.8209692835807800e-01" purity="5.0452822446823120e-01" nType="0">
          <Node pos="l" depth="2" NCoef="0" IVar="8" Cut="-7.0289164781570435e-01" cType="1" res="-3.6010826006531715e-03" rms="1.9043885171413422e-01" purity="4.0703222155570984e-01" nType="0">
            <Node pos="l" depth="3" NCoef="0" IVar="-1" Cut="0.0000000000000000e+00" cType="1" res="-3.5373464226722717e-02" rms="1.9046463072299957e-01" purity="2.5301656126976013e-01" nType="-99"/>
            <Node pos="r" depth="3" NCoef="0" IVar="-1" Cut="0.0000000000000000e+00" cType="1" res="1.5304443426430225e-02" rms="1.8997716903686523e-01" purity="5.3928244113922119e-01" nType="-99"/>
          </Node>
          <Node pos="r" depth="2" NCoef="0" IVar="10" Cut="9.3174695968627930e-01" cType="1" res="3.5106504801660776e-03" rms="1.8026272952556610e-01" purity="5.2510327100753784e-01" nType="0">
            <Node pos="l" depth="3" NCoef="0" IVar="-1" Cut="0.0000000000000000e+00" cType="1" res="4.8496592789888382e-03" rms="1.7467586696147919e-01" purity="5.3846597671508789e-01" nType="-99"/>
            <Node pos="r" depth="3" NCoef="0" IVar="-1" Cut="0.0000000000000000e+00" cType="1" res="3.0543459579348564e-02" rms="2.0315828919410706e-01" purity="4.6529537439346313e-01" nType="-99"/>
          </Node>
        </Node>
        <Node pos="r" depth="1" NCoef="0" IVar="8" Cut="1.5290402173995972e+00" cType="1" res="-3.3455933444201946e-03" rms="1.8083506822586060e-01" purity="4.7696152329444885e-01" nType="0">
          <Node pos="l" depth="2" NCoef="0" IVar="4" Cut="3.4693542480468750e+02" cType="1" res="-1.7204352188855410e-03" rms="1.8455912172794342e-01" purity="5.3791379928588867e-01" nType="0">
            <Node pos="l" depth="3" NCoef="0" IVar="-1" Cut="0.0000000000000000e+00" cType="1" res="-1.0142456740140915e-02" rms="2.0609159767627716e-01" purity="3.3885806798934937e-01" nType="-99"/>
            <Node pos="r" depth="3" NCoef="0" IVar="-1" Cut="0.0000000000000000e+00" cType="1" res="2.3538745939731598e-02" rms="1.2419702112674713e-01" purity="9.7788935899734497e-01" nType="-99"/>
          </Node>
          <Node pos="r" depth="2" NCoef="0" IVar="3" Cut="2.5779162597656250e+02" cType="1" res="-1.3631311245262623e-02" rms="1.5481133759021759e-01" purity="9.1191284358501434e-02" nType="0">
            <Node pos="l" depth="3" NCoef="0" IVar="-1" Cut="0.0000000000000000e+00" cType="1" res="-3.8448968552984297e-04" rms="1.0360164940357208e-01" purity="2.1109113469719887e-02" nType="-99"/>
            <Node pos="r" depth="3" NCoef="0" IVar="-1" Cut="0.0000000000000000e+00" cType="1" res="-7.3767594993114471e-02" rms="1.9406941533088684e-01" purity="1.6587732732295990e-01" nType="-99"/>
          </Node>
        </Node>
      </Node>
    </BinaryTree>
    <BinaryTree type="DecisionTree" boostWeight="1.0000000000000000e+00" itree="470">
      <Node pos="s" depth="0" NCoef="0" IVar="3" Cut="5.5271789550781250e+02" cType="1" res="-5.1050268666585907e-05" rms="1.8046531081199646e-01" purity="5.0106650590896606e-01" nType="0">
        <Node pos="l" depth="1" NCoef="0" IVar="3" Cut="3.6718923950195312e+02" cType="1" res="9.1146340128034353e-04" rms="1.8753105401992798e-01" purity="4.0130206942558289e-01" nType="0">
          <Node pos="l" depth="2" NCoef="0" IVar="8" Cut="-1.1998240947723389e+00" cType="1" res="-1.4678593724966049e-03" rms="1.8505597114562988e-01" purity="1.6415588557720184e-01" nType="0">
            <Node pos="l" depth="3" NCoef="0" IVar="-1" Cut="0.0000000000000000e+00" cType="1" res="2.4141285568475723e-02" rms="1.6923566162586212e-01" purity="9.7678318619728088e-02" nType="-99"/>
            <Node pos="r" depth="3" NCoef="0" IVar="-1" Cut="0.0000000000000000e+00" cType="1" res="-8.0543309450149536e-03" rms="1.8803273141384125e-01" purity="1.7749534547328949e-01" nType="-99"/>
          </Node>
          <Node pos="r" depth="2" NCoef="0" IVar="10" Cut="-1.1993256807327271e+00" cType="1" res="4.9436707049608231e-03" rms="1.9158512353897095e-01" purity="8.0319070816040039e-01" nType="0">
            <Node pos="l" depth="3" NCoef="0" IVar="-1" Cut="0.0000000000000000e+00" cType="1" res="4.2631447315216064e-02" rms="2.2315245866775513e-01" purity="6.9065725803375244e-01" nType="-99"/>
            <Node pos="r" depth="3" NCoef="0" IVar="-1" Cut="0.0000000000000000e+00" cType="1" res="6.4084748737514019e-03" rms="1.8643125891685486e-01" purity="8.1949043273925781e-01" nType="-99"/>
          </Node>
        </Node>
        <Node pos="r" depth="1" NCoef="0" IVar="4" Cut="3.8397384643554688e+02" cType="1" res="-4.3940781615674496e-03" rms="1.4426459372043610e-01" purity="9.5122075080871582e-01" nType="0">
          <Node pos="l" depth="2" NCoef="0" IVar="-1" Cut="0.0000000000000000e+00" cType="1" res="-3.1788136810064316e-02" rms="2.0908747613430023e-01" purity="8.7948364019393921e-01" nType="-99"/>
          <Node pos="r" depth="2" NCoef="0" IVar="11" Cut="-1.3150942325592041e-01" cType="1" res="-9.6680817659944296e-04" rms="9.9972277879714966e-02" purity="9.8498618602752686e-01" nType="0">
            <Node pos="l" depth="3" NCoef="0" IVar="-1" Cut="0.0000000000000000e+00" cType="1" res="-3.9112009108066559e-02" rms="1.0879497975111008e-01" purity="9.7950083017349243e-01" nType="-99"/>
            <Node pos="r" depth="3" NCoef="0" IVar="-1" Cut="0.0000000000000000e+00" cType="1" res="2.0348701626062393e-02" rms="9.2070370912551880e-02" purity="9.8944747447967529e-01" nType="-99"/>
          </Node>
        </Node>
      </Node>
    </BinaryTree>
    <BinaryTree type="DecisionTree" boostWeight="1.0000000000000000e+00" itree="471">
      <Node pos="s" depth="0" NCoef="0" IVar="10" Cut="1.9995913505554199e+00" cType="1" res="2.2372866515070200e-03" rms="1.7944115400314331e-01" purity="5.0663673877716064e-01" nType="0">
        <Node pos="l" depth="1" NCoef="0" IVar="10" Cut="-2.1134014129638672e+00" cType="1" res="1.5956296119838953e-03" rms="1.7744712531566620e-01" purity="5.1784169673919678e-01" nType="0">
          <Node pos="l" depth="2" NCoef="0" IVar="-1" Cut="0.0000000000000000e+00" cType="1" res="4.7878809273242950e-02" rms="2.1396496891975403e-01" purity="2.1891216933727264e-01" nType="-99"/>
          <Node pos="r" depth="2" NCoef="0" IVar="11" Cut="-2.0000512599945068e+00" cType="1" res="1.1637425050139427e-03" rms="1.7634318768978119e-01" purity="5.2586042881011963e-01" nType="0">
            <Node pos="l" depth="3" NCoef="0" IVar="-1" Cut="0.0000000000000000e+00" cType="1" res="3.1987980008125305e-02" rms="2.1645739674568176e-01" purity="3.3077406883239746e-01" nType="-99"/>
            <Node pos="r" depth="3" NCoef="0" IVar="-1" Cut="0.0000000000000000e+00" cType="1" res="2.0224228501319885e-03" rms="1.7437402904033661e-01" purity="5.3433167934417725e-01" nType="-99"/>
          </Node>
        </Node>
        <Node pos="r" depth="1" NCoef="0" IVar="-1" Cut="0.0000000000000000e+00" cType="1" res="4.4583991169929504e-02" rms="2.2597061097621918e-01" purity="2.0474672317504883e-01" nType="-99"/>
      </Node>
    </BinaryTree>
    <BinaryTree type="DecisionTree" boostWeight="1.0000000000000000e+00" itree="472">
      <Node pos="s" depth="0" NCoef="0" IVar="8" Cut="6.6906565427780151e-01" cType="1" res="-1.1618099233601242e-04" rms="1.7635282874107361e-01" purity="4.9711921811103821e-01" nType="0">
        <Node pos="l" depth="1" NCoef="0" IVar="4" Cut="3.5920632934570312e+02" cType="1" res="-1.4013047330081463e-03" rms="1.7421050369739532e-01" purity="5.4133814573287964e-01" nType="0">
          <Node pos="l" depth="2" NCoef="0" IVar="0" Cut="1.8876625976562500e+03" cType="1" res="-3.4198684152215719e-03" rms="1.9723469018936157e-01" purity="3.6243551969528198e-01" nType="0">
            <Node pos="l" depth="3" NCoef="0" IVar="-1" Cut="0.0000000000000000e+00" cType="1" res="1.5772867482155561e-03" rms="1.2600089609622955e-01" purity="1.8727552145719528e-02" nType="-99"/>
            <Node pos="r" depth="3" NCoef="0" IVar="-1" Cut="0.0000000000000000e+00" cType="1" res="-1.1148323304951191e-02" rms="2.5153687596321106e-01" purity="7.2664535045623779e-01" nType="-99"/>
          </Node>
          <Node pos="r" depth="2" NCoef="0" IVar="0" Cut="3.1361120605468750e+03" cType="1" res="3.5589726176112890e-03" rms="9.6431538462638855e-02" purity="9.8096090555191040e-01" nType="0">
            <Node pos="l" depth="3" NCoef="0" IVar="-1" Cut="0.0000000000000000e+00" cType="1" res="2.9718443751335144e-02" rms="1.5995988249778748e-01" purity="9.3695789575576782e-01" nType="-99"/>
            <Node pos="r" depth="3" NCoef="0" IVar="-1" Cut="0.0000000000000000e+00" cType="1" res="2.1886633709073067e-02" rms="6.1080724000930786e-02" purity="9.9593538045883179e-01" nType="-99"/>
          </Node>
        </Node>
        <Node pos="r" depth="1" NCoef="0" IVar="7" Cut="4.6614509820938110e-01" cType="1" res="3.8628298789262772e-03" rms="1.8276952207088470e-01" purity="3.6020827293395996e-01" nType="0">
          <Node pos="l" depth="2" NCoef="0" IVar="0" Cut="1.6343237304687500e+03" cType="1" res="7.4763237498700619e-03" rms="1.8478605151176453e-01" purity="3.8904383778572083e-01" nType="0">
            <Node pos="l" depth="3" NCoef="0" IVar="-1" Cut="0.0000000000000000e+00" cType="1" res="-3.8571447134017944e-02" rms="6.0597587376832962e-02" purity="3.9186184294521809e-03" nType="-99"/>
            <Node pos="r" depth="3" NCoef="0" IVar="-1" Cut="0.0000000000000000e+00" cType="1" res="2.5330005213618279e-02" rms="2.2476938366889954e-01" purity="5.9700864553451538e-01" nType="-99"/>
          </Node>
          <Node pos="r" depth="2" NCoef="0" IVar="6" Cut="1.1456850433349609e+02" cType="1" res="-4.7016791068017483e-03" rms="1.7760539054870605e-01" purity="2.9186370968818665e-01" nType="0">
            <Node pos="l" depth="3" NCoef="0" IVar="-1" Cut="0.0000000000000000e+00" cType="1" res="5.4831267334520817e-03" rms="1.6304060816764832e-01" purity="9.0952001512050629e-02" nType="-99"/>
            <Node pos="r" depth="3" NCoef="0" IVar="-1" Cut="0.0000000000000000e+00" cType="1" res="-2.7202654629945755e-02" rms="1.9499345123767853e-01" purity="5.5876439809799194e-01" nType="-99"/>
          </Node>
        </Node>
      </Node>
    </BinaryTree>
    <BinaryTree type="DecisionTree" boostWeight="1.0000000000000000e+00" itree="473">
      <Node pos="s" depth="0" NCoef="0" IVar="11" Cut="-2.0000410079956055e+00" cType="1" res="-3.6058778641745448e-04" rms="1.8255567550659180e-01" purity="4.9730181694030762e-01" nType="0">
        <Node pos="l" depth="1" NCoef="0" IVar="-1" Cut="0.0000000000000000e+00" cType="1" res="-3.6552049219608307e-02" rms="1.7850637435913086e-01" purity="2.5734990835189819e-01" nType="-99"/>
        <Node pos="r" depth="1" NCoef="0" IVar="11" Cut="9.7124814987182617e-01" cType="1" res="3.2099898089654744e-04" rms="1.8272374570369720e-01" purity="5.0901514291763306e-01" nType="0">
          <Node pos="l" depth="2" NCoef="0" IVar="8" Cut="-6.6478538513183594e-01" cType="1" res="-1.2416515965014696e-03" rms="1.8015010654926300e-01" purity="5.2685505151748657e-01" nType="0">
            <Node pos="l" depth="3" NCoef="0" IVar="-1" Cut="0.0000000000000000e+00" cType="1" res="1.0870658792555332e-02" rms="1.8709406256675720e-01" purity="3.9175334572792053e-01" nType="-99"/>
            <Node pos="r" depth="3" NCoef="0" IVar="-1" Cut="0.0000000000000000e+00" cType="1" res="-9.4536077231168747e-03" rms="1.7780891060829163e-01" purity="5.7066047191619873e-01" nType="-99"/>
          </Node>
          <Node pos="r" depth="2" NCoef="0" IVar="2" Cut="4.1685437011718750e+02" cType="1" res="5.2618905901908875e-03" rms="1.9054844975471497e-01" purity="4.5260766148567200e-01" nType="0">
            <Node pos="l" depth="3" NCoef="0" IVar="-1" Cut="0.0000000000000000e+00" cType="1" res="4.5781314373016357e-02" rms="2.0489016175270081e-01" purity="1.2325499206781387e-01" nType="-99"/>
            <Node pos="r" depth="3" NCoef="0" IVar="-1" Cut="0.0000000000000000e+00" cType="1" res="4.7105569392442703e-03" rms="1.8520201742649078e-01" purity="5.6672108173370361e-01" nType="-99"/>
          </Node>
        </Node>
      </Node>
    </BinaryTree>
    <BinaryTree type="DecisionTree" boostWeight="1.0000000000000000e+00" itree="474">
      <Node pos="s" depth="0" NCoef="0" IVar="1" Cut="4.0371689945459366e-02" cType="1" res="3.5841192584484816e-04" rms="1.7818437516689301e-01" purity="5.1039838790893555e-01" nType="0">
        <Node pos="l" depth="1" NCoef="0" IVar="0" Cut="1.8506844482421875e+03" cType="1" res="-3.9837667718529701e-03" rms="1.6423578560352325e-01" purity="1.6493648290634155e-01" nType="0">
          <Node pos="l" depth="2" NCoef="0" IVar="8" Cut="4.0010446310043335e-01" cType="1" res="-3.6175083369016647e-04" rms="7.2666570544242859e-02" purity="5.7768430560827255e-03" nType="0">
            <Node pos="l" depth="3" NCoef="0" IVar="-1" Cut="0.0000000000000000e+00" cType="1" res="-2.6447232812643051e-02" rms="6.7868344485759735e-02" purity="5.3266049362719059e-03" nType="-99"/>
            <Node pos="r" depth="3" NCoef="0" IVar="-1" Cut="0.0000000000000000e+00" cType="1" res="3.3955998718738556e-02" rms="7.8665219247341156e-02" purity="6.3873804174363613e-03" nType="-99"/>
          </Node>
          <Node pos="r" depth="2" NCoef="0" IVar="0" Cut="2.6661965332031250e+03" cType="1" res="-1.0618895292282104e-02" rms="2.5815579295158386e-01" purity="4.5649912953376770e-01" nType="0">
            <Node pos="l" depth="3" NCoef="0" IVar="-1" Cut="0.0000000000000000e+00" cType="1" res="-2.6386190205812454e-02" rms="2.6894000172615051e-01" purity="1.5422351658344269e-01" nType="-99"/>
            <Node pos="r" depth="3" NCoef="0" IVar="-1" Cut="0.0000000000000000e+00" cType="1" res="7.8337937593460083e-03" rms="2.4116614460945129e-01" purity="8.8643723726272583e-01" nType="-99"/>
          </Node>
        </Node>
        <Node pos="r" depth="1" NCoef="0" IVar="11" Cut="-9.3131405115127563e-01" cType="1" res="2.5057410821318626e-03" rms="1.8465574085712433e-01" purity="6.8123900890350342e-01" nType="0">
          <Node pos="l" depth="2" NCoef="0" IVar="4" Cut="2.7246249389648438e+02" cType="1" res="9.2240022495388985e-03" rms="1.9502034783363342e-01" purity="6.6877251863479614e-01" nType="0">
            <Node pos="l" depth="3" NCoef="0" IVar="-1" Cut="0.0000000000000000e+00" cType="1" res="3.5808954387903214e-02" rms="2.3800699412822723e-01" purity="3.4458887577056885e-01" nType="-99"/>
            <Node pos="r" depth="3" NCoef="0" IVar="-1" Cut="0.0000000000000000e+00" cType="1" res="1.0222055716440082e-03" rms="1.4900217950344086e-01" purity="9.4141674041748047e-01" nType="-99"/>
          </Node>
          <Node pos="r" depth="2" NCoef="0" IVar="10" Cut="9.3350011110305786e-01" cType="1" res="6.0867186402902007e-04" rms="1.8157696723937988e-01" purity="6.8475919961929321e-01" nType="0">
            <Node pos="l" depth="3" NCoef="0" IVar="-1" Cut="0.0000000000000000e+00" cType="1" res="7.4510574340820312e-03" rms="1.7611114680767059e-01" purity="7.0608884096145630e-01" nType="-99"/>
            <Node pos="r" depth="3" NCoef="0" IVar="-1" Cut="0.0000000000000000e+00" cType="1" res="-1.4708950184285641e-02" rms="2.0222777128219604e-01" purity="5.9764587879180908e-01" nType="-99"/>
          </Node>
        </Node>
      </Node>
    </BinaryTree>
    <BinaryTree type="DecisionTree" boostWeight="1.0000000000000000e+00" itree="475">
      <Node pos="s" depth="0" NCoef="0" IVar="9" Cut="-6.6582298278808594e-01" cType="1" res="-6.6759972833096981e-04" rms="1.7968457937240601e-01" purity="5.0088709592819214e-01" nType="0">
        <Node pos="l" depth="1" NCoef="0" IVar="7" Cut="-5.5483525991439819e-01" cType="1" res="-4.2773927561938763e-03" rms="1.8397027254104614e-01" purity="4.0403977036476135e-01" nType="0">
          <Node pos="l" depth="2" NCoef="0" IVar="7" Cut="-8.4978187084197998e-01" cType="1" res="3.7651676684617996e-03" rms="1.8788811564445496e-01" purity="3.0233553051948547e-01" nType="0">
            <Node pos="l" depth="3" NCoef="0" IVar="-1" Cut="0.0000000000000000e+00" cType="1" res="-1.2925372458994389e-02" rms="1.7516615986824036e-01" purity="2.0902448892593384e-01" nType="-99"/>
            <Node pos="r" depth="3" NCoef="0" IVar="-1" Cut="0.0000000000000000e+00" cType="1" res="4.5086268335580826e-02" rms="2.0722343027591705e-01" purity="4.6250292658805847e-01" nType="-99"/>
          </Node>
          <Node pos="r" depth="2" NCoef="0" IVar="7" Cut="-2.3490206897258759e-01" cType="1" res="-7.3507600463926792e-03" rms="1.8235725164413452e-01" purity="4.4290477037429810e-01" nType="0">
            <Node pos="l" depth="3" NCoef="0" IVar="-1" Cut="0.0000000000000000e+00" cType="1" res="-4.6101450920104980e-02" rms="1.9601528346538544e-01" purity="5.1713746786117554e-01" nType="-99"/>
            <Node pos="r" depth="3" NCoef="0" IVar="-1" Cut="0.0000000000000000e+00" cType="1" res="-1.3084412552416325e-02" rms="1.7898464202880859e-01" purity="4.2594546079635620e-01" nType="-99"/>
          </Node>
        </Node>
        <Node pos="r" depth="1" NCoef="0" IVar="2" Cut="1.1080477294921875e+03" cType="1" res="6.0288916574791074e-04" rms="1.7813427746295929e-01" purity="5.3497308492660522e-01" nType="0">
          <Node pos="l" depth="2" NCoef="0" IVar="2" Cut="4.5963970947265625e+02" cType="1" res="1.0896481107920408e-03" rms="1.7746287584304810e-01" purity="5.1981532573699951e-01" nType="0">
            <Node pos="l" depth="3" NCoef="0" IVar="-1" Cut="0.0000000000000000e+00" cType="1" res="1.6873206943273544e-02" rms="1.8999482691287994e-01" purity="1.5185575187206268e-01" nType="-99"/>
            <Node pos="r" depth="3" NCoef="0" IVar="-1" Cut="0.0000000000000000e+00" cType="1" res="-2.9548790771514177e-03" rms="1.7160408198833466e-01" purity="6.8216615915298462e-01" nType="-99"/>
          </Node>
          <Node pos="r" depth="2" NCoef="0" IVar="-1" Cut="0.0000000000000000e+00" cType="1" res="-3.4964095801115036e-02" rms="1.9387464225292206e-01" purity="9.1665077209472656e-01" nType="-99"/>
        </Node>
      </Node>
    </BinaryTree>
    <BinaryTree type="DecisionTree" boostWeight="1.0000000000000000e+00" itree="476">
      <Node pos="s" depth="0" NCoef="0" IVar="9" Cut="1.2001219987869263e+00" cType="1" res="2.3771500855218619e-04" rms="1.8208003044128418e-01" purity="5.0052517652511597e-01" nType="0">
        <Node pos="l" depth="1" NCoef="0" IVar="11" Cut="-1.3350901007652283e-01" cType="1" res="1.1380233336240053e-03" rms="1.7912194132804871e-01" purity="5.2746814489364624e-01" nType="0">
          <Node pos="l" depth="2" NCoef="0" IVar="11" Cut="-8.9487057924270630e-01" cType="1" res="3.5152288619428873e-03" rms="1.7941993474960327e-01" purity="5.1333671808242798e-01" nType="0">
            <Node pos="l" depth="3" NCoef="0" IVar="-1" Cut="0.0000000000000000e+00" cType="1" res="4.2295988532714546e-04" rms="1.8936164677143097e-01" purity="4.6373254060745239e-01" nType="-99"/>
            <Node pos="r" depth="3" NCoef="0" IVar="-1" Cut="0.0000000000000000e+00" cType="1" res="2.5893114507198334e-02" rms="1.6788144409656525e-01" purity="5.6720638275146484e-01" nType="-99"/>
          </Node>
          <Node pos="r" depth="2" NCoef="0" IVar="3" Cut="2.3125796508789062e+02" cType="1" res="-9.8853698000311852e-04" rms="1.7882816493511200e-01" purity="5.4010957479476929e-01" nType="0">
            <Node pos="l" depth="3" NCoef="0" IVar="-1" Cut="0.0000000000000000e+00" cType="1" res="-4.6221718192100525e-02" rms="1.1381469666957855e-01" purity="2.5256190448999405e-02" nType="-99"/>
            <Node pos="r" depth="3" NCoef="0" IVar="-1" Cut="0.0000000000000000e+00" cType="1" res="1.4452993636950850e-03" rms="1.8928283452987671e-01" purity="6.4462727308273315e-01" nType="-99"/>
          </Node>
        </Node>
        <Node pos="r" depth="1" NCoef="0" IVar="0" Cut="2.1334416503906250e+03" cType="1" res="-6.4837411046028137e-03" rms="2.0267908275127411e-01" purity="2.9937642812728882e-01" nType="0">
          <Node pos="l" depth="2" NCoef="0" IVar="3" Cut="2.8664300537109375e+02" cType="1" res="2.7087714988738298e-03" rms="1.5892808139324188e-01" purity="4.7075394541025162e-02" nType="0">
            <Node pos="l" depth="3" NCoef="0" IVar="-1" Cut="0.0000000000000000e+00" cType="1" res="-1.9334858283400536e-02" rms="1.2114512920379639e-01" purity="2.5367764756083488e-02" nType="-99"/>
            <Node pos="r" depth="3" NCoef="0" IVar="-1" Cut="0.0000000000000000e+00" cType="1" res="3.4064702689647675e-02" rms="2.1912300586700439e-01" purity="9.4300411641597748e-02" nType="-99"/>
          </Node>
          <Node pos="r" depth="2" NCoef="0" IVar="-1" Cut="0.0000000000000000e+00" cType="1" res="-4.0132001042366028e-02" rms="2.6973938941955566e-01" purity="8.1292951107025146e-01" nType="-99"/>
        </Node>
      </Node>
    </BinaryTree>
    <BinaryTree type="DecisionTree" boostWeight="1.0000000000000000e+00" itree="477">
      <Node pos="s" depth="0" NCoef="0" IVar="10" Cut="-1.7320338487625122e+00" cType="1" res="-3.1485219369642437e-04" rms="1.7804023623466492e-01" purity="5.0147670507431030e-01" nType="0">
        <Node pos="l" depth="1" NCoef="0" IVar="4" Cut="1.8753518676757812e+02" cType="1" res="-1.1421071365475655e-02" rms="2.1013179421424866e-01" purity="2.5388100743293762e-01" nType="0">
          <Node pos="l" depth="2" NCoef="0" IVar="-1" Cut="0.0000000000000000e+00" cType="1" res="1.5042843297123909e-02" rms="1.8131367862224579e-01" purity="6.0033161193132401e-02" nType="-99"/>
          <Node pos="r" depth="2" NCoef="0" IVar="-1" Cut="0.0000000000000000e+00" cType="1" res="-4.1327174752950668e-02" rms="2.3174969851970673e-01" purity="4.2486333847045898e-01" nType="-99"/>
        </Node>
        <Node pos="r" depth="1" NCoef="0" IVar="0" Cut="2.1418649902343750e+03" cType="1" res="3.5453212331049144e-04" rms="1.7589667439460754e-01" purity="5.1639956235885620e-01" nType="0">
          <Node pos="l" depth="2" NCoef="0" IVar="4" Cut="2.7068927001953125e+02" cType="1" res="-2.6141861453652382e-03" rms="1.6400447487831116e-01" purity="4.1942872107028961e-02" nType="0">
            <Node pos="l" depth="3" NCoef="0" IVar="-1" Cut="0.0000000000000000e+00" cType="1" res="-2.3239518050104380e-03" rms="1.5477970242500305e-01" purity="3.6666534841060638e-02" nType="-99"/>
            <Node pos="r" depth="3" NCoef="0" IVar="-1" Cut="0.0000000000000000e+00" cType="1" res="-3.6512639373540878e-02" rms="2.6054918766021729e-01" purity="1.1707206070423126e-01" nType="-99"/>
          </Node>
          <Node pos="r" depth="2" NCoef="0" IVar="2" Cut="4.4409451293945312e+02" cType="1" res="2.8716970700770617e-03" rms="1.8534609675407410e-01" purity="9.1868960857391357e-01" nType="0">
            <Node pos="l" depth="3" NCoef="0" IVar="-1" Cut="0.0000000000000000e+00" cType="1" res="-2.5449197739362717e-02" rms="2.6828932762145996e-01" purity="8.8442689180374146e-01" nType="-99"/>
            <Node pos="r" depth="3" NCoef="0" IVar="-1" Cut="0.0000000000000000e+00" cType="1" res="1.1405815370380878e-02" rms="1.7964522540569305e-01" purity="9.2056477069854736e-01" nType="-99"/>
          </Node>
        </Node>
      </Node>
    </BinaryTree>
    <BinaryTree type="DecisionTree" boostWeight="1.0000000000000000e+00" itree="478">
      <Node pos="s" depth="0" NCoef="0" IVar="2" Cut="8.8719677734375000e+02" cType="1" res="3.4358902485109866e-04" rms="1.7793516814708710e-01" purity="4.9294841289520264e-01" nType="0">
        <Node pos="l" depth="1" NCoef="0" IVar="3" Cut="2.9913571166992188e+02" cType="1" res="-4.9097818555310369e-04" rms="1.8015332520008087e-01" purity="4.4110488891601562e-01" nType="0">
          <Node pos="l" depth="2" NCoef="0" IVar="0" Cut="1.8766131591796875e+03" cType="1" res="2.5601829402148724e-03" rms="1.6290743649005890e-01" purity="7.7219255268573761e-02" nType="0">
            <Node pos="l" depth="3" NCoef="0" IVar="-1" Cut="0.0000000000000000e+00" cType="1" res="-3.6825567949563265e-03" rms="1.1511802673339844e-01" purity="1.4622217975556850e-02" nType="-99"/>
            <Node pos="r" depth="3" NCoef="0" IVar="-1" Cut="0.0000000000000000e+00" cType="1" res="2.0761875435709953e-02" rms="3.2137700915336609e-01" purity="4.4052067399024963e-01" nType="-99"/>
          </Node>
          <Node pos="r" depth="2" NCoef="0" IVar="7" Cut="-2.4975255131721497e-01" cType="1" res="-2.6185589376837015e-03" rms="1.9123208522796631e-01" purity="6.9484311342239380e-01" nType="0">
            <Node pos="l" depth="3" NCoef="0" IVar="-1" Cut="0.0000000000000000e+00" cType="1" res="-1.6658753156661987e-02" rms="2.0237801969051361e-01" purity="6.4677065610885620e-01" nType="-99"/>
            <Node pos="r" depth="3" NCoef="0" IVar="-1" Cut="0.0000000000000000e+00" cType="1" res="-4.5504036825150251e-04" rms="1.8452504277229309e-01" purity="7.2227686643600464e-01" nType="-99"/>
          </Node>
        </Node>
        <Node pos="r" depth="1" NCoef="0" IVar="6" Cut="1.3934179687500000e+02" cType="1" res="7.0113763213157654e-03" rms="1.5894919633865356e-01" purity="9.0715306997299194e-01" nType="0">
          <Node pos="l" depth="2" NCoef="0" IVar="-1" Cut="0.0000000000000000e+00" cType="1" res="2.4582089856266975e-02" rms="2.3490467667579651e-01" purity="7.6958262920379639e-01" nType="-99"/>
          <Node pos="r" depth="2" NCoef="0" IVar="-1" Cut="0.0000000000000000e+00" cType="1" res="1.4841276220977306e-02" rms="8.6669303476810455e-02" purity="9.8842859268188477e-01" nType="-99"/>
        </Node>
      </Node>
    </BinaryTree>
    <BinaryTree type="DecisionTree" boostWeight="1.0000000000000000e+00" itree="479">
      <Node pos="s" depth="0" NCoef="0" IVar="9" Cut="-9.3296521902084351e-01" cType="1" res="4.6407920308411121e-04" rms="1.7629617452621460e-01" purity="5.0329434871673584e-01" nType="0">
        <Node pos="l" depth="1" NCoef="0" IVar="10" Cut="-1.3225857913494110e-01" cType="1" res="-3.8474330212920904e-03" rms="1.8310067057609558e-01" purity="3.4782370924949646e-01" nType="0">
          <Node pos="l" depth="2" NCoef="0" IVar="8" Cut="4.0615603327751160e-01" cType="1" res="-9.0735293924808502e-03" rms="1.7655405402183533e-01" purity="3.2067963480949402e-01" nType="0">
            <Node pos="l" depth="3" NCoef="0" IVar="-1" Cut="0.0000000000000000e+00" cType="1" res="-4.0232103317975998e-02" rms="1.7033569514751434e-01" purity="3.3405461907386780e-01" nType="-99"/>
            <Node pos="r" depth="3" NCoef="0" IVar="-1" Cut="0.0000000000000000e+00" cType="1" res="9.8443608731031418e-03" rms="1.9034773111343384e-01" purity="2.8793263435363770e-01" nType="-99"/>
          </Node>
          <Node pos="r" depth="2" NCoef="0" IVar="8" Cut="3.9956954121589661e-01" cType="1" res="1.4466688735410571e-03" rms="1.8935500085353851e-01" purity="3.7532103061676025e-01" nType="0">
            <Node pos="l" depth="3" NCoef="0" IVar="-1" Cut="0.0000000000000000e+00" cType="1" res="1.6283530741930008e-02" rms="1.9443422555923462e-01" purity="4.2094063758850098e-01" nType="-99"/>
            <Node pos="r" depth="3" NCoef="0" IVar="-1" Cut="0.0000000000000000e+00" cType="1" res="-1.5539016574621201e-02" rms="1.7975804209709167e-01" purity="2.9458901286125183e-01" nType="-99"/>
          </Node>
        </Node>
        <Node pos="r" depth="1" NCoef="0" IVar="7" Cut="6.9609653949737549e-01" cType="1" res="1.4442786341533065e-03" rms="1.7469739913940430e-01" purity="5.3863978385925293e-01" nType="0">
          <Node pos="l" depth="2" NCoef="0" IVar="9" Cut="1.7327229976654053e+00" cType="1" res="1.0308349737897515e-04" rms="1.7508937418460846e-01" purity="5.9428995847702026e-01" nType="0">
            <Node pos="l" depth="3" NCoef="0" IVar="-1" Cut="0.0000000000000000e+00" cType="1" res="-1.4050856698304415e-03" rms="1.7313815653324127e-01" purity="6.1668318510055542e-01" nType="-99"/>
            <Node pos="r" depth="3" NCoef="0" IVar="-1" Cut="0.0000000000000000e+00" cType="1" res="2.5857796892523766e-02" rms="2.0646472275257111e-01" purity="1.9649471342563629e-01" nType="-99"/>
          </Node>
          <Node pos="r" depth="2" NCoef="0" IVar="10" Cut="-1.3455957174301147e-01" cType="1" res="6.7184171639382839e-03" rms="1.7304657399654388e-01" purity="3.1979984045028687e-01" nType="0">
            <Node pos="l" depth="3" NCoef="0" IVar="-1" Cut="0.0000000000000000e+00" cType="1" res="-7.0155570283532143e-03" rms="1.6857041418552399e-01" purity="3.2016825675964355e-01" nType="-99"/>
            <Node pos="r" depth="3" NCoef="0" IVar="-1" Cut="0.0000000000000000e+00" cType="1" res="3.8251161575317383e-02" rms="1.7571534216403961e-01" purity="3.1955474615097046e-01" nType="-99"/>
          </Node>
        </Node>
      </Node>
    </BinaryTree>
    <BinaryTree type="DecisionTree" boostWeight="1.0000000000000000e+00" itree="480">
      <Node pos="s" depth="0" NCoef="0" IVar="10" Cut="-9.3285232782363892e-01" cType="1" res="3.6152188840787858e-05" rms="1.7838078737258911e-01" purity="5.0097787380218506e-01" nType="0">
        <Node pos="l" depth="1" NCoef="0" IVar="6" Cut="1.0125924682617188e+02" cType="1" res="5.5022127926349640e-03" rms="1.9208472967147827e-01" purity="4.2334130406379700e-01" nType="0">
          <Node pos="l" depth="2" NCoef="0" IVar="2" Cut="5.3791955566406250e+02" cType="1" res="-1.0253529762849212e-03" rms="1.6787430644035339e-01" purity="1.1229213327169418e-01" nType="0">
            <Node pos="l" depth="3" NCoef="0" IVar="-1" Cut="0.0000000000000000e+00" cType="1" res="-3.7434086203575134e-02" rms="1.3329680263996124e-01" purity="3.1980331987142563e-02" nType="-99"/>
            <Node pos="r" depth="3" NCoef="0" IVar="-1" Cut="0.0000000000000000e+00" cType="1" res="2.4251548573374748e-02" rms="2.2180944681167603e-01" purity="2.7661046385765076e-01" nType="-99"/>
          </Node>
          <Node pos="r" depth="2" NCoef="0" IVar="0" Cut="2.4796369628906250e+03" cType="1" res="1.1008796282112598e-02" rms="2.1019504964351654e-01" purity="6.8573898077011108e-01" nType="0">
            <Node pos="l" depth="3" NCoef="0" IVar="-1" Cut="0.0000000000000000e+00" cType="1" res="3.3566296100616455e-02" rms="2.8230983018875122e-01" purity="2.7280542254447937e-01" nType="-99"/>
            <Node pos="r" depth="3" NCoef="0" IVar="-1" Cut="0.0000000000000000e+00" cType="1" res="-1.1110970517620444e-03" rms="1.3872796297073364e-01" purity="9.7207379341125488e-01" nType="-99"/>
          </Node>
        </Node>
        <Node pos="r" depth="1" NCoef="0" IVar="10" Cut="-3.9963218569755554e-01" cType="1" res="-1.4357803156599402e-03" rms="1.7447741329669952e-01" purity="5.2188432216644287e-01" nType="0">
          <Node pos="l" depth="2" NCoef="0" IVar="6" Cut="9.2679153442382812e+01" cType="1" res="-6.4100367017090321e-03" rms="1.7596827447414398e-01" purity="5.5380773544311523e-01" nType="0">
            <Node pos="l" depth="3" NCoef="0" IVar="-1" Cut="0.0000000000000000e+00" cType="1" res="2.4740096181631088e-02" rms="1.7006599903106689e-01" purity="1.2790584564208984e-01" nType="-99"/>
            <Node pos="r" depth="3" NCoef="0" IVar="-1" Cut="0.0000000000000000e+00" cType="1" res="-3.3803597092628479e-02" rms="1.7767643928527832e-01" purity="6.9615519046783447e-01" nType="-99"/>
          </Node>
          <Node pos="r" depth="2" NCoef="0" IVar="7" Cut="-1.3371193408966064e+00" cType="1" res="-1.9940284255426377e-04" rms="1.7408281564712524e-01" purity="5.1394963264465332e-01" nType="0">
            <Node pos="l" depth="3" NCoef="0" IVar="-1" Cut="0.0000000000000000e+00" cType="1" res="-5.7912439107894897e-02" rms="1.2032654881477356e-01" purity="7.9991318285465240e-02" nType="-99"/>
            <Node pos="r" depth="3" NCoef="0" IVar="-1" Cut="0.0000000000000000e+00" cType="1" res="1.7333838623017073e-03" rms="1.7677184939384460e-01" purity="5.4010391235351562e-01" nType="-99"/>
          </Node>
        </Node>
      </Node>
    </BinaryTree>
    <BinaryTree type="DecisionTree" boostWeight="1.0000000000000000e+00" itree="481">
      <Node pos="s" depth="0" NCoef="0" IVar="6" Cut="1.0973118591308594e+02" cType="1" res="6.1786256264895201e-04" rms="1.8494081497192383e-01" purity="5.0298148393630981e-01" nType="0">
        <Node pos="l" depth="1" NCoef="0" IVar="0" Cut="1.8946096191406250e+03" cType="1" res="3.7254833150655031e-03" rms="1.8529085814952850e-01" purity="1.4234246313571930e-01" nType="0">
          <Node pos="l" depth="2" NCoef="0" IVar="5" Cut="1.6779931640625000e+02" cType="1" res="7.4203987605869770e-04" rms="1.0900285094976425e-01" purity="1.3189574703574181e-02" nType="0">
            <Node pos="l" depth="3" NCoef="0" IVar="-1" Cut="0.0000000000000000e+00" cType="1" res="2.0740061998367310e-02" rms="1.0766954720020294e-01" purity="1.2745112180709839e-02" nType="-99"/>
            <Node pos="r" depth="3" NCoef="0" IVar="-1" Cut="0.0000000000000000e+00" cType="1" res="-4.8852082341909409e-02" rms="1.2122328579425812e-01" purity="1.7838237807154655e-02" nType="-99"/>
          </Node>
          <Node pos="r" depth="2" NCoef="0" IVar="10" Cut="6.6681849956512451e-01" cType="1" res="1.1374100111424923e-02" rms="3.0299988389015198e-01" purity="4.7345009446144104e-01" nType="0">
            <Node pos="l" depth="3" NCoef="0" IVar="-1" Cut="0.0000000000000000e+00" cType="1" res="2.4944331962615252e-03" rms="2.9351681470870972e-01" purity="4.5616143941879272e-01" nType="-99"/>
            <Node pos="r" depth="3" NCoef="0" IVar="-1" Cut="0.0000000000000000e+00" cType="1" res="3.5401497036218643e-02" rms="3.2430851459503174e-01" purity="5.1661157608032227e-01" nType="-99"/>
          </Node>
        </Node>
        <Node pos="r" depth="1" NCoef="0" IVar="8" Cut="-6.6334593296051025e-01" cType="1" res="-1.7939467215910554e-03" rms="1.8463264405727386e-01" purity="7.8287166357040405e-01" nType="0">
          <Node pos="l" depth="2" NCoef="0" IVar="0" Cut="2.9117988281250000e+03" cType="1" res="-1.2053733691573143e-02" rms="2.1677741408348083e-01" purity="6.5576350688934326e-01" nType="0">
            <Node pos="l" depth="3" NCoef="0" IVar="-1" Cut="0.0000000000000000e+00" cType="1" res="-2.9253521934151649e-02" rms="2.7072393894195557e-01" purity="4.1583839058876038e-01" nType="-99"/>
            <Node pos="r" depth="3" NCoef="0" IVar="-1" Cut="0.0000000000000000e+00" cType="1" res="4.5499075204133987e-03" rms="1.0411684215068817e-01" purity="9.8304307460784912e-01" nType="-99"/>
          </Node>
          <Node pos="r" depth="2" NCoef="0" IVar="0" Cut="2.1194729003906250e+03" cType="1" res="6.8245013244450092e-04" rms="1.7590686678886414e-01" purity="8.1355172395706177e-01" nType="0">
            <Node pos="l" depth="3" NCoef="0" IVar="-1" Cut="0.0000000000000000e+00" cType="1" res="1.3644712977111340e-02" rms="2.5817486643791199e-01" purity="1.2495123594999313e-01" nType="-99"/>
            <Node pos="r" depth="3" NCoef="0" IVar="-1" Cut="0.0000000000000000e+00" cType="1" res="-4.7910329885780811e-03" rms="1.5272046625614166e-01" purity="9.6011638641357422e-01" nType="-99"/>
          </Node>
        </Node>
      </Node>
    </BinaryTree>
    <BinaryTree type="DecisionTree" boostWeight="1.0000000000000000e+00" itree="482">
      <Node pos="s" depth="0" NCoef="0" IVar="10" Cut="1.9996509552001953e+00" cType="1" res="-1.8681490328162909e-03" rms="1.8145737051963806e-01" purity="4.9930995702743530e-01" nType="0">
        <Node pos="l" depth="1" NCoef="0" IVar="10" Cut="-1.6564525365829468e+00" cType="1" res="-1.0273958323523402e-03" rms="1.8101349472999573e-01" purity="5.1532429456710815e-01" nType="0">
          <Node pos="l" depth="2" NCoef="0" IVar="9" Cut="-4.1138860583305359e-01" cType="1" res="5.4565831087529659e-03" rms="2.1036420762538910e-01" purity="2.8333529829978943e-01" nType="0">
            <Node pos="l" depth="3" NCoef="0" IVar="-1" Cut="0.0000000000000000e+00" cType="1" res="4.4333655387163162e-02" rms="2.2226467728614807e-01" purity="2.5603228807449341e-01" nType="-99"/>
            <Node pos="r" depth="3" NCoef="0" IVar="-1" Cut="0.0000000000000000e+00" cType="1" res="-5.5662449449300766e-03" rms="2.0099428296089172e-01" purity="3.0295732617378235e-01" nType="-99"/>
          </Node>
          <Node pos="r" depth="2" NCoef="0" IVar="11" Cut="-1.1978926658630371e+00" cType="1" res="-1.4991377247497439e-03" rms="1.7868086695671082e-01" purity="5.3220266103744507e-01" nType="0">
            <Node pos="l" depth="3" NCoef="0" IVar="-1" Cut="0.0000000000000000e+00" cType="1" res="-1.7691146582365036e-02" rms="1.9837634265422821e-01" purity="4.4998583197593689e-01" nType="-99"/>
            <Node pos="r" depth="3" NCoef="0" IVar="-1" Cut="0.0000000000000000e+00" cType="1" res="-1.5314122429117560e-03" rms="1.7468461394309998e-01" purity="5.4776370525360107e-01" nType="-99"/>
          </Node>
        </Node>
        <Node pos="r" depth="1" NCoef="0" IVar="-1" Cut="0.0000000000000000e+00" cType="1" res="-4.8650257289409637e-02" rms="1.9023330509662628e-01" purity="1.3703012466430664e-01" nType="-99"/>
      </Node>
    </BinaryTree>
    <BinaryTree type="DecisionTree" boostWeight="1.0000000000000000e+00" itree="483">
      <Node pos="s" depth="0" NCoef="0" IVar="9" Cut="1.7327353954315186e+00" cType="1" res="1.2234457244630903e-04" rms="1.7950612306594849e-01" purity="4.9649620056152344e-01" nType="0">
        <Node pos="l" depth="1" NCoef="0" IVar="4" Cut="2.9354791259765625e+02" cType="1" res="-3.9674257277511060e-04" rms="1.7877948284149170e-01" purity="5.1331275701522827e-01" nType="0">
          <Node pos="l" depth="2" NCoef="0" IVar="10" Cut="-1.9976642131805420e+00" cType="1" res="-2.6913129258900881e-03" rms="1.9779972732067108e-01" purity="2.1987159550189972e-01" nType="0">
            <Node pos="l" depth="3" NCoef="0" IVar="-1" Cut="0.0000000000000000e+00" cType="1" res="3.1012257561087608e-02" rms="2.1255770325660706e-01" purity="1.4145593345165253e-01" nType="-99"/>
            <Node pos="r" depth="3" NCoef="0" IVar="-1" Cut="0.0000000000000000e+00" cType="1" res="-8.7189897894859314e-03" rms="1.9692599773406982e-01" purity="2.2415991127490997e-01" nType="-99"/>
          </Node>
          <Node pos="r" depth="2" NCoef="0" IVar="0" Cut="2.5104821777343750e+03" cType="1" res="2.9876464977860451e-03" rms="1.4621329307556152e-01" purity="9.4612532854080200e-01" nType="0">
            <Node pos="l" depth="3" NCoef="0" IVar="-1" Cut="0.0000000000000000e+00" cType="1" res="2.3502353578805923e-02" rms="3.2640221714973450e-01" purity="5.8464312553405762e-01" nType="-99"/>
            <Node pos="r" depth="3" NCoef="0" IVar="-1" Cut="0.0000000000000000e+00" cType="1" res="3.6632546689361334e-03" rms="1.1300097405910492e-01" purity="9.8238241672515869e-01" nType="-99"/>
          </Node>
        </Node>
        <Node pos="r" depth="1" NCoef="0" IVar="-1" Cut="0.0000000000000000e+00" cType="1" res="3.1815484166145325e-02" rms="1.9303259253501892e-01" purity="1.6384793817996979e-01" nType="-99"/>
      </Node>
    </BinaryTree>
    <BinaryTree type="DecisionTree" boostWeight="1.0000000000000000e+00" itree="484">
      <Node pos="s" depth="0" NCoef="0" IVar="7" Cut="1.6873957216739655e-01" cType="1" res="-3.8347329245880246e-04" rms="1.7776100337505341e-01" purity="4.9509590864181519e-01" nType="0">
        <Node pos="l" depth="1" NCoef="0" IVar="11" Cut="-1.1987717151641846e+00" cType="1" res="2.3283702321350574e-03" rms="1.8506203591823578e-01" purity="5.2474159002304077e-01" nType="0">
          <Node pos="l" depth="2" NCoef="0" IVar="2" Cut="5.4478839111328125e+02" cType="1" res="1.0793466120958328e-02" rms="2.0708401501178741e-01" purity="4.8027661442756653e-01" nType="0">
            <Node pos="l" depth="3" NCoef="0" IVar="-1" Cut="0.0000000000000000e+00" cType="1" res="5.1352538168430328e-02" rms="2.2700980305671692e-01" purity="2.5580886006355286e-01" nType="-99"/>
            <Node pos="r" depth="3" NCoef="0" IVar="-1" Cut="0.0000000000000000e+00" cType="1" res="-1.3870036927983165e-03" rms="1.8727654218673706e-01" purity="6.7586666345596313e-01" nType="-99"/>
          </Node>
          <Node pos="r" depth="2" NCoef="0" IVar="10" Cut="1.2013121843338013e+00" cType="1" res="6.1351561453193426e-04" rms="1.8022501468658447e-01" purity="5.3374928236007690e-01" nType="0">
            <Node pos="l" depth="3" NCoef="0" IVar="-1" Cut="0.0000000000000000e+00" cType="1" res="6.3026319257915020e-03" rms="1.7742183804512024e-01" purity="5.5872941017150879e-01" nType="-99"/>
            <Node pos="r" depth="3" NCoef="0" IVar="-1" Cut="0.0000000000000000e+00" cType="1" res="-2.0011655986309052e-02" rms="1.9744922220706940e-01" purity="3.6920559406280518e-01" nType="-99"/>
          </Node>
        </Node>
        <Node pos="r" depth="1" NCoef="0" IVar="0" Cut="2.3775805664062500e+03" cType="1" res="-4.1118394583463669e-03" rms="1.6713176667690277e-01" purity="4.5433768630027771e-01" nType="0">
          <Node pos="l" depth="2" NCoef="0" IVar="4" Cut="2.1843913269042969e+02" cType="1" res="-8.0355601385235786e-03" rms="1.7514699697494507e-01" purity="7.1825660765171051e-02" nType="0">
            <Node pos="l" depth="3" NCoef="0" IVar="-1" Cut="0.0000000000000000e+00" cType="1" res="-1.2019095942378044e-02" rms="1.3685667514801025e-01" purity="3.2123498618602753e-02" nType="-99"/>
            <Node pos="r" depth="3" NCoef="0" IVar="-1" Cut="0.0000000000000000e+00" cType="1" res="-3.0659222975373268e-02" rms="2.6230901479721069e-01" purity="1.9988065958023071e-01" nType="-99"/>
          </Node>
          <Node pos="r" depth="2" NCoef="0" IVar="5" Cut="1.8235868835449219e+02" cType="1" res="9.5614016754552722e-04" rms="1.5602549910545349e-01" purity="9.4840019941329956e-01" nType="0">
            <Node pos="l" depth="3" NCoef="0" IVar="-1" Cut="0.0000000000000000e+00" cType="1" res="1.7326712608337402e-02" rms="2.5464025139808655e-01" purity="8.0649209022521973e-01" nType="-99"/>
            <Node pos="r" depth="3" NCoef="0" IVar="-1" Cut="0.0000000000000000e+00" cType="1" res="-9.6692116931080818e-03" rms="1.2678755819797516e-01" purity="9.7724336385726929e-01" nType="-99"/>
          </Node>
        </Node>
      </Node>
    </BinaryTree>
    <BinaryTree type="DecisionTree" boostWeight="1.0000000000000000e+00" itree="485">
      <Node pos="s" depth="0" NCoef="0" IVar="9" Cut="-1.2000806331634521e+00" cType="1" res="3.0218638130463660e-04" rms="1.7905935645103455e-01" purity="4.9775490164756775e-01" nType="0">
        <Node pos="l" depth="1" NCoef="0" IVar="10" Cut="-1.2019885778427124e+00" cType="1" res="-7.7936104498803616e-03" rms="1.7650267481803894e-01" purity="2.8251600265502930e-01" nType="0">
          <Node pos="l" depth="2" NCoef="0" IVar="-1" Cut="0.0000000000000000e+00" cType="1" res="-7.2682790458202362e-02" rms="1.6751861572265625e-01" purity="1.6449177265167236e-01" nType="-99"/>
          <Node pos="r" depth="2" NCoef="0" IVar="1" Cut="3.5257883369922638e-02" cType="1" res="-3.2193604856729507e-03" rms="1.7847283184528351e-01" purity="3.1310424208641052e-01" nType="0">
            <Node pos="l" depth="3" NCoef="0" IVar="-1" Cut="0.0000000000000000e+00" cType="1" res="-3.2285962253808975e-02" rms="1.5206551551818848e-01" purity="8.6245283484458923e-02" nType="-99"/>
            <Node pos="r" depth="3" NCoef="0" IVar="-1" Cut="0.0000000000000000e+00" cType="1" res="2.4113263934850693e-03" rms="1.9610095024108887e-01" purity="4.8583081364631653e-01" nType="-99"/>
          </Node>
        </Node>
        <Node pos="r" depth="1" NCoef="0" IVar="7" Cut="7.3028004169464111e-01" cType="1" res="1.5023655723780394e-03" rms="1.7940418422222137e-01" purity="5.2966344356536865e-01" nType="0">
          <Node pos="l" depth="2" NCoef="0" IVar="2" Cut="8.7742626953125000e+02" cType="1" res="-3.8685473555233330e-05" rms="1.7921945452690125e-01" purity="5.7770365476608276e-01" nType="0">
            <Node pos="l" depth="3" NCoef="0" IVar="-1" Cut="0.0000000000000000e+00" cType="1" res="3.0623322818428278e-03" rms="1.8131622672080994e-01" purity="5.1970636844635010e-01" nType="-99"/>
            <Node pos="r" depth="3" NCoef="0" IVar="-1" Cut="0.0000000000000000e+00" cType="1" res="-2.2836264222860336e-02" rms="1.6654875874519348e-01" purity="9.1037344932556152e-01" nType="-99"/>
          </Node>
          <Node pos="r" depth="2" NCoef="0" IVar="11" Cut="1.3353635370731354e-01" cType="1" res="8.2913059741258621e-03" rms="1.8005873262882233e-01" purity="3.1802746653556824e-01" nType="0">
            <Node pos="l" depth="3" NCoef="0" IVar="-1" Cut="0.0000000000000000e+00" cType="1" res="4.6077080070972443e-02" rms="1.9080549478530884e-01" purity="3.4984731674194336e-01" nType="-99"/>
            <Node pos="r" depth="3" NCoef="0" IVar="-1" Cut="0.0000000000000000e+00" cType="1" res="4.2794183827936649e-03" rms="1.6860137879848480e-01" purity="2.8693377971649170e-01" nType="-99"/>
          </Node>
        </Node>
      </Node>
    </BinaryTree>
    <BinaryTree type="DecisionTree" boostWeight="1.0000000000000000e+00" itree="486">
      <Node pos="s" depth="0" NCoef="0" IVar="10" Cut="-1.7304674386978149e+00" cType="1" res="-1.0494177695363760e-03" rms="1.7738908529281616e-01" purity="4.9518287181854248e-01" nType="0">
        <Node pos="l" depth="1" NCoef="0" IVar="1" Cut="3.8281939923763275e-02" cType="1" res="-1.0831288062036037e-02" rms="1.8986080586910248e-01" purity="2.4115681648254395e-01" nType="0">
          <Node pos="l" depth="2" NCoef="0" IVar="-1" Cut="0.0000000000000000e+00" cType="1" res="-1.2064979411661625e-02" rms="1.4968565106391907e-01" purity="6.6230356693267822e-02" nType="-99"/>
          <Node pos="r" depth="2" NCoef="0" IVar="-1" Cut="0.0000000000000000e+00" cType="1" res="-3.2742645591497421e-02" rms="2.2171875834465027e-01" purity="4.1073077917098999e-01" nType="-99"/>
        </Node>
        <Node pos="r" depth="1" NCoef="0" IVar="11" Cut="-1.7310135364532471e+00" cType="1" res="-4.3812298099510372e-04" rms="1.7656247317790985e-01" purity="5.1105761528015137e-01" nType="0">
          <Node pos="l" depth="2" NCoef="0" IVar="10" Cut="2.0692624151706696e-01" cType="1" res="-9.3681542202830315e-03" rms="1.9880020618438721e-01" purity="3.4887537360191345e-01" nType="0">
            <Node pos="l" depth="3" NCoef="0" IVar="-1" Cut="0.0000000000000000e+00" cType="1" res="-5.6996908970177174e-03" rms="1.9016750156879425e-01" purity="3.5457420349121094e-01" nType="-99"/>
            <Node pos="r" depth="3" NCoef="0" IVar="-1" Cut="0.0000000000000000e+00" cType="1" res="-4.2112726718187332e-02" rms="2.1041020750999451e-01" purity="3.4051227569580078e-01" nType="-99"/>
          </Node>
          <Node pos="r" depth="2" NCoef="0" IVar="6" Cut="1.4352609252929688e+02" cType="1" res="2.3817269538994879e-04" rms="1.7474453151226044e-01" purity="5.2334010601043701e-01" nType="0">
            <Node pos="l" depth="3" NCoef="0" IVar="-1" Cut="0.0000000000000000e+00" cType="1" res="-5.1643070764839649e-03" rms="1.9180154800415039e-01" purity="2.3943763971328735e-01" nType="-99"/>
            <Node pos="r" depth="3" NCoef="0" IVar="-1" Cut="0.0000000000000000e+00" cType="1" res="1.3109277002513409e-02" rms="1.4832182228565216e-01" purity="9.1025263071060181e-01" nType="-99"/>
          </Node>
        </Node>
      </Node>
    </BinaryTree>
    <BinaryTree type="DecisionTree" boostWeight="1.0000000000000000e+00" itree="487">
      <Node pos="s" depth="0" NCoef="0" IVar="4" Cut="3.1159240722656250e+02" cType="1" res="1.2569437967613339e-03" rms="1.8216003477573395e-01" purity="4.9604293704032898e-01" nType="0">
        <Node pos="l" depth="1" NCoef="0" IVar="3" Cut="3.3960342407226562e+02" cType="1" res="3.4295604564249516e-03" rms="1.9999867677688599e-01" purity="2.4991174042224884e-01" nType="0">
          <Node pos="l" depth="2" NCoef="0" IVar="4" Cut="2.1359082031250000e+02" cType="1" res="7.6711305882781744e-04" rms="1.8084041774272919e-01" purity="1.2107290327548981e-01" nType="0">
            <Node pos="l" depth="3" NCoef="0" IVar="-1" Cut="0.0000000000000000e+00" cType="1" res="-9.3099772930145264e-03" rms="1.4514194428920746e-01" purity="4.6031638979911804e-02" nType="-99"/>
            <Node pos="r" depth="3" NCoef="0" IVar="-1" Cut="0.0000000000000000e+00" cType="1" res="1.4549492858350277e-02" rms="2.5864303112030029e-01" purity="3.4215998649597168e-01" nType="-99"/>
          </Node>
          <Node pos="r" depth="2" NCoef="0" IVar="9" Cut="9.3368571996688843e-01" cType="1" res="1.0077984072268009e-02" rms="2.4115765094757080e-01" purity="5.7163649797439575e-01" nType="0">
            <Node pos="l" depth="3" NCoef="0" IVar="-1" Cut="0.0000000000000000e+00" cType="1" res="7.7266562730073929e-03" rms="2.3472474515438080e-01" purity="5.7442879676818848e-01" nType="-99"/>
            <Node pos="r" depth="3" NCoef="0" IVar="-1" Cut="0.0000000000000000e+00" cType="1" res="5.2198123186826706e-02" rms="2.6402401924133301e-01" purity="5.6052756309509277e-01" nType="-99"/>
          </Node>
        </Node>
        <Node pos="r" depth="1" NCoef="0" IVar="5" Cut="1.8679060363769531e+02" cType="1" res="-2.7625111397355795e-03" rms="1.4333604276180267e-01" purity="9.5139849185943604e-01" nType="0">
          <Node pos="l" depth="2" NCoef="0" IVar="-1" Cut="0.0000000000000000e+00" cType="1" res="-2.8181368485093117e-02" rms="2.5875750184059143e-01" purity="7.5674247741699219e-01" nType="-99"/>
          <Node pos="r" depth="2" NCoef="0" IVar="1" Cut="8.7362937629222870e-02" cType="1" res="-6.8898254539817572e-04" rms="1.1993151903152466e-01" purity="9.7708731889724731e-01" nType="0">
            <Node pos="l" depth="3" NCoef="0" IVar="-1" Cut="0.0000000000000000e+00" cType="1" res="9.1048311442136765e-03" rms="1.5644028782844543e-01" purity="9.5498919486999512e-01" nType="-99"/>
            <Node pos="r" depth="3" NCoef="0" IVar="-1" Cut="0.0000000000000000e+00" cType="1" res="-2.8939800336956978e-02" rms="9.5912754535675049e-02" purity="9.8842489719390869e-01" nType="-99"/>
          </Node>
        </Node>
      </Node>
    </BinaryTree>
    <BinaryTree type="DecisionTree" boostWeight="1.0000000000000000e+00" itree="488">
      <Node pos="s" depth="0" NCoef="0" IVar="0" Cut="2.1418732910156250e+03" cType="1" res="3.5903669777326286e-04" rms="1.8170897662639618e-01" purity="4.9296706914901733e-01" nType="0">
        <Node pos="l" depth="1" NCoef="0" IVar="0" Cut="1.8239139404296875e+03" cType="1" res="3.9297295734286308e-03" rms="1.7254354059696198e-01" purity="4.6672027558088303e-02" nType="0">
          <Node pos="l" depth="2" NCoef="0" IVar="1" Cut="1.0818364471197128e-01" cType="1" res="1.0760333389043808e-03" rms="1.1677271872758865e-01" purity="1.4927835203707218e-02" nType="0">
            <Node pos="l" depth="3" NCoef="0" IVar="-1" Cut="0.0000000000000000e+00" cType="1" res="-4.3374644592404366e-03" rms="9.9759265780448914e-02" purity="1.0473080910742283e-02" nType="-99"/>
            <Node pos="r" depth="3" NCoef="0" IVar="-1" Cut="0.0000000000000000e+00" cType="1" res="4.2660892009735107e-02" rms="2.1130838990211487e-01" purity="5.2655506879091263e-02" nType="-99"/>
          </Node>
          <Node pos="r" depth="2" NCoef="0" IVar="5" Cut="1.5665608215332031e+02" cType="1" res="1.4826428145170212e-02" rms="3.0204916000366211e-01" purity="1.6788567602634430e-01" nType="0">
            <Node pos="l" depth="3" NCoef="0" IVar="-1" Cut="0.0000000000000000e+00" cType="1" res="5.8068088255822659e-03" rms="2.4738544225692749e-01" purity="9.1528303921222687e-02" nType="-99"/>
            <Node pos="r" depth="3" NCoef="0" IVar="-1" Cut="0.0000000000000000e+00" cType="1" res="2.5109514594078064e-02" rms="3.7258237600326538e-01" purity="2.9022738337516785e-01" nType="-99"/>
          </Node>
        </Node>
        <Node pos="r" depth="1" NCoef="0" IVar="5" Cut="1.3863919067382812e+02" cType="1" res="-2.9711178503930569e-03" rms="1.8979811668395996e-01" purity="9.0919762849807739e-01" nType="0">
          <Node pos="l" depth="2" NCoef="0" IVar="-1" Cut="0.0000000000000000e+00" cType="1" res="-2.2200185805559158e-02" rms="3.3246091008186340e-01" purity="4.9965769052505493e-01" nType="-99"/>
          <Node pos="r" depth="2" NCoef="0" IVar="5" Cut="1.7744873046875000e+02" cType="1" res="-9.6469110576435924e-04" rms="1.7070326209068298e-01" purity="9.4677180051803589e-01" nType="0">
            <Node pos="l" depth="3" NCoef="0" IVar="-1" Cut="0.0000000000000000e+00" cType="1" res="1.4472982846200466e-02" rms="2.7660471200942993e-01" purity="8.4252858161926270e-01" nType="-99"/>
            <Node pos="r" depth="3" NCoef="0" IVar="-1" Cut="0.0000000000000000e+00" cType="1" res="-1.1100953444838524e-02" rms="1.5210810303688049e-01" purity="9.5992994308471680e-01" nType="-99"/>
          </Node>
        </Node>
      </Node>
    </BinaryTree>
    <BinaryTree type="DecisionTree" boostWeight="1.0000000000000000e+00" itree="489">
      <Node pos="s" depth="0" NCoef="0" IVar="9" Cut="1.4663221836090088e+00" cType="1" res="-8.5033848881721497e-04" rms="1.7837332189083099e-01" purity="4.9982276558876038e-01" nType="0">
        <Node pos="l" depth="1" NCoef="0" IVar="2" Cut="8.8118322753906250e+02" cType="1" res="8.5818492152611725e-06" rms="1.7638698220252991e-01" purity="5.2308481931686401e-01" nType="0">
          <Node pos="l" depth="2" NCoef="0" IVar="10" Cut="-1.4652469158172607e+00" cType="1" res="-1.0740810539573431e-03" rms="1.7971161007881165e-01" purity="4.6668159961700439e-01" nType="0">
            <Node pos="l" depth="3" NCoef="0" IVar="-1" Cut="0.0000000000000000e+00" cType="1" res="1.5608186833560467e-02" rms="2.0246297121047974e-01" purity="3.0846169590950012e-01" nType="-99"/>
            <Node pos="r" depth="3" NCoef="0" IVar="-1" Cut="0.0000000000000000e+00" cType="1" res="-5.7136141695082188e-03" rms="1.7700222134590149e-01" purity="4.8414629697799683e-01" nType="-99"/>
          </Node>
          <Node pos="r" depth="2" NCoef="0" IVar="5" Cut="2.6012091064453125e+02" cType="1" res="7.6824477873742580e-03" rms="1.5051171183586121e-01" purity="9.2286843061447144e-01" nType="0">
            <Node pos="l" depth="3" NCoef="0" IVar="-1" Cut="0.0000000000000000e+00" cType="1" res="2.7491234242916107e-02" rms="1.9703561067581177e-01" purity="8.5627490282058716e-01" nType="-99"/>
            <Node pos="r" depth="3" NCoef="0" IVar="-1" Cut="0.0000000000000000e+00" cType="1" res="1.0032341815531254e-02" rms="7.2525374591350555e-02" purity="9.9410575628280640e-01" nType="-99"/>
          </Node>
        </Node>
        <Node pos="r" depth="1" NCoef="0" IVar="3" Cut="2.6918771362304688e+02" cType="1" res="-1.1093413457274437e-02" rms="2.0026719570159912e-01" purity="2.2241050004959106e-01" nType="0">
          <Node pos="l" depth="2" NCoef="0" IVar="-1" Cut="0.0000000000000000e+00" cType="1" res="1.9744662567973137e-02" rms="1.5210935473442078e-01" purity="5.7833012193441391e-02" nType="-99"/>
          <Node pos="r" depth="2" NCoef="0" IVar="-1" Cut="0.0000000000000000e+00" cType="1" res="-4.6990223228931427e-02" rms="2.3187781870365143e-01" purity="3.5834988951683044e-01" nType="-99"/>
        </Node>
      </Node>
    </BinaryTree>
    <BinaryTree type="DecisionTree" boostWeight="1.0000000000000000e+00" itree="490">
      <Node pos="s" depth="0" NCoef="0" IVar="10" Cut="-1.7325736284255981e+00" cType="1" res="9.7496306989341974e-04" rms="1.7786632478237152e-01" purity="4.9821823835372925e-01" nType="0">
        <Node pos="l" depth="1" NCoef="0" IVar="9" Cut="-1.2931144237518311e-01" cType="1" res="1.3547689653933048e-02" rms="2.1226209402084351e-01" purity="3.0258303880691528e-01" nType="0">
          <Node pos="l" depth="2" NCoef="0" IVar="-1" Cut="0.0000000000000000e+00" cType="1" res="5.6475453078746796e-02" rms="2.2093899548053741e-01" purity="3.0215167999267578e-01" nType="-99"/>
          <Node pos="r" depth="2" NCoef="0" IVar="-1" Cut="0.0000000000000000e+00" cType="1" res="3.3542877063155174e-03" rms="2.0088282227516174e-01" purity="3.0309188365936279e-01" nType="-99"/>
        </Node>
        <Node pos="r" depth="1" NCoef="0" IVar="10" Cut="1.9361196756362915e+00" cType="1" res="2.3200987197924405e-04" rms="1.7559495568275452e-01" purity="5.0977879762649536e-01" nType="0">
          <Node pos="l" depth="2" NCoef="0" IVar="4" Cut="2.0643418884277344e+02" cType="1" res="6.6414690809324384e-04" rms="1.7423796653747559e-01" purity="5.2446234226226807e-01" nType="0">
            <Node pos="l" depth="3" NCoef="0" IVar="-1" Cut="0.0000000000000000e+00" cType="1" res="-8.6137307807803154e-03" rms="1.5586157143115997e-01" purity="6.9998204708099365e-02" nType="-99"/>
            <Node pos="r" depth="3" NCoef="0" IVar="-1" Cut="0.0000000000000000e+00" cType="1" res="6.5460503101348877e-03" rms="1.8390364944934845e-01" purity="7.8435891866683960e-01" nType="-99"/>
          </Node>
          <Node pos="r" depth="2" NCoef="0" IVar="-1" Cut="0.0000000000000000e+00" cType="1" res="-2.2014409303665161e-02" rms="2.0324303209781647e-01" purity="1.8280911445617676e-01" nType="-99"/>
        </Node>
      </Node>
    </BinaryTree>
    <BinaryTree type="DecisionTree" boostWeight="1.0000000000000000e+00" itree="491">
      <Node pos="s" depth="0" NCoef="0" IVar="3" Cut="6.0346899414062500e+02" cType="1" res="-1.0274167871102691e-03" rms="1.7806775867938995e-01" purity="4.9655735492706299e-01" nType="0">
        <Node pos="l" depth="1" NCoef="0" IVar="10" Cut="1.9996237754821777e+00" cType="1" res="1.2712655006907880e-04" rms="1.8180878460407257e-01" purity="4.3594953417778015e-01" nType="0">
          <Node pos="l" depth="2" NCoef="0" IVar="11" Cut="1.7332991361618042e+00" cType="1" res="-5.6684447918087244e-04" rms="1.8034709990024567e-01" purity="4.4530618190765381e-01" nType="0">
            <Node pos="l" depth="3" NCoef="0" IVar="-1" Cut="0.0000000000000000e+00" cType="1" res="1.0886315722018480e-03" rms="1.7842584848403931e-01" purity="4.5704722404479980e-01" nType="-99"/>
            <Node pos="r" depth="3" NCoef="0" IVar="-1" Cut="0.0000000000000000e+00" cType="1" res="-2.7157053351402283e-02" rms="2.0203812420368195e-01" purity="3.0166950821876526e-01" nType="-99"/>
          </Node>
          <Node pos="r" depth="2" NCoef="0" IVar="-1" Cut="0.0000000000000000e+00" cType="1" res="4.4021874666213989e-02" rms="2.1650172770023346e-01" purity="1.8536649644374847e-01" nType="-99"/>
        </Node>
        <Node pos="r" depth="1" NCoef="0" IVar="1" Cut="6.5384864807128906e-02" cType="1" res="-9.6607757732272148e-03" rms="1.4682064950466156e-01" purity="9.4976586103439331e-01" nType="0">
          <Node pos="l" depth="2" NCoef="0" IVar="-1" Cut="0.0000000000000000e+00" cType="1" res="-6.0188744217157364e-02" rms="2.1746492385864258e-01" purity="8.7099087238311768e-01" nType="-99"/>
          <Node pos="r" depth="2" NCoef="0" IVar="-1" Cut="0.0000000000000000e+00" cType="1" res="-2.5391390547156334e-02" rms="9.3818701803684235e-02" purity="9.8824888467788696e-01" nType="-99"/>
        </Node>
      </Node>
    </BinaryTree>
    <BinaryTree type="DecisionTree" boostWeight="1.0000000000000000e+00" itree="492">
      <Node pos="s" depth="0" NCoef="0" IVar="10" Cut="9.3360137939453125e-01" cType="1" res="1.6952417790889740e-03" rms="1.7986996471881866e-01" purity="5.0528967380523682e-01" nType="0">
        <Node pos="l" depth="1" NCoef="0" IVar="10" Cut="-2.0871808528900146e+00" cType="1" res="3.5823304206132889e-03" rms="1.7529723048210144e-01" purity="5.2599102258682251e-01" nType="0">
          <Node pos="l" depth="2" NCoef="0" IVar="-1" Cut="0.0000000000000000e+00" cType="1" res="-3.9737075567245483e-02" rms="1.9193451106548309e-01" purity="1.6253505647182465e-01" nType="-99"/>
          <Node pos="r" depth="2" NCoef="0" IVar="0" Cut="1.8887344970703125e+03" cType="1" res="4.3779746629297733e-03" rms="1.7460007965564728e-01" purity="5.3944694995880127e-01" nType="0">
            <Node pos="l" depth="3" NCoef="0" IVar="-1" Cut="0.0000000000000000e+00" cType="1" res="-4.1441530920565128e-03" rms="1.1898881942033768e-01" purity="1.6201101243495941e-02" nType="-99"/>
            <Node pos="r" depth="3" NCoef="0" IVar="-1" Cut="0.0000000000000000e+00" cType="1" res="1.7943482846021652e-02" rms="2.0052114129066467e-01" purity="8.5182893276214600e-01" nType="-99"/>
          </Node>
        </Node>
        <Node pos="r" depth="1" NCoef="0" IVar="9" Cut="6.7082417011260986e-01" cType="1" res="-5.7841278612613678e-03" rms="1.9677430391311646e-01" purity="4.2324087023735046e-01" nType="0">
          <Node pos="l" depth="2" NCoef="0" IVar="6" Cut="1.4293200683593750e+02" cType="1" res="-1.3538765488192439e-03" rms="1.9569079577922821e-01" purity="4.6763002872467041e-01" nType="0">
            <Node pos="l" depth="3" NCoef="0" IVar="-1" Cut="0.0000000000000000e+00" cType="1" res="6.8089799024164677e-03" rms="2.0476669073104858e-01" purity="2.4737663567066193e-01" nType="-99"/>
            <Node pos="r" depth="3" NCoef="0" IVar="-1" Cut="0.0000000000000000e+00" cType="1" res="-2.6794286444783211e-02" rms="1.7807264626026154e-01" purity="8.6126363277435303e-01" nType="-99"/>
          </Node>
          <Node pos="r" depth="2" NCoef="0" IVar="0" Cut="1.7619108886718750e+03" cType="1" res="-1.6037765890359879e-02" rms="1.9888128340244293e-01" purity="3.2050386071205139e-01" nType="0">
            <Node pos="l" depth="3" NCoef="0" IVar="-1" Cut="0.0000000000000000e+00" cType="1" res="4.0033459663391113e-02" rms="1.0953647643327713e-01" purity="1.3725347816944122e-02" nType="-99"/>
            <Node pos="r" depth="3" NCoef="0" IVar="-1" Cut="0.0000000000000000e+00" cType="1" res="-4.5431487262248993e-02" rms="2.4492271244525909e-01" purity="5.5385392904281616e-01" nType="-99"/>
          </Node>
        </Node>
      </Node>
    </BinaryTree>
    <BinaryTree type="DecisionTree" boostWeight="1.0000000000000000e+00" itree="493">
      <Node pos="s" depth="0" NCoef="0" IVar="11" Cut="-9.3218988180160522e-01" cType="1" res="1.9594843615777791e-04" rms="1.7919071018695831e-01" purity="5.0233650207519531e-01" nType="0">
        <Node pos="l" depth="1" NCoef="0" IVar="9" Cut="1.3308508694171906e-01" cType="1" res="5.7036965154111385e-03" rms="1.9023548066616058e-01" purity="4.4777590036392212e-01" nType="0">
          <Node pos="l" depth="2" NCoef="0" IVar="9" Cut="-9.8368394374847412e-01" cType="1" res="9.2350260820239782e-04" rms="1.8067736923694611e-01" purity="4.1858074069023132e-01" nType="0">
            <Node pos="l" depth="3" NCoef="0" IVar="-1" Cut="0.0000000000000000e+00" cType="1" res="2.1753473207354546e-02" rms="1.9037252664566040e-01" purity="3.0794656276702881e-01" nType="-99"/>
            <Node pos="r" depth="3" NCoef="0" IVar="-1" Cut="0.0000000000000000e+00" cType="1" res="-9.5749590545892715e-03" rms="1.7483969032764435e-01" purity="4.8097869753837585e-01" nType="-99"/>
          </Node>
          <Node pos="r" depth="2" NCoef="0" IVar="10" Cut="-1.3508942723274231e-01" cType="1" res="1.3127506710588932e-02" rms="2.0397254824638367e-01" purity="4.9311700463294983e-01" nType="0">
            <Node pos="l" depth="3" NCoef="0" IVar="-1" Cut="0.0000000000000000e+00" cType="1" res="7.2928806766867638e-03" rms="2.0058904588222504e-01" purity="4.5292800664901733e-01" nType="-99"/>
            <Node pos="r" depth="3" NCoef="0" IVar="-1" Cut="0.0000000000000000e+00" cType="1" res="5.5062722414731979e-02" rms="2.0664909482002258e-01" purity="5.3118568658828735e-01" nType="-99"/>
          </Node>
        </Node>
        <Node pos="r" depth="1" NCoef="0" IVar="11" Cut="-4.3569099158048630e-02" cType="1" res="-1.5150636900216341e-03" rms="1.7558307945728302e-01" purity="5.1928603649139404e-01" nType="0">
          <Node pos="l" depth="2" NCoef="0" IVar="3" Cut="2.6799032592773438e+02" cType="1" res="-4.7486471012234688e-03" rms="1.6571447253227234e-01" purity="5.3326767683029175e-01" nType="0">
            <Node pos="l" depth="3" NCoef="0" IVar="-1" Cut="0.0000000000000000e+00" cType="1" res="1.6920985653996468e-02" rms="1.4174814522266388e-01" purity="6.0741979628801346e-02" nType="-99"/>
            <Node pos="r" depth="3" NCoef="0" IVar="-1" Cut="0.0000000000000000e+00" cType="1" res="-2.3758895695209503e-02" rms="1.7307581007480621e-01" purity="6.9508743286132812e-01" nType="-99"/>
          </Node>
          <Node pos="r" depth="2" NCoef="0" IVar="7" Cut="-2.7262729406356812e-01" cType="1" res="1.4201668091118336e-04" rms="1.8040882050991058e-01" purity="5.1212096214294434e-01" nType="0">
            <Node pos="l" depth="3" NCoef="0" IVar="-1" Cut="0.0000000000000000e+00" cType="1" res="1.3706066645681858e-02" rms="1.8717840313911438e-01" purity="4.7426128387451172e-01" nType="-99"/>
            <Node pos="r" depth="3" NCoef="0" IVar="-1" Cut="0.0000000000000000e+00" cType="1" res="-7.0525766350328922e-03" rms="1.7675417661666870e-01" purity="5.3172296285629272e-01" nType="-99"/>
          </Node>
        </Node>
      </Node>
    </BinaryTree>
    <BinaryTree type="DecisionTree" boostWeight="1.0000000000000000e+00" itree="494">
      <Node pos="s" depth="0" NCoef="0" IVar="7" Cut="-8.1270122528076172e-01" cType="1" res="-1.1558816768229008e-03" rms="1.7662940919399261e-01" purity="5.0047767162322998e-01" nType="0">
        <Node pos="l" depth="1" NCoef="0" IVar="10" Cut="-6.6671985387802124e-01" cType="1" res="5.3382534533739090e-03" rms="1.8084155023097992e-01" purity="2.7233090996742249e-01" nType="0">
          <Node pos="l" depth="2" NCoef="0" IVar="9" Cut="-1.2123601883649826e-01" cType="1" res="1.4001064002513885e-02" rms="1.8526813387870789e-01" purity="2.5930869579315186e-01" nType="0">
            <Node pos="l" depth="3" NCoef="0" IVar="-1" Cut="0.0000000000000000e+00" cType="1" res="-1.3049137778580189e-03" rms="1.6594007611274719e-01" purity="2.3576113581657410e-01" nType="-99"/>
            <Node pos="r" depth="3" NCoef="0" IVar="-1" Cut="0.0000000000000000e+00" cType="1" res="9.6282444894313812e-02" rms="2.0187807083129883e-01" purity="2.8306740522384644e-01" nType="-99"/>
          </Node>
          <Node pos="r" depth="2" NCoef="0" IVar="11" Cut="-3.9610630273818970e-01" cType="1" res="1.3670818880200386e-03" rms="1.7863531410694122e-01" purity="2.7830049395561218e-01" nType="0">
            <Node pos="l" depth="3" NCoef="0" IVar="-1" Cut="0.0000000000000000e+00" cType="1" res="-1.7371630296111107e-02" rms="1.7212986946105957e-01" purity="2.4883283674716949e-01" nType="-99"/>
            <Node pos="r" depth="3" NCoef="0" IVar="-1" Cut="0.0000000000000000e+00" cType="1" res="1.9078524783253670e-02" rms="1.8260876834392548e-01" purity="2.9759290814399719e-01" nType="-99"/>
          </Node>
        </Node>
        <Node pos="r" depth="1" NCoef="0" IVar="0" Cut="2.6219965820312500e+03" cType="1" res="-2.4466945324093103e-03" rms="1.7575158178806305e-01" purity="5.4582548141479492e-01" nType="0">
          <Node pos="l" depth="2" NCoef="0" IVar="6" Cut="1.1979364776611328e+02" cType="1" res="-5.5645583197474480e-03" rms="2.1214704215526581e-01" purity="1.6852799057960510e-01" nType="0">
            <Node pos="l" depth="3" NCoef="0" IVar="-1" Cut="0.0000000000000000e+00" cType="1" res="-1.9755584653466940e-03" rms="1.8314568698406219e-01" purity="8.0320991575717926e-02" nType="-99"/>
            <Node pos="r" depth="3" NCoef="0" IVar="-1" Cut="0.0000000000000000e+00" cType="1" res="-2.3634558543562889e-02" rms="2.7924302220344543e-01" purity="4.2427921295166016e-01" nType="-99"/>
          </Node>
          <Node pos="r" depth="2" NCoef="0" IVar="4" Cut="2.9651654052734375e+02" cType="1" res="1.1035148054361343e-03" rms="1.2161216884851456e-01" purity="9.7544181346893311e-01" nType="0">
            <Node pos="l" depth="3" NCoef="0" IVar="-1" Cut="0.0000000000000000e+00" cType="1" res="2.0001582801342010e-02" rms="1.7848064005374908e-01" purity="9.3323892354965210e-01" nType="-99"/>
            <Node pos="r" depth="3" NCoef="0" IVar="-1" Cut="0.0000000000000000e+00" cType="1" res="-4.7555482015013695e-03" rms="1.0262366384267807e-01" purity="9.8593872785568237e-01" nType="-99"/>
          </Node>
        </Node>
      </Node>
    </BinaryTree>
    <BinaryTree type="DecisionTree" boostWeight="1.0000000000000000e+00" itree="495">
      <Node pos="s" depth="0" NCoef="0" IVar="7" Cut="-8.1909513473510742e-01" cType="1" res="-5.3964846301823854e-04" rms="1.8073880672454834e-01" purity="5.0019389390945435e-01" nType="0">
        <Node pos="l" depth="1" NCoef="0" IVar="0" Cut="2.1027846679687500e+03" cType="1" res="-7.5390408746898174e-03" rms="1.8201112747192383e-01" purity="2.6203331351280212e-01" nType="0">
          <Node pos="l" depth="2" NCoef="0" IVar="2" Cut="4.7070071411132812e+02" cType="1" res="-1.6900342889130116e-03" rms="1.3247381150722504e-01" purity="2.3507518693804741e-02" nType="0">
            <Node pos="l" depth="3" NCoef="0" IVar="-1" Cut="0.0000000000000000e+00" cType="1" res="1.4681407250463963e-02" rms="1.5149652957916260e-01" purity="3.2697159796953201e-02" nType="-99"/>
            <Node pos="r" depth="3" NCoef="0" IVar="-1" Cut="0.0000000000000000e+00" cType="1" res="-6.5908581018447876e-02" rms="9.1142788529396057e-02" purity="7.9679004848003387e-03" nType="-99"/>
          </Node>
          <Node pos="r" depth="2" NCoef="0" IVar="11" Cut="-1.3309106230735779e-01" cType="1" res="-1.9567063078284264e-02" rms="2.5485184788703918e-01" purity="7.5254291296005249e-01" nType="0">
            <Node pos="l" depth="3" NCoef="0" IVar="-1" Cut="0.0000000000000000e+00" cType="1" res="3.2470200676470995e-03" rms="2.4397681653499603e-01" purity="7.7076095342636108e-01" nType="-99"/>
            <Node pos="r" depth="3" NCoef="0" IVar="-1" Cut="0.0000000000000000e+00" cType="1" res="-5.9033688157796860e-02" rms="2.6282227039337158e-01" purity="7.3594987392425537e-01" nType="-99"/>
          </Node>
        </Node>
        <Node pos="r" depth="1" NCoef="0" IVar="2" Cut="3.0850991821289062e+02" cType="1" res="8.0164498649537563e-04" rms="1.8046297132968903e-01" purity="5.4583257436752319e-01" nType="0">
          <Node pos="l" depth="2" NCoef="0" IVar="-1" Cut="0.0000000000000000e+00" cType="1" res="-5.6556783616542816e-02" rms="1.1547151952981949e-01" purity="2.4783836677670479e-02" nType="-99"/>
          <Node pos="r" depth="2" NCoef="0" IVar="0" Cut="2.3833525390625000e+03" cType="1" res="1.7993818037211895e-03" rms="1.8445621430873871e-01" purity="5.8568948507308960e-01" nType="0">
            <Node pos="l" depth="3" NCoef="0" IVar="-1" Cut="0.0000000000000000e+00" cType="1" res="9.9530695006251335e-03" rms="2.1652176976203918e-01" purity="1.1752966046333313e-01" nType="-99"/>
            <Node pos="r" depth="3" NCoef="0" IVar="-1" Cut="0.0000000000000000e+00" cType="1" res="-2.0036259666085243e-03" rms="1.5406303107738495e-01" purity="9.5989000797271729e-01" nType="-99"/>
          </Node>
        </Node>
      </Node>
    </BinaryTree>
    <BinaryTree type="DecisionTree" boostWeight="1.0000000000000000e+00" itree="496">
      <Node pos="s" depth="0" NCoef="0" IVar="9" Cut="1.3315311074256897e-01" cType="1" res="3.5010150168091059e-04" rms="1.8003143370151520e-01" purity="5.0714248418807983e-01" nType="0">
        <Node pos="l" depth="1" NCoef="0" IVar="2" Cut="6.1397747802734375e+02" cType="1" res="3.6604506894946098e-03" rms="1.8583649396896362e-01" purity="5.1756852865219116e-01" nType="0">
          <Node pos="l" depth="2" NCoef="0" IVar="4" Cut="1.8476342773437500e+02" cType="1" res="6.6995006054639816e-03" rms="1.9202242791652679e-01" purity="3.1444880366325378e-01" nType="0">
            <Node pos="l" depth="3" NCoef="0" IVar="-1" Cut="0.0000000000000000e+00" cType="1" res="-3.0933870002627373e-03" rms="1.2648381292819977e-01" purity="2.6848794892430305e-02" nType="-99"/>
            <Node pos="r" depth="3" NCoef="0" IVar="-1" Cut="0.0000000000000000e+00" cType="1" res="2.3620823398232460e-02" rms="2.2513213753700256e-01" purity="5.0552856922149658e-01" nType="-99"/>
          </Node>
          <Node pos="r" depth="2" NCoef="0" IVar="6" Cut="8.1597198486328125e+01" cType="1" res="-6.3077162485569715e-04" rms="1.7664444446563721e-01" purity="8.0437910556793213e-01" nType="0">
            <Node pos="l" depth="3" NCoef="0" IVar="-1" Cut="0.0000000000000000e+00" cType="1" res="2.7689829468727112e-02" rms="2.2108040750026703e-01" purity="2.5088751316070557e-01" nType="-99"/>
            <Node pos="r" depth="3" NCoef="0" IVar="-1" Cut="0.0000000000000000e+00" cType="1" res="-9.2975692823529243e-03" rms="1.6922678053379059e-01" purity="8.8379669189453125e-01" nType="-99"/>
          </Node>
        </Node>
        <Node pos="r" depth="1" NCoef="0" IVar="4" Cut="2.8808505249023438e+02" cType="1" res="-3.6411660257726908e-03" rms="1.7268878221511841e-01" purity="4.9457192420959473e-01" nType="0">
          <Node pos="l" depth="2" NCoef="0" IVar="3" Cut="3.2866415405273438e+02" cType="1" res="-7.4838045984506607e-03" rms="1.8722903728485107e-01" purity="2.0502492785453796e-01" nType="0">
            <Node pos="l" depth="3" NCoef="0" IVar="-1" Cut="0.0000000000000000e+00" cType="1" res="-1.1930456385016441e-02" rms="1.6564522683620453e-01" purity="9.9571734666824341e-02" nType="-99"/>
            <Node pos="r" depth="3" NCoef="0" IVar="-1" Cut="0.0000000000000000e+00" cType="1" res="-2.6714043691754341e-02" rms="2.2841694951057434e-01" purity="4.4363510608673096e-01" nType="-99"/>
          </Node>
          <Node pos="r" depth="2" NCoef="0" IVar="0" Cut="2.9810683593750000e+03" cType="1" res="2.1469274070113897e-03" rms="1.4792858064174652e-01" purity="9.3071109056472778e-01" nType="0">
            <Node pos="l" depth="3" NCoef="0" IVar="-1" Cut="0.0000000000000000e+00" cType="1" res="1.6198743134737015e-02" rms="2.3509405553340912e-01" purity="7.9774451255798340e-01" nType="-99"/>
            <Node pos="r" depth="3" NCoef="0" IVar="-1" Cut="0.0000000000000000e+00" cType="1" res="-1.8853059038519859e-02" rms="8.5220143198966980e-02" purity="9.8876571655273438e-01" nType="-99"/>
          </Node>
        </Node>
      </Node>
    </BinaryTree>
    <BinaryTree type="DecisionTree" boostWeight="1.0000000000000000e+00" itree="497">
      <Node pos="s" depth="0" NCoef="0" IVar="10" Cut="1.7332382202148438e+00" cType="1" res="7.5209792703390121e-04" rms="1.8198858201503754e-01" purity="4.9960681796073914e-01" nType="0">
        <Node pos="l" depth="1" NCoef="0" IVar="9" Cut="9.3252545595169067e-01" cType="1" res="4.0382092265645042e-05" rms="1.7895302176475525e-01" purity="5.1321995258331299e-01" nType="0">
          <Node pos="l" depth="2" NCoef="0" IVar="11" Cut="1.7336028814315796e+00" cType="1" res="1.1742399074137211e-03" rms="1.7503415048122406e-01" purity="5.4335713386535645e-01" nType="0">
            <Node pos="l" depth="3" NCoef="0" IVar="-1" Cut="0.0000000000000000e+00" cType="1" res="5.9145223349332809e-03" rms="1.7225319147109985e-01" purity="5.5420118570327759e-01" nType="-99"/>
            <Node pos="r" depth="3" NCoef="0" IVar="-1" Cut="0.0000000000000000e+00" cType="1" res="-1.9880248233675957e-02" rms="2.0988270640373230e-01" purity="3.9169415831565857e-01" nType="-99"/>
          </Node>
          <Node pos="r" depth="2" NCoef="0" IVar="5" Cut="1.0730776977539062e+02" cType="1" res="-5.1924432627856731e-03" rms="1.9594138860702515e-01" purity="3.7413489818572998e-01" nType="0">
            <Node pos="l" depth="3" NCoef="0" IVar="-1" Cut="0.0000000000000000e+00" cType="1" res="3.6695163697004318e-02" rms="1.3467407226562500e-01" purity="4.2725320905447006e-02" nType="-99"/>
            <Node pos="r" depth="3" NCoef="0" IVar="-1" Cut="0.0000000000000000e+00" cType="1" res="-2.0498862490057945e-02" rms="2.1201130747795105e-01" purity="4.8230618238449097e-01" nType="-99"/>
          </Node>
        </Node>
        <Node pos="r" depth="1" NCoef="0" IVar="9" Cut="1.2808291614055634e-01" cType="1" res="1.2467426247894764e-02" rms="2.2585307061672211e-01" purity="2.7552577853202820e-01" nType="0">
          <Node pos="l" depth="2" NCoef="0" IVar="-1" Cut="0.0000000000000000e+00" cType="1" res="4.9510579556226730e-02" rms="2.3940098285675049e-01" purity="2.8728437423706055e-01" nType="-99"/>
          <Node pos="r" depth="2" NCoef="0" IVar="-1" Cut="0.0000000000000000e+00" cType="1" res="3.7504185456782579e-03" rms="2.1081502735614777e-01" purity="2.6370769739151001e-01" nType="-99"/>
        </Node>
      </Node>
    </BinaryTree>
    <BinaryTree type="DecisionTree" boostWeight="1.0000000000000000e+00" itree="498">
      <Node pos="s" depth="0" NCoef="0" IVar="9" Cut="6.6625678539276123e-01" cType="1" res="-1.3340647274162620e-04" rms="1.8063761293888092e-01" purity="4.9899968504905701e-01" nType="0">
        <Node pos="l" depth="1" NCoef="0" IVar="9" Cut="-1.3143541812896729e+00" cType="1" res="-2.3240926675498486e-03" rms="1.7464481294155121e-01" purity="5.2147316932678223e-01" nType="0">
          <Node pos="l" depth="2" NCoef="0" IVar="6" Cut="8.4975296020507812e+01" cType="1" res="-1.1435831896960735e-02" rms="1.8631391227245331e-01" purity="2.3625209927558899e-01" nType="0">
            <Node pos="l" depth="3" NCoef="0" IVar="-1" Cut="0.0000000000000000e+00" cType="1" res="1.4576788991689682e-02" rms="1.5164662897586823e-01" purity="4.7466214746236801e-02" nType="-99"/>
            <Node pos="r" depth="3" NCoef="0" IVar="-1" Cut="0.0000000000000000e+00" cType="1" res="-4.2549941688776016e-02" rms="2.0392490923404694e-01" purity="3.5008475184440613e-01" nType="-99"/>
          </Node>
          <Node pos="r" depth="2" NCoef="0" IVar="8" Cut="-1.1962872743606567e+00" cType="1" res="-8.1816391320899129e-04" rms="1.7259396612644196e-01" purity="5.6861263513565063e-01" nType="0">
            <Node pos="l" depth="3" NCoef="0" IVar="-1" Cut="0.0000000000000000e+00" cType="1" res="-2.6681939139962196e-02" rms="1.8861339986324310e-01" purity="2.2408746182918549e-01" nType="-99"/>
            <Node pos="r" depth="3" NCoef="0" IVar="-1" Cut="0.0000000000000000e+00" cType="1" res="6.2532146694138646e-04" rms="1.7074973881244659e-01" purity="6.0568988323211670e-01" nType="-99"/>
          </Node>
        </Node>
        <Node pos="r" depth="1" NCoef="0" IVar="8" Cut="6.6191047430038452e-01" cType="1" res="6.3643190078437328e-03" rms="1.9720207154750824e-01" purity="4.3234187364578247e-01" nType="0">
          <Node pos="l" depth="2" NCoef="0" IVar="6" Cut="9.1412368774414062e+01" cType="1" res="9.9363783374428749e-03" rms="2.0098452270030975e-01" purity="4.8581063747406006e-01" nType="0">
            <Node pos="l" depth="3" NCoef="0" IVar="-1" Cut="0.0000000000000000e+00" cType="1" res="6.2851533293724060e-02" rms="1.9507670402526855e-01" purity="1.2726691365242004e-01" nType="-99"/>
            <Node pos="r" depth="3" NCoef="0" IVar="-1" Cut="0.0000000000000000e+00" cType="1" res="1.3671050779521465e-02" rms="2.0343002676963806e-01" purity="6.4541530609130859e-01" nType="-99"/>
          </Node>
          <Node pos="r" depth="2" NCoef="0" IVar="4" Cut="2.1088020324707031e+02" cType="1" res="-2.9922418761998415e-03" rms="1.8660810589790344e-01" purity="2.9228717088699341e-01" nType="0">
            <Node pos="l" depth="3" NCoef="0" IVar="-1" Cut="0.0000000000000000e+00" cType="1" res="1.7809340730309486e-02" rms="1.4617489278316498e-01" purity="6.2075573951005936e-02" nType="-99"/>
            <Node pos="r" depth="3" NCoef="0" IVar="-1" Cut="0.0000000000000000e+00" cType="1" res="-2.4849036708474159e-02" rms="2.3062738776206970e-01" purity="6.0906499624252319e-01" nType="-99"/>
          </Node>
        </Node>
      </Node>
    </BinaryTree>
    <BinaryTree type="DecisionTree" boostWeight="1.0000000000000000e+00" itree="499">
      <Node pos="s" depth="0" NCoef="0" IVar="7" Cut="1.2682950496673584e+00" cType="1" res="1.6030881088227034e-03" rms="1.7921662330627441e-01" purity="5.0371265411376953e-01" nType="0">
        <Node pos="l" depth="1" NCoef="0" IVar="2" Cut="4.4371893310546875e+02" cType="1" res="8.4611878264695406e-04" rms="1.8320320546627045e-01" purity="5.3585165739059448e-01" nType="0">
          <Node pos="l" depth="2" NCoef="0" IVar="8" Cut="-1.3082972168922424e-01" cType="1" res="-3.3430755138397217e-03" rms="1.9093307852745056e-01" purity="1.4344854652881622e-01" nType="0">
            <Node pos="l" depth="3" NCoef="0" IVar="-1" Cut="0.0000000000000000e+00" cType="1" res="1.5247732400894165e-02" rms="1.9419816136360168e-01" purity="1.5200848877429962e-01" nType="-99"/>
            <Node pos="r" depth="3" NCoef="0" IVar="-1" Cut="0.0000000000000000e+00" cType="1" res="-2.9611008241772652e-02" rms="1.8771244585514069e-01" purity="1.3604962825775146e-01" nType="-99"/>
          </Node>
          <Node pos="r" depth="2" NCoef="0" IVar="8" Cut="4.0079659223556519e-01" cType="1" res="2.3473978508263826e-03" rms="1.8032875657081604e-01" purity="6.7647695541381836e-01" nType="0">
            <Node pos="l" depth="3" NCoef="0" IVar="-1" Cut="0.0000000000000000e+00" cType="1" res="-2.1204224321991205e-03" rms="1.7340093851089478e-01" purity="7.0392090082168579e-01" nType="-99"/>
            <Node pos="r" depth="3" NCoef="0" IVar="-1" Cut="0.0000000000000000e+00" cType="1" res="2.3784320801496506e-02" rms="1.9402354955673218e-01" purity="6.1838614940643311e-01" nType="-99"/>
          </Node>
        </Node>
        <Node pos="r" depth="1" NCoef="0" IVar="8" Cut="-1.3447356224060059e-01" cType="1" res="1.0972443968057632e-02" rms="1.1891416460275650e-01" purity="1.0591325908899307e-01" nType="0">
          <Node pos="l" depth="2" NCoef="0" IVar="-1" Cut="0.0000000000000000e+00" cType="1" res="-1.8615303561091423e-02" rms="1.2418011575937271e-01" purity="7.0460185408592224e-02" nType="-99"/>
          <Node pos="r" depth="2" NCoef="0" IVar="-1" Cut="0.0000000000000000e+00" cType="1" res="9.6731953322887421e-02" rms="1.1257158964872360e-01" purity="1.3731992244720459e-01" nType="-99"/>
        </Node>
      </Node>
    </BinaryTree>
    <BinaryTree type="DecisionTree" boostWeight="1.0000000000000000e+00" itree="500">
      <Node pos="s" depth="0" NCoef="0" IVar="9" Cut="1.1995261907577515e+00" cType="1" res="-2.1209078840911388e-03" rms="1.7816050350666046e-01" purity="4.9634718894958496e-01" nType="0">
        <Node pos="l" depth="1" NCoef="0" IVar="7" Cut="-1.1415117979049683e+00" cType="1" res="-1.1540477862581611e-03" rms="1.7615164816379547e-01" purity="5.2135604619979858e-01" nType="0">
          <Node pos="l" depth="2" NCoef="0" IVar="0" Cut="1.7565858154296875e+03" cType="1" res="7.0326463319361210e-03" rms="1.6586107015609741e-01" purity="1.7139567434787750e-01" nType="0">
            <Node pos="l" depth="3" NCoef="0" IVar="-1" Cut="0.0000000000000000e+00" cType="1" res="-5.7609841227531433e-02" rms="5.1826108247041702e-02" purity="2.5813761167228222e-03" nType="-99"/>
            <Node pos="r" depth="3" NCoef="0" IVar="-1" Cut="0.0000000000000000e+00" cType="1" res="3.4395590424537659e-02" rms="2.5817435979843140e-01" purity="4.4057607650756836e-01" nType="-99"/>
          </Node>
          <Node pos="r" depth="2" NCoef="0" IVar="10" Cut="-1.3270078599452972e-01" cType="1" res="-1.9363735336810350e-03" rms="1.7708392441272736e-01" purity="5.5479854345321655e-01" nType="0">
            <Node pos="l" depth="3" NCoef="0" IVar="-1" Cut="0.0000000000000000e+00" cType="1" res="-1.4987758360803127e-02" rms="1.8007721006870270e-01" purity="5.3766483068466187e-01" nType="-99"/>
            <Node pos="r" depth="3" NCoef="0" IVar="-1" Cut="0.0000000000000000e+00" cType="1" res="2.0617130212485790e-03" rms="1.7443674802780151e-01" purity="5.6947398185729980e-01" nType="-99"/>
          </Node>
        </Node>
        <Node pos="r" depth="1" NCoef="0" IVar="1" Cut="1.8366897478699684e-02" cType="1" res="-9.4966227188706398e-03" rms="1.9263771176338196e-01" purity="3.0556622147560120e-01" nType="0">
          <Node pos="l" depth="2" NCoef="0" IVar="-1" Cut="0.0000000000000000e+00" cType="1" res="1.0771958157420158e-02" rms="1.2911815941333771e-01" purity="4.9437332898378372e-02" nType="-99"/>
          <Node pos="r" depth="2" NCoef="0" IVar="7" Cut="-1.7472460865974426e-01" cType="1" res="-1.4045780524611473e-02" rms="2.1240736544132233e-01" purity="4.0683376789093018e-01" nType="0">
            <Node pos="l" depth="3" NCoef="0" IVar="-1" Cut="0.0000000000000000e+00" cType="1" res="-5.0285540521144867e-02" rms="2.2768296301364899e-01" purity="3.5254481434822083e-01" nType="-99"/>
            <Node pos="r" depth="3" NCoef="0" IVar="-1" Cut="0.0000000000000000e+00" cType="1" res="-1.5421683900058270e-02" rms="2.0192354917526245e-01" purity="4.4087010622024536e-01" nType="-99"/>
          </Node>
        </Node>
      </Node>
    </BinaryTree>
    <BinaryTree type="DecisionTree" boostWeight="1.0000000000000000e+00" itree="501">
      <Node pos="s" depth="0" NCoef="0" IVar="0" Cut="2.6364296875000000e+03" cType="1" res="-2.0399203058332205e-03" rms="1.7400361597537994e-01" purity="4.9447396397590637e-01" nType="0">
        <Node pos="l" depth="1" NCoef="0" IVar="0" Cut="1.7532674560546875e+03" cType="1" res="-4.4270749203860760e-03" rms="2.0115095376968384e-01" purity="1.5576517581939697e-01" nType="0">
          <Node pos="l" depth="2" NCoef="0" IVar="9" Cut="-1.3200530409812927e-01" cType="1" res="-7.3360803071409464e-04" rms="9.1479718685150146e-02" purity="9.1823674738407135e-03" nType="0">
            <Node pos="l" depth="3" NCoef="0" IVar="-1" Cut="0.0000000000000000e+00" cType="1" res="2.3191401734948158e-02" rms="1.0621993243694305e-01" purity="1.2379655614495277e-02" nType="-99"/>
            <Node pos="r" depth="3" NCoef="0" IVar="-1" Cut="0.0000000000000000e+00" cType="1" res="-3.9437681436538696e-02" rms="7.4432305991649628e-02" purity="6.0974438674747944e-03" nType="-99"/>
          </Node>
          <Node pos="r" depth="2" NCoef="0" IVar="3" Cut="3.1808065795898438e+02" cType="1" res="-9.6098948270082474e-03" rms="2.9231849312782288e-01" purity="3.6145606637001038e-01" nType="0">
            <Node pos="l" depth="3" NCoef="0" IVar="-1" Cut="0.0000000000000000e+00" cType="1" res="-1.9826523959636688e-02" rms="2.9052075743675232e-01" purity="2.2457841038703918e-01" nType="-99"/>
            <Node pos="r" depth="3" NCoef="0" IVar="-1" Cut="0.0000000000000000e+00" cType="1" res="-4.3201046064496040e-03" rms="2.9354256391525269e-01" purity="4.6418818831443787e-01" nType="-99"/>
          </Node>
        </Node>
        <Node pos="r" depth="1" NCoef="0" IVar="6" Cut="1.3171096801757812e+02" cType="1" res="1.3259601546451449e-03" rms="1.2608671188354492e-01" purity="9.7205227613449097e-01" nType="0">
          <Node pos="l" depth="2" NCoef="0" IVar="8" Cut="-1.0606501996517181e-01" cType="1" res="7.9121589660644531e-03" rms="2.1269729733467102e-01" purity="9.0388995409011841e-01" nType="0">
            <Node pos="l" depth="3" NCoef="0" IVar="-1" Cut="0.0000000000000000e+00" cType="1" res="3.3619794994592667e-02" rms="2.1232043206691742e-01" purity="9.0125811100006104e-01" nType="-99"/>
            <Node pos="r" depth="3" NCoef="0" IVar="-1" Cut="0.0000000000000000e+00" cType="1" res="-2.3306657094508410e-03" rms="2.1256394684314728e-01" purity="9.0599364042282104e-01" nType="-99"/>
          </Node>
          <Node pos="r" depth="2" NCoef="0" IVar="5" Cut="2.2483781433105469e+02" cType="1" res="-2.6528196758590639e-04" rms="9.3785263597965240e-02" purity="9.8852050304412842e-01" nType="0">
            <Node pos="l" depth="3" NCoef="0" IVar="-1" Cut="0.0000000000000000e+00" cType="1" res="-2.8318401426076889e-02" rms="1.4985638856887817e-01" purity="9.6510636806488037e-01" nType="-99"/>
            <Node pos="r" depth="3" NCoef="0" IVar="-1" Cut="0.0000000000000000e+00" cType="1" res="1.6753045842051506e-02" rms="7.4251554906368256e-02" purity="9.9413055181503296e-01" nType="-99"/>
          </Node>
        </Node>
      </Node>
    </BinaryTree>
    <BinaryTree type="DecisionTree" boostWeight="1.0000000000000000e+00" itree="502">
      <Node pos="s" depth="0" NCoef="0" IVar="8" Cut="-1.7281672954559326e+00" cType="1" res="-1.8428728799335659e-04" rms="1.7704547941684723e-01" purity="5.0091528892517090e-01" nType="0">
        <Node pos="l" depth="1" NCoef="0" IVar="-1" Cut="0.0000000000000000e+00" cType="1" res="4.6999480575323105e-02" rms="1.6401471197605133e-01" purity="8.1953309476375580e-02" nType="-99"/>
        <Node pos="r" depth="1" NCoef="0" IVar="0" Cut="2.8791071777343750e+03" cType="1" res="-6.4997520530596375e-04" rms="1.7757922410964966e-01" purity="5.1924651861190796e-01" nType="0">
          <Node pos="l" depth="2" NCoef="0" IVar="0" Cut="1.8930299072265625e+03" cType="1" res="-2.3515520151704550e-03" rms="2.1075771749019623e-01" purity="2.4893672764301300e-01" nType="0">
            <Node pos="l" depth="3" NCoef="0" IVar="-1" Cut="0.0000000000000000e+00" cType="1" res="6.1292354948818684e-03" rms="1.2638269364833832e-01" purity="1.9178627058863640e-02" nType="-99"/>
            <Node pos="r" depth="3" NCoef="0" IVar="-1" Cut="0.0000000000000000e+00" cType="1" res="-7.9772742465138435e-03" rms="2.9810675978660583e-01" purity="6.0830390453338623e-01" nType="-99"/>
          </Node>
          <Node pos="r" depth="2" NCoef="0" IVar="1" Cut="4.0058862417936325e-02" cType="1" res="2.2941429633647203e-03" rms="9.6060805022716522e-02" purity="9.8694437742233276e-01" nType="0">
            <Node pos="l" depth="3" NCoef="0" IVar="-1" Cut="0.0000000000000000e+00" cType="1" res="3.4855619072914124e-02" rms="1.7347998917102814e-01" purity="9.4309163093566895e-01" nType="-99"/>
            <Node pos="r" depth="3" NCoef="0" IVar="-1" Cut="0.0000000000000000e+00" cType="1" res="7.5010634027421474e-03" rms="8.0892756581306458e-02" purity="9.9252778291702271e-01" nType="-99"/>
          </Node>
        </Node>
      </Node>
    </BinaryTree>
    <BinaryTree type="DecisionTree" boostWeight="1.0000000000000000e+00" itree="503">
      <Node pos="s" depth="0" NCoef="0" IVar="10" Cut="1.1998693943023682e+00" cType="1" res="3.2315793214365840e-04" rms="1.7731593549251556e-01" purity="4.9989166855812073e-01" nType="0">
        <Node pos="l" depth="1" NCoef="0" IVar="2" Cut="1.1080477294921875e+03" cType="1" res="-5.8619974879547954e-04" rms="1.7469644546508789e-01" purity="5.2498871088027954e-01" nType="0">
          <Node pos="l" depth="2" NCoef="0" IVar="0" Cut="2.1237272949218750e+03" cType="1" res="-1.2992300617042929e-04" rms="1.7372198402881622e-01" purity="5.1092493534088135e-01" nType="0">
            <Node pos="l" depth="3" NCoef="0" IVar="-1" Cut="0.0000000000000000e+00" cType="1" res="-9.9093988537788391e-03" rms="1.6112366318702698e-01" purity="3.9497595280408859e-02" nType="-99"/>
            <Node pos="r" depth="3" NCoef="0" IVar="-1" Cut="0.0000000000000000e+00" cType="1" res="6.1730206944048405e-03" rms="1.8378587067127228e-01" purity="9.1430962085723877e-01" nType="-99"/>
          </Node>
          <Node pos="r" depth="2" NCoef="0" IVar="-1" Cut="0.0000000000000000e+00" cType="1" res="-4.0146671235561371e-02" rms="1.9918629527091980e-01" purity="9.1099977493286133e-01" nType="-99"/>
        </Node>
        <Node pos="r" depth="1" NCoef="0" IVar="6" Cut="9.6570564270019531e+01" cType="1" res="5.5238045752048492e-03" rms="1.9152714312076569e-01" purity="3.5636076331138611e-01" nType="0">
          <Node pos="l" depth="2" NCoef="0" IVar="9" Cut="1.3567435741424561e-01" cType="1" res="-4.3765706941485405e-03" rms="1.6880604624748230e-01" purity="8.8324882090091705e-02" nType="0">
            <Node pos="l" depth="3" NCoef="0" IVar="-1" Cut="0.0000000000000000e+00" cType="1" res="-2.8818616643548012e-02" rms="1.7289875447750092e-01" purity="8.9614138007164001e-02" nType="-99"/>
            <Node pos="r" depth="3" NCoef="0" IVar="-1" Cut="0.0000000000000000e+00" cType="1" res="4.3962998315691948e-03" rms="1.6416949033737183e-01" purity="8.6957946419715881e-02" nType="-99"/>
          </Node>
          <Node pos="r" depth="2" NCoef="0" IVar="0" Cut="1.8952019042968750e+03" cType="1" res="1.2795140966773033e-02" rms="2.0632706582546234e-01" purity="5.5321985483169556e-01" nType="0">
            <Node pos="l" depth="3" NCoef="0" IVar="-1" Cut="0.0000000000000000e+00" cType="1" res="7.9461950808763504e-03" rms="1.6655360162258148e-01" purity="3.5667687654495239e-02" nType="-99"/>
            <Node pos="r" depth="3" NCoef="0" IVar="-1" Cut="0.0000000000000000e+00" cType="1" res="3.1850114464759827e-02" rms="2.2451433539390564e-01" purity="8.2986503839492798e-01" nType="-99"/>
          </Node>
        </Node>
      </Node>
    </BinaryTree>
    <BinaryTree type="DecisionTree" boostWeight="1.0000000000000000e+00" itree="504">
      <Node pos="s" depth="0" NCoef="0" IVar="9" Cut="-1.4664243459701538e+00" cType="1" res="1.3934759190306067e-03" rms="1.7863929271697998e-01" purity="5.0208228826522827e-01" nType="0">
        <Node pos="l" depth="1" NCoef="0" IVar="10" Cut="3.9753714203834534e-01" cType="1" res="-1.0094633325934410e-02" rms="1.7283020913600922e-01" purity="1.9417063891887665e-01" nType="0">
          <Node pos="l" depth="2" NCoef="0" IVar="10" Cut="-6.6654086112976074e-01" cType="1" res="-4.2882976122200489e-03" rms="1.6884236037731171e-01" purity="2.0593911409378052e-01" nType="0">
            <Node pos="l" depth="3" NCoef="0" IVar="-1" Cut="0.0000000000000000e+00" cType="1" res="-2.2170113399624825e-02" rms="1.6158047318458557e-01" purity="1.8036986887454987e-01" nType="-99"/>
            <Node pos="r" depth="3" NCoef="0" IVar="-1" Cut="0.0000000000000000e+00" cType="1" res="-3.1361537985503674e-03" rms="1.7625646293163300e-01" purity="2.3341280221939087e-01" nType="-99"/>
          </Node>
          <Node pos="r" depth="2" NCoef="0" IVar="-1" Cut="0.0000000000000000e+00" cType="1" res="-5.4374083876609802e-02" rms="1.7925736308097839e-01" purity="1.7317962646484375e-01" nType="-99"/>
        </Node>
        <Node pos="r" depth="1" NCoef="0" IVar="3" Cut="4.1853564453125000e+02" cType="1" res="2.4246373213827610e-03" rms="1.7911547422409058e-01" purity="5.2972012758255005e-01" nType="0">
          <Node pos="l" depth="2" NCoef="0" IVar="10" Cut="-1.1993846893310547e+00" cType="1" res="4.8680054023861885e-03" rms="1.9602383673191071e-01" purity="2.6378583908081055e-01" nType="0">
            <Node pos="l" depth="3" NCoef="0" IVar="-1" Cut="0.0000000000000000e+00" cType="1" res="3.2434698194265366e-02" rms="2.0598194003105164e-01" purity="2.3587523400783539e-01" nType="-99"/>
            <Node pos="r" depth="3" NCoef="0" IVar="-1" Cut="0.0000000000000000e+00" cType="1" res="8.4587866440415382e-03" rms="1.9404670596122742e-01" purity="2.6903426647186279e-01" nType="-99"/>
          </Node>
          <Node pos="r" depth="2" NCoef="0" IVar="0" Cut="2.4369482421875000e+03" cType="1" res="-1.0692765936255455e-03" rms="1.5162914991378784e-01" purity="9.0999501943588257e-01" nType="0">
            <Node pos="l" depth="3" NCoef="0" IVar="-1" Cut="0.0000000000000000e+00" cType="1" res="-1.7939053475856781e-02" rms="2.8376471996307373e-01" purity="2.6719844341278076e-01" nType="-99"/>
            <Node pos="r" depth="3" NCoef="0" IVar="-1" Cut="0.0000000000000000e+00" cType="1" res="2.1444794256240129e-03" rms="1.3188965618610382e-01" purity="9.7225946187973022e-01" nType="-99"/>
          </Node>
        </Node>
      </Node>
    </BinaryTree>
    <BinaryTree type="DecisionTree" boostWeight="1.0000000000000000e+00" itree="505">
      <Node pos="s" depth="0" NCoef="0" IVar="7" Cut="9.8796194791793823e-01" cType="1" res="5.8757094666361809e-04" rms="1.7977634072303772e-01" purity="5.0314730405807495e-01" nType="0">
        <Node pos="l" depth="1" NCoef="0" IVar="9" Cut="-1.1991877555847168e+00" cType="1" res="1.5212877187877893e-03" rms="1.8316827714443207e-01" purity="5.5214989185333252e-01" nType="0">
          <Node pos="l" depth="2" NCoef="0" IVar="5" Cut="1.5294709777832031e+02" cType="1" res="7.9381698742508888e-03" rms="2.0367486774921417e-01" purity="3.3245509862899780e-01" nType="0">
            <Node pos="l" depth="3" NCoef="0" IVar="-1" Cut="0.0000000000000000e+00" cType="1" res="6.2270049238577485e-04" rms="1.7253904044628143e-01" purity="7.2400562465190887e-02" nType="-99"/>
            <Node pos="r" depth="3" NCoef="0" IVar="-1" Cut="0.0000000000000000e+00" cType="1" res="3.4093502908945084e-02" rms="2.3759071528911591e-01" purity="6.6868072748184204e-01" nType="-99"/>
          </Node>
          <Node pos="r" depth="2" NCoef="0" IVar="9" Cut="1.0855062007904053e+00" cType="1" res="6.5157318022102118e-04" rms="1.8019184470176697e-01" purity="5.8192634582519531e-01" nType="0">
            <Node pos="l" depth="3" NCoef="0" IVar="-1" Cut="0.0000000000000000e+00" cType="1" res="-1.7955094808712602e-03" rms="1.7464533448219299e-01" purity="6.1882013082504272e-01" nType="-99"/>
            <Node pos="r" depth="3" NCoef="0" IVar="-1" Cut="0.0000000000000000e+00" cType="1" res="1.7731036990880966e-02" rms="2.0741039514541626e-01" purity="3.8320556282997131e-01" nType="-99"/>
          </Node>
        </Node>
        <Node pos="r" depth="1" NCoef="0" IVar="5" Cut="1.8701872253417969e+02" cType="1" res="-5.5382042191922665e-03" rms="1.5556216239929199e-01" purity="1.8165946006774902e-01" nType="0">
          <Node pos="l" depth="2" NCoef="0" IVar="10" Cut="9.2960953712463379e-01" cType="1" res="-2.2993702441453934e-03" rms="1.3230641186237335e-01" purity="5.2290614694356918e-02" nType="0">
            <Node pos="l" depth="3" NCoef="0" IVar="-1" Cut="0.0000000000000000e+00" cType="1" res="9.1990306973457336e-03" rms="1.3261349499225616e-01" purity="5.8648310601711273e-02" nType="-99"/>
            <Node pos="r" depth="3" NCoef="0" IVar="-1" Cut="0.0000000000000000e+00" cType="1" res="-4.7235470265150070e-02" rms="1.3103468716144562e-01" purity="3.6846447736024857e-02" nType="-99"/>
          </Node>
          <Node pos="r" depth="2" NCoef="0" IVar="-1" Cut="0.0000000000000000e+00" cType="1" res="-3.4698370844125748e-02" rms="2.2056983411312103e-01" purity="6.5765845775604248e-01" nType="-99"/>
        </Node>
      </Node>
    </BinaryTree>
    <BinaryTree type="DecisionTree" boostWeight="1.0000000000000000e+00" itree="506">
      <Node pos="s" depth="0" NCoef="0" IVar="7" Cut="-6.1632066965103149e-01" cType="1" res="1.5168600948527455e-03" rms="1.8008908629417419e-01" purity="5.0702708959579468e-01" nType="0">
        <Node pos="l" depth="1" NCoef="0" IVar="10" Cut="-1.4642274379730225e+00" cType="1" res="-3.9491821080446243e-03" rms="1.7331716418266296e-01" purity="3.4064468741416931e-01" nType="0">
          <Node pos="l" depth="2" NCoef="0" IVar="-1" Cut="0.0000000000000000e+00" cType="1" res="-5.1479596644639969e-02" rms="1.7406751215457916e-01" purity="1.9241650402545929e-01" nType="-99"/>
          <Node pos="r" depth="2" NCoef="0" IVar="0" Cut="2.4651267089843750e+03" cType="1" res="-2.1272704470902681e-03" rms="1.7313268780708313e-01" purity="3.6200121045112610e-01" nType="0">
            <Node pos="l" depth="3" NCoef="0" IVar="-1" Cut="0.0000000000000000e+00" cType="1" res="-1.6382642090320587e-02" rms="1.7652633786201477e-01" purity="7.8800253570079803e-02" nType="-99"/>
            <Node pos="r" depth="3" NCoef="0" IVar="-1" Cut="0.0000000000000000e+00" cType="1" res="1.5887081623077393e-02" rms="1.6569492220878601e-01" purity="9.4314324855804443e-01" nType="-99"/>
          </Node>
        </Node>
        <Node pos="r" depth="1" NCoef="0" IVar="0" Cut="2.8661770019531250e+03" cType="1" res="3.0709933489561081e-03" rms="1.8193852901458740e-01" purity="5.5433374643325806e-01" nType="0">
          <Node pos="l" depth="2" NCoef="0" IVar="2" Cut="7.0321069335937500e+02" cType="1" res="5.4991049692034721e-03" rms="2.1888418495655060e-01" purity="2.6963797211647034e-01" nType="0">
            <Node pos="l" depth="3" NCoef="0" IVar="-1" Cut="0.0000000000000000e+00" cType="1" res="7.2421189397573471e-03" rms="2.1106825768947601e-01" purity="2.4772293865680695e-01" nType="-99"/>
            <Node pos="r" depth="3" NCoef="0" IVar="-1" Cut="0.0000000000000000e+00" cType="1" res="3.0453450977802277e-02" rms="2.7563402056694031e-01" purity="4.5567047595977783e-01" nType="-99"/>
          </Node>
          <Node pos="r" depth="2" NCoef="0" IVar="2" Cut="1.0362548828125000e+03" cType="1" res="-5.9226190205663443e-04" rms="1.0362295061349869e-01" purity="9.8384994268417358e-01" nType="0">
            <Node pos="l" depth="3" NCoef="0" IVar="-1" Cut="0.0000000000000000e+00" cType="1" res="-1.9362183287739754e-02" rms="9.2519581317901611e-02" purity="9.8743486404418945e-01" nType="-99"/>
            <Node pos="r" depth="3" NCoef="0" IVar="-1" Cut="0.0000000000000000e+00" cType="1" res="1.7422603443264961e-02" rms="1.5251484513282776e-01" purity="9.6317577362060547e-01" nType="-99"/>
          </Node>
        </Node>
      </Node>
    </BinaryTree>
    <BinaryTree type="DecisionTree" boostWeight="1.0000000000000000e+00" itree="507">
      <Node pos="s" depth="0" NCoef="0" IVar="10" Cut="-1.9988887310028076e+00" cType="1" res="1.1790584539994597e-03" rms="1.8228873610496521e-01" purity="5.0829833745956421e-01" nType="0">
        <Node pos="l" depth="1" NCoef="0" IVar="-1" Cut="0.0000000000000000e+00" cType="1" res="4.3212611228227615e-02" rms="2.2623735666275024e-01" purity="2.2876052558422089e-01" nType="-99"/>
        <Node pos="r" depth="1" NCoef="0" IVar="10" Cut="-1.5418174266815186e+00" cType="1" res="5.7953147916123271e-04" rms="1.8066087365150452e-01" purity="5.1731830835342407e-01" nType="0">
          <Node pos="l" depth="2" NCoef="0" IVar="-1" Cut="0.0000000000000000e+00" cType="1" res="-3.7271905690431595e-02" rms="1.9970270991325378e-01" purity="3.5888698697090149e-01" nType="-99"/>
          <Node pos="r" depth="2" NCoef="0" IVar="11" Cut="1.9999635219573975e+00" cType="1" res="1.5392493223771453e-03" rms="1.7950311303138733e-01" purity="5.2605396509170532e-01" nType="0">
            <Node pos="l" depth="3" NCoef="0" IVar="-1" Cut="0.0000000000000000e+00" cType="1" res="2.9844781383872032e-03" rms="1.7760933935642242e-01" purity="5.3455674648284912e-01" nType="-99"/>
            <Node pos="r" depth="3" NCoef="0" IVar="-1" Cut="0.0000000000000000e+00" cType="1" res="3.7853401154279709e-02" rms="2.1725034713745117e-01" purity="3.3535751700401306e-01" nType="-99"/>
          </Node>
        </Node>
      </Node>
    </BinaryTree>
    <BinaryTree type="DecisionTree" boostWeight="1.0000000000000000e+00" itree="508">
      <Node pos="s" depth="0" NCoef="0" IVar="10" Cut="1.9996649026870728e+00" cType="1" res="-4.5447261072695255e-04" rms="1.8214632570743561e-01" purity="4.9838730692863464e-01" nType="0">
        <Node pos="l" depth="1" NCoef="0" IVar="2" Cut="1.0016356811523438e+03" cType="1" res="-1.8309123333892785e-05" rms="1.8117040395736694e-01" purity="5.1042199134826660e-01" nType="0">
          <Node pos="l" depth="2" NCoef="0" IVar="6" Cut="9.6139282226562500e+01" cType="1" res="5.5985065409913659e-04" rms="1.8058465421199799e-01" purity="4.8370754718780518e-01" nType="0">
            <Node pos="l" depth="3" NCoef="0" IVar="-1" Cut="0.0000000000000000e+00" cType="1" res="-1.0583196766674519e-02" rms="1.5858797729015350e-01" purity="9.0089783072471619e-02" nType="-99"/>
            <Node pos="r" depth="3" NCoef="0" IVar="-1" Cut="0.0000000000000000e+00" cType="1" res="6.2025296501815319e-03" rms="1.9133086502552032e-01" purity="6.9501042366027832e-01" nType="-99"/>
          </Node>
          <Node pos="r" depth="2" NCoef="0" IVar="7" Cut="-4.5881543308496475e-02" cType="1" res="-8.6015909910202026e-03" rms="1.8944630026817322e-01" purity="9.0702116489410400e-01" nType="0">
            <Node pos="l" depth="3" NCoef="0" IVar="-1" Cut="0.0000000000000000e+00" cType="1" res="-5.4953385144472122e-02" rms="2.0822493731975555e-01" purity="8.8094425201416016e-01" nType="-99"/>
            <Node pos="r" depth="3" NCoef="0" IVar="-1" Cut="0.0000000000000000e+00" cType="1" res="5.6061781942844391e-03" rms="1.7216910421848297e-01" purity="9.2800289392471313e-01" nType="-99"/>
          </Node>
        </Node>
        <Node pos="r" depth="1" NCoef="0" IVar="-1" Cut="0.0000000000000000e+00" cType="1" res="-2.7204899117350578e-02" rms="2.0666959881782532e-01" purity="1.6975812613964081e-01" nType="-99"/>
      </Node>
    </BinaryTree>
    <BinaryTree type="DecisionTree" boostWeight="1.0000000000000000e+00" itree="509">
      <Node pos="s" depth="0" NCoef="0" IVar="9" Cut="-1.7322524785995483e+00" cType="1" res="-1.7631382215768099e-03" rms="1.7726433277130127e-01" purity="4.9549704790115356e-01" nType="0">
        <Node pos="l" depth="1" NCoef="0" IVar="-1" Cut="0.0000000000000000e+00" cType="1" res="-3.8550388067960739e-02" rms="1.7540121078491211e-01" purity="1.3359518349170685e-01" nType="-99"/>
        <Node pos="r" depth="1" NCoef="0" IVar="7" Cut="-1.1415117979049683e+00" cType="1" res="-1.2399646220728755e-03" rms="1.7734441161155701e-01" purity="5.1420420408248901e-01" nType="0">
          <Node pos="l" depth="2" NCoef="0" IVar="3" Cut="3.2337341308593750e+02" cType="1" res="-8.7514063343405724e-03" rms="1.5794171392917633e-01" purity="1.4867575466632843e-01" nType="0">
            <Node pos="l" depth="3" NCoef="0" IVar="-1" Cut="0.0000000000000000e+00" cType="1" res="-1.0986372828483582e-02" rms="1.2045642733573914e-01" purity="3.4978482872247696e-02" nType="-99"/>
            <Node pos="r" depth="3" NCoef="0" IVar="-1" Cut="0.0000000000000000e+00" cType="1" res="-4.6475712209939957e-02" rms="2.1744626760482788e-01" purity="3.9566621184349060e-01" nType="-99"/>
          </Node>
          <Node pos="r" depth="2" NCoef="0" IVar="7" Cut="-7.6615762710571289e-01" cType="1" res="-4.6354811638593674e-04" rms="1.7921225726604462e-01" purity="5.5198687314987183e-01" nType="0">
            <Node pos="l" depth="3" NCoef="0" IVar="-1" Cut="0.0000000000000000e+00" cType="1" res="2.2669436410069466e-02" rms="1.9945783913135529e-01" purity="4.6999597549438477e-01" nType="-99"/>
            <Node pos="r" depth="3" NCoef="0" IVar="-1" Cut="0.0000000000000000e+00" cType="1" res="-4.4665778987109661e-03" rms="1.7704582214355469e-01" purity="5.6012660264968872e-01" nType="-99"/>
          </Node>
        </Node>
      </Node>
    </BinaryTree>
    <BinaryTree type="DecisionTree" boostWeight="1.0000000000000000e+00" itree="510">
      <Node pos="s" depth="0" NCoef="0" IVar="9" Cut="1.4665666818618774e+00" cType="1" res="-5.4314754379447550e-05" rms="1.8113334476947784e-01" purity="5.0685483217239380e-01" nType="0">
        <Node pos="l" depth="1" NCoef="0" IVar="11" Cut="-1.9986898899078369e+00" cType="1" res="6.9440889637917280e-04" rms="1.7982007563114166e-01" purity="5.2944374084472656e-01" nType="0">
          <Node pos="l" depth="2" NCoef="0" IVar="-1" Cut="0.0000000000000000e+00" cType="1" res="3.3871632069349289e-02" rms="1.9770002365112305e-01" purity="3.3640724420547485e-01" nType="-99"/>
          <Node pos="r" depth="2" NCoef="0" IVar="7" Cut="1.2468390464782715e+00" cType="1" res="1.3970224244985729e-04" rms="1.7897787690162659e-01" purity="5.3787511587142944e-01" nType="0">
            <Node pos="l" depth="3" NCoef="0" IVar="-1" Cut="0.0000000000000000e+00" cType="1" res="2.4074143730103970e-03" rms="1.8187998235225677e-01" purity="5.7160544395446777e-01" nType="-99"/>
            <Node pos="r" depth="3" NCoef="0" IVar="-1" Cut="0.0000000000000000e+00" cType="1" res="-3.3334303647279739e-02" rms="1.3770127296447754e-01" purity="1.1923216283321381e-01" nType="-99"/>
          </Node>
        </Node>
        <Node pos="r" depth="1" NCoef="0" IVar="11" Cut="1.3866297900676727e-01" cType="1" res="-9.5362123101949692e-03" rms="1.9676247239112854e-01" purity="2.2078742086887360e-01" nType="0">
          <Node pos="l" depth="2" NCoef="0" IVar="-1" Cut="0.0000000000000000e+00" cType="1" res="-5.0538726150989532e-02" rms="1.9976542890071869e-01" purity="2.2289122641086578e-01" nType="-99"/>
          <Node pos="r" depth="2" NCoef="0" IVar="-1" Cut="0.0000000000000000e+00" cType="1" res="5.7422756217420101e-03" rms="1.9314090907573700e-01" purity="2.1878957748413086e-01" nType="-99"/>
        </Node>
      </Node>
    </BinaryTree>
    <BinaryTree type="DecisionTree" boostWeight="1.0000000000000000e+00" itree="511">
      <Node pos="s" depth="0" NCoef="0" IVar="0" Cut="2.6364296875000000e+03" cType="1" res="1.1820072541013360e-03" rms="1.8297392129898071e-01" purity="4.9856862425804138e-01" nType="0">
        <Node pos="l" depth="1" NCoef="0" IVar="0" Cut="1.8121331787109375e+03" cType="1" res="3.6669163964688778e-03" rms="2.1165432035923004e-01" purity="1.6437873244285583e-01" nType="0">
          <Node pos="l" depth="2" NCoef="0" IVar="1" Cut="1.2313757091760635e-01" cType="1" res="-6.0663517797365785e-04" rms="1.0470438003540039e-01" purity="1.2067919597029686e-02" nType="0">
            <Node pos="l" depth="3" NCoef="0" IVar="-1" Cut="0.0000000000000000e+00" cType="1" res="4.1112871840596199e-03" rms="9.7748726606369019e-02" purity="1.0102289728820324e-02" nType="-99"/>
            <Node pos="r" depth="3" NCoef="0" IVar="-1" Cut="0.0000000000000000e+00" cType="1" res="-2.8740968555212021e-02" rms="1.5769331157207489e-01" purity="3.1623031944036484e-02" nType="-99"/>
          </Node>
          <Node pos="r" depth="2" NCoef="0" IVar="2" Cut="4.4673553466796875e+02" cType="1" res="1.0843612253665924e-02" rms="3.1864506006240845e-01" purity="4.2015859484672546e-01" nType="0">
            <Node pos="l" depth="3" NCoef="0" IVar="-1" Cut="0.0000000000000000e+00" cType="1" res="2.1979358047246933e-02" rms="3.6453780531883240e-01" purity="5.2421998977661133e-01" nType="-99"/>
            <Node pos="r" depth="3" NCoef="0" IVar="-1" Cut="0.0000000000000000e+00" cType="1" res="6.2148300930857658e-03" rms="3.0406841635704041e-01" purity="3.9042848348617554e-01" nType="-99"/>
          </Node>
        </Node>
        <Node pos="r" depth="1" NCoef="0" IVar="1" Cut="6.0794219374656677e-02" cType="1" res="-2.3323853965848684e-03" rms="1.3210320472717285e-01" purity="9.7121143341064453e-01" nType="0">
          <Node pos="l" depth="2" NCoef="0" IVar="6" Cut="1.4094854736328125e+02" cType="1" res="-1.1484621092677116e-02" rms="2.1976356208324432e-01" purity="9.0452569723129272e-01" nType="0">
            <Node pos="l" depth="3" NCoef="0" IVar="-1" Cut="0.0000000000000000e+00" cType="1" res="-2.8297513723373413e-02" rms="2.9812777042388916e-01" purity="8.0512207746505737e-01" nType="-99"/>
            <Node pos="r" depth="3" NCoef="0" IVar="-1" Cut="0.0000000000000000e+00" cType="1" res="-1.5776725485920906e-02" rms="1.4573507010936737e-01" purity="9.7038227319717407e-01" nType="-99"/>
          </Node>
          <Node pos="r" depth="2" NCoef="0" IVar="9" Cut="4.2762836813926697e-01" cType="1" res="3.1734176445752382e-04" rms="9.2140667140483856e-02" purity="9.9051809310913086e-01" nType="0">
            <Node pos="l" depth="3" NCoef="0" IVar="-1" Cut="0.0000000000000000e+00" cType="1" res="2.3248510435223579e-02" rms="8.0114886164665222e-02" purity="9.9276024103164673e-01" nType="-99"/>
            <Node pos="r" depth="3" NCoef="0" IVar="-1" Cut="0.0000000000000000e+00" cType="1" res="-3.2804839313030243e-02" rms="1.1516397446393967e-01" purity="9.8533093929290771e-01" nType="-99"/>
          </Node>
        </Node>
      </Node>
    </BinaryTree>
    <BinaryTree type="DecisionTree" boostWeight="1.0000000000000000e+00" itree="512">
      <Node pos="s" depth="0" NCoef="0" IVar="9" Cut="-1.4667485952377319e+00" cType="1" res="-1.4090604381635785e-03" rms="1.7785003781318665e-01" purity="4.9842509627342224e-01" nType="0">
        <Node pos="l" depth="1" NCoef="0" IVar="6" Cut="1.1447087097167969e+02" cType="1" res="6.0213869437575340e-03" rms="1.8473808467388153e-01" purity="2.0736184716224670e-01" nType="0">
          <Node pos="l" depth="2" NCoef="0" IVar="6" Cut="8.0807632446289062e+01" cType="1" res="1.8092841492034495e-04" rms="1.6297142207622528e-01" purity="5.8306448161602020e-02" nType="0">
            <Node pos="l" depth="3" NCoef="0" IVar="-1" Cut="0.0000000000000000e+00" cType="1" res="4.8861578106880188e-02" rms="1.5055485069751740e-01" purity="3.4951925277709961e-02" nType="-99"/>
            <Node pos="r" depth="3" NCoef="0" IVar="-1" Cut="0.0000000000000000e+00" cType="1" res="-2.5407359004020691e-02" rms="1.7472645640373230e-01" purity="8.2834824919700623e-02" nType="-99"/>
          </Node>
          <Node pos="r" depth="2" NCoef="0" IVar="-1" Cut="0.0000000000000000e+00" cType="1" res="3.1976211816072464e-02" rms="2.2377404570579529e-01" purity="5.2592360973358154e-01" nType="-99"/>
        </Node>
        <Node pos="r" depth="1" NCoef="0" IVar="5" Cut="2.2438742065429688e+02" cType="1" res="-2.0849325228482485e-03" rms="1.7719477415084839e-01" purity="5.2490013837814331e-01" nType="0">
          <Node pos="l" depth="2" NCoef="0" IVar="10" Cut="-9.3274396657943726e-01" cType="1" res="-3.9155818521976471e-03" rms="1.9752001762390137e-01" purity="2.7362409234046936e-01" nType="0">
            <Node pos="l" depth="3" NCoef="0" IVar="-1" Cut="0.0000000000000000e+00" cType="1" res="7.3971450328826904e-03" rms="2.0562227070331573e-01" purity="2.6471182703971863e-01" nType="-99"/>
            <Node pos="r" depth="3" NCoef="0" IVar="-1" Cut="0.0000000000000000e+00" cType="1" res="-1.4545970596373081e-02" rms="1.9479505717754364e-01" purity="2.7648472785949707e-01" nType="-99"/>
          </Node>
          <Node pos="r" depth="2" NCoef="0" IVar="0" Cut="2.7856276855468750e+03" cType="1" res="1.1058280942961574e-03" rms="1.3456311821937561e-01" purity="9.6286588907241821e-01" nType="0">
            <Node pos="l" depth="3" NCoef="0" IVar="-1" Cut="0.0000000000000000e+00" cType="1" res="1.4971991069614887e-02" rms="2.6397147774696350e-01" purity="8.2841348648071289e-01" nType="-99"/>
            <Node pos="r" depth="3" NCoef="0" IVar="-1" Cut="0.0000000000000000e+00" cType="1" res="-1.5483394265174866e-02" rms="8.4562465548515320e-02" purity="9.9136096239089966e-01" nType="-99"/>
          </Node>
        </Node>
      </Node>
    </BinaryTree>
    <BinaryTree type="DecisionTree" boostWeight="1.0000000000000000e+00" itree="513">
      <Node pos="s" depth="0" NCoef="0" IVar="5" Cut="1.5630731201171875e+02" cType="1" res="1.8284720135852695e-04" rms="1.8273577094078064e-01" purity="5.0147354602813721e-01" nType="0">
        <Node pos="l" depth="1" NCoef="0" IVar="0" Cut="2.0684030761718750e+03" cType="1" res="4.0193703025579453e-03" rms="1.8115912377834320e-01" purity="1.1587013304233551e-01" nType="0">
          <Node pos="l" depth="2" NCoef="0" IVar="5" Cut="1.4128816223144531e+02" cType="1" res="1.3469159603118896e-03" rms="1.2856036424636841e-01" purity="1.9937921315431595e-02" nType="0">
            <Node pos="l" depth="3" NCoef="0" IVar="-1" Cut="0.0000000000000000e+00" cType="1" res="-1.3429209357127547e-03" rms="1.1590362340211868e-01" purity="1.5939800068736076e-02" nType="-99"/>
            <Node pos="r" depth="3" NCoef="0" IVar="-1" Cut="0.0000000000000000e+00" cType="1" res="4.3197721242904663e-02" rms="1.9832549989223480e-01" purity="4.9594730138778687e-02" nType="-99"/>
          </Node>
          <Node pos="r" depth="2" NCoef="0" IVar="10" Cut="-1.3300350308418274e-01" cType="1" res="1.7102280631661415e-02" rms="3.3520719408988953e-01" purity="5.8550304174423218e-01" nType="0">
            <Node pos="l" depth="3" NCoef="0" IVar="-1" Cut="0.0000000000000000e+00" cType="1" res="2.0940229296684265e-03" rms="3.3615028858184814e-01" purity="5.9019136428833008e-01" nType="-99"/>
            <Node pos="r" depth="3" NCoef="0" IVar="-1" Cut="0.0000000000000000e+00" cType="1" res="2.8039678931236267e-02" rms="3.3386656641960144e-01" purity="5.8147120475769043e-01" nType="-99"/>
          </Node>
        </Node>
        <Node pos="r" depth="1" NCoef="0" IVar="0" Cut="3.1208122558593750e+03" cType="1" res="-2.7058764826506376e-03" rms="1.8386116623878479e-01" purity="7.9181498289108276e-01" nType="0">
          <Node pos="l" depth="2" NCoef="0" IVar="3" Cut="4.9772320556640625e+02" cType="1" res="-5.6273001246154308e-03" rms="2.4277007579803467e-01" purity="6.1572897434234619e-01" nType="0">
            <Node pos="l" depth="3" NCoef="0" IVar="-1" Cut="0.0000000000000000e+00" cType="1" res="-5.2255857735872269e-03" rms="2.4446682631969452e-01" purity="5.6836962699890137e-01" nType="-99"/>
            <Node pos="r" depth="3" NCoef="0" IVar="-1" Cut="0.0000000000000000e+00" cType="1" res="-4.2721267789602280e-02" rms="2.3181688785552979e-01" purity="9.0055131912231445e-01" nType="-99"/>
          </Node>
          <Node pos="r" depth="2" NCoef="0" IVar="5" Cut="2.4641116333007812e+02" cType="1" res="6.5468816319480538e-04" rms="6.9811239838600159e-02" purity="9.9436986446380615e-01" nType="0">
            <Node pos="l" depth="3" NCoef="0" IVar="-1" Cut="0.0000000000000000e+00" cType="1" res="2.6018705219030380e-02" rms="9.5137260854244232e-02" purity="9.8873150348663330e-01" nType="-99"/>
            <Node pos="r" depth="3" NCoef="0" IVar="-1" Cut="0.0000000000000000e+00" cType="1" res="-8.5583524778485298e-03" rms="5.8736905455589294e-02" purity="9.9628657102584839e-01" nType="-99"/>
          </Node>
        </Node>
      </Node>
    </BinaryTree>
    <BinaryTree type="DecisionTree" boostWeight="1.0000000000000000e+00" itree="514">
      <Node pos="s" depth="0" NCoef="0" IVar="10" Cut="-1.9990723133087158e+00" cType="1" res="-1.1081115808337927e-03" rms="1.8166533112525940e-01" purity="5.0747984647750854e-01" nType="0">
        <Node pos="l" depth="1" NCoef="0" IVar="-1" Cut="0.0000000000000000e+00" cType="1" res="-4.6053763478994370e-02" rms="2.0045483112335205e-01" purity="2.0677523314952850e-01" nType="-99"/>
        <Node pos="r" depth="1" NCoef="0" IVar="11" Cut="-6.6555911302566528e-01" cType="1" res="-4.7596436343155801e-04" rms="1.8095485866069794e-01" purity="5.1776379346847534e-01" nType="0">
          <Node pos="l" depth="2" NCoef="0" IVar="11" Cut="-2.0873451232910156e+00" cType="1" res="-5.3706285543739796e-03" rms="1.8189536035060883e-01" purity="4.9822658300399780e-01" nType="0">
            <Node pos="l" depth="3" NCoef="0" IVar="-1" Cut="0.0000000000000000e+00" cType="1" res="2.1043065935373306e-02" rms="2.0177754759788513e-01" purity="3.0573004484176636e-01" nType="-99"/>
            <Node pos="r" depth="3" NCoef="0" IVar="-1" Cut="0.0000000000000000e+00" cType="1" res="-2.1086147055029869e-02" rms="1.7906937003135681e-01" purity="5.2325952053070068e-01" nType="-99"/>
          </Node>
          <Node pos="r" depth="2" NCoef="0" IVar="7" Cut="-7.7972054481506348e-01" cType="1" res="1.5117796137928963e-03" rms="1.8053363263607025e-01" purity="5.2569788694381714e-01" nType="0">
            <Node pos="l" depth="3" NCoef="0" IVar="-1" Cut="0.0000000000000000e+00" cType="1" res="-1.8675513565540314e-02" rms="1.7244035005569458e-01" purity="2.8346812725067139e-01" nType="-99"/>
            <Node pos="r" depth="3" NCoef="0" IVar="-1" Cut="0.0000000000000000e+00" cType="1" res="9.7212698310613632e-03" rms="1.8217350542545319e-01" purity="5.7741039991378784e-01" nType="-99"/>
          </Node>
        </Node>
      </Node>
    </BinaryTree>
    <BinaryTree type="DecisionTree" boostWeight="1.0000000000000000e+00" itree="515">
      <Node pos="s" depth="0" NCoef="0" IVar="9" Cut="4.0021517872810364e-01" cType="1" res="1.0793044202728197e-04" rms="1.8068291246891022e-01" purity="5.0007367134094238e-01" nType="0">
        <Node pos="l" depth="1" NCoef="0" IVar="10" Cut="-1.7325633764266968e+00" cType="1" res="-1.8439259147271514e-03" rms="1.7398881912231445e-01" purity="5.1812863349914551e-01" nType="0">
          <Node pos="l" depth="2" NCoef="0" IVar="-1" Cut="0.0000000000000000e+00" cType="1" res="-3.3208835870027542e-02" rms="1.7548947036266327e-01" purity="2.2463859617710114e-01" nType="-99"/>
          <Node pos="r" depth="2" NCoef="0" IVar="7" Cut="-5.6077247858047485e-01" cType="1" res="-1.0694958036765456e-03" rms="1.7385828495025635e-01" purity="5.3832668066024780e-01" nType="0">
            <Node pos="l" depth="3" NCoef="0" IVar="-1" Cut="0.0000000000000000e+00" cType="1" res="1.1120449751615524e-02" rms="1.7006267607212067e-01" purity="4.0228366851806641e-01" nType="-99"/>
            <Node pos="r" depth="3" NCoef="0" IVar="-1" Cut="0.0000000000000000e+00" cType="1" res="-8.5282800719141960e-03" rms="1.7508301138877869e-01" purity="5.8385801315307617e-01" nType="-99"/>
          </Node>
        </Node>
        <Node pos="r" depth="1" NCoef="0" IVar="9" Cut="1.7710986137390137e+00" cType="1" res="3.8683856837451458e-03" rms="1.9287040829658508e-01" purity="4.6528893709182739e-01" nType="0">
          <Node pos="l" depth="2" NCoef="0" IVar="0" Cut="2.8663503417968750e+03" cType="1" res="5.6113214232027531e-03" rms="1.9487340748310089e-01" purity="5.1126945018768311e-01" nType="0">
            <Node pos="l" depth="3" NCoef="0" IVar="-1" Cut="0.0000000000000000e+00" cType="1" res="2.0356863737106323e-02" rms="2.2268244624137878e-01" purity="2.5818824768066406e-01" nType="-99"/>
            <Node pos="r" depth="3" NCoef="0" IVar="-1" Cut="0.0000000000000000e+00" cType="1" res="-1.6471941024065018e-02" rms="1.2814247608184814e-01" purity="9.7891068458557129e-01" nType="-99"/>
          </Node>
          <Node pos="r" depth="2" NCoef="0" IVar="-1" Cut="0.0000000000000000e+00" cType="1" res="-2.7649488300085068e-02" rms="1.7666104435920715e-01" purity="1.2203214317560196e-01" nType="-99"/>
        </Node>
      </Node>
    </BinaryTree>
    <BinaryTree type="DecisionTree" boostWeight="1.0000000000000000e+00" itree="516">
      <Node pos="s" depth="0" NCoef="0" IVar="9" Cut="1.1994045972824097e+00" cType="1" res="3.0228745890781283e-04" rms="1.7860557138919830e-01" purity="4.9672445654869080e-01" nType="0">
        <Node pos="l" depth="1" NCoef="0" IVar="11" Cut="9.3406993150711060e-01" cType="1" res="1.3487357646226883e-03" rms="1.7742072045803070e-01" purity="5.2524822950363159e-01" nType="0">
          <Node pos="l" depth="2" NCoef="0" IVar="3" Cut="4.2262612915039062e+02" cType="1" res="2.6649914216250181e-03" rms="1.7420968413352966e-01" purity="5.3522801399230957e-01" nType="0">
            <Node pos="l" depth="3" NCoef="0" IVar="-1" Cut="0.0000000000000000e+00" cType="1" res="1.4386150054633617e-02" rms="1.8850320577621460e-01" purity="2.6883476972579956e-01" nType="-99"/>
            <Node pos="r" depth="3" NCoef="0" IVar="-1" Cut="0.0000000000000000e+00" cType="1" res="-4.3730582110583782e-03" rms="1.5159775316715240e-01" purity="9.1258579492568970e-01" nType="-99"/>
          </Node>
          <Node pos="r" depth="2" NCoef="0" IVar="7" Cut="-7.6234555244445801e-01" cType="1" res="-3.4731503110378981e-03" rms="1.8863925337791443e-01" purity="4.8868903517723083e-01" nType="0">
            <Node pos="l" depth="3" NCoef="0" IVar="-1" Cut="0.0000000000000000e+00" cType="1" res="-5.7110548019409180e-02" rms="2.1765054762363434e-01" purity="2.6773211359977722e-01" nType="-99"/>
            <Node pos="r" depth="3" NCoef="0" IVar="-1" Cut="0.0000000000000000e+00" cType="1" res="1.9420499447733164e-03" rms="1.8189965188503265e-01" purity="5.3358542919158936e-01" nType="-99"/>
          </Node>
        </Node>
        <Node pos="r" depth="1" NCoef="0" IVar="5" Cut="1.6718287658691406e+02" cType="1" res="-7.3389401659369469e-03" rms="1.8685254454612732e-01" purity="2.8844216465950012e-01" nType="0">
          <Node pos="l" depth="2" NCoef="0" IVar="0" Cut="1.6231135253906250e+03" cType="1" res="-1.2364430353045464e-02" rms="1.6921560466289520e-01" purity="7.9968042671680450e-02" nType="0">
            <Node pos="l" depth="3" NCoef="0" IVar="-1" Cut="0.0000000000000000e+00" cType="1" res="-1.7000531777739525e-02" rms="6.2865823507308960e-02" purity="4.1346889920532703e-03" nType="-99"/>
            <Node pos="r" depth="3" NCoef="0" IVar="-1" Cut="0.0000000000000000e+00" cType="1" res="-4.0625710040330887e-02" rms="2.2605361044406891e-01" purity="1.4971648156642914e-01" nType="-99"/>
          </Node>
          <Node pos="r" depth="2" NCoef="0" IVar="-1" Cut="0.0000000000000000e+00" cType="1" res="5.1370169967412949e-03" rms="2.1714921295642853e-01" purity="6.9968396425247192e-01" nType="-99"/>
        </Node>
      </Node>
    </BinaryTree>
    <BinaryTree type="DecisionTree" boostWeight="1.0000000000000000e+00" itree="517">
      <Node pos="s" depth="0" NCoef="0" IVar="10" Cut="1.4660654067993164e+00" cType="1" res="-1.1320064077153802e-03" rms="1.8018205463886261e-01" purity="5.0078243017196655e-01" nType="0">
        <Node pos="l" depth="1" NCoef="0" IVar="1" Cut="6.5080940723419189e-02" cType="1" res="-5.1658586016856134e-05" rms="1.7812566459178925e-01" purity="5.2220207452774048e-01" nType="0">
          <Node pos="l" depth="2" NCoef="0" IVar="0" Cut="2.3322294921875000e+03" cType="1" res="3.0613942071795464e-03" rms="1.7979258298873901e-01" purity="2.7279022336006165e-01" nType="0">
            <Node pos="l" depth="3" NCoef="0" IVar="-1" Cut="0.0000000000000000e+00" cType="1" res="-2.2220688406378031e-03" rms="1.5397702157497406e-01" purity="3.7071678787469864e-02" nType="-99"/>
            <Node pos="r" depth="3" NCoef="0" IVar="-1" Cut="0.0000000000000000e+00" cType="1" res="2.0506711676716805e-02" rms="2.3273386061191559e-01" purity="8.7342393398284912e-01" nType="-99"/>
          </Node>
          <Node pos="r" depth="2" NCoef="0" IVar="6" Cut="1.9901263427734375e+02" cType="1" res="-2.9889764264225960e-03" rms="1.7648807168006897e-01" purity="7.5753426551818848e-01" nType="0">
            <Node pos="l" depth="3" NCoef="0" IVar="-1" Cut="0.0000000000000000e+00" cType="1" res="-1.2839282862842083e-02" rms="2.1282000839710236e-01" purity="6.2372118234634399e-01" nType="-99"/>
            <Node pos="r" depth="3" NCoef="0" IVar="-1" Cut="0.0000000000000000e+00" cType="1" res="2.2516932338476181e-02" rms="7.9266950488090515e-02" purity="9.9244791269302368e-01" nType="-99"/>
          </Node>
        </Node>
        <Node pos="r" depth="1" NCoef="0" IVar="0" Cut="2.1419279785156250e+03" cType="1" res="-1.1233635246753693e-02" rms="1.9809633493423462e-01" purity="3.0050164461135864e-01" nType="0">
          <Node pos="l" depth="2" NCoef="0" IVar="5" Cut="1.2696176910400391e+02" cType="1" res="-2.3744320496916771e-03" rms="1.5510790050029755e-01" purity="3.9331600069999695e-02" nType="0">
            <Node pos="l" depth="3" NCoef="0" IVar="-1" Cut="0.0000000000000000e+00" cType="1" res="1.8172422423958778e-02" rms="1.2284208834171295e-01" purity="2.0337762311100960e-02" nType="-99"/>
            <Node pos="r" depth="3" NCoef="0" IVar="-1" Cut="0.0000000000000000e+00" cType="1" res="-2.0691053941845894e-02" rms="1.9122615456581116e-01" purity="6.6010117530822754e-02" nType="-99"/>
          </Node>
          <Node pos="r" depth="2" NCoef="0" IVar="-1" Cut="0.0000000000000000e+00" cType="1" res="-4.5424874871969223e-02" rms="2.5588858127593994e-01" purity="7.5830745697021484e-01" nType="-99"/>
        </Node>
      </Node>
    </BinaryTree>
    <BinaryTree type="DecisionTree" boostWeight="1.0000000000000000e+00" itree="518">
      <Node pos="s" depth="0" NCoef="0" IVar="11" Cut="1.3316848874092102e-01" cType="1" res="-1.4260406896937639e-04" rms="1.7796301841735840e-01" purity="5.0542801618576050e-01" nType="0">
        <Node pos="l" depth="1" NCoef="0" IVar="3" Cut="4.7535101318359375e+02" cType="1" res="-2.4916229303926229e-03" rms="1.7252503335475922e-01" purity="5.0086355209350586e-01" nType="0">
          <Node pos="l" depth="2" NCoef="0" IVar="7" Cut="-6.1666572093963623e-01" cType="1" res="-4.0778489783406258e-03" rms="1.8417091667652130e-01" purity="3.1765213608741760e-01" nType="0">
            <Node pos="l" depth="3" NCoef="0" IVar="-1" Cut="0.0000000000000000e+00" cType="1" res="-3.4116744995117188e-02" rms="1.5938040614128113e-01" purity="2.1275156736373901e-01" nType="-99"/>
            <Node pos="r" depth="3" NCoef="0" IVar="-1" Cut="0.0000000000000000e+00" cType="1" res="-4.0096277371048927e-03" rms="1.9279110431671143e-01" purity="3.5796630382537842e-01" nType="-99"/>
          </Node>
          <Node pos="r" depth="2" NCoef="0" IVar="5" Cut="2.2552601623535156e+02" cType="1" res="1.2863514712080359e-03" rms="1.4089283347129822e-01" purity="9.3722516298294067e-01" nType="0">
            <Node pos="l" depth="3" NCoef="0" IVar="-1" Cut="0.0000000000000000e+00" cType="1" res="1.8001263961195946e-02" rms="2.0797459781169891e-01" purity="8.2525271177291870e-01" nType="-99"/>
            <Node pos="r" depth="3" NCoef="0" IVar="-1" Cut="0.0000000000000000e+00" cType="1" res="-2.6303121820092201e-02" rms="9.7347438335418701e-02" purity="9.8667055368423462e-01" nType="-99"/>
          </Node>
        </Node>
        <Node pos="r" depth="1" NCoef="0" IVar="8" Cut="4.0010446310043335e-01" cType="1" res="2.7187394443899393e-03" rms="1.8433003127574921e-01" purity="5.1098793745040894e-01" nType="0">
          <Node pos="l" depth="2" NCoef="0" IVar="8" Cut="9.5341168344020844e-02" cType="1" res="6.1318813823163509e-03" rms="1.8403269350528717e-01" purity="5.7136076688766479e-01" nType="0">
            <Node pos="l" depth="3" NCoef="0" IVar="-1" Cut="0.0000000000000000e+00" cType="1" res="8.4341960027813911e-03" rms="1.9082352519035339e-01" purity="5.4682856798171997e-01" nType="-99"/>
            <Node pos="r" depth="3" NCoef="0" IVar="-1" Cut="0.0000000000000000e+00" cType="1" res="6.0722943395376205e-02" rms="1.5160366892814636e-01" purity="6.7426991462707520e-01" nType="-99"/>
          </Node>
          <Node pos="r" depth="2" NCoef="0" IVar="0" Cut="1.8685878906250000e+03" cType="1" res="-3.1864971388131380e-03" rms="1.8469445407390594e-01" purity="4.0653404593467712e-01" nType="0">
            <Node pos="l" depth="3" NCoef="0" IVar="-1" Cut="0.0000000000000000e+00" cType="1" res="3.0670272186398506e-02" rms="1.1809459328651428e-01" purity="1.5509796328842640e-02" nType="-99"/>
            <Node pos="r" depth="3" NCoef="0" IVar="-1" Cut="0.0000000000000000e+00" cType="1" res="-1.6558272764086723e-02" rms="2.2769707441329956e-01" purity="7.5180637836456299e-01" nType="-99"/>
          </Node>
        </Node>
      </Node>
    </BinaryTree>
    <BinaryTree type="DecisionTree" boostWeight="1.0000000000000000e+00" itree="519">
      <Node pos="s" depth="0" NCoef="0" IVar="2" Cut="1.0016356811523438e+03" cType="1" res="-3.9886671584099531e-04" rms="1.8381229043006897e-01" purity="5.0193327665328979e-01" nType="0">
        <Node pos="l" depth="1" NCoef="0" IVar="10" Cut="-1.3258254528045654e-01" cType="1" res="2.5312736397609115e-04" rms="1.8315134942531586e-01" purity="4.7633984684944153e-01" nType="0">
          <Node pos="l" depth="2" NCoef="0" IVar="3" Cut="3.7713745117187500e+02" cType="1" res="2.7326813433319330e-03" rms="1.8607798218727112e-01" purity="4.6660861372947693e-01" nType="0">
            <Node pos="l" depth="3" NCoef="0" IVar="-1" Cut="0.0000000000000000e+00" cType="1" res="-8.7535801867488772e-05" rms="1.9040253758430481e-01" purity="1.6548809409141541e-01" nType="-99"/>
            <Node pos="r" depth="3" NCoef="0" IVar="-1" Cut="0.0000000000000000e+00" cType="1" res="2.0475380122661591e-02" rms="1.8027265369892120e-01" purity="8.5577613115310669e-01" nType="-99"/>
          </Node>
          <Node pos="r" depth="2" NCoef="0" IVar="4" Cut="2.0229580688476562e+02" cType="1" res="-1.8624017247930169e-03" rms="1.8058997392654419e-01" purity="4.8464241623878479e-01" nType="0">
            <Node pos="l" depth="3" NCoef="0" IVar="-1" Cut="0.0000000000000000e+00" cType="1" res="8.3429906517267227e-03" rms="1.6005417704582214e-01" purity="6.7073240876197815e-02" nType="-99"/>
            <Node pos="r" depth="3" NCoef="0" IVar="-1" Cut="0.0000000000000000e+00" cType="1" res="-1.1333130300045013e-02" rms="1.9169716536998749e-01" purity="7.3242098093032837e-01" nType="-99"/>
          </Node>
        </Node>
        <Node pos="r" depth="1" NCoef="0" IVar="0" Cut="3.7257268066406250e+03" cType="1" res="-1.0664172470569611e-02" rms="1.9363267719745636e-01" purity="9.0488868951797485e-01" nType="0">
          <Node pos="l" depth="2" NCoef="0" IVar="-1" Cut="0.0000000000000000e+00" cType="1" res="-3.7902459502220154e-02" rms="2.6529389619827271e-01" purity="7.9523998498916626e-01" nType="-99"/>
          <Node pos="r" depth="2" NCoef="0" IVar="-1" Cut="0.0000000000000000e+00" cType="1" res="-8.8246241211891174e-03" rms="1.1511828750371933e-01" purity="9.8499089479446411e-01" nType="-99"/>
        </Node>
      </Node>
    </BinaryTree>
    <BinaryTree type="DecisionTree" boostWeight="1.0000000000000000e+00" itree="520">
      <Node pos="s" depth="0" NCoef="0" IVar="9" Cut="-1.3276287913322449e-01" cType="1" res="4.3170593562535942e-04" rms="1.7958396673202515e-01" purity="4.9873533844947815e-01" nType="0">
        <Node pos="l" depth="1" NCoef="0" IVar="10" Cut="1.1998693943023682e+00" cType="1" res="3.1000049784779549e-03" rms="1.8399287760257721e-01" purity="4.8096072673797607e-01" nType="0">
          <Node pos="l" depth="2" NCoef="0" IVar="2" Cut="6.5817657470703125e+02" cType="1" res="1.3904138468205929e-03" rms="1.7964047193527222e-01" purity="4.9561837315559387e-01" nType="0">
            <Node pos="l" depth="3" NCoef="0" IVar="-1" Cut="0.0000000000000000e+00" cType="1" res="1.1259962804615498e-02" rms="1.8497513234615326e-01" purity="3.3489221334457397e-01" nType="-99"/>
            <Node pos="r" depth="3" NCoef="0" IVar="-1" Cut="0.0000000000000000e+00" cType="1" res="-1.2450739741325378e-02" rms="1.6841250658035278e-01" purity="8.1563341617584229e-01" nType="-99"/>
          </Node>
          <Node pos="r" depth="2" NCoef="0" IVar="0" Cut="1.8946281738281250e+03" cType="1" res="1.5082133933901787e-02" rms="2.1161741018295288e-01" purity="3.7822890281677246e-01" nType="0">
            <Node pos="l" depth="3" NCoef="0" IVar="-1" Cut="0.0000000000000000e+00" cType="1" res="9.5762172713875771e-03" rms="1.5229701995849609e-01" purity="2.9984317719936371e-02" nType="-99"/>
            <Node pos="r" depth="3" NCoef="0" IVar="-1" Cut="0.0000000000000000e+00" cType="1" res="4.3304789811372757e-02" rms="2.6584163308143616e-01" purity="8.0306732654571533e-01" nType="-99"/>
          </Node>
        </Node>
        <Node pos="r" depth="1" NCoef="0" IVar="9" Cut="1.4647321403026581e-01" cType="1" res="-1.8153304699808359e-03" rms="1.7575395107269287e-01" purity="5.1370382308959961e-01" nType="0">
          <Node pos="l" depth="2" NCoef="0" IVar="0" Cut="2.7259826660156250e+03" cType="1" res="-7.7580683864653111e-03" rms="1.7030115425586700e-01" purity="5.9854549169540405e-01" nType="0">
            <Node pos="l" depth="3" NCoef="0" IVar="-1" Cut="0.0000000000000000e+00" cType="1" res="-3.2941028475761414e-02" rms="2.1766690909862518e-01" purity="2.0974171161651611e-01" nType="-99"/>
            <Node pos="r" depth="3" NCoef="0" IVar="-1" Cut="0.0000000000000000e+00" cType="1" res="-3.9462689310312271e-03" rms="1.0371229052543640e-01" purity="9.8232328891754150e-01" nType="-99"/>
          </Node>
          <Node pos="r" depth="2" NCoef="0" IVar="1" Cut="5.7867657393217087e-02" cType="1" res="-4.6203285455703735e-04" rms="1.7694430053234100e-01" purity="4.9438339471817017e-01" nType="0">
            <Node pos="l" depth="3" NCoef="0" IVar="-1" Cut="0.0000000000000000e+00" cType="1" res="-1.2748536653816700e-02" rms="1.7808586359024048e-01" purity="2.1443560719490051e-01" nType="-99"/>
            <Node pos="r" depth="3" NCoef="0" IVar="-1" Cut="0.0000000000000000e+00" cType="1" res="8.4392195567488670e-03" rms="1.7587815225124359e-01" purity="7.3823326826095581e-01" nType="-99"/>
          </Node>
        </Node>
      </Node>
    </BinaryTree>
    <BinaryTree type="DecisionTree" boostWeight="1.0000000000000000e+00" itree="521">
      <Node pos="s" depth="0" NCoef="0" IVar="11" Cut="9.3312209844589233e-01" cType="1" res="1.3023710343986750e-03" rms="1.8040418624877930e-01" purity="5.0516551733016968e-01" nType="0">
        <Node pos="l" depth="1" NCoef="0" IVar="8" Cut="-9.3217420578002930e-01" cType="1" res="9.4669128884561360e-05" rms="1.7504978179931641e-01" purity="5.1637440919876099e-01" nType="0">
          <Node pos="l" depth="2" NCoef="0" IVar="8" Cut="-1.1099437475204468e+00" cType="1" res="-6.5294490195810795e-03" rms="1.7334336042404175e-01" purity="2.7949553728103638e-01" nType="0">
            <Node pos="l" depth="3" NCoef="0" IVar="-1" Cut="0.0000000000000000e+00" cType="1" res="-1.0607063770294189e-02" rms="1.6853904724121094e-01" purity="2.2979208827018738e-01" nType="-99"/>
            <Node pos="r" depth="3" NCoef="0" IVar="-1" Cut="0.0000000000000000e+00" cType="1" res="-4.5402258634567261e-02" rms="1.8628790974617004e-01" purity="4.2356923222541809e-01" nType="-99"/>
          </Node>
          <Node pos="r" depth="2" NCoef="0" IVar="2" Cut="9.3056176757812500e+02" cType="1" res="1.4136430108919740e-03" rms="1.7535769939422607e-01" purity="5.6354099512100220e-01" nType="0">
            <Node pos="l" depth="3" NCoef="0" IVar="-1" Cut="0.0000000000000000e+00" cType="1" res="6.6915671341121197e-03" rms="1.7744752764701843e-01" purity="5.2262592315673828e-01" nType="-99"/>
            <Node pos="r" depth="3" NCoef="0" IVar="-1" Cut="0.0000000000000000e+00" cType="1" res="-1.5878224745392799e-02" rms="1.5596395730972290e-01" purity="9.1800683736801147e-01" nType="-99"/>
          </Node>
        </Node>
        <Node pos="r" depth="1" NCoef="0" IVar="6" Cut="1.7288142395019531e+02" cType="1" res="5.5176881141960621e-03" rms="1.9790355861186981e-01" purity="4.6604236960411072e-01" nType="0">
          <Node pos="l" depth="2" NCoef="0" IVar="6" Cut="7.3637260437011719e+01" cType="1" res="8.6826896294951439e-03" rms="2.1097667515277863e-01" purity="3.3236333727836609e-01" nType="0">
            <Node pos="l" depth="3" NCoef="0" IVar="-1" Cut="0.0000000000000000e+00" cType="1" res="-1.1200061999261379e-02" rms="1.5416623651981354e-01" purity="8.0861315131187439e-02" nType="-99"/>
            <Node pos="r" depth="3" NCoef="0" IVar="-1" Cut="0.0000000000000000e+00" cType="1" res="2.4288915097713470e-02" rms="2.2456099092960358e-01" purity="4.0466484427452087e-01" nType="-99"/>
          </Node>
          <Node pos="r" depth="2" NCoef="0" IVar="-1" Cut="0.0000000000000000e+00" cType="1" res="-2.8839010745286942e-02" rms="1.4146903157234192e-01" purity="9.4096219539642334e-01" nType="-99"/>
        </Node>
      </Node>
    </BinaryTree>
    <BinaryTree type="DecisionTree" boostWeight="1.0000000000000000e+00" itree="522">
      <Node pos="s" depth="0" NCoef="0" IVar="9" Cut="-1.4664065837860107e+00" cType="1" res="-1.8946664931718260e-04" rms="1.8161037564277649e-01" purity="5.0609016418457031e-01" nType="0">
        <Node pos="l" depth="1" NCoef="0" IVar="3" Cut="3.1603796386718750e+02" cType="1" res="7.3363222181797028e-03" rms="1.8942819535732269e-01" purity="2.2292368113994598e-01" nType="0">
          <Node pos="l" depth="2" NCoef="0" IVar="-1" Cut="0.0000000000000000e+00" cType="1" res="7.5354821979999542e-02" rms="1.8091787397861481e-01" purity="7.7281564474105835e-02" nType="-99"/>
          <Node pos="r" depth="2" NCoef="0" IVar="-1" Cut="0.0000000000000000e+00" cType="1" res="-2.0935142412781715e-02" rms="2.0229460299015045e-01" purity="4.7941547632217407e-01" nType="-99"/>
        </Node>
        <Node pos="r" depth="1" NCoef="0" IVar="9" Cut="-4.5062369108200073e-01" cType="1" res="-8.6095574079081416e-04" rms="1.8088118731975555e-01" purity="5.3135573863983154e-01" nType="0">
          <Node pos="l" depth="2" NCoef="0" IVar="0" Cut="1.8685041503906250e+03" cType="1" res="-7.0985471829771996e-03" rms="1.8515719473361969e-01" purity="5.1561188697814941e-01" nType="0">
            <Node pos="l" depth="3" NCoef="0" IVar="-1" Cut="0.0000000000000000e+00" cType="1" res="1.3066782616078854e-02" rms="1.4108717441558838e-01" purity="2.2885916754603386e-02" nType="-99"/>
            <Node pos="r" depth="3" NCoef="0" IVar="-1" Cut="0.0000000000000000e+00" cType="1" res="-2.9097730293869972e-02" rms="2.0718769729137421e-01" purity="8.1480115652084351e-01" nType="-99"/>
          </Node>
          <Node pos="r" depth="2" NCoef="0" IVar="9" Cut="-2.9582220315933228e-01" cType="1" res="1.6141408123075962e-03" rms="1.7909598350524902e-01" purity="5.3760290145874023e-01" nType="0">
            <Node pos="l" depth="3" NCoef="0" IVar="-1" Cut="0.0000000000000000e+00" cType="1" res="4.1163139045238495e-02" rms="1.8985499441623688e-01" purity="5.8859384059906006e-01" nType="-99"/>
            <Node pos="r" depth="3" NCoef="0" IVar="-1" Cut="0.0000000000000000e+00" cType="1" res="1.7193693201988935e-03" rms="1.7801432311534882e-01" purity="5.3280532360076904e-01" nType="-99"/>
          </Node>
        </Node>
      </Node>
    </BinaryTree>
    <BinaryTree type="DecisionTree" boostWeight="1.0000000000000000e+00" itree="523">
      <Node pos="s" depth="0" NCoef="0" IVar="7" Cut="4.9432340264320374e-01" cType="1" res="-3.7885882193222642e-04" rms="1.7637921869754791e-01" purity="4.9794083833694458e-01" nType="0">
        <Node pos="l" depth="1" NCoef="0" IVar="11" Cut="1.7336016893386841e+00" cType="1" res="1.2541360920295119e-03" rms="1.7923282086849213e-01" purity="5.4673105478286743e-01" nType="0">
          <Node pos="l" depth="2" NCoef="0" IVar="7" Cut="-6.7561483383178711e-01" cType="1" res="2.3318883031606674e-03" rms="1.7643156647682190e-01" purity="5.5730700492858887e-01" nType="0">
            <Node pos="l" depth="3" NCoef="0" IVar="-1" Cut="0.0000000000000000e+00" cType="1" res="2.1806528791785240e-02" rms="1.8032360076904297e-01" purity="3.1735888123512268e-01" nType="-99"/>
            <Node pos="r" depth="3" NCoef="0" IVar="-1" Cut="0.0000000000000000e+00" cType="1" res="1.5617001336067915e-03" rms="1.7482239007949829e-01" purity="6.5295201539993286e-01" nType="-99"/>
          </Node>
          <Node pos="r" depth="2" NCoef="0" IVar="-1" Cut="0.0000000000000000e+00" cType="1" res="-3.0404247343540192e-02" rms="2.1495619416236877e-01" purity="3.9451873302459717e-01" nType="-99"/>
        </Node>
        <Node pos="r" depth="1" NCoef="0" IVar="4" Cut="1.4937310791015625e+02" cType="1" res="-4.6369582414627075e-03" rms="1.6863714158535004e-01" purity="3.7071856856346130e-01" nType="0">
          <Node pos="l" depth="2" NCoef="0" IVar="4" Cut="1.2784249877929688e+02" cType="1" res="2.6653353124856949e-03" rms="9.7154021263122559e-02" purity="1.9041340798139572e-02" nType="0">
            <Node pos="l" depth="3" NCoef="0" IVar="-1" Cut="0.0000000000000000e+00" cType="1" res="-1.9430823624134064e-02" rms="6.6069059073925018e-02" purity="6.5278336405754089e-03" nType="-99"/>
            <Node pos="r" depth="3" NCoef="0" IVar="-1" Cut="0.0000000000000000e+00" cType="1" res="5.5694464594125748e-02" rms="1.2743473052978516e-01" purity="3.5926751792430878e-02" nType="-99"/>
          </Node>
          <Node pos="r" depth="2" NCoef="0" IVar="5" Cut="1.8048564147949219e+02" cType="1" res="-6.6212858073413372e-03" rms="1.8325667083263397e-01" purity="4.6628341078758240e-01" nType="0">
            <Node pos="l" depth="3" NCoef="0" IVar="-1" Cut="0.0000000000000000e+00" cType="1" res="-3.2277166843414307e-02" rms="1.8174716830253601e-01" purity="1.3726201653480530e-01" nType="-99"/>
            <Node pos="r" depth="3" NCoef="0" IVar="-1" Cut="0.0000000000000000e+00" cType="1" res="-7.3851476190611720e-04" rms="1.8465730547904968e-01" purity="8.2053577899932861e-01" nType="-99"/>
          </Node>
        </Node>
      </Node>
    </BinaryTree>
    <BinaryTree type="DecisionTree" boostWeight="1.0000000000000000e+00" itree="524">
      <Node pos="s" depth="0" NCoef="0" IVar="9" Cut="1.4660624265670776e+00" cType="1" res="5.5791001068428159e-04" rms="1.7872861027717590e-01" purity="5.0109016895294189e-01" nType="0">
        <Node pos="l" depth="1" NCoef="0" IVar="4" Cut="5.1033425903320312e+02" cType="1" res="-2.5206897407770157e-04" rms="1.7750674486160278e-01" purity="5.2312332391738892e-01" nType="0">
          <Node pos="l" depth="2" NCoef="0" IVar="11" Cut="1.7333781719207764e+00" cType="1" res="3.1540155760012567e-04" rms="1.8147836625576019e-01" purity="4.9087870121002197e-01" nType="0">
            <Node pos="l" depth="3" NCoef="0" IVar="-1" Cut="0.0000000000000000e+00" cType="1" res="-7.0680514909327030e-04" rms="1.7828789353370667e-01" purity="5.0316858291625977e-01" nType="-99"/>
            <Node pos="r" depth="3" NCoef="0" IVar="-1" Cut="0.0000000000000000e+00" cType="1" res="1.5723155811429024e-02" rms="2.1626615524291992e-01" purity="3.4220522642135620e-01" nType="-99"/>
          </Node>
          <Node pos="r" depth="2" NCoef="0" IVar="-1" Cut="0.0000000000000000e+00" cType="1" res="-8.6453832685947418e-02" rms="1.0614547133445740e-01" purity="9.7934716939926147e-01" nType="-99"/>
        </Node>
        <Node pos="r" depth="1" NCoef="0" IVar="6" Cut="9.3376335144042969e+01" cType="1" res="1.0600759647786617e-02" rms="1.9295546412467957e-01" purity="2.2790294885635376e-01" nType="0">
          <Node pos="l" depth="2" NCoef="0" IVar="-1" Cut="0.0000000000000000e+00" cType="1" res="-8.3778135012835264e-04" rms="1.4235226809978485e-01" purity="4.7426074743270874e-02" nType="-99"/>
          <Node pos="r" depth="2" NCoef="0" IVar="-1" Cut="0.0000000000000000e+00" cType="1" res="4.0085114538669586e-02" rms="2.3039720952510834e-01" purity="3.9877858757972717e-01" nType="-99"/>
        </Node>
      </Node>
    </BinaryTree>
    <BinaryTree type="DecisionTree" boostWeight="1.0000000000000000e+00" itree="525">
      <Node pos="s" depth="0" NCoef="0" IVar="2" Cut="4.2920382690429688e+02" cType="1" res="-3.2073835609480739e-04" rms="1.7935533821582794e-01" purity="5.0001263618469238e-01" nType="0">
        <Node pos="l" depth="1" NCoef="0" IVar="1" Cut="3.8455668836832047e-02" cType="1" res="-5.3565916605293751e-03" rms="1.7316265404224396e-01" purity="1.1184795200824738e-01" nType="0">
          <Node pos="l" depth="2" NCoef="0" IVar="1" Cut="1.8563307821750641e-02" cType="1" res="2.3489757440984249e-03" rms="1.2290045619010925e-01" purity="2.5444578379392624e-02" nType="0">
            <Node pos="l" depth="3" NCoef="0" IVar="-1" Cut="0.0000000000000000e+00" cType="1" res="-6.7765153944492340e-02" rms="7.6119624078273773e-02" purity="7.0133125409483910e-03" nType="-99"/>
            <Node pos="r" depth="3" NCoef="0" IVar="-1" Cut="0.0000000000000000e+00" cType="1" res="4.5601036399602890e-02" rms="1.5094569325447083e-01" purity="4.0815711021423340e-02" nType="-99"/>
          </Node>
          <Node pos="r" depth="2" NCoef="0" IVar="0" Cut="1.6601152343750000e+03" cType="1" res="-1.0615891776978970e-02" rms="2.0018427073955536e-01" purity="1.7082107067108154e-01" nType="0">
            <Node pos="l" depth="3" NCoef="0" IVar="-1" Cut="0.0000000000000000e+00" cType="1" res="-3.1450413167476654e-02" rms="9.2076577246189117e-02" purity="8.8441399857401848e-03" nType="-99"/>
            <Node pos="r" depth="3" NCoef="0" IVar="-1" Cut="0.0000000000000000e+00" cType="1" res="-2.2235987707972527e-02" rms="3.0239772796630859e-01" purity="4.3518903851509094e-01" nType="-99"/>
          </Node>
        </Node>
        <Node pos="r" depth="1" NCoef="0" IVar="8" Cut="-6.6553944349288940e-01" cType="1" res="1.3969180872663856e-03" rms="1.8138726055622101e-01" purity="6.3240998983383179e-01" nType="0">
          <Node pos="l" depth="2" NCoef="0" IVar="10" Cut="-6.6380262374877930e-01" cType="1" res="6.9956956431269646e-03" rms="1.9273762404918671e-01" purity="4.9657052755355835e-01" nType="0">
            <Node pos="l" depth="3" NCoef="0" IVar="-1" Cut="0.0000000000000000e+00" cType="1" res="-6.2090638093650341e-03" rms="1.8705284595489502e-01" purity="4.3304046988487244e-01" nType="-99"/>
            <Node pos="r" depth="3" NCoef="0" IVar="-1" Cut="0.0000000000000000e+00" cType="1" res="2.8519233688712120e-02" rms="1.9527319073677063e-01" purity="5.2740156650543213e-01" nType="-99"/>
          </Node>
          <Node pos="r" depth="2" NCoef="0" IVar="7" Cut="-7.8547769784927368e-01" cType="1" res="-1.3525794201996177e-04" rms="1.7812444269657135e-01" purity="6.6958415508270264e-01" nType="0">
            <Node pos="l" depth="3" NCoef="0" IVar="-1" Cut="0.0000000000000000e+00" cType="1" res="-2.4083510041236877e-02" rms="1.9938938319683075e-01" purity="4.0106990933418274e-01" nType="-99"/>
            <Node pos="r" depth="3" NCoef="0" IVar="-1" Cut="0.0000000000000000e+00" cType="1" res="4.0640174411237240e-03" rms="1.7423777282238007e-01" purity="7.1490603685379028e-01" nType="-99"/>
          </Node>
        </Node>
      </Node>
    </BinaryTree>
    <BinaryTree type="DecisionTree" boostWeight="1.0000000000000000e+00" itree="526">
      <Node pos="s" depth="0" NCoef="0" IVar="7" Cut="-9.1129504144191742e-02" cType="1" res="9.4663392519578338e-04" rms="1.8212477862834930e-01" purity="4.9480760097503662e-01" nType="0">
        <Node pos="l" depth="1" NCoef="0" IVar="4" Cut="2.5709466552734375e+02" cType="1" res="4.0644491091370583e-03" rms="1.8278749287128448e-01" purity="4.7656890749931335e-01" nType="0">
          <Node pos="l" depth="2" NCoef="0" IVar="0" Cut="2.4714699707031250e+03" cType="1" res="-3.9353413740172982e-05" rms="1.8728786706924438e-01" purity="1.4435704052448273e-01" nType="0">
            <Node pos="l" depth="3" NCoef="0" IVar="-1" Cut="0.0000000000000000e+00" cType="1" res="-8.9331259950995445e-03" rms="1.7755822837352753e-01" purity="6.3497312366962433e-02" nType="-99"/>
            <Node pos="r" depth="3" NCoef="0" IVar="-1" Cut="0.0000000000000000e+00" cType="1" res="3.3634908497333527e-02" rms="2.5619006156921387e-01" purity="8.5619199275970459e-01" nType="-99"/>
          </Node>
          <Node pos="r" depth="2" NCoef="0" IVar="0" Cut="2.4694233398437500e+03" cType="1" res="9.1762132942676544e-03" rms="1.7688871920108795e-01" purity="8.9037758111953735e-01" nType="0">
            <Node pos="l" depth="3" NCoef="0" IVar="-1" Cut="0.0000000000000000e+00" cType="1" res="3.6071605980396271e-02" rms="3.3032011985778809e-01" purity="4.3346261978149414e-01" nType="-99"/>
            <Node pos="r" depth="3" NCoef="0" IVar="-1" Cut="0.0000000000000000e+00" cType="1" res="1.7737794667482376e-02" rms="1.2908893823623657e-01" purity="9.7505521774291992e-01" nType="-99"/>
          </Node>
        </Node>
        <Node pos="r" depth="1" NCoef="0" IVar="7" Cut="1.8406087160110474e-01" cType="1" res="-1.6184548148885369e-03" rms="1.8153758347034454e-01" purity="5.0981295108795166e-01" nType="0">
          <Node pos="l" depth="2" NCoef="0" IVar="10" Cut="1.3380977511405945e-01" cType="1" res="-8.6038820445537567e-03" rms="1.9092613458633423e-01" purity="6.5156036615371704e-01" nType="0">
            <Node pos="l" depth="3" NCoef="0" IVar="-1" Cut="0.0000000000000000e+00" cType="1" res="-4.6296507120132446e-02" rms="2.0304711163043976e-01" purity="6.3711541891098022e-01" nType="-99"/>
            <Node pos="r" depth="3" NCoef="0" IVar="-1" Cut="0.0000000000000000e+00" cType="1" res="3.5205835010856390e-03" rms="1.7523801326751709e-01" purity="6.6839218139648438e-01" nType="-99"/>
          </Node>
          <Node pos="r" depth="2" NCoef="0" IVar="9" Cut="-1.4667003154754639e+00" cType="1" res="7.6540105510503054e-04" rms="1.7815780639648438e-01" purity="4.6143999695777893e-01" nType="0">
            <Node pos="l" depth="3" NCoef="0" IVar="-1" Cut="0.0000000000000000e+00" cType="1" res="-3.3384695649147034e-02" rms="1.6267025470733643e-01" purity="1.4770478010177612e-01" nType="-99"/>
            <Node pos="r" depth="3" NCoef="0" IVar="-1" Cut="0.0000000000000000e+00" cType="1" res="5.7761571370065212e-03" rms="1.7942762374877930e-01" purity="4.8929631710052490e-01" nType="-99"/>
          </Node>
        </Node>
      </Node>
    </BinaryTree>
    <BinaryTree type="DecisionTree" boostWeight="1.0000000000000000e+00" itree="527">
      <Node pos="s" depth="0" NCoef="0" IVar="11" Cut="1.1979762315750122e+00" cType="1" res="-1.3674575602635741e-03" rms="1.7933997511863708e-01" purity="5.0215804576873779e-01" nType="0">
        <Node pos="l" depth="1" NCoef="0" IVar="2" Cut="1.1029974365234375e+03" cType="1" res="1.0237544483970851e-04" rms="1.7500264942646027e-01" purity="5.1755923032760620e-01" nType="0">
          <Node pos="l" depth="2" NCoef="0" IVar="9" Cut="-1.1998449563980103e+00" cType="1" res="-3.9007520535960793e-04" rms="1.7514060437679291e-01" purity="5.0177752971649170e-01" nType="0">
            <Node pos="l" depth="3" NCoef="0" IVar="-1" Cut="0.0000000000000000e+00" cType="1" res="1.4573419466614723e-02" rms="1.8785016238689423e-01" purity="2.8898048400878906e-01" nType="-99"/>
            <Node pos="r" depth="3" NCoef="0" IVar="-1" Cut="0.0000000000000000e+00" cType="1" res="-4.0364013984799385e-03" rms="1.7314819991588593e-01" purity="5.3351837396621704e-01" nType="-99"/>
          </Node>
          <Node pos="r" depth="2" NCoef="0" IVar="-1" Cut="0.0000000000000000e+00" cType="1" res="3.2225031405687332e-02" rms="1.7092147469520569e-01" purity="9.2420250177383423e-01" nType="-99"/>
        </Node>
        <Node pos="r" depth="1" NCoef="0" IVar="0" Cut="1.8376927490234375e+03" cType="1" res="-8.8451374322175980e-03" rms="1.9978685677051544e-01" purity="4.2380529642105103e-01" nType="0">
          <Node pos="l" depth="2" NCoef="0" IVar="10" Cut="1.3152837753295898e-01" cType="1" res="6.9870345760136843e-04" rms="1.3180631399154663e-01" purity="1.9150806590914726e-02" nType="0">
            <Node pos="l" depth="3" NCoef="0" IVar="-1" Cut="0.0000000000000000e+00" cType="1" res="5.8295175433158875e-02" rms="1.5648257732391357e-01" purity="2.6626799255609512e-02" nType="-99"/>
            <Node pos="r" depth="3" NCoef="0" IVar="-1" Cut="0.0000000000000000e+00" cType="1" res="-4.1899971663951874e-02" rms="1.0449910908937454e-01" purity="1.2495689094066620e-02" nType="-99"/>
          </Node>
          <Node pos="r" depth="2" NCoef="0" IVar="0" Cut="2.8276118164062500e+03" cType="1" res="-1.6845276579260826e-02" rms="2.4221932888031006e-01" purity="7.6300764083862305e-01" nType="0">
            <Node pos="l" depth="3" NCoef="0" IVar="-1" Cut="0.0000000000000000e+00" cType="1" res="-3.0558289960026741e-02" rms="3.2113778591156006e-01" purity="5.4055356979370117e-01" nType="-99"/>
            <Node pos="r" depth="3" NCoef="0" IVar="-1" Cut="0.0000000000000000e+00" cType="1" res="-2.5155566632747650e-02" rms="1.2588045001029968e-01" purity="9.7551816701889038e-01" nType="-99"/>
          </Node>
        </Node>
      </Node>
    </BinaryTree>
    <BinaryTree type="DecisionTree" boostWeight="1.0000000000000000e+00" itree="528">
      <Node pos="s" depth="0" NCoef="0" IVar="1" Cut="6.5069943666458130e-02" cType="1" res="-1.2014129897579551e-03" rms="1.7990556359291077e-01" purity="4.9504438042640686e-01" nType="0">
        <Node pos="l" depth="1" NCoef="0" IVar="9" Cut="-1.1997766494750977e+00" cType="1" res="1.2374701909720898e-03" rms="1.8308046460151672e-01" purity="2.5461301207542419e-01" nType="0">
          <Node pos="l" depth="2" NCoef="0" IVar="0" Cut="1.8375169677734375e+03" cType="1" res="1.1059882119297981e-02" rms="1.8908856809139252e-01" purity="1.6545212268829346e-01" nType="0">
            <Node pos="l" depth="3" NCoef="0" IVar="-1" Cut="0.0000000000000000e+00" cType="1" res="1.2532692402601242e-02" rms="9.8857454955577850e-02" purity="1.0270671918988228e-02" nType="-99"/>
            <Node pos="r" depth="3" NCoef="0" IVar="-1" Cut="0.0000000000000000e+00" cType="1" res="3.7393383681774139e-02" rms="3.0427864193916321e-01" purity="5.0912058353424072e-01" nType="-99"/>
          </Node>
          <Node pos="r" depth="2" NCoef="0" IVar="1" Cut="5.5784281343221664e-02" cType="1" res="-7.0892198709771037e-04" rms="1.8180336058139801e-01" purity="2.7228096127510071e-01" nType="0">
            <Node pos="l" depth="3" NCoef="0" IVar="-1" Cut="0.0000000000000000e+00" cType="1" res="2.8240673709660769e-03" rms="1.7985244095325470e-01" purity="2.4211850762367249e-01" nType="-99"/>
            <Node pos="r" depth="3" NCoef="0" IVar="-1" Cut="0.0000000000000000e+00" cType="1" res="-3.1011337414383888e-02" rms="1.9550605118274689e-01" purity="5.0066643953323364e-01" nType="-99"/>
          </Node>
        </Node>
        <Node pos="r" depth="1" NCoef="0" IVar="0" Cut="2.3861428222656250e+03" cType="1" res="-3.5956564825028181e-03" rms="1.7670054733753204e-01" purity="7.3107510805130005e-01" nType="0">
          <Node pos="l" depth="2" NCoef="0" IVar="0" Cut="1.8695476074218750e+03" cType="1" res="-1.0743889026343822e-02" rms="2.5885397195816040e-01" purity="1.8876923620700836e-01" nType="0">
            <Node pos="l" depth="3" NCoef="0" IVar="-1" Cut="0.0000000000000000e+00" cType="1" res="-4.2291582212783396e-04" rms="1.7602017521858215e-01" purity="3.7179630249738693e-02" nType="-99"/>
            <Node pos="r" depth="3" NCoef="0" IVar="-1" Cut="0.0000000000000000e+00" cType="1" res="-2.1138526499271393e-02" rms="3.6876302957534790e-01" purity="4.8174163699150085e-01" nType="-99"/>
          </Node>
          <Node pos="r" depth="2" NCoef="0" IVar="5" Cut="1.9125315856933594e+02" cType="1" res="-2.8897391166538000e-04" rms="1.2097962945699692e-01" purity="9.8193901777267456e-01" nType="0">
            <Node pos="l" depth="3" NCoef="0" IVar="-1" Cut="0.0000000000000000e+00" cType="1" res="2.3926328867673874e-02" rms="1.8352463841438293e-01" purity="9.4962286949157715e-01" nType="-99"/>
            <Node pos="r" depth="3" NCoef="0" IVar="-1" Cut="0.0000000000000000e+00" cType="1" res="-2.0986514165997505e-02" rms="1.0700935870409012e-01" purity="9.8730707168579102e-01" nType="-99"/>
          </Node>
        </Node>
      </Node>
    </BinaryTree>
    <BinaryTree type="DecisionTree" boostWeight="1.0000000000000000e+00" itree="529">
      <Node pos="s" depth="0" NCoef="0" IVar="8" Cut="-3.9985984563827515e-01" cType="1" res="-7.0988637162372470e-05" rms="1.7813627421855927e-01" purity="4.9733909964561462e-01" nType="0">
        <Node pos="l" depth="1" NCoef="0" IVar="10" Cut="1.4660421609878540e+00" cType="1" res="-3.4569485578685999e-03" rms="1.8237030506134033e-01" purity="4.2004662752151489e-01" nType="0">
          <Node pos="l" depth="2" NCoef="0" IVar="10" Cut="4.5047423243522644e-01" cType="1" res="-2.5300648994743824e-03" rms="1.8042489886283875e-01" purity="4.3797191977500916e-01" nType="0">
            <Node pos="l" depth="3" NCoef="0" IVar="-1" Cut="0.0000000000000000e+00" cType="1" res="-1.3872112147510052e-02" rms="1.7554488778114319e-01" purity="4.1988396644592285e-01" nType="-99"/>
            <Node pos="r" depth="3" NCoef="0" IVar="-1" Cut="0.0000000000000000e+00" cType="1" res="1.1596820317208767e-02" rms="1.9462734460830688e-01" purity="4.9408066272735596e-01" nType="-99"/>
          </Node>
          <Node pos="r" depth="2" NCoef="0" IVar="-1" Cut="0.0000000000000000e+00" cType="1" res="-2.9922507703304291e-02" rms="2.0146252214908600e-01" purity="2.3127602040767670e-01" nType="-99"/>
        </Node>
        <Node pos="r" depth="1" NCoef="0" IVar="10" Cut="-1.3271588087081909e-01" cType="1" res="1.6003920463845134e-03" rms="1.7598471045494080e-01" purity="5.3549230098724365e-01" nType="0">
          <Node pos="l" depth="2" NCoef="0" IVar="0" Cut="2.1334721679687500e+03" cType="1" res="5.1588811911642551e-03" rms="1.8264868855476379e-01" purity="5.5277931690216064e-01" nType="0">
            <Node pos="l" depth="3" NCoef="0" IVar="-1" Cut="0.0000000000000000e+00" cType="1" res="3.7378087639808655e-02" rms="1.8625548481941223e-01" purity="5.7940326631069183e-02" nType="-99"/>
            <Node pos="r" depth="3" NCoef="0" IVar="-1" Cut="0.0000000000000000e+00" cType="1" res="2.6506779249757528e-03" rms="1.7980954051017761e-01" purity="9.1980290412902832e-01" nType="-99"/>
          </Node>
          <Node pos="r" depth="2" NCoef="0" IVar="10" Cut="2.8616797924041748e-01" cType="1" res="-1.0177835356444120e-03" rms="1.7086850106716156e-01" purity="5.2277326583862305e-01" nType="0">
            <Node pos="l" depth="3" NCoef="0" IVar="-1" Cut="0.0000000000000000e+00" cType="1" res="-2.6739541441202164e-02" rms="1.6351126134395599e-01" purity="5.8787989616394043e-01" nType="-99"/>
            <Node pos="r" depth="3" NCoef="0" IVar="-1" Cut="0.0000000000000000e+00" cType="1" res="3.5015533212572336e-03" rms="1.7318134009838104e-01" purity="5.0120258331298828e-01" nType="-99"/>
          </Node>
        </Node>
      </Node>
    </BinaryTree>
    <BinaryTree type="DecisionTree" boostWeight="1.0000000000000000e+00" itree="530">
      <Node pos="s" depth="0" NCoef="0" IVar="10" Cut="-9.3273335695266724e-01" cType="1" res="-1.3762145536020398e-03" rms="1.7499275505542755e-01" purity="4.9414414167404175e-01" nType="0">
        <Node pos="l" depth="1" NCoef="0" IVar="8" Cut="-3.9627033472061157e-01" cType="1" res="-6.4873271621763706e-03" rms="1.7993885278701782e-01" purity="4.0563356876373291e-01" nType="0">
          <Node pos="l" depth="2" NCoef="0" IVar="9" Cut="4.0314164757728577e-01" cType="1" res="1.2264167889952660e-03" rms="1.7646367847919464e-01" purity="3.2068246603012085e-01" nType="0">
            <Node pos="l" depth="3" NCoef="0" IVar="-1" Cut="0.0000000000000000e+00" cType="1" res="-7.3779341764748096e-03" rms="1.7010983824729919e-01" purity="3.2750204205513000e-01" nType="-99"/>
            <Node pos="r" depth="3" NCoef="0" IVar="-1" Cut="0.0000000000000000e+00" cType="1" res="2.8739679604768753e-02" rms="1.8876558542251587e-01" purity="3.0644935369491577e-01" nType="-99"/>
          </Node>
          <Node pos="r" depth="2" NCoef="0" IVar="0" Cut="2.5325024414062500e+03" cType="1" res="-1.1517619714140892e-02" rms="1.8199333548545837e-01" purity="4.6103194355964661e-01" nType="0">
            <Node pos="l" depth="3" NCoef="0" IVar="-1" Cut="0.0000000000000000e+00" cType="1" res="-3.8064684718847275e-02" rms="2.0171383023262024e-01" purity="1.3315589725971222e-01" nType="-99"/>
            <Node pos="r" depth="3" NCoef="0" IVar="-1" Cut="0.0000000000000000e+00" cType="1" res="-9.4656217843294144e-03" rms="1.4664092659950256e-01" purity="9.5825159549713135e-01" nType="-99"/>
          </Node>
        </Node>
        <Node pos="r" depth="1" NCoef="0" IVar="11" Cut="1.4671148061752319e+00" cType="1" res="3.1413968827109784e-05" rms="1.7357939481735229e-01" purity="5.1852041482925415e-01" nType="0">
          <Node pos="l" depth="2" NCoef="0" IVar="9" Cut="4.0014201402664185e-01" cType="1" res="-1.2366224545985460e-03" rms="1.6962726414203644e-01" purity="5.3132319450378418e-01" nType="0">
            <Node pos="l" depth="3" NCoef="0" IVar="-1" Cut="0.0000000000000000e+00" cType="1" res="3.6642339546233416e-03" rms="1.6637070477008820e-01" purity="5.5524975061416626e-01" nType="-99"/>
            <Node pos="r" depth="3" NCoef="0" IVar="-1" Cut="0.0000000000000000e+00" cType="1" res="-1.6616899520158768e-02" rms="1.7540788650512695e-01" purity="4.8709720373153687e-01" nType="-99"/>
          </Node>
          <Node pos="r" depth="2" NCoef="0" IVar="10" Cut="6.6685587167739868e-01" cType="1" res="9.5811625942587852e-03" rms="2.0060339570045471e-01" purity="4.2210111021995544e-01" nType="0">
            <Node pos="l" depth="3" NCoef="0" IVar="-1" Cut="0.0000000000000000e+00" cType="1" res="2.2713583894073963e-03" rms="1.8966594338417053e-01" purity="4.7520399093627930e-01" nType="-99"/>
            <Node pos="r" depth="3" NCoef="0" IVar="-1" Cut="0.0000000000000000e+00" cType="1" res="4.5557595789432526e-02" rms="2.1302685141563416e-01" purity="3.5549479722976685e-01" nType="-99"/>
          </Node>
        </Node>
      </Node>
    </BinaryTree>
    <BinaryTree type="DecisionTree" boostWeight="1.0000000000000000e+00" itree="531">
      <Node pos="s" depth="0" NCoef="0" IVar="9" Cut="-1.4663760662078857e+00" cType="1" res="-3.1135723111219704e-04" rms="1.7923708260059357e-01" purity="5.0285732746124268e-01" nType="0">
        <Node pos="l" depth="1" NCoef="0" IVar="1" Cut="2.9951918870210648e-02" cType="1" res="7.3308763094246387e-03" rms="1.9384062290191650e-01" purity="2.1725483238697052e-01" nType="0">
          <Node pos="l" depth="2" NCoef="0" IVar="-1" Cut="0.0000000000000000e+00" cType="1" res="-2.1278643980622292e-02" rms="1.2968716025352478e-01" purity="5.1960915327072144e-02" nType="-99"/>
          <Node pos="r" depth="2" NCoef="0" IVar="-1" Cut="0.0000000000000000e+00" cType="1" res="3.3784735947847366e-02" rms="2.3395796120166779e-01" purity="3.5559123754501343e-01" nType="-99"/>
        </Node>
        <Node pos="r" depth="1" NCoef="0" IVar="9" Cut="-2.4760226905345917e-01" cType="1" res="-9.4451283803209662e-04" rms="1.7795872688293457e-01" purity="5.2651941776275635e-01" nType="0">
          <Node pos="l" depth="2" NCoef="0" IVar="5" Cut="2.5216545104980469e+02" cType="1" res="-4.4096158817410469e-03" rms="1.7805589735507965e-01" purity="5.3484719991683960e-01" nType="0">
            <Node pos="l" depth="3" NCoef="0" IVar="-1" Cut="0.0000000000000000e+00" cType="1" res="-1.8214900046586990e-02" rms="1.9913780689239502e-01" purity="3.4764894843101501e-01" nType="-99"/>
            <Node pos="r" depth="3" NCoef="0" IVar="-1" Cut="0.0000000000000000e+00" cType="1" res="2.3496732115745544e-02" rms="1.1244991421699524e-01" purity="9.8149245977401733e-01" nType="-99"/>
          </Node>
          <Node pos="r" depth="2" NCoef="0" IVar="8" Cut="1.4670064449310303e+00" cType="1" res="1.0269111953675747e-03" rms="1.7787328362464905e-01" purity="5.2178138494491577e-01" nType="0">
            <Node pos="l" depth="3" NCoef="0" IVar="-1" Cut="0.0000000000000000e+00" cType="1" res="6.7341100657358766e-04" rms="1.7760552465915680e-01" purity="5.4683393239974976e-01" nType="-99"/>
            <Node pos="r" depth="3" NCoef="0" IVar="-1" Cut="0.0000000000000000e+00" cType="1" res="4.5203447341918945e-02" rms="1.8138214945793152e-01" purity="1.5041428804397583e-01" nType="-99"/>
          </Node>
        </Node>
      </Node>
    </BinaryTree>
    <BinaryTree type="DecisionTree" boostWeight="1.0000000000000000e+00" itree="532">
      <Node pos="s" depth="0" NCoef="0" IVar="9" Cut="-9.3390351533889771e-01" cType="1" res="-1.0449991532368585e-04" rms="1.8123866617679596e-01" purity="4.9503448605537415e-01" nType="0">
        <Node pos="l" depth="1" NCoef="0" IVar="7" Cut="2.4163901805877686e-01" cType="1" res="-5.5998391471803188e-03" rms="1.8863035738468170e-01" purity="3.3870872855186462e-01" nType="0">
          <Node pos="l" depth="2" NCoef="0" IVar="5" Cut="1.6105290222167969e+02" cType="1" res="-1.0970870032906532e-02" rms="1.9283400475978851e-01" purity="3.8126853108406067e-01" nType="0">
            <Node pos="l" depth="3" NCoef="0" IVar="-1" Cut="0.0000000000000000e+00" cType="1" res="-4.9644871614873409e-03" rms="1.8191020190715790e-01" purity="1.1505997925996780e-01" nType="-99"/>
            <Node pos="r" depth="3" NCoef="0" IVar="-1" Cut="0.0000000000000000e+00" cType="1" res="-5.1085352897644043e-02" rms="2.0473912358283997e-01" purity="7.0396125316619873e-01" nType="-99"/>
          </Node>
          <Node pos="r" depth="2" NCoef="0" IVar="8" Cut="-4.0022635459899902e-01" cType="1" res="2.8851795941591263e-03" rms="1.8146792054176331e-01" purity="2.7147379517555237e-01" nType="0">
            <Node pos="l" depth="3" NCoef="0" IVar="-1" Cut="0.0000000000000000e+00" cType="1" res="5.0432063639163971e-02" rms="1.7169371247291565e-01" purity="2.1491332352161407e-01" nType="-99"/>
            <Node pos="r" depth="3" NCoef="0" IVar="-1" Cut="0.0000000000000000e+00" cType="1" res="-1.4661767520010471e-02" rms="1.8749511241912842e-01" purity="3.1084892153739929e-01" nType="-99"/>
          </Node>
        </Node>
        <Node pos="r" depth="1" NCoef="0" IVar="10" Cut="-1.7320501804351807e+00" cType="1" res="1.2016453547403216e-03" rms="1.7941226065158844e-01" purity="5.3219044208526611e-01" nType="0">
          <Node pos="l" depth="2" NCoef="0" IVar="-1" Cut="0.0000000000000000e+00" cType="1" res="3.2085582613945007e-02" rms="2.1827834844589233e-01" purity="3.0953562259674072e-01" nType="-99"/>
          <Node pos="r" depth="2" NCoef="0" IVar="5" Cut="1.8092453002929688e+02" cType="1" res="4.2237015441060066e-04" rms="1.7694002389907837e-01" purity="5.4471683502197266e-01" nType="0">
            <Node pos="l" depth="3" NCoef="0" IVar="-1" Cut="0.0000000000000000e+00" cType="1" res="7.2434875182807446e-03" rms="1.8963684141635895e-01" purity="1.7241826653480530e-01" nType="-99"/>
            <Node pos="r" depth="3" NCoef="0" IVar="-1" Cut="0.0000000000000000e+00" cType="1" res="-5.8792391791939735e-03" rms="1.6400498151779175e-01" purity="8.9676308631896973e-01" nType="-99"/>
          </Node>
        </Node>
      </Node>
    </BinaryTree>
    <BinaryTree type="DecisionTree" boostWeight="1.0000000000000000e+00" itree="533">
      <Node pos="s" depth="0" NCoef="0" IVar="5" Cut="1.8005667114257812e+02" cType="1" res="-1.8764217384159565e-03" rms="1.7544238269329071e-01" purity="4.9755629897117615e-01" nType="0">
        <Node pos="l" depth="1" NCoef="0" IVar="0" Cut="2.1418649902343750e+03" cType="1" res="-4.0509309619665146e-03" rms="1.7966033518314362e-01" purity="1.5171092748641968e-01" nType="0">
          <Node pos="l" depth="2" NCoef="0" IVar="6" Cut="1.2972193908691406e+02" cType="1" res="-1.8181308405473828e-03" rms="1.3923977315425873e-01" purity="2.9104759916663170e-02" nType="0">
            <Node pos="l" depth="3" NCoef="0" IVar="-1" Cut="0.0000000000000000e+00" cType="1" res="-1.6719480976462364e-02" rms="1.2324622273445129e-01" purity="2.1337883546948433e-02" nType="-99"/>
            <Node pos="r" depth="3" NCoef="0" IVar="-1" Cut="0.0000000000000000e+00" cType="1" res="1.9724501296877861e-02" rms="2.5723055005073547e-01" purity="1.1607480794191360e-01" nType="-99"/>
          </Node>
          <Node pos="r" depth="2" NCoef="0" IVar="0" Cut="2.9897487792968750e+03" cType="1" res="-1.3617799617350101e-02" rms="2.9562675952911377e-01" purity="6.7704093456268311e-01" nType="0">
            <Node pos="l" depth="3" NCoef="0" IVar="-1" Cut="0.0000000000000000e+00" cType="1" res="-2.0451750606298447e-02" rms="3.2671698927879333e-01" purity="5.5833011865615845e-01" nType="-99"/>
            <Node pos="r" depth="3" NCoef="0" IVar="-1" Cut="0.0000000000000000e+00" cType="1" res="1.2283946387469769e-02" rms="2.1248619258403778e-01" purity="9.3285095691680908e-01" nType="-99"/>
          </Node>
        </Node>
        <Node pos="r" depth="1" NCoef="0" IVar="6" Cut="1.0487468719482422e+02" cType="1" res="5.5089266970753670e-04" rms="1.7057819664478302e-01" purity="8.8360905647277832e-01" nType="0">
          <Node pos="l" depth="2" NCoef="0" IVar="-1" Cut="0.0000000000000000e+00" cType="1" res="2.5205798447132111e-02" rms="2.4501371383666992e-01" purity="6.0222190618515015e-01" nType="-99"/>
          <Node pos="r" depth="2" NCoef="0" IVar="0" Cut="2.1336005859375000e+03" cType="1" res="-9.4175460981205106e-04" rms="1.6164182126522064e-01" purity="9.1038072109222412e-01" nType="0">
            <Node pos="l" depth="3" NCoef="0" IVar="-1" Cut="0.0000000000000000e+00" cType="1" res="-1.1997287161648273e-02" rms="3.1641316413879395e-01" purity="1.9397413730621338e-01" nType="-99"/>
            <Node pos="r" depth="3" NCoef="0" IVar="-1" Cut="0.0000000000000000e+00" cType="1" res="2.1281730732880533e-04" rms="1.4179840683937073e-01" purity="9.6855676174163818e-01" nType="-99"/>
          </Node>
        </Node>
      </Node>
    </BinaryTree>
    <BinaryTree type="DecisionTree" boostWeight="1.0000000000000000e+00" itree="534">
      <Node pos="s" depth="0" NCoef="0" IVar="6" Cut="1.0965557861328125e+02" cType="1" res="7.8169722110033035e-04" rms="1.7976771295070648e-01" purity="4.9893444776535034e-01" nType="0">
        <Node pos="l" depth="1" NCoef="0" IVar="0" Cut="1.6473038330078125e+03" cType="1" res="4.5598847791552544e-03" rms="1.7686089873313904e-01" purity="1.4491209387779236e-01" nType="0">
          <Node pos="l" depth="2" NCoef="0" IVar="11" Cut="-9.3376713991165161e-01" cType="1" res="-3.4381169825792313e-04" rms="6.8177513778209686e-02" purity="4.8503000289201736e-03" nType="0">
            <Node pos="l" depth="3" NCoef="0" IVar="-1" Cut="0.0000000000000000e+00" cType="1" res="5.3328208625316620e-02" rms="9.9397130310535431e-02" purity="1.0369816794991493e-02" nType="-99"/>
            <Node pos="r" depth="3" NCoef="0" IVar="-1" Cut="0.0000000000000000e+00" cType="1" res="-3.7602324038743973e-02" rms="5.2995834499597549e-02" purity="2.9169891495257616e-03" nType="-99"/>
          </Node>
          <Node pos="r" depth="2" NCoef="0" IVar="6" Cut="8.4173309326171875e+01" cType="1" res="9.6183633431792259e-03" rms="2.4228411912918091e-01" purity="2.8939485549926758e-01" nType="0">
            <Node pos="l" depth="3" NCoef="0" IVar="-1" Cut="0.0000000000000000e+00" cType="1" res="1.5907010529190302e-03" rms="2.1404990553855896e-01" purity="1.9681173563003540e-01" nType="-99"/>
            <Node pos="r" depth="3" NCoef="0" IVar="-1" Cut="0.0000000000000000e+00" cType="1" res="2.8136145323514938e-02" rms="2.6603201031684875e-01" purity="3.7717339396476746e-01" nType="-99"/>
          </Node>
        </Node>
        <Node pos="r" depth="1" NCoef="0" IVar="7" Cut="-5.1384305953979492e-01" cType="1" res="-2.1996768191456795e-03" rms="1.8197335302829742e-01" purity="7.7829414606094360e-01" nType="0">
          <Node pos="l" depth="2" NCoef="0" IVar="0" Cut="1.9326343994140625e+03" cType="1" res="-9.4642071053385735e-03" rms="2.1788653731346130e-01" purity="6.6961598396301270e-01" nType="0">
            <Node pos="l" depth="3" NCoef="0" IVar="-1" Cut="0.0000000000000000e+00" cType="1" res="2.3153776302933693e-02" rms="2.0314644277095795e-01" purity="5.1975406706333160e-02" nType="-99"/>
            <Node pos="r" depth="3" NCoef="0" IVar="-1" Cut="0.0000000000000000e+00" cType="1" res="-3.2916918396949768e-02" rms="2.2210842370986938e-01" purity="8.6711603403091431e-01" nType="-99"/>
          </Node>
          <Node pos="r" depth="2" NCoef="0" IVar="9" Cut="-1.2002512216567993e+00" cType="1" res="-7.8661694715265185e-05" rms="1.7000485956668854e-01" purity="8.1002473831176758e-01" nType="0">
            <Node pos="l" depth="3" NCoef="0" IVar="-1" Cut="0.0000000000000000e+00" cType="1" res="-3.0540499836206436e-02" rms="2.1422921121120453e-01" purity="5.9849661588668823e-01" nType="-99"/>
            <Node pos="r" depth="3" NCoef="0" IVar="-1" Cut="0.0000000000000000e+00" cType="1" res="4.2155850678682327e-03" rms="1.6538500785827637e-01" purity="8.2903259992599487e-01" nType="-99"/>
          </Node>
        </Node>
      </Node>
    </BinaryTree>
    <BinaryTree type="DecisionTree" boostWeight="1.0000000000000000e+00" itree="535">
      <Node pos="s" depth="0" NCoef="0" IVar="7" Cut="4.9315649271011353e-01" cType="1" res="4.9965019570663571e-05" rms="1.8099886178970337e-01" purity="5.0107711553573608e-01" nType="0">
        <Node pos="l" depth="1" NCoef="0" IVar="11" Cut="2.0002110004425049e+00" cType="1" res="2.1772051695734262e-03" rms="1.8356706202030182e-01" purity="5.5435770750045776e-01" nType="0">
          <Node pos="l" depth="2" NCoef="0" IVar="9" Cut="-4.0022176504135132e-01" cType="1" res="3.1375340186059475e-03" rms="1.8149714171886444e-01" purity="5.6130236387252808e-01" nType="0">
            <Node pos="l" depth="3" NCoef="0" IVar="-1" Cut="0.0000000000000000e+00" cType="1" res="2.1277507767081261e-02" rms="1.8568132817745209e-01" purity="5.2081370353698730e-01" nType="-99"/>
            <Node pos="r" depth="3" NCoef="0" IVar="-1" Cut="0.0000000000000000e+00" cType="1" res="2.4651892017573118e-03" rms="1.7903946340084076e-01" purity="5.8425444364547729e-01" nType="-99"/>
          </Node>
          <Node pos="r" depth="2" NCoef="0" IVar="-1" Cut="0.0000000000000000e+00" cType="1" res="-4.7552887350320816e-02" rms="2.3053418099880219e-01" purity="3.6937403678894043e-01" nType="-99"/>
        </Node>
        <Node pos="r" depth="1" NCoef="0" IVar="0" Cut="1.8887840576171875e+03" cType="1" res="-5.5219065397977829e-03" rms="1.7396925389766693e-01" purity="3.6151936650276184e-01" nType="0">
          <Node pos="l" depth="2" NCoef="0" IVar="6" Cut="9.5471488952636719e+01" cType="1" res="-8.3958631148561835e-04" rms="1.0653724521398544e-01" purity="1.3955330476164818e-02" nType="0">
            <Node pos="l" depth="3" NCoef="0" IVar="-1" Cut="0.0000000000000000e+00" cType="1" res="3.3036176115274429e-02" rms="9.3984782695770264e-02" purity="1.0503837838768959e-02" nType="-99"/>
            <Node pos="r" depth="3" NCoef="0" IVar="-1" Cut="0.0000000000000000e+00" cType="1" res="-2.7867538854479790e-02" rms="1.2401019036769867e-01" purity="1.9541677087545395e-02" nType="-99"/>
          </Node>
          <Node pos="r" depth="2" NCoef="0" IVar="0" Cut="2.3310075683593750e+03" cType="1" res="-1.0490914806723595e-02" rms="2.2425563633441925e-01" purity="7.3036396503448486e-01" nType="0">
            <Node pos="l" depth="3" NCoef="0" IVar="-1" Cut="0.0000000000000000e+00" cType="1" res="-2.7349835261702538e-02" rms="3.0987283587455750e-01" purity="2.1466426551342010e-01" nType="-99"/>
            <Node pos="r" depth="3" NCoef="0" IVar="-1" Cut="0.0000000000000000e+00" cType="1" res="-1.0849888436496258e-02" rms="1.8492074310779572e-01" purity="9.0999227762222290e-01" nType="-99"/>
          </Node>
        </Node>
      </Node>
    </BinaryTree>
    <BinaryTree type="DecisionTree" boostWeight="1.0000000000000000e+00" itree="536">
      <Node pos="s" depth="0" NCoef="0" IVar="9" Cut="-9.3346101045608521e-01" cType="1" res="5.6866102386265993e-04" rms="1.7992381751537323e-01" purity="4.9291840195655823e-01" nType="0">
        <Node pos="l" depth="1" NCoef="0" IVar="0" Cut="1.7933693847656250e+03" cType="1" res="5.5325385183095932e-03" rms="1.8669354915618896e-01" purity="3.5876190662384033e-01" nType="0">
          <Node pos="l" depth="2" NCoef="0" IVar="11" Cut="-1.3016149401664734e-01" cType="1" res="-1.4361880021169782e-03" rms="1.0076313465833664e-01" purity="1.1873842217028141e-02" nType="0">
            <Node pos="l" depth="3" NCoef="0" IVar="-1" Cut="0.0000000000000000e+00" cType="1" res="1.7266524955630302e-02" rms="1.0886506736278534e-01" purity="1.3568715192377567e-02" nType="-99"/>
            <Node pos="r" depth="3" NCoef="0" IVar="-1" Cut="0.0000000000000000e+00" cType="1" res="-4.2728669941425323e-02" rms="8.8330976665019989e-02" purity="9.5634376630187035e-03" nType="-99"/>
          </Node>
          <Node pos="r" depth="2" NCoef="0" IVar="7" Cut="2.2700969874858856e-01" cType="1" res="1.1922120116651058e-02" rms="2.3961962759494781e-01" purity="6.7682141065597534e-01" nType="0">
            <Node pos="l" depth="3" NCoef="0" IVar="-1" Cut="0.0000000000000000e+00" cType="1" res="9.1220773756504059e-03" rms="2.2553403675556183e-01" purity="7.0011788606643677e-01" nType="-99"/>
            <Node pos="r" depth="3" NCoef="0" IVar="-1" Cut="0.0000000000000000e+00" cType="1" res="3.5639349371194839e-02" rms="2.6490771770477295e-01" purity="6.3049155473709106e-01" nType="-99"/>
          </Node>
        </Node>
        <Node pos="r" depth="1" NCoef="0" IVar="6" Cut="1.4345446777343750e+02" cType="1" res="-6.0739123728126287e-04" rms="1.7826199531555176e-01" purity="5.2470302581787109e-01" nType="0">
          <Node pos="l" depth="2" NCoef="0" IVar="2" Cut="8.8119030761718750e+02" cType="1" res="2.0207159686833620e-03" rms="1.9463303685188293e-01" purity="2.5801682472229004e-01" nType="0">
            <Node pos="l" depth="3" NCoef="0" IVar="-1" Cut="0.0000000000000000e+00" cType="1" res="9.9027911201119423e-03" rms="1.8989172577857971e-01" purity="2.1513858437538147e-01" nType="-99"/>
            <Node pos="r" depth="3" NCoef="0" IVar="-1" Cut="0.0000000000000000e+00" cType="1" res="-2.6684749871492386e-02" rms="2.4256658554077148e-01" purity="7.5956368446350098e-01" nType="-99"/>
          </Node>
          <Node pos="r" depth="2" NCoef="0" IVar="0" Cut="2.6062502441406250e+03" cType="1" res="-4.3280315585434437e-03" rms="1.5202385187149048e-01" purity="9.0225368738174438e-01" nType="0">
            <Node pos="l" depth="3" NCoef="0" IVar="-1" Cut="0.0000000000000000e+00" cType="1" res="-1.9558068364858627e-02" rms="2.9064512252807617e-01" purity="5.2228415012359619e-01" nType="-99"/>
            <Node pos="r" depth="3" NCoef="0" IVar="-1" Cut="0.0000000000000000e+00" cType="1" res="-1.3054996728897095e-02" rms="9.5692165195941925e-02" purity="9.8832750320434570e-01" nType="-99"/>
          </Node>
        </Node>
      </Node>
    </BinaryTree>
    <BinaryTree type="DecisionTree" boostWeight="1.0000000000000000e+00" itree="537">
      <Node pos="s" depth="0" NCoef="0" IVar="6" Cut="9.6395812988281250e+01" cType="1" res="2.5897680316120386e-03" rms="1.7667970061302185e-01" purity="4.9799180030822754e-01" nType="0">
        <Node pos="l" depth="1" NCoef="0" IVar="4" Cut="2.4355023193359375e+02" cType="1" res="-1.2151808477938175e-03" rms="1.6418199241161346e-01" purity="1.1267888545989990e-01" nType="0">
          <Node pos="l" depth="2" NCoef="0" IVar="4" Cut="2.1668649291992188e+02" cType="1" res="-3.5372008569538593e-03" rms="1.3276877999305725e-01" purity="3.4834451973438263e-02" nType="0">
            <Node pos="l" depth="3" NCoef="0" IVar="-1" Cut="0.0000000000000000e+00" cType="1" res="-1.1346285231411457e-02" rms="1.2605169415473938e-01" purity="2.8694853186607361e-02" nType="-99"/>
            <Node pos="r" depth="3" NCoef="0" IVar="-1" Cut="0.0000000000000000e+00" cType="1" res="-4.9228951334953308e-02" rms="1.8697974085807800e-01" purity="9.7147934138774872e-02" nType="-99"/>
          </Node>
          <Node pos="r" depth="2" NCoef="0" IVar="10" Cut="-1.3853329420089722e-01" cType="1" res="9.8295016214251518e-03" rms="2.6679122447967529e-01" purity="4.8294579982757568e-01" nType="0">
            <Node pos="l" depth="3" NCoef="0" IVar="-1" Cut="0.0000000000000000e+00" cType="1" res="3.3721949905157089e-02" rms="2.7957776188850403e-01" purity="4.7839397192001343e-01" nType="-99"/>
            <Node pos="r" depth="3" NCoef="0" IVar="-1" Cut="0.0000000000000000e+00" cType="1" res="-3.7966603413224220e-03" rms="2.5410416722297668e-01" purity="4.8703971505165100e-01" nType="-99"/>
          </Node>
        </Node>
        <Node pos="r" depth="1" NCoef="0" IVar="8" Cut="9.3284386396408081e-01" cType="1" res="4.6028341166675091e-03" rms="1.8291477859020233e-01" purity="7.0184749364852905e-01" nType="0">
          <Node pos="l" depth="2" NCoef="0" IVar="9" Cut="-9.3324494361877441e-01" cType="1" res="2.9412496369332075e-03" rms="1.7780187726020813e-01" purity="7.3625576496124268e-01" nType="0">
            <Node pos="l" depth="3" NCoef="0" IVar="-1" Cut="0.0000000000000000e+00" cType="1" res="-1.4190522022545338e-02" rms="1.9493238627910614e-01" purity="5.9628248214721680e-01" nType="-99"/>
            <Node pos="r" depth="3" NCoef="0" IVar="-1" Cut="0.0000000000000000e+00" cType="1" res="1.4606338925659657e-02" rms="1.7426024377346039e-01" purity="7.6318103075027466e-01" nType="-99"/>
          </Node>
          <Node pos="r" depth="2" NCoef="0" IVar="2" Cut="5.4395190429687500e+02" cType="1" res="1.4752617105841637e-02" rms="2.1119631826877594e-01" purity="4.9166446924209595e-01" nType="0">
            <Node pos="l" depth="3" NCoef="0" IVar="-1" Cut="0.0000000000000000e+00" cType="1" res="1.5644971281290054e-02" rms="2.1206161379814148e-01" purity="2.4440635740756989e-01" nType="-99"/>
            <Node pos="r" depth="3" NCoef="0" IVar="-1" Cut="0.0000000000000000e+00" cType="1" res="4.8979219049215317e-02" rms="2.0963327586650848e-01" purity="8.1653708219528198e-01" nType="-99"/>
          </Node>
        </Node>
      </Node>
    </BinaryTree>
    <BinaryTree type="DecisionTree" boostWeight="1.0000000000000000e+00" itree="538">
      <Node pos="s" depth="0" NCoef="0" IVar="11" Cut="-6.6571313142776489e-01" cType="1" res="-3.0186352887540124e-05" rms="1.8053513765335083e-01" purity="4.9318733811378479e-01" nType="0">
        <Node pos="l" depth="1" NCoef="0" IVar="8" Cut="-6.6661196947097778e-01" cType="1" res="4.6070981770753860e-03" rms="1.8214598298072815e-01" purity="4.7096377611160278e-01" nType="0">
          <Node pos="l" depth="2" NCoef="0" IVar="11" Cut="-1.0721347332000732e+00" cType="1" res="-4.3942951597273350e-03" rms="1.7463862895965576e-01" purity="3.0587685108184814e-01" nType="0">
            <Node pos="l" depth="3" NCoef="0" IVar="-1" Cut="0.0000000000000000e+00" cType="1" res="-2.7695609256625175e-02" rms="1.7489534616470337e-01" purity="2.9725053906440735e-01" nType="-99"/>
            <Node pos="r" depth="3" NCoef="0" IVar="-1" Cut="0.0000000000000000e+00" cType="1" res="2.5929534807801247e-02" rms="1.7345736920833588e-01" purity="3.2274115085601807e-01" nType="-99"/>
          </Node>
          <Node pos="r" depth="2" NCoef="0" IVar="5" Cut="2.2322763061523438e+02" cType="1" res="8.1304693594574928e-03" rms="1.8488229811191559e-01" purity="5.3558290004730225e-01" nType="0">
            <Node pos="l" depth="3" NCoef="0" IVar="-1" Cut="0.0000000000000000e+00" cType="1" res="2.8203679248690605e-02" rms="2.0857594907283783e-01" purity="3.1943911314010620e-01" nType="-99"/>
            <Node pos="r" depth="3" NCoef="0" IVar="-1" Cut="0.0000000000000000e+00" cType="1" res="5.3589250892400742e-03" rms="1.2706619501113892e-01" purity="9.5198059082031250e-01" nType="-99"/>
          </Node>
        </Node>
        <Node pos="r" depth="1" NCoef="0" IVar="0" Cut="1.8945874023437500e+03" cType="1" res="-2.0696779247373343e-03" rms="1.7978425323963165e-01" purity="5.0296133756637573e-01" nType="0">
          <Node pos="l" depth="2" NCoef="0" IVar="5" Cut="1.3027937316894531e+02" cType="1" res="1.2531114043667912e-03" rms="1.2592293322086334e-01" purity="1.9066933542490005e-02" nType="0">
            <Node pos="l" depth="3" NCoef="0" IVar="-1" Cut="0.0000000000000000e+00" cType="1" res="-3.1309965997934341e-02" rms="7.6006680727005005e-02" purity="6.0871480964124203e-03" nType="-99"/>
            <Node pos="r" depth="3" NCoef="0" IVar="-1" Cut="0.0000000000000000e+00" cType="1" res="2.7616649866104126e-02" rms="1.8365235626697540e-01" purity="4.2170539498329163e-02" nType="-99"/>
          </Node>
          <Node pos="r" depth="2" NCoef="0" IVar="0" Cut="2.5657998046875000e+03" cType="1" res="-4.2688976973295212e-03" rms="2.0786599814891815e-01" purity="8.2323145866394043e-01" nType="0">
            <Node pos="l" depth="3" NCoef="0" IVar="-1" Cut="0.0000000000000000e+00" cType="1" res="-1.5487872064113617e-02" rms="3.3343508839607239e-01" purity="4.1733169555664062e-01" nType="-99"/>
            <Node pos="r" depth="3" NCoef="0" IVar="-1" Cut="0.0000000000000000e+00" cType="1" res="3.4690145403146744e-03" rms="1.3751183450222015e-01" purity="9.6777898073196411e-01" nType="-99"/>
          </Node>
        </Node>
      </Node>
    </BinaryTree>
    <BinaryTree type="DecisionTree" boostWeight="1.0000000000000000e+00" itree="539">
      <Node pos="s" depth="0" NCoef="0" IVar="10" Cut="-1.1991621255874634e+00" cType="1" res="-9.0551866378518753e-06" rms="1.8019711971282959e-01" purity="5.0045704841613770e-01" nType="0">
        <Node pos="l" depth="1" NCoef="0" IVar="0" Cut="1.8191213378906250e+03" cType="1" res="9.6728745847940445e-03" rms="2.0792314410209656e-01" purity="4.0275800228118896e-01" nType="0">
          <Node pos="l" depth="2" NCoef="0" IVar="9" Cut="1.3533222675323486e-01" cType="1" res="-1.3429851969704032e-03" rms="1.2310969829559326e-01" purity="1.6334403306245804e-02" nType="0">
            <Node pos="l" depth="3" NCoef="0" IVar="-1" Cut="0.0000000000000000e+00" cType="1" res="2.2632546722888947e-02" rms="1.3883632421493530e-01" purity="2.1182982251048088e-02" nType="-99"/>
            <Node pos="r" depth="3" NCoef="0" IVar="-1" Cut="0.0000000000000000e+00" cType="1" res="-5.1099058240652084e-02" rms="9.7058571875095367e-02" purity="9.6781253814697266e-03" nType="-99"/>
          </Node>
          <Node pos="r" depth="2" NCoef="0" IVar="0" Cut="2.5776472167968750e+03" cType="1" res="1.8755260854959488e-02" rms="2.5728914141654968e-01" purity="7.2135764360427856e-01" nType="0">
            <Node pos="l" depth="3" NCoef="0" IVar="-1" Cut="0.0000000000000000e+00" cType="1" res="3.7277895957231522e-02" rms="3.4442585706710815e-01" purity="4.2006126046180725e-01" nType="-99"/>
            <Node pos="r" depth="3" NCoef="0" IVar="-1" Cut="0.0000000000000000e+00" cType="1" res="1.2279494665563107e-02" rms="1.6097904741764069e-01" purity="9.4977891445159912e-01" nType="-99"/>
          </Node>
        </Node>
        <Node pos="r" depth="1" NCoef="0" IVar="11" Cut="-1.4659920930862427e+00" cType="1" res="-1.5915252733975649e-03" rms="1.7519797384738922e-01" purity="5.1642554998397827e-01" nType="0">
          <Node pos="l" depth="2" NCoef="0" IVar="8" Cut="-6.5124446153640747e-01" cType="1" res="-8.3288233727216721e-03" rms="1.7971280217170715e-01" purity="3.7897554039955139e-01" nType="0">
            <Node pos="l" depth="3" NCoef="0" IVar="-1" Cut="0.0000000000000000e+00" cType="1" res="1.4501115307211876e-02" rms="1.7716164886951447e-01" purity="3.0507299304008484e-01" nType="-99"/>
            <Node pos="r" depth="3" NCoef="0" IVar="-1" Cut="0.0000000000000000e+00" cType="1" res="-3.7040982395410538e-02" rms="1.8039728701114655e-01" purity="4.0685603022575378e-01" nType="-99"/>
          </Node>
          <Node pos="r" depth="2" NCoef="0" IVar="11" Cut="1.9856382608413696e+00" cType="1" res="-7.1563507663086057e-04" rms="1.7458334565162659e-01" purity="5.3429490327835083e-01" nType="0">
            <Node pos="l" depth="3" NCoef="0" IVar="-1" Cut="0.0000000000000000e+00" cType="1" res="-4.7832733253017068e-04" rms="1.7283226549625397e-01" purity="5.4541128873825073e-01" nType="-99"/>
            <Node pos="r" depth="3" NCoef="0" IVar="-1" Cut="0.0000000000000000e+00" cType="1" res="-2.8614107519388199e-02" rms="2.0470926165580750e-01" purity="3.2327297329902649e-01" nType="-99"/>
          </Node>
        </Node>
      </Node>
    </BinaryTree>
    <BinaryTree type="DecisionTree" boostWeight="1.0000000000000000e+00" itree="540">
      <Node pos="s" depth="0" NCoef="0" IVar="8" Cut="6.6675919294357300e-01" cType="1" res="8.7882840307429433e-04" rms="1.7807093262672424e-01" purity="5.0331205129623413e-01" nType="0">
        <Node pos="l" depth="1" NCoef="0" IVar="10" Cut="1.7330983877182007e+00" cType="1" res="-6.9029763108119369e-04" rms="1.7454409599304199e-01" purity="5.4142445325851440e-01" nType="0">
          <Node pos="l" depth="2" NCoef="0" IVar="9" Cut="1.1993511915206909e+00" cType="1" res="-1.3915663585066795e-03" rms="1.7116655409336090e-01" purity="5.5438739061355591e-01" nType="0">
            <Node pos="l" depth="3" NCoef="0" IVar="-1" Cut="0.0000000000000000e+00" cType="1" res="-1.3842993648722768e-03" rms="1.6706539690494537e-01" purity="5.8048439025878906e-01" nType="-99"/>
            <Node pos="r" depth="3" NCoef="0" IVar="-1" Cut="0.0000000000000000e+00" cType="1" res="-2.2242154926061630e-02" rms="2.0180082321166992e-01" purity="3.3809429407119751e-01" nType="-99"/>
          </Node>
          <Node pos="r" depth="2" NCoef="0" IVar="-1" Cut="0.0000000000000000e+00" cType="1" res="2.4400260299444199e-02" rms="2.2546164691448212e-01" purity="3.1352946162223816e-01" nType="-99"/>
        </Node>
        <Node pos="r" depth="1" NCoef="0" IVar="0" Cut="3.0397888183593750e+03" cType="1" res="5.9695006348192692e-03" rms="1.8897084891796112e-01" purity="3.7966501712799072e-01" nType="0">
          <Node pos="l" depth="2" NCoef="0" IVar="0" Cut="1.8685535888671875e+03" cType="1" res="8.8586239144206047e-03" rms="2.0162948966026306e-01" purity="2.3472236096858978e-01" nType="0">
            <Node pos="l" depth="3" NCoef="0" IVar="-1" Cut="0.0000000000000000e+00" cType="1" res="8.3160644862800837e-04" rms="1.1255072057247162e-01" purity="1.4216369949281216e-02" nType="-99"/>
            <Node pos="r" depth="3" NCoef="0" IVar="-1" Cut="0.0000000000000000e+00" cType="1" res="2.5877587497234344e-02" rms="2.9121688008308411e-01" purity="5.8508265018463135e-01" nType="-99"/>
          </Node>
          <Node pos="r" depth="2" NCoef="0" IVar="-1" Cut="0.0000000000000000e+00" cType="1" res="-4.9511943012475967e-02" rms="1.2278839945793152e-01" purity="9.7930276393890381e-01" nType="-99"/>
        </Node>
      </Node>
    </BinaryTree>
    <BinaryTree type="DecisionTree" boostWeight="1.0000000000000000e+00" itree="541">
      <Node pos="s" depth="0" NCoef="0" IVar="9" Cut="-4.0022727847099304e-01" cType="1" res="5.9607933508232236e-04" rms="1.7968428134918213e-01" purity="5.0410455465316772e-01" nType="0">
        <Node pos="l" depth="1" NCoef="0" IVar="2" Cut="3.9818713378906250e+02" cType="1" res="4.8172427341341972e-03" rms="1.8624950945377350e-01" purity="4.6565294265747070e-01" nType="0">
          <Node pos="l" depth="2" NCoef="0" IVar="7" Cut="-4.1861228644847870e-02" cType="1" res="-3.5543679259717464e-03" rms="1.6488710045814514e-01" purity="7.8382596373558044e-02" nType="0">
            <Node pos="l" depth="3" NCoef="0" IVar="-1" Cut="0.0000000000000000e+00" cType="1" res="-3.8710139691829681e-02" rms="1.5413852035999298e-01" purity="6.7848213016986847e-02" nType="-99"/>
            <Node pos="r" depth="3" NCoef="0" IVar="-1" Cut="0.0000000000000000e+00" cType="1" res="1.7491720616817474e-02" rms="1.7486415803432465e-01" purity="8.9251287281513214e-02" nType="-99"/>
          </Node>
          <Node pos="r" depth="2" NCoef="0" IVar="0" Cut="2.8881525878906250e+03" cType="1" res="7.0470026694238186e-03" rms="1.9147622585296631e-01" purity="5.6880152225494385e-01" nType="0">
            <Node pos="l" depth="3" NCoef="0" IVar="-1" Cut="0.0000000000000000e+00" cType="1" res="2.3684170097112656e-02" rms="2.2700527310371399e-01" purity="3.0385267734527588e-01" nType="-99"/>
            <Node pos="r" depth="3" NCoef="0" IVar="-1" Cut="0.0000000000000000e+00" cType="1" res="-5.0086500123143196e-03" rms="1.1554330587387085e-01" purity="9.8251140117645264e-01" nType="-99"/>
          </Node>
        </Node>
        <Node pos="r" depth="1" NCoef="0" IVar="9" Cut="1.7323530912399292e+00" cType="1" res="-1.7246042843908072e-03" rms="1.7592744529247284e-01" purity="5.2524423599243164e-01" nType="0">
          <Node pos="l" depth="2" NCoef="0" IVar="4" Cut="2.8970440673828125e+02" cType="1" res="-2.6138743851333857e-03" rms="1.7471913993358612e-01" purity="5.5192583799362183e-01" nType="0">
            <Node pos="l" depth="3" NCoef="0" IVar="-1" Cut="0.0000000000000000e+00" cType="1" res="-1.5453442931175232e-02" rms="1.9417376816272736e-01" purity="2.2881862521171570e-01" nType="-99"/>
            <Node pos="r" depth="3" NCoef="0" IVar="-1" Cut="0.0000000000000000e+00" cType="1" res="7.8347381204366684e-03" rms="1.4802220463752747e-01" purity="9.3816143274307251e-01" nType="-99"/>
          </Node>
          <Node pos="r" depth="2" NCoef="0" IVar="-1" Cut="0.0000000000000000e+00" cType="1" res="3.4846041351556778e-02" rms="1.9193258881568909e-01" purity="1.4356634020805359e-01" nType="-99"/>
        </Node>
      </Node>
    </BinaryTree>
    <BinaryTree type="DecisionTree" boostWeight="1.0000000000000000e+00" itree="542">
      <Node pos="s" depth="0" NCoef="0" IVar="8" Cut="-1.4629772901535034e+00" cType="1" res="8.1152631901204586e-04" rms="1.8036256730556488e-01" purity="5.0082761049270630e-01" nType="0">
        <Node pos="l" depth="1" NCoef="0" IVar="6" Cut="1.0066012573242188e+02" cType="1" res="-7.0172641426324844e-03" rms="1.6750548779964447e-01" purity="1.1492842435836792e-01" nType="0">
          <Node pos="l" depth="2" NCoef="0" IVar="-1" Cut="0.0000000000000000e+00" cType="1" res="2.0789023488759995e-02" rms="1.3570035994052887e-01" purity="2.8575826436281204e-02" nType="-99"/>
          <Node pos="r" depth="2" NCoef="0" IVar="-1" Cut="0.0000000000000000e+00" cType="1" res="-3.8864035159349442e-02" rms="2.0333765447139740e-01" purity="2.3707924783229828e-01" nType="-99"/>
        </Node>
        <Node pos="r" depth="1" NCoef="0" IVar="8" Cut="-8.5440528392791748e-01" cType="1" res="1.3759998837485909e-03" rms="1.8124128878116608e-01" purity="5.2865177392959595e-01" nType="0">
          <Node pos="l" depth="2" NCoef="0" IVar="11" Cut="3.9737695455551147e-01" cType="1" res="9.9716642871499062e-03" rms="1.9813869893550873e-01" purity="4.2599651217460632e-01" nType="0">
            <Node pos="l" depth="3" NCoef="0" IVar="-1" Cut="0.0000000000000000e+00" cType="1" res="4.8009608872234821e-03" rms="1.8222691118717194e-01" purity="4.1507858037948608e-01" nType="-99"/>
            <Node pos="r" depth="3" NCoef="0" IVar="-1" Cut="0.0000000000000000e+00" cType="1" res="5.4589472711086273e-02" rms="2.2564069926738739e-01" purity="4.4772380590438843e-01" nType="-99"/>
          </Node>
          <Node pos="r" depth="2" NCoef="0" IVar="11" Cut="-1.4667557477951050e+00" cType="1" res="1.6692810459062457e-04" rms="1.7870320379734039e-01" purity="5.4309135675430298e-01" nType="0">
            <Node pos="l" depth="3" NCoef="0" IVar="-1" Cut="0.0000000000000000e+00" cType="1" res="2.3907003924250603e-02" rms="1.9692735373973846e-01" purity="4.5646643638610840e-01" nType="-99"/>
            <Node pos="r" depth="3" NCoef="0" IVar="-1" Cut="0.0000000000000000e+00" cType="1" res="-3.0388713348656893e-03" rms="1.7634905874729156e-01" purity="5.5351036787033081e-01" nType="-99"/>
          </Node>
        </Node>
      </Node>
    </BinaryTree>
    <BinaryTree type="DecisionTree" boostWeight="1.0000000000000000e+00" itree="543">
      <Node pos="s" depth="0" NCoef="0" IVar="8" Cut="4.0121394395828247e-01" cType="1" res="-1.1711096158251166e-03" rms="1.7686451971530914e-01" purity="4.9430263042449951e-01" nType="0">
        <Node pos="l" depth="1" NCoef="0" IVar="8" Cut="-1.1212989091873169e+00" cType="1" res="8.6028495570644736e-04" rms="1.7477947473526001e-01" purity="5.3128290176391602e-01" nType="0">
          <Node pos="l" depth="2" NCoef="0" IVar="3" Cut="3.0964764404296875e+02" cType="1" res="-4.7144601121544838e-03" rms="1.7308525741100311e-01" purity="2.0651212334632874e-01" nType="0">
            <Node pos="l" depth="3" NCoef="0" IVar="-1" Cut="0.0000000000000000e+00" cType="1" res="8.0955226439982653e-04" rms="1.5396332740783691e-01" purity="5.8321695774793625e-02" nType="-99"/>
            <Node pos="r" depth="3" NCoef="0" IVar="-1" Cut="0.0000000000000000e+00" cType="1" res="-2.3533031344413757e-02" rms="1.9776308536529541e-01" purity="4.2545828223228455e-01" nType="-99"/>
          </Node>
          <Node pos="r" depth="2" NCoef="0" IVar="9" Cut="-1.3314791023731232e-01" cType="1" res="2.1581898909062147e-03" rms="1.7514610290527344e-01" purity="6.0689562559127808e-01" nType="0">
            <Node pos="l" depth="3" NCoef="0" IVar="-1" Cut="0.0000000000000000e+00" cType="1" res="-4.9129934050142765e-03" rms="1.7688393592834473e-01" purity="5.7458841800689697e-01" nType="-99"/>
            <Node pos="r" depth="3" NCoef="0" IVar="-1" Cut="0.0000000000000000e+00" cType="1" res="1.7401441931724548e-02" rms="1.7360959947109222e-01" purity="6.3402682542800903e-01" nType="-99"/>
          </Node>
        </Node>
        <Node pos="r" depth="1" NCoef="0" IVar="0" Cut="2.5712612304687500e+03" cType="1" res="-5.2204560488462448e-03" rms="1.8088111281394958e-01" purity="4.2058679461479187e-01" nType="0">
          <Node pos="l" depth="2" NCoef="0" IVar="4" Cut="2.6023583984375000e+02" cType="1" res="-9.6271233633160591e-03" rms="1.9685687124729156e-01" purity="1.1300704628229141e-01" nType="0">
            <Node pos="l" depth="3" NCoef="0" IVar="-1" Cut="0.0000000000000000e+00" cType="1" res="-5.9338058345019817e-03" rms="1.6808992624282837e-01" purity="7.3990255594253540e-02" nType="-99"/>
            <Node pos="r" depth="3" NCoef="0" IVar="-1" Cut="0.0000000000000000e+00" cType="1" res="-5.4705265909433365e-02" rms="3.2015186548233032e-01" purity="3.6041599512100220e-01" nType="-99"/>
          </Node>
          <Node pos="r" depth="2" NCoef="0" IVar="0" Cut="3.1072231445312500e+03" cType="1" res="2.6020989753305912e-03" rms="1.4801965653896332e-01" purity="9.6659100055694580e-01" nType="0">
            <Node pos="l" depth="3" NCoef="0" IVar="-1" Cut="0.0000000000000000e+00" cType="1" res="2.4407880380749702e-02" rms="1.9948494434356689e-01" purity="9.3914836645126343e-01" nType="-99"/>
            <Node pos="r" depth="3" NCoef="0" IVar="-1" Cut="0.0000000000000000e+00" cType="1" res="-2.1534526720643044e-02" rms="1.0575443506240845e-01" purity="9.8294734954833984e-01" nType="-99"/>
          </Node>
        </Node>
      </Node>
    </BinaryTree>
    <BinaryTree type="DecisionTree" boostWeight="1.0000000000000000e+00" itree="544">
      <Node pos="s" depth="0" NCoef="0" IVar="11" Cut="2.0002110004425049e+00" cType="1" res="6.3214905094355345e-04" rms="1.8244898319244385e-01" purity="5.1388353109359741e-01" nType="0">
        <Node pos="l" depth="1" NCoef="0" IVar="4" Cut="1.9623370361328125e+02" cType="1" res="-2.5297375395894051e-04" rms="1.8057982623577118e-01" purity="5.2171182632446289e-01" nType="0">
          <Node pos="l" depth="2" NCoef="0" IVar="0" Cut="1.8876590576171875e+03" cType="1" res="3.3060866408050060e-03" rms="1.6443945467472076e-01" purity="6.6925235092639923e-02" nType="0">
            <Node pos="l" depth="3" NCoef="0" IVar="-1" Cut="0.0000000000000000e+00" cType="1" res="1.2811522465199232e-03" rms="1.0521095246076584e-01" purity="1.2163575738668442e-02" nType="-99"/>
            <Node pos="r" depth="3" NCoef="0" IVar="-1" Cut="0.0000000000000000e+00" cType="1" res="1.9861284643411636e-02" rms="3.1589499115943909e-01" purity="3.1724441051483154e-01" nType="-99"/>
          </Node>
          <Node pos="r" depth="2" NCoef="0" IVar="10" Cut="-1.4674602746963501e+00" cType="1" res="-2.0303104538470507e-03" rms="1.8809713423252106e-01" purity="7.4882489442825317e-01" nType="0">
            <Node pos="l" depth="3" NCoef="0" IVar="-1" Cut="0.0000000000000000e+00" cType="1" res="-3.0522622168064117e-02" rms="2.3087735474109650e-01" purity="5.6590229272842407e-01" nType="-99"/>
            <Node pos="r" depth="3" NCoef="0" IVar="-1" Cut="0.0000000000000000e+00" cType="1" res="-2.4572003167122602e-03" rms="1.8433786928653717e-01" purity="7.6292401552200317e-01" nType="-99"/>
          </Node>
        </Node>
        <Node pos="r" depth="1" NCoef="0" IVar="-1" Cut="0.0000000000000000e+00" cType="1" res="5.0126943737268448e-02" rms="2.1865034103393555e-01" purity="3.4179967641830444e-01" nType="-99"/>
      </Node>
    </BinaryTree>
    <BinaryTree type="DecisionTree" boostWeight="1.0000000000000000e+00" itree="545">
      <Node pos="s" depth="0" NCoef="0" IVar="11" Cut="1.4673599004745483e+00" cType="1" res="8.4224855527281761e-04" rms="1.7760662734508514e-01" purity="4.9828714132308960e-01" nType="0">
        <Node pos="l" depth="1" NCoef="0" IVar="6" Cut="1.2661697387695312e+02" cType="1" res="-1.4800092321820557e-04" rms="1.7278991639614105e-01" purity="5.1039779186248779e-01" nType="0">
          <Node pos="l" depth="2" NCoef="0" IVar="0" Cut="2.3322263183593750e+03" cType="1" res="-2.5593466125428677e-03" rms="1.8412066996097565e-01" purity="1.7936828732490540e-01" nType="0">
            <Node pos="l" depth="3" NCoef="0" IVar="-1" Cut="0.0000000000000000e+00" cType="1" res="-2.1862636785954237e-03" rms="1.5931721031665802e-01" purity="4.2450901120901108e-02" nType="-99"/>
            <Node pos="r" depth="3" NCoef="0" IVar="-1" Cut="0.0000000000000000e+00" cType="1" res="-1.5683401376008987e-02" rms="2.6795643568038940e-01" purity="7.9009199142456055e-01" nType="-99"/>
          </Node>
          <Node pos="r" depth="2" NCoef="0" IVar="3" Cut="3.0729409790039062e+02" cType="1" res="2.4509588256478310e-03" rms="1.5963901579380035e-01" purity="8.6718297004699707e-01" nType="0">
            <Node pos="l" depth="3" NCoef="0" IVar="-1" Cut="0.0000000000000000e+00" cType="1" res="-9.5651829615235329e-03" rms="2.5314736366271973e-01" purity="3.5340848565101624e-01" nType="-99"/>
            <Node pos="r" depth="3" NCoef="0" IVar="-1" Cut="0.0000000000000000e+00" cType="1" res="1.7228169366717339e-02" rms="1.3943773508071899e-01" purity="9.4740450382232666e-01" nType="-99"/>
          </Node>
        </Node>
        <Node pos="r" depth="1" NCoef="0" IVar="10" Cut="9.3545633554458618e-01" cType="1" res="8.5064610466361046e-03" rms="2.1104627847671509e-01" purity="4.0455466508865356e-01" nType="0">
          <Node pos="l" depth="2" NCoef="0" IVar="3" Cut="3.1430767822265625e+02" cType="1" res="1.6123874112963676e-02" rms="2.1134507656097412e-01" purity="4.4488221406936646e-01" nType="0">
            <Node pos="l" depth="3" NCoef="0" IVar="-1" Cut="0.0000000000000000e+00" cType="1" res="6.7189306020736694e-02" rms="2.1541869640350342e-01" purity="1.3669639825820923e-01" nType="-99"/>
            <Node pos="r" depth="3" NCoef="0" IVar="-1" Cut="0.0000000000000000e+00" cType="1" res="1.8083315342664719e-02" rms="2.0725421607494354e-01" purity="7.2878527641296387e-01" nType="-99"/>
          </Node>
          <Node pos="r" depth="2" NCoef="0" IVar="-1" Cut="0.0000000000000000e+00" cType="1" res="-2.7681611478328705e-02" rms="2.0890446007251740e-01" purity="2.9737925529479980e-01" nType="-99"/>
        </Node>
      </Node>
    </BinaryTree>
    <BinaryTree type="DecisionTree" boostWeight="1.0000000000000000e+00" itree="546">
      <Node pos="s" depth="0" NCoef="0" IVar="11" Cut="6.6724687814712524e-01" cType="1" res="-3.6066659959033132e-04" rms="1.8501657247543335e-01" purity="5.0350344181060791e-01" nType="0">
        <Node pos="l" depth="1" NCoef="0" IVar="0" Cut="2.1988249511718750e+03" cType="1" res="1.1749425902962685e-03" rms="1.8182164430618286e-01" purity="5.1330119371414185e-01" nType="0">
          <Node pos="l" depth="2" NCoef="0" IVar="5" Cut="1.5843670654296875e+02" cType="1" res="4.4351783581078053e-03" rms="1.8193639814853668e-01" purity="5.8220256119966507e-02" nType="0">
            <Node pos="l" depth="3" NCoef="0" IVar="-1" Cut="0.0000000000000000e+00" cType="1" res="2.4474547244608402e-03" rms="1.4289519190788269e-01" purity="2.7676990255713463e-02" nType="-99"/>
            <Node pos="r" depth="3" NCoef="0" IVar="-1" Cut="0.0000000000000000e+00" cType="1" res="2.3925000801682472e-02" rms="2.7244201302528381e-01" purity="1.5778985619544983e-01" nType="-99"/>
          </Node>
          <Node pos="r" depth="2" NCoef="0" IVar="4" Cut="3.1159240722656250e+02" cType="1" res="-1.7439618241041899e-03" rms="1.8166922032833099e-01" purity="9.2073720693588257e-01" nType="0">
            <Node pos="l" depth="3" NCoef="0" IVar="-1" Cut="0.0000000000000000e+00" cType="1" res="-1.4362058602273464e-02" rms="2.6162832975387573e-01" purity="8.0770039558410645e-01" nType="-99"/>
            <Node pos="r" depth="3" NCoef="0" IVar="-1" Cut="0.0000000000000000e+00" cType="1" res="1.0078001767396927e-02" rms="1.2779457867145538e-01" purity="9.7377949953079224e-01" nType="-99"/>
          </Node>
        </Node>
        <Node pos="r" depth="1" NCoef="0" IVar="11" Cut="1.0736448764801025e+00" cType="1" res="-4.0580704808235168e-03" rms="1.9244155287742615e-01" purity="4.7991278767585754e-01" nType="0">
          <Node pos="l" depth="2" NCoef="0" IVar="0" Cut="2.9089016113281250e+03" cType="1" res="-1.3063997961580753e-02" rms="1.7570312321186066e-01" purity="5.3194111585617065e-01" nType="0">
            <Node pos="l" depth="3" NCoef="0" IVar="-1" Cut="0.0000000000000000e+00" cType="1" res="-4.6964704990386963e-02" rms="2.0882257819175720e-01" purity="2.5067374110221863e-01" nType="-99"/>
            <Node pos="r" depth="3" NCoef="0" IVar="-1" Cut="0.0000000000000000e+00" cType="1" res="2.5958744809031487e-02" rms="9.9449299275875092e-02" purity="9.8581534624099731e-01" nType="-99"/>
          </Node>
          <Node pos="r" depth="2" NCoef="0" IVar="1" Cut="5.5684566497802734e-02" cType="1" res="8.3147309487685561e-04" rms="2.0077699422836304e-01" purity="4.5166531205177307e-01" nType="0">
            <Node pos="l" depth="3" NCoef="0" IVar="-1" Cut="0.0000000000000000e+00" cType="1" res="-2.3471442982554436e-02" rms="1.8349456787109375e-01" purity="1.7836637794971466e-01" nType="-99"/>
            <Node pos="r" depth="3" NCoef="0" IVar="-1" Cut="0.0000000000000000e+00" cType="1" res="2.0236240699887276e-02" rms="2.1437320113182068e-01" purity="6.8945050239562988e-01" nType="-99"/>
          </Node>
        </Node>
      </Node>
    </BinaryTree>
    <BinaryTree type="DecisionTree" boostWeight="1.0000000000000000e+00" itree="547">
      <Node pos="s" depth="0" NCoef="0" IVar="8" Cut="1.1986342668533325e+00" cType="1" res="-2.4061260774033144e-05" rms="1.7933537065982819e-01" purity="4.9090039730072021e-01" nType="0">
        <Node pos="l" depth="1" NCoef="0" IVar="8" Cut="8.1816011667251587e-01" cType="1" res="8.4929319564253092e-04" rms="1.7956481873989105e-01" purity="5.2790647745132446e-01" nType="0">
          <Node pos="l" depth="2" NCoef="0" IVar="11" Cut="1.7326564788818359e+00" cType="1" res="8.7112704932224005e-05" rms="1.7675860226154327e-01" purity="5.3072357177734375e-01" nType="0">
            <Node pos="l" depth="3" NCoef="0" IVar="-1" Cut="0.0000000000000000e+00" cType="1" res="2.8852822724729776e-03" rms="1.7500734329223633e-01" purity="5.4419147968292236e-01" nType="-99"/>
            <Node pos="r" depth="3" NCoef="0" IVar="-1" Cut="0.0000000000000000e+00" cType="1" res="-2.4431012570858002e-02" rms="1.9675920903682709e-01" purity="3.6495640873908997e-01" nType="-99"/>
          </Node>
          <Node pos="r" depth="2" NCoef="0" IVar="10" Cut="4.0242078900337219e-01" cType="1" res="8.0191139131784439e-03" rms="2.0394328236579895e-01" purity="5.0140655040740967e-01" nType="0">
            <Node pos="l" depth="3" NCoef="0" IVar="-1" Cut="0.0000000000000000e+00" cType="1" res="4.2757563292980194e-02" rms="2.1023289859294891e-01" purity="5.3515601158142090e-01" nType="-99"/>
            <Node pos="r" depth="3" NCoef="0" IVar="-1" Cut="0.0000000000000000e+00" cType="1" res="-1.3657654635608196e-02" rms="1.9371832907199860e-01" purity="4.5269575715065002e-01" nType="-99"/>
          </Node>
        </Node>
        <Node pos="r" depth="1" NCoef="0" IVar="5" Cut="1.5689465332031250e+02" cType="1" res="-7.3469900526106358e-03" rms="1.7723055183887482e-01" purity="1.8061031401157379e-01" nType="0">
          <Node pos="l" depth="2" NCoef="0" IVar="7" Cut="-3.2461482286453247e-01" cType="1" res="-3.9902373100630939e-04" rms="1.4739666879177094e-01" purity="3.9904937148094177e-02" nType="0">
            <Node pos="l" depth="3" NCoef="0" IVar="-1" Cut="0.0000000000000000e+00" cType="1" res="4.8990242183208466e-02" rms="1.5323512256145477e-01" purity="3.5576686263084412e-02" nType="-99"/>
            <Node pos="r" depth="3" NCoef="0" IVar="-1" Cut="0.0000000000000000e+00" cType="1" res="-2.6600226759910583e-02" rms="1.4323112368583679e-01" purity="4.2720135301351547e-02" nType="-99"/>
          </Node>
          <Node pos="r" depth="2" NCoef="0" IVar="-1" Cut="0.0000000000000000e+00" cType="1" res="-3.6047179251909256e-02" rms="2.2421188652515411e-01" purity="4.5874610543251038e-01" nType="-99"/>
        </Node>
      </Node>
    </BinaryTree>
    <BinaryTree type="DecisionTree" boostWeight="1.0000000000000000e+00" itree="548">
      <Node pos="s" depth="0" NCoef="0" IVar="11" Cut="-1.3240286707878113e-01" cType="1" res="1.5022446168586612e-03" rms="1.8075612187385559e-01" purity="5.0360983610153198e-01" nType="0">
        <Node pos="l" depth="1" NCoef="0" IVar="7" Cut="-2.7757722139358521e-01" cType="1" res="-1.1994990054517984e-03" rms="1.7977181077003479e-01" purity="4.8885676264762878e-01" nType="0">
          <Node pos="l" depth="2" NCoef="0" IVar="7" Cut="-6.0685473680496216e-01" cType="1" res="-4.3837781995534897e-03" rms="1.7892971634864807e-01" purity="4.1581094264984131e-01" nType="0">
            <Node pos="l" depth="3" NCoef="0" IVar="-1" Cut="0.0000000000000000e+00" cType="1" res="-6.1363680288195610e-04" rms="1.7071439325809479e-01" purity="3.2534688711166382e-01" nType="-99"/>
            <Node pos="r" depth="3" NCoef="0" IVar="-1" Cut="0.0000000000000000e+00" cType="1" res="-3.4513749182224274e-02" rms="1.9282627105712891e-01" purity="5.8136850595474243e-01" nType="-99"/>
          </Node>
          <Node pos="r" depth="2" NCoef="0" IVar="7" Cut="1.6147027909755707e-01" cType="1" res="8.9194526663050056e-04" rms="1.8029217422008514e-01" purity="5.3683346509933472e-01" nType="0">
            <Node pos="l" depth="3" NCoef="0" IVar="-1" Cut="0.0000000000000000e+00" cType="1" res="2.1624084562063217e-02" rms="1.7712970077991486e-01" purity="6.7183971405029297e-01" nType="-99"/>
            <Node pos="r" depth="3" NCoef="0" IVar="-1" Cut="0.0000000000000000e+00" cType="1" res="-6.7582628689706326e-03" rms="1.8177068233489990e-01" purity="4.6935382485389709e-01" nType="-99"/>
          </Node>
        </Node>
        <Node pos="r" depth="1" NCoef="0" IVar="8" Cut="9.3291568756103516e-01" cType="1" res="3.7876938004046679e-03" rms="1.8155319988727570e-01" purity="5.1608973741531372e-01" nType="0">
          <Node pos="l" depth="2" NCoef="0" IVar="7" Cut="9.8492521047592163e-01" cType="1" res="2.2631352767348289e-03" rms="1.7651125788688660e-01" purity="5.5651104450225830e-01" nType="0">
            <Node pos="l" depth="3" NCoef="0" IVar="-1" Cut="0.0000000000000000e+00" cType="1" res="2.0206538029015064e-03" rms="1.8098226189613342e-01" purity="6.0764265060424805e-01" nType="-99"/>
            <Node pos="r" depth="3" NCoef="0" IVar="-1" Cut="0.0000000000000000e+00" cType="1" res="4.4848173856735229e-02" rms="1.4156790077686310e-01" purity="2.0532004535198212e-01" nType="-99"/>
          </Node>
          <Node pos="r" depth="2" NCoef="0" IVar="9" Cut="-3.8795319199562073e-01" cType="1" res="1.1496245861053467e-02" rms="2.0498450100421906e-01" purity="3.1170931458473206e-01" nType="0">
            <Node pos="l" depth="3" NCoef="0" IVar="-1" Cut="0.0000000000000000e+00" cType="1" res="-1.3280665501952171e-02" rms="2.0814543962478638e-01" purity="2.7991098165512085e-01" nType="-99"/>
            <Node pos="r" depth="3" NCoef="0" IVar="-1" Cut="0.0000000000000000e+00" cType="1" res="5.6565776467323303e-02" rms="2.0305144786834717e-01" purity="3.2615515589714050e-01" nType="-99"/>
          </Node>
        </Node>
      </Node>
    </BinaryTree>
    <BinaryTree type="DecisionTree" boostWeight="1.0000000000000000e+00" itree="549">
      <Node pos="s" depth="0" NCoef="0" IVar="8" Cut="4.0221050381660461e-01" cType="1" res="-1.7758518515620381e-04" rms="1.8132115900516510e-01" purity="4.9891817569732666e-01" nType="0">
        <Node pos="l" depth="1" NCoef="0" IVar="5" Cut="1.8012045288085938e+02" cType="1" res="1.7400813521817327e-03" rms="1.7947685718536377e-01" purity="5.3879475593566895e-01" nType="0">
          <Node pos="l" depth="2" NCoef="0" IVar="5" Cut="1.3714198303222656e+02" cType="1" res="4.0262658149003983e-03" rms="1.9688862562179565e-01" purity="1.8013265728950500e-01" nType="0">
            <Node pos="l" depth="3" NCoef="0" IVar="-1" Cut="0.0000000000000000e+00" cType="1" res="9.9474180024117231e-04" rms="1.6430774331092834e-01" purity="8.7121598422527313e-02" nType="-99"/>
            <Node pos="r" depth="3" NCoef="0" IVar="-1" Cut="0.0000000000000000e+00" cType="1" res="1.9555596634745598e-02" rms="2.4451580643653870e-01" purity="3.4684821963310242e-01" nType="-99"/>
          </Node>
          <Node pos="r" depth="2" NCoef="0" IVar="0" Cut="2.7343442382812500e+03" cType="1" res="-5.6086096446961164e-04" rms="1.6001841425895691e-01" purity="8.9977216720581055e-01" nType="0">
            <Node pos="l" depth="3" NCoef="0" IVar="-1" Cut="0.0000000000000000e+00" cType="1" res="-5.8928336948156357e-03" rms="2.8582292795181274e-01" purity="6.1851799488067627e-01" nType="-99"/>
            <Node pos="r" depth="3" NCoef="0" IVar="-1" Cut="0.0000000000000000e+00" cType="1" res="9.3688620254397392e-03" rms="8.7678976356983185e-02" purity="9.8958057165145874e-01" nType="-99"/>
          </Node>
        </Node>
        <Node pos="r" depth="1" NCoef="0" IVar="9" Cut="-1.3467821478843689e-01" cType="1" res="-4.0075504221022129e-03" rms="1.8489003181457520e-01" purity="4.1927671432495117e-01" nType="0">
          <Node pos="l" depth="2" NCoef="0" IVar="0" Cut="2.2750463867187500e+03" cType="1" res="-1.0193265974521637e-02" rms="1.8621222674846649e-01" purity="4.0653795003890991e-01" nType="0">
            <Node pos="l" depth="3" NCoef="0" IVar="-1" Cut="0.0000000000000000e+00" cType="1" res="-1.6308477148413658e-02" rms="1.6816727817058563e-01" purity="5.9389270842075348e-02" nType="-99"/>
            <Node pos="r" depth="3" NCoef="0" IVar="-1" Cut="0.0000000000000000e+00" cType="1" res="-4.3841898441314697e-02" rms="2.0888882875442505e-01" purity="8.9680266380310059e-01" nType="-99"/>
          </Node>
          <Node pos="r" depth="2" NCoef="0" IVar="0" Cut="2.0391390380859375e+03" cType="1" res="7.7279837569221854e-04" rms="1.8371909856796265e-01" purity="4.2912119626998901e-01" nType="0">
            <Node pos="l" depth="3" NCoef="0" IVar="-1" Cut="0.0000000000000000e+00" cType="1" res="-2.8147911652922630e-02" rms="1.2990207970142365e-01" purity="2.0995039492845535e-02" nType="-99"/>
            <Node pos="r" depth="3" NCoef="0" IVar="-1" Cut="0.0000000000000000e+00" cType="1" res="1.4358333311975002e-02" rms="2.2579385340213776e-01" purity="8.4756255149841309e-01" nType="-99"/>
          </Node>
        </Node>
      </Node>
    </BinaryTree>
    <BinaryTree type="DecisionTree" boostWeight="1.0000000000000000e+00" itree="550">
      <Node pos="s" depth="0" NCoef="0" IVar="10" Cut="1.3355487585067749e-01" cType="1" res="-4.7782616456970572e-04" rms="1.7759534716606140e-01" purity="4.8925864696502686e-01" nType="0">
        <Node pos="l" depth="1" NCoef="0" IVar="3" Cut="3.6492538452148438e+02" cType="1" res="-2.8932823333889246e-03" rms="1.7466630041599274e-01" purity="4.8689889907836914e-01" nType="0">
          <Node pos="l" depth="2" NCoef="0" IVar="6" Cut="1.1675524139404297e+02" cType="1" res="-6.5003028139472008e-03" rms="1.7202377319335938e-01" purity="1.4562295377254486e-01" nType="0">
            <Node pos="l" depth="3" NCoef="0" IVar="-1" Cut="0.0000000000000000e+00" cType="1" res="-9.6377041190862656e-03" rms="1.4441154897212982e-01" purity="4.6212587505578995e-02" nType="-99"/>
            <Node pos="r" depth="3" NCoef="0" IVar="-1" Cut="0.0000000000000000e+00" cType="1" res="-2.8865363448858261e-02" rms="2.3092946410179138e-01" purity="4.1786623001098633e-01" nType="-99"/>
          </Node>
          <Node pos="r" depth="2" NCoef="0" IVar="0" Cut="2.6278217773437500e+03" cType="1" res="1.0665121953934431e-03" rms="1.7743755877017975e-01" purity="8.6155229806900024e-01" nType="0">
            <Node pos="l" depth="3" NCoef="0" IVar="-1" Cut="0.0000000000000000e+00" cType="1" res="1.9294662401080132e-02" rms="2.9149833321571350e-01" purity="4.4177675247192383e-01" nType="-99"/>
            <Node pos="r" depth="3" NCoef="0" IVar="-1" Cut="0.0000000000000000e+00" cType="1" res="-2.0371582359075546e-02" rms="1.3048170506954193e-01" purity="9.7437953948974609e-01" nType="-99"/>
          </Node>
        </Node>
        <Node pos="r" depth="1" NCoef="0" IVar="5" Cut="1.5624353027343750e+02" cType="1" res="2.4912580847740173e-03" rms="1.8108673393726349e-01" purity="4.9215921759605408e-01" nType="0">
          <Node pos="l" depth="2" NCoef="0" IVar="11" Cut="1.7312147617340088e+00" cType="1" res="-2.3753023706376553e-03" rms="1.7079697549343109e-01" purity="1.0749942064285278e-01" nType="0">
            <Node pos="l" depth="3" NCoef="0" IVar="-1" Cut="0.0000000000000000e+00" cType="1" res="-1.6343649476766586e-02" rms="1.6585844755172729e-01" purity="1.0466002672910690e-01" nType="-99"/>
            <Node pos="r" depth="3" NCoef="0" IVar="-1" Cut="0.0000000000000000e+00" cType="1" res="4.7871492803096771e-02" rms="2.0090968906879425e-01" purity="1.2726071476936340e-01" nType="-99"/>
          </Node>
          <Node pos="r" depth="2" NCoef="0" IVar="0" Cut="2.4653605957031250e+03" cType="1" res="6.4207236282527447e-03" rms="1.8889527022838593e-01" purity="8.0274963378906250e-01" nType="0">
            <Node pos="l" depth="3" NCoef="0" IVar="-1" Cut="0.0000000000000000e+00" cType="1" res="2.9632965102791786e-02" rms="2.9503285884857178e-01" purity="3.2080560922622681e-01" nType="-99"/>
            <Node pos="r" depth="3" NCoef="0" IVar="-1" Cut="0.0000000000000000e+00" cType="1" res="-4.1911988519132137e-03" rms="1.3042996823787689e-01" purity="9.7609865665435791e-01" nType="-99"/>
          </Node>
        </Node>
      </Node>
    </BinaryTree>
    <BinaryTree type="DecisionTree" boostWeight="1.0000000000000000e+00" itree="551">
      <Node pos="s" depth="0" NCoef="0" IVar="11" Cut="-3.9909932017326355e-01" cType="1" res="1.0673901997506618e-03" rms="1.8434962630271912e-01" purity="5.0471681356430054e-01" nType="0">
        <Node pos="l" depth="1" NCoef="0" IVar="4" Cut="2.8877938842773438e+02" cType="1" res="4.3928492814302444e-03" rms="1.8732610344886780e-01" purity="4.9039345979690552e-01" nType="0">
          <Node pos="l" depth="2" NCoef="0" IVar="0" Cut="1.6438680419921875e+03" cType="1" res="7.6520969159901142e-03" rms="2.0365080237388611e-01" purity="2.2327978909015656e-01" nType="0">
            <Node pos="l" depth="3" NCoef="0" IVar="-1" Cut="0.0000000000000000e+00" cType="1" res="-1.7397148534655571e-02" rms="7.7376402914524078e-02" purity="6.0480744577944279e-03" nType="-99"/>
            <Node pos="r" depth="3" NCoef="0" IVar="-1" Cut="0.0000000000000000e+00" cType="1" res="2.2060282528400421e-02" rms="2.6356160640716553e-01" purity="3.9531332254409790e-01" nType="-99"/>
          </Node>
          <Node pos="r" depth="2" NCoef="0" IVar="5" Cut="2.2672375488281250e+02" cType="1" res="-9.6867722459137440e-04" rms="1.5666964650154114e-01" purity="9.2980068922042847e-01" nType="0">
            <Node pos="l" depth="3" NCoef="0" IVar="-1" Cut="0.0000000000000000e+00" cType="1" res="-2.0269447937607765e-02" rms="2.3158398270606995e-01" purity="8.0753785371780396e-01" nType="-99"/>
            <Node pos="r" depth="3" NCoef="0" IVar="-1" Cut="0.0000000000000000e+00" cType="1" res="1.6286406666040421e-02" rms="1.1710061132907867e-01" purity="9.7513920068740845e-01" nType="-99"/>
          </Node>
        </Node>
        <Node pos="r" depth="1" NCoef="0" IVar="10" Cut="1.7329521179199219e+00" cType="1" res="-1.0196756338700652e-03" rms="1.8242582678794861e-01" purity="5.1370620727539062e-01" nType="0">
          <Node pos="l" depth="2" NCoef="0" IVar="5" Cut="2.2144819641113281e+02" cType="1" res="-1.7576806712895632e-03" rms="1.7729586362838745e-01" purity="5.2800148725509644e-01" nType="0">
            <Node pos="l" depth="3" NCoef="0" IVar="-1" Cut="0.0000000000000000e+00" cType="1" res="-9.3813510611653328e-03" rms="2.0023633539676666e-01" purity="2.6411101222038269e-01" nType="-99"/>
            <Node pos="r" depth="3" NCoef="0" IVar="-1" Cut="0.0000000000000000e+00" cType="1" res="8.3398353308439255e-03" rms="1.3126240670681000e-01" purity="9.6023398637771606e-01" nType="-99"/>
          </Node>
          <Node pos="r" depth="2" NCoef="0" IVar="-1" Cut="0.0000000000000000e+00" cType="1" res="2.1110605448484421e-02" rms="2.4654880166053772e-01" purity="2.9961031675338745e-01" nType="-99"/>
        </Node>
      </Node>
    </BinaryTree>
    <BinaryTree type="DecisionTree" boostWeight="1.0000000000000000e+00" itree="552">
      <Node pos="s" depth="0" NCoef="0" IVar="11" Cut="1.9999240636825562e+00" cType="1" res="-1.0120300430571660e-04" rms="1.8050216138362885e-01" purity="4.9780312180519104e-01" nType="0">
        <Node pos="l" depth="1" NCoef="0" IVar="11" Cut="4.0039339661598206e-01" cType="1" res="-7.4444204801693559e-04" rms="1.7867855727672577e-01" purity="5.0556749105453491e-01" nType="0">
          <Node pos="l" depth="2" NCoef="0" IVar="7" Cut="1.2218483686447144e+00" cType="1" res="1.2362516717985272e-03" rms="1.7938102781772614e-01" purity="5.0344532728195190e-01" nType="0">
            <Node pos="l" depth="3" NCoef="0" IVar="-1" Cut="0.0000000000000000e+00" cType="1" res="6.4350431784987450e-03" rms="1.8264867365360260e-01" purity="5.3747648000717163e-01" nType="-99"/>
            <Node pos="r" depth="3" NCoef="0" IVar="-1" Cut="0.0000000000000000e+00" cType="1" res="-4.2478069663047791e-02" rms="1.3520823419094086e-01" purity="1.0716266185045242e-01" nType="-99"/>
          </Node>
          <Node pos="r" depth="2" NCoef="0" IVar="7" Cut="-1.0416303873062134e+00" cType="1" res="-4.5724548399448395e-03" rms="1.7725032567977905e-01" purity="5.0966906547546387e-01" nType="0">
            <Node pos="l" depth="3" NCoef="0" IVar="-1" Cut="0.0000000000000000e+00" cType="1" res="3.1055951490998268e-02" rms="1.8522982299327850e-01" purity="2.0708172023296356e-01" nType="-99"/>
            <Node pos="r" depth="3" NCoef="0" IVar="-1" Cut="0.0000000000000000e+00" cType="1" res="-1.7539832741022110e-02" rms="1.7633882164955139e-01" purity="5.4080843925476074e-01" nType="-99"/>
          </Node>
        </Node>
        <Node pos="r" depth="1" NCoef="0" IVar="-1" Cut="0.0000000000000000e+00" cType="1" res="3.4208994358778000e-02" rms="2.1721473336219788e-01" purity="3.2209864258766174e-01" nType="-99"/>
      </Node>
    </BinaryTree>
    <BinaryTree type="DecisionTree" boostWeight="1.0000000000000000e+00" itree="553">
      <Node pos="s" depth="0" NCoef="0" IVar="9" Cut="-1.1989942789077759e+00" cType="1" res="-9.7015168284997344e-04" rms="1.7804385721683502e-01" purity="4.9800422787666321e-01" nType="0">
        <Node pos="l" depth="1" NCoef="0" IVar="1" Cut="8.7859883904457092e-02" cType="1" res="-8.6946655064821243e-03" rms="1.8201138079166412e-01" purity="2.8387638926506042e-01" nType="0">
          <Node pos="l" depth="2" NCoef="0" IVar="8" Cut="-6.6826754808425903e-01" cType="1" res="-3.5189299378544092e-03" rms="1.8037399649620056e-01" purity="1.7842505872249603e-01" nType="0">
            <Node pos="l" depth="3" NCoef="0" IVar="-1" Cut="0.0000000000000000e+00" cType="1" res="-4.6042747795581818e-02" rms="1.5562376379966736e-01" purity="1.1767061054706573e-01" nType="-99"/>
            <Node pos="r" depth="3" NCoef="0" IVar="-1" Cut="0.0000000000000000e+00" cType="1" res="6.6921203397214413e-03" rms="1.9221696257591248e-01" purity="2.1141302585601807e-01" nType="-99"/>
          </Node>
          <Node pos="r" depth="2" NCoef="0" IVar="-1" Cut="0.0000000000000000e+00" cType="1" res="-4.9780298024415970e-02" rms="1.8591500818729401e-01" purity="5.9443521499633789e-01" nType="-99"/>
        </Node>
        <Node pos="r" depth="1" NCoef="0" IVar="9" Cut="1.2759925127029419e+00" cType="1" res="1.5239125059451908e-04" rms="1.7743192613124847e-01" purity="5.2912175655364990e-01" nType="0">
          <Node pos="l" depth="2" NCoef="0" IVar="4" Cut="1.9504873657226562e+02" cType="1" res="-7.6592963887378573e-04" rms="1.7393974959850311e-01" purity="5.6009137630462646e-01" nType="0">
            <Node pos="l" depth="3" NCoef="0" IVar="-1" Cut="0.0000000000000000e+00" cType="1" res="-2.3164533078670502e-02" rms="1.4368459582328796e-01" purity="5.5144350975751877e-02" nType="-99"/>
            <Node pos="r" depth="3" NCoef="0" IVar="-1" Cut="0.0000000000000000e+00" cType="1" res="3.3436603844165802e-03" rms="1.8492449820041656e-01" purity="7.6791751384735107e-01" nType="-99"/>
          </Node>
          <Node pos="r" depth="2" NCoef="0" IVar="9" Cut="1.4937361478805542e+00" cType="1" res="7.1695004589855671e-03" rms="2.0199644565582275e-01" purity="2.9247534275054932e-01" nType="0">
            <Node pos="l" depth="3" NCoef="0" IVar="-1" Cut="0.0000000000000000e+00" cType="1" res="4.6525731682777405e-02" rms="2.0942255854606628e-01" purity="4.0205949544906616e-01" nType="-99"/>
            <Node pos="r" depth="3" NCoef="0" IVar="-1" Cut="0.0000000000000000e+00" cType="1" res="3.4098268952220678e-03" rms="1.9773074984550476e-01" purity="2.3483146727085114e-01" nType="-99"/>
          </Node>
        </Node>
      </Node>
    </BinaryTree>
    <BinaryTree type="DecisionTree" boostWeight="1.0000000000000000e+00" itree="554">
      <Node pos="s" depth="0" NCoef="0" IVar="2" Cut="1.0016799316406250e+03" cType="1" res="-4.9920391757041216e-04" rms="1.7527267336845398e-01" purity="4.9983298778533936e-01" nType="0">
        <Node pos="l" depth="1" NCoef="0" IVar="9" Cut="-9.3288296461105347e-01" cType="1" res="-1.0812593391165137e-03" rms="1.7521582543849945e-01" purity="4.7236964106559753e-01" nType="0">
          <Node pos="l" depth="2" NCoef="0" IVar="9" Cut="-1.1107797622680664e+00" cType="1" res="2.9203621670603752e-03" rms="1.8317031860351562e-01" purity="3.4952607750892639e-01" nType="0">
            <Node pos="l" depth="3" NCoef="0" IVar="-1" Cut="0.0000000000000000e+00" cType="1" res="-4.1173901408910751e-03" rms="1.7908741533756256e-01" purity="3.1056433916091919e-01" nType="-99"/>
            <Node pos="r" depth="3" NCoef="0" IVar="-1" Cut="0.0000000000000000e+00" cType="1" res="5.4774250835180283e-02" rms="1.9653984904289246e-01" purity="4.9211063981056213e-01" nType="-99"/>
          </Node>
          <Node pos="r" depth="2" NCoef="0" IVar="10" Cut="-3.9804822206497192e-01" cType="1" res="-2.0352813880890608e-03" rms="1.7325186729431152e-01" purity="5.0165659189224243e-01" nType="0">
            <Node pos="l" depth="3" NCoef="0" IVar="-1" Cut="0.0000000000000000e+00" cType="1" res="-1.7397940158843994e-02" rms="1.7650485038757324e-01" purity="4.8936355113983154e-01" nType="-99"/>
            <Node pos="r" depth="3" NCoef="0" IVar="-1" Cut="0.0000000000000000e+00" cType="1" res="-6.4674524764996022e-05" rms="1.7136524617671967e-01" purity="5.0855934619903564e-01" nType="-99"/>
          </Node>
        </Node>
        <Node pos="r" depth="1" NCoef="0" IVar="7" Cut="1.2008571624755859e-01" cType="1" res="8.3143860101699829e-03" rms="1.7589585483074188e-01" purity="9.1568809747695923e-01" nType="0">
          <Node pos="l" depth="2" NCoef="0" IVar="-1" Cut="0.0000000000000000e+00" cType="1" res="4.5393124222755432e-02" rms="1.7268136143684387e-01" purity="9.3268555402755737e-01" nType="-99"/>
          <Node pos="r" depth="2" NCoef="0" IVar="-1" Cut="0.0000000000000000e+00" cType="1" res="-6.5726293250918388e-03" rms="1.7953483760356903e-01" purity="8.9311337471008301e-01" nType="-99"/>
        </Node>
      </Node>
    </BinaryTree>
    <BinaryTree type="DecisionTree" boostWeight="1.0000000000000000e+00" itree="555">
      <Node pos="s" depth="0" NCoef="0" IVar="1" Cut="6.4243547618389130e-02" cType="1" res="1.1267569061601534e-04" rms="1.7913840711116791e-01" purity="5.0104779005050659e-01" nType="0">
        <Node pos="l" depth="1" NCoef="0" IVar="9" Cut="-1.7333443164825439e+00" cType="1" res="-1.7414035974070430e-03" rms="1.8199424445629120e-01" purity="2.5318065285682678e-01" nType="0">
          <Node pos="l" depth="2" NCoef="0" IVar="-1" Cut="0.0000000000000000e+00" cType="1" res="3.3783286809921265e-02" rms="1.8640056252479553e-01" purity="9.7862727940082550e-02" nType="-99"/>
          <Node pos="r" depth="2" NCoef="0" IVar="8" Cut="-6.6593122482299805e-01" cType="1" res="-2.6798166800290346e-03" rms="1.8159699440002441e-01" purity="2.6588645577430725e-01" nType="0">
            <Node pos="l" depth="3" NCoef="0" IVar="-1" Cut="0.0000000000000000e+00" cType="1" res="5.7354667223989964e-03" rms="1.7267569899559021e-01" purity="1.8663120269775391e-01" nType="-99"/>
            <Node pos="r" depth="3" NCoef="0" IVar="-1" Cut="0.0000000000000000e+00" cType="1" res="-1.3056015595793724e-02" rms="1.8545180559158325e-01" purity="3.0170738697052002e-01" nType="-99"/>
          </Node>
        </Node>
        <Node pos="r" depth="1" NCoef="0" IVar="2" Cut="3.7167639160156250e+02" cType="1" res="1.9259715918451548e-03" rms="1.7628179490566254e-01" purity="7.4346268177032471e-01" nType="0">
          <Node pos="l" depth="2" NCoef="0" IVar="0" Cut="1.6072380371093750e+03" cType="1" res="1.3429018668830395e-02" rms="2.2020785510540009e-01" purity="1.5666884183883667e-01" nType="0">
            <Node pos="l" depth="3" NCoef="0" IVar="-1" Cut="0.0000000000000000e+00" cType="1" res="4.2145967483520508e-02" rms="1.1341310292482376e-01" purity="1.3906246982514858e-02" nType="-99"/>
            <Node pos="r" depth="3" NCoef="0" IVar="-1" Cut="0.0000000000000000e+00" cType="1" res="2.8586594387888908e-02" rms="3.1644144654273987e-01" purity="3.6486685276031494e-01" nType="-99"/>
          </Node>
          <Node pos="r" depth="2" NCoef="0" IVar="6" Cut="1.1010293579101562e+02" cType="1" res="3.0438805697485805e-04" rms="1.6911186277866364e-01" purity="8.2618296146392822e-01" nType="0">
            <Node pos="l" depth="3" NCoef="0" IVar="-1" Cut="0.0000000000000000e+00" cType="1" res="1.0645468719303608e-02" rms="2.3712195456027985e-01" purity="4.2158016562461853e-01" nType="-99"/>
            <Node pos="r" depth="3" NCoef="0" IVar="-1" Cut="0.0000000000000000e+00" cType="1" res="-4.7476249746978283e-03" rms="1.4743800461292267e-01" purity="9.2650467157363892e-01" nType="-99"/>
          </Node>
        </Node>
      </Node>
    </BinaryTree>
    <BinaryTree type="DecisionTree" boostWeight="1.0000000000000000e+00" itree="556">
      <Node pos="s" depth="0" NCoef="0" IVar="7" Cut="4.6954372525215149e-01" cType="1" res="1.4812401786912233e-04" rms="1.7916154861450195e-01" purity="5.0610631704330444e-01" nType="0">
        <Node pos="l" depth="1" NCoef="0" IVar="11" Cut="1.7337142229080200e+00" cType="1" res="1.5656552277505398e-03" rms="1.8091958761215210e-01" purity="5.5832171440124512e-01" nType="0">
          <Node pos="l" depth="2" NCoef="0" IVar="11" Cut="1.0863647460937500e+00" cType="1" res="2.3039483930915594e-03" rms="1.7817012965679169e-01" purity="5.6965988874435425e-01" nType="0">
            <Node pos="l" depth="3" NCoef="0" IVar="-1" Cut="0.0000000000000000e+00" cType="1" res="3.4414471592754126e-03" rms="1.7617967724800110e-01" purity="5.6944149732589722e-01" nType="-99"/>
            <Node pos="r" depth="3" NCoef="0" IVar="-1" Cut="0.0000000000000000e+00" cType="1" res="3.0843408778309822e-02" rms="1.9272963702678680e-01" purity="5.7136112451553345e-01" nType="-99"/>
          </Node>
          <Node pos="r" depth="2" NCoef="0" IVar="-1" Cut="0.0000000000000000e+00" cType="1" res="-1.7915396019816399e-02" rms="2.1403430402278900e-01" purity="4.0692502260208130e-01" nType="-99"/>
        </Node>
        <Node pos="r" depth="1" NCoef="0" IVar="11" Cut="-1.4689638614654541e+00" cType="1" res="-3.3744112588465214e-03" rms="1.7466646432876587e-01" purity="3.7635231018066406e-01" nType="0">
          <Node pos="l" depth="2" NCoef="0" IVar="-1" Cut="0.0000000000000000e+00" cType="1" res="-4.2945176362991333e-02" rms="1.9984428584575653e-01" purity="2.5001665949821472e-01" nType="-99"/>
          <Node pos="r" depth="2" NCoef="0" IVar="4" Cut="2.3952951049804688e+02" cType="1" res="-1.7089849570766091e-03" rms="1.7134261131286621e-01" purity="3.9141240715980530e-01" nType="0">
            <Node pos="l" depth="3" NCoef="0" IVar="-1" Cut="0.0000000000000000e+00" cType="1" res="1.0265628807246685e-02" rms="1.6112506389617920e-01" purity="8.5598930716514587e-02" nType="-99"/>
            <Node pos="r" depth="3" NCoef="0" IVar="-1" Cut="0.0000000000000000e+00" cType="1" res="-1.8663458526134491e-02" rms="1.8323652446269989e-01" purity="7.7591538429260254e-01" nType="-99"/>
          </Node>
        </Node>
      </Node>
    </BinaryTree>
    <BinaryTree type="DecisionTree" boostWeight="1.0000000000000000e+00" itree="557">
      <Node pos="s" depth="0" NCoef="0" IVar="10" Cut="-1.3303947448730469e-01" cType="1" res="-5.2961491746827960e-04" rms="1.7900885641574860e-01" purity="5.0021600723266602e-01" nType="0">
        <Node pos="l" depth="1" NCoef="0" IVar="5" Cut="1.2068290710449219e+02" cType="1" res="1.4474102063104510e-03" rms="1.8302927911281586e-01" purity="4.9332398176193237e-01" nType="0">
          <Node pos="l" depth="2" NCoef="0" IVar="0" Cut="1.8446983642578125e+03" cType="1" res="7.9691791906952858e-03" rms="1.5667599439620972e-01" purity="6.1779927462339401e-02" nType="0">
            <Node pos="l" depth="3" NCoef="0" IVar="-1" Cut="0.0000000000000000e+00" cType="1" res="4.4920668005943298e-02" rms="9.1511398553848267e-02" purity="8.8322516530752182e-03" nType="-99"/>
            <Node pos="r" depth="3" NCoef="0" IVar="-1" Cut="0.0000000000000000e+00" cType="1" res="3.5499095916748047e-02" rms="2.9382616281509399e-01" purity="2.6579508185386658e-01" nType="-99"/>
          </Node>
          <Node pos="r" depth="2" NCoef="0" IVar="0" Cut="2.5712573242187500e+03" cType="1" res="-1.0159733938053250e-03" rms="1.9198706746101379e-01" purity="6.5632551908493042e-01" nType="0">
            <Node pos="l" depth="3" NCoef="0" IVar="-1" Cut="0.0000000000000000e+00" cType="1" res="-7.9259192571043968e-03" rms="2.5714650750160217e-01" purity="2.3261083662509918e-01" nType="-99"/>
            <Node pos="r" depth="3" NCoef="0" IVar="-1" Cut="0.0000000000000000e+00" cType="1" res="1.2872807681560516e-02" rms="1.2044467031955719e-01" purity="9.7960823774337769e-01" nType="-99"/>
          </Node>
        </Node>
        <Node pos="r" depth="1" NCoef="0" IVar="6" Cut="9.5031158447265625e+01" cType="1" res="-2.1474235691130161e-03" rms="1.7563392221927643e-01" purity="5.0585579872131348e-01" nType="0">
          <Node pos="l" depth="2" NCoef="0" IVar="0" Cut="1.9506248779296875e+03" cType="1" res="-6.7499233409762383e-03" rms="1.5441007912158966e-01" purity="1.0808980464935303e-01" nType="0">
            <Node pos="l" depth="3" NCoef="0" IVar="-1" Cut="0.0000000000000000e+00" cType="1" res="-1.5336631797254086e-02" rms="9.4122000038623810e-02" purity="1.0570557788014412e-02" nType="-99"/>
            <Node pos="r" depth="3" NCoef="0" IVar="-1" Cut="0.0000000000000000e+00" cType="1" res="-2.8697038069367409e-02" rms="2.7074271440505981e-01" purity="4.3241778016090393e-01" nType="-99"/>
          </Node>
          <Node pos="r" depth="2" NCoef="0" IVar="11" Cut="4.0100890398025513e-01" cType="1" res="8.8479588157497346e-05" rms="1.8502683937549591e-01" purity="6.9909119606018066e-01" nType="0">
            <Node pos="l" depth="3" NCoef="0" IVar="-1" Cut="0.0000000000000000e+00" cType="1" res="-9.4486055895686150e-03" rms="1.8169228732585907e-01" purity="7.1710717678070068e-01" nType="-99"/>
            <Node pos="r" depth="3" NCoef="0" IVar="-1" Cut="0.0000000000000000e+00" cType="1" res="1.4225919730961323e-02" rms="1.8996258080005646e-01" purity="6.7115128040313721e-01" nType="-99"/>
          </Node>
        </Node>
      </Node>
    </BinaryTree>
    <BinaryTree type="DecisionTree" boostWeight="1.0000000000000000e+00" itree="558">
      <Node pos="s" depth="0" NCoef="0" IVar="11" Cut="1.1997220516204834e+00" cType="1" res="-4.0985716623254120e-04" rms="1.7989701032638550e-01" purity="4.9971398711204529e-01" nType="0">
        <Node pos="l" depth="1" NCoef="0" IVar="9" Cut="1.3322016596794128e-01" cType="1" res="9.1318372869864106e-04" rms="1.7709317803382874e-01" purity="5.1489573717117310e-01" nType="0">
          <Node pos="l" depth="2" NCoef="0" IVar="4" Cut="2.0000566101074219e+02" cType="1" res="-1.2358417734503746e-03" rms="1.7352885007858276e-01" purity="5.1565027236938477e-01" nType="0">
            <Node pos="l" depth="3" NCoef="0" IVar="-1" Cut="0.0000000000000000e+00" cType="1" res="-2.7349783107638359e-02" rms="1.3743464648723602e-01" purity="5.2651274949312210e-02" nType="-99"/>
            <Node pos="r" depth="3" NCoef="0" IVar="-1" Cut="0.0000000000000000e+00" cType="1" res="4.0075345896184444e-03" rms="1.9003127515316010e-01" purity="7.6401460170745850e-01" nType="-99"/>
          </Node>
          <Node pos="r" depth="2" NCoef="0" IVar="2" Cut="4.2634313964843750e+02" cType="1" res="3.6794238258153200e-03" rms="1.8154078722000122e-01" purity="5.1392447948455811e-01" nType="0">
            <Node pos="l" depth="3" NCoef="0" IVar="-1" Cut="0.0000000000000000e+00" cType="1" res="3.9342865347862244e-02" rms="1.8892055749893188e-01" purity="1.2550003826618195e-01" nType="-99"/>
            <Node pos="r" depth="3" NCoef="0" IVar="-1" Cut="0.0000000000000000e+00" cType="1" res="2.7767631690949202e-03" rms="1.7889131605625153e-01" purity="6.4524197578430176e-01" nType="-99"/>
          </Node>
        </Node>
        <Node pos="r" depth="1" NCoef="0" IVar="7" Cut="5.0006210803985596e-01" cType="1" res="-7.0665255188941956e-03" rms="1.9325087964534760e-01" purity="4.2332956194877625e-01" nType="0">
          <Node pos="l" depth="2" NCoef="0" IVar="8" Cut="-3.8604423403739929e-01" cType="1" res="-1.2473182752728462e-02" rms="1.9781160354614258e-01" purity="4.7483947873115540e-01" nType="0">
            <Node pos="l" depth="3" NCoef="0" IVar="-1" Cut="0.0000000000000000e+00" cType="1" res="-5.1848884671926498e-02" rms="2.1669358015060425e-01" purity="4.5249357819557190e-01" nType="-99"/>
            <Node pos="r" depth="3" NCoef="0" IVar="-1" Cut="0.0000000000000000e+00" cType="1" res="-2.2943872958421707e-02" rms="1.8921504914760590e-01" purity="4.8417899012565613e-01" nType="-99"/>
          </Node>
          <Node pos="r" depth="2" NCoef="0" IVar="10" Cut="1.3489608466625214e-01" cType="1" res="3.8431009743362665e-03" rms="1.8321861326694489e-01" purity="3.1939214468002319e-01" nType="0">
            <Node pos="l" depth="3" NCoef="0" IVar="-1" Cut="0.0000000000000000e+00" cType="1" res="3.2560117542743683e-02" rms="1.8515373766422272e-01" purity="3.3716896176338196e-01" nType="-99"/>
            <Node pos="r" depth="3" NCoef="0" IVar="-1" Cut="0.0000000000000000e+00" cType="1" res="-8.7034087628126144e-03" rms="1.8120720982551575e-01" purity="3.0387958884239197e-01" nType="-99"/>
          </Node>
        </Node>
      </Node>
    </BinaryTree>
    <BinaryTree type="DecisionTree" boostWeight="1.0000000000000000e+00" itree="559">
      <Node pos="s" depth="0" NCoef="0" IVar="9" Cut="-1.2000806331634521e+00" cType="1" res="8.3434965927153826e-04" rms="1.7823022603988647e-01" purity="5.0185579061508179e-01" nType="0">
        <Node pos="l" depth="1" NCoef="0" IVar="9" Cut="-1.5810061693191528e+00" cType="1" res="6.2934267334640026e-03" rms="1.8569390475749969e-01" purity="2.9347968101501465e-01" nType="0">
          <Node pos="l" depth="2" NCoef="0" IVar="5" Cut="1.3109645080566406e+02" cType="1" res="-1.1782848741859198e-03" rms="1.7225643992424011e-01" purity="1.7117464542388916e-01" nType="0">
            <Node pos="l" depth="3" NCoef="0" IVar="-1" Cut="0.0000000000000000e+00" cType="1" res="4.2880013585090637e-02" rms="1.4379087090492249e-01" purity="4.0530275553464890e-02" nType="-99"/>
            <Node pos="r" depth="3" NCoef="0" IVar="-1" Cut="0.0000000000000000e+00" cType="1" res="-2.0351443439722061e-02" rms="1.9583813846111298e-01" purity="2.9934749007225037e-01" nType="-99"/>
          </Node>
          <Node pos="r" depth="2" NCoef="0" IVar="3" Cut="3.1033694458007812e+02" cType="1" res="1.5154481865465641e-02" rms="2.0010457932949066e-01" purity="4.3852701783180237e-01" nType="0">
            <Node pos="l" depth="3" NCoef="0" IVar="-1" Cut="0.0000000000000000e+00" cType="1" res="7.1938051842153072e-03" rms="1.8151171505451202e-01" purity="9.9272564053535461e-02" nType="-99"/>
            <Node pos="r" depth="3" NCoef="0" IVar="-1" Cut="0.0000000000000000e+00" cType="1" res="5.2433229982852936e-02" rms="2.1444930136203766e-01" purity="7.3612606525421143e-01" nType="-99"/>
          </Node>
        </Node>
        <Node pos="r" depth="1" NCoef="0" IVar="10" Cut="-1.4659709930419922e+00" cType="1" res="6.4876418036874384e-05" rms="1.7713938653469086e-01" purity="5.3122699260711670e-01" nType="0">
          <Node pos="l" depth="2" NCoef="0" IVar="7" Cut="-1.6868386417627335e-02" cType="1" res="-7.1596698835492134e-03" rms="2.0675384998321533e-01" purity="3.4484037756919861e-01" nType="0">
            <Node pos="l" depth="3" NCoef="0" IVar="-1" Cut="0.0000000000000000e+00" cType="1" res="-3.6303061991930008e-02" rms="2.0347800850868225e-01" purity="3.3469408750534058e-01" nType="-99"/>
            <Node pos="r" depth="3" NCoef="0" IVar="-1" Cut="0.0000000000000000e+00" cType="1" res="9.2715304344892502e-03" rms="2.1024656295776367e-01" purity="3.5744625329971313e-01" nType="-99"/>
          </Node>
          <Node pos="r" depth="2" NCoef="0" IVar="7" Cut="9.8796194791793823e-01" cType="1" res="7.5932341860607266e-04" rms="1.7401166260242462e-01" purity="5.4914307594299316e-01" nType="0">
            <Node pos="l" depth="3" NCoef="0" IVar="-1" Cut="0.0000000000000000e+00" cType="1" res="-4.2412906623212621e-05" rms="1.7504094541072845e-01" purity="5.8989757299423218e-01" nType="-99"/>
            <Node pos="r" depth="3" NCoef="0" IVar="-1" Cut="0.0000000000000000e+00" cType="1" res="2.3160086944699287e-02" rms="1.6554418206214905e-01" purity="2.2774265706539154e-01" nType="-99"/>
          </Node>
        </Node>
      </Node>
    </BinaryTree>
    <BinaryTree type="DecisionTree" boostWeight="1.0000000000000000e+00" itree="560">
      <Node pos="s" depth="0" NCoef="0" IVar="10" Cut="1.7311718463897705e+00" cType="1" res="-1.2014006497338414e-03" rms="1.8181616067886353e-01" purity="4.9737122654914856e-01" nType="0">
        <Node pos="l" depth="1" NCoef="0" IVar="2" Cut="5.4141644287109375e+02" cType="1" res="-1.8614035798236728e-03" rms="1.7916463315486908e-01" purity="5.1088249683380127e-01" nType="0">
          <Node pos="l" depth="2" NCoef="0" IVar="0" Cut="1.8135726318359375e+03" cType="1" res="-4.8742047511041164e-03" rms="1.8615937232971191e-01" purity="2.3290869593620300e-01" nType="0">
            <Node pos="l" depth="3" NCoef="0" IVar="-1" Cut="0.0000000000000000e+00" cType="1" res="-1.1610219953581691e-03" rms="1.1631257832050323e-01" purity="1.4995961450040340e-02" nType="-99"/>
            <Node pos="r" depth="3" NCoef="0" IVar="-1" Cut="0.0000000000000000e+00" cType="1" res="-1.7541181296110153e-02" rms="2.7401259541511536e-01" purity="6.5118694305419922e-01" nType="-99"/>
          </Node>
          <Node pos="r" depth="2" NCoef="0" IVar="10" Cut="-1.7195938825607300e+00" cType="1" res="6.5067695686593652e-04" rms="1.7307637631893158e-01" purity="7.4265766143798828e-01" nType="0">
            <Node pos="l" depth="3" NCoef="0" IVar="-1" Cut="0.0000000000000000e+00" cType="1" res="3.1785685569047928e-02" rms="2.1162445843219757e-01" purity="4.5217278599739075e-01" nType="-99"/>
            <Node pos="r" depth="3" NCoef="0" IVar="-1" Cut="0.0000000000000000e+00" cType="1" res="-5.8274465845897794e-04" rms="1.7062431573867798e-01" purity="7.5891619920730591e-01" nType="-99"/>
          </Node>
        </Node>
        <Node pos="r" depth="1" NCoef="0" IVar="8" Cut="4.0383201837539673e-01" cType="1" res="9.5511907711625099e-03" rms="2.2029078006744385e-01" purity="2.7724900841712952e-01" nType="0">
          <Node pos="l" depth="2" NCoef="0" IVar="-1" Cut="0.0000000000000000e+00" cType="1" res="3.6260774359107018e-03" rms="2.2612233459949493e-01" purity="2.9412880539894104e-01" nType="-99"/>
          <Node pos="r" depth="2" NCoef="0" IVar="-1" Cut="0.0000000000000000e+00" cType="1" res="4.8186283558607101e-02" rms="2.1214775741100311e-01" purity="2.5558358430862427e-01" nType="-99"/>
        </Node>
      </Node>
    </BinaryTree>
    <BinaryTree type="DecisionTree" boostWeight="1.0000000000000000e+00" itree="561">
      <Node pos="s" depth="0" NCoef="0" IVar="10" Cut="-1.9991436004638672e+00" cType="1" res="-5.0724276661640033e-05" rms="1.7807956039905548e-01" purity="5.0035715103149414e-01" nType="0">
        <Node pos="l" depth="1" NCoef="0" IVar="-1" Cut="0.0000000000000000e+00" cType="1" res="-3.6202494055032730e-02" rms="1.9440092146396637e-01" purity="1.8026646971702576e-01" nType="-99"/>
        <Node pos="r" depth="1" NCoef="0" IVar="2" Cut="8.7264965820312500e+02" cType="1" res="5.1251845434308052e-04" rms="1.7745378613471985e-01" purity="5.1157802343368530e-01" nType="0">
          <Node pos="l" depth="2" NCoef="0" IVar="8" Cut="4.0170264244079590e-01" cType="1" res="-4.8934563528746367e-04" rms="1.7961679399013519e-01" purity="4.5373609662055969e-01" nType="0">
            <Node pos="l" depth="3" NCoef="0" IVar="-1" Cut="0.0000000000000000e+00" cType="1" res="3.2045224215835333e-03" rms="1.7920158803462982e-01" purity="4.8563969135284424e-01" nType="-99"/>
            <Node pos="r" depth="3" NCoef="0" IVar="-1" Cut="0.0000000000000000e+00" cType="1" res="-9.9267326295375824e-03" rms="1.8035307526588440e-01" purity="3.9424136281013489e-01" nType="-99"/>
          </Node>
          <Node pos="r" depth="2" NCoef="0" IVar="1" Cut="3.5523276776075363e-02" cType="1" res="7.3058214038610458e-03" rms="1.6186381876468658e-01" purity="9.0378439426422119e-01" nType="0">
            <Node pos="l" depth="3" NCoef="0" IVar="-1" Cut="0.0000000000000000e+00" cType="1" res="3.8190066814422607e-02" rms="2.3000125586986542e-01" purity="6.8615567684173584e-01" nType="-99"/>
            <Node pos="r" depth="3" NCoef="0" IVar="-1" Cut="0.0000000000000000e+00" cType="1" res="1.0914306156337261e-02" rms="1.3829086720943451e-01" purity="9.6039879322052002e-01" nType="-99"/>
          </Node>
        </Node>
      </Node>
    </BinaryTree>
    <BinaryTree type="DecisionTree" boostWeight="1.0000000000000000e+00" itree="562">
      <Node pos="s" depth="0" NCoef="0" IVar="10" Cut="4.0015679597854614e-01" cType="1" res="1.8565157370176166e-04" rms="1.8050140142440796e-01" purity="5.0189840793609619e-01" nType="0">
        <Node pos="l" depth="1" NCoef="0" IVar="11" Cut="1.1999704837799072e+00" cType="1" res="2.6519610546529293e-03" rms="1.7781183123588562e-01" purity="5.1853525638580322e-01" nType="0">
          <Node pos="l" depth="2" NCoef="0" IVar="11" Cut="4.3785935640335083e-01" cType="1" res="4.6394420787692070e-03" rms="1.7463359236717224e-01" purity="5.3255933523178101e-01" nType="0">
            <Node pos="l" depth="3" NCoef="0" IVar="-1" Cut="0.0000000000000000e+00" cType="1" res="7.7011012472212315e-03" rms="1.7451563477516174e-01" purity="5.2581852674484253e-01" nType="-99"/>
            <Node pos="r" depth="3" NCoef="0" IVar="-1" Cut="0.0000000000000000e+00" cType="1" res="3.9665620774030685e-02" rms="1.7481781542301178e-01" purity="5.5481487512588501e-01" nType="-99"/>
          </Node>
          <Node pos="r" depth="2" NCoef="0" IVar="11" Cut="1.8857295513153076e+00" cType="1" res="-8.2726730033755302e-03" rms="1.9399270415306091e-01" purity="4.4144880771636963e-01" nType="0">
            <Node pos="l" depth="3" NCoef="0" IVar="-1" Cut="0.0000000000000000e+00" cType="1" res="-6.0858326032757759e-03" rms="1.9080239534378052e-01" purity="4.8841163516044617e-01" nType="-99"/>
            <Node pos="r" depth="3" NCoef="0" IVar="-1" Cut="0.0000000000000000e+00" cType="1" res="-5.5739227682352066e-02" rms="2.0016594231128693e-01" purity="3.3891674876213074e-01" nType="-99"/>
          </Node>
        </Node>
        <Node pos="r" depth="1" NCoef="0" IVar="2" Cut="8.4595837402343750e+02" cType="1" res="-4.0656379424035549e-03" rms="1.8496860563755035e-01" purity="4.7322079539299011e-01" nType="0">
          <Node pos="l" depth="2" NCoef="0" IVar="2" Cut="6.0002081298828125e+02" cType="1" res="-2.0397910848259926e-03" rms="1.8014718592166901e-01" purity="4.1164371371269226e-01" nType="0">
            <Node pos="l" depth="3" NCoef="0" IVar="-1" Cut="0.0000000000000000e+00" cType="1" res="-1.5259553678333759e-02" rms="1.8325234949588776e-01" purity="2.6103866100311279e-01" nType="-99"/>
            <Node pos="r" depth="3" NCoef="0" IVar="-1" Cut="0.0000000000000000e+00" cType="1" res="1.4950341545045376e-02" rms="1.7357897758483887e-01" purity="7.1184062957763672e-01" nType="-99"/>
          </Node>
          <Node pos="r" depth="2" NCoef="0" IVar="-1" Cut="0.0000000000000000e+00" cType="1" res="-4.7799974679946899e-02" rms="2.1248990297317505e-01" purity="8.6249101161956787e-01" nType="-99"/>
        </Node>
      </Node>
    </BinaryTree>
    <BinaryTree type="DecisionTree" boostWeight="1.0000000000000000e+00" itree="563">
      <Node pos="s" depth="0" NCoef="0" IVar="10" Cut="-1.1993846893310547e+00" cType="1" res="-8.2924822345376015e-04" rms="1.7914594709873199e-01" purity="5.0251144170761108e-01" nType="0">
        <Node pos="l" depth="1" NCoef="0" IVar="0" Cut="2.1027634277343750e+03" cType="1" res="-6.6307922825217247e-03" rms="1.9818727672100067e-01" purity="3.6125385761260986e-01" nType="0">
          <Node pos="l" depth="2" NCoef="0" IVar="11" Cut="1.3597024977207184e-01" cType="1" res="-6.2090437859296799e-04" rms="1.6781866550445557e-01" purity="3.8444850593805313e-02" nType="0">
            <Node pos="l" depth="3" NCoef="0" IVar="-1" Cut="0.0000000000000000e+00" cType="1" res="-2.7453197166323662e-02" rms="1.4906851947307587e-01" purity="3.0969383195042610e-02" nType="-99"/>
            <Node pos="r" depth="3" NCoef="0" IVar="-1" Cut="0.0000000000000000e+00" cType="1" res="3.5491153597831726e-02" rms="1.9423797726631165e-01" purity="5.0723463296890259e-02" nType="-99"/>
          </Node>
          <Node pos="r" depth="2" NCoef="0" IVar="9" Cut="-1.3032260537147522e-01" cType="1" res="-1.5233243815600872e-02" rms="2.3465389013290405e-01" purity="8.2331717014312744e-01" nType="0">
            <Node pos="l" depth="3" NCoef="0" IVar="-1" Cut="0.0000000000000000e+00" cType="1" res="-1.3818212784826756e-02" rms="2.3243357241153717e-01" purity="8.1699961423873901e-01" nType="-99"/>
            <Node pos="r" depth="3" NCoef="0" IVar="-1" Cut="0.0000000000000000e+00" cType="1" res="-3.8635067641735077e-02" rms="2.3637121915817261e-01" purity="8.2871001958847046e-01" nType="-99"/>
          </Node>
        </Node>
        <Node pos="r" depth="1" NCoef="0" IVar="8" Cut="3.9987525343894958e-01" cType="1" res="1.5346260624937713e-04" rms="1.7569735646247864e-01" purity="5.2643877267837524e-01" nType="0">
          <Node pos="l" depth="2" NCoef="0" IVar="10" Cut="1.3360063731670380e-01" cType="1" res="-1.5027452027425170e-03" rms="1.7243450880050659e-01" purity="5.5793005228042603e-01" nType="0">
            <Node pos="l" depth="3" NCoef="0" IVar="-1" Cut="0.0000000000000000e+00" cType="1" res="6.5558766946196556e-03" rms="1.6774070262908936e-01" purity="5.8246469497680664e-01" nType="-99"/>
            <Node pos="r" depth="3" NCoef="0" IVar="-1" Cut="0.0000000000000000e+00" cType="1" res="-1.3707975856959820e-02" rms="1.7664381861686707e-01" purity="5.3504556417465210e-01" nType="-99"/>
          </Node>
          <Node pos="r" depth="2" NCoef="0" IVar="0" Cut="2.0562712402343750e+03" cType="1" res="3.4405516926199198e-03" rms="1.8195536732673645e-01" purity="4.6393772959709167e-01" nType="0">
            <Node pos="l" depth="3" NCoef="0" IVar="-1" Cut="0.0000000000000000e+00" cType="1" res="-1.0525443591177464e-02" rms="1.4436534047126770e-01" purity="2.8920846059918404e-02" nType="-99"/>
            <Node pos="r" depth="3" NCoef="0" IVar="-1" Cut="0.0000000000000000e+00" cType="1" res="1.9320804625749588e-02" rms="2.1149137616157532e-01" purity="8.7828028202056885e-01" nType="-99"/>
          </Node>
        </Node>
      </Node>
    </BinaryTree>
    <BinaryTree type="DecisionTree" boostWeight="1.0000000000000000e+00" itree="564">
      <Node pos="s" depth="0" NCoef="0" IVar="6" Cut="1.1232418823242188e+02" cType="1" res="9.9533994216471910e-04" rms="1.7680725455284119e-01" purity="5.0401318073272705e-01" nType="0">
        <Node pos="l" depth="1" NCoef="0" IVar="8" Cut="3.9783975481987000e-01" cType="1" res="-1.2690805597230792e-03" rms="1.7277160286903381e-01" purity="1.5384261310100555e-01" nType="0">
          <Node pos="l" depth="2" NCoef="0" IVar="11" Cut="4.0021178126335144e-01" cType="1" res="-4.0964903309941292e-03" rms="1.7118534445762634e-01" purity="1.6722546517848969e-01" nType="0">
            <Node pos="l" depth="3" NCoef="0" IVar="-1" Cut="0.0000000000000000e+00" cType="1" res="-1.0466462699696422e-03" rms="1.7147213220596313e-01" purity="1.5345671772956848e-01" nType="-99"/>
            <Node pos="r" depth="3" NCoef="0" IVar="-1" Cut="0.0000000000000000e+00" cType="1" res="-2.8264887630939484e-02" rms="1.7045870423316956e-01" purity="1.9197541475296021e-01" nType="-99"/>
          </Node>
          <Node pos="r" depth="2" NCoef="0" IVar="0" Cut="2.0563447265625000e+03" cType="1" res="3.6640882026404142e-03" rms="1.7539584636688232e-01" purity="1.3049265742301941e-01" nType="0">
            <Node pos="l" depth="3" NCoef="0" IVar="-1" Cut="0.0000000000000000e+00" cType="1" res="6.3287424854934216e-03" rms="1.2081833183765411e-01" purity="1.8639188259840012e-02" nType="-99"/>
            <Node pos="r" depth="3" NCoef="0" IVar="-1" Cut="0.0000000000000000e+00" cType="1" res="1.5696844086050987e-02" rms="3.1342259049415588e-01" purity="5.9844994544982910e-01" nType="-99"/>
          </Node>
        </Node>
        <Node pos="r" depth="1" NCoef="0" IVar="5" Cut="1.4249069213867188e+02" cType="1" res="2.9043538961559534e-03" rms="1.8011714518070221e-01" purity="7.9922354221343994e-01" nType="0">
          <Node pos="l" depth="2" NCoef="0" IVar="-1" Cut="0.0000000000000000e+00" cType="1" res="3.8797538727521896e-02" rms="2.4135911464691162e-01" purity="2.4838286638259888e-01" nType="-99"/>
          <Node pos="r" depth="2" NCoef="0" IVar="10" Cut="6.7089307308197021e-01" cType="1" res="1.5982254408299923e-03" rms="1.7468351125717163e-01" purity="8.3983469009399414e-01" nType="0">
            <Node pos="l" depth="3" NCoef="0" IVar="-1" Cut="0.0000000000000000e+00" cType="1" res="-2.3796400055289268e-03" rms="1.6658422350883484e-01" purity="8.5626769065856934e-01" nType="-99"/>
            <Node pos="r" depth="3" NCoef="0" IVar="-1" Cut="0.0000000000000000e+00" cType="1" res="2.1687785163521767e-02" rms="1.9576124846935272e-01" purity="7.9306781291961670e-01" nType="-99"/>
          </Node>
        </Node>
      </Node>
    </BinaryTree>
    <BinaryTree type="DecisionTree" boostWeight="1.0000000000000000e+00" itree="565">
      <Node pos="s" depth="0" NCoef="0" IVar="2" Cut="4.4371893310546875e+02" cType="1" res="3.9154587284428999e-05" rms="1.7896810173988342e-01" purity="5.0200814008712769e-01" nType="0">
        <Node pos="l" depth="1" NCoef="0" IVar="0" Cut="1.9200446777343750e+03" cType="1" res="3.9985831826925278e-03" rms="1.8084591627120972e-01" purity="1.3699752092361450e-01" nType="0">
          <Node pos="l" depth="2" NCoef="0" IVar="1" Cut="9.0404354035854340e-02" cType="1" res="5.1768514094874263e-04" rms="1.4167670905590057e-01" purity="2.5917684659361839e-02" nType="0">
            <Node pos="l" depth="3" NCoef="0" IVar="-1" Cut="0.0000000000000000e+00" cType="1" res="-1.2471882626414299e-02" rms="1.1585479974746704e-01" purity="1.5840405598282814e-02" nType="-99"/>
            <Node pos="r" depth="3" NCoef="0" IVar="-1" Cut="0.0000000000000000e+00" cType="1" res="2.2747917100787163e-02" rms="2.1252311766147614e-01" purity="6.4100250601768494e-02" nType="-99"/>
          </Node>
          <Node pos="r" depth="2" NCoef="0" IVar="-1" Cut="0.0000000000000000e+00" cType="1" res="2.1479861810803413e-02" rms="3.1949689984321594e-01" purity="7.5082701444625854e-01" nType="-99"/>
        </Node>
        <Node pos="r" depth="1" NCoef="0" IVar="6" Cut="7.7300910949707031e+01" cType="1" res="-1.5086091589182615e-03" rms="1.7820475995540619e-01" purity="6.4469295740127563e-01" nType="0">
          <Node pos="l" depth="2" NCoef="0" IVar="1" Cut="3.7213087081909180e-02" cType="1" res="4.2494982481002808e-03" rms="1.7429938912391663e-01" purity="1.2293677031993866e-01" nType="0">
            <Node pos="l" depth="3" NCoef="0" IVar="-1" Cut="0.0000000000000000e+00" cType="1" res="-1.7927506938576698e-02" rms="1.3054317235946655e-01" purity="4.3289843946695328e-02" nType="-99"/>
            <Node pos="r" depth="3" NCoef="0" IVar="-1" Cut="0.0000000000000000e+00" cType="1" res="3.4036315977573395e-02" rms="2.3083311319351196e-01" purity="2.6125356554985046e-01" nType="-99"/>
          </Node>
          <Node pos="r" depth="2" NCoef="0" IVar="0" Cut="2.4657390136718750e+03" cType="1" res="-2.6461428496986628e-03" rms="1.7894427478313446e-01" purity="7.4776768684387207e-01" nType="0">
            <Node pos="l" depth="3" NCoef="0" IVar="-1" Cut="0.0000000000000000e+00" cType="1" res="-1.3215877115726471e-02" rms="2.5197497010231018e-01" purity="1.9220320880413055e-01" nType="-99"/>
            <Node pos="r" depth="3" NCoef="0" IVar="-1" Cut="0.0000000000000000e+00" cType="1" res="-4.8193390830419958e-04" rms="1.3984160125255585e-01" purity="9.6742224693298340e-01" nType="-99"/>
          </Node>
        </Node>
      </Node>
    </BinaryTree>
    <BinaryTree type="DecisionTree" boostWeight="1.0000000000000000e+00" itree="566">
      <Node pos="s" depth="0" NCoef="0" IVar="7" Cut="1.0029815435409546e+00" cType="1" res="-5.9060816420242190e-04" rms="1.8033467233181000e-01" purity="4.9711135029792786e-01" nType="0">
        <Node pos="l" depth="1" NCoef="0" IVar="9" Cut="1.7344943284988403e+00" cType="1" res="5.6659191614016891e-04" rms="1.8363481760025024e-01" purity="5.4445141553878784e-01" nType="0">
          <Node pos="l" depth="2" NCoef="0" IVar="0" Cut="2.1418613281250000e+03" cType="1" res="1.7378855773131363e-05" rms="1.8314416706562042e-01" purity="5.6033790111541748e-01" nType="0">
            <Node pos="l" depth="3" NCoef="0" IVar="-1" Cut="0.0000000000000000e+00" cType="1" res="8.9315092191100121e-03" rms="1.8563482165336609e-01" purity="5.5819548666477203e-02" nType="-99"/>
            <Node pos="r" depth="3" NCoef="0" IVar="-1" Cut="0.0000000000000000e+00" cType="1" res="-6.2511409632861614e-03" rms="1.8130719661712646e-01" purity="9.2204022407531738e-01" nType="-99"/>
          </Node>
          <Node pos="r" depth="2" NCoef="0" IVar="-1" Cut="0.0000000000000000e+00" cType="1" res="3.4494671970605850e-02" rms="1.9367225468158722e-01" purity="1.9679220020771027e-01" nType="-99"/>
        </Node>
        <Node pos="r" depth="1" NCoef="0" IVar="0" Cut="1.8060694580078125e+03" cType="1" res="-8.4341848269104958e-03" rms="1.5591183304786682e-01" purity="1.7623725533485413e-01" nType="0">
          <Node pos="l" depth="2" NCoef="0" IVar="9" Cut="-1.3689430058002472e-01" cType="1" res="-6.6387798869982362e-04" rms="8.1783555448055267e-02" purity="7.0598903112113476e-03" nType="0">
            <Node pos="l" depth="3" NCoef="0" IVar="-1" Cut="0.0000000000000000e+00" cType="1" res="-7.5438693165779114e-02" rms="5.2630145102739334e-02" purity="2.3585499729961157e-03" nType="-99"/>
            <Node pos="r" depth="3" NCoef="0" IVar="-1" Cut="0.0000000000000000e+00" cType="1" res="5.3285758942365646e-02" rms="1.0084033757448196e-01" purity="1.1285157874226570e-02" nType="-99"/>
          </Node>
          <Node pos="r" depth="2" NCoef="0" IVar="-1" Cut="0.0000000000000000e+00" cType="1" res="-3.4370705485343933e-02" rms="2.3240882158279419e-01" purity="4.6411743760108948e-01" nType="-99"/>
        </Node>
      </Node>
    </BinaryTree>
    <BinaryTree type="DecisionTree" boostWeight="1.0000000000000000e+00" itree="567">
      <Node pos="s" depth="0" NCoef="0" IVar="7" Cut="1.2212014198303223e+00" cType="1" res="1.6584263648837805e-03" rms="1.7721298336982727e-01" purity="4.9818107485771179e-01" nType="0">
        <Node pos="l" depth="1" NCoef="0" IVar="8" Cut="-9.3345445394515991e-01" cType="1" res="7.3490757495164871e-04" rms="1.8254616856575012e-01" purity="5.3349018096923828e-01" nType="0">
          <Node pos="l" depth="2" NCoef="0" IVar="1" Cut="3.1948920339345932e-02" cType="1" res="7.1234349161386490e-03" rms="1.9860906898975372e-01" purity="3.2847350835800171e-01" nType="0">
            <Node pos="l" depth="3" NCoef="0" IVar="-1" Cut="0.0000000000000000e+00" cType="1" res="-7.6861376874148846e-03" rms="1.5984144806861877e-01" purity="9.7704716026782990e-02" nType="-99"/>
            <Node pos="r" depth="3" NCoef="0" IVar="-1" Cut="0.0000000000000000e+00" cType="1" res="2.6936423033475876e-02" rms="2.2001814842224121e-01" purity="4.7886195778846741e-01" nType="-99"/>
          </Node>
          <Node pos="r" depth="2" NCoef="0" IVar="7" Cut="4.7092196345329285e-01" cType="1" res="-4.6354474034160376e-04" rms="1.7934735119342804e-01" purity="5.7195013761520386e-01" nType="0">
            <Node pos="l" depth="3" NCoef="0" IVar="-1" Cut="0.0000000000000000e+00" cType="1" res="3.3263689838349819e-03" rms="1.8176455795764923e-01" purity="5.8472639322280884e-01" nType="-99"/>
            <Node pos="r" depth="3" NCoef="0" IVar="-1" Cut="0.0000000000000000e+00" cType="1" res="-1.7621552571654320e-02" rms="1.7004527151584625e-01" purity="5.2498531341552734e-01" nType="-99"/>
          </Node>
        </Node>
        <Node pos="r" depth="1" NCoef="0" IVar="0" Cut="1.7533366699218750e+03" cType="1" res="1.1591399088501930e-02" rms="1.0324890911579132e-01" purity="1.1841174960136414e-01" nType="0">
          <Node pos="l" depth="2" NCoef="0" IVar="7" Cut="1.5963447093963623e+00" cType="1" res="4.0226880810223520e-04" rms="7.1268312633037567e-02" purity="5.2425772882997990e-03" nType="0">
            <Node pos="l" depth="3" NCoef="0" IVar="-1" Cut="0.0000000000000000e+00" cType="1" res="-6.1573054641485214e-02" rms="5.5292759090662003e-02" purity="3.1203550752252340e-03" nType="-99"/>
            <Node pos="r" depth="3" NCoef="0" IVar="-1" Cut="0.0000000000000000e+00" cType="1" res="2.7865669131278992e-01" rms="8.4004782140254974e-02" purity="7.3708272539079189e-03" nType="-99"/>
          </Node>
          <Node pos="r" depth="2" NCoef="0" IVar="-1" Cut="0.0000000000000000e+00" cType="1" res="5.7277143001556396e-02" rms="1.4614970982074738e-01" purity="3.5134294629096985e-01" nType="-99"/>
        </Node>
      </Node>
    </BinaryTree>
    <BinaryTree type="DecisionTree" boostWeight="1.0000000000000000e+00" itree="568">
      <Node pos="s" depth="0" NCoef="0" IVar="11" Cut="-1.7317053079605103e+00" cType="1" res="-4.4883799273520708e-04" rms="1.7752254009246826e-01" purity="5.0027060508728027e-01" nType="0">
        <Node pos="l" depth="1" NCoef="0" IVar="7" Cut="-5.1106192171573639e-02" cType="1" res="-7.7347764745354652e-03" rms="2.0067518949508667e-01" purity="3.8056555390357971e-01" nType="0">
          <Node pos="l" depth="2" NCoef="0" IVar="-1" Cut="0.0000000000000000e+00" cType="1" res="-1.6680753324180841e-03" rms="1.9277453422546387e-01" purity="3.9464434981346130e-01" nType="-99"/>
          <Node pos="r" depth="2" NCoef="0" IVar="-1" Cut="0.0000000000000000e+00" cType="1" res="-3.3498819917440414e-02" rms="2.0758119225502014e-01" purity="3.6738944053649902e-01" nType="-99"/>
        </Node>
        <Node pos="r" depth="1" NCoef="0" IVar="7" Cut="9.5811146497726440e-01" cType="1" res="7.8084121923893690e-05" rms="1.7571817338466644e-01" purity="5.0892776250839233e-01" nType="0">
          <Node pos="l" depth="2" NCoef="0" IVar="2" Cut="5.3882537841796875e+02" cType="1" res="-7.9035660019144416e-04" rms="1.7611485719680786e-01" purity="5.5443453788757324e-01" nType="0">
            <Node pos="l" depth="3" NCoef="0" IVar="-1" Cut="0.0000000000000000e+00" cType="1" res="-1.0827029123902321e-02" rms="1.8710835278034210e-01" purity="2.4981896579265594e-01" nType="-99"/>
            <Node pos="r" depth="3" NCoef="0" IVar="-1" Cut="0.0000000000000000e+00" cType="1" res="5.2109807729721069e-03" rms="1.6749602556228638e-01" purity="7.7934980392456055e-01" nType="-99"/>
          </Node>
          <Node pos="r" depth="2" NCoef="0" IVar="9" Cut="6.5959101915359497e-01" cType="1" res="5.7557821273803711e-03" rms="1.7299500107765198e-01" purity="2.1141321957111359e-01" nType="0">
            <Node pos="l" depth="3" NCoef="0" IVar="-1" Cut="0.0000000000000000e+00" cType="1" res="7.4021089822053909e-03" rms="1.6680812835693359e-01" purity="2.1102748811244965e-01" nType="-99"/>
            <Node pos="r" depth="3" NCoef="0" IVar="-1" Cut="0.0000000000000000e+00" cType="1" res="4.7377765178680420e-02" rms="1.8665952980518341e-01" purity="2.1233546733856201e-01" nType="-99"/>
          </Node>
        </Node>
      </Node>
    </BinaryTree>
    <BinaryTree type="DecisionTree" boostWeight="1.0000000000000000e+00" itree="569">
      <Node pos="s" depth="0" NCoef="0" IVar="1" Cut="2.1680036559700966e-02" cType="1" res="-8.7979860836640000e-04" rms="1.8006242811679840e-01" purity="5.0593322515487671e-01" nType="0">
        <Node pos="l" depth="1" NCoef="0" IVar="5" Cut="1.5443409729003906e+02" cType="1" res="4.3484428897500038e-03" rms="1.5283729135990143e-01" purity="1.0605767369270325e-01" nType="0">
          <Node pos="l" depth="2" NCoef="0" IVar="10" Cut="-9.3357950448989868e-01" cType="1" res="-4.1742945904843509e-04" rms="1.2245418876409531e-01" purity="3.6598969250917435e-02" nType="0">
            <Node pos="l" depth="3" NCoef="0" IVar="-1" Cut="0.0000000000000000e+00" cType="1" res="-4.8080049455165863e-02" rms="1.1476013809442520e-01" purity="3.0675547197461128e-02" nType="-99"/>
            <Node pos="r" depth="3" NCoef="0" IVar="-1" Cut="0.0000000000000000e+00" cType="1" res="1.5376999974250793e-02" rms="1.2474379688501358e-01" purity="3.8533531129360199e-02" nType="-99"/>
          </Node>
          <Node pos="r" depth="2" NCoef="0" IVar="-1" Cut="0.0000000000000000e+00" cType="1" res="4.1574049741029739e-02" rms="2.3547884821891785e-01" purity="3.7613567709922791e-01" nType="-99"/>
        </Node>
        <Node pos="r" depth="1" NCoef="0" IVar="8" Cut="1.1904957294464111e+00" cType="1" res="-2.1176340524107218e-03" rms="1.8590396642684937e-01" purity="6.0060745477676392e-01" nType="0">
          <Node pos="l" depth="2" NCoef="0" IVar="11" Cut="1.4657307863235474e+00" cType="1" res="-1.2761296238750219e-03" rms="1.8459126353263855e-01" purity="6.2790608406066895e-01" nType="0">
            <Node pos="l" depth="3" NCoef="0" IVar="-1" Cut="0.0000000000000000e+00" cType="1" res="-7.1937777101993561e-03" rms="1.8017593026161194e-01" purity="6.3893914222717285e-01" nType="-99"/>
            <Node pos="r" depth="3" NCoef="0" IVar="-1" Cut="0.0000000000000000e+00" cType="1" res="1.8216231837868690e-02" rms="2.1876816451549530e-01" purity="5.3279501199722290e-01" nType="-99"/>
          </Node>
          <Node pos="r" depth="2" NCoef="0" IVar="0" Cut="1.7709820556640625e+03" cType="1" res="-1.1731894686818123e-02" rms="2.0004089176654816e-01" purity="2.8871855139732361e-01" nType="0">
            <Node pos="l" depth="3" NCoef="0" IVar="-1" Cut="0.0000000000000000e+00" cType="1" res="9.2548355460166931e-03" rms="1.1491643637418747e-01" purity="1.4354095794260502e-02" nType="-99"/>
            <Node pos="r" depth="3" NCoef="0" IVar="-1" Cut="0.0000000000000000e+00" cType="1" res="-3.6317106336355209e-02" rms="2.6685693860054016e-01" purity="6.1233240365982056e-01" nType="-99"/>
          </Node>
        </Node>
      </Node>
    </BinaryTree>
    <BinaryTree type="DecisionTree" boostWeight="1.0000000000000000e+00" itree="570">
      <Node pos="s" depth="0" NCoef="0" IVar="8" Cut="-1.1991432905197144e+00" cType="1" res="-1.2985264766030014e-04" rms="1.8127623200416565e-01" purity="4.9619066715240479e-01" nType="0">
        <Node pos="l" depth="1" NCoef="0" IVar="10" Cut="4.0329331159591675e-01" cType="1" res="-7.1695526130497456e-03" rms="1.6400635242462158e-01" purity="1.8119189143180847e-01" nType="0">
          <Node pos="l" depth="2" NCoef="0" IVar="8" Cut="-1.5798012018203735e+00" cType="1" res="-2.8813716489821672e-03" rms="1.5633565187454224e-01" purity="1.9430488348007202e-01" nType="0">
            <Node pos="l" depth="3" NCoef="0" IVar="-1" Cut="0.0000000000000000e+00" cType="1" res="-4.1477378457784653e-02" rms="1.2893833220005035e-01" purity="9.2066369950771332e-02" nType="-99"/>
            <Node pos="r" depth="3" NCoef="0" IVar="-1" Cut="0.0000000000000000e+00" cType="1" res="1.3554967008531094e-02" rms="1.8080885708332062e-01" purity="3.0402308702468872e-01" nType="-99"/>
          </Node>
          <Node pos="r" depth="2" NCoef="0" IVar="-1" Cut="0.0000000000000000e+00" cType="1" res="-4.4055696576833725e-02" rms="1.7692983150482178e-01" purity="1.5716992318630219e-01" nType="-99"/>
        </Node>
        <Node pos="r" depth="1" NCoef="0" IVar="10" Cut="-1.9981318712234497e+00" cType="1" res="7.1039033355191350e-04" rms="1.8321074545383453e-01" purity="5.3378820419311523e-01" nType="0">
          <Node pos="l" depth="2" NCoef="0" IVar="-1" Cut="0.0000000000000000e+00" cType="1" res="2.9029833152890205e-02" rms="2.3276014626026154e-01" purity="2.2203232347965240e-01" nType="-99"/>
          <Node pos="r" depth="2" NCoef="0" IVar="2" Cut="9.3051434326171875e+02" cType="1" res="2.7557587600313127e-04" rms="1.8121668696403503e-01" purity="5.4469531774520874e-01" nType="0">
            <Node pos="l" depth="3" NCoef="0" IVar="-1" Cut="0.0000000000000000e+00" cType="1" res="-1.2304151896387339e-03" rms="1.8267369270324707e-01" purity="5.0052958726882935e-01" nType="-99"/>
            <Node pos="r" depth="3" NCoef="0" IVar="-1" Cut="0.0000000000000000e+00" cType="1" res="2.0360307767987251e-02" rms="1.6785810887813568e-01" purity="9.2980694770812988e-01" nType="-99"/>
          </Node>
        </Node>
      </Node>
    </BinaryTree>
    <BinaryTree type="DecisionTree" boostWeight="1.0000000000000000e+00" itree="571">
      <Node pos="s" depth="0" NCoef="0" IVar="10" Cut="1.9996682405471802e+00" cType="1" res="6.4870232017710805e-04" rms="1.7905947566032410e-01" purity="5.0056064128875732e-01" nType="0">
        <Node pos="l" depth="1" NCoef="0" IVar="7" Cut="-1.0779327154159546e+00" cType="1" res="1.2116134166717529e-03" rms="1.7830102145671844e-01" purity="5.1349395513534546e-01" nType="0">
          <Node pos="l" depth="2" NCoef="0" IVar="0" Cut="1.9146013183593750e+03" cType="1" res="7.8210160136222839e-03" rms="1.6632895171642303e-01" purity="1.7463369667530060e-01" nType="0">
            <Node pos="l" depth="3" NCoef="0" IVar="-1" Cut="0.0000000000000000e+00" cType="1" res="1.5731649473309517e-02" rms="1.0291305929422379e-01" purity="1.3460930436849594e-02" nType="-99"/>
            <Node pos="r" depth="3" NCoef="0" IVar="-1" Cut="0.0000000000000000e+00" cType="1" res="3.2111741602420807e-02" rms="2.6681905984878540e-01" purity="5.8882838487625122e-01" nType="-99"/>
          </Node>
          <Node pos="r" depth="2" NCoef="0" IVar="5" Cut="1.9147676086425781e+02" cType="1" res="4.1105889249593019e-04" rms="1.7968045175075531e-01" purity="5.5453789234161377e-01" nType="0">
            <Node pos="l" depth="3" NCoef="0" IVar="-1" Cut="0.0000000000000000e+00" cType="1" res="7.3388116434216499e-03" rms="2.0371566712856293e-01" purity="2.1671004593372345e-01" nType="-99"/>
            <Node pos="r" depth="3" NCoef="0" IVar="-1" Cut="0.0000000000000000e+00" cType="1" res="-9.6659781411290169e-03" rms="1.4945480227470398e-01" purity="9.1869360208511353e-01" nType="-99"/>
          </Node>
        </Node>
        <Node pos="r" depth="1" NCoef="0" IVar="-1" Cut="0.0000000000000000e+00" cType="1" res="-3.4329008311033249e-02" rms="1.9779913127422333e-01" purity="1.5219499170780182e-01" nType="-99"/>
      </Node>
    </BinaryTree>
    <BinaryTree type="DecisionTree" boostWeight="1.0000000000000000e+00" itree="572">
      <Node pos="s" depth="0" NCoef="0" IVar="11" Cut="1.7328703403472900e+00" cType="1" res="4.4519780203700066e-04" rms="1.7904777824878693e-01" purity="4.9860364198684692e-01" nType="0">
        <Node pos="l" depth="1" NCoef="0" IVar="9" Cut="-1.4656727313995361e+00" cType="1" res="1.1419754009693861e-03" rms="1.7675051093101501e-01" purity="5.0971066951751709e-01" nType="0">
          <Node pos="l" depth="2" NCoef="0" IVar="4" Cut="1.8785208129882812e+02" cType="1" res="-8.3880284801125526e-03" rms="1.8348376452922821e-01" purity="2.0190772414207458e-01" nType="0">
            <Node pos="l" depth="3" NCoef="0" IVar="-1" Cut="0.0000000000000000e+00" cType="1" res="4.1404259391129017e-03" rms="1.4720721542835236e-01" purity="5.8458842337131500e-02" nType="-99"/>
            <Node pos="r" depth="3" NCoef="0" IVar="-1" Cut="0.0000000000000000e+00" cType="1" res="-3.7755224853754044e-02" rms="2.1992899477481842e-01" purity="3.8068056106567383e-01" nType="-99"/>
          </Node>
          <Node pos="r" depth="2" NCoef="0" IVar="3" Cut="3.4111654663085938e+02" cType="1" res="1.9645162392407656e-03" rms="1.7613312602043152e-01" purity="5.3627735376358032e-01" nType="0">
            <Node pos="l" depth="3" NCoef="0" IVar="-1" Cut="0.0000000000000000e+00" cType="1" res="1.4629274606704712e-02" rms="1.8238762021064758e-01" purity="1.4543119072914124e-01" nType="-99"/>
            <Node pos="r" depth="3" NCoef="0" IVar="-1" Cut="0.0000000000000000e+00" cType="1" res="-1.0716472752392292e-03" rms="1.7121523618698120e-01" purity="8.3188831806182861e-01" nType="-99"/>
          </Node>
        </Node>
        <Node pos="r" depth="1" NCoef="0" IVar="10" Cut="3.9650246500968933e-01" cType="1" res="-8.9118899777531624e-03" rms="2.0722086727619171e-01" purity="3.4944617748260498e-01" nType="0">
          <Node pos="l" depth="2" NCoef="0" IVar="-1" Cut="0.0000000000000000e+00" cType="1" res="-4.9238752573728561e-02" rms="1.9748614728450775e-01" purity="3.5405212640762329e-01" nType="-99"/>
          <Node pos="r" depth="2" NCoef="0" IVar="-1" Cut="0.0000000000000000e+00" cType="1" res="1.9683796912431717e-02" rms="2.1837089955806732e-01" purity="3.4326297044754028e-01" nType="-99"/>
        </Node>
      </Node>
    </BinaryTree>
    <BinaryTree type="DecisionTree" boostWeight="1.0000000000000000e+00" itree="573">
      <Node pos="s" depth="0" NCoef="0" IVar="10" Cut="1.9996237754821777e+00" cType="1" res="-7.8540801769122481e-04" rms="1.7843256890773773e-01" purity="4.9970191717147827e-01" nType="0">
        <Node pos="l" depth="1" NCoef="0" IVar="10" Cut="3.9971271157264709e-01" cType="1" res="-1.2866019969806075e-03" rms="1.7668141424655914e-01" purity="5.1032710075378418e-01" nType="0">
          <Node pos="l" depth="2" NCoef="0" IVar="10" Cut="-2.0373322963714600e+00" cType="1" res="3.9884907891973853e-04" rms="1.7614889144897461e-01" purity="5.1445680856704712e-01" nType="0">
            <Node pos="l" depth="3" NCoef="0" IVar="-1" Cut="0.0000000000000000e+00" cType="1" res="-3.6920148879289627e-02" rms="1.9647067785263062e-01" purity="1.8382079899311066e-01" nType="-99"/>
            <Node pos="r" depth="3" NCoef="0" IVar="-1" Cut="0.0000000000000000e+00" cType="1" res="3.6441434640437365e-03" rms="1.7501579225063324e-01" purity="5.3130406141281128e-01" nType="-99"/>
          </Node>
          <Node pos="r" depth="2" NCoef="0" IVar="7" Cut="-5.2408951520919800e-01" cType="1" res="-4.6009784564375877e-03" rms="1.7767730355262756e-01" purity="5.0220614671707153e-01" nType="0">
            <Node pos="l" depth="3" NCoef="0" IVar="-1" Cut="0.0000000000000000e+00" cType="1" res="-3.3734757453203201e-02" rms="1.8810155987739563e-01" purity="3.7077891826629639e-01" nType="-99"/>
            <Node pos="r" depth="3" NCoef="0" IVar="-1" Cut="0.0000000000000000e+00" cType="1" res="-5.7295151054859161e-03" rms="1.7416512966156006e-01" purity="5.4377847909927368e-01" nType="-99"/>
          </Node>
        </Node>
        <Node pos="r" depth="1" NCoef="0" IVar="-1" Cut="0.0000000000000000e+00" cType="1" res="3.1194858253002167e-02" rms="2.2138206660747528e-01" purity="2.0283059775829315e-01" nType="-99"/>
      </Node>
    </BinaryTree>
    <BinaryTree type="DecisionTree" boostWeight="1.0000000000000000e+00" itree="574">
      <Node pos="s" depth="0" NCoef="0" IVar="10" Cut="-1.1993937492370605e+00" cType="1" res="3.7202733801677823e-04" rms="1.7591275274753571e-01" purity="5.0054687261581421e-01" nType="0">
        <Node pos="l" depth="1" NCoef="0" IVar="4" Cut="2.9823120117187500e+02" cType="1" res="-5.6863022036850452e-03" rms="1.9166807830333710e-01" purity="3.6981296539306641e-01" nType="0">
          <Node pos="l" depth="2" NCoef="0" IVar="1" Cut="7.6220870018005371e-02" cType="1" res="-9.8237693309783936e-03" rms="1.9627879559993744e-01" purity="1.8535362184047699e-01" nType="0">
            <Node pos="l" depth="3" NCoef="0" IVar="-1" Cut="0.0000000000000000e+00" cType="1" res="-9.9568506702780724e-03" rms="1.7833733558654785e-01" purity="1.2447433173656464e-01" nType="-99"/>
            <Node pos="r" depth="3" NCoef="0" IVar="-1" Cut="0.0000000000000000e+00" cType="1" res="-4.0455270558595657e-02" rms="2.3624540865421295e-01" purity="3.4536671638488770e-01" nType="-99"/>
          </Node>
          <Node pos="r" depth="2" NCoef="0" IVar="-1" Cut="0.0000000000000000e+00" cType="1" res="1.8266983330249786e-02" rms="1.7669486999511719e-01" purity="9.1777896881103516e-01" nType="-99"/>
        </Node>
        <Node pos="r" depth="1" NCoef="0" IVar="9" Cut="-1.3344016671180725e-01" cType="1" res="1.3938993215560913e-03" rms="1.7309309542179108e-01" purity="5.2259802818298340e-01" nType="0">
          <Node pos="l" depth="2" NCoef="0" IVar="3" Cut="3.3694989013671875e+02" cType="1" res="-1.2013394152745605e-03" rms="1.7391137778759003e-01" purity="5.1084548234939575e-01" nType="0">
            <Node pos="l" depth="3" NCoef="0" IVar="-1" Cut="0.0000000000000000e+00" cType="1" res="-1.6486970707774162e-02" rms="1.7270849645137787e-01" purity="1.2292052060365677e-01" nType="-99"/>
            <Node pos="r" depth="3" NCoef="0" IVar="-1" Cut="0.0000000000000000e+00" cType="1" res="6.6522401757538319e-03" rms="1.7480716109275818e-01" purity="8.2481455802917480e-01" nType="-99"/>
          </Node>
          <Node pos="r" depth="2" NCoef="0" IVar="5" Cut="9.5737464904785156e+01" cType="1" res="3.4928200766444206e-03" rms="1.7239990830421448e-01" purity="5.3210306167602539e-01" nType="0">
            <Node pos="l" depth="3" NCoef="0" IVar="-1" Cut="0.0000000000000000e+00" cType="1" res="-2.4896781891584396e-02" rms="1.0819415003061295e-01" purity="2.2283753380179405e-02" nType="-99"/>
            <Node pos="r" depth="3" NCoef="0" IVar="-1" Cut="0.0000000000000000e+00" cType="1" res="1.3070124201476574e-02" rms="1.7946074903011322e-01" purity="6.0262584686279297e-01" nType="-99"/>
          </Node>
        </Node>
      </Node>
    </BinaryTree>
    <BinaryTree type="DecisionTree" boostWeight="1.0000000000000000e+00" itree="575">
      <Node pos="s" depth="0" NCoef="0" IVar="9" Cut="3.9963716268539429e-01" cType="1" res="9.8476077255327255e-05" rms="1.7824496328830719e-01" purity="5.0212448835372925e-01" nType="0">
        <Node pos="l" depth="1" NCoef="0" IVar="10" Cut="6.6673696041107178e-01" cType="1" res="2.2678440436720848e-03" rms="1.7371749877929688e-01" purity="5.1828378438949585e-01" nType="0">
          <Node pos="l" depth="2" NCoef="0" IVar="7" Cut="1.2600220441818237e+00" cType="1" res="-7.4403396865818650e-05" rms="1.6878843307495117e-01" purity="5.3033864498138428e-01" nType="0">
            <Node pos="l" depth="3" NCoef="0" IVar="-1" Cut="0.0000000000000000e+00" cType="1" res="2.6065891142934561e-03" rms="1.7160202562808990e-01" purity="5.6090533733367920e-01" nType="-99"/>
            <Node pos="r" depth="3" NCoef="0" IVar="-1" Cut="0.0000000000000000e+00" cType="1" res="-5.6341856718063354e-02" rms="1.2174896895885468e-01" purity="9.9677070975303650e-02" nType="-99"/>
          </Node>
          <Node pos="r" depth="2" NCoef="0" IVar="5" Cut="2.4651977539062500e+02" cType="1" res="8.5117239505052567e-03" rms="1.8607687950134277e-01" purity="4.8614826798439026e-01" nType="0">
            <Node pos="l" depth="3" NCoef="0" IVar="-1" Cut="0.0000000000000000e+00" cType="1" res="3.1126849353313446e-02" rms="2.0161806046962738e-01" purity="3.2407072186470032e-01" nType="-99"/>
            <Node pos="r" depth="3" NCoef="0" IVar="-1" Cut="0.0000000000000000e+00" cType="1" res="-3.2914359122514725e-02" rms="1.2921817600727081e-01" purity="9.6146875619888306e-01" nType="-99"/>
          </Node>
        </Node>
        <Node pos="r" depth="1" NCoef="0" IVar="10" Cut="-1.4650938510894775e+00" cType="1" res="-3.9949798956513405e-03" rms="1.8642008304595947e-01" purity="4.7163304686546326e-01" nType="0">
          <Node pos="l" depth="2" NCoef="0" IVar="-1" Cut="0.0000000000000000e+00" cType="1" res="2.3821128532290459e-02" rms="2.2090084850788116e-01" purity="3.3245834708213806e-01" nType="-99"/>
          <Node pos="r" depth="2" NCoef="0" IVar="8" Cut="-6.6710031032562256e-01" cType="1" res="-5.2898433059453964e-03" rms="1.8300643563270569e-01" purity="4.8392498493194580e-01" nType="0">
            <Node pos="l" depth="3" NCoef="0" IVar="-1" Cut="0.0000000000000000e+00" cType="1" res="-3.8580190390348434e-02" rms="1.8488685786724091e-01" purity="3.2770255208015442e-01" nType="-99"/>
            <Node pos="r" depth="3" NCoef="0" IVar="-1" Cut="0.0000000000000000e+00" cType="1" res="-7.4927667155861855e-03" rms="1.8235874176025391e-01" purity="5.3000134229660034e-01" nType="-99"/>
          </Node>
        </Node>
      </Node>
    </BinaryTree>
    <BinaryTree type="DecisionTree" boostWeight="1.0000000000000000e+00" itree="576">
      <Node pos="s" depth="0" NCoef="0" IVar="11" Cut="1.7333781719207764e+00" cType="1" res="-1.3482898939400911e-03" rms="1.7937104403972626e-01" purity="5.0404667854309082e-01" nType="0">
        <Node pos="l" depth="1" NCoef="0" IVar="10" Cut="-1.9990831613540649e+00" cType="1" res="-2.3792719002813101e-03" rms="1.7603145539760590e-01" purity="5.1440387964248657e-01" nType="0">
          <Node pos="l" depth="2" NCoef="0" IVar="-1" Cut="0.0000000000000000e+00" cType="1" res="4.0004391223192215e-02" rms="2.2454220056533813e-01" purity="2.3031947016716003e-01" nType="-99"/>
          <Node pos="r" depth="2" NCoef="0" IVar="10" Cut="-1.3135542869567871e+00" cType="1" res="-3.0480569694191217e-03" rms="1.7404681444168091e-01" purity="5.2436810731887817e-01" nType="0">
            <Node pos="l" depth="3" NCoef="0" IVar="-1" Cut="0.0000000000000000e+00" cType="1" res="-2.7674084529280663e-02" rms="1.8913248181343079e-01" purity="4.3474808335304260e-01" nType="-99"/>
            <Node pos="r" depth="3" NCoef="0" IVar="-1" Cut="0.0000000000000000e+00" cType="1" res="-7.1380133740603924e-03" rms="1.7257435619831085e-01" purity="5.3259032964706421e-01" nType="-99"/>
          </Node>
        </Node>
        <Node pos="r" depth="1" NCoef="0" IVar="10" Cut="1.3841147720813751e-01" cType="1" res="1.1224141344428062e-02" rms="2.1558447182178497e-01" purity="3.7774509191513062e-01" nType="0">
          <Node pos="l" depth="2" NCoef="0" IVar="-1" Cut="0.0000000000000000e+00" cType="1" res="4.5733842998743057e-02" rms="2.1123819053173065e-01" purity="3.9273959398269653e-01" nType="-99"/>
          <Node pos="r" depth="2" NCoef="0" IVar="-1" Cut="0.0000000000000000e+00" cType="1" res="6.0433377511799335e-03" rms="2.1957609057426453e-01" purity="3.6252212524414062e-01" nType="-99"/>
        </Node>
      </Node>
    </BinaryTree>
    <BinaryTree type="DecisionTree" boostWeight="1.0000000000000000e+00" itree="577">
      <Node pos="s" depth="0" NCoef="0" IVar="8" Cut="6.6732788085937500e-01" cType="1" res="6.7078077699989080e-04" rms="1.8036727607250214e-01" purity="5.0897812843322754e-01" nType="0">
        <Node pos="l" depth="1" NCoef="0" IVar="7" Cut="-7.8977674245834351e-01" cType="1" res="2.5723269209265709e-03" rms="1.8085578083992004e-01" purity="5.5252522230148315e-01" nType="0">
          <Node pos="l" depth="2" NCoef="0" IVar="0" Cut="2.0866296386718750e+03" cType="1" res="-4.1629131883382797e-03" rms="1.9099088013172150e-01" purity="3.1949102878570557e-01" nType="0">
            <Node pos="l" depth="3" NCoef="0" IVar="-1" Cut="0.0000000000000000e+00" cType="1" res="8.6706206202507019e-03" rms="1.5552060306072235e-01" purity="3.4997243434190750e-02" nType="-99"/>
            <Node pos="r" depth="3" NCoef="0" IVar="-1" Cut="0.0000000000000000e+00" cType="1" res="-2.4989895522594452e-02" rms="2.3832646012306213e-01" purity="7.9390430450439453e-01" nType="-99"/>
          </Node>
          <Node pos="r" depth="2" NCoef="0" IVar="0" Cut="3.2639045410156250e+03" cType="1" res="3.8530144374817610e-03" rms="1.7883494496345520e-01" purity="5.9683603048324585e-01" nType="0">
            <Node pos="l" depth="3" NCoef="0" IVar="-1" Cut="0.0000000000000000e+00" cType="1" res="1.3773998245596886e-02" rms="2.0495307445526123e-01" purity="4.3785169720649719e-01" nType="-99"/>
            <Node pos="r" depth="3" NCoef="0" IVar="-1" Cut="0.0000000000000000e+00" cType="1" res="-1.8875544890761375e-02" rms="8.4381930530071259e-02" purity="9.9057513475418091e-01" nType="-99"/>
          </Node>
        </Node>
        <Node pos="r" depth="1" NCoef="0" IVar="11" Cut="-1.4639717340469360e+00" cType="1" res="-5.2607269026339054e-03" rms="1.7870497703552246e-01" purity="3.7314134836196899e-01" nType="0">
          <Node pos="l" depth="2" NCoef="0" IVar="-1" Cut="0.0000000000000000e+00" cType="1" res="-5.4700102657079697e-02" rms="1.8975271284580231e-01" purity="2.4210718274116516e-01" nType="-99"/>
          <Node pos="r" depth="2" NCoef="0" IVar="2" Cut="5.0639157104492188e+02" cType="1" res="-3.0265147797763348e-03" rms="1.7715950310230255e-01" purity="3.8938859105110168e-01" nType="0">
            <Node pos="l" depth="3" NCoef="0" IVar="-1" Cut="0.0000000000000000e+00" cType="1" res="-2.1426027640700340e-02" rms="1.7072018980979919e-01" purity="1.4833408594131470e-01" nType="-99"/>
            <Node pos="r" depth="3" NCoef="0" IVar="-1" Cut="0.0000000000000000e+00" cType="1" res="6.3737214077264071e-04" rms="1.8245838582515717e-01" purity="5.9691810607910156e-01" nType="-99"/>
          </Node>
        </Node>
      </Node>
    </BinaryTree>
    <BinaryTree type="DecisionTree" boostWeight="1.0000000000000000e+00" itree="578">
      <Node pos="s" depth="0" NCoef="0" IVar="9" Cut="-4.0022176504135132e-01" cType="1" res="9.1380957746878266e-04" rms="1.7941614985466003e-01" purity="5.0215923786163330e-01" nType="0">
        <Node pos="l" depth="1" NCoef="0" IVar="8" Cut="6.6459256410598755e-01" cType="1" res="4.4087045826017857e-03" rms="1.8191270530223846e-01" purity="4.6510961651802063e-01" nType="0">
          <Node pos="l" depth="2" NCoef="0" IVar="5" Cut="1.5632212829589844e+02" cType="1" res="1.7896277131512761e-03" rms="1.7544984817504883e-01" purity="5.0516515970230103e-01" nType="0">
            <Node pos="l" depth="3" NCoef="0" IVar="-1" Cut="0.0000000000000000e+00" cType="1" res="-8.4488941356539726e-03" rms="1.7238181829452515e-01" purity="1.1421775817871094e-01" nType="-99"/>
            <Node pos="r" depth="3" NCoef="0" IVar="-1" Cut="0.0000000000000000e+00" cType="1" res="1.4674758538603783e-02" rms="1.7769540846347809e-01" purity="8.0555766820907593e-01" nType="-99"/>
          </Node>
          <Node pos="r" depth="2" NCoef="0" IVar="9" Cut="-7.4288004636764526e-01" cType="1" res="1.3056724332273006e-02" rms="2.0154625177383423e-01" purity="3.3284884691238403e-01" nType="0">
            <Node pos="l" depth="3" NCoef="0" IVar="-1" Cut="0.0000000000000000e+00" cType="1" res="1.5972191467881203e-02" rms="1.9820709526538849e-01" purity="2.7262002229690552e-01" nType="-99"/>
            <Node pos="r" depth="3" NCoef="0" IVar="-1" Cut="0.0000000000000000e+00" cType="1" res="7.3361925780773163e-02" rms="2.0744919776916504e-01" purity="4.5669096708297729e-01" nType="-99"/>
          </Node>
        </Node>
        <Node pos="r" depth="1" NCoef="0" IVar="8" Cut="-9.3228006362915039e-01" cType="1" res="-1.0546395787969232e-03" rms="1.7796437442302704e-01" purity="5.2302688360214233e-01" nType="0">
          <Node pos="l" depth="2" NCoef="0" IVar="1" Cut="5.1882095634937286e-02" cType="1" res="6.6775698214769363e-03" rms="1.8804469704627991e-01" purity="3.0899026989936829e-01" nType="0">
            <Node pos="l" depth="3" NCoef="0" IVar="-1" Cut="0.0000000000000000e+00" cType="1" res="-6.5752840600907803e-03" rms="1.7055198550224304e-01" purity="1.1652152985334396e-01" nType="-99"/>
            <Node pos="r" depth="3" NCoef="0" IVar="-1" Cut="0.0000000000000000e+00" cType="1" res="3.9132494479417801e-02" rms="2.1186061203479767e-01" purity="6.1062580347061157e-01" nType="-99"/>
          </Node>
          <Node pos="r" depth="2" NCoef="0" IVar="4" Cut="4.1008911132812500e+02" cType="1" res="-2.4614033754914999e-03" rms="1.7603185772895813e-01" purity="5.6196779012680054e-01" nType="0">
            <Node pos="l" depth="3" NCoef="0" IVar="-1" Cut="0.0000000000000000e+00" cType="1" res="-1.0249258950352669e-02" rms="1.9437398016452789e-01" purity="4.4353532791137695e-01" nType="-99"/>
            <Node pos="r" depth="3" NCoef="0" IVar="-1" Cut="0.0000000000000000e+00" cType="1" res="2.8776299208402634e-02" rms="7.9577557742595673e-02" purity="9.9120277166366577e-01" nType="-99"/>
          </Node>
        </Node>
      </Node>
    </BinaryTree>
    <BinaryTree type="DecisionTree" boostWeight="1.0000000000000000e+00" itree="579">
      <Node pos="s" depth="0" NCoef="0" IVar="10" Cut="-1.3300350308418274e-01" cType="1" res="-6.1466835904866457e-04" rms="1.8364977836608887e-01" purity="4.9796891212463379e-01" nType="0">
        <Node pos="l" depth="1" NCoef="0" IVar="9" Cut="-1.4608178138732910e+00" cType="1" res="-4.1561159305274487e-03" rms="1.8647137284278870e-01" purity="4.9758386611938477e-01" nType="0">
          <Node pos="l" depth="2" NCoef="0" IVar="-1" Cut="0.0000000000000000e+00" cType="1" res="3.7008721381425858e-02" rms="2.0426250994205475e-01" purity="2.3391996324062347e-01" nType="-99"/>
          <Node pos="r" depth="2" NCoef="0" IVar="0" Cut="1.8887308349609375e+03" cType="1" res="-5.8790012262761593e-03" rms="1.8459489941596985e-01" purity="5.2269870042800903e-01" nType="0">
            <Node pos="l" depth="3" NCoef="0" IVar="-1" Cut="0.0000000000000000e+00" cType="1" res="3.1880191527307034e-03" rms="1.2620681524276733e-01" purity="1.9763413816690445e-02" nType="-99"/>
            <Node pos="r" depth="3" NCoef="0" IVar="-1" Cut="0.0000000000000000e+00" cType="1" res="-2.2278532385826111e-02" rms="2.1163690090179443e-01" purity="8.2072597742080688e-01" nType="-99"/>
          </Node>
        </Node>
        <Node pos="r" depth="1" NCoef="0" IVar="11" Cut="1.3449782133102417e-01" cType="1" res="2.2603543475270271e-03" rms="1.8127599358558655e-01" purity="4.9828153848648071e-01" nType="0">
          <Node pos="l" depth="2" NCoef="0" IVar="9" Cut="4.0039572119712830e-01" cType="1" res="6.4208209514617920e-03" rms="1.7901983857154846e-01" purity="5.1900231838226318e-01" nType="0">
            <Node pos="l" depth="3" NCoef="0" IVar="-1" Cut="0.0000000000000000e+00" cType="1" res="8.9714489877223969e-03" rms="1.7138455808162689e-01" purity="5.3407347202301025e-01" nType="-99"/>
            <Node pos="r" depth="3" NCoef="0" IVar="-1" Cut="0.0000000000000000e+00" cType="1" res="3.6370702087879181e-02" rms="1.9246028363704681e-01" purity="4.9047178030014038e-01" nType="-99"/>
          </Node>
          <Node pos="r" depth="2" NCoef="0" IVar="10" Cut="5.6517940759658813e-01" cType="1" res="-2.2646558936685324e-03" rms="1.8359138071537018e-01" purity="4.7574529051780701e-01" nType="0">
            <Node pos="l" depth="3" NCoef="0" IVar="-1" Cut="0.0000000000000000e+00" cType="1" res="1.4152283780276775e-02" rms="1.6909477114677429e-01" purity="5.6806826591491699e-01" nType="-99"/>
            <Node pos="r" depth="3" NCoef="0" IVar="-1" Cut="0.0000000000000000e+00" cType="1" res="-1.8036093562841415e-02" rms="1.9274342060089111e-01" purity="4.1272374987602234e-01" nType="-99"/>
          </Node>
        </Node>
      </Node>
    </BinaryTree>
    <BinaryTree type="DecisionTree" boostWeight="1.0000000000000000e+00" itree="580">
      <Node pos="s" depth="0" NCoef="0" IVar="11" Cut="-9.3272137641906738e-01" cType="1" res="6.2084232922643423e-04" rms="1.7899645864963531e-01" purity="5.0335448980331421e-01" nType="0">
        <Node pos="l" depth="1" NCoef="0" IVar="8" Cut="1.4535486698150635e-01" cType="1" res="-3.4766141325235367e-03" rms="1.8385718762874603e-01" purity="4.6027246117591858e-01" nType="0">
          <Node pos="l" depth="2" NCoef="0" IVar="7" Cut="-5.1785480976104736e-01" cType="1" res="8.6620234651491046e-04" rms="1.8336515128612518e-01" purity="4.6862363815307617e-01" nType="0">
            <Node pos="l" depth="3" NCoef="0" IVar="-1" Cut="0.0000000000000000e+00" cType="1" res="-2.4382136762142181e-02" rms="1.7098867893218994e-01" purity="3.4303206205368042e-01" nType="-99"/>
            <Node pos="r" depth="3" NCoef="0" IVar="-1" Cut="0.0000000000000000e+00" cType="1" res="1.4180168509483337e-02" rms="1.8834288418292999e-01" purity="5.2334392070770264e-01" nType="-99"/>
          </Node>
          <Node pos="r" depth="2" NCoef="0" IVar="0" Cut="1.8268099365234375e+03" cType="1" res="-1.0184450075030327e-02" rms="1.8441373109817505e-01" purity="4.4737333059310913e-01" nType="0">
            <Node pos="l" depth="3" NCoef="0" IVar="-1" Cut="0.0000000000000000e+00" cType="1" res="-2.0444678142666817e-02" rms="9.6148386597633362e-02" purity="1.1955642141401768e-02" nType="-99"/>
            <Node pos="r" depth="3" NCoef="0" IVar="-1" Cut="0.0000000000000000e+00" cType="1" res="-3.1231209635734558e-02" rms="2.2883881628513336e-01" purity="7.7146637439727783e-01" nType="-99"/>
          </Node>
        </Node>
        <Node pos="r" depth="1" NCoef="0" IVar="10" Cut="1.4664541482925415e+00" cType="1" res="1.8017606344074011e-03" rms="1.7755329608917236e-01" purity="5.1577103137969971e-01" nType="0">
          <Node pos="l" depth="2" NCoef="0" IVar="11" Cut="-4.4367846101522446e-02" cType="1" res="2.5740487035363913e-03" rms="1.7529655992984772e-01" purity="5.4057091474533081e-01" nType="0">
            <Node pos="l" depth="3" NCoef="0" IVar="-1" Cut="0.0000000000000000e+00" cType="1" res="2.0592058077454567e-02" rms="1.7334190011024475e-01" purity="5.7358217239379883e-01" nType="-99"/>
            <Node pos="r" depth="3" NCoef="0" IVar="-1" Cut="0.0000000000000000e+00" cType="1" res="2.6462601963430643e-03" rms="1.7625930905342102e-01" purity="5.2375161647796631e-01" nType="-99"/>
          </Node>
          <Node pos="r" depth="2" NCoef="0" IVar="11" Cut="6.6602385044097900e-01" cType="1" res="-5.4575009271502495e-03" rms="1.9736200571060181e-01" purity="2.8266015648841858e-01" nType="0">
            <Node pos="l" depth="3" NCoef="0" IVar="-1" Cut="0.0000000000000000e+00" cType="1" res="-3.5311948508024216e-02" rms="1.8271115422248840e-01" purity="2.8366249799728394e-01" nType="-99"/>
            <Node pos="r" depth="3" NCoef="0" IVar="-1" Cut="0.0000000000000000e+00" cType="1" res="8.9713074266910553e-03" rms="2.1315249800682068e-01" purity="2.8146404027938843e-01" nType="-99"/>
          </Node>
        </Node>
      </Node>
    </BinaryTree>
    <BinaryTree type="DecisionTree" boostWeight="1.0000000000000000e+00" itree="581">
      <Node pos="s" depth="0" NCoef="0" IVar="10" Cut="-1.7304426431655884e+00" cType="1" res="3.6776394699700177e-04" rms="1.7699410021305084e-01" purity="4.9191209673881531e-01" nType="0">
        <Node pos="l" depth="1" NCoef="0" IVar="9" Cut="-1.3435351848602295e-01" cType="1" res="1.1276273056864738e-02" rms="2.1058751642704010e-01" purity="2.7448901534080505e-01" nType="0">
          <Node pos="l" depth="2" NCoef="0" IVar="-1" Cut="0.0000000000000000e+00" cType="1" res="-1.1111458297818899e-03" rms="1.8672978878021240e-01" purity="2.3654924333095551e-01" nType="-99"/>
          <Node pos="r" depth="2" NCoef="0" IVar="-1" Cut="0.0000000000000000e+00" cType="1" res="5.5646594613790512e-02" rms="2.3458097875118256e-01" purity="3.1862172484397888e-01" nType="-99"/>
        </Node>
        <Node pos="r" depth="1" NCoef="0" IVar="0" Cut="1.8945809326171875e+03" cType="1" res="-3.4255013451911509e-04" rms="1.7455898225307465e-01" purity="5.0606971979141235e-01" nType="0">
          <Node pos="l" depth="2" NCoef="0" IVar="5" Cut="1.5764277648925781e+02" cType="1" res="-3.5523390397429466e-03" rms="1.1414484679698944e-01" purity="1.5341208316385746e-02" nType="0">
            <Node pos="l" depth="3" NCoef="0" IVar="-1" Cut="0.0000000000000000e+00" cType="1" res="-9.4116348773241043e-03" rms="1.0090985894203186e-01" purity="1.1361195705831051e-02" nType="-99"/>
            <Node pos="r" depth="3" NCoef="0" IVar="-1" Cut="0.0000000000000000e+00" cType="1" res="-3.7588112056255341e-02" rms="1.5727855265140533e-01" purity="3.1898502260446548e-02" nType="-99"/>
          </Node>
          <Node pos="r" depth="2" NCoef="0" IVar="4" Cut="2.4910006713867188e+02" cType="1" res="1.8629692494869232e-03" rms="2.0601832866668701e-01" purity="8.4326058626174927e-01" nType="0">
            <Node pos="l" depth="3" NCoef="0" IVar="-1" Cut="0.0000000000000000e+00" cType="1" res="1.4688517898321152e-02" rms="3.1378966569900513e-01" purity="5.2344411611557007e-01" nType="-99"/>
            <Node pos="r" depth="3" NCoef="0" IVar="-1" Cut="0.0000000000000000e+00" cType="1" res="-3.9151436649262905e-03" rms="1.6829842329025269e-01" purity="9.2360317707061768e-01" nType="-99"/>
          </Node>
        </Node>
      </Node>
    </BinaryTree>
    <BinaryTree type="DecisionTree" boostWeight="1.0000000000000000e+00" itree="582">
      <Node pos="s" depth="0" NCoef="0" IVar="4" Cut="2.0987493896484375e+02" cType="1" res="1.5671320725232363e-03" rms="1.7901490628719330e-01" purity="5.0273293256759644e-01" nType="0">
        <Node pos="l" depth="1" NCoef="0" IVar="10" Cut="-9.3274396657943726e-01" cType="1" res="-1.5171231934800744e-03" rms="1.6330881416797638e-01" purity="7.5857520103454590e-02" nType="0">
          <Node pos="l" depth="2" NCoef="0" IVar="11" Cut="-1.3407623767852783e-01" cType="1" res="6.1324862763285637e-03" rms="1.8088175356388092e-01" purity="9.5120579004287720e-02" nType="0">
            <Node pos="l" depth="3" NCoef="0" IVar="-1" Cut="0.0000000000000000e+00" cType="1" res="-1.1975277215242386e-02" rms="1.6369695961475372e-01" purity="7.4865028262138367e-02" nType="-99"/>
            <Node pos="r" depth="3" NCoef="0" IVar="-1" Cut="0.0000000000000000e+00" cType="1" res="5.5359978228807449e-02" rms="1.9869498908519745e-01" purity="1.1906509846448898e-01" nType="-99"/>
          </Node>
          <Node pos="r" depth="2" NCoef="0" IVar="8" Cut="1.4675134420394897e+00" cType="1" res="-3.8950613234192133e-03" rms="1.5737128257751465e-01" purity="6.9869458675384521e-02" nType="0">
            <Node pos="l" depth="3" NCoef="0" IVar="-1" Cut="0.0000000000000000e+00" cType="1" res="-1.9095072522759438e-02" rms="1.5960201621055603e-01" purity="7.3987811803817749e-02" nType="-99"/>
            <Node pos="r" depth="3" NCoef="0" IVar="-1" Cut="0.0000000000000000e+00" cType="1" res="5.5769935250282288e-02" rms="1.3838225603103638e-01" purity="3.8069922477006912e-02" nType="-99"/>
          </Node>
        </Node>
        <Node pos="r" depth="1" NCoef="0" IVar="5" Cut="2.2425852966308594e+02" cType="1" res="3.5937230568379164e-03" rms="1.8859690427780151e-01" purity="7.8322255611419678e-01" nType="0">
          <Node pos="l" depth="2" NCoef="0" IVar="6" Cut="7.5154747009277344e+01" cType="1" res="9.3709053471684456e-03" rms="2.4228291213512421e-01" purity="5.5158209800720215e-01" nType="0">
            <Node pos="l" depth="3" NCoef="0" IVar="-1" Cut="0.0000000000000000e+00" cType="1" res="-2.6547197252511978e-02" rms="1.9112612307071686e-01" purity="1.5561239421367645e-01" nType="-99"/>
            <Node pos="r" depth="3" NCoef="0" IVar="-1" Cut="0.0000000000000000e+00" cType="1" res="2.0899558439850807e-02" rms="2.4911800026893616e-01" purity="6.1309128999710083e-01" nType="-99"/>
          </Node>
          <Node pos="r" depth="2" NCoef="0" IVar="9" Cut="-3.7090206146240234e-01" cType="1" res="-7.3264900129288435e-04" rms="1.3491480052471161e-01" purity="9.5669186115264893e-01" nType="0">
            <Node pos="l" depth="3" NCoef="0" IVar="-1" Cut="0.0000000000000000e+00" cType="1" res="-2.5064403191208839e-02" rms="1.4307248592376709e-01" purity="9.4672822952270508e-01" nType="-99"/>
            <Node pos="r" depth="3" NCoef="0" IVar="-1" Cut="0.0000000000000000e+00" cType="1" res="8.4631871432065964e-03" rms="1.3062639534473419e-01" purity="9.6162414550781250e-01" nType="-99"/>
          </Node>
        </Node>
      </Node>
    </BinaryTree>
    <BinaryTree type="DecisionTree" boostWeight="1.0000000000000000e+00" itree="583">
      <Node pos="s" depth="0" NCoef="0" IVar="2" Cut="4.2935641479492188e+02" cType="1" res="-2.8810783987864852e-04" rms="1.7741978168487549e-01" purity="5.0519961118698120e-01" nType="0">
        <Node pos="l" depth="1" NCoef="0" IVar="1" Cut="1.1648595333099365e-01" cType="1" res="-3.7812981754541397e-03" rms="1.7287087440490723e-01" purity="1.0861831903457642e-01" nType="0">
          <Node pos="l" depth="2" NCoef="0" IVar="8" Cut="-9.3316936492919922e-01" cType="1" res="-1.2383160647004843e-03" rms="1.6343317925930023e-01" purity="6.8262271583080292e-02" nType="0">
            <Node pos="l" depth="3" NCoef="0" IVar="-1" Cut="0.0000000000000000e+00" cType="1" res="-4.5332662761211395e-02" rms="1.3740698993206024e-01" purity="4.4323578476905823e-02" nType="-99"/>
            <Node pos="r" depth="3" NCoef="0" IVar="-1" Cut="0.0000000000000000e+00" cType="1" res="6.4198328182101250e-03" rms="1.7159970104694366e-01" purity="7.6738119125366211e-02" nType="-99"/>
          </Node>
          <Node pos="r" depth="2" NCoef="0" IVar="-1" Cut="0.0000000000000000e+00" cType="1" res="-2.8031844645738602e-02" rms="2.1269537508487701e-01" purity="3.0622830986976624e-01" nType="-99"/>
        </Node>
        <Node pos="r" depth="1" NCoef="0" IVar="4" Cut="2.8993716430664062e+02" cType="1" res="9.3486241530627012e-04" rms="1.7896892130374908e-01" purity="6.4404320716857910e-01" nType="0">
          <Node pos="l" depth="2" NCoef="0" IVar="5" Cut="1.5260983276367188e+02" cType="1" res="3.3877929672598839e-03" rms="2.1277941763401031e-01" purity="3.1226223707199097e-01" nType="0">
            <Node pos="l" depth="3" NCoef="0" IVar="-1" Cut="0.0000000000000000e+00" cType="1" res="-2.5055450387299061e-03" rms="1.8853163719177246e-01" purity="1.0057340562343597e-01" nType="-99"/>
            <Node pos="r" depth="3" NCoef="0" IVar="-1" Cut="0.0000000000000000e+00" cType="1" res="1.5728389844298363e-02" rms="2.4869713187217712e-01" purity="6.7467886209487915e-01" nType="-99"/>
          </Node>
          <Node pos="r" depth="2" NCoef="0" IVar="1" Cut="8.0751627683639526e-02" cType="1" res="-1.3059551129117608e-03" rms="1.4113649725914001e-01" purity="9.4713401794433594e-01" nType="0">
            <Node pos="l" depth="3" NCoef="0" IVar="-1" Cut="0.0000000000000000e+00" cType="1" res="-1.3225942850112915e-02" rms="1.9274574518203735e-01" purity="8.8210994005203247e-01" nType="-99"/>
            <Node pos="r" depth="3" NCoef="0" IVar="-1" Cut="0.0000000000000000e+00" cType="1" res="6.3284002244472504e-03" rms="1.0426037758588791e-01" purity="9.8123496770858765e-01" nType="-99"/>
          </Node>
        </Node>
      </Node>
    </BinaryTree>
    <BinaryTree type="DecisionTree" boostWeight="1.0000000000000000e+00" itree="584">
      <Node pos="s" depth="0" NCoef="0" IVar="2" Cut="7.6771929931640625e+02" cType="1" res="-1.9697509706020355e-03" rms="1.8191650509834290e-01" purity="4.9597793817520142e-01" nType="0">
        <Node pos="l" depth="1" NCoef="0" IVar="10" Cut="-1.9983290433883667e+00" cType="1" res="-5.5641127983108163e-04" rms="1.8418209254741669e-01" purity="4.0314081311225891e-01" nType="0">
          <Node pos="l" depth="2" NCoef="0" IVar="-1" Cut="0.0000000000000000e+00" cType="1" res="-3.8281757384538651e-02" rms="1.8268875777721405e-01" purity="1.4182011783123016e-01" nType="-99"/>
          <Node pos="r" depth="2" NCoef="0" IVar="10" Cut="1.2001757621765137e+00" cType="1" res="-2.0878660507150926e-05" rms="1.8422317504882812e-01" purity="4.1383749246597290e-01" nType="0">
            <Node pos="l" depth="3" NCoef="0" IVar="-1" Cut="0.0000000000000000e+00" cType="1" res="3.5205974709242582e-03" rms="1.8139807879924774e-01" purity="4.3987834453582764e-01" nType="-99"/>
            <Node pos="r" depth="3" NCoef="0" IVar="-1" Cut="0.0000000000000000e+00" cType="1" res="-1.5016308985650539e-02" rms="1.9785907864570618e-01" purity="2.8133648633956909e-01" nType="-99"/>
          </Node>
        </Node>
        <Node pos="r" depth="1" NCoef="0" IVar="4" Cut="3.0775512695312500e+02" cType="1" res="-7.4129081331193447e-03" rms="1.7280609905719757e-01" purity="8.5351926088333130e-01" nType="0">
          <Node pos="l" depth="2" NCoef="0" IVar="9" Cut="-3.9945903420448303e-01" cType="1" res="-2.0538255572319031e-02" rms="2.4463756382465363e-01" purity="6.1126929521560669e-01" nType="0">
            <Node pos="l" depth="3" NCoef="0" IVar="-1" Cut="0.0000000000000000e+00" cType="1" res="-9.9982544779777527e-03" rms="2.5559991598129272e-01" purity="5.8444315195083618e-01" nType="-99"/>
            <Node pos="r" depth="3" NCoef="0" IVar="-1" Cut="0.0000000000000000e+00" cType="1" res="-4.5970901846885681e-02" rms="2.3742853105068207e-01" purity="6.2738478183746338e-01" nType="-99"/>
          </Node>
          <Node pos="r" depth="2" NCoef="0" IVar="8" Cut="-1.1519549041986465e-01" cType="1" res="-7.5533968629315495e-04" rms="1.2050166726112366e-01" purity="9.7639560699462891e-01" nType="0">
            <Node pos="l" depth="3" NCoef="0" IVar="-1" Cut="0.0000000000000000e+00" cType="1" res="-2.9489500448107719e-02" rms="1.2871985137462616e-01" purity="9.7512245178222656e-01" nType="-99"/>
            <Node pos="r" depth="3" NCoef="0" IVar="-1" Cut="0.0000000000000000e+00" cType="1" res="1.3206033036112785e-02" rms="1.1380056291818619e-01" purity="9.7736209630966187e-01" nType="-99"/>
          </Node>
        </Node>
      </Node>
    </BinaryTree>
    <BinaryTree type="DecisionTree" boostWeight="1.0000000000000000e+00" itree="585">
      <Node pos="s" depth="0" NCoef="0" IVar="9" Cut="3.9963716268539429e-01" cType="1" res="-9.1406385763548315e-05" rms="1.8188950419425964e-01" purity="5.0289815664291382e-01" nType="0">
        <Node pos="l" depth="1" NCoef="0" IVar="9" Cut="-2.0983640849590302e-01" cType="1" res="1.8135783029720187e-03" rms="1.7867128551006317e-01" purity="5.2861624956130981e-01" nType="0">
          <Node pos="l" depth="2" NCoef="0" IVar="9" Cut="-7.0318263769149780e-01" cType="1" res="-1.9811396487057209e-04" rms="1.8537768721580505e-01" purity="4.8170748353004456e-01" nType="0">
            <Node pos="l" depth="3" NCoef="0" IVar="-1" Cut="0.0000000000000000e+00" cType="1" res="8.1948377192020416e-03" rms="1.9131523370742798e-01" purity="4.1738316416740417e-01" nType="-99"/>
            <Node pos="r" depth="3" NCoef="0" IVar="-1" Cut="0.0000000000000000e+00" cType="1" res="-1.5167262405157089e-02" rms="1.7637865245342255e-01" purity="5.7431834936141968e-01" nType="-99"/>
          </Node>
          <Node pos="r" depth="2" NCoef="0" IVar="0" Cut="2.7314765625000000e+03" cType="1" res="5.6691369973123074e-03" rms="1.6498960554599762e-01" purity="6.1852031946182251e-01" nType="0">
            <Node pos="l" depth="3" NCoef="0" IVar="-1" Cut="0.0000000000000000e+00" cType="1" res="2.3669578135013580e-02" rms="2.1802614629268646e-01" purity="2.3929858207702637e-01" nType="-99"/>
            <Node pos="r" depth="3" NCoef="0" IVar="-1" Cut="0.0000000000000000e+00" cType="1" res="4.3445294722914696e-03" rms="8.7030753493309021e-02" purity="9.8426711559295654e-01" nType="-99"/>
          </Node>
        </Node>
        <Node pos="r" depth="1" NCoef="0" IVar="10" Cut="4.0021762251853943e-01" cType="1" res="-3.5432334989309311e-03" rms="1.8753099441528320e-01" purity="4.5629709959030151e-01" nType="0">
          <Node pos="l" depth="2" NCoef="0" IVar="0" Cut="1.8456398925781250e+03" cType="1" res="-8.8041834533214569e-03" rms="1.8531303107738495e-01" purity="4.7168701887130737e-01" nType="0">
            <Node pos="l" depth="3" NCoef="0" IVar="-1" Cut="0.0000000000000000e+00" cType="1" res="-1.9167555728927255e-03" rms="1.1380720138549805e-01" purity="1.3733947649598122e-02" nType="-99"/>
            <Node pos="r" depth="3" NCoef="0" IVar="-1" Cut="0.0000000000000000e+00" cType="1" res="-3.1368389725685120e-02" rms="2.1990549564361572e-01" purity="7.7352976799011230e-01" nType="-99"/>
          </Node>
          <Node pos="r" depth="2" NCoef="0" IVar="7" Cut="-5.1628571748733521e-01" cType="1" res="4.7684423625469208e-03" rms="1.9068704545497894e-01" purity="4.3198278546333313e-01" nType="0">
            <Node pos="l" depth="3" NCoef="0" IVar="-1" Cut="0.0000000000000000e+00" cType="1" res="4.7766137868165970e-02" rms="1.9834774732589722e-01" purity="3.1067621707916260e-01" nType="-99"/>
            <Node pos="r" depth="3" NCoef="0" IVar="-1" Cut="0.0000000000000000e+00" cType="1" res="-6.2570988666266203e-04" rms="1.8763807415962219e-01" purity="4.7506919503211975e-01" nType="-99"/>
          </Node>
        </Node>
      </Node>
    </BinaryTree>
    <BinaryTree type="DecisionTree" boostWeight="1.0000000000000000e+00" itree="586">
      <Node pos="s" depth="0" NCoef="0" IVar="8" Cut="1.3371255993843079e-01" cType="1" res="-1.7935529467649758e-04" rms="1.7854461073875427e-01" purity="5.0364178419113159e-01" nType="0">
        <Node pos="l" depth="1" NCoef="0" IVar="10" Cut="-1.7325633764266968e+00" cType="1" res="-2.5517754256725311e-03" rms="1.7760443687438965e-01" purity="5.1330894231796265e-01" nType="0">
          <Node pos="l" depth="2" NCoef="0" IVar="-1" Cut="0.0000000000000000e+00" cType="1" res="2.3759942501783371e-02" rms="2.0326061546802521e-01" purity="2.8920400142669678e-01" nType="-99"/>
          <Node pos="r" depth="2" NCoef="0" IVar="2" Cut="4.2732757568359375e+02" cType="1" res="-3.4302861895412207e-03" rms="1.7575247585773468e-01" purity="5.2803021669387817e-01" nType="0">
            <Node pos="l" depth="3" NCoef="0" IVar="-1" Cut="0.0000000000000000e+00" cType="1" res="-2.9772555455565453e-02" rms="1.7310640215873718e-01" purity="1.1172062903642654e-01" nType="-99"/>
            <Node pos="r" depth="3" NCoef="0" IVar="-1" Cut="0.0000000000000000e+00" cType="1" res="-4.2248829267919064e-03" rms="1.7658515274524689e-01" purity="6.6804289817810059e-01" nType="-99"/>
          </Node>
        </Node>
        <Node pos="r" depth="1" NCoef="0" IVar="0" Cut="1.8877426757812500e+03" cType="1" res="2.8995880857110023e-03" rms="1.7971073091030121e-01" purity="4.9109554290771484e-01" nType="0">
          <Node pos="l" depth="2" NCoef="0" IVar="2" Cut="3.6653347778320312e+02" cType="1" res="-1.6164643457159400e-03" rms="1.0630051791667938e-01" purity="1.2967038899660110e-02" nType="0">
            <Node pos="l" depth="3" NCoef="0" IVar="-1" Cut="0.0000000000000000e+00" cType="1" res="3.4590199589729309e-02" rms="1.3380913436412811e-01" purity="2.1596217527985573e-02" nType="-99"/>
            <Node pos="r" depth="3" NCoef="0" IVar="-1" Cut="0.0000000000000000e+00" cType="1" res="-4.0625024586915970e-02" rms="8.8754490017890930e-02" purity="8.5396775975823402e-03" nType="-99"/>
          </Node>
          <Node pos="r" depth="2" NCoef="0" IVar="0" Cut="2.1083864746093750e+03" cType="1" res="6.0552028007805347e-03" rms="2.1666310727596283e-01" purity="8.2519030570983887e-01" nType="0">
            <Node pos="l" depth="3" NCoef="0" IVar="-1" Cut="0.0000000000000000e+00" cType="1" res="2.9882280156016350e-02" rms="3.2744339108467102e-01" purity="2.1998487412929535e-01" nType="-99"/>
            <Node pos="r" depth="3" NCoef="0" IVar="-1" Cut="0.0000000000000000e+00" cType="1" res="7.0961304008960724e-03" rms="1.9844381511211395e-01" purity="9.0024417638778687e-01" nType="-99"/>
          </Node>
        </Node>
      </Node>
    </BinaryTree>
    <BinaryTree type="DecisionTree" boostWeight="1.0000000000000000e+00" itree="587">
      <Node pos="s" depth="0" NCoef="0" IVar="11" Cut="-1.4655840396881104e+00" cType="1" res="1.1507940944284201e-03" rms="1.7868053913116455e-01" purity="4.9396443367004395e-01" nType="0">
        <Node pos="l" depth="1" NCoef="0" IVar="3" Cut="3.6040093994140625e+02" cType="1" res="9.6285194158554077e-03" rms="2.0774663984775543e-01" purity="4.1353642940521240e-01" nType="0">
          <Node pos="l" depth="2" NCoef="0" IVar="5" Cut="1.2866194152832031e+02" cType="1" res="1.8030345439910889e-02" rms="2.0984245836734772e-01" purity="1.6227667033672333e-01" nType="0">
            <Node pos="l" depth="3" NCoef="0" IVar="-1" Cut="0.0000000000000000e+00" cType="1" res="1.9751776009798050e-02" rms="1.4952385425567627e-01" purity="3.4266695380210876e-02" nType="-99"/>
            <Node pos="r" depth="3" NCoef="0" IVar="-1" Cut="0.0000000000000000e+00" cType="1" res="5.7904183864593506e-02" rms="2.6001867651939392e-01" purity="3.0417615175247192e-01" nType="-99"/>
          </Node>
          <Node pos="r" depth="2" NCoef="0" IVar="-1" Cut="0.0000000000000000e+00" cType="1" res="-4.0642633102834225e-03" rms="2.0431090891361237e-01" purity="7.5500494241714478e-01" nType="-99"/>
        </Node>
        <Node pos="r" depth="1" NCoef="0" IVar="10" Cut="-1.1993241310119629e+00" cType="1" res="8.4580438851844519e-05" rms="1.7465382814407349e-01" purity="5.0407958030700684e-01" nType="0">
          <Node pos="l" depth="2" NCoef="0" IVar="9" Cut="-3.8827988505363464e-01" cType="1" res="5.9074764139950275e-03" rms="1.9092135131359100e-01" purity="3.8324463367462158e-01" nType="0">
            <Node pos="l" depth="3" NCoef="0" IVar="-1" Cut="0.0000000000000000e+00" cType="1" res="-9.4844708219170570e-03" rms="1.7569303512573242e-01" purity="3.1881126761436462e-01" nType="-99"/>
            <Node pos="r" depth="3" NCoef="0" IVar="-1" Cut="0.0000000000000000e+00" cType="1" res="3.3329572528600693e-02" rms="2.0074032247066498e-01" purity="4.2887970805168152e-01" nType="-99"/>
          </Node>
          <Node pos="r" depth="2" NCoef="0" IVar="10" Cut="1.8473302125930786e+00" cType="1" res="-8.8932790094986558e-04" rms="1.7176342010498047e-01" purity="5.2428984642028809e-01" nType="0">
            <Node pos="l" depth="3" NCoef="0" IVar="-1" Cut="0.0000000000000000e+00" cType="1" res="-5.0986609421670437e-03" rms="1.6797274351119995e-01" purity="5.4350060224533081e-01" nType="-99"/>
            <Node pos="r" depth="3" NCoef="0" IVar="-1" Cut="0.0000000000000000e+00" cType="1" res="2.2934421896934509e-02" rms="2.2232340276241302e-01" purity="2.2544121742248535e-01" nType="-99"/>
          </Node>
        </Node>
      </Node>
    </BinaryTree>
    <BinaryTree type="DecisionTree" boostWeight="1.0000000000000000e+00" itree="588">
      <Node pos="s" depth="0" NCoef="0" IVar="5" Cut="1.8005667114257812e+02" cType="1" res="1.4952360652387142e-04" rms="1.7399944365024567e-01" purity="5.1040130853652954e-01" nType="0">
        <Node pos="l" depth="1" NCoef="0" IVar="7" Cut="-5.6077247858047485e-01" cType="1" res="-3.0120776500552893e-03" rms="1.8493720889091492e-01" purity="1.5998412668704987e-01" nType="0">
          <Node pos="l" depth="2" NCoef="0" IVar="0" Cut="1.9853612060546875e+03" cType="1" res="4.2791482992470264e-03" rms="1.7553535103797913e-01" purity="1.0330104827880859e-01" nType="0">
            <Node pos="l" depth="3" NCoef="0" IVar="-1" Cut="0.0000000000000000e+00" cType="1" res="-8.7535697966814041e-03" rms="1.1355979740619659e-01" purity="1.4565093442797661e-02" nType="-99"/>
            <Node pos="r" depth="3" NCoef="0" IVar="-1" Cut="0.0000000000000000e+00" cType="1" res="2.8063680976629257e-02" rms="3.1805855035781860e-01" purity="4.5455732941627502e-01" nType="-99"/>
          </Node>
          <Node pos="r" depth="2" NCoef="0" IVar="6" Cut="8.0811073303222656e+01" cType="1" res="-6.0669356025755405e-03" rms="1.8865345418453217e-01" purity="1.8373304605484009e-01" nType="0">
            <Node pos="l" depth="3" NCoef="0" IVar="-1" Cut="0.0000000000000000e+00" cType="1" res="9.1199186863377690e-04" rms="1.4242488145828247e-01" purity="5.8234166353940964e-02" nType="-99"/>
            <Node pos="r" depth="3" NCoef="0" IVar="-1" Cut="0.0000000000000000e+00" cType="1" res="-1.9932979717850685e-02" rms="2.1035161614418030e-01" purity="2.5500980019569397e-01" nType="-99"/>
          </Node>
        </Node>
        <Node pos="r" depth="1" NCoef="0" IVar="4" Cut="2.9748068237304688e+02" cType="1" res="3.5096039064228535e-03" rms="1.6149757802486420e-01" purity="8.8281697034835815e-01" nType="0">
          <Node pos="l" depth="2" NCoef="0" IVar="11" Cut="9.3604183197021484e-01" cType="1" res="1.0086644440889359e-02" rms="2.3329055309295654e-01" purity="6.6606599092483521e-01" nType="0">
            <Node pos="l" depth="3" NCoef="0" IVar="-1" Cut="0.0000000000000000e+00" cType="1" res="6.2844655476510525e-03" rms="2.3342931270599365e-01" purity="6.5046608448028564e-01" nType="-99"/>
            <Node pos="r" depth="3" NCoef="0" IVar="-1" Cut="0.0000000000000000e+00" cType="1" res="4.6069707721471786e-02" rms="2.3143593966960907e-01" purity="7.2216343879699707e-01" nType="-99"/>
          </Node>
          <Node pos="r" depth="2" NCoef="0" IVar="1" Cut="8.6841471493244171e-02" cType="1" res="8.5760117508471012e-04" rms="1.2094828486442566e-01" purity="9.7021555900573730e-01" nType="0">
            <Node pos="l" depth="3" NCoef="0" IVar="-1" Cut="0.0000000000000000e+00" cType="1" res="-9.1543123126029968e-03" rms="1.7119190096855164e-01" purity="9.2974317073822021e-01" nType="-99"/>
            <Node pos="r" depth="3" NCoef="0" IVar="-1" Cut="0.0000000000000000e+00" cType="1" res="3.0274711549282074e-02" rms="8.4452286362648010e-02" purity="9.9085581302642822e-01" nType="-99"/>
          </Node>
        </Node>
      </Node>
    </BinaryTree>
    <BinaryTree type="DecisionTree" boostWeight="1.0000000000000000e+00" itree="589">
      <Node pos="s" depth="0" NCoef="0" IVar="10" Cut="1.4665015935897827e+00" cType="1" res="-8.5555569967254996e-04" rms="1.7938345670700073e-01" purity="5.0866734981536865e-01" nType="0">
        <Node pos="l" depth="1" NCoef="0" IVar="5" Cut="2.2303224182128906e+02" cType="1" res="-1.7851972952485085e-03" rms="1.7584133148193359e-01" purity="5.2648204565048218e-01" nType="0">
          <Node pos="l" depth="2" NCoef="0" IVar="5" Cut="1.3298600769042969e+02" cType="1" res="-4.2529576458036900e-03" rms="1.9594810903072357e-01" purity="2.6969939470291138e-01" nType="0">
            <Node pos="l" depth="3" NCoef="0" IVar="-1" Cut="0.0000000000000000e+00" cType="1" res="3.9022800046950579e-03" rms="1.5423585474491119e-01" purity="7.3895394802093506e-02" nType="-99"/>
            <Node pos="r" depth="3" NCoef="0" IVar="-1" Cut="0.0000000000000000e+00" cType="1" res="-1.6675354912877083e-02" rms="2.2893404960632324e-01" purity="4.5826193690299988e-01" nType="-99"/>
          </Node>
          <Node pos="r" depth="2" NCoef="0" IVar="0" Cut="2.5227482910156250e+03" cType="1" res="2.3835694883018732e-03" rms="1.3514518737792969e-01" purity="9.6026283502578735e-01" nType="0">
            <Node pos="l" depth="3" NCoef="0" IVar="-1" Cut="0.0000000000000000e+00" cType="1" res="2.2944096475839615e-02" rms="3.4249159693717957e-01" purity="6.4759922027587891e-01" nType="-99"/>
            <Node pos="r" depth="3" NCoef="0" IVar="-1" Cut="0.0000000000000000e+00" cType="1" res="6.0529651818796992e-04" rms="9.4907678663730621e-02" purity="9.8928570747375488e-01" nType="-99"/>
          </Node>
        </Node>
        <Node pos="r" depth="1" NCoef="0" IVar="0" Cut="2.4382836914062500e+03" cType="1" res="8.2863299176096916e-03" rms="2.1085472404956818e-01" purity="3.3348166942596436e-01" nType="0">
          <Node pos="l" depth="2" NCoef="0" IVar="7" Cut="4.9616807699203491e-01" cType="1" res="1.2471573427319527e-02" rms="2.1384108066558838e-01" purity="1.0542230308055878e-01" nType="0">
            <Node pos="l" depth="3" NCoef="0" IVar="-1" Cut="0.0000000000000000e+00" cType="1" res="4.4571362435817719e-02" rms="2.4051736295223236e-01" purity="1.2961667776107788e-01" nType="-99"/>
            <Node pos="r" depth="3" NCoef="0" IVar="-1" Cut="0.0000000000000000e+00" cType="1" res="-5.8076237328350544e-03" rms="1.6032633185386658e-01" purity="6.6098809242248535e-02" nType="-99"/>
          </Node>
          <Node pos="r" depth="2" NCoef="0" IVar="-1" Cut="0.0000000000000000e+00" cType="1" res="-5.7825883850455284e-03" rms="2.0257996022701263e-01" purity="9.1973525285720825e-01" nType="-99"/>
        </Node>
      </Node>
    </BinaryTree>
    <BinaryTree type="DecisionTree" boostWeight="1.0000000000000000e+00" itree="590">
      <Node pos="s" depth="0" NCoef="0" IVar="1" Cut="1.4992955327033997e-01" cType="1" res="2.1051225485280156e-04" rms="1.8010477721691132e-01" purity="5.0542074441909790e-01" nType="0">
        <Node pos="l" depth="1" NCoef="0" IVar="8" Cut="-1.1987578868865967e+00" cType="1" res="1.6943573718890548e-03" rms="1.8643182516098022e-01" purity="4.2486962676048279e-01" nType="0">
          <Node pos="l" depth="2" NCoef="0" IVar="0" Cut="2.0684030761718750e+03" cType="1" res="9.3802986666560173e-03" rms="1.7467239499092102e-01" purity="1.9271069765090942e-01" nType="0">
            <Node pos="l" depth="3" NCoef="0" IVar="-1" Cut="0.0000000000000000e+00" cType="1" res="1.1003234423696995e-02" rms="1.3705794513225555e-01" purity="2.6338759809732437e-02" nType="-99"/>
            <Node pos="r" depth="3" NCoef="0" IVar="-1" Cut="0.0000000000000000e+00" cType="1" res="4.1114468127489090e-02" rms="2.5565820932388306e-01" purity="6.9652175903320312e-01" nType="-99"/>
          </Node>
          <Node pos="r" depth="2" NCoef="0" IVar="10" Cut="-6.6615170240402222e-01" cType="1" res="5.7083647698163986e-04" rms="1.8806290626525879e-01" purity="4.5880633592605591e-01" nType="0">
            <Node pos="l" depth="3" NCoef="0" IVar="-1" Cut="0.0000000000000000e+00" cType="1" res="-9.8999105393886566e-03" rms="1.9456970691680908e-01" purity="3.9298123121261597e-01" nType="-99"/>
            <Node pos="r" depth="3" NCoef="0" IVar="-1" Cut="0.0000000000000000e+00" cType="1" res="6.7251748405396938e-03" rms="1.8530100584030151e-01" purity="4.8577430844306946e-01" nType="-99"/>
          </Node>
        </Node>
        <Node pos="r" depth="1" NCoef="0" IVar="0" Cut="2.6065302734375000e+03" cType="1" res="-6.4499471336603165e-03" rms="1.4823590219020844e-01" purity="8.6698645353317261e-01" nType="0">
          <Node pos="l" depth="2" NCoef="0" IVar="-1" Cut="0.0000000000000000e+00" cType="1" res="-3.9842989295721054e-02" rms="2.7817568182945251e-01" purity="4.7766467928886414e-01" nType="-99"/>
          <Node pos="r" depth="2" NCoef="0" IVar="2" Cut="6.6650433349609375e+02" cType="1" res="6.8343087332323194e-04" rms="5.7658024132251740e-02" purity="9.9659472703933716e-01" nType="0">
            <Node pos="l" depth="3" NCoef="0" IVar="-1" Cut="0.0000000000000000e+00" cType="1" res="5.2376709878444672e-02" rms="4.4036310166120529e-02" purity="9.9807828664779663e-01" nType="-99"/>
            <Node pos="r" depth="3" NCoef="0" IVar="-1" Cut="0.0000000000000000e+00" cType="1" res="-1.5962138772010803e-02" rms="6.8437956273555756e-02" purity="9.9513506889343262e-01" nType="-99"/>
          </Node>
        </Node>
      </Node>
    </BinaryTree>
    <BinaryTree type="DecisionTree" boostWeight="1.0000000000000000e+00" itree="591">
      <Node pos="s" depth="0" NCoef="0" IVar="11" Cut="4.0056180953979492e-01" cType="1" res="-2.3414085153490305e-03" rms="1.7590165138244629e-01" purity="4.8916301131248474e-01" nType="0">
        <Node pos="l" depth="1" NCoef="0" IVar="0" Cut="2.8791228027343750e+03" cType="1" res="-4.2148460634052753e-03" rms="1.7188625037670135e-01" purity="4.9086928367614746e-01" nType="0">
          <Node pos="l" depth="2" NCoef="0" IVar="4" Cut="1.7384011840820312e+02" cType="1" res="-6.8295490927994251e-03" rms="1.9912242889404297e-01" purity="2.2078324854373932e-01" nType="0">
            <Node pos="l" depth="3" NCoef="0" IVar="-1" Cut="0.0000000000000000e+00" cType="1" res="1.1640748009085655e-02" rms="1.3214805722236633e-01" purity="3.2359465956687927e-02" nType="-99"/>
            <Node pos="r" depth="3" NCoef="0" IVar="-1" Cut="0.0000000000000000e+00" cType="1" res="-2.1507168188691139e-02" rms="2.3383143544197083e-01" purity="3.4915080666542053e-01" nType="-99"/>
          </Node>
          <Node pos="r" depth="2" NCoef="0" IVar="3" Cut="5.2616638183593750e+02" cType="1" res="5.5816856911405921e-04" rms="1.0518408566713333e-01" purity="9.8389840126037598e-01" nType="0">
            <Node pos="l" depth="3" NCoef="0" IVar="-1" Cut="0.0000000000000000e+00" cType="1" res="3.2210126519203186e-02" rms="9.2275440692901611e-02" purity="9.8776680231094360e-01" nType="-99"/>
            <Node pos="r" depth="3" NCoef="0" IVar="-1" Cut="0.0000000000000000e+00" cType="1" res="-1.6765268519520760e-02" rms="1.1529292166233063e-01" purity="9.8049187660217285e-01" nType="-99"/>
          </Node>
        </Node>
        <Node pos="r" depth="1" NCoef="0" IVar="11" Cut="8.5756188631057739e-01" cType="1" res="8.1378145841881633e-04" rms="1.8242116272449493e-01" purity="4.8628932237625122e-01" nType="0">
          <Node pos="l" depth="2" NCoef="0" IVar="9" Cut="4.0059873461723328e-01" cType="1" res="6.4784893766045570e-03" rms="1.8335498869419098e-01" purity="5.5877882242202759e-01" nType="0">
            <Node pos="l" depth="3" NCoef="0" IVar="-1" Cut="0.0000000000000000e+00" cType="1" res="2.9736543074250221e-03" rms="1.7665567994117737e-01" purity="5.7658410072326660e-01" nType="-99"/>
            <Node pos="r" depth="3" NCoef="0" IVar="-1" Cut="0.0000000000000000e+00" cType="1" res="5.0615891814231873e-02" rms="1.9572529196739197e-01" purity="5.2278721332550049e-01" nType="-99"/>
          </Node>
          <Node pos="r" depth="2" NCoef="0" IVar="4" Cut="2.5782440185546875e+02" cType="1" res="-2.1035589743405581e-03" rms="1.8186953663825989e-01" purity="4.4895705580711365e-01" nType="0">
            <Node pos="l" depth="3" NCoef="0" IVar="-1" Cut="0.0000000000000000e+00" cType="1" res="-1.9038679078221321e-02" rms="1.8126755952835083e-01" purity="1.4687538146972656e-01" nType="-99"/>
            <Node pos="r" depth="3" NCoef="0" IVar="-1" Cut="0.0000000000000000e+00" cType="1" res="1.5687208622694016e-02" rms="1.8245579302310944e-01" purity="8.8372474908828735e-01" nType="-99"/>
          </Node>
        </Node>
      </Node>
    </BinaryTree>
    <BinaryTree type="DecisionTree" boostWeight="1.0000000000000000e+00" itree="592">
      <Node pos="s" depth="0" NCoef="0" IVar="7" Cut="-2.7410987019538879e-01" cType="1" res="2.5843339972198009e-04" rms="1.7878277599811554e-01" purity="4.9540171027183533e-01" nType="0">
        <Node pos="l" depth="1" NCoef="0" IVar="8" Cut="4.0386995673179626e-01" cType="1" res="-3.0964929610490799e-03" rms="1.8420206010341644e-01" purity="4.3804979324340820e-01" nType="0">
          <Node pos="l" depth="2" NCoef="0" IVar="11" Cut="1.2008652687072754e+00" cType="1" res="2.1515577100217342e-03" rms="1.8766830861568451e-01" purity="4.9584311246871948e-01" nType="0">
            <Node pos="l" depth="3" NCoef="0" IVar="-1" Cut="0.0000000000000000e+00" cType="1" res="-2.4044304154813290e-03" rms="1.7971605062484741e-01" purity="5.0143593549728394e-01" nType="-99"/>
            <Node pos="r" depth="3" NCoef="0" IVar="-1" Cut="0.0000000000000000e+00" cType="1" res="4.5713778585195541e-02" rms="2.3287770152091980e-01" purity="4.5860564708709717e-01" nType="-99"/>
          </Node>
          <Node pos="r" depth="2" NCoef="0" IVar="5" Cut="1.8643614196777344e+02" cType="1" res="-1.2527730315923691e-02" rms="1.7741340398788452e-01" purity="3.3418968319892883e-01" nType="0">
            <Node pos="l" depth="3" NCoef="0" IVar="-1" Cut="0.0000000000000000e+00" cType="1" res="-1.3159520924091339e-02" rms="1.5720181167125702e-01" purity="1.0455800592899323e-01" nType="-99"/>
            <Node pos="r" depth="3" NCoef="0" IVar="-1" Cut="0.0000000000000000e+00" cType="1" res="-6.4953066408634186e-02" rms="2.0845124125480652e-01" purity="7.5440239906311035e-01" nType="-99"/>
          </Node>
        </Node>
        <Node pos="r" depth="1" NCoef="0" IVar="4" Cut="3.1959259033203125e+02" cType="1" res="2.1292446181178093e-03" rms="1.7566040158271790e-01" purity="5.2738291025161743e-01" nType="0">
          <Node pos="l" depth="2" NCoef="0" IVar="2" Cut="9.1461425781250000e+02" cType="1" res="4.4594304636120796e-03" rms="1.9753624498844147e-01" purity="2.9277935624122620e-01" nType="0">
            <Node pos="l" depth="3" NCoef="0" IVar="-1" Cut="0.0000000000000000e+00" cType="1" res="9.0312287211418152e-03" rms="1.9742195308208466e-01" purity="2.5720259547233582e-01" nType="-99"/>
            <Node pos="r" depth="3" NCoef="0" IVar="-1" Cut="0.0000000000000000e+00" cType="1" res="3.5326302051544189e-02" rms="1.9866700470447540e-01" purity="8.3177500963211060e-01" nType="-99"/>
          </Node>
          <Node pos="r" depth="2" NCoef="0" IVar="6" Cut="1.3171096801757812e+02" cType="1" res="-2.1941747982054949e-03" rms="1.2522125244140625e-01" purity="9.6266567707061768e-01" nType="0">
            <Node pos="l" depth="3" NCoef="0" IVar="-1" Cut="0.0000000000000000e+00" cType="1" res="-2.9060319066047668e-02" rms="2.2165292501449585e-01" purity="8.5051500797271729e-01" nType="-99"/>
            <Node pos="r" depth="3" NCoef="0" IVar="-1" Cut="0.0000000000000000e+00" cType="1" res="7.6880133710801601e-03" rms="8.8834121823310852e-02" purity="9.8863172531127930e-01" nType="-99"/>
          </Node>
        </Node>
      </Node>
    </BinaryTree>
    <BinaryTree type="DecisionTree" boostWeight="1.0000000000000000e+00" itree="593">
      <Node pos="s" depth="0" NCoef="0" IVar="7" Cut="-8.1939703226089478e-01" cType="1" res="-4.1327386861667037e-04" rms="1.7620497941970825e-01" purity="5.0228458642959595e-01" nType="0">
        <Node pos="l" depth="1" NCoef="0" IVar="6" Cut="9.1414306640625000e+01" cType="1" res="5.9387222863733768e-03" rms="1.8321345746517181e-01" purity="2.6704049110412598e-01" nType="0">
          <Node pos="l" depth="2" NCoef="0" IVar="0" Cut="1.5724912109375000e+03" cType="1" res="-4.7458289191126823e-03" rms="1.1816132813692093e-01" purity="3.0667372047901154e-02" nType="0">
            <Node pos="l" depth="3" NCoef="0" IVar="-1" Cut="0.0000000000000000e+00" cType="1" res="-3.0283599626272917e-03" rms="5.0846144556999207e-02" purity="2.5947878602892160e-03" nType="-99"/>
            <Node pos="r" depth="3" NCoef="0" IVar="-1" Cut="0.0000000000000000e+00" cType="1" res="-3.2590210437774658e-02" rms="1.5158797800540924e-01" purity="5.2993375808000565e-02" nType="-99"/>
          </Node>
          <Node pos="r" depth="2" NCoef="0" IVar="9" Cut="-1.2807990610599518e-01" cType="1" res="1.3060710392892361e-02" rms="2.1565826237201691e-01" purity="4.2459946870803833e-01" nType="0">
            <Node pos="l" depth="3" NCoef="0" IVar="-1" Cut="0.0000000000000000e+00" cType="1" res="4.8800986260175705e-02" rms="2.0419728755950928e-01" purity="4.4331413507461548e-01" nType="-99"/>
            <Node pos="r" depth="3" NCoef="0" IVar="-1" Cut="0.0000000000000000e+00" cType="1" res="1.0043429210782051e-02" rms="2.2633163630962372e-01" purity="4.0569040179252625e-01" nType="-99"/>
          </Node>
        </Node>
        <Node pos="r" depth="1" NCoef="0" IVar="7" Cut="-4.7501200437545776e-01" cType="1" res="-1.7066922737285495e-03" rms="1.7471513152122498e-01" purity="5.5018585920333862e-01" nType="0">
          <Node pos="l" depth="2" NCoef="0" IVar="5" Cut="1.3937355041503906e+02" cType="1" res="-7.5496104545891285e-03" rms="1.9322004914283752e-01" purity="5.6528002023696899e-01" nType="0">
            <Node pos="l" depth="3" NCoef="0" IVar="-1" Cut="0.0000000000000000e+00" cType="1" res="1.8150649964809418e-02" rms="1.7712128162384033e-01" purity="1.0192822664976120e-01" nType="-99"/>
            <Node pos="r" depth="3" NCoef="0" IVar="-1" Cut="0.0000000000000000e+00" cType="1" res="-3.2681263983249664e-02" rms="2.0016542077064514e-01" purity="7.8708958625793457e-01" nType="-99"/>
          </Node>
          <Node pos="r" depth="2" NCoef="0" IVar="7" Cut="-3.1907242536544800e-01" cType="1" res="-7.7535712625831366e-04" rms="1.7156283557415009e-01" purity="5.4777997732162476e-01" nType="0">
            <Node pos="l" depth="3" NCoef="0" IVar="-1" Cut="0.0000000000000000e+00" cType="1" res="2.7824677526950836e-02" rms="1.9268904626369476e-01" purity="6.3468009233474731e-01" nType="-99"/>
            <Node pos="r" depth="3" NCoef="0" IVar="-1" Cut="0.0000000000000000e+00" cType="1" res="-5.7332254946231842e-03" rms="1.6932511329650879e-01" purity="5.3929841518402100e-01" nType="-99"/>
          </Node>
        </Node>
      </Node>
    </BinaryTree>
    <BinaryTree type="DecisionTree" boostWeight="1.0000000000000000e+00" itree="594">
      <Node pos="s" depth="0" NCoef="0" IVar="9" Cut="1.1994960308074951e+00" cType="1" res="-1.4949039905332029e-04" rms="1.7919491231441498e-01" purity="4.9537733197212219e-01" nType="0">
        <Node pos="l" depth="1" NCoef="0" IVar="8" Cut="-4.0045267343521118e-01" cType="1" res="9.4591308152303100e-04" rms="1.7738756537437439e-01" purity="5.2089941501617432e-01" nType="0">
          <Node pos="l" depth="2" NCoef="0" IVar="0" Cut="2.6325856933593750e+03" cType="1" res="-3.3412575721740723e-03" rms="1.7018038034439087e-01" purity="4.3105652928352356e-01" nType="0">
            <Node pos="l" depth="3" NCoef="0" IVar="-1" Cut="0.0000000000000000e+00" cType="1" res="-1.9947782158851624e-02" rms="1.8696182966232300e-01" purity="1.3280144333839417e-01" nType="-99"/>
            <Node pos="r" depth="3" NCoef="0" IVar="-1" Cut="0.0000000000000000e+00" cType="1" res="2.6874819770455360e-02" rms="1.3417531549930573e-01" purity="9.7036588191986084e-01" nType="-99"/>
          </Node>
          <Node pos="r" depth="2" NCoef="0" IVar="0" Cut="2.4651076660156250e+03" cType="1" res="3.1649726442992687e-03" rms="1.8096548318862915e-01" purity="5.6740242242813110e-01" nType="0">
            <Node pos="l" depth="3" NCoef="0" IVar="-1" Cut="0.0000000000000000e+00" cType="1" res="1.6864923760294914e-02" rms="2.1736122667789459e-01" purity="1.3465967774391174e-01" nType="-99"/>
            <Node pos="r" depth="3" NCoef="0" IVar="-1" Cut="0.0000000000000000e+00" cType="1" res="-5.0119995139539242e-03" rms="1.3952723145484924e-01" purity="9.6272808313369751e-01" nType="-99"/>
          </Node>
        </Node>
        <Node pos="r" depth="1" NCoef="0" IVar="6" Cut="8.9433059692382812e+01" cType="1" res="-8.3137201145291328e-03" rms="1.9193370640277863e-01" purity="3.0515739321708679e-01" nType="0">
          <Node pos="l" depth="2" NCoef="0" IVar="-1" Cut="0.0000000000000000e+00" cType="1" res="-7.5507145375013351e-03" rms="1.4535507559776306e-01" purity="6.8385690450668335e-02" nType="-99"/>
          <Node pos="r" depth="2" NCoef="0" IVar="9" Cut="1.5044693946838379e+00" cType="1" res="-1.2471951544284821e-02" rms="2.1632240712642670e-01" purity="4.5588639378547668e-01" nType="0">
            <Node pos="l" depth="3" NCoef="0" IVar="-1" Cut="0.0000000000000000e+00" cType="1" res="-1.6032155603170395e-02" rms="2.0176818966865540e-01" purity="5.6896102428436279e-01" nType="-99"/>
            <Node pos="r" depth="3" NCoef="0" IVar="-1" Cut="0.0000000000000000e+00" cType="1" res="-3.1905464828014374e-02" rms="2.2943374514579773e-01" purity="3.4625709056854248e-01" nType="-99"/>
          </Node>
        </Node>
      </Node>
    </BinaryTree>
    <BinaryTree type="DecisionTree" boostWeight="1.0000000000000000e+00" itree="595">
      <Node pos="s" depth="0" NCoef="0" IVar="10" Cut="-1.4659042358398438e+00" cType="1" res="1.8006019672611728e-05" rms="1.8180425465106964e-01" purity="5.0419533252716064e-01" nType="0">
        <Node pos="l" depth="1" NCoef="0" IVar="6" Cut="1.0332383728027344e+02" cType="1" res="9.0677784755825996e-03" rms="2.1656993031501770e-01" purity="3.4939634799957275e-01" nType="0">
          <Node pos="l" depth="2" NCoef="0" IVar="-1" Cut="0.0000000000000000e+00" cType="1" res="-8.2208802923560143e-03" rms="1.8229992687702179e-01" purity="1.0201972723007202e-01" nType="-99"/>
          <Node pos="r" depth="2" NCoef="0" IVar="-1" Cut="0.0000000000000000e+00" cType="1" res="3.8326989859342575e-02" rms="2.4884943664073944e-01" purity="6.2717795372009277e-01" nType="-99"/>
        </Node>
        <Node pos="r" depth="1" NCoef="0" IVar="11" Cut="6.6647088527679443e-01" cType="1" res="-8.8983675232157111e-04" rms="1.7791680991649628e-01" purity="5.1972419023513794e-01" nType="0">
          <Node pos="l" depth="2" NCoef="0" IVar="10" Cut="3.6209490895271301e-01" cType="1" res="9.4405940035358071e-04" rms="1.7470040917396545e-01" purity="5.3078830242156982e-01" nType="0">
            <Node pos="l" depth="3" NCoef="0" IVar="-1" Cut="0.0000000000000000e+00" cType="1" res="1.0156366974115372e-02" rms="1.7416803538799286e-01" purity="5.5711466073989868e-01" nType="-99"/>
            <Node pos="r" depth="3" NCoef="0" IVar="-1" Cut="0.0000000000000000e+00" cType="1" res="-6.5058791078627110e-03" rms="1.7542764544487000e-01" purity="4.9237886071205139e-01" nType="-99"/>
          </Node>
          <Node pos="r" depth="2" NCoef="0" IVar="8" Cut="-6.6487669944763184e-01" cType="1" res="-5.0573460757732391e-03" rms="1.8495063483715057e-01" purity="4.9458137154579163e-01" nType="0">
            <Node pos="l" depth="3" NCoef="0" IVar="-1" Cut="0.0000000000000000e+00" cType="1" res="1.0815511457622051e-02" rms="2.0981845259666443e-01" purity="3.7249636650085449e-01" nType="-99"/>
            <Node pos="r" depth="3" NCoef="0" IVar="-1" Cut="0.0000000000000000e+00" cType="1" res="-2.1451205015182495e-02" rms="1.7800053954124451e-01" purity="5.2561599016189575e-01" nType="-99"/>
          </Node>
        </Node>
      </Node>
    </BinaryTree>
    <BinaryTree type="DecisionTree" boostWeight="1.0000000000000000e+00" itree="596">
      <Node pos="s" depth="0" NCoef="0" IVar="10" Cut="1.9996509552001953e+00" cType="1" res="-9.5941696781665087e-04" rms="1.7353576421737671e-01" purity="4.8649680614471436e-01" nType="0">
        <Node pos="l" depth="1" NCoef="0" IVar="11" Cut="1.4673182964324951e+00" cType="1" res="-4.8411567695438862e-04" rms="1.7244377732276917e-01" purity="5.0084286928176880e-01" nType="0">
          <Node pos="l" depth="2" NCoef="0" IVar="9" Cut="-1.2002464532852173e+00" cType="1" res="-1.1356592876836658e-03" rms="1.6925989091396332e-01" purity="5.1157879829406738e-01" nType="0">
            <Node pos="l" depth="3" NCoef="0" IVar="-1" Cut="0.0000000000000000e+00" cType="1" res="-1.9600732252001762e-02" rms="1.6922120749950409e-01" purity="2.9023754596710205e-01" nType="-99"/>
            <Node pos="r" depth="3" NCoef="0" IVar="-1" Cut="0.0000000000000000e+00" cType="1" res="-8.7828940013423562e-04" rms="1.6924878954887390e-01" purity="5.4510831832885742e-01" nType="-99"/>
          </Node>
          <Node pos="r" depth="2" NCoef="0" IVar="9" Cut="9.3526053428649902e-01" cType="1" res="4.8585282638669014e-03" rms="1.9653488695621490e-01" purity="4.1280853748321533e-01" nType="0">
            <Node pos="l" depth="3" NCoef="0" IVar="-1" Cut="0.0000000000000000e+00" cType="1" res="2.2582270205020905e-02" rms="1.9650441408157349e-01" purity="4.4981545209884644e-01" nType="-99"/>
            <Node pos="r" depth="3" NCoef="0" IVar="-1" Cut="0.0000000000000000e+00" cType="1" res="-2.1614437922835350e-02" rms="1.9602012634277344e-01" purity="2.9423576593399048e-01" nType="-99"/>
          </Node>
        </Node>
        <Node pos="r" depth="1" NCoef="0" IVar="-1" Cut="0.0000000000000000e+00" cType="1" res="-2.8233198449015617e-02" rms="1.9709333777427673e-01" purity="1.5003499388694763e-01" nType="-99"/>
      </Node>
    </BinaryTree>
    <BinaryTree type="DecisionTree" boostWeight="1.0000000000000000e+00" itree="597">
      <Node pos="s" depth="0" NCoef="0" IVar="0" Cut="1.8945773925781250e+03" cType="1" res="-1.6108083073049784e-03" rms="1.8105673789978027e-01" purity="4.9946096539497375e-01" nType="0">
        <Node pos="l" depth="1" NCoef="0" IVar="5" Cut="1.8057574462890625e+02" cType="1" res="9.8370155319571495e-04" rms="1.2234968692064285e-01" purity="1.7872747033834457e-02" nType="0">
          <Node pos="l" depth="2" NCoef="0" IVar="1" Cut="1.2326620519161224e-01" cType="1" res="2.0802351646125317e-03" rms="1.1583071947097778e-01" purity="1.5306289307773113e-02" nType="0">
            <Node pos="l" depth="3" NCoef="0" IVar="-1" Cut="0.0000000000000000e+00" cType="1" res="7.0267850533127785e-03" rms="1.0173543542623520e-01" purity="1.1813384480774403e-02" nType="-99"/>
            <Node pos="r" depth="3" NCoef="0" IVar="-1" Cut="0.0000000000000000e+00" cType="1" res="5.6318290531635284e-02" rms="2.2634208202362061e-01" purity="5.8730155229568481e-02" nType="-99"/>
          </Node>
          <Node pos="r" depth="2" NCoef="0" IVar="-1" Cut="0.0000000000000000e+00" cType="1" res="-2.8291666880249977e-02" rms="1.9202704727649689e-01" purity="5.4513078182935715e-02" nType="-99"/>
        </Node>
        <Node pos="r" depth="1" NCoef="0" IVar="10" Cut="1.4664773941040039e+00" cType="1" res="-3.3706708345562220e-03" rms="2.1179205179214478e-01" purity="8.2612341642379761e-01" nType="0">
          <Node pos="l" depth="2" NCoef="0" IVar="3" Cut="3.4497390747070312e+02" cType="1" res="-2.3039090447127819e-03" rms="2.0658624172210693e-01" purity="8.3455836772918701e-01" nType="0">
            <Node pos="l" depth="3" NCoef="0" IVar="-1" Cut="0.0000000000000000e+00" cType="1" res="-1.1233477853238583e-02" rms="3.0344939231872559e-01" purity="5.2534401416778564e-01" nType="-99"/>
            <Node pos="r" depth="3" NCoef="0" IVar="-1" Cut="0.0000000000000000e+00" cType="1" res="-1.7038134392350912e-03" rms="1.7993463575839996e-01" purity="8.9892280101776123e-01" nType="-99"/>
          </Node>
          <Node pos="r" depth="2" NCoef="0" IVar="-1" Cut="0.0000000000000000e+00" cType="1" res="-2.5131454691290855e-02" rms="2.7918455004692078e-01" purity="6.9687724113464355e-01" nType="-99"/>
        </Node>
      </Node>
    </BinaryTree>
    <BinaryTree type="DecisionTree" boostWeight="1.0000000000000000e+00" itree="598">
      <Node pos="s" depth="0" NCoef="0" IVar="10" Cut="1.7330646514892578e+00" cType="1" res="1.2339468812569976e-03" rms="1.7901258170604706e-01" purity="5.0028979778289795e-01" nType="0">
        <Node pos="l" depth="1" NCoef="0" IVar="11" Cut="-1.7319355010986328e+00" cType="1" res="6.0438353102654219e-04" rms="1.7505365610122681e-01" purity="5.1220768690109253e-01" nType="0">
          <Node pos="l" depth="2" NCoef="0" IVar="3" Cut="2.9339178466796875e+02" cType="1" res="1.0355549864470959e-02" rms="2.0725028216838837e-01" purity="3.8009166717529297e-01" nType="0">
            <Node pos="l" depth="3" NCoef="0" IVar="-1" Cut="0.0000000000000000e+00" cType="1" res="-5.7597062550485134e-03" rms="1.6229553520679474e-01" purity="7.6650403439998627e-02" nType="-99"/>
            <Node pos="r" depth="3" NCoef="0" IVar="-1" Cut="0.0000000000000000e+00" cType="1" res="3.8144335150718689e-02" rms="2.3553907871246338e-01" purity="6.1248052120208740e-01" nType="-99"/>
          </Node>
          <Node pos="r" depth="2" NCoef="0" IVar="3" Cut="5.5554821777343750e+02" cType="1" res="-1.6452040290459991e-04" rms="1.7223560810089111e-01" purity="5.2262538671493530e-01" nType="0">
            <Node pos="l" depth="3" NCoef="0" IVar="-1" Cut="0.0000000000000000e+00" cType="1" res="-3.5389729309827089e-03" rms="1.8255420029163361e-01" purity="4.2175915837287903e-01" nType="-99"/>
            <Node pos="r" depth="3" NCoef="0" IVar="-1" Cut="0.0000000000000000e+00" cType="1" res="2.3523263633251190e-02" rms="1.1737502366304398e-01" purity="9.5966857671737671e-01" nType="-99"/>
          </Node>
        </Node>
        <Node pos="r" depth="1" NCoef="0" IVar="1" Cut="4.7143276780843735e-02" cType="1" res="1.1680748313665390e-02" rms="2.3492459952831268e-01" purity="3.0252739787101746e-01" nType="0">
          <Node pos="l" depth="2" NCoef="0" IVar="-1" Cut="0.0000000000000000e+00" cType="1" res="4.9899436533451080e-02" rms="2.1919706463813782e-01" purity="1.4249327778816223e-01" nType="-99"/>
          <Node pos="r" depth="2" NCoef="0" IVar="-1" Cut="0.0000000000000000e+00" cType="1" res="5.8901361189782619e-03" rms="2.5181898474693298e-01" purity="4.8954901099205017e-01" nType="-99"/>
        </Node>
      </Node>
    </BinaryTree>
    <BinaryTree type="DecisionTree" boostWeight="1.0000000000000000e+00" itree="599">
      <Node pos="s" depth="0" NCoef="0" IVar="9" Cut="-1.4664243459701538e+00" cType="1" res="1.5053070383146405e-03" rms="1.7930203676223755e-01" purity="4.9655041098594666e-01" nType="0">
        <Node pos="l" depth="1" NCoef="0" IVar="2" Cut="4.4243731689453125e+02" cType="1" res="-9.3026030808687210e-03" rms="1.8493065237998962e-01" purity="1.9311085343360901e-01" nType="0">
          <Node pos="l" depth="2" NCoef="0" IVar="-1" Cut="0.0000000000000000e+00" cType="1" res="-1.7858901992440224e-03" rms="1.6050238907337189e-01" purity="6.6632278263568878e-02" nType="-99"/>
          <Node pos="r" depth="2" NCoef="0" IVar="-1" Cut="0.0000000000000000e+00" cType="1" res="-3.9112642407417297e-02" rms="2.0263530313968658e-01" purity="2.9771500825881958e-01" nType="-99"/>
        </Node>
        <Node pos="r" depth="1" NCoef="0" IVar="7" Cut="9.8802202939987183e-01" cType="1" res="2.4523504544049501e-03" rms="1.7876924574375153e-01" purity="5.2313929796218872e-01" nType="0">
          <Node pos="l" depth="2" NCoef="0" IVar="7" Cut="4.7146028280258179e-01" cType="1" res="3.5964029375463724e-03" rms="1.8071955442428589e-01" purity="5.6524729728698730e-01" nType="0">
            <Node pos="l" depth="3" NCoef="0" IVar="-1" Cut="0.0000000000000000e+00" cType="1" res="8.0688046291470528e-03" rms="1.7927166819572449e-01" purity="5.6709539890289307e-01" nType="-99"/>
            <Node pos="r" depth="3" NCoef="0" IVar="-1" Cut="0.0000000000000000e+00" cType="1" res="2.3704227060079575e-02" rms="1.8730975687503815e-01" purity="5.5653810501098633e-01" nType="-99"/>
          </Node>
          <Node pos="r" depth="2" NCoef="0" IVar="0" Cut="1.9468597412109375e+03" cType="1" res="-6.1418660916388035e-03" rms="1.6311936080455780e-01" purity="2.0682074129581451e-01" nType="0">
            <Node pos="l" depth="3" NCoef="0" IVar="-1" Cut="0.0000000000000000e+00" cType="1" res="1.0978546924889088e-02" rms="1.1390611529350281e-01" purity="1.6612775623798370e-02" nType="-99"/>
            <Node pos="r" depth="3" NCoef="0" IVar="-1" Cut="0.0000000000000000e+00" cType="1" res="-3.2170284539461136e-02" rms="2.3430576920509338e-01" purity="6.0664027929306030e-01" nType="-99"/>
          </Node>
        </Node>
      </Node>
    </BinaryTree>
    <BinaryTree type="DecisionTree" boostWeight="1.0000000000000000e+00" itree="600">
      <Node pos="s" depth="0" NCoef="0" IVar="9" Cut="1.3301751017570496e-01" cType="1" res="1.7442764947190881e-03" rms="1.7818298935890198e-01" purity="4.9846994876861572e-01" nType="0">
        <Node pos="l" depth="1" NCoef="0" IVar="11" Cut="1.4663188457489014e+00" cType="1" res="3.9635025896131992e-03" rms="1.7348420619964600e-01" purity="5.1023000478744507e-01" nType="0">
          <Node pos="l" depth="2" NCoef="0" IVar="0" Cut="1.8916672363281250e+03" cType="1" res="5.3783184848725796e-03" rms="1.6922478377819061e-01" purity="5.2042317390441895e-01" nType="0">
            <Node pos="l" depth="3" NCoef="0" IVar="-1" Cut="0.0000000000000000e+00" cType="1" res="1.4485344290733337e-03" rms="1.1932311952114105e-01" purity="1.7157312482595444e-02" nType="-99"/>
            <Node pos="r" depth="3" NCoef="0" IVar="-1" Cut="0.0000000000000000e+00" cType="1" res="2.1363830193877220e-02" rms="1.9512072205543518e-01" purity="8.5120695829391479e-01" nType="-99"/>
          </Node>
          <Node pos="r" depth="2" NCoef="0" IVar="11" Cut="1.9105958938598633e+00" cType="1" res="-8.5269780829548836e-03" rms="2.0690631866455078e-01" purity="4.2024049162864685e-01" nType="0">
            <Node pos="l" depth="3" NCoef="0" IVar="-1" Cut="0.0000000000000000e+00" cType="1" res="-2.8765128925442696e-02" rms="1.9274854660034180e-01" purity="4.3507593870162964e-01" nType="-99"/>
            <Node pos="r" depth="3" NCoef="0" IVar="-1" Cut="0.0000000000000000e+00" cType="1" res="-9.8922271281480789e-03" rms="2.2256086766719818e-01" purity="4.0253213047981262e-01" nType="-99"/>
          </Node>
        </Node>
        <Node pos="r" depth="1" NCoef="0" IVar="5" Cut="2.2463227844238281e+02" cType="1" res="-9.7666541114449501e-04" rms="1.8374359607696533e-01" purity="4.8405122756958008e-01" nType="0">
          <Node pos="l" depth="2" NCoef="0" IVar="6" Cut="1.3268899536132812e+02" cType="1" res="2.3485359270125628e-03" rms="1.9664777815341949e-01" purity="2.5980484485626221e-01" nType="0">
            <Node pos="l" depth="3" NCoef="0" IVar="-1" Cut="0.0000000000000000e+00" cType="1" res="-2.0366788376122713e-03" rms="1.8273347616195679e-01" purity="1.4243036508560181e-01" nType="-99"/>
            <Node pos="r" depth="3" NCoef="0" IVar="-1" Cut="0.0000000000000000e+00" cType="1" res="2.3581875488162041e-02" rms="2.4264420568943024e-01" purity="7.1296817064285278e-01" nType="-99"/>
          </Node>
          <Node pos="r" depth="2" NCoef="0" IVar="10" Cut="-1.5249119699001312e-01" cType="1" res="-7.6791164465248585e-03" rms="1.5427377820014954e-01" purity="9.3605387210845947e-01" nType="0">
            <Node pos="l" depth="3" NCoef="0" IVar="-1" Cut="0.0000000000000000e+00" cType="1" res="-8.5618235170841217e-02" rms="1.7836606502532959e-01" purity="9.1651642322540283e-01" nType="-99"/>
            <Node pos="r" depth="3" NCoef="0" IVar="-1" Cut="0.0000000000000000e+00" cType="1" res="3.9194300770759583e-03" rms="1.3407985866069794e-01" purity="9.4982469081878662e-01" nType="-99"/>
          </Node>
        </Node>
      </Node>
    </BinaryTree>
    <BinaryTree type="DecisionTree" boostWeight="1.0000000000000000e+00" itree="601">
      <Node pos="s" depth="0" NCoef="0" IVar="11" Cut="1.9991765022277832e+00" cType="1" res="1.0262529831379652e-03" rms="1.7479874193668365e-01" purity="5.0023370981216431e-01" nType="0">
        <Node pos="l" depth="1" NCoef="0" IVar="9" Cut="1.4657748937606812e+00" cType="1" res="1.5960535965859890e-03" rms="1.7386542260646820e-01" purity="5.0946110486984253e-01" nType="0">
          <Node pos="l" depth="2" NCoef="0" IVar="0" Cut="1.8945874023437500e+03" cType="1" res="2.2292986977845430e-03" rms="1.7232447862625122e-01" purity="5.2942132949829102e-01" nType="0">
            <Node pos="l" depth="3" NCoef="0" IVar="-1" Cut="0.0000000000000000e+00" cType="1" res="-5.3554647602140903e-03" rms="1.2282628566026688e-01" purity="1.7437888309359550e-02" nType="-99"/>
            <Node pos="r" depth="3" NCoef="0" IVar="-1" Cut="0.0000000000000000e+00" cType="1" res="9.9778929725289345e-03" rms="1.9703893363475800e-01" purity="8.4966874122619629e-01" nType="-99"/>
          </Node>
          <Node pos="r" depth="2" NCoef="0" IVar="11" Cut="-2.8298813104629517e-01" cType="1" res="-7.0789139717817307e-03" rms="1.9353665411472321e-01" purity="2.3602151870727539e-01" nType="0">
            <Node pos="l" depth="3" NCoef="0" IVar="-1" Cut="0.0000000000000000e+00" cType="1" res="-5.0604585558176041e-02" rms="1.8417458236217499e-01" purity="2.1711914241313934e-01" nType="-99"/>
            <Node pos="r" depth="3" NCoef="0" IVar="-1" Cut="0.0000000000000000e+00" cType="1" res="6.5539735369384289e-03" rms="1.9918411970138550e-01" purity="2.4908262491226196e-01" nType="-99"/>
          </Node>
        </Node>
        <Node pos="r" depth="1" NCoef="0" IVar="-1" Cut="0.0000000000000000e+00" cType="1" res="-3.0188111588358879e-02" rms="1.9465875625610352e-01" purity="2.8704577684402466e-01" nType="-99"/>
      </Node>
    </BinaryTree>
    <BinaryTree type="DecisionTree" boostWeight="1.0000000000000000e+00" itree="602">
      <Node pos="s" depth="0" NCoef="0" IVar="11" Cut="-2.0000016689300537e+00" cType="1" res="-1.4929451281204820e-03" rms="1.8012356758117676e-01" purity="5.0049805641174316e-01" nType="0">
        <Node pos="l" depth="1" NCoef="0" IVar="-1" Cut="0.0000000000000000e+00" cType="1" res="-4.1649997234344482e-02" rms="1.6596572101116180e-01" purity="2.5225624442100525e-01" nType="-99"/>
        <Node pos="r" depth="1" NCoef="0" IVar="4" Cut="2.0973562622070312e+02" cType="1" res="-7.9020787961781025e-04" rms="1.8077287077903748e-01" purity="5.1289606094360352e-01" nType="0">
          <Node pos="l" depth="2" NCoef="0" IVar="0" Cut="1.8285804443359375e+03" cType="1" res="2.8419964946806431e-03" rms="1.6928972303867340e-01" purity="8.1293292343616486e-02" nType="0">
            <Node pos="l" depth="3" NCoef="0" IVar="-1" Cut="0.0000000000000000e+00" cType="1" res="5.5179409682750702e-03" rms="1.0089484602212906e-01" purity="1.1193044483661652e-02" nType="-99"/>
            <Node pos="r" depth="3" NCoef="0" IVar="-1" Cut="0.0000000000000000e+00" cType="1" res="1.1635401286184788e-02" rms="2.9731795191764832e-01" purity="3.0818447470664978e-01" nType="-99"/>
          </Node>
          <Node pos="r" depth="2" NCoef="0" IVar="5" Cut="2.6716195678710938e+02" cType="1" res="-2.9773465357720852e-03" rms="1.8731430172920227e-01" purity="7.7278649806976318e-01" nType="0">
            <Node pos="l" depth="3" NCoef="0" IVar="-1" Cut="0.0000000000000000e+00" cType="1" res="-1.1970382183790207e-02" rms="2.2705304622650146e-01" purity="6.3480085134506226e-01" nType="-99"/>
            <Node pos="r" depth="3" NCoef="0" IVar="-1" Cut="0.0000000000000000e+00" cType="1" res="1.8543031066656113e-02" rms="9.8092779517173767e-02" purity="9.8581981658935547e-01" nType="-99"/>
          </Node>
        </Node>
      </Node>
    </BinaryTree>
    <BinaryTree type="DecisionTree" boostWeight="1.0000000000000000e+00" itree="603">
      <Node pos="s" depth="0" NCoef="0" IVar="0" Cut="2.3860834960937500e+03" cType="1" res="2.1316374186426401e-03" rms="1.7984242737293243e-01" purity="5.0710391998291016e-01" nType="0">
        <Node pos="l" depth="1" NCoef="0" IVar="5" Cut="1.8815031433105469e+02" cType="1" res="4.5848130248486996e-03" rms="1.9851465523242950e-01" purity="9.9984377622604370e-02" nType="0">
          <Node pos="l" depth="2" NCoef="0" IVar="0" Cut="1.7756610107421875e+03" cType="1" res="1.9272777717560530e-03" rms="1.7619615793228149e-01" purity="6.2826097011566162e-02" nType="0">
            <Node pos="l" depth="3" NCoef="0" IVar="-1" Cut="0.0000000000000000e+00" cType="1" res="-7.2646141052246094e-03" rms="9.2977084219455719e-02" purity="9.2201409861445427e-03" nType="-99"/>
            <Node pos="r" depth="3" NCoef="0" IVar="-1" Cut="0.0000000000000000e+00" cType="1" res="9.8503353074193001e-03" rms="2.9741653800010681e-01" purity="2.0036512613296509e-01" nType="-99"/>
          </Node>
          <Node pos="r" depth="2" NCoef="0" IVar="11" Cut="-1.2515720725059509e-01" cType="1" res="2.6275033131241798e-02" rms="3.2731756567955017e-01" purity="4.0326201915740967e-01" nType="0">
            <Node pos="l" depth="3" NCoef="0" IVar="-1" Cut="0.0000000000000000e+00" cType="1" res="3.6996286362409592e-02" rms="3.2630658149719238e-01" purity="4.1530078649520874e-01" nType="-99"/>
            <Node pos="r" depth="3" NCoef="0" IVar="-1" Cut="0.0000000000000000e+00" cType="1" res="1.2308725155889988e-02" rms="3.2767668366432190e-01" purity="3.9339351654052734e-01" nType="-99"/>
          </Node>
        </Node>
        <Node pos="r" depth="1" NCoef="0" IVar="1" Cut="1.0104947537183762e-01" cType="1" res="-5.5576686281710863e-04" rms="1.5681253373622894e-01" purity="9.5309513807296753e-01" nType="0">
          <Node pos="l" depth="2" NCoef="0" IVar="0" Cut="2.7852272949218750e+03" cType="1" res="-3.2454887405037880e-03" rms="2.0527701079845428e-01" purity="9.1133123636245728e-01" nType="0">
            <Node pos="l" depth="3" NCoef="0" IVar="-1" Cut="0.0000000000000000e+00" cType="1" res="-1.3790407218039036e-02" rms="3.1820660829544067e-01" purity="7.3447400331497192e-01" nType="-99"/>
            <Node pos="r" depth="3" NCoef="0" IVar="-1" Cut="0.0000000000000000e+00" cType="1" res="-3.0743976822122931e-04" rms="1.5676541626453400e-01" purity="9.6374315023422241e-01" nType="-99"/>
          </Node>
          <Node pos="r" depth="2" NCoef="0" IVar="0" Cut="2.8566228027343750e+03" cType="1" res="1.8905475735664368e-03" rms="9.2828780412673950e-02" purity="9.9107962846755981e-01" nType="0">
            <Node pos="l" depth="3" NCoef="0" IVar="-1" Cut="0.0000000000000000e+00" cType="1" res="2.7066484093666077e-02" rms="1.6321364045143127e-01" purity="9.7218650579452515e-01" nType="-99"/>
            <Node pos="r" depth="3" NCoef="0" IVar="-1" Cut="0.0000000000000000e+00" cType="1" res="1.2262918753549457e-03" rms="5.8903194963932037e-02" purity="9.9646002054214478e-01" nType="-99"/>
          </Node>
        </Node>
      </Node>
    </BinaryTree>
    <BinaryTree type="DecisionTree" boostWeight="1.0000000000000000e+00" itree="604">
      <Node pos="s" depth="0" NCoef="0" IVar="11" Cut="1.7328703403472900e+00" cType="1" res="-1.5365902800112963e-03" rms="1.7645266652107239e-01" purity="4.9657595157623291e-01" nType="0">
        <Node pos="l" depth="1" NCoef="0" IVar="3" Cut="6.1883062744140625e+02" cType="1" res="-2.4829043541103601e-03" rms="1.7359639704227448e-01" purity="5.0720113515853882e-01" nType="0">
          <Node pos="l" depth="2" NCoef="0" IVar="7" Cut="4.9072200059890747e-01" cType="1" res="-3.6582173779606819e-03" rms="1.7853263020515442e-01" purity="4.5156794786453247e-01" nType="0">
            <Node pos="l" depth="3" NCoef="0" IVar="-1" Cut="0.0000000000000000e+00" cType="1" res="-1.6998808830976486e-02" rms="1.8317963182926178e-01" purity="4.9864718317985535e-01" nType="-99"/>
            <Node pos="r" depth="3" NCoef="0" IVar="-1" Cut="0.0000000000000000e+00" cType="1" res="6.2566651031374931e-03" rms="1.6646860539913177e-01" purity="3.3621352910995483e-01" nType="-99"/>
          </Node>
          <Node pos="r" depth="2" NCoef="0" IVar="0" Cut="3.7313774414062500e+03" cType="1" res="7.3472182266414165e-03" rms="1.2445724010467529e-01" purity="9.7250801324844360e-01" nType="0">
            <Node pos="l" depth="3" NCoef="0" IVar="-1" Cut="0.0000000000000000e+00" cType="1" res="5.2321255207061768e-02" rms="1.6283686459064484e-01" purity="9.5120602846145630e-01" nType="-99"/>
            <Node pos="r" depth="3" NCoef="0" IVar="-1" Cut="0.0000000000000000e+00" cType="1" res="8.1674437969923019e-03" rms="7.3932662606239319e-02" purity="9.9168515205383301e-01" nType="-99"/>
          </Node>
        </Node>
        <Node pos="r" depth="1" NCoef="0" IVar="1" Cut="3.6408465355634689e-02" cType="1" res="1.0278498753905296e-02" rms="2.0849001407623291e-01" purity="3.6391606926918030e-01" nType="0">
          <Node pos="l" depth="2" NCoef="0" IVar="-1" Cut="0.0000000000000000e+00" cType="1" res="-8.5178501904010773e-03" rms="1.6226246953010559e-01" purity="9.6033588051795959e-02" nType="-99"/>
          <Node pos="r" depth="2" NCoef="0" IVar="-1" Cut="0.0000000000000000e+00" cType="1" res="3.6272745579481125e-02" rms="2.3282410204410553e-01" purity="5.3438591957092285e-01" nType="-99"/>
        </Node>
      </Node>
    </BinaryTree>
    <BinaryTree type="DecisionTree" boostWeight="1.0000000000000000e+00" itree="605">
      <Node pos="s" depth="0" NCoef="0" IVar="2" Cut="4.2942144775390625e+02" cType="1" res="-1.5948932850733399e-03" rms="1.7736499011516571e-01" purity="5.0374573469161987e-01" nType="0">
        <Node pos="l" depth="1" NCoef="0" IVar="6" Cut="1.5918603515625000e+02" cType="1" res="2.0196198020130396e-03" rms="1.8358951807022095e-01" purity="1.2508273124694824e-01" nType="0">
          <Node pos="l" depth="2" NCoef="0" IVar="0" Cut="1.8221636962890625e+03" cType="1" res="4.2445692233741283e-03" rms="1.6787876188755035e-01" purity="6.7081406712532043e-02" nType="0">
            <Node pos="l" depth="3" NCoef="0" IVar="-1" Cut="0.0000000000000000e+00" cType="1" res="1.2149007990956306e-02" rms="1.2062891572713852e-01" purity="1.6767768189311028e-02" nType="-99"/>
            <Node pos="r" depth="3" NCoef="0" IVar="-1" Cut="0.0000000000000000e+00" cType="1" res="1.8164128065109253e-02" rms="3.6892750859260559e-01" purity="4.6718424558639526e-01" nType="-99"/>
          </Node>
          <Node pos="r" depth="2" NCoef="0" IVar="-1" Cut="0.0000000000000000e+00" cType="1" res="-2.1839709952473640e-02" rms="2.7959907054901123e-01" purity="5.9605181217193604e-01" nType="-99"/>
        </Node>
        <Node pos="r" depth="1" NCoef="0" IVar="11" Cut="1.4667479991912842e+00" cType="1" res="-2.8412786778062582e-03" rms="1.7515002191066742e-01" purity="6.3431924581527710e-01" nType="0">
          <Node pos="l" depth="2" NCoef="0" IVar="6" Cut="1.7396923828125000e+02" cType="1" res="-3.8472421001642942e-03" rms="1.7060323059558868e-01" purity="6.4491665363311768e-01" nType="0">
            <Node pos="l" depth="3" NCoef="0" IVar="-1" Cut="0.0000000000000000e+00" cType="1" res="-1.5825809910893440e-02" rms="2.0149058103561401e-01" purity="4.4092780351638794e-01" nType="-99"/>
            <Node pos="r" depth="3" NCoef="0" IVar="-1" Cut="0.0000000000000000e+00" cType="1" res="1.0817739181220531e-02" rms="9.9846363067626953e-02" purity="9.8382961750030518e-01" nType="-99"/>
          </Node>
          <Node pos="r" depth="2" NCoef="0" IVar="7" Cut="-2.0846378058195114e-02" cType="1" res="5.7347440160810947e-03" rms="2.0975591242313385e-01" purity="5.4397505521774292e-01" nType="0">
            <Node pos="l" depth="3" NCoef="0" IVar="-1" Cut="0.0000000000000000e+00" cType="1" res="2.9519947245717049e-02" rms="2.3078255355358124e-01" purity="5.8158063888549805e-01" nType="-99"/>
            <Node pos="r" depth="3" NCoef="0" IVar="-1" Cut="0.0000000000000000e+00" cType="1" res="-1.2470247456803918e-03" rms="1.9242748618125916e-01" purity="5.1605892181396484e-01" nType="-99"/>
          </Node>
        </Node>
      </Node>
    </BinaryTree>
    <BinaryTree type="DecisionTree" boostWeight="1.0000000000000000e+00" itree="606">
      <Node pos="s" depth="0" NCoef="0" IVar="6" Cut="9.6395812988281250e+01" cType="1" res="4.7456889296881855e-04" rms="1.7895670235157013e-01" purity="5.0123375654220581e-01" nType="0">
        <Node pos="l" depth="1" NCoef="0" IVar="4" Cut="2.6903781127929688e+02" cType="1" res="3.3420086838304996e-03" rms="1.6728195548057556e-01" purity="1.1653743684291840e-01" nType="0">
          <Node pos="l" depth="2" NCoef="0" IVar="9" Cut="6.6652911901473999e-01" cType="1" res="1.2058335123583674e-03" rms="1.4703549444675446e-01" purity="4.7168880701065063e-02" nType="0">
            <Node pos="l" depth="3" NCoef="0" IVar="-1" Cut="0.0000000000000000e+00" cType="1" res="-1.2155634351074696e-02" rms="1.4009487628936768e-01" purity="4.1730806231498718e-02" nType="-99"/>
            <Node pos="r" depth="3" NCoef="0" IVar="-1" Cut="0.0000000000000000e+00" cType="1" res="4.9195781350135803e-02" rms="1.6284431517124176e-01" purity="6.0867097228765488e-02" nType="-99"/>
          </Node>
          <Node pos="r" depth="2" NCoef="0" IVar="-1" Cut="0.0000000000000000e+00" cType="1" res="2.4135110899806023e-02" rms="2.6773884892463684e-01" purity="5.9561312198638916e-01" nType="-99"/>
        </Node>
        <Node pos="r" depth="1" NCoef="0" IVar="10" Cut="-1.7250150442123413e+00" cType="1" res="-1.0295704705640674e-03" rms="1.8476828932762146e-01" purity="7.0302939414978027e-01" nType="0">
          <Node pos="l" depth="2" NCoef="0" IVar="-1" Cut="0.0000000000000000e+00" cType="1" res="-3.3985301852226257e-02" rms="2.3046430945396423e-01" purity="4.0625852346420288e-01" nType="-99"/>
          <Node pos="r" depth="2" NCoef="0" IVar="7" Cut="-5.3130650520324707e-01" cType="1" res="-1.8157564045395702e-04" rms="1.8224297463893890e-01" purity="7.1727991104125977e-01" nType="0">
            <Node pos="l" depth="3" NCoef="0" IVar="-1" Cut="0.0000000000000000e+00" cType="1" res="-1.5154643915593624e-02" rms="2.0275725424289703e-01" purity="5.9173905849456787e-01" nType="-99"/>
            <Node pos="r" depth="3" NCoef="0" IVar="-1" Cut="0.0000000000000000e+00" cType="1" res="5.6567029096186161e-03" rms="1.7574369907379150e-01" purity="7.5399339199066162e-01" nType="-99"/>
          </Node>
        </Node>
      </Node>
    </BinaryTree>
    <BinaryTree type="DecisionTree" boostWeight="1.0000000000000000e+00" itree="607">
      <Node pos="s" depth="0" NCoef="0" IVar="11" Cut="-2.0000016689300537e+00" cType="1" res="8.9165737153962255e-04" rms="1.7654332518577576e-01" purity="5.0082677602767944e-01" nType="0">
        <Node pos="l" depth="1" NCoef="0" IVar="-1" Cut="0.0000000000000000e+00" cType="1" res="-2.6081373915076256e-02" rms="1.8972818553447723e-01" purity="2.8377577662467957e-01" nType="-99"/>
        <Node pos="r" depth="1" NCoef="0" IVar="9" Cut="9.3293291330337524e-01" cType="1" res="1.4208258362486959e-03" rms="1.7590902745723724e-01" purity="5.1058202981948853e-01" nType="0">
          <Node pos="l" depth="2" NCoef="0" IVar="3" Cut="3.3960342407226562e+02" cType="1" res="2.4433166254311800e-03" rms="1.7276784777641296e-01" purity="5.4272770881652832e-01" nType="0">
            <Node pos="l" depth="3" NCoef="0" IVar="-1" Cut="0.0000000000000000e+00" cType="1" res="1.5318495221436024e-02" rms="1.8313348293304443e-01" purity="1.4541596174240112e-01" nType="-99"/>
            <Node pos="r" depth="3" NCoef="0" IVar="-1" Cut="0.0000000000000000e+00" cType="1" res="1.6247056191787124e-03" rms="1.6470843553543091e-01" purity="8.3467239141464233e-01" nType="-99"/>
          </Node>
          <Node pos="r" depth="2" NCoef="0" IVar="2" Cut="7.6473034667968750e+02" cType="1" res="-3.2748361118137836e-03" rms="1.8959684669971466e-01" purity="3.6295691132545471e-01" nType="0">
            <Node pos="l" depth="3" NCoef="0" IVar="-1" Cut="0.0000000000000000e+00" cType="1" res="-1.6227584332227707e-02" rms="1.8788440525531769e-01" purity="2.8884211182594299e-01" nType="-99"/>
            <Node pos="r" depth="3" NCoef="0" IVar="-1" Cut="0.0000000000000000e+00" cType="1" res="2.4297086521983147e-02" rms="1.9825769960880280e-01" purity="7.7486026287078857e-01" nType="-99"/>
          </Node>
        </Node>
      </Node>
    </BinaryTree>
    <BinaryTree type="DecisionTree" boostWeight="1.0000000000000000e+00" itree="608">
      <Node pos="s" depth="0" NCoef="0" IVar="11" Cut="4.0045937895774841e-01" cType="1" res="-1.3390769890975207e-04" rms="1.7815472185611725e-01" purity="4.9377751350402832e-01" nType="0">
        <Node pos="l" depth="1" NCoef="0" IVar="7" Cut="-5.5518031120300293e-01" cType="1" res="1.9353053066879511e-03" rms="1.7735798656940460e-01" purity="5.0451171398162842e-01" nType="0">
          <Node pos="l" depth="2" NCoef="0" IVar="0" Cut="1.9325854492187500e+03" cType="1" res="7.7095907181501389e-03" rms="1.7237924039363861e-01" purity="3.5787898302078247e-01" nType="0">
            <Node pos="l" depth="3" NCoef="0" IVar="-1" Cut="0.0000000000000000e+00" cType="1" res="9.0755671262741089e-03" rms="1.1414956301450729e-01" purity="1.5584124252200127e-02" nType="-99"/>
            <Node pos="r" depth="3" NCoef="0" IVar="-1" Cut="0.0000000000000000e+00" cType="1" res="2.9708333313465118e-02" rms="2.2523216903209686e-01" purity="7.9157388210296631e-01" nType="-99"/>
          </Node>
          <Node pos="r" depth="2" NCoef="0" IVar="7" Cut="4.0249148011207581e-01" cType="1" res="-1.4878605725243688e-04" rms="1.7907524108886719e-01" purity="5.5743521451950073e-01" nType="0">
            <Node pos="l" depth="3" NCoef="0" IVar="-1" Cut="0.0000000000000000e+00" cType="1" res="-1.0802204720675945e-02" rms="1.7498071491718292e-01" purity="6.4666748046875000e-01" nType="-99"/>
            <Node pos="r" depth="3" NCoef="0" IVar="-1" Cut="0.0000000000000000e+00" cType="1" res="1.4894815161824226e-02" rms="1.8505327403545380e-01" purity="4.2092767357826233e-01" nType="-99"/>
          </Node>
        </Node>
        <Node pos="r" depth="1" NCoef="0" IVar="7" Cut="-7.8574651479721069e-01" cType="1" res="-3.4592233132570982e-03" rms="1.7937768995761871e-01" purity="4.7652733325958252e-01" nType="0">
          <Node pos="l" depth="2" NCoef="0" IVar="5" Cut="1.4761944580078125e+02" cType="1" res="-1.2334620580077171e-02" rms="1.8330587446689606e-01" purity="2.3705618083477020e-01" nType="0">
            <Node pos="l" depth="3" NCoef="0" IVar="-1" Cut="0.0000000000000000e+00" cType="1" res="1.6091780737042427e-02" rms="1.2867483496665955e-01" purity="4.1776176542043686e-02" nType="-99"/>
            <Node pos="r" depth="3" NCoef="0" IVar="-1" Cut="0.0000000000000000e+00" cType="1" res="-5.6719537824392319e-02" rms="2.3870009183883667e-01" purity="5.1372361183166504e-01" nType="-99"/>
          </Node>
          <Node pos="r" depth="2" NCoef="0" IVar="6" Cut="1.2168769836425781e+02" cType="1" res="-1.6938456101343036e-03" rms="1.7853344976902008e-01" purity="5.2415972948074341e-01" nType="0">
            <Node pos="l" depth="3" NCoef="0" IVar="-1" Cut="0.0000000000000000e+00" cType="1" res="-1.4160864055156708e-02" rms="1.8736675381660461e-01" purity="2.0667766034603119e-01" nType="-99"/>
            <Node pos="r" depth="3" NCoef="0" IVar="-1" Cut="0.0000000000000000e+00" cType="1" res="7.3514664545655251e-03" rms="1.6888615489006042e-01" purity="8.5040307044982910e-01" nType="-99"/>
          </Node>
        </Node>
      </Node>
    </BinaryTree>
    <BinaryTree type="DecisionTree" boostWeight="1.0000000000000000e+00" itree="609">
      <Node pos="s" depth="0" NCoef="0" IVar="11" Cut="-9.3129581212997437e-01" cType="1" res="6.1521708266809583e-04" rms="1.7781938612461090e-01" purity="4.9710687994956970e-01" nType="0">
        <Node pos="l" depth="1" NCoef="0" IVar="1" Cut="1.0712275654077530e-01" cType="1" res="7.8226123005151749e-03" rms="1.9391506910324097e-01" purity="4.7796249389648438e-01" nType="0">
          <Node pos="l" depth="2" NCoef="0" IVar="0" Cut="1.6223897705078125e+03" cType="1" res="1.1814578436315060e-02" rms="2.0398299396038055e-01" purity="3.4946763515472412e-01" nType="0">
            <Node pos="l" depth="3" NCoef="0" IVar="-1" Cut="0.0000000000000000e+00" cType="1" res="-2.3210693150758743e-02" rms="6.9154560565948486e-02" purity="4.9873157404363155e-03" nType="-99"/>
            <Node pos="r" depth="3" NCoef="0" IVar="-1" Cut="0.0000000000000000e+00" cType="1" res="3.1187860295176506e-02" rms="2.4508899450302124e-01" purity="5.2339369058609009e-01" nType="-99"/>
          </Node>
          <Node pos="r" depth="2" NCoef="0" IVar="-1" Cut="0.0000000000000000e+00" cType="1" res="-5.6077693589031696e-03" rms="1.6711053252220154e-01" purity="7.8423887491226196e-01" nType="-99"/>
        </Node>
        <Node pos="r" depth="1" NCoef="0" IVar="6" Cut="1.2665946197509766e+02" cType="1" res="-1.3842332409694791e-03" rms="1.7303597927093506e-01" purity="5.0241786241531372e-01" nType="0">
          <Node pos="l" depth="2" NCoef="0" IVar="5" Cut="2.1413218688964844e+02" cType="1" res="8.6194719187915325e-04" rms="1.8358333408832550e-01" purity="1.7956829071044922e-01" nType="0">
            <Node pos="l" depth="3" NCoef="0" IVar="-1" Cut="0.0000000000000000e+00" cType="1" res="-1.9853131379932165e-03" rms="1.7776362597942352e-01" purity="1.2206728011369705e-01" nType="-99"/>
            <Node pos="r" depth="3" NCoef="0" IVar="-1" Cut="0.0000000000000000e+00" cType="1" res="3.2482340931892395e-02" rms="2.3852811753749847e-01" purity="8.2203847169876099e-01" nType="-99"/>
          </Node>
          <Node pos="r" depth="2" NCoef="0" IVar="0" Cut="2.9976752929687500e+03" cType="1" res="-3.8250957150012255e-03" rms="1.6075637936592102e-01" purity="8.5324960947036743e-01" nType="0">
            <Node pos="l" depth="3" NCoef="0" IVar="-1" Cut="0.0000000000000000e+00" cType="1" res="-1.9366748631000519e-02" rms="2.4542683362960815e-01" purity="6.4207786321640015e-01" nType="-99"/>
            <Node pos="r" depth="3" NCoef="0" IVar="-1" Cut="0.0000000000000000e+00" cType="1" res="4.6643637120723724e-02" rms="4.7933187335729599e-02" purity="9.9728745222091675e-01" nType="-99"/>
          </Node>
        </Node>
      </Node>
    </BinaryTree>
    <BinaryTree type="DecisionTree" boostWeight="1.0000000000000000e+00" itree="610">
      <Node pos="s" depth="0" NCoef="0" IVar="8" Cut="1.4662702083587646e+00" cType="1" res="5.2263954421505332e-04" rms="1.7800302803516388e-01" purity="4.9723222851753235e-01" nType="0">
        <Node pos="l" depth="1" NCoef="0" IVar="10" Cut="1.3354682922363281e-01" cType="1" res="-1.3432708510663360e-04" rms="1.7841918766498566e-01" purity="5.2251213788986206e-01" nType="0">
          <Node pos="l" depth="2" NCoef="0" IVar="0" Cut="2.8629587402343750e+03" cType="1" res="2.2141102235764265e-03" rms="1.7897038161754608e-01" purity="5.2804189920425415e-01" nType="0">
            <Node pos="l" depth="3" NCoef="0" IVar="-1" Cut="0.0000000000000000e+00" cType="1" res="1.1088686063885689e-02" rms="2.1052303910255432e-01" purity="2.5357297062873840e-01" nType="-99"/>
            <Node pos="r" depth="3" NCoef="0" IVar="-1" Cut="0.0000000000000000e+00" cType="1" res="-2.4761423468589783e-02" rms="1.0796765238046646e-01" purity="9.8218488693237305e-01" nType="-99"/>
          </Node>
          <Node pos="r" depth="2" NCoef="0" IVar="9" Cut="9.3377107381820679e-01" cType="1" res="-2.9992584604769945e-03" rms="1.7770242691040039e-01" purity="5.1576614379882812e-01" nType="0">
            <Node pos="l" depth="3" NCoef="0" IVar="-1" Cut="0.0000000000000000e+00" cType="1" res="-1.4153959229588509e-02" rms="1.7193193733692169e-01" purity="5.4858529567718506e-01" nType="-99"/>
            <Node pos="r" depth="3" NCoef="0" IVar="-1" Cut="0.0000000000000000e+00" cType="1" res="9.5508145168423653e-03" rms="2.0026969909667969e-01" purity="3.7609612941741943e-01" nType="-99"/>
          </Node>
        </Node>
        <Node pos="r" depth="1" NCoef="0" IVar="1" Cut="2.9851280152797699e-02" cType="1" res="9.8061561584472656e-03" rms="1.7174622416496277e-01" purity="1.4000515639781952e-01" nType="0">
          <Node pos="l" depth="2" NCoef="0" IVar="-1" Cut="0.0000000000000000e+00" cType="1" res="-2.4174960330128670e-02" rms="1.2239572405815125e-01" purity="2.8728306293487549e-02" nType="-99"/>
          <Node pos="r" depth="2" NCoef="0" IVar="-1" Cut="0.0000000000000000e+00" cType="1" res="6.5892860293388367e-02" rms="2.2422806918621063e-01" purity="3.0456709861755371e-01" nType="-99"/>
        </Node>
      </Node>
    </BinaryTree>
    <BinaryTree type="DecisionTree" boostWeight="1.0000000000000000e+00" itree="611">
      <Node pos="s" depth="0" NCoef="0" IVar="9" Cut="-1.7326424121856689e+00" cType="1" res="4.1013534064404666e-04" rms="1.7727941274642944e-01" purity="4.9558553099632263e-01" nType="0">
        <Node pos="l" depth="1" NCoef="0" IVar="-1" Cut="0.0000000000000000e+00" cType="1" res="4.2929925024509430e-02" rms="1.9990834593772888e-01" purity="1.6716925799846649e-01" nType="-99"/>
        <Node pos="r" depth="1" NCoef="0" IVar="10" Cut="-1.7323213815689087e+00" cType="1" res="-2.6861927472054958e-04" rms="1.7606507241725922e-01" purity="5.1171678304672241e-01" nType="0">
          <Node pos="l" depth="2" NCoef="0" IVar="11" Cut="-3.9543321728706360e-01" cType="1" res="-1.3617772608995438e-02" rms="2.0012181997299194e-01" purity="2.7294489741325378e-01" nType="0">
            <Node pos="l" depth="3" NCoef="0" IVar="-1" Cut="0.0000000000000000e+00" cType="1" res="-4.6409044414758682e-02" rms="1.9411993026733398e-01" purity="2.3805911839008331e-01" nType="-99"/>
            <Node pos="r" depth="3" NCoef="0" IVar="-1" Cut="0.0000000000000000e+00" cType="1" res="-1.4364765025675297e-02" rms="2.0515006780624390e-01" purity="3.0395475029945374e-01" nType="-99"/>
          </Node>
          <Node pos="r" depth="2" NCoef="0" IVar="2" Cut="4.4371893310546875e+02" cType="1" res="5.2251591114327312e-04" rms="1.7450325191020966e-01" purity="5.2586758136749268e-01" nType="0">
            <Node pos="l" depth="3" NCoef="0" IVar="-1" Cut="0.0000000000000000e+00" cType="1" res="1.4515754766762257e-02" rms="1.8329469859600067e-01" purity="1.4054928719997406e-01" nType="-99"/>
            <Node pos="r" depth="3" NCoef="0" IVar="-1" Cut="0.0000000000000000e+00" cType="1" res="-3.4923108760267496e-03" rms="1.7097397148609161e-01" purity="6.7406153678894043e-01" nType="-99"/>
          </Node>
        </Node>
      </Node>
    </BinaryTree>
    <BinaryTree type="DecisionTree" boostWeight="1.0000000000000000e+00" itree="612">
      <Node pos="s" depth="0" NCoef="0" IVar="9" Cut="1.3315311074256897e-01" cType="1" res="1.2849667109549046e-03" rms="1.8041692674160004e-01" purity="5.0637948513031006e-01" nType="0">
        <Node pos="l" depth="1" NCoef="0" IVar="2" Cut="1.0561984863281250e+03" cType="1" res="-1.4078021049499512e-03" rms="1.7821314930915833e-01" purity="5.0920671224594116e-01" nType="0">
          <Node pos="l" depth="2" NCoef="0" IVar="7" Cut="1.2502262592315674e+00" cType="1" res="-7.5806671520695090e-04" rms="1.7784315347671509e-01" purity="4.8966428637504578e-01" nType="0">
            <Node pos="l" depth="3" NCoef="0" IVar="-1" Cut="0.0000000000000000e+00" cType="1" res="2.5198596995323896e-04" rms="1.8246917426586151e-01" purity="5.2206552028656006e-01" nType="-99"/>
            <Node pos="r" depth="3" NCoef="0" IVar="-1" Cut="0.0000000000000000e+00" cType="1" res="-6.5728411078453064e-02" rms="1.0639616847038269e-01" purity="9.7102783620357513e-02" nType="-99"/>
          </Node>
          <Node pos="r" depth="2" NCoef="0" IVar="-1" Cut="0.0000000000000000e+00" cType="1" res="-5.1361404359340668e-02" rms="1.8531021475791931e-01" purity="9.2105144262313843e-01" nType="-99"/>
        </Node>
        <Node pos="r" depth="1" NCoef="0" IVar="7" Cut="1.7052206397056580e-01" cType="1" res="4.6055633574724197e-03" rms="1.8304345011711121e-01" purity="5.0289314985275269e-01" nType="0">
          <Node pos="l" depth="2" NCoef="0" IVar="2" Cut="4.4434588623046875e+02" cType="1" res="7.8027457930147648e-03" rms="1.8784864246845245e-01" purity="5.2952873706817627e-01" nType="0">
            <Node pos="l" depth="3" NCoef="0" IVar="-1" Cut="0.0000000000000000e+00" cType="1" res="5.0763092935085297e-02" rms="2.0785276591777802e-01" purity="1.7158365249633789e-01" nType="-99"/>
            <Node pos="r" depth="3" NCoef="0" IVar="-1" Cut="0.0000000000000000e+00" cType="1" res="1.3113715685904026e-02" rms="1.8052248656749725e-01" purity="6.4948588609695435e-01" nType="-99"/>
          </Node>
          <Node pos="r" depth="2" NCoef="0" IVar="11" Cut="-6.6876327991485596e-01" cType="1" res="3.4344641608186066e-04" rms="1.7634420096874237e-01" purity="4.6738567948341370e-01" nType="0">
            <Node pos="l" depth="3" NCoef="0" IVar="-1" Cut="0.0000000000000000e+00" cType="1" res="-2.4681778624653816e-02" rms="1.7983776330947876e-01" purity="4.7249528765678406e-01" nType="-99"/>
            <Node pos="r" depth="3" NCoef="0" IVar="-1" Cut="0.0000000000000000e+00" cType="1" res="1.1461854912340641e-02" rms="1.7504377663135529e-01" purity="4.6566936373710632e-01" nType="-99"/>
          </Node>
        </Node>
      </Node>
    </BinaryTree>
    <BinaryTree type="DecisionTree" boostWeight="1.0000000000000000e+00" itree="613">
      <Node pos="s" depth="0" NCoef="0" IVar="8" Cut="6.6906565427780151e-01" cType="1" res="-7.1192503673955798e-04" rms="1.7967250943183899e-01" purity="4.9892559647560120e-01" nType="0">
        <Node pos="l" depth="1" NCoef="0" IVar="3" Cut="2.6398623657226562e+02" cType="1" res="5.0858949543908238e-04" rms="1.8009749054908752e-01" purity="5.4296088218688965e-01" nType="0">
          <Node pos="l" depth="2" NCoef="0" IVar="6" Cut="1.1547048187255859e+02" cType="1" res="5.5538495071232319e-03" rms="1.6398561000823975e-01" purity="6.2823943793773651e-02" nType="0">
            <Node pos="l" depth="3" NCoef="0" IVar="-1" Cut="0.0000000000000000e+00" cType="1" res="-2.0913270418532193e-04" rms="1.3134832680225372e-01" purity="2.4393389001488686e-02" nType="-99"/>
            <Node pos="r" depth="3" NCoef="0" IVar="-1" Cut="0.0000000000000000e+00" cType="1" res="5.2535302937030792e-02" rms="2.4260893464088440e-01" purity="1.9210763275623322e-01" nType="-99"/>
          </Node>
          <Node pos="r" depth="2" NCoef="0" IVar="8" Cut="-1.4717483520507812e+00" cType="1" res="-1.0733866365626454e-03" rms="1.8483215570449829e-01" purity="6.9351112842559814e-01" nType="0">
            <Node pos="l" depth="3" NCoef="0" IVar="-1" Cut="0.0000000000000000e+00" cType="1" res="-3.5664726048707962e-02" rms="1.9269259274005890e-01" purity="2.0473887026309967e-01" nType="-99"/>
            <Node pos="r" depth="3" NCoef="0" IVar="-1" Cut="0.0000000000000000e+00" cType="1" res="-6.0845009284093976e-04" rms="1.8432231247425079e-01" purity="7.2233641147613525e-01" nType="-99"/>
          </Node>
        </Node>
        <Node pos="r" depth="1" NCoef="0" IVar="4" Cut="2.4144860839843750e+02" cType="1" res="-4.6826684847474098e-03" rms="1.7822507023811340e-01" purity="3.5566404461860657e-01" nType="0">
          <Node pos="l" depth="2" NCoef="0" IVar="0" Cut="1.8936968994140625e+03" cType="1" res="-8.6731016635894775e-03" rms="1.6260007023811340e-01" purity="8.8666729629039764e-02" nType="0">
            <Node pos="l" depth="3" NCoef="0" IVar="-1" Cut="0.0000000000000000e+00" cType="1" res="-2.6593357324600220e-02" rms="9.7393237054347992e-02" purity="1.0338268242776394e-02" nType="-99"/>
            <Node pos="r" depth="3" NCoef="0" IVar="-1" Cut="0.0000000000000000e+00" cType="1" res="-3.0677994713187218e-02" rms="3.0236935615539551e-01" purity="3.9157757163047791e-01" nType="-99"/>
          </Node>
          <Node pos="r" depth="2" NCoef="0" IVar="9" Cut="1.6006936132907867e-01" cType="1" res="1.6853321576490998e-03" rms="2.0049078762531281e-01" purity="7.8174287080764771e-01" nType="0">
            <Node pos="l" depth="3" NCoef="0" IVar="-1" Cut="0.0000000000000000e+00" cType="1" res="-1.1593165807425976e-02" rms="1.9886805117130280e-01" purity="7.6700448989868164e-01" nType="-99"/>
            <Node pos="r" depth="3" NCoef="0" IVar="-1" Cut="0.0000000000000000e+00" cType="1" res="2.3867385461926460e-02" rms="2.0218025147914886e-01" purity="8.0045002698898315e-01" nType="-99"/>
          </Node>
        </Node>
      </Node>
    </BinaryTree>
    <BinaryTree type="DecisionTree" boostWeight="1.0000000000000000e+00" itree="614">
      <Node pos="s" depth="0" NCoef="0" IVar="2" Cut="4.2435952758789062e+02" cType="1" res="-5.9880851040361449e-05" rms="1.7629632353782654e-01" purity="5.0544804334640503e-01" nType="0">
        <Node pos="l" depth="1" NCoef="0" IVar="1" Cut="1.3305029273033142e-01" cType="1" res="-5.0017074681818485e-03" rms="1.6887380182743073e-01" purity="1.0759044438600540e-01" nType="0">
          <Node pos="l" depth="2" NCoef="0" IVar="0" Cut="1.7998817138671875e+03" cType="1" res="-2.6009364519268274e-03" rms="1.6235420107841492e-01" purity="7.5243271887302399e-02" nType="0">
            <Node pos="l" depth="3" NCoef="0" IVar="-1" Cut="0.0000000000000000e+00" cType="1" res="2.6294332928955555e-03" rms="1.0201051831245422e-01" purity="1.1431198567152023e-02" nType="-99"/>
            <Node pos="r" depth="3" NCoef="0" IVar="-1" Cut="0.0000000000000000e+00" cType="1" res="-1.5295802615582943e-02" rms="3.4287384152412415e-01" purity="4.4134035706520081e-01" nType="-99"/>
          </Node>
          <Node pos="r" depth="2" NCoef="0" IVar="-1" Cut="0.0000000000000000e+00" cType="1" res="-3.3997680991888046e-02" rms="2.0709222555160522e-01" purity="3.2739701867103577e-01" nType="-99"/>
        </Node>
        <Node pos="r" depth="1" NCoef="0" IVar="4" Cut="2.3722004699707031e+02" cType="1" res="1.5894721727818251e-03" rms="1.7867459356784821e-01" purity="6.3823443651199341e-01" nType="0">
          <Node pos="l" depth="2" NCoef="0" IVar="11" Cut="-9.3228191137313843e-01" cType="1" res="4.5644999481737614e-03" rms="2.0238620042800903e-01" purity="1.7265868186950684e-01" nType="0">
            <Node pos="l" depth="3" NCoef="0" IVar="-1" Cut="0.0000000000000000e+00" cType="1" res="3.1086010858416557e-02" rms="2.1084728837013245e-01" purity="1.8604710698127747e-01" nType="-99"/>
            <Node pos="r" depth="3" NCoef="0" IVar="-1" Cut="0.0000000000000000e+00" cType="1" res="3.3932707738131285e-03" rms="1.9905191659927368e-01" purity="1.6767688095569611e-01" nType="-99"/>
          </Node>
          <Node pos="r" depth="2" NCoef="0" IVar="0" Cut="2.2649272460937500e+03" cType="1" res="-1.0600026143947616e-04" rms="1.6360718011856079e-01" purity="9.0356677770614624e-01" nType="0">
            <Node pos="l" depth="3" NCoef="0" IVar="-1" Cut="0.0000000000000000e+00" cType="1" res="-1.6503946855664253e-02" rms="3.1223344802856445e-01" purity="2.3858632147312164e-01" nType="-99"/>
            <Node pos="r" depth="3" NCoef="0" IVar="-1" Cut="0.0000000000000000e+00" cType="1" res="6.5139732323586941e-03" rms="1.4311574399471283e-01" purity="9.6237522363662720e-01" nType="-99"/>
          </Node>
        </Node>
      </Node>
    </BinaryTree>
    <BinaryTree type="DecisionTree" boostWeight="1.0000000000000000e+00" itree="615">
      <Node pos="s" depth="0" NCoef="0" IVar="2" Cut="1.0016356811523438e+03" cType="1" res="2.5187392020598054e-04" rms="1.7796593904495239e-01" purity="5.0046497583389282e-01" nType="0">
        <Node pos="l" depth="1" NCoef="0" IVar="10" Cut="1.4664541482925415e+00" cType="1" res="7.6696916949003935e-04" rms="1.7728732526302338e-01" purity="4.7280305624008179e-01" nType="0">
          <Node pos="l" depth="2" NCoef="0" IVar="7" Cut="-3.0283802747726440e-01" cType="1" res="1.8473489035386592e-04" rms="1.7456538975238800e-01" purity="4.9073854088783264e-01" nType="0">
            <Node pos="l" depth="3" NCoef="0" IVar="-1" Cut="0.0000000000000000e+00" cType="1" res="-6.7895343527197838e-03" rms="1.8055969476699829e-01" purity="4.3190798163414001e-01" nType="-99"/>
            <Node pos="r" depth="3" NCoef="0" IVar="-1" Cut="0.0000000000000000e+00" cType="1" res="4.8168576322495937e-03" rms="1.7111037671566010e-01" purity="5.2361190319061279e-01" nType="-99"/>
          </Node>
          <Node pos="r" depth="2" NCoef="0" IVar="4" Cut="1.5686604309082031e+02" cType="1" res="6.3930661417543888e-03" rms="2.0161917805671692e-01" purity="2.9949337244033813e-01" nType="0">
            <Node pos="l" depth="3" NCoef="0" IVar="-1" Cut="0.0000000000000000e+00" cType="1" res="-4.3606262654066086e-02" rms="1.2088281661272049e-01" purity="2.0590560510754585e-02" nType="-99"/>
            <Node pos="r" depth="3" NCoef="0" IVar="-1" Cut="0.0000000000000000e+00" cType="1" res="2.4635443463921547e-02" rms="2.2919826209545135e-01" purity="4.2831513285636902e-01" nType="-99"/>
          </Node>
        </Node>
        <Node pos="r" depth="1" NCoef="0" IVar="9" Cut="-1.3277158141136169e-01" cType="1" res="-7.2851879522204399e-03" rms="1.8745328485965729e-01" purity="9.0522420406341553e-01" nType="0">
          <Node pos="l" depth="2" NCoef="0" IVar="-1" Cut="0.0000000000000000e+00" cType="1" res="8.3002783358097076e-03" rms="1.7957568168640137e-01" purity="9.2039197683334351e-01" nType="-99"/>
          <Node pos="r" depth="2" NCoef="0" IVar="-1" Cut="0.0000000000000000e+00" cType="1" res="-4.7213632613420486e-02" rms="1.9270554184913635e-01" purity="8.9401066303253174e-01" nType="-99"/>
        </Node>
      </Node>
    </BinaryTree>
    <BinaryTree type="DecisionTree" boostWeight="1.0000000000000000e+00" itree="616">
      <Node pos="s" depth="0" NCoef="0" IVar="8" Cut="1.4656695127487183e+00" cType="1" res="-6.9223059108480811e-04" rms="1.7722223699092865e-01" purity="5.0295895338058472e-01" nType="0">
        <Node pos="l" depth="1" NCoef="0" IVar="7" Cut="-2.5930121541023254e-02" cType="1" res="5.6526077969465405e-05" rms="1.7853823304176331e-01" purity="5.3150713443756104e-01" nType="0">
          <Node pos="l" depth="2" NCoef="0" IVar="2" Cut="7.7304016113281250e+02" cType="1" res="-2.7000945992767811e-03" rms="1.8075677752494812e-01" purity="5.3068959712982178e-01" nType="0">
            <Node pos="l" depth="3" NCoef="0" IVar="-1" Cut="0.0000000000000000e+00" cType="1" res="-1.3190786354243755e-02" rms="1.8335716426372528e-01" purity="4.3663763999938965e-01" nType="-99"/>
            <Node pos="r" depth="3" NCoef="0" IVar="-1" Cut="0.0000000000000000e+00" cType="1" res="1.4197948388755322e-02" rms="1.7048628628253937e-01" purity="8.8264763355255127e-01" nType="-99"/>
          </Node>
          <Node pos="r" depth="2" NCoef="0" IVar="11" Cut="1.7305028438568115e+00" cType="1" res="2.6091695763170719e-03" rms="1.7642058432102203e-01" purity="5.3226423263549805e-01" nType="0">
            <Node pos="l" depth="3" NCoef="0" IVar="-1" Cut="0.0000000000000000e+00" cType="1" res="4.9579809419810772e-03" rms="1.7170517146587372e-01" purity="5.4004293680191040e-01" nType="-99"/>
            <Node pos="r" depth="3" NCoef="0" IVar="-1" Cut="0.0000000000000000e+00" cType="1" res="3.8704574108123779e-02" rms="2.3046554625034332e-01" purity="4.2706567049026489e-01" nType="-99"/>
          </Node>
        </Node>
        <Node pos="r" depth="1" NCoef="0" IVar="5" Cut="1.3359669494628906e+02" cType="1" res="-1.0921496897935867e-02" rms="1.5779505670070648e-01" purity="1.1294245719909668e-01" nType="0">
          <Node pos="l" depth="2" NCoef="0" IVar="-1" Cut="0.0000000000000000e+00" cType="1" res="1.2475012801587582e-02" rms="1.0689464956521988e-01" purity="1.4560813084244728e-02" nType="-99"/>
          <Node pos="r" depth="2" NCoef="0" IVar="-1" Cut="0.0000000000000000e+00" cType="1" res="-5.3217153996229172e-02" rms="2.0218767225742340e-01" purity="2.3249058425426483e-01" nType="-99"/>
        </Node>
      </Node>
    </BinaryTree>
    <BinaryTree type="DecisionTree" boostWeight="1.0000000000000000e+00" itree="617">
      <Node pos="s" depth="0" NCoef="0" IVar="8" Cut="6.6679847240447998e-01" cType="1" res="-2.1872806828469038e-03" rms="1.7992788553237915e-01" purity="4.9746415019035339e-01" nType="0">
        <Node pos="l" depth="1" NCoef="0" IVar="8" Cut="1.7178829014301300e-01" cType="1" res="-3.5120772663503885e-03" rms="1.7898567020893097e-01" purity="5.3569674491882324e-01" nType="0">
          <Node pos="l" depth="2" NCoef="0" IVar="10" Cut="1.3413773477077484e-01" cType="1" res="-1.3645779108628631e-03" rms="1.7864730954170227e-01" purity="5.1165062189102173e-01" nType="0">
            <Node pos="l" depth="3" NCoef="0" IVar="-1" Cut="0.0000000000000000e+00" cType="1" res="2.9315217398107052e-03" rms="1.7362323403358459e-01" purity="5.1059174537658691e-01" nType="-99"/>
            <Node pos="r" depth="3" NCoef="0" IVar="-1" Cut="0.0000000000000000e+00" cType="1" res="-1.2769604101777077e-02" rms="1.8499241769313812e-01" purity="5.1304090023040771e-01" nType="-99"/>
          </Node>
          <Node pos="r" depth="2" NCoef="0" IVar="10" Cut="-9.2799955606460571e-01" cType="1" res="-1.0282124392688274e-02" rms="1.7988047003746033e-01" purity="6.1150258779525757e-01" nType="0">
            <Node pos="l" depth="3" NCoef="0" IVar="-1" Cut="0.0000000000000000e+00" cType="1" res="-5.8342967182397842e-02" rms="2.1140448749065399e-01" purity="5.3946691751480103e-01" nType="-99"/>
            <Node pos="r" depth="3" NCoef="0" IVar="-1" Cut="0.0000000000000000e+00" cType="1" res="-2.3654462769627571e-02" rms="1.7185232043266296e-01" purity="6.2768274545669556e-01" nType="-99"/>
          </Node>
        </Node>
        <Node pos="r" depth="1" NCoef="0" IVar="11" Cut="-3.9843592047691345e-01" cType="1" res="2.0491627510637045e-03" rms="1.8284389376640320e-01" purity="3.7520387768745422e-01" nType="0">
          <Node pos="l" depth="2" NCoef="0" IVar="10" Cut="-1.3254168629646301e-01" cType="1" res="-5.3911092691123486e-03" rms="1.8497283756732941e-01" purity="3.7890902161598206e-01" nType="0">
            <Node pos="l" depth="3" NCoef="0" IVar="-1" Cut="0.0000000000000000e+00" cType="1" res="-3.9850942790508270e-02" rms="1.9380129873752594e-01" purity="3.6752665042877197e-01" nType="-99"/>
            <Node pos="r" depth="3" NCoef="0" IVar="-1" Cut="0.0000000000000000e+00" cType="1" res="8.4001850336790085e-03" rms="1.7716132104396820e-01" purity="3.8800224661827087e-01" nType="-99"/>
          </Node>
          <Node pos="r" depth="2" NCoef="0" IVar="11" Cut="3.6279156804084778e-01" cType="1" res="5.8773397468030453e-03" rms="1.8162006139755249e-01" purity="3.7329748272895813e-01" nType="0">
            <Node pos="l" depth="3" NCoef="0" IVar="-1" Cut="0.0000000000000000e+00" cType="1" res="4.9654245376586914e-02" rms="1.8099555373191833e-01" purity="4.4360384345054626e-01" nType="-99"/>
            <Node pos="r" depth="3" NCoef="0" IVar="-1" Cut="0.0000000000000000e+00" cType="1" res="2.6263941545039415e-03" rms="1.8174546957015991e-01" purity="3.3645063638687134e-01" nType="-99"/>
          </Node>
        </Node>
      </Node>
    </BinaryTree>
    <BinaryTree type="DecisionTree" boostWeight="1.0000000000000000e+00" itree="618">
      <Node pos="s" depth="0" NCoef="0" IVar="10" Cut="-1.4664084911346436e+00" cType="1" res="-6.2699528643861413e-04" rms="1.8144792318344116e-01" purity="5.0218671560287476e-01" nType="0">
        <Node pos="l" depth="1" NCoef="0" IVar="8" Cut="-4.0616706013679504e-01" cType="1" res="-1.1216441169381142e-02" rms="2.0146594941616058e-01" purity="3.0847674608230591e-01" nType="0">
          <Node pos="l" depth="2" NCoef="0" IVar="-1" Cut="0.0000000000000000e+00" cType="1" res="-5.1378499716520309e-02" rms="1.7829863727092743e-01" purity="2.3005677759647369e-01" nType="-99"/>
          <Node pos="r" depth="2" NCoef="0" IVar="9" Cut="-1.4119791984558105e-01" cType="1" res="-2.7951439842581749e-03" rms="2.1686983108520508e-01" purity="3.6738726496696472e-01" nType="0">
            <Node pos="l" depth="3" NCoef="0" IVar="-1" Cut="0.0000000000000000e+00" cType="1" res="1.2728749774396420e-02" rms="2.0669502019882202e-01" purity="3.4765005111694336e-01" nType="-99"/>
            <Node pos="r" depth="3" NCoef="0" IVar="-1" Cut="0.0000000000000000e+00" cType="1" res="-2.3007713258266449e-02" rms="2.2640989720821381e-01" purity="3.8745930790901184e-01" nType="-99"/>
          </Node>
        </Node>
        <Node pos="r" depth="1" NCoef="0" IVar="11" Cut="-1.7333372831344604e+00" cType="1" res="4.7979046939872205e-04" rms="1.7919056117534637e-01" purity="5.2243280410766602e-01" nType="0">
          <Node pos="l" depth="2" NCoef="0" IVar="0" Cut="1.8126163330078125e+03" cType="1" res="1.0538885369896889e-02" rms="2.1379481256008148e-01" purity="3.8946160674095154e-01" nType="0">
            <Node pos="l" depth="3" NCoef="0" IVar="-1" Cut="0.0000000000000000e+00" cType="1" res="1.5257660299539566e-02" rms="1.3124886155128479e-01" purity="1.9530074670910835e-02" nType="-99"/>
            <Node pos="r" depth="3" NCoef="0" IVar="-1" Cut="0.0000000000000000e+00" cType="1" res="2.6305323466658592e-02" rms="2.6788890361785889e-01" purity="7.2940242290496826e-01" nType="-99"/>
          </Node>
          <Node pos="r" depth="2" NCoef="0" IVar="8" Cut="-1.7304044961929321e+00" cType="1" res="-2.7827045414596796e-04" rms="1.7628450691699982e-01" purity="5.3245359659194946e-01" nType="0">
            <Node pos="l" depth="3" NCoef="0" IVar="-1" Cut="0.0000000000000000e+00" cType="1" res="5.7226199656724930e-02" rms="1.9330836832523346e-01" purity="8.2343704998493195e-02" nType="-99"/>
            <Node pos="r" depth="3" NCoef="0" IVar="-1" Cut="0.0000000000000000e+00" cType="1" res="-2.3462681565433741e-03" rms="1.7563328146934509e-01" purity="5.4840862751007080e-01" nType="-99"/>
          </Node>
        </Node>
      </Node>
    </BinaryTree>
    <BinaryTree type="DecisionTree" boostWeight="1.0000000000000000e+00" itree="619">
      <Node pos="s" depth="0" NCoef="0" IVar="10" Cut="-1.7320399284362793e+00" cType="1" res="2.8837003628723323e-04" rms="1.8186144530773163e-01" purity="5.0010883808135986e-01" nType="0">
        <Node pos="l" depth="1" NCoef="0" IVar="10" Cut="-1.9862375259399414e+00" cType="1" res="1.0028029792010784e-02" rms="2.2049711644649506e-01" purity="2.7804279327392578e-01" nType="0">
          <Node pos="l" depth="2" NCoef="0" IVar="-1" Cut="0.0000000000000000e+00" cType="1" res="1.1733655817806721e-02" rms="2.2107557952404022e-01" purity="2.1549883484840393e-01" nType="-99"/>
          <Node pos="r" depth="2" NCoef="0" IVar="-1" Cut="0.0000000000000000e+00" cType="1" res="3.3010225743055344e-02" rms="2.1960231661796570e-01" purity="3.5795462131500244e-01" nType="-99"/>
        </Node>
        <Node pos="r" depth="1" NCoef="0" IVar="8" Cut="-1.4653415679931641e+00" cType="1" res="-3.2459257636219263e-04" rms="1.7913374304771423e-01" purity="5.1408445835113525e-01" nType="0">
          <Node pos="l" depth="2" NCoef="0" IVar="9" Cut="-1.3437835872173309e-01" cType="1" res="7.8055951744318008e-03" rms="1.7404296994209290e-01" purity="1.2057611346244812e-01" nType="0">
            <Node pos="l" depth="3" NCoef="0" IVar="-1" Cut="0.0000000000000000e+00" cType="1" res="-4.4324989430606365e-03" rms="1.4582152664661407e-01" purity="1.1658980697393417e-01" nType="-99"/>
            <Node pos="r" depth="3" NCoef="0" IVar="-1" Cut="0.0000000000000000e+00" cType="1" res="5.4777823388576508e-02" rms="1.9746443629264832e-01" purity="1.2448640912771225e-01" nType="-99"/>
          </Node>
          <Node pos="r" depth="2" NCoef="0" IVar="5" Cut="2.2303224182128906e+02" cType="1" res="-9.1236457228660583e-04" rms="1.7948190867900848e-01" purity="5.4253315925598145e-01" nType="0">
            <Node pos="l" depth="3" NCoef="0" IVar="-1" Cut="0.0000000000000000e+00" cType="1" res="-6.6565824672579765e-03" rms="2.0267111063003540e-01" purity="2.7999973297119141e-01" nType="-99"/>
            <Node pos="r" depth="3" NCoef="0" IVar="-1" Cut="0.0000000000000000e+00" cType="1" res="1.1160816065967083e-02" rms="1.3436718285083771e-01" purity="9.6157646179199219e-01" nType="-99"/>
          </Node>
        </Node>
      </Node>
    </BinaryTree>
    <BinaryTree type="DecisionTree" boostWeight="1.0000000000000000e+00" itree="620">
      <Node pos="s" depth="0" NCoef="0" IVar="1" Cut="2.1680036559700966e-02" cType="1" res="-5.3348625078797340e-04" rms="1.7672671377658844e-01" purity="5.0229525566101074e-01" nType="0">
        <Node pos="l" depth="1" NCoef="0" IVar="0" Cut="2.1315441894531250e+03" cType="1" res="-6.6850152797996998e-03" rms="1.4317514002323151e-01" purity="7.9251728951931000e-02" nType="0">
          <Node pos="l" depth="2" NCoef="0" IVar="10" Cut="1.1988847255706787e+00" cType="1" res="2.0519543613772839e-04" rms="8.0022580921649933e-02" purity="7.4545382522046566e-03" nType="0">
            <Node pos="l" depth="3" NCoef="0" IVar="-1" Cut="0.0000000000000000e+00" cType="1" res="2.1898902952671051e-02" rms="8.3623804152011871e-02" purity="8.2158893346786499e-03" nType="-99"/>
            <Node pos="r" depth="3" NCoef="0" IVar="-1" Cut="0.0000000000000000e+00" cType="1" res="-5.4612550884485245e-02" rms="6.3637614250183105e-02" purity="4.4463789090514183e-03" nType="-99"/>
          </Node>
          <Node pos="r" depth="2" NCoef="0" IVar="-1" Cut="0.0000000000000000e+00" cType="1" res="-4.4594541192054749e-02" rms="3.0250325798988342e-01" purity="4.4858852028846741e-01" nType="-99"/>
        </Node>
        <Node pos="r" depth="1" NCoef="0" IVar="9" Cut="1.7339843511581421e+00" cType="1" res="9.4587821513414383e-04" rms="1.8385386466979980e-01" purity="6.0403180122375488e-01" nType="0">
          <Node pos="l" depth="2" NCoef="0" IVar="7" Cut="-3.6422175168991089e-01" cType="1" res="3.8432062137871981e-04" rms="1.8276245892047882e-01" purity="6.1657536029815674e-01" nType="0">
            <Node pos="l" depth="3" NCoef="0" IVar="-1" Cut="0.0000000000000000e+00" cType="1" res="1.3098235242068768e-02" rms="1.9999213516712189e-01" purity="5.5042189359664917e-01" nType="-99"/>
            <Node pos="r" depth="3" NCoef="0" IVar="-1" Cut="0.0000000000000000e+00" cType="1" res="-5.2403137087821960e-03" rms="1.7482872307300568e-01" purity="6.4488631486892700e-01" nType="-99"/>
          </Node>
          <Node pos="r" depth="2" NCoef="0" IVar="-1" Cut="0.0000000000000000e+00" cType="1" res="3.9394561201334000e-02" rms="2.1260873973369598e-01" purity="2.3793798685073853e-01" nType="-99"/>
        </Node>
      </Node>
    </BinaryTree>
    <BinaryTree type="DecisionTree" boostWeight="1.0000000000000000e+00" itree="621">
      <Node pos="s" depth="0" NCoef="0" IVar="1" Cut="1.2854777276515961e-01" cType="1" res="7.4828794458881021e-04" rms="1.7863313853740692e-01" purity="5.0039684772491455e-01" nType="0">
        <Node pos="l" depth="1" NCoef="0" IVar="6" Cut="1.7759588623046875e+02" cType="1" res="2.0200833678245544e-03" rms="1.8763612210750580e-01" purity="3.9528158307075500e-01" nType="0">
          <Node pos="l" depth="2" NCoef="0" IVar="5" Cut="1.3748683166503906e+02" cType="1" res="3.2192459329962730e-03" rms="1.9585943222045898e-01" purity="2.6874998211860657e-01" nType="0">
            <Node pos="l" depth="3" NCoef="0" IVar="-1" Cut="0.0000000000000000e+00" cType="1" res="1.3787242351099849e-03" rms="1.5169793367385864e-01" purity="6.4079724252223969e-02" nType="-99"/>
            <Node pos="r" depth="3" NCoef="0" IVar="-1" Cut="0.0000000000000000e+00" cType="1" res="1.1299711652100086e-02" rms="2.3525305092334747e-01" purity="4.9547421932220459e-01" nType="-99"/>
          </Node>
          <Node pos="r" depth="2" NCoef="0" IVar="10" Cut="-3.8208428025245667e-01" cType="1" res="-3.1247655861079693e-03" rms="1.4712090790271759e-01" purity="9.3814873695373535e-01" nType="0">
            <Node pos="l" depth="3" NCoef="0" IVar="-1" Cut="0.0000000000000000e+00" cType="1" res="2.8347812592983246e-02" rms="1.4885890483856201e-01" purity="9.4016706943511963e-01" nType="-99"/>
            <Node pos="r" depth="3" NCoef="0" IVar="-1" Cut="0.0000000000000000e+00" cType="1" res="-3.8552854210138321e-02" rms="1.4596851170063019e-01" purity="9.3712759017944336e-01" nType="-99"/>
          </Node>
        </Node>
        <Node pos="r" depth="1" NCoef="0" IVar="0" Cut="2.1238066406250000e+03" cType="1" res="-3.3639732282608747e-03" rms="1.4568926393985748e-01" purity="8.4027969837188721e-01" nType="0">
          <Node pos="l" depth="2" NCoef="0" IVar="-1" Cut="0.0000000000000000e+00" cType="1" res="-2.8455864638090134e-02" rms="2.4785460531711578e-01" purity="1.1078333109617233e-01" nType="-99"/>
          <Node pos="r" depth="2" NCoef="0" IVar="2" Cut="6.2877563476562500e+02" cType="1" res="1.7364490486215800e-04" rms="1.1492680758237839e-01" purity="9.8436456918716431e-01" nType="0">
            <Node pos="l" depth="3" NCoef="0" IVar="-1" Cut="0.0000000000000000e+00" cType="1" res="1.1558329686522484e-02" rms="1.4160037040710449e-01" purity="9.7687238454818726e-01" nType="-99"/>
            <Node pos="r" depth="3" NCoef="0" IVar="-1" Cut="0.0000000000000000e+00" cType="1" res="-2.2983152419328690e-02" rms="8.8693842291831970e-02" purity="9.9020564556121826e-01" nType="-99"/>
          </Node>
        </Node>
      </Node>
    </BinaryTree>
    <BinaryTree type="DecisionTree" boostWeight="1.0000000000000000e+00" itree="622">
      <Node pos="s" depth="0" NCoef="0" IVar="1" Cut="6.0371898114681244e-02" cType="1" res="6.8880431354045868e-04" rms="1.7940820753574371e-01" purity="5.0477308034896851e-01" nType="0">
        <Node pos="l" depth="1" NCoef="0" IVar="10" Cut="-3.9911952614784241e-01" cType="1" res="3.0200809706002474e-03" rms="1.8186828494071960e-01" purity="2.4699787795543671e-01" nType="0">
          <Node pos="l" depth="2" NCoef="0" IVar="11" Cut="1.3031347095966339e-01" cType="1" res="-2.5605077389627695e-03" rms="1.7219461500644684e-01" purity="2.2524239122867584e-01" nType="0">
            <Node pos="l" depth="3" NCoef="0" IVar="-1" Cut="0.0000000000000000e+00" cType="1" res="-2.5926172733306885e-02" rms="1.6877438127994537e-01" purity="2.1759676933288574e-01" nType="-99"/>
            <Node pos="r" depth="3" NCoef="0" IVar="-1" Cut="0.0000000000000000e+00" cType="1" res="1.7610808834433556e-02" rms="1.7669700086116791e-01" purity="2.3633410036563873e-01" nType="-99"/>
          </Node>
          <Node pos="r" depth="2" NCoef="0" IVar="0" Cut="2.1194326171875000e+03" cType="1" res="6.3775032758712769e-03" rms="1.8736778199672699e-01" purity="2.6008656620979309e-01" nType="0">
            <Node pos="l" depth="3" NCoef="0" IVar="-1" Cut="0.0000000000000000e+00" cType="1" res="1.4432045631110668e-02" rms="1.3037638366222382e-01" purity="2.2478621453046799e-02" nType="-99"/>
            <Node pos="r" depth="3" NCoef="0" IVar="-1" Cut="0.0000000000000000e+00" cType="1" res="2.0589837804436684e-02" rms="2.7253511548042297e-01" purity="7.7551716566085815e-01" nType="-99"/>
          </Node>
        </Node>
        <Node pos="r" depth="1" NCoef="0" IVar="9" Cut="4.0326327085494995e-01" cType="1" res="-1.3449690304696560e-03" rms="1.7720912396907806e-01" purity="7.2965264320373535e-01" nType="0">
          <Node pos="l" depth="2" NCoef="0" IVar="10" Cut="-1.4587302207946777e+00" cType="1" res="-3.6896222736686468e-03" rms="1.7072260379791260e-01" purity="7.3891359567642212e-01" nType="0">
            <Node pos="l" depth="3" NCoef="0" IVar="-1" Cut="0.0000000000000000e+00" cType="1" res="-2.7691792696714401e-02" rms="2.2837366163730621e-01" purity="5.6304258108139038e-01" nType="-99"/>
            <Node pos="r" depth="3" NCoef="0" IVar="-1" Cut="0.0000000000000000e+00" cType="1" res="-8.8174184784293175e-03" rms="1.6472050547599792e-01" purity="7.5417393445968628e-01" nType="-99"/>
          </Node>
          <Node pos="r" depth="2" NCoef="0" IVar="3" Cut="3.1953976440429688e+02" cType="1" res="3.5894631873816252e-03" rms="1.9004431366920471e-01" purity="7.1016269922256470e-01" nType="0">
            <Node pos="l" depth="3" NCoef="0" IVar="-1" Cut="0.0000000000000000e+00" cType="1" res="2.8442889451980591e-02" rms="2.4282541871070862e-01" purity="2.3720705509185791e-01" nType="-99"/>
            <Node pos="r" depth="3" NCoef="0" IVar="-1" Cut="0.0000000000000000e+00" cType="1" res="-2.4733901955187321e-03" rms="1.6471090912818909e-01" purity="8.9481943845748901e-01" nType="-99"/>
          </Node>
        </Node>
      </Node>
    </BinaryTree>
    <BinaryTree type="DecisionTree" boostWeight="1.0000000000000000e+00" itree="623">
      <Node pos="s" depth="0" NCoef="0" IVar="10" Cut="-1.3291712105274200e-01" cType="1" res="1.0513927554711699e-04" rms="1.7824377119541168e-01" purity="4.9601545929908752e-01" nType="0">
        <Node pos="l" depth="1" NCoef="0" IVar="7" Cut="-6.1697292327880859e-01" cType="1" res="2.9619578272104263e-03" rms="1.8235985934734344e-01" purity="4.8547458648681641e-01" nType="0">
          <Node pos="l" depth="2" NCoef="0" IVar="7" Cut="-8.1698894500732422e-01" cType="1" res="9.5911398530006409e-03" rms="1.8433411419391632e-01" purity="3.2916101813316345e-01" nType="0">
            <Node pos="l" depth="3" NCoef="0" IVar="-1" Cut="0.0000000000000000e+00" cType="1" res="8.6191464215517044e-03" rms="1.6642245650291443e-01" purity="2.5296029448509216e-01" nType="-99"/>
            <Node pos="r" depth="3" NCoef="0" IVar="-1" Cut="0.0000000000000000e+00" cType="1" res="6.6861733794212341e-02" rms="2.2588559985160828e-01" purity="5.4215562343597412e-01" nType="-99"/>
          </Node>
          <Node pos="r" depth="2" NCoef="0" IVar="4" Cut="3.2877716064453125e+02" cType="1" res="9.4078754773363471e-04" rms="1.8170556426048279e-01" purity="5.3313297033309937e-01" nType="0">
            <Node pos="l" depth="3" NCoef="0" IVar="-1" Cut="0.0000000000000000e+00" cType="1" res="8.6736828088760376e-03" rms="2.0342762768268585e-01" purity="3.1886768341064453e-01" nType="-99"/>
            <Node pos="r" depth="3" NCoef="0" IVar="-1" Cut="0.0000000000000000e+00" cType="1" res="-2.7868241071701050e-02" rms="1.2710295617580414e-01" purity="9.6380454301834106e-01" nType="-99"/>
          </Node>
        </Node>
        <Node pos="r" depth="1" NCoef="0" IVar="2" Cut="5.2309143066406250e+02" cType="1" res="-2.2973208688199520e-03" rms="1.7467109858989716e-01" purity="5.0487989187240601e-01" nType="0">
          <Node pos="l" depth="2" NCoef="0" IVar="1" Cut="7.4773050844669342e-02" cType="1" res="1.3161608949303627e-03" rms="1.8152172863483429e-01" purity="2.1195827424526215e-01" nType="0">
            <Node pos="l" depth="3" NCoef="0" IVar="-1" Cut="0.0000000000000000e+00" cType="1" res="-9.0460237115621567e-03" rms="1.5821388363838196e-01" purity="7.4243523180484772e-02" nType="-99"/>
            <Node pos="r" depth="3" NCoef="0" IVar="-1" Cut="0.0000000000000000e+00" cType="1" res="1.7059039324522018e-02" rms="2.1537074446678162e-01" purity="4.4676235318183899e-01" nType="-99"/>
          </Node>
          <Node pos="r" depth="2" NCoef="0" IVar="0" Cut="2.3863283691406250e+03" cType="1" res="-4.9601951614022255e-03" rms="1.6939619183540344e-01" purity="7.2074186801910400e-01" nType="0">
            <Node pos="l" depth="3" NCoef="0" IVar="-1" Cut="0.0000000000000000e+00" cType="1" res="-2.4131670594215393e-02" rms="1.9689853489398956e-01" purity="9.9132850766181946e-02" nType="-99"/>
            <Node pos="r" depth="3" NCoef="0" IVar="-1" Cut="0.0000000000000000e+00" cType="1" res="-8.8441604748368263e-03" rms="1.5810616314411163e-01" purity="9.4716995954513550e-01" nType="-99"/>
          </Node>
        </Node>
      </Node>
    </BinaryTree>
    <BinaryTree type="DecisionTree" boostWeight="1.0000000000000000e+00" itree="624">
      <Node pos="s" depth="0" NCoef="0" IVar="10" Cut="1.7330390214920044e+00" cType="1" res="-2.7003086870536208e-04" rms="1.7566299438476562e-01" purity="4.9745839834213257e-01" nType="0">
        <Node pos="l" depth="1" NCoef="0" IVar="8" Cut="1.4660719633102417e+00" cType="1" res="4.8579621943645179e-04" rms="1.7347964644432068e-01" purity="5.1682496070861816e-01" nType="0">
          <Node pos="l" depth="2" NCoef="0" IVar="10" Cut="1.0851793289184570e+00" cType="1" res="1.2132431147620082e-03" rms="1.7378959059715271e-01" purity="5.4314500093460083e-01" nType="0">
            <Node pos="l" depth="3" NCoef="0" IVar="-1" Cut="0.0000000000000000e+00" cType="1" res="4.8629089724272490e-04" rms="1.7280499637126923e-01" purity="5.4980045557022095e-01" nType="-99"/>
            <Node pos="r" depth="3" NCoef="0" IVar="-1" Cut="0.0000000000000000e+00" cType="1" res="2.5010501965880394e-02" rms="1.8056987226009369e-01" purity="4.9498677253723145e-01" nType="-99"/>
          </Node>
          <Node pos="r" depth="2" NCoef="0" IVar="6" Cut="9.8892211914062500e+01" cType="1" res="-1.0291982442140579e-02" rms="1.6845318675041199e-01" purity="1.2687005102634430e-01" nType="0">
            <Node pos="l" depth="3" NCoef="0" IVar="-1" Cut="0.0000000000000000e+00" cType="1" res="3.2685358077287674e-02" rms="1.2190417945384979e-01" purity="2.3186825215816498e-02" nType="-99"/>
            <Node pos="r" depth="3" NCoef="0" IVar="-1" Cut="0.0000000000000000e+00" cType="1" res="-5.2403554320335388e-02" rms="2.1100790798664093e-01" purity="2.5499945878982544e-01" nType="-99"/>
          </Node>
        </Node>
        <Node pos="r" depth="1" NCoef="0" IVar="3" Cut="3.0356735229492188e+02" cType="1" res="-1.1230910196900368e-02" rms="2.0441088080406189e-01" purity="2.1660764515399933e-01" nType="0">
          <Node pos="l" depth="2" NCoef="0" IVar="-1" Cut="0.0000000000000000e+00" cType="1" res="1.1320863850414753e-03" rms="1.5325413644313812e-01" purity="6.1187256127595901e-02" nType="-99"/>
          <Node pos="r" depth="2" NCoef="0" IVar="-1" Cut="0.0000000000000000e+00" cType="1" res="-4.6780984848737717e-02" rms="2.5830760598182678e-01" purity="4.3219774961471558e-01" nType="-99"/>
        </Node>
      </Node>
    </BinaryTree>
    <BinaryTree type="DecisionTree" boostWeight="1.0000000000000000e+00" itree="625">
      <Node pos="s" depth="0" NCoef="0" IVar="10" Cut="-1.1993150711059570e+00" cType="1" res="-2.7159636374562979e-04" rms="1.7772626876831055e-01" purity="5.0320082902908325e-01" nType="0">
        <Node pos="l" depth="1" NCoef="0" IVar="0" Cut="1.8456224365234375e+03" cType="1" res="4.0878378786146641e-03" rms="1.9864226877689362e-01" purity="3.9464595913887024e-01" nType="0">
          <Node pos="l" depth="2" NCoef="0" IVar="7" Cut="2.5525918602943420e-01" cType="1" res="-3.3056647516787052e-03" rms="1.1117056757211685e-01" purity="1.4450599439442158e-02" nType="0">
            <Node pos="l" depth="3" NCoef="0" IVar="-1" Cut="0.0000000000000000e+00" cType="1" res="-5.3022228181362152e-02" rms="8.9411474764347076e-02" purity="9.2008039355278015e-03" nType="-99"/>
            <Node pos="r" depth="3" NCoef="0" IVar="-1" Cut="0.0000000000000000e+00" cType="1" res="1.9900616258382797e-02" rms="1.3514542579650879e-01" purity="2.1642403677105904e-02" nType="-99"/>
          </Node>
          <Node pos="r" depth="2" NCoef="0" IVar="1" Cut="5.7179015129804611e-02" cType="1" res="1.0862560011446476e-02" rms="2.5336647033691406e-01" purity="7.4302184581756592e-01" nType="0">
            <Node pos="l" depth="3" NCoef="0" IVar="-1" Cut="0.0000000000000000e+00" cType="1" res="-3.4635306801646948e-03" rms="2.9930174350738525e-01" purity="4.7273519635200500e-01" nType="-99"/>
            <Node pos="r" depth="3" NCoef="0" IVar="-1" Cut="0.0000000000000000e+00" cType="1" res="3.2832376658916473e-02" rms="2.2592598199844360e-01" purity="8.8147240877151489e-01" nType="-99"/>
          </Node>
        </Node>
        <Node pos="r" depth="1" NCoef="0" IVar="0" Cut="2.4650922851562500e+03" cType="1" res="-9.9641492124646902e-04" rms="1.7399451136589050e-01" purity="5.2124965190887451e-01" nType="0">
          <Node pos="l" depth="2" NCoef="0" IVar="1" Cut="7.1045555174350739e-02" cType="1" res="-2.7986152563244104e-03" rms="1.9828769564628601e-01" purity="1.0792876034975052e-01" nType="0">
            <Node pos="l" depth="3" NCoef="0" IVar="-1" Cut="0.0000000000000000e+00" cType="1" res="1.2220718199387193e-03" rms="1.6673496365547180e-01" purity="5.3830001503229141e-02" nType="-99"/>
            <Node pos="r" depth="3" NCoef="0" IVar="-1" Cut="0.0000000000000000e+00" cType="1" res="-1.4234106056392193e-02" rms="2.5973248481750488e-01" purity="2.4051401019096375e-01" nType="-99"/>
          </Node>
          <Node pos="r" depth="2" NCoef="0" IVar="5" Cut="1.5595230102539062e+02" cType="1" res="9.3135092174634337e-04" rms="1.4350213110446930e-01" purity="9.6336793899536133e-01" nType="0">
            <Node pos="l" depth="3" NCoef="0" IVar="-1" Cut="0.0000000000000000e+00" cType="1" res="1.3998771086335182e-02" rms="2.9982933402061462e-01" purity="7.6994633674621582e-01" nType="-99"/>
            <Node pos="r" depth="3" NCoef="0" IVar="-1" Cut="0.0000000000000000e+00" cType="1" res="-5.4033100605010986e-04" rms="1.2147965282201767e-01" purity="9.7961723804473877e-01" nType="-99"/>
          </Node>
        </Node>
      </Node>
    </BinaryTree>
    <BinaryTree type="DecisionTree" boostWeight="1.0000000000000000e+00" itree="626">
      <Node pos="s" depth="0" NCoef="0" IVar="1" Cut="2.1665297448635101e-01" cType="1" res="-1.6515024472028017e-03" rms="1.7774546146392822e-01" purity="5.0354844331741333e-01" nType="0">
        <Node pos="l" depth="1" NCoef="0" IVar="11" Cut="9.3130677938461304e-01" cType="1" res="-2.4332928005605936e-03" rms="1.8047720193862915e-01" purity="4.7310978174209595e-01" nType="0">
          <Node pos="l" depth="2" NCoef="0" IVar="3" Cut="2.4498947143554688e+02" cType="1" res="-1.0336143895983696e-03" rms="1.8025095760822296e-01" purity="4.9440553784370422e-01" nType="0">
            <Node pos="l" depth="3" NCoef="0" IVar="-1" Cut="0.0000000000000000e+00" cType="1" res="-2.5600971654057503e-02" rms="1.2811389565467834e-01" purity="3.5781249403953552e-02" nType="-99"/>
            <Node pos="r" depth="3" NCoef="0" IVar="-1" Cut="0.0000000000000000e+00" cType="1" res="2.9987352900207043e-04" rms="1.9199302792549133e-01" purity="6.1926621198654175e-01" nType="-99"/>
          </Node>
          <Node pos="r" depth="2" NCoef="0" IVar="8" Cut="1.3865309953689575e-01" cType="1" res="-6.9660926237702370e-03" rms="1.8113374710083008e-01" purity="4.0414440631866455e-01" nType="0">
            <Node pos="l" depth="3" NCoef="0" IVar="-1" Cut="0.0000000000000000e+00" cType="1" res="-3.1811714172363281e-02" rms="1.9023635983467102e-01" purity="4.3222349882125854e-01" nType="-99"/>
            <Node pos="r" depth="3" NCoef="0" IVar="-1" Cut="0.0000000000000000e+00" cType="1" res="-2.2875012364238501e-03" rms="1.7071785032749176e-01" purity="3.7431764602661133e-01" nType="-99"/>
          </Node>
        </Node>
        <Node pos="r" depth="1" NCoef="0" IVar="-1" Cut="0.0000000000000000e+00" cType="1" res="5.3145606070756912e-02" rms="1.3447357714176178e-01" purity="9.1996997594833374e-01" nType="-99"/>
      </Node>
    </BinaryTree>
    <BinaryTree type="DecisionTree" boostWeight="1.0000000000000000e+00" itree="627">
      <Node pos="s" depth="0" NCoef="0" IVar="10" Cut="1.7329336404800415e+00" cType="1" res="5.3545500850304961e-04" rms="1.7624707520008087e-01" purity="4.9695840477943420e-01" nType="0">
        <Node pos="l" depth="1" NCoef="0" IVar="11" Cut="1.4664244651794434e+00" cType="1" res="1.1276133591309190e-03" rms="1.7329879105091095e-01" purity="5.1256805658340454e-01" nType="0">
          <Node pos="l" depth="2" NCoef="0" IVar="11" Cut="1.2632582187652588e+00" cType="1" res="1.7435015179216862e-03" rms="1.7069466412067413e-01" purity="5.2559220790863037e-01" nType="0">
            <Node pos="l" depth="3" NCoef="0" IVar="-1" Cut="0.0000000000000000e+00" cType="1" res="2.7723729144781828e-03" rms="1.7011773586273193e-01" purity="5.2425038814544678e-01" nType="-99"/>
            <Node pos="r" depth="3" NCoef="0" IVar="-1" Cut="0.0000000000000000e+00" cType="1" res="5.9327330440282822e-02" rms="1.8254375457763672e-01" purity="5.5719608068466187e-01" nType="-99"/>
          </Node>
          <Node pos="r" depth="2" NCoef="0" IVar="11" Cut="2.1648344993591309e+00" cType="1" res="-3.7835603579878807e-03" rms="1.9273968040943146e-01" purity="4.0871179103851318e-01" nType="0">
            <Node pos="l" depth="3" NCoef="0" IVar="-1" Cut="0.0000000000000000e+00" cType="1" res="-1.1129259655717760e-04" rms="1.9678778946399689e-01" purity="4.6434000134468079e-01" nType="-99"/>
            <Node pos="r" depth="3" NCoef="0" IVar="-1" Cut="0.0000000000000000e+00" cType="1" res="-4.3661363422870636e-02" rms="1.8026834726333618e-01" purity="2.5002267956733704e-01" nType="-99"/>
          </Node>
        </Node>
        <Node pos="r" depth="1" NCoef="0" IVar="0" Cut="1.8950375976562500e+03" cType="1" res="-8.9417127892374992e-03" rms="2.1785584092140198e-01" purity="2.4713467061519623e-01" nType="0">
          <Node pos="l" depth="2" NCoef="0" IVar="-1" Cut="0.0000000000000000e+00" cType="1" res="-9.3690492212772369e-03" rms="1.2885552644729614e-01" purity="2.0750671625137329e-02" nType="-99"/>
          <Node pos="r" depth="2" NCoef="0" IVar="-1" Cut="0.0000000000000000e+00" cType="1" res="-2.1745141595602036e-02" rms="2.9853540658950806e-01" purity="5.5395555496215820e-01" nType="-99"/>
        </Node>
      </Node>
    </BinaryTree>
    <BinaryTree type="DecisionTree" boostWeight="1.0000000000000000e+00" itree="628">
      <Node pos="s" depth="0" NCoef="0" IVar="9" Cut="-9.2898803949356079e-01" cType="1" res="-1.1898882221430540e-03" rms="1.7967547476291656e-01" purity="4.9571681022644043e-01" nType="0">
        <Node pos="l" depth="1" NCoef="0" IVar="11" Cut="9.3319839239120483e-01" cType="1" res="5.6539005599915981e-03" rms="1.9286781549453735e-01" purity="3.6106801033020020e-01" nType="0">
          <Node pos="l" depth="2" NCoef="0" IVar="10" Cut="9.2932695150375366e-01" cType="1" res="1.8028237391263247e-03" rms="1.8860799074172974e-01" purity="3.6389940977096558e-01" nType="0">
            <Node pos="l" depth="3" NCoef="0" IVar="-1" Cut="0.0000000000000000e+00" cType="1" res="1.5599944628775120e-02" rms="1.9049169123172760e-01" purity="3.7767645716667175e-01" nType="-99"/>
            <Node pos="r" depth="3" NCoef="0" IVar="-1" Cut="0.0000000000000000e+00" cType="1" res="-3.3469591289758682e-02" rms="1.8000952899456024e-01" purity="3.0766946077346802e-01" nType="-99"/>
          </Node>
          <Node pos="r" depth="2" NCoef="0" IVar="-1" Cut="0.0000000000000000e+00" cType="1" res="4.8674132674932480e-02" rms="2.0707966387271881e-01" purity="3.5072523355484009e-01" nType="-99"/>
        </Node>
        <Node pos="r" depth="1" NCoef="0" IVar="1" Cut="1.0831500589847565e-01" cType="1" res="-2.7615700382739305e-03" rms="1.7646920680999756e-01" purity="5.2663910388946533e-01" nType="0">
          <Node pos="l" depth="2" NCoef="0" IVar="0" Cut="1.8930559082031250e+03" cType="1" res="-5.0445203669369221e-03" rms="1.8601906299591064e-01" purity="3.7931695580482483e-01" nType="0">
            <Node pos="l" depth="3" NCoef="0" IVar="-1" Cut="0.0000000000000000e+00" cType="1" res="2.1353373304009438e-03" rms="1.0831613838672638e-01" purity="1.3463850133121014e-02" nType="-99"/>
            <Node pos="r" depth="3" NCoef="0" IVar="-1" Cut="0.0000000000000000e+00" cType="1" res="-1.7390739172697067e-02" rms="2.3710346221923828e-01" purity="7.2590953111648560e-01" nType="-99"/>
          </Node>
          <Node pos="r" depth="2" NCoef="0" IVar="5" Cut="1.4769433593750000e+02" cType="1" res="2.0763489883393049e-03" rms="1.5417858958244324e-01" purity="8.3883702754974365e-01" nType="0">
            <Node pos="l" depth="3" NCoef="0" IVar="-1" Cut="0.0000000000000000e+00" cType="1" res="3.4537021070718765e-02" rms="2.4971795082092285e-01" purity="2.9777467250823975e-01" nType="-99"/>
            <Node pos="r" depth="3" NCoef="0" IVar="-1" Cut="0.0000000000000000e+00" cType="1" res="-2.2096030879765749e-03" rms="1.3449123501777649e-01" purity="9.1781610250473022e-01" nType="-99"/>
          </Node>
        </Node>
      </Node>
    </BinaryTree>
    <BinaryTree type="DecisionTree" boostWeight="1.0000000000000000e+00" itree="629">
      <Node pos="s" depth="0" NCoef="0" IVar="8" Cut="-1.9986311197280884e+00" cType="1" res="2.0761622581630945e-03" rms="1.7887185513973236e-01" purity="5.0548237562179565e-01" nType="0">
        <Node pos="l" depth="1" NCoef="0" IVar="-1" Cut="0.0000000000000000e+00" cType="1" res="-1.0465895384550095e-01" rms="8.8856190443038940e-02" purity="1.6807701438665390e-02" nType="-99"/>
        <Node pos="r" depth="1" NCoef="0" IVar="8" Cut="9.7156250476837158e-01" cType="1" res="2.7124178595840931e-03" rms="1.8087038397789001e-01" purity="5.2033901214599609e-01" nType="0">
          <Node pos="l" depth="2" NCoef="0" IVar="0" Cut="2.6364296875000000e+03" cType="1" res="3.7372685037553310e-03" rms="1.8024058640003204e-01" purity="5.6316375732421875e-01" nType="0">
            <Node pos="l" depth="3" NCoef="0" IVar="-1" Cut="0.0000000000000000e+00" cType="1" res="1.4242535457015038e-02" rms="2.2077617049217224e-01" purity="1.8879283964633942e-01" nType="-99"/>
            <Node pos="r" depth="3" NCoef="0" IVar="-1" Cut="0.0000000000000000e+00" cType="1" res="1.6356229316443205e-03" rms="1.2048216164112091e-01" purity="9.7650784254074097e-01" nType="-99"/>
          </Node>
          <Node pos="r" depth="2" NCoef="0" IVar="8" Cut="1.1456271409988403e+00" cType="1" res="-2.7350573800504208e-03" rms="1.8408615887165070e-01" purity="2.9270884394645691e-01" nType="0">
            <Node pos="l" depth="3" NCoef="0" IVar="-1" Cut="0.0000000000000000e+00" cType="1" res="-2.3100344464182854e-02" rms="2.0547012984752655e-01" purity="4.8378649353981018e-01" nType="-99"/>
            <Node pos="r" depth="3" NCoef="0" IVar="-1" Cut="0.0000000000000000e+00" cType="1" res="-7.6502864249050617e-04" rms="1.7636422812938690e-01" purity="2.2943170368671417e-01" nType="-99"/>
          </Node>
        </Node>
      </Node>
    </BinaryTree>
    <BinaryTree type="DecisionTree" boostWeight="1.0000000000000000e+00" itree="630">
      <Node pos="s" depth="0" NCoef="0" IVar="8" Cut="1.1975687742233276e+00" cType="1" res="1.7197269480675459e-03" rms="1.8030215799808502e-01" purity="5.1070994138717651e-01" nType="0">
        <Node pos="l" depth="1" NCoef="0" IVar="11" Cut="1.4659831523895264e+00" cType="1" res="1.0440567275509238e-03" rms="1.7838582396507263e-01" purity="5.4407340288162231e-01" nType="0">
          <Node pos="l" depth="2" NCoef="0" IVar="10" Cut="1.3353021442890167e-01" cType="1" res="1.8827868625521660e-03" rms="1.7579184472560883e-01" purity="5.5750149488449097e-01" nType="0">
            <Node pos="l" depth="3" NCoef="0" IVar="-1" Cut="0.0000000000000000e+00" cType="1" res="-2.7437624521553516e-03" rms="1.7549476027488708e-01" purity="5.4826211929321289e-01" nType="-99"/>
            <Node pos="r" depth="3" NCoef="0" IVar="-1" Cut="0.0000000000000000e+00" cType="1" res="1.6644056886434555e-02" rms="1.7609919607639313e-01" purity="5.6896948814392090e-01" nType="-99"/>
          </Node>
          <Node pos="r" depth="2" NCoef="0" IVar="7" Cut="-2.5885874032974243e-01" cType="1" res="-6.2151118181645870e-03" rms="1.9928441941738129e-01" purity="4.2785423994064331e-01" nType="0">
            <Node pos="l" depth="3" NCoef="0" IVar="-1" Cut="0.0000000000000000e+00" cType="1" res="7.9810256138443947e-03" rms="2.0091858506202698e-01" purity="3.8442298769950867e-01" nType="-99"/>
            <Node pos="r" depth="3" NCoef="0" IVar="-1" Cut="0.0000000000000000e+00" cType="1" res="-2.8451068326830864e-02" rms="1.9815653562545776e-01" purity="4.5207607746124268e-01" nType="-99"/>
          </Node>
        </Node>
        <Node pos="r" depth="1" NCoef="0" IVar="6" Cut="1.1545439910888672e+02" cType="1" res="7.5447997078299522e-03" rms="1.9595129787921906e-01" purity="2.2307743132114410e-01" nType="0">
          <Node pos="l" depth="2" NCoef="0" IVar="0" Cut="1.6025797119140625e+03" cType="1" res="1.5485251322388649e-02" rms="1.7551945149898529e-01" purity="7.6404064893722534e-02" nType="0">
            <Node pos="l" depth="3" NCoef="0" IVar="-1" Cut="0.0000000000000000e+00" cType="1" res="7.9786151647567749e-02" rms="7.2164304554462433e-02" purity="5.2554118447005749e-03" nType="-99"/>
            <Node pos="r" depth="3" NCoef="0" IVar="-1" Cut="0.0000000000000000e+00" cType="1" res="6.4574785530567169e-02" rms="2.3424753546714783e-01" purity="1.4418433606624603e-01" nType="-99"/>
          </Node>
          <Node pos="r" depth="2" NCoef="0" IVar="-1" Cut="0.0000000000000000e+00" cType="1" res="-1.3311102986335754e-02" rms="2.2971437871456146e-01" purity="5.0776737928390503e-01" nType="-99"/>
        </Node>
      </Node>
    </BinaryTree>
    <BinaryTree type="DecisionTree" boostWeight="1.0000000000000000e+00" itree="631">
      <Node pos="s" depth="0" NCoef="0" IVar="9" Cut="-9.3321996927261353e-01" cType="1" res="-2.0107568707317114e-03" rms="1.7555047571659088e-01" purity="4.9457952380180359e-01" nType="0">
        <Node pos="l" depth="1" NCoef="0" IVar="0" Cut="1.9960921630859375e+03" cType="1" res="-7.3268725536763668e-03" rms="1.8538565933704376e-01" purity="3.3767548203468323e-01" nType="0">
          <Node pos="l" depth="2" NCoef="0" IVar="9" Cut="-1.6435199975967407e+00" cType="1" res="-1.2855596141889691e-03" rms="1.3527154922485352e-01" purity="2.6605986058712006e-02" nType="0">
            <Node pos="l" depth="3" NCoef="0" IVar="-1" Cut="0.0000000000000000e+00" cType="1" res="3.7586268037557602e-02" rms="1.3639953732490540e-01" purity="2.6625379920005798e-02" nType="-99"/>
            <Node pos="r" depth="3" NCoef="0" IVar="-1" Cut="0.0000000000000000e+00" cType="1" res="-2.7570039033889771e-02" rms="1.3415430486202240e-01" purity="2.6591552421450615e-02" nType="-99"/>
          </Node>
          <Node pos="r" depth="2" NCoef="0" IVar="0" Cut="2.6775266113281250e+03" cType="1" res="-1.5519782900810242e-02" rms="2.3673564195632935e-01" purity="7.5953155755996704e-01" nType="0">
            <Node pos="l" depth="3" NCoef="0" IVar="-1" Cut="0.0000000000000000e+00" cType="1" res="-3.2028064131736755e-02" rms="3.2690122723579407e-01" purity="4.7049325704574585e-01" nType="-99"/>
            <Node pos="r" depth="3" NCoef="0" IVar="-1" Cut="0.0000000000000000e+00" cType="1" res="-3.6605249624699354e-03" rms="1.3843755424022675e-01" purity="9.6631348133087158e-01" nType="-99"/>
          </Node>
        </Node>
        <Node pos="r" depth="1" NCoef="0" IVar="2" Cut="4.2614028930664062e+02" cType="1" res="-7.3921366129070520e-04" rms="1.7309103906154633e-01" purity="5.3210884332656860e-01" nType="0">
          <Node pos="l" depth="2" NCoef="0" IVar="0" Cut="1.9203371582031250e+03" cType="1" res="-5.4033184424042702e-03" rms="1.6516178846359253e-01" purity="1.1339399218559265e-01" nType="0">
            <Node pos="l" depth="3" NCoef="0" IVar="-1" Cut="0.0000000000000000e+00" cType="1" res="-8.0697601661086082e-03" rms="1.3185246288776398e-01" purity="2.1841533482074738e-02" nType="-99"/>
            <Node pos="r" depth="3" NCoef="0" IVar="-1" Cut="0.0000000000000000e+00" cType="1" res="-2.7945611625909805e-02" rms="2.9933077096939087e-01" purity="6.9660609960556030e-01" nType="-99"/>
          </Node>
          <Node pos="r" depth="2" NCoef="0" IVar="9" Cut="-7.5543820858001709e-01" cType="1" res="7.6878775143995881e-04" rms="1.7555163800716400e-01" purity="6.6748797893524170e-01" nType="0">
            <Node pos="l" depth="3" NCoef="0" IVar="-1" Cut="0.0000000000000000e+00" cType="1" res="3.9141923189163208e-02" rms="1.7527668178081512e-01" purity="7.0875084400177002e-01" nType="-99"/>
            <Node pos="r" depth="3" NCoef="0" IVar="-1" Cut="0.0000000000000000e+00" cType="1" res="-1.1706307850545272e-04" rms="1.7553794384002686e-01" purity="6.6487425565719604e-01" nType="-99"/>
          </Node>
        </Node>
      </Node>
    </BinaryTree>
    <BinaryTree type="DecisionTree" boostWeight="1.0000000000000000e+00" itree="632">
      <Node pos="s" depth="0" NCoef="0" IVar="5" Cut="1.1945298004150391e+02" cType="1" res="-1.7022842075675726e-03" rms="1.7627248167991638e-01" purity="4.9580007791519165e-01" nType="0">
        <Node pos="l" depth="1" NCoef="0" IVar="0" Cut="2.0217922363281250e+03" cType="1" res="2.9286297503858805e-03" rms="1.4362382888793945e-01" purity="5.4371722042560577e-02" nType="0">
          <Node pos="l" depth="2" NCoef="0" IVar="0" Cut="1.7255712890625000e+03" cType="1" res="8.8284286903217435e-04" rms="9.5957621932029724e-02" purity="1.0721688158810139e-02" nType="0">
            <Node pos="l" depth="3" NCoef="0" IVar="-1" Cut="0.0000000000000000e+00" cType="1" res="-1.4118213206529617e-02" rms="6.3702382147312164e-02" purity="4.2214561253786087e-03" nType="-99"/>
            <Node pos="r" depth="3" NCoef="0" IVar="-1" Cut="0.0000000000000000e+00" cType="1" res="2.8893647715449333e-02" rms="1.7564050853252411e-01" purity="3.8105197250843048e-02" nType="-99"/>
          </Node>
          <Node pos="r" depth="2" NCoef="0" IVar="-1" Cut="0.0000000000000000e+00" cType="1" res="1.7279259860515594e-02" rms="3.1344678997993469e-01" purity="3.5191246867179871e-01" nType="-99"/>
        </Node>
        <Node pos="r" depth="1" NCoef="0" IVar="5" Cut="1.8105242919921875e+02" cType="1" res="-3.2886331900954247e-03" rms="1.8611782789230347e-01" purity="6.4701414108276367e-01" nType="0">
          <Node pos="l" depth="2" NCoef="0" IVar="11" Cut="-3.9840883016586304e-01" cType="1" res="-8.7968930602073669e-03" rms="2.1342004835605621e-01" purity="2.4641343951225281e-01" nType="0">
            <Node pos="l" depth="3" NCoef="0" IVar="-1" Cut="0.0000000000000000e+00" cType="1" res="3.5971803590655327e-03" rms="2.1602179110050201e-01" purity="2.7262333035469055e-01" nType="-99"/>
            <Node pos="r" depth="3" NCoef="0" IVar="-1" Cut="0.0000000000000000e+00" cType="1" res="-3.1505960971117020e-02" rms="2.1144571900367737e-01" purity="2.2949072718620300e-01" nType="-99"/>
          </Node>
          <Node pos="r" depth="2" NCoef="0" IVar="10" Cut="1.2009032964706421e+00" cType="1" res="1.9681045159813948e-05" rms="1.6750839352607727e-01" purity="8.8761878013610840e-01" nType="0">
            <Node pos="l" depth="3" NCoef="0" IVar="-1" Cut="0.0000000000000000e+00" cType="1" res="5.2106748335063457e-03" rms="1.6184644401073456e-01" purity="8.9851963520050049e-01" nType="-99"/>
            <Node pos="r" depth="3" NCoef="0" IVar="-1" Cut="0.0000000000000000e+00" cType="1" res="-2.9898423701524734e-02" rms="2.1278464794158936e-01" purity="7.8570985794067383e-01" nType="-99"/>
          </Node>
        </Node>
      </Node>
    </BinaryTree>
    <BinaryTree type="DecisionTree" boostWeight="1.0000000000000000e+00" itree="633">
      <Node pos="s" depth="0" NCoef="0" IVar="9" Cut="3.9970359206199646e-01" cType="1" res="5.5632274597883224e-04" rms="1.7893496155738831e-01" purity="5.0042784214019775e-01" nType="0">
        <Node pos="l" depth="1" NCoef="0" IVar="5" Cut="1.8739944458007812e+02" cType="1" res="2.4150065146386623e-03" rms="1.7692193388938904e-01" purity="5.2573561668395996e-01" nType="0">
          <Node pos="l" depth="2" NCoef="0" IVar="0" Cut="2.1418708496093750e+03" cType="1" res="5.3156591020524502e-03" rms="1.9208414852619171e-01" purity="1.8654502928256989e-01" nType="0">
            <Node pos="l" depth="3" NCoef="0" IVar="-1" Cut="0.0000000000000000e+00" cType="1" res="1.0702334344387054e-02" rms="1.5317897498607635e-01" purity="3.5555150359869003e-02" nType="-99"/>
            <Node pos="r" depth="3" NCoef="0" IVar="-1" Cut="0.0000000000000000e+00" cType="1" res="1.8405769020318985e-02" rms="2.9408955574035645e-01" purity="7.4557650089263916e-01" nType="-99"/>
          </Node>
          <Node pos="r" depth="2" NCoef="0" IVar="10" Cut="3.9827951788902283e-01" cType="1" res="-8.3750498015433550e-04" rms="1.5813829004764557e-01" purity="9.0607112646102905e-01" nType="0">
            <Node pos="l" depth="3" NCoef="0" IVar="-1" Cut="0.0000000000000000e+00" cType="1" res="4.9904859624803066e-03" rms="1.5039464831352234e-01" purity="9.1441261768341064e-01" nType="-99"/>
            <Node pos="r" depth="3" NCoef="0" IVar="-1" Cut="0.0000000000000000e+00" cType="1" res="-1.5946092084050179e-02" rms="1.7181515693664551e-01" purity="8.9023596048355103e-01" nType="-99"/>
          </Node>
        </Node>
        <Node pos="r" depth="1" NCoef="0" IVar="11" Cut="4.0173596143722534e-01" cType="1" res="-2.8283474966883659e-03" rms="1.8249507248401642e-01" purity="4.5434233546257019e-01" nType="0">
          <Node pos="l" depth="2" NCoef="0" IVar="9" Cut="8.5682427883148193e-01" cType="1" res="6.4855272648856044e-04" rms="1.8269284069538116e-01" purity="4.7953790426254272e-01" nType="0">
            <Node pos="l" depth="3" NCoef="0" IVar="-1" Cut="0.0000000000000000e+00" cType="1" res="-1.3889282941818237e-02" rms="1.6768518090248108e-01" purity="5.8489251136779785e-01" nType="-99"/>
            <Node pos="r" depth="3" NCoef="0" IVar="-1" Cut="0.0000000000000000e+00" cType="1" res="1.1548892594873905e-02" rms="1.9324147701263428e-01" purity="3.9945405721664429e-01" nType="-99"/>
          </Node>
          <Node pos="r" depth="2" NCoef="0" IVar="4" Cut="2.9626296997070312e+02" cType="1" res="-7.8685414046049118e-03" rms="1.8209014832973480e-01" purity="4.1781821846961975e-01" nType="0">
            <Node pos="l" depth="3" NCoef="0" IVar="-1" Cut="0.0000000000000000e+00" cType="1" res="-3.2752975821495056e-02" rms="1.8001341819763184e-01" purity="1.8637226521968842e-01" nType="-99"/>
            <Node pos="r" depth="3" NCoef="0" IVar="-1" Cut="0.0000000000000000e+00" cType="1" res="9.7537096589803696e-03" rms="1.8612368404865265e-01" purity="9.2720413208007812e-01" nType="-99"/>
          </Node>
        </Node>
      </Node>
    </BinaryTree>
    <BinaryTree type="DecisionTree" boostWeight="1.0000000000000000e+00" itree="634">
      <Node pos="s" depth="0" NCoef="0" IVar="2" Cut="9.9453466796875000e+02" cType="1" res="4.8459781100973487e-04" rms="1.7925167083740234e-01" purity="5.0118845701217651e-01" nType="0">
        <Node pos="l" depth="1" NCoef="0" IVar="11" Cut="1.7332991361618042e+00" cType="1" res="-1.3377684808801860e-04" rms="1.7950949072837830e-01" purity="4.7228717803955078e-01" nType="0">
          <Node pos="l" depth="2" NCoef="0" IVar="1" Cut="1.2104220688343048e-01" cType="1" res="-8.3866901695728302e-04" rms="1.7700171470642090e-01" purity="4.8327925801277161e-01" nType="0">
            <Node pos="l" depth="3" NCoef="0" IVar="-1" Cut="0.0000000000000000e+00" cType="1" res="-6.4804595895111561e-03" rms="1.8437203764915466e-01" purity="3.4617424011230469e-01" nType="-99"/>
            <Node pos="r" depth="3" NCoef="0" IVar="-1" Cut="0.0000000000000000e+00" cType="1" res="1.2814903631806374e-02" rms="1.5572685003280640e-01" purity="8.4656208753585815e-01" nType="-99"/>
          </Node>
          <Node pos="r" depth="2" NCoef="0" IVar="11" Cut="2.1904735565185547e+00" cType="1" res="8.6695952340960503e-03" rms="2.0810025930404663e-01" purity="3.3500757813453674e-01" nType="0">
            <Node pos="l" depth="3" NCoef="0" IVar="-1" Cut="0.0000000000000000e+00" cType="1" res="4.0821459144353867e-02" rms="2.2572745382785797e-01" purity="4.0389138460159302e-01" nType="-99"/>
            <Node pos="r" depth="3" NCoef="0" IVar="-1" Cut="0.0000000000000000e+00" cType="1" res="-1.9575044512748718e-02" rms="1.7787538468837738e-01" purity="2.3335237801074982e-01" nType="-99"/>
          </Node>
        </Node>
        <Node pos="r" depth="1" NCoef="0" IVar="7" Cut="4.9668267369270325e-02" cType="1" res="9.6386652439832687e-03" rms="1.7513558268547058e-01" purity="9.2902696132659912e-01" nType="0">
          <Node pos="l" depth="2" NCoef="0" IVar="-1" Cut="0.0000000000000000e+00" cType="1" res="4.2485341429710388e-02" rms="1.8377907574176788e-01" purity="9.2855602502822876e-01" nType="-99"/>
          <Node pos="r" depth="2" NCoef="0" IVar="-1" Cut="0.0000000000000000e+00" cType="1" res="9.2602120712399483e-03" rms="1.6420291364192963e-01" purity="9.2957705259323120e-01" nType="-99"/>
        </Node>
      </Node>
    </BinaryTree>
    <BinaryTree type="DecisionTree" boostWeight="1.0000000000000000e+00" itree="635">
      <Node pos="s" depth="0" NCoef="0" IVar="6" Cut="1.2456577301025391e+02" cType="1" res="8.6127140093594790e-04" rms="1.7833484709262848e-01" purity="4.9876654148101807e-01" nType="0">
        <Node pos="l" depth="1" NCoef="0" IVar="6" Cut="1.0687696075439453e+02" cType="1" res="-1.4582497533410788e-03" rms="1.8408484756946564e-01" purity="1.7808423936367035e-01" nType="0">
          <Node pos="l" depth="2" NCoef="0" IVar="11" Cut="-9.3392843008041382e-01" cType="1" res="3.3151550451293588e-04" rms="1.7092782258987427e-01" purity="1.3304197788238525e-01" nType="0">
            <Node pos="l" depth="3" NCoef="0" IVar="-1" Cut="0.0000000000000000e+00" cType="1" res="-1.7995327711105347e-02" rms="1.7212982475757599e-01" purity="1.3799652457237244e-01" nType="-99"/>
            <Node pos="r" depth="3" NCoef="0" IVar="-1" Cut="0.0000000000000000e+00" cType="1" res="8.3857895806431770e-03" rms="1.7044647037982941e-01" purity="1.3127450644969940e-01" nType="-99"/>
          </Node>
          <Node pos="r" depth="2" NCoef="0" IVar="8" Cut="-6.6871392726898193e-01" cType="1" res="-9.0135335922241211e-03" rms="2.3137487471103668e-01" purity="3.6822488903999329e-01" nType="0">
            <Node pos="l" depth="3" NCoef="0" IVar="-1" Cut="0.0000000000000000e+00" cType="1" res="-4.7071199864149094e-02" rms="1.9978694617748260e-01" purity="2.2917343676090240e-01" nType="-99"/>
            <Node pos="r" depth="3" NCoef="0" IVar="-1" Cut="0.0000000000000000e+00" cType="1" res="-5.4077506065368652e-03" rms="2.4175614118576050e-01" purity="4.1971352696418762e-01" nType="-99"/>
          </Node>
        </Node>
        <Node pos="r" depth="1" NCoef="0" IVar="4" Cut="2.1388568115234375e+02" cType="1" res="3.4268277231603861e-03" rms="1.7171438038349152e-01" purity="8.5346412658691406e-01" nType="0">
          <Node pos="l" depth="2" NCoef="0" IVar="8" Cut="-1.2279025465250015e-01" cType="1" res="2.1913886070251465e-02" rms="2.5347429513931274e-01" purity="3.3323803544044495e-01" nType="0">
            <Node pos="l" depth="3" NCoef="0" IVar="-1" Cut="0.0000000000000000e+00" cType="1" res="5.7385526597499847e-02" rms="2.5153556466102600e-01" purity="3.4010264277458191e-01" nType="-99"/>
            <Node pos="r" depth="3" NCoef="0" IVar="-1" Cut="0.0000000000000000e+00" cType="1" res="1.2208060361444950e-02" rms="2.5435295701026917e-01" purity="3.2704389095306396e-01" nType="-99"/>
          </Node>
          <Node pos="r" depth="2" NCoef="0" IVar="2" Cut="5.4672393798828125e+02" cType="1" res="1.0283860610798001e-03" rms="1.5787863731384277e-01" purity="9.2095625400543213e-01" nType="0">
            <Node pos="l" depth="3" NCoef="0" IVar="-1" Cut="0.0000000000000000e+00" cType="1" res="1.3311942107975483e-02" rms="2.2735503315925598e-01" purity="7.8131347894668579e-01" nType="-99"/>
            <Node pos="r" depth="3" NCoef="0" IVar="-1" Cut="0.0000000000000000e+00" cType="1" res="-9.0129505842924118e-03" rms="1.2402481585741043e-01" purity="9.7063249349594116e-01" nType="-99"/>
          </Node>
        </Node>
      </Node>
    </BinaryTree>
    <BinaryTree type="DecisionTree" boostWeight="1.0000000000000000e+00" itree="636">
      <Node pos="s" depth="0" NCoef="0" IVar="10" Cut="4.0011501312255859e-01" cType="1" res="-2.8402120733517222e-05" rms="1.7754997313022614e-01" purity="5.0071960687637329e-01" nType="0">
        <Node pos="l" depth="1" NCoef="0" IVar="7" Cut="-7.8517580032348633e-01" cType="1" res="-1.8963033799082041e-03" rms="1.7545120418071747e-01" purity="5.1862823963165283e-01" nType="0">
          <Node pos="l" depth="2" NCoef="0" IVar="1" Cut="3.2543018460273743e-02" cType="1" res="4.7794720157980919e-03" rms="1.7076985538005829e-01" purity="3.0235791206359863e-01" nType="0">
            <Node pos="l" depth="3" NCoef="0" IVar="-1" Cut="0.0000000000000000e+00" cType="1" res="-1.3362891040742397e-02" rms="1.3518840074539185e-01" purity="6.9684840738773346e-02" nType="-99"/>
            <Node pos="r" depth="3" NCoef="0" IVar="-1" Cut="0.0000000000000000e+00" cType="1" res="2.7293354272842407e-02" rms="1.9768926501274109e-01" purity="5.1638501882553101e-01" nType="-99"/>
          </Node>
          <Node pos="r" depth="2" NCoef="0" IVar="5" Cut="1.5386848449707031e+02" cType="1" res="-3.3220944460481405e-03" rms="1.7640219628810883e-01" purity="5.6481862068176270e-01" nType="0">
            <Node pos="l" depth="3" NCoef="0" IVar="-1" Cut="0.0000000000000000e+00" cType="1" res="1.4455504715442657e-03" rms="1.7563050985336304e-01" purity="1.2674249708652496e-01" nType="-99"/>
            <Node pos="r" depth="3" NCoef="0" IVar="-1" Cut="0.0000000000000000e+00" cType="1" res="-1.7531948164105415e-02" rms="1.7681989073753357e-01" purity="8.2463961839675903e-01" nType="-99"/>
          </Node>
        </Node>
        <Node pos="r" depth="1" NCoef="0" IVar="5" Cut="1.7832711791992188e+02" cType="1" res="3.1356578692793846e-03" rms="1.8100561201572418e-01" purity="4.7038385272026062e-01" nType="0">
          <Node pos="l" depth="2" NCoef="0" IVar="8" Cut="6.6830235719680786e-01" cType="1" res="-5.9253907238598913e-06" rms="1.8642798066139221e-01" purity="1.5274930000305176e-01" nType="0">
            <Node pos="l" depth="3" NCoef="0" IVar="-1" Cut="0.0000000000000000e+00" cType="1" res="8.1837298348546028e-03" rms="1.9935069978237152e-01" purity="1.8872296810150146e-01" nType="-99"/>
            <Node pos="r" depth="3" NCoef="0" IVar="-1" Cut="0.0000000000000000e+00" cType="1" res="-2.3627102375030518e-02" rms="1.5671703219413757e-01" purity="7.9619042575359344e-02" nType="-99"/>
          </Node>
          <Node pos="r" depth="2" NCoef="0" IVar="0" Cut="2.3894262695312500e+03" cType="1" res="7.1430136449635029e-03" rms="1.7376121878623962e-01" purity="8.7555366754531860e-01" nType="0">
            <Node pos="l" depth="3" NCoef="0" IVar="-1" Cut="0.0000000000000000e+00" cType="1" res="2.7074972167611122e-02" rms="3.2120668888092041e-01" purity="3.7202563881874084e-01" nType="-99"/>
            <Node pos="r" depth="3" NCoef="0" IVar="-1" Cut="0.0000000000000000e+00" cType="1" res="1.4209143817424774e-02" rms="1.2270276993513107e-01" purity="9.7911995649337769e-01" nType="-99"/>
          </Node>
        </Node>
      </Node>
    </BinaryTree>
    <BinaryTree type="DecisionTree" boostWeight="1.0000000000000000e+00" itree="637">
      <Node pos="s" depth="0" NCoef="0" IVar="11" Cut="1.2008652687072754e+00" cType="1" res="8.4310886450111866e-04" rms="1.7806401848793030e-01" purity="4.9465706944465637e-01" nType="0">
        <Node pos="l" depth="1" NCoef="0" IVar="10" Cut="-1.9985893964767456e+00" cType="1" res="-1.9053604046348482e-04" rms="1.7472726106643677e-01" purity="5.0538647174835205e-01" nType="0">
          <Node pos="l" depth="2" NCoef="0" IVar="-1" Cut="0.0000000000000000e+00" cType="1" res="-3.1957678496837616e-02" rms="1.8172173202037811e-01" purity="1.5168142318725586e-01" nType="-99"/>
          <Node pos="r" depth="2" NCoef="0" IVar="10" Cut="-3.9921283721923828e-01" cType="1" res="2.0490511087700725e-04" rms="1.7442683875560760e-01" purity="5.1969772577285767e-01" nType="0">
            <Node pos="l" depth="3" NCoef="0" IVar="-1" Cut="0.0000000000000000e+00" cType="1" res="8.8164880871772766e-03" rms="1.7954342067241669e-01" purity="5.0954037904739380e-01" nType="-99"/>
            <Node pos="r" depth="3" NCoef="0" IVar="-1" Cut="0.0000000000000000e+00" cType="1" res="-4.0581272915005684e-03" rms="1.7150770127773285e-01" purity="5.2532780170440674e-01" nType="-99"/>
          </Node>
        </Node>
        <Node pos="r" depth="1" NCoef="0" IVar="10" Cut="1.2005856037139893e+00" cType="1" res="6.2960046343505383e-03" rms="1.9463174045085907e-01" purity="4.3805500864982605e-01" nType="0">
          <Node pos="l" depth="2" NCoef="0" IVar="5" Cut="1.0511480712890625e+02" cType="1" res="3.3441500272601843e-03" rms="1.8781927227973938e-01" purity="4.5778709650039673e-01" nType="0">
            <Node pos="l" depth="3" NCoef="0" IVar="-1" Cut="0.0000000000000000e+00" cType="1" res="-6.1807498335838318e-02" rms="1.0515561699867249e-01" purity="3.3205054700374603e-02" nType="-99"/>
            <Node pos="r" depth="3" NCoef="0" IVar="-1" Cut="0.0000000000000000e+00" cType="1" res="1.8526174128055573e-02" rms="2.0383499562740326e-01" purity="5.6940168142318726e-01" nType="-99"/>
          </Node>
          <Node pos="r" depth="2" NCoef="0" IVar="-1" Cut="0.0000000000000000e+00" cType="1" res="3.8266818970441818e-02" rms="2.2154197096824646e-01" purity="3.5168445110321045e-01" nType="-99"/>
        </Node>
      </Node>
    </BinaryTree>
    <BinaryTree type="DecisionTree" boostWeight="1.0000000000000000e+00" itree="638">
      <Node pos="s" depth="0" NCoef="0" IVar="3" Cut="6.0198400878906250e+02" cType="1" res="4.1109157609753311e-04" rms="1.8035852909088135e-01" purity="4.9477830529212952e-01" nType="0">
        <Node pos="l" depth="1" NCoef="0" IVar="3" Cut="3.9798687744140625e+02" cType="1" res="1.6060958150774240e-03" rms="1.8438874185085297e-01" purity="4.3389976024627686e-01" nType="0">
          <Node pos="l" depth="2" NCoef="0" IVar="0" Cut="1.9432691650390625e+03" cType="1" res="3.6492648068815470e-03" rms="1.9151577353477478e-01" purity="2.1223509311676025e-01" nType="0">
            <Node pos="l" depth="3" NCoef="0" IVar="-1" Cut="0.0000000000000000e+00" cType="1" res="3.6063317675143480e-03" rms="1.3440684974193573e-01" purity="2.2333266213536263e-02" nType="-99"/>
            <Node pos="r" depth="3" NCoef="0" IVar="-1" Cut="0.0000000000000000e+00" cType="1" res="1.3391395099461079e-02" rms="2.8612598776817322e-01" purity="6.7405766248703003e-01" nType="-99"/>
          </Node>
          <Node pos="r" depth="2" NCoef="0" IVar="0" Cut="2.5309018554687500e+03" cType="1" res="-2.2717071697115898e-03" rms="1.6997504234313965e-01" purity="8.5460495948791504e-01" nType="0">
            <Node pos="l" depth="3" NCoef="0" IVar="-1" Cut="0.0000000000000000e+00" cType="1" res="-2.4665934965014458e-02" rms="2.8601807355880737e-01" purity="3.3766552805900574e-01" nType="-99"/>
            <Node pos="r" depth="3" NCoef="0" IVar="-1" Cut="0.0000000000000000e+00" cType="1" res="1.3123281300067902e-02" rms="1.2799227237701416e-01" purity="9.7569799423217773e-01" nType="-99"/>
          </Node>
        </Node>
        <Node pos="r" depth="1" NCoef="0" IVar="6" Cut="1.4365905761718750e+02" cType="1" res="-8.4819523617625237e-03" rms="1.4662839472293854e-01" purity="9.4782727956771851e-01" nType="0">
          <Node pos="l" depth="2" NCoef="0" IVar="-1" Cut="0.0000000000000000e+00" cType="1" res="-4.6716459095478058e-02" rms="2.2968052327632904e-01" purity="8.5396009683609009e-01" nType="-99"/>
          <Node pos="r" depth="2" NCoef="0" IVar="-1" Cut="0.0000000000000000e+00" cType="1" res="-3.3206999301910400e-02" rms="8.7182886898517609e-02" purity="9.8919337987899780e-01" nType="-99"/>
        </Node>
      </Node>
    </BinaryTree>
    <BinaryTree type="DecisionTree" boostWeight="1.0000000000000000e+00" itree="639">
      <Node pos="s" depth="0" NCoef="0" IVar="10" Cut="-1.7324947118759155e+00" cType="1" res="-1.2834621593356133e-03" rms="1.7439833283424377e-01" purity="4.9761161208152771e-01" nType="0">
        <Node pos="l" depth="1" NCoef="0" IVar="5" Cut="1.3840486145019531e+02" cType="1" res="1.3545200228691101e-02" rms="2.1646720170974731e-01" purity="2.5678867101669312e-01" nType="0">
          <Node pos="l" depth="2" NCoef="0" IVar="-1" Cut="0.0000000000000000e+00" cType="1" res="1.3628546148538589e-02" rms="1.7068800330162048e-01" purity="8.4209978580474854e-02" nType="-99"/>
          <Node pos="r" depth="2" NCoef="0" IVar="-1" Cut="0.0000000000000000e+00" cType="1" res="4.2517114430665970e-02" rms="2.5942778587341309e-01" purity="4.5807585120201111e-01" nType="-99"/>
        </Node>
        <Node pos="r" depth="1" NCoef="0" IVar="1" Cut="2.1680036559700966e-02" cType="1" res="-2.2255489602684975e-03" rms="1.7133376002311707e-01" purity="5.1291143894195557e-01" nType="0">
          <Node pos="l" depth="2" NCoef="0" IVar="4" Cut="2.3440673828125000e+02" cType="1" res="3.7860933225601912e-03" rms="1.4690908789634705e-01" purity="1.0321319848299026e-01" nType="0">
            <Node pos="l" depth="3" NCoef="0" IVar="-1" Cut="0.0000000000000000e+00" cType="1" res="6.9534843787550926e-03" rms="1.1843243241310120e-01" purity="2.9431907460093498e-02" nType="-99"/>
            <Node pos="r" depth="3" NCoef="0" IVar="-1" Cut="0.0000000000000000e+00" cType="1" res="2.4323543533682823e-02" rms="2.2901144623756409e-01" purity="4.0622106194496155e-01" nType="-99"/>
          </Node>
          <Node pos="r" depth="2" NCoef="0" IVar="8" Cut="-9.2207950353622437e-01" cType="1" res="-3.5503655672073364e-03" rms="1.7623424530029297e-01" purity="6.0319876670837402e-01" nType="0">
            <Node pos="l" depth="3" NCoef="0" IVar="-1" Cut="0.0000000000000000e+00" cType="1" res="-2.8012175112962723e-02" rms="1.9526205956935883e-01" purity="3.8965469598770142e-01" nType="-99"/>
            <Node pos="r" depth="3" NCoef="0" IVar="-1" Cut="0.0000000000000000e+00" cType="1" res="-6.9762943312525749e-03" rms="1.7317907512187958e-01" purity="6.3506841659545898e-01" nType="-99"/>
          </Node>
        </Node>
      </Node>
    </BinaryTree>
    <BinaryTree type="DecisionTree" boostWeight="1.0000000000000000e+00" itree="640">
      <Node pos="s" depth="0" NCoef="0" IVar="8" Cut="-9.3345445394515991e-01" cType="1" res="6.1069766525179148e-04" rms="1.7870251834392548e-01" purity="5.0416803359985352e-01" nType="0">
        <Node pos="l" depth="1" NCoef="0" IVar="6" Cut="1.2677308654785156e+02" cType="1" res="5.8385608717799187e-03" rms="1.8030385673046112e-01" purity="2.9665136337280273e-01" nType="0">
          <Node pos="l" depth="2" NCoef="0" IVar="9" Cut="-6.6013330221176147e-01" cType="1" res="5.8906699996441603e-04" rms="1.6525903344154358e-01" purity="1.0347520560026169e-01" nType="0">
            <Node pos="l" depth="3" NCoef="0" IVar="-1" Cut="0.0000000000000000e+00" cType="1" res="-4.2282193899154663e-02" rms="1.4796809852123260e-01" purity="6.0978822410106659e-02" nType="-99"/>
            <Node pos="r" depth="3" NCoef="0" IVar="-1" Cut="0.0000000000000000e+00" cType="1" res="2.1863952279090881e-02" rms="1.7339044809341431e-01" purity="1.2601481378078461e-01" nType="-99"/>
          </Node>
          <Node pos="r" depth="2" NCoef="0" IVar="-1" Cut="0.0000000000000000e+00" cType="1" res="3.2908614724874496e-02" rms="2.0722937583923340e-01" purity="6.9071561098098755e-01" nType="-99"/>
        </Node>
        <Node pos="r" depth="1" NCoef="0" IVar="8" Cut="1.9104310274124146e+00" cType="1" res="-3.6838458618149161e-04" rms="1.7838399112224579e-01" purity="5.4303210973739624e-01" nType="0">
          <Node pos="l" depth="2" NCoef="0" IVar="2" Cut="9.3064190673828125e+02" cType="1" res="3.0323099053930491e-05" rms="1.7998841404914856e-01" purity="5.6073820590972900e-01" nType="0">
            <Node pos="l" depth="3" NCoef="0" IVar="-1" Cut="0.0000000000000000e+00" cType="1" res="2.1639289334416389e-03" rms="1.8123111128807068e-01" purity="5.2076488733291626e-01" nType="-99"/>
            <Node pos="r" depth="3" NCoef="0" IVar="-1" Cut="0.0000000000000000e+00" cType="1" res="-2.1980246528983116e-02" rms="1.6827251017093658e-01" purity="9.2020159959793091e-01" nType="-99"/>
          </Node>
          <Node pos="r" depth="2" NCoef="0" IVar="-1" Cut="0.0000000000000000e+00" cType="1" res="-5.6157082319259644e-02" rms="1.2364324182271957e-01" purity="3.8025796413421631e-02" nType="-99"/>
        </Node>
      </Node>
    </BinaryTree>
    <BinaryTree type="DecisionTree" boostWeight="1.0000000000000000e+00" itree="641">
      <Node pos="s" depth="0" NCoef="0" IVar="7" Cut="-9.1560818254947662e-02" cType="1" res="2.2949633421376348e-04" rms="1.7680093646049500e-01" purity="5.0279331207275391e-01" nType="0">
        <Node pos="l" depth="1" NCoef="0" IVar="10" Cut="-6.6616380214691162e-01" cType="1" res="-3.1662441324442625e-03" rms="1.7874775826931000e-01" purity="4.8017302155494690e-01" nType="0">
          <Node pos="l" depth="2" NCoef="0" IVar="0" Cut="1.8147951660156250e+03" cType="1" res="-9.8878154531121254e-03" rms="1.8477031588554382e-01" purity="4.1819882392883301e-01" nType="0">
            <Node pos="l" depth="3" NCoef="0" IVar="-1" Cut="0.0000000000000000e+00" cType="1" res="5.0677885301411152e-03" rms="1.1021544784307480e-01" purity="1.3022958301007748e-02" nType="-99"/>
            <Node pos="r" depth="3" NCoef="0" IVar="-1" Cut="0.0000000000000000e+00" cType="1" res="-3.4344051033258438e-02" rms="2.2416901588439941e-01" purity="7.1762430667877197e-01" nType="-99"/>
          </Node>
          <Node pos="r" depth="2" NCoef="0" IVar="2" Cut="5.6660797119140625e+02" cType="1" res="-2.8650736203417182e-04" rms="1.7602595686912537e-01" purity="5.0672471523284912e-01" nType="0">
            <Node pos="l" depth="3" NCoef="0" IVar="-1" Cut="0.0000000000000000e+00" cType="1" res="-1.4430367387831211e-02" rms="1.7815519869327545e-01" purity="2.5460195541381836e-01" nType="-99"/>
            <Node pos="r" depth="3" NCoef="0" IVar="-1" Cut="0.0000000000000000e+00" cType="1" res="1.4955922029912472e-02" rms="1.7358082532882690e-01" purity="7.7622222900390625e-01" nType="-99"/>
          </Node>
        </Node>
        <Node pos="r" depth="1" NCoef="0" IVar="3" Cut="3.4111654663085938e+02" cType="1" res="3.0320838559418917e-03" rms="1.7512831091880798e-01" purity="5.2146232128143311e-01" nType="0">
          <Node pos="l" depth="2" NCoef="0" IVar="9" Cut="-1.2001603841781616e+00" cType="1" res="-8.8238198077306151e-04" rms="1.7680922150611877e-01" purity="1.3446839153766632e-01" nType="0">
            <Node pos="l" depth="3" NCoef="0" IVar="-1" Cut="0.0000000000000000e+00" cType="1" res="3.5926729440689087e-02" rms="1.9046743214130402e-01" purity="1.0672046244144440e-01" nType="-99"/>
            <Node pos="r" depth="3" NCoef="0" IVar="-1" Cut="0.0000000000000000e+00" cType="1" res="-9.5597505569458008e-03" rms="1.7388384044170380e-01" purity="1.3996331393718719e-01" nType="-99"/>
          </Node>
          <Node pos="r" depth="2" NCoef="0" IVar="5" Cut="1.8238098144531250e+02" cType="1" res="6.1728563159704208e-03" rms="1.7370410263538361e-01" purity="8.3196705579757690e-01" nType="0">
            <Node pos="l" depth="3" NCoef="0" IVar="-1" Cut="0.0000000000000000e+00" cType="1" res="2.9342694208025932e-02" rms="2.5579121708869934e-01" purity="4.7457611560821533e-01" nType="-99"/>
            <Node pos="r" depth="3" NCoef="0" IVar="-1" Cut="0.0000000000000000e+00" cType="1" res="7.0601338520646095e-03" rms="1.3291667401790619e-01" purity="9.5787036418914795e-01" nType="-99"/>
          </Node>
        </Node>
      </Node>
    </BinaryTree>
    <BinaryTree type="DecisionTree" boostWeight="1.0000000000000000e+00" itree="642">
      <Node pos="s" depth="0" NCoef="0" IVar="11" Cut="1.7328279018402100e+00" cType="1" res="-3.3241766504943371e-04" rms="1.7693358659744263e-01" purity="4.9805936217308044e-01" nType="0">
        <Node pos="l" depth="1" NCoef="0" IVar="10" Cut="-1.9983290433883667e+00" cType="1" res="1.9751036597881466e-04" rms="1.7466591298580170e-01" purity="5.1044404506683350e-01" nType="0">
          <Node pos="l" depth="2" NCoef="0" IVar="-1" Cut="0.0000000000000000e+00" cType="1" res="2.5731101632118225e-02" rms="2.1236568689346313e-01" purity="2.2017757594585419e-01" nType="-99"/>
          <Node pos="r" depth="2" NCoef="0" IVar="10" Cut="1.8856006860733032e+00" cType="1" res="-1.6009988030418754e-04" rms="1.7325115203857422e-01" purity="5.2015739679336548e-01" nType="0">
            <Node pos="l" depth="3" NCoef="0" IVar="-1" Cut="0.0000000000000000e+00" cType="1" res="-2.0161839202046394e-03" rms="1.7204314470291138e-01" purity="5.3514295816421509e-01" nType="-99"/>
            <Node pos="r" depth="3" NCoef="0" IVar="-1" Cut="0.0000000000000000e+00" cType="1" res="2.3700024932622910e-02" rms="1.9630448520183563e-01" purity="2.1072821319103241e-01" nType="-99"/>
          </Node>
        </Node>
        <Node pos="r" depth="1" NCoef="0" IVar="7" Cut="4.8414033651351929e-01" cType="1" res="-7.0135178975760937e-03" rms="2.0324736833572388e-01" purity="3.4191882610321045e-01" nType="0">
          <Node pos="l" depth="2" NCoef="0" IVar="-1" Cut="0.0000000000000000e+00" cType="1" res="-3.1435079872608185e-02" rms="2.1114300191402435e-01" purity="3.9228615164756775e-01" nType="-99"/>
          <Node pos="r" depth="2" NCoef="0" IVar="-1" Cut="0.0000000000000000e+00" cType="1" res="1.2338726781308651e-02" rms="1.8726992607116699e-01" purity="2.4899902939796448e-01" nType="-99"/>
        </Node>
      </Node>
    </BinaryTree>
    <BinaryTree type="DecisionTree" boostWeight="1.0000000000000000e+00" itree="643">
      <Node pos="s" depth="0" NCoef="0" IVar="9" Cut="1.4662170410156250e+00" cType="1" res="-4.4803094351664186e-04" rms="1.7448808252811432e-01" purity="4.8795950412750244e-01" nType="0">
        <Node pos="l" depth="1" NCoef="0" IVar="10" Cut="-6.6587346792221069e-01" cType="1" res="1.7576619575265795e-04" rms="1.7427678406238556e-01" purity="5.0904542207717896e-01" nType="0">
          <Node pos="l" depth="2" NCoef="0" IVar="7" Cut="-7.6590013504028320e-01" cType="1" res="-3.2139942049980164e-03" rms="1.8522936105728149e-01" purity="4.5734915137290955e-01" nType="0">
            <Node pos="l" depth="3" NCoef="0" IVar="-1" Cut="0.0000000000000000e+00" cType="1" res="-3.7885390222072601e-02" rms="1.8799394369125366e-01" purity="2.4534673988819122e-01" nType="-99"/>
            <Node pos="r" depth="3" NCoef="0" IVar="-1" Cut="0.0000000000000000e+00" cType="1" res="-1.3659929390996695e-03" rms="1.8442954123020172e-01" purity="5.1051253080368042e-01" nType="-99"/>
          </Node>
          <Node pos="r" depth="2" NCoef="0" IVar="8" Cut="-1.7287576198577881e+00" cType="1" res="1.5201969072222710e-03" rms="1.6971844434738159e-01" purity="5.2954894304275513e-01" nType="0">
            <Node pos="l" depth="3" NCoef="0" IVar="-1" Cut="0.0000000000000000e+00" cType="1" res="-6.2146909534931183e-02" rms="1.2728169560432434e-01" purity="4.8006497323513031e-02" nType="-99"/>
            <Node pos="r" depth="3" NCoef="0" IVar="-1" Cut="0.0000000000000000e+00" cType="1" res="6.5945209935307503e-03" rms="1.7128631472587585e-01" purity="5.5023974180221558e-01" nType="-99"/>
          </Node>
        </Node>
        <Node pos="r" depth="1" NCoef="0" IVar="6" Cut="1.1432199096679688e+02" cType="1" res="-8.0578736960887909e-03" rms="1.7686849832534790e-01" purity="2.3072803020477295e-01" nType="0">
          <Node pos="l" depth="2" NCoef="0" IVar="7" Cut="-1.3646353036165237e-02" cType="1" res="-9.5781026175245643e-04" rms="1.4435078203678131e-01" purity="7.5263269245624542e-02" nType="0">
            <Node pos="l" depth="3" NCoef="0" IVar="-1" Cut="0.0000000000000000e+00" cType="1" res="-3.0068641528487206e-02" rms="1.2319561094045639e-01" purity="4.6099666506052017e-02" nType="-99"/>
            <Node pos="r" depth="3" NCoef="0" IVar="-1" Cut="0.0000000000000000e+00" cType="1" res="1.5029359608888626e-02" rms="1.6265282034873962e-01" purity="1.0455253720283508e-01" nType="-99"/>
          </Node>
          <Node pos="r" depth="2" NCoef="0" IVar="-1" Cut="0.0000000000000000e+00" cType="1" res="-3.7014517933130264e-02" rms="2.2679673135280609e-01" purity="5.3504145145416260e-01" nType="-99"/>
        </Node>
      </Node>
    </BinaryTree>
    <BinaryTree type="DecisionTree" boostWeight="1.0000000000000000e+00" itree="644">
      <Node pos="s" depth="0" NCoef="0" IVar="11" Cut="-1.7333898544311523e+00" cType="1" res="-1.0932965669780970e-03" rms="1.7691926658153534e-01" purity="5.0890773534774780e-01" nType="0">
        <Node pos="l" depth="1" NCoef="0" IVar="9" Cut="-4.0972885489463806e-01" cType="1" res="-1.3167221099138260e-02" rms="1.9703331589698792e-01" purity="3.4297484159469604e-01" nType="0">
          <Node pos="l" depth="2" NCoef="0" IVar="-1" Cut="0.0000000000000000e+00" cType="1" res="6.0543771833181381e-03" rms="2.0940706133842468e-01" purity="3.2449233531951904e-01" nType="-99"/>
          <Node pos="r" depth="2" NCoef="0" IVar="-1" Cut="0.0000000000000000e+00" cType="1" res="-4.9199197441339493e-02" rms="1.8797402083873749e-01" purity="3.5485649108886719e-01" nType="-99"/>
        </Node>
        <Node pos="r" depth="1" NCoef="0" IVar="11" Cut="-1.5174235105514526e+00" cType="1" res="-1.6241746197920293e-04" rms="1.7523814737796783e-01" purity="5.2170085906982422e-01" nType="0">
          <Node pos="l" depth="2" NCoef="0" IVar="-1" Cut="0.0000000000000000e+00" cType="1" res="3.4688327461481094e-02" rms="2.0213513076305389e-01" purity="4.5017951726913452e-01" nType="-99"/>
          <Node pos="r" depth="2" NCoef="0" IVar="11" Cut="-2.8390118479728699e-01" cType="1" res="-6.3691672403365374e-04" rms="1.7414620518684387e-01" purity="5.2434462308883667e-01" nType="0">
            <Node pos="l" depth="3" NCoef="0" IVar="-1" Cut="0.0000000000000000e+00" cType="1" res="-1.2682713568210602e-02" rms="1.6771496832370758e-01" purity="5.3358125686645508e-01" nType="-99"/>
            <Node pos="r" depth="3" NCoef="0" IVar="-1" Cut="0.0000000000000000e+00" cType="1" res="3.1501667108386755e-03" rms="1.7744182050228119e-01" purity="5.1944231986999512e-01" nType="-99"/>
          </Node>
        </Node>
      </Node>
    </BinaryTree>
    <BinaryTree type="DecisionTree" boostWeight="1.0000000000000000e+00" itree="645">
      <Node pos="s" depth="0" NCoef="0" IVar="9" Cut="9.3303018808364868e-01" cType="1" res="-6.2882847851142287e-04" rms="1.7831701040267944e-01" purity="5.0108671188354492e-01" nType="0">
        <Node pos="l" depth="1" NCoef="0" IVar="10" Cut="-1.7321469783782959e+00" cType="1" res="-1.7990354681387544e-03" rms="1.7367865145206451e-01" purity="5.2808386087417603e-01" nType="0">
          <Node pos="l" depth="2" NCoef="0" IVar="-1" Cut="0.0000000000000000e+00" cType="1" res="-2.8649443760514259e-02" rms="1.9184185564517975e-01" purity="2.4152259528636932e-01" nType="-99"/>
          <Node pos="r" depth="2" NCoef="0" IVar="8" Cut="1.2012107372283936e+00" cType="1" res="-1.1417620116844773e-03" rms="1.7240455746650696e-01" purity="5.4681235551834106e-01" nType="0">
            <Node pos="l" depth="3" NCoef="0" IVar="-1" Cut="0.0000000000000000e+00" cType="1" res="-8.0079818144440651e-04" rms="1.7298814654350281e-01" purity="5.8262389898300171e-01" nType="-99"/>
            <Node pos="r" depth="3" NCoef="0" IVar="-1" Cut="0.0000000000000000e+00" cType="1" res="-2.7423033490777016e-02" rms="1.6658350825309753e-01" purity="2.1023471653461456e-01" nType="-99"/>
          </Node>
        </Node>
        <Node pos="r" depth="1" NCoef="0" IVar="8" Cut="-4.0245285630226135e-01" cType="1" res="4.7541023232042789e-03" rms="1.9817160069942474e-01" purity="3.7690007686614990e-01" nType="0">
          <Node pos="l" depth="2" NCoef="0" IVar="11" Cut="-1.3642933964729309e-01" cType="1" res="1.2177073396742344e-02" rms="2.0883142948150635e-01" purity="3.2226303219795227e-01" nType="0">
            <Node pos="l" depth="3" NCoef="0" IVar="-1" Cut="0.0000000000000000e+00" cType="1" res="2.7247604448348284e-03" rms="1.8839333951473236e-01" purity="3.0462157726287842e-01" nType="-99"/>
            <Node pos="r" depth="3" NCoef="0" IVar="-1" Cut="0.0000000000000000e+00" cType="1" res="5.0655275583267212e-02" rms="2.2571133077144623e-01" purity="3.3868584036827087e-01" nType="-99"/>
          </Node>
          <Node pos="r" depth="2" NCoef="0" IVar="10" Cut="-1.2884934246540070e-01" cType="1" res="1.1711060069501400e-03" rms="1.9271314144134521e-01" purity="4.0327283740043640e-01" nType="0">
            <Node pos="l" depth="3" NCoef="0" IVar="-1" Cut="0.0000000000000000e+00" cType="1" res="2.0548699423670769e-02" rms="2.0211261510848999e-01" purity="4.2900267243385315e-01" nType="-99"/>
            <Node pos="r" depth="3" NCoef="0" IVar="-1" Cut="0.0000000000000000e+00" cType="1" res="-1.0855380445718765e-02" rms="1.8533304333686829e-01" purity="3.8439059257507324e-01" nType="-99"/>
          </Node>
        </Node>
      </Node>
    </BinaryTree>
    <BinaryTree type="DecisionTree" boostWeight="1.0000000000000000e+00" itree="646">
      <Node pos="s" depth="0" NCoef="0" IVar="8" Cut="1.3382098078727722e-01" cType="1" res="-5.6685169693082571e-04" rms="1.8007124960422516e-01" purity="5.0678473711013794e-01" nType="0">
        <Node pos="l" depth="1" NCoef="0" IVar="2" Cut="8.5237158203125000e+02" cType="1" res="-3.6322784144431353e-03" rms="1.7905308306217194e-01" purity="5.1826113462448120e-01" nType="0">
          <Node pos="l" depth="2" NCoef="0" IVar="0" Cut="1.7355144042968750e+03" cType="1" res="-2.1289654541760683e-03" rms="1.8072740733623505e-01" purity="4.5456418395042419e-01" nType="0">
            <Node pos="l" depth="3" NCoef="0" IVar="-1" Cut="0.0000000000000000e+00" cType="1" res="1.8475327640771866e-02" rms="1.0665220767259598e-01" purity="1.2546856887638569e-02" nType="-99"/>
            <Node pos="r" depth="3" NCoef="0" IVar="-1" Cut="0.0000000000000000e+00" cType="1" res="-9.2762280255556107e-03" rms="2.1153409779071808e-01" purity="7.0577555894851685e-01" nType="-99"/>
          </Node>
          <Node pos="r" depth="2" NCoef="0" IVar="1" Cut="5.3855482488870621e-02" cType="1" res="-1.2079881504178047e-02" rms="1.6908848285675049e-01" purity="8.7619519233703613e-01" nType="0">
            <Node pos="l" depth="3" NCoef="0" IVar="-1" Cut="0.0000000000000000e+00" cType="1" res="-4.8024117946624756e-02" rms="2.2260341048240662e-01" purity="7.0856106281280518e-01" nType="-99"/>
            <Node pos="r" depth="3" NCoef="0" IVar="-1" Cut="0.0000000000000000e+00" cType="1" res="-2.9188223183155060e-02" rms="1.2843409180641174e-01" purity="9.7154861688613892e-01" nType="-99"/>
          </Node>
        </Node>
        <Node pos="r" depth="1" NCoef="0" IVar="4" Cut="1.4578150939941406e+02" cType="1" res="3.3401411492377520e-03" rms="1.8128554522991180e-01" purity="4.9215766787528992e-01" nType="0">
          <Node pos="l" depth="2" NCoef="0" IVar="6" Cut="8.0283607482910156e+01" cType="1" res="-4.4390368275344372e-03" rms="9.9601037800312042e-02" purity="1.8900901079177856e-02" nType="0">
            <Node pos="l" depth="3" NCoef="0" IVar="-1" Cut="0.0000000000000000e+00" cType="1" res="1.6738627105951309e-02" rms="1.0426311194896698e-01" purity="1.5738265588879585e-02" nType="-99"/>
            <Node pos="r" depth="3" NCoef="0" IVar="-1" Cut="0.0000000000000000e+00" cType="1" res="-6.9039262831211090e-02" rms="9.3783535063266754e-02" purity="2.2362921386957169e-02" nType="-99"/>
          </Node>
          <Node pos="r" depth="2" NCoef="0" IVar="6" Cut="1.5866122436523438e+02" cType="1" res="4.8808124847710133e-03" rms="1.9337575137615204e-01" purity="5.8588653802871704e-01" nType="0">
            <Node pos="l" depth="3" NCoef="0" IVar="-1" Cut="0.0000000000000000e+00" cType="1" res="1.6635822132229805e-02" rms="2.2213752567768097e-01" purity="3.5775372385978699e-01" nType="-99"/>
            <Node pos="r" depth="3" NCoef="0" IVar="-1" Cut="0.0000000000000000e+00" cType="1" res="5.1422993419691920e-04" rms="1.3919319212436676e-01" purity="9.2913925647735596e-01" nType="-99"/>
          </Node>
        </Node>
      </Node>
    </BinaryTree>
    <BinaryTree type="DecisionTree" boostWeight="1.0000000000000000e+00" itree="647">
      <Node pos="s" depth="0" NCoef="0" IVar="7" Cut="-5.6077247858047485e-01" cType="1" res="-2.5219775852747262e-04" rms="1.7792455852031708e-01" purity="4.9883082509040833e-01" nType="0">
        <Node pos="l" depth="1" NCoef="0" IVar="6" Cut="9.4162689208984375e+01" cType="1" res="5.5909948423504829e-03" rms="1.8651741743087769e-01" purity="3.7251454591751099e-01" nType="0">
          <Node pos="l" depth="2" NCoef="0" IVar="10" Cut="6.6761392354965210e-01" cType="1" res="-6.4624473452568054e-04" rms="1.4419490098953247e-01" purity="6.1868049204349518e-02" nType="0">
            <Node pos="l" depth="3" NCoef="0" IVar="-1" Cut="0.0000000000000000e+00" cType="1" res="-2.1389048546552658e-02" rms="1.3919171690940857e-01" purity="6.1142303049564362e-02" nType="-99"/>
            <Node pos="r" depth="3" NCoef="0" IVar="-1" Cut="0.0000000000000000e+00" cType="1" res="4.2846314609050751e-02" rms="1.5552699565887451e-01" purity="6.3673458993434906e-02" nType="-99"/>
          </Node>
          <Node pos="r" depth="2" NCoef="0" IVar="0" Cut="2.7316157226562500e+03" cType="1" res="9.7593795508146286e-03" rms="2.0999850332736969e-01" purity="5.8012139797210693e-01" nType="0">
            <Node pos="l" depth="3" NCoef="0" IVar="-1" Cut="0.0000000000000000e+00" cType="1" res="2.5416547432541847e-02" rms="2.4956311285495758e-01" purity="3.0236124992370605e-01" nType="-99"/>
            <Node pos="r" depth="3" NCoef="0" IVar="-1" Cut="0.0000000000000000e+00" cType="1" res="1.4040085952728987e-03" rms="1.3451078534126282e-01" purity="9.7506278753280640e-01" nType="-99"/>
          </Node>
        </Node>
        <Node pos="r" depth="1" NCoef="0" IVar="10" Cut="-3.9966255426406860e-01" cType="1" res="-2.1046707406640053e-03" rms="1.7507162690162659e-01" purity="5.3887695074081421e-01" nType="0">
          <Node pos="l" depth="2" NCoef="0" IVar="5" Cut="1.5273854064941406e+02" cType="1" res="1.3324726605787873e-03" rms="1.7835174500942230e-01" purity="5.2984684705734253e-01" nType="0">
            <Node pos="l" depth="3" NCoef="0" IVar="-1" Cut="0.0000000000000000e+00" cType="1" res="-1.3916378840804100e-02" rms="1.7262266576290131e-01" purity="1.1837176978588104e-01" nType="-99"/>
            <Node pos="r" depth="3" NCoef="0" IVar="-1" Cut="0.0000000000000000e+00" cType="1" res="1.6505576670169830e-02" rms="1.8221630156040192e-01" purity="8.2444536685943604e-01" nType="-99"/>
          </Node>
          <Node pos="r" depth="2" NCoef="0" IVar="8" Cut="-6.6584640741348267e-01" cType="1" res="-4.0127942338585854e-03" rms="1.7319443821907043e-01" purity="5.4388999938964844e-01" nType="0">
            <Node pos="l" depth="3" NCoef="0" IVar="-1" Cut="0.0000000000000000e+00" cType="1" res="-3.2644964754581451e-02" rms="1.7974929511547089e-01" purity="3.8778316974639893e-01" nType="-99"/>
            <Node pos="r" depth="3" NCoef="0" IVar="-1" Cut="0.0000000000000000e+00" cType="1" res="-6.4940121956169605e-03" rms="1.7125023901462555e-01" purity="5.8770358562469482e-01" nType="-99"/>
          </Node>
        </Node>
      </Node>
    </BinaryTree>
    <BinaryTree type="DecisionTree" boostWeight="1.0000000000000000e+00" itree="648">
      <Node pos="s" depth="0" NCoef="0" IVar="1" Cut="1.2855790555477142e-01" cType="1" res="-9.3789218226447701e-04" rms="1.7805851995944977e-01" purity="4.9439564347267151e-01" nType="0">
        <Node pos="l" depth="1" NCoef="0" IVar="0" Cut="1.9325607910156250e+03" cType="1" res="-2.0967116579413414e-03" rms="1.8477351963520050e-01" purity="3.8263466954231262e-01" nType="0">
          <Node pos="l" depth="2" NCoef="0" IVar="0" Cut="1.8564616699218750e+03" cType="1" res="4.6921192551963031e-04" rms="1.2375552207231522e-01" purity="1.8216565251350403e-02" nType="0">
            <Node pos="l" depth="3" NCoef="0" IVar="-1" Cut="0.0000000000000000e+00" cType="1" res="-2.4402306880801916e-03" rms="1.0634926706552505e-01" purity="1.2533479370176792e-02" nType="-99"/>
            <Node pos="r" depth="3" NCoef="0" IVar="-1" Cut="0.0000000000000000e+00" cType="1" res="1.7377421259880066e-02" rms="2.6956692337989807e-01" purity="9.9768131971359253e-02" nType="-99"/>
          </Node>
          <Node pos="r" depth="2" NCoef="0" IVar="0" Cut="2.1735825195312500e+03" cType="1" res="-4.7492696903645992e-03" rms="2.3149268329143524e-01" purity="7.5935673713684082e-01" nType="0">
            <Node pos="l" depth="3" NCoef="0" IVar="-1" Cut="0.0000000000000000e+00" cType="1" res="-2.0413834601640701e-02" rms="2.9237616062164307e-01" purity="1.5747237205505371e-01" nType="-99"/>
            <Node pos="r" depth="3" NCoef="0" IVar="-1" Cut="0.0000000000000000e+00" cType="1" res="-3.5509951412677765e-03" rms="2.1734473109245300e-01" purity="8.7812906503677368e-01" nType="-99"/>
          </Node>
        </Node>
        <Node pos="r" depth="1" NCoef="0" IVar="2" Cut="5.4434887695312500e+02" cType="1" res="2.7913213707506657e-03" rms="1.5442131459712982e-01" purity="8.5405534505844116e-01" nType="0">
          <Node pos="l" depth="2" NCoef="0" IVar="4" Cut="2.4280465698242188e+02" cType="1" res="1.2366879731416702e-02" rms="2.1552999317646027e-01" purity="6.4044427871704102e-01" nType="0">
            <Node pos="l" depth="3" NCoef="0" IVar="-1" Cut="0.0000000000000000e+00" cType="1" res="4.4577833265066147e-02" rms="2.6252186298370361e-01" purity="2.5159391760826111e-01" nType="-99"/>
            <Node pos="r" depth="3" NCoef="0" IVar="-1" Cut="0.0000000000000000e+00" cType="1" res="9.0549727901816368e-03" rms="1.8013106286525726e-01" purity="8.7918519973754883e-01" nType="-99"/>
          </Node>
          <Node pos="r" depth="2" NCoef="0" IVar="0" Cut="3.0487402343750000e+03" cType="1" res="-2.2347846534103155e-03" rms="1.0911583155393600e-01" purity="9.6617746353149414e-01" nType="0">
            <Node pos="l" depth="3" NCoef="0" IVar="-1" Cut="0.0000000000000000e+00" cType="1" res="-2.2658620029687881e-02" rms="1.9727583229541779e-01" purity="8.8137310743331909e-01" nType="-99"/>
            <Node pos="r" depth="3" NCoef="0" IVar="-1" Cut="0.0000000000000000e+00" cType="1" res="2.1554367616772652e-02" rms="4.0283415466547012e-02" purity="9.9838173389434814e-01" nType="-99"/>
          </Node>
        </Node>
      </Node>
    </BinaryTree>
    <BinaryTree type="DecisionTree" boostWeight="1.0000000000000000e+00" itree="649">
      <Node pos="s" depth="0" NCoef="0" IVar="1" Cut="6.0563188046216965e-02" cType="1" res="-2.0122107525821775e-04" rms="1.7464606463909149e-01" purity="4.9417749047279358e-01" nType="0">
        <Node pos="l" depth="1" NCoef="0" IVar="3" Cut="3.9084317016601562e+02" cType="1" res="2.5508217513561249e-03" rms="1.7725992202758789e-01" purity="2.3993742465972900e-01" nType="0">
          <Node pos="l" depth="2" NCoef="0" IVar="8" Cut="1.4657378196716309e+00" cType="1" res="1.5668924606870860e-04" rms="1.6037133336067200e-01" purity="8.3519831299781799e-02" nType="0">
            <Node pos="l" depth="3" NCoef="0" IVar="-1" Cut="0.0000000000000000e+00" cType="1" res="-4.2510381899774075e-03" rms="1.6049008071422577e-01" purity="8.6508117616176605e-02" nType="-99"/>
            <Node pos="r" depth="3" NCoef="0" IVar="-1" Cut="0.0000000000000000e+00" cType="1" res="4.1211962699890137e-02" rms="1.5931300818920135e-01" purity="6.3602037727832794e-02" nType="-99"/>
          </Node>
          <Node pos="r" depth="2" NCoef="0" IVar="1" Cut="4.0423203259706497e-02" cType="1" res="9.0955840423703194e-03" rms="2.1668010950088501e-01" purity="6.6753113269805908e-01" nType="0">
            <Node pos="l" depth="3" NCoef="0" IVar="-1" Cut="0.0000000000000000e+00" cType="1" res="2.6102567091584206e-02" rms="2.2965078055858612e-01" purity="5.5020594596862793e-01" nType="-99"/>
            <Node pos="r" depth="3" NCoef="0" IVar="-1" Cut="0.0000000000000000e+00" cType="1" res="-2.5678391102701426e-03" rms="1.9274094700813293e-01" purity="8.6276513338088989e-01" nType="-99"/>
          </Node>
        </Node>
        <Node pos="r" depth="1" NCoef="0" IVar="0" Cut="2.3259191894531250e+03" cType="1" res="-2.6342889759689569e-03" rms="1.7226552963256836e-01" purity="7.1894991397857666e-01" nType="0">
          <Node pos="l" depth="2" NCoef="0" IVar="5" Cut="1.8308781433105469e+02" cType="1" res="-1.0741771198809147e-02" rms="2.4290990829467773e-01" purity="1.5808130800724030e-01" nType="0">
            <Node pos="l" depth="3" NCoef="0" IVar="-1" Cut="0.0000000000000000e+00" cType="1" res="-1.2756308540701866e-02" rms="2.1138450503349304e-01" purity="9.6335656940937042e-02" nType="-99"/>
            <Node pos="r" depth="3" NCoef="0" IVar="-1" Cut="0.0000000000000000e+00" cType="1" res="-2.1217854693531990e-02" rms="3.3905541896820068e-01" purity="4.0079221129417419e-01" nType="-99"/>
          </Node>
          <Node pos="r" depth="2" NCoef="0" IVar="5" Cut="1.8848497009277344e+02" cType="1" res="1.1311954585835338e-03" rms="1.2652510404586792e-01" purity="9.7944289445877075e-01" nType="0">
            <Node pos="l" depth="3" NCoef="0" IVar="-1" Cut="0.0000000000000000e+00" cType="1" res="1.6467461362481117e-02" rms="2.1695084869861603e-01" purity="9.3524730205535889e-01" nType="-99"/>
            <Node pos="r" depth="3" NCoef="0" IVar="-1" Cut="0.0000000000000000e+00" cType="1" res="-4.3950996769126505e-05" rms="1.0433985292911530e-01" purity="9.8671793937683105e-01" nType="-99"/>
          </Node>
        </Node>
      </Node>
    </BinaryTree>
    <BinaryTree type="DecisionTree" boostWeight="1.0000000000000000e+00" itree="650">
      <Node pos="s" depth="0" NCoef="0" IVar="0" Cut="2.7313715820312500e+03" cType="1" res="1.7357629258185625e-03" rms="1.7820391058921814e-01" purity="5.0246077775955200e-01" nType="0">
        <Node pos="l" depth="1" NCoef="0" IVar="0" Cut="1.9071818847656250e+03" cType="1" res="3.7498974706977606e-03" rms="2.0812851190567017e-01" purity="1.9251474738121033e-01" nType="0">
          <Node pos="l" depth="2" NCoef="0" IVar="11" Cut="-1.4654273986816406e+00" cType="1" res="5.4489448666572571e-04" rms="1.2943273782730103e-01" purity="2.0310733467340469e-02" nType="0">
            <Node pos="l" depth="3" NCoef="0" IVar="-1" Cut="0.0000000000000000e+00" cType="1" res="-3.9652489125728607e-02" rms="1.2214151024818420e-01" purity="1.9778383895754814e-02" nType="-99"/>
            <Node pos="r" depth="3" NCoef="0" IVar="-1" Cut="0.0000000000000000e+00" cType="1" res="1.2948459014296532e-02" rms="1.3042847812175751e-01" purity="2.0390709862112999e-02" nType="-99"/>
          </Node>
          <Node pos="r" depth="2" NCoef="0" IVar="9" Cut="-6.6692388057708740e-01" cType="1" res="1.0523122735321522e-02" rms="3.1526136398315430e-01" purity="5.5643838644027710e-01" nType="0">
            <Node pos="l" depth="3" NCoef="0" IVar="-1" Cut="0.0000000000000000e+00" cType="1" res="2.7892492711544037e-02" rms="3.3148166537284851e-01" purity="5.7500952482223511e-01" nType="-99"/>
            <Node pos="r" depth="3" NCoef="0" IVar="-1" Cut="0.0000000000000000e+00" cType="1" res="3.5956238862127066e-03" rms="3.0898588895797729e-01" purity="5.4983311891555786e-01" nType="-99"/>
          </Node>
        </Node>
        <Node pos="r" depth="1" NCoef="0" IVar="1" Cut="6.0648348182439804e-02" cType="1" res="-1.3546872651204467e-03" rms="1.1833054572343826e-01" purity="9.7803616523742676e-01" nType="0">
          <Node pos="l" depth="2" NCoef="0" IVar="5" Cut="2.2709065246582031e+02" cType="1" res="-8.6199007928371429e-03" rms="1.9925020635128021e-01" purity="9.2775571346282959e-01" nType="0">
            <Node pos="l" depth="3" NCoef="0" IVar="-1" Cut="0.0000000000000000e+00" cType="1" res="-3.7117719650268555e-02" rms="2.8333893418312073e-01" purity="8.4098893404006958e-01" nType="-99"/>
            <Node pos="r" depth="3" NCoef="0" IVar="-1" Cut="0.0000000000000000e+00" cType="1" res="2.1777383983135223e-02" rms="1.1690159142017365e-01" purity="9.8258763551712036e-01" nType="-99"/>
          </Node>
          <Node pos="r" depth="2" NCoef="0" IVar="4" Cut="2.8364285278320312e+02" cType="1" res="7.5164728332310915e-04" rms="8.0819845199584961e-02" purity="9.9261343479156494e-01" nType="0">
            <Node pos="l" depth="3" NCoef="0" IVar="-1" Cut="0.0000000000000000e+00" cType="1" res="3.3356502652168274e-02" rms="1.2679481506347656e-01" purity="9.8244583606719971e-01" nType="-99"/>
            <Node pos="r" depth="3" NCoef="0" IVar="-1" Cut="0.0000000000000000e+00" cType="1" res="5.4425280541181564e-04" rms="7.3113217949867249e-02" purity="9.9387204647064209e-01" nType="-99"/>
          </Node>
        </Node>
      </Node>
    </BinaryTree>
    <BinaryTree type="DecisionTree" boostWeight="1.0000000000000000e+00" itree="651">
      <Node pos="s" depth="0" NCoef="0" IVar="9" Cut="1.4661157131195068e+00" cType="1" res="4.6446209307760000e-04" rms="1.7713649570941925e-01" purity="4.9914532899856567e-01" nType="0">
        <Node pos="l" depth="1" NCoef="0" IVar="11" Cut="6.6730147600173950e-01" cType="1" res="-4.5648170635104179e-04" rms="1.7523153126239777e-01" purity="5.1962143182754517e-01" nType="0">
          <Node pos="l" depth="2" NCoef="0" IVar="11" Cut="1.7207655310630798e-01" cType="1" res="-2.6080189272761345e-03" rms="1.7174081504344940e-01" purity="5.2405452728271484e-01" nType="0">
            <Node pos="l" depth="3" NCoef="0" IVar="-1" Cut="0.0000000000000000e+00" cType="1" res="-2.3788870312273502e-03" rms="1.7033629119396210e-01" purity="5.1467287540435791e-01" nType="-99"/>
            <Node pos="r" depth="3" NCoef="0" IVar="-1" Cut="0.0000000000000000e+00" cType="1" res="-3.1714793294668198e-02" rms="1.7681278288364410e-01" purity="5.5982542037963867e-01" nType="-99"/>
          </Node>
          <Node pos="r" depth="2" NCoef="0" IVar="3" Cut="2.7676809692382812e+02" cType="1" res="4.6611307188868523e-03" rms="1.8316602706909180e-01" purity="5.0907707214355469e-01" nType="0">
            <Node pos="l" depth="3" NCoef="0" IVar="-1" Cut="0.0000000000000000e+00" cType="1" res="-1.3414924964308739e-02" rms="1.6332417726516724e-01" purity="7.1981936693191528e-02" nType="-99"/>
            <Node pos="r" depth="3" NCoef="0" IVar="-1" Cut="0.0000000000000000e+00" cType="1" res="2.1504493430256844e-02" rms="1.9141684472560883e-01" purity="7.0860123634338379e-01" nType="-99"/>
          </Node>
        </Node>
        <Node pos="r" depth="1" NCoef="0" IVar="9" Cut="1.8472056388854980e+00" cType="1" res="1.2799710035324097e-02" rms="2.0051082968711853e-01" purity="2.2488532960414886e-01" nType="0">
          <Node pos="l" depth="2" NCoef="0" IVar="-1" Cut="0.0000000000000000e+00" cType="1" res="6.2143120914697647e-02" rms="2.3355674743652344e-01" purity="3.4017354249954224e-01" nType="-99"/>
          <Node pos="r" depth="2" NCoef="0" IVar="-1" Cut="0.0000000000000000e+00" cType="1" res="-1.7803447321057320e-02" rms="1.5964248776435852e-01" purity="1.1194169521331787e-01" nType="-99"/>
        </Node>
      </Node>
    </BinaryTree>
    <BinaryTree type="DecisionTree" boostWeight="1.0000000000000000e+00" itree="652">
      <Node pos="s" depth="0" NCoef="0" IVar="1" Cut="1.0080374032258987e-01" cType="1" res="1.2293596519157290e-03" rms="1.7762561142444611e-01" purity="5.0681078433990479e-01" nType="0">
        <Node pos="l" depth="1" NCoef="0" IVar="5" Cut="2.6625265502929688e+02" cType="1" res="2.9710684902966022e-03" rms="1.8683166801929474e-01" purity="3.4693017601966858e-01" nType="0">
          <Node pos="l" depth="2" NCoef="0" IVar="4" Cut="1.8957220458984375e+02" cType="1" res="4.2514777742326260e-03" rms="1.9341529905796051e-01" purity="2.4830257892608643e-01" nType="0">
            <Node pos="l" depth="3" NCoef="0" IVar="-1" Cut="0.0000000000000000e+00" cType="1" res="-1.3930841814726591e-03" rms="1.4270764589309692e-01" purity="4.5603908598423004e-02" nType="-99"/>
            <Node pos="r" depth="3" NCoef="0" IVar="-1" Cut="0.0000000000000000e+00" cType="1" res="1.5464256517589092e-02" rms="2.3240546882152557e-01" purity="4.4622731208801270e-01" nType="-99"/>
          </Node>
          <Node pos="r" depth="2" NCoef="0" IVar="7" Cut="-3.4134216606616974e-02" cType="1" res="-5.0131576135754585e-03" rms="1.3864223659038544e-01" purity="9.6194046735763550e-01" nType="0">
            <Node pos="l" depth="3" NCoef="0" IVar="-1" Cut="0.0000000000000000e+00" cType="1" res="-4.1814692318439484e-02" rms="1.5197411179542542e-01" purity="9.5120328664779663e-01" nType="-99"/>
            <Node pos="r" depth="3" NCoef="0" IVar="-1" Cut="0.0000000000000000e+00" cType="1" res="-8.4260683506727219e-03" rms="1.2486334890127182e-01" purity="9.7192841768264771e-01" nType="-99"/>
          </Node>
        </Node>
        <Node pos="r" depth="1" NCoef="0" IVar="2" Cut="5.4492742919921875e+02" cType="1" res="-2.1167083177715540e-03" rms="1.5839189291000366e-01" purity="8.1396394968032837e-01" nType="0">
          <Node pos="l" depth="2" NCoef="0" IVar="7" Cut="7.6868034899234772e-02" cType="1" res="-8.0332765355706215e-03" rms="2.1536672115325928e-01" purity="5.5148601531982422e-01" nType="0">
            <Node pos="l" depth="3" NCoef="0" IVar="-1" Cut="0.0000000000000000e+00" cType="1" res="-1.9469588296487927e-03" rms="2.1347217261791229e-01" purity="5.9092402458190918e-01" nType="-99"/>
            <Node pos="r" depth="3" NCoef="0" IVar="-1" Cut="0.0000000000000000e+00" cType="1" res="-3.4020401537418365e-02" rms="2.1714496612548828e-01" purity="5.0855565071105957e-01" nType="-99"/>
          </Node>
          <Node pos="r" depth="2" NCoef="0" IVar="9" Cut="-6.4036351442337036e-01" cType="1" res="1.1253327829763293e-03" rms="1.1571338027715683e-01" purity="9.5779132843017578e-01" nType="0">
            <Node pos="l" depth="3" NCoef="0" IVar="-1" Cut="0.0000000000000000e+00" cType="1" res="-2.4076407775282860e-02" rms="1.2520381808280945e-01" purity="9.2725759744644165e-01" nType="-99"/>
            <Node pos="r" depth="3" NCoef="0" IVar="-1" Cut="0.0000000000000000e+00" cType="1" res="1.9091363996267319e-02" rms="1.1281039565801620e-01" purity="9.6649330854415894e-01" nType="-99"/>
          </Node>
        </Node>
      </Node>
    </BinaryTree>
    <BinaryTree type="DecisionTree" boostWeight="1.0000000000000000e+00" itree="653">
      <Node pos="s" depth="0" NCoef="0" IVar="3" Cut="2.7483660888671875e+02" cType="1" res="-8.2085205940529704e-04" rms="1.7669565975666046e-01" purity="4.9890890717506409e-01" nType="0">
        <Node pos="l" depth="1" NCoef="0" IVar="0" Cut="1.7363081054687500e+03" cType="1" res="-5.7777739129960537e-03" rms="1.4468418061733246e-01" purity="5.7028800249099731e-02" nType="0">
          <Node pos="l" depth="2" NCoef="0" IVar="0" Cut="1.6242086181640625e+03" cType="1" res="-2.2359469439834356e-03" rms="8.1975035369396210e-02" purity="7.1365432813763618e-03" nType="0">
            <Node pos="l" depth="3" NCoef="0" IVar="-1" Cut="0.0000000000000000e+00" cType="1" res="-6.3107823953032494e-03" rms="7.1440003812313080e-02" purity="5.4537761025130749e-03" nType="-99"/>
            <Node pos="r" depth="3" NCoef="0" IVar="-1" Cut="0.0000000000000000e+00" cType="1" res="-4.6398632228374481e-02" rms="1.1747909337282181e-01" purity="1.4598043635487556e-02" nType="-99"/>
          </Node>
          <Node pos="r" depth="2" NCoef="0" IVar="3" Cut="2.2497583007812500e+02" cType="1" res="-1.7428923398256302e-02" rms="2.5983339548110962e-01" purity="2.2115375101566315e-01" nType="0">
            <Node pos="l" depth="3" NCoef="0" IVar="-1" Cut="0.0000000000000000e+00" cType="1" res="-4.8951723147183657e-04" rms="2.3084619641304016e-01" purity="1.2848809361457825e-01" nType="-99"/>
            <Node pos="r" depth="3" NCoef="0" IVar="-1" Cut="0.0000000000000000e+00" cType="1" res="-3.2056875526905060e-02" rms="2.7655881643295288e-01" purity="2.8167203068733215e-01" nType="-99"/>
          </Node>
        </Node>
        <Node pos="r" depth="1" NCoef="0" IVar="11" Cut="9.3408936262130737e-01" cType="1" res="1.3001326005905867e-03" rms="1.8870173394680023e-01" purity="6.8798208236694336e-01" nType="0">
          <Node pos="l" depth="2" NCoef="0" IVar="9" Cut="-1.4660879373550415e+00" cType="1" res="3.2567528542131186e-03" rms="1.8380697071552277e-01" purity="7.0497822761535645e-01" nType="0">
            <Node pos="l" depth="3" NCoef="0" IVar="-1" Cut="0.0000000000000000e+00" cType="1" res="3.7640839815139771e-02" rms="2.3840919137001038e-01" purity="3.8550370931625366e-01" nType="-99"/>
            <Node pos="r" depth="3" NCoef="0" IVar="-1" Cut="0.0000000000000000e+00" cType="1" res="6.2164952978491783e-03" rms="1.7935530841350555e-01" purity="7.2710043191909790e-01" nType="-99"/>
          </Node>
          <Node pos="r" depth="2" NCoef="0" IVar="0" Cut="2.0491271972656250e+03" cType="1" res="-5.5081704631447792e-03" rms="2.0467828214168549e-01" purity="6.2884187698364258e-01" nType="0">
            <Node pos="l" depth="3" NCoef="0" IVar="-1" Cut="0.0000000000000000e+00" cType="1" res="9.5989573746919632e-03" rms="1.9311556220054626e-01" purity="5.8141306042671204e-02" nType="-99"/>
            <Node pos="r" depth="3" NCoef="0" IVar="-1" Cut="0.0000000000000000e+00" cType="1" res="-2.2310361266136169e-02" rms="2.0934483408927917e-01" purity="8.7482380867004395e-01" nType="-99"/>
          </Node>
        </Node>
      </Node>
    </BinaryTree>
    <BinaryTree type="DecisionTree" boostWeight="1.0000000000000000e+00" itree="654">
      <Node pos="s" depth="0" NCoef="0" IVar="10" Cut="-1.1981879472732544e+00" cType="1" res="-3.6304694367572665e-04" rms="1.7468973994255066e-01" purity="4.9657443165779114e-01" nType="0">
        <Node pos="l" depth="1" NCoef="0" IVar="8" Cut="-3.9985984563827515e-01" cType="1" res="6.5773418173193932e-03" rms="1.9411137700080872e-01" purity="3.8788965344429016e-01" nType="0">
          <Node pos="l" depth="2" NCoef="0" IVar="0" Cut="1.8459892578125000e+03" cType="1" res="1.4320317655801773e-02" rms="1.8416179716587067e-01" purity="3.2149147987365723e-01" nType="0">
            <Node pos="l" depth="3" NCoef="0" IVar="-1" Cut="0.0000000000000000e+00" cType="1" res="-2.9816593974828720e-02" rms="9.3415595591068268e-02" purity="1.0212142951786518e-02" nType="-99"/>
            <Node pos="r" depth="3" NCoef="0" IVar="-1" Cut="0.0000000000000000e+00" cType="1" res="5.2786726504564285e-02" rms="2.5243055820465088e-01" purity="7.0089465379714966e-01" nType="-99"/>
          </Node>
          <Node pos="r" depth="2" NCoef="0" IVar="9" Cut="-6.6579294204711914e-01" cType="1" res="1.0591828031465411e-03" rms="2.0071940124034882e-01" purity="4.3520945310592651e-01" nType="0">
            <Node pos="l" depth="3" NCoef="0" IVar="-1" Cut="0.0000000000000000e+00" cType="1" res="3.1846653670072556e-02" rms="2.2344516217708588e-01" purity="3.7449282407760620e-01" nType="-99"/>
            <Node pos="r" depth="3" NCoef="0" IVar="-1" Cut="0.0000000000000000e+00" cType="1" res="-9.8625971004366875e-03" rms="1.8978133797645569e-01" purity="4.6159195899963379e-01" nType="-99"/>
          </Node>
        </Node>
        <Node pos="r" depth="1" NCoef="0" IVar="4" Cut="2.6014251708984375e+02" cType="1" res="-1.5272207092493773e-03" rms="1.7118880152702332e-01" purity="5.1480513811111450e-01" nType="0">
          <Node pos="l" depth="2" NCoef="0" IVar="0" Cut="1.8876590576171875e+03" cType="1" res="-3.8645179010927677e-03" rms="1.8140356242656708e-01" purity="1.4805878698825836e-01" nType="0">
            <Node pos="l" depth="3" NCoef="0" IVar="-1" Cut="0.0000000000000000e+00" cType="1" res="-1.7405692487955093e-03" rms="1.1357242614030838e-01" purity="1.5080058015882969e-02" nType="-99"/>
            <Node pos="r" depth="3" NCoef="0" IVar="-1" Cut="0.0000000000000000e+00" cType="1" res="-1.5386378392577171e-02" rms="2.9538145661354065e-01" purity="5.1011621952056885e-01" nType="-99"/>
          </Node>
          <Node pos="r" depth="2" NCoef="0" IVar="10" Cut="-8.1722557544708252e-01" cType="1" res="9.6683879382908344e-04" rms="1.5953165292739868e-01" purity="9.0614908933639526e-01" nType="0">
            <Node pos="l" depth="3" NCoef="0" IVar="-1" Cut="0.0000000000000000e+00" cType="1" res="-2.8988081961870193e-02" rms="1.6841003298759460e-01" purity="9.0102922916412354e-01" nType="-99"/>
            <Node pos="r" depth="3" NCoef="0" IVar="-1" Cut="0.0000000000000000e+00" cType="1" res="7.4765640310943127e-03" rms="1.5836878120899200e-01" purity="9.0677833557128906e-01" nType="-99"/>
          </Node>
        </Node>
      </Node>
    </BinaryTree>
    <BinaryTree type="DecisionTree" boostWeight="1.0000000000000000e+00" itree="655">
      <Node pos="s" depth="0" NCoef="0" IVar="8" Cut="6.6753089427947998e-01" cType="1" res="8.4075389895588160e-04" rms="1.8124718964099884e-01" purity="5.0705295801162720e-01" nType="0">
        <Node pos="l" depth="1" NCoef="0" IVar="10" Cut="-1.9991481304168701e+00" cType="1" res="-1.6505311941727996e-04" rms="1.7979259788990021e-01" purity="5.4734325408935547e-01" nType="0">
          <Node pos="l" depth="2" NCoef="0" IVar="-1" Cut="0.0000000000000000e+00" cType="1" res="3.0270002782344818e-02" rms="2.2721415758132935e-01" purity="2.4100655317306519e-01" nType="-99"/>
          <Node pos="r" depth="2" NCoef="0" IVar="5" Cut="1.1875270080566406e+02" cType="1" res="-6.3186581246554852e-04" rms="1.7780844867229462e-01" purity="5.5850642919540405e-01" nType="0">
            <Node pos="l" depth="3" NCoef="0" IVar="-1" Cut="0.0000000000000000e+00" cType="1" res="1.3534338213503361e-02" rms="1.4990298449993134e-01" purity="5.9983842074871063e-02" nType="-99"/>
            <Node pos="r" depth="3" NCoef="0" IVar="-1" Cut="0.0000000000000000e+00" cType="1" res="-4.7981655225157738e-03" rms="1.8519826233386993e-01" purity="7.0501834154129028e-01" nType="-99"/>
          </Node>
        </Node>
        <Node pos="r" depth="1" NCoef="0" IVar="5" Cut="1.5529133605957031e+02" cType="1" res="4.0971897542476654e-03" rms="1.8584120273590088e-01" purity="3.7660777568817139e-01" nType="0">
          <Node pos="l" depth="2" NCoef="0" IVar="9" Cut="-9.3370038270950317e-01" cType="1" res="-4.0124109364114702e-04" rms="1.5845483541488647e-01" purity="7.4114412069320679e-02" nType="0">
            <Node pos="l" depth="3" NCoef="0" IVar="-1" Cut="0.0000000000000000e+00" cType="1" res="-5.7619094848632812e-02" rms="1.3713805377483368e-01" purity="5.6057978421449661e-02" nType="-99"/>
            <Node pos="r" depth="3" NCoef="0" IVar="-1" Cut="0.0000000000000000e+00" cType="1" res="1.3906535692512989e-02" rms="1.6384401917457581e-01" purity="7.9295270144939423e-02" nType="-99"/>
          </Node>
          <Node pos="r" depth="2" NCoef="0" IVar="3" Cut="3.4325695800781250e+02" cType="1" res="9.3182297423481941e-03" rms="2.1314282715320587e-01" purity="7.2769236564636230e-01" nType="0">
            <Node pos="l" depth="3" NCoef="0" IVar="-1" Cut="0.0000000000000000e+00" cType="1" res="3.6307659000158310e-02" rms="2.6526692509651184e-01" purity="3.6180222034454346e-01" nType="-99"/>
            <Node pos="r" depth="3" NCoef="0" IVar="-1" Cut="0.0000000000000000e+00" cType="1" res="4.1798059828579426e-03" rms="1.8259479105472565e-01" purity="9.0228301286697388e-01" nType="-99"/>
          </Node>
        </Node>
      </Node>
    </BinaryTree>
    <BinaryTree type="DecisionTree" boostWeight="1.0000000000000000e+00" itree="656">
      <Node pos="s" depth="0" NCoef="0" IVar="9" Cut="-4.0030869841575623e-01" cType="1" res="-9.3127816217020154e-04" rms="1.7761957645416260e-01" purity="5.0160628557205200e-01" nType="0">
        <Node pos="l" depth="1" NCoef="0" IVar="10" Cut="-1.3415288925170898e-01" cType="1" res="-4.3224571272730827e-03" rms="1.7917856574058533e-01" purity="4.5099788904190063e-01" nType="0">
          <Node pos="l" depth="2" NCoef="0" IVar="9" Cut="-7.4318957328796387e-01" cType="1" res="-8.7637538090348244e-03" rms="1.8001183867454529e-01" purity="4.2248916625976562e-01" nType="0">
            <Node pos="l" depth="3" NCoef="0" IVar="-1" Cut="0.0000000000000000e+00" cType="1" res="-1.3830579817295074e-02" rms="1.7504604160785675e-01" purity="3.7123191356658936e-01" nType="-99"/>
            <Node pos="r" depth="3" NCoef="0" IVar="-1" Cut="0.0000000000000000e+00" cType="1" res="-5.2076041698455811e-02" rms="1.8988698720932007e-01" purity="5.3149569034576416e-01" nType="-99"/>
          </Node>
          <Node pos="r" depth="2" NCoef="0" IVar="8" Cut="9.3318015336990356e-01" cType="1" res="-2.0563205180224031e-04" rms="1.7830391228199005e-01" purity="4.7742387652397156e-01" nType="0">
            <Node pos="l" depth="3" NCoef="0" IVar="-1" Cut="0.0000000000000000e+00" cType="1" res="9.9684493616223335e-03" rms="1.8107089400291443e-01" purity="5.2712118625640869e-01" nType="-99"/>
            <Node pos="r" depth="3" NCoef="0" IVar="-1" Cut="0.0000000000000000e+00" cType="1" res="-4.5234419405460358e-02" rms="1.6379843652248383e-01" purity="2.4587880074977875e-01" nType="-99"/>
          </Node>
        </Node>
        <Node pos="r" depth="1" NCoef="0" IVar="6" Cut="7.7380493164062500e+01" cType="1" res="9.2112249694764614e-04" rms="1.7673471570014954e-01" purity="5.2925062179565430e-01" nType="0">
          <Node pos="l" depth="2" NCoef="0" IVar="0" Cut="1.8507319335937500e+03" cType="1" res="-4.9065076746046543e-03" rms="1.4139369130134583e-01" purity="7.0009440183639526e-02" nType="0">
            <Node pos="l" depth="3" NCoef="0" IVar="-1" Cut="0.0000000000000000e+00" cType="1" res="8.8183796033263206e-03" rms="7.2527214884757996e-02" purity="5.6919697672128677e-03" nType="-99"/>
            <Node pos="r" depth="3" NCoef="0" IVar="-1" Cut="0.0000000000000000e+00" cType="1" res="-3.0529756098985672e-02" rms="2.6406145095825195e-01" purity="2.8902247548103333e-01" nType="-99"/>
          </Node>
          <Node pos="r" depth="2" NCoef="0" IVar="11" Cut="-1.1984682083129883e+00" cType="1" res="2.1844566799700260e-03" rms="1.8347613513469696e-01" purity="6.2880659103393555e-01" nType="0">
            <Node pos="l" depth="3" NCoef="0" IVar="-1" Cut="0.0000000000000000e+00" cType="1" res="-1.1455133557319641e-02" rms="1.9167695939540863e-01" purity="5.4659146070480347e-01" nType="-99"/>
            <Node pos="r" depth="3" NCoef="0" IVar="-1" Cut="0.0000000000000000e+00" cType="1" res="1.0310532525181770e-02" rms="1.8195611238479614e-01" purity="6.4337062835693359e-01" nType="-99"/>
          </Node>
        </Node>
      </Node>
    </BinaryTree>
    <BinaryTree type="DecisionTree" boostWeight="1.0000000000000000e+00" itree="657">
      <Node pos="s" depth="0" NCoef="0" IVar="9" Cut="-1.4663760662078857e+00" cType="1" res="1.6474250005558133e-03" rms="1.7751929163932800e-01" purity="5.0197976827621460e-01" nType="0">
        <Node pos="l" depth="1" NCoef="0" IVar="0" Cut="1.9143551025390625e+03" cType="1" res="-7.1183820255100727e-03" rms="1.9635012745857239e-01" purity="2.1058467030525208e-01" nType="0">
          <Node pos="l" depth="2" NCoef="0" IVar="9" Cut="-1.9106192588806152e+00" cType="1" res="1.8250240245833993e-03" rms="1.2654396891593933e-01" purity="1.8783072009682655e-02" nType="0">
            <Node pos="l" depth="3" NCoef="0" IVar="-1" Cut="0.0000000000000000e+00" cType="1" res="8.0707840621471405e-02" rms="1.2305966019630432e-01" purity="1.6881303861737251e-02" nType="-99"/>
            <Node pos="r" depth="3" NCoef="0" IVar="-1" Cut="0.0000000000000000e+00" cType="1" res="-1.6510982066392899e-02" rms="1.2961071729660034e-01" purity="2.0621193572878838e-02" nType="-99"/>
          </Node>
          <Node pos="r" depth="2" NCoef="0" IVar="-1" Cut="0.0000000000000000e+00" cType="1" res="-3.1251557171344757e-02" rms="2.8593882918357849e-01" purity="5.8212769031524658e-01" nType="-99"/>
        </Node>
        <Node pos="r" depth="1" NCoef="0" IVar="8" Cut="-6.6334593296051025e-01" cType="1" res="2.4126844946295023e-03" rms="1.7575888335704803e-01" purity="5.2741867303848267e-01" nType="0">
          <Node pos="l" depth="2" NCoef="0" IVar="0" Cut="1.8577689208984375e+03" cType="1" res="7.2236354462802410e-03" rms="1.8390335142612457e-01" purity="3.9663901925086975e-01" nType="0">
            <Node pos="l" depth="3" NCoef="0" IVar="-1" Cut="0.0000000000000000e+00" cType="1" res="-6.7235953174531460e-03" rms="1.0481857508420944e-01" purity="1.3196445070207119e-02" nType="-99"/>
            <Node pos="r" depth="3" NCoef="0" IVar="-1" Cut="0.0000000000000000e+00" cType="1" res="2.6242971420288086e-02" rms="2.3575383424758911e-01" purity="7.6408314704895020e-01" nType="-99"/>
          </Node>
          <Node pos="r" depth="2" NCoef="0" IVar="11" Cut="4.0075340867042542e-01" cType="1" res="9.2063064221292734e-04" rms="1.7312802374362946e-01" purity="5.6797832250595093e-01" nType="0">
            <Node pos="l" depth="3" NCoef="0" IVar="-1" Cut="0.0000000000000000e+00" cType="1" res="-6.3511845655739307e-03" rms="1.6956359148025513e-01" purity="5.8661830425262451e-01" nType="-99"/>
            <Node pos="r" depth="3" NCoef="0" IVar="-1" Cut="0.0000000000000000e+00" cType="1" res="1.5812667086720467e-02" rms="1.7842680215835571e-01" purity="5.3907287120819092e-01" nType="-99"/>
          </Node>
        </Node>
      </Node>
    </BinaryTree>
    <BinaryTree type="DecisionTree" boostWeight="1.0000000000000000e+00" itree="658">
      <Node pos="s" depth="0" NCoef="0" IVar="9" Cut="1.1994414329528809e+00" cType="1" res="-1.7716558650135994e-03" rms="1.7824099957942963e-01" purity="4.9853402376174927e-01" nType="0">
        <Node pos="l" depth="1" NCoef="0" IVar="10" Cut="1.3413773477077484e-01" cType="1" res="-9.8279921803623438e-04" rms="1.7525719106197357e-01" purity="5.2624315023422241e-01" nType="0">
          <Node pos="l" depth="2" NCoef="0" IVar="7" Cut="-1.7476286739110947e-02" cType="1" res="1.2370285112410784e-03" rms="1.7326043546199799e-01" purity="5.2650624513626099e-01" nType="0">
            <Node pos="l" depth="3" NCoef="0" IVar="-1" Cut="0.0000000000000000e+00" cType="1" res="1.3469617813825607e-02" rms="1.7916844785213470e-01" purity="5.2891778945922852e-01" nType="-99"/>
            <Node pos="r" depth="3" NCoef="0" IVar="-1" Cut="0.0000000000000000e+00" cType="1" res="-6.4518568105995655e-03" rms="1.6697177290916443e-01" purity="5.2405178546905518e-01" nType="-99"/>
          </Node>
          <Node pos="r" depth="2" NCoef="0" IVar="7" Cut="-5.2397322654724121e-01" cType="1" res="-3.7767319008708000e-03" rms="1.7769905924797058e-01" purity="5.2591204643249512e-01" nType="0">
            <Node pos="l" depth="3" NCoef="0" IVar="-1" Cut="0.0000000000000000e+00" cType="1" res="-3.2169975340366364e-02" rms="1.9284844398498535e-01" purity="3.8784930109977722e-01" nType="-99"/>
            <Node pos="r" depth="3" NCoef="0" IVar="-1" Cut="0.0000000000000000e+00" cType="1" res="-3.6412093322724104e-03" rms="1.7237173020839691e-01" purity="5.7108485698699951e-01" nType="-99"/>
          </Node>
        </Node>
        <Node pos="r" depth="1" NCoef="0" IVar="0" Cut="2.0762883300781250e+03" cType="1" res="-7.5187478214502335e-03" rms="1.9853630661964417e-01" purity="2.9666346311569214e-01" nType="0">
          <Node pos="l" depth="2" NCoef="0" IVar="6" Cut="9.1184791564941406e+01" cType="1" res="-4.3161315261386335e-04" rms="1.4889302849769592e-01" purity="3.4263011068105698e-02" nType="0">
            <Node pos="l" depth="3" NCoef="0" IVar="-1" Cut="0.0000000000000000e+00" cType="1" res="-5.8679208159446716e-02" rms="7.6634414494037628e-02" purity="6.3020768575370312e-03" nType="-99"/>
            <Node pos="r" depth="3" NCoef="0" IVar="-1" Cut="0.0000000000000000e+00" cType="1" res="1.7545392736792564e-02" rms="2.0642125606536865e-01" purity="6.9505356252193451e-02" nType="-99"/>
          </Node>
          <Node pos="r" depth="2" NCoef="0" IVar="-1" Cut="0.0000000000000000e+00" cType="1" res="-3.1516686081886292e-02" rms="2.6708942651748657e-01" purity="7.8637695312500000e-01" nType="-99"/>
        </Node>
      </Node>
    </BinaryTree>
    <BinaryTree type="DecisionTree" boostWeight="1.0000000000000000e+00" itree="659">
      <Node pos="s" depth="0" NCoef="0" IVar="4" Cut="1.5643865966796875e+02" cType="1" res="-3.0876926030032337e-04" rms="1.8013907968997955e-01" purity="5.0337666273117065e-01" nType="0">
        <Node pos="l" depth="1" NCoef="0" IVar="2" Cut="6.5855279541015625e+02" cType="1" res="4.4407905079424381e-03" rms="1.3152536749839783e-01" purity="3.3195454627275467e-02" nType="0">
          <Node pos="l" depth="2" NCoef="0" IVar="8" Cut="-1.1915569305419922e+00" cType="1" res="1.9214609637856483e-03" rms="1.1056979000568390e-01" purity="1.8443470820784569e-02" nType="0">
            <Node pos="l" depth="3" NCoef="0" IVar="-1" Cut="0.0000000000000000e+00" cType="1" res="1.6269911825656891e-01" rms="1.3208988308906555e-01" purity="1.8475601449608803e-02" nType="-99"/>
            <Node pos="r" depth="3" NCoef="0" IVar="-1" Cut="0.0000000000000000e+00" cType="1" res="-4.2245723307132721e-04" rms="1.0512840747833252e-01" purity="1.8436381593346596e-02" nType="-99"/>
          </Node>
          <Node pos="r" depth="2" NCoef="0" IVar="-1" Cut="0.0000000000000000e+00" cType="1" res="3.9838116616010666e-02" rms="2.0582649111747742e-01" purity="1.0663050413131714e-01" nType="-99"/>
        </Node>
        <Node pos="r" depth="1" NCoef="0" IVar="10" Cut="-1.7320647239685059e+00" cType="1" res="-1.4416003832593560e-03" rms="1.8988725543022156e-01" purity="6.1552095413208008e-01" nType="0">
          <Node pos="l" depth="2" NCoef="0" IVar="-1" Cut="0.0000000000000000e+00" cType="1" res="-2.6845157146453857e-02" rms="2.2572129964828491e-01" purity="3.4528079628944397e-01" nType="-99"/>
          <Node pos="r" depth="2" NCoef="0" IVar="10" Cut="-4.3726217746734619e-01" cType="1" res="-6.4852269133552909e-04" rms="1.8753220140933990e-01" purity="6.3144439458847046e-01" nType="0">
            <Node pos="l" depth="3" NCoef="0" IVar="-1" Cut="0.0000000000000000e+00" cType="1" res="1.0614515282213688e-02" rms="1.8641243875026703e-01" purity="6.1694782972335815e-01" nType="-99"/>
            <Node pos="r" depth="3" NCoef="0" IVar="-1" Cut="0.0000000000000000e+00" cType="1" res="-7.7836699783802032e-03" rms="1.8801711499691010e-01" purity="6.3827335834503174e-01" nType="-99"/>
          </Node>
        </Node>
      </Node>
    </BinaryTree>
    <BinaryTree type="DecisionTree" boostWeight="1.0000000000000000e+00" itree="660">
      <Node pos="s" depth="0" NCoef="0" IVar="7" Cut="-7.8699094057083130e-01" cType="1" res="5.9222482377663255e-04" rms="1.7516532540321350e-01" purity="4.9551862478256226e-01" nType="0">
        <Node pos="l" depth="1" NCoef="0" IVar="10" Cut="1.1982233524322510e+00" cType="1" res="-4.6973717398941517e-03" rms="1.6852988302707672e-01" purity="2.6954209804534912e-01" nType="0">
          <Node pos="l" depth="2" NCoef="0" IVar="5" Cut="1.8681567382812500e+02" cType="1" res="-2.0744516514241695e-03" rms="1.6894495487213135e-01" purity="2.9290345311164856e-01" nType="0">
            <Node pos="l" depth="3" NCoef="0" IVar="-1" Cut="0.0000000000000000e+00" cType="1" res="-2.3465145379304886e-02" rms="1.4902481436729431e-01" purity="6.3684552907943726e-02" nType="-99"/>
            <Node pos="r" depth="3" NCoef="0" IVar="-1" Cut="0.0000000000000000e+00" cType="1" res="1.3251380994915962e-02" rms="2.0666912198066711e-01" purity="8.0947810411453247e-01" nType="-99"/>
          </Node>
          <Node pos="r" depth="2" NCoef="0" IVar="-1" Cut="0.0000000000000000e+00" cType="1" res="-5.3091589361429214e-02" rms="1.6544032096862793e-01" purity="1.3943445682525635e-01" nType="-99"/>
        </Node>
        <Node pos="r" depth="1" NCoef="0" IVar="9" Cut="3.9986777305603027e-01" cType="1" res="1.6882645431905985e-03" rms="1.7648921906948090e-01" purity="5.4234248399734497e-01" nType="0">
          <Node pos="l" depth="2" NCoef="0" IVar="9" Cut="-1.5803520679473877e+00" cType="1" res="-9.2516296717803925e-05" rms="1.7310009896755219e-01" purity="5.5984824895858765e-01" nType="0">
            <Node pos="l" depth="3" NCoef="0" IVar="-1" Cut="0.0000000000000000e+00" cType="1" res="-2.2315517067909241e-02" rms="1.8709856271743774e-01" purity="2.0568889379501343e-01" nType="-99"/>
            <Node pos="r" depth="3" NCoef="0" IVar="-1" Cut="0.0000000000000000e+00" cType="1" res="2.4233490694314241e-03" rms="1.7157503962516785e-01" purity="5.9624904394149780e-01" nType="-99"/>
          </Node>
          <Node pos="r" depth="2" NCoef="0" IVar="1" Cut="3.9017699658870697e-02" cType="1" res="4.9440888687968254e-03" rms="1.8247802555561066e-01" purity="5.1033639907836914e-01" nType="0">
            <Node pos="l" depth="3" NCoef="0" IVar="-1" Cut="0.0000000000000000e+00" cType="1" res="-8.4961988031864166e-03" rms="1.7591771483421326e-01" purity="1.7208991944789886e-01" nType="-99"/>
            <Node pos="r" depth="3" NCoef="0" IVar="-1" Cut="0.0000000000000000e+00" cType="1" res="2.2498974576592445e-02" rms="1.8529872596263885e-01" purity="6.6548591852188110e-01" nType="-99"/>
          </Node>
        </Node>
      </Node>
    </BinaryTree>
    <BinaryTree type="DecisionTree" boostWeight="1.0000000000000000e+00" itree="661">
      <Node pos="s" depth="0" NCoef="0" IVar="8" Cut="-6.6591632366180420e-01" cType="1" res="-3.5486213164404035e-04" rms="1.7708237469196320e-01" purity="5.0172048807144165e-01" nType="0">
        <Node pos="l" depth="1" NCoef="0" IVar="1" Cut="7.6140195131301880e-02" cType="1" res="-5.8813104405999184e-03" rms="1.8132139742374420e-01" purity="3.4560781717300415e-01" nType="0">
          <Node pos="l" depth="2" NCoef="0" IVar="0" Cut="1.8459670410156250e+03" cType="1" res="-1.0059708729386330e-02" rms="1.7860764265060425e-01" purity="1.9285371899604797e-01" nType="0">
            <Node pos="l" depth="3" NCoef="0" IVar="-1" Cut="0.0000000000000000e+00" cType="1" res="-2.7832467108964920e-02" rms="8.1361912190914154e-02" purity="7.1129021234810352e-03" nType="-99"/>
            <Node pos="r" depth="3" NCoef="0" IVar="-1" Cut="0.0000000000000000e+00" cType="1" res="-2.8023930266499519e-02" rms="2.6706364750862122e-01" purity="4.8418408632278442e-01" nType="-99"/>
          </Node>
          <Node pos="r" depth="2" NCoef="0" IVar="4" Cut="2.6266857910156250e+02" cType="1" res="3.4528749529272318e-03" rms="1.8690456449985504e-01" purity="6.8684750795364380e-01" nType="0">
            <Node pos="l" depth="3" NCoef="0" IVar="-1" Cut="0.0000000000000000e+00" cType="1" res="1.7187798395752907e-02" rms="2.3509077727794647e-01" purity="2.9805582761764526e-01" nType="-99"/>
            <Node pos="r" depth="3" NCoef="0" IVar="-1" Cut="0.0000000000000000e+00" cType="1" res="-1.6185916028916836e-03" rms="1.4491978287696838e-01" purity="9.5253086090087891e-01" nType="-99"/>
          </Node>
        </Node>
        <Node pos="r" depth="1" NCoef="0" IVar="1" Cut="1.2846580147743225e-01" cType="1" res="1.3748756609857082e-03" rms="1.7569886147975922e-01" purity="5.5058258771896362e-01" nType="0">
          <Node pos="l" depth="2" NCoef="0" IVar="11" Cut="-1.1989530324935913e+00" cType="1" res="3.7043483462184668e-03" rms="1.8309430778026581e-01" purity="4.3383926153182983e-01" nType="0">
            <Node pos="l" depth="3" NCoef="0" IVar="-1" Cut="0.0000000000000000e+00" cType="1" res="2.8839806094765663e-02" rms="2.0180964469909668e-01" purity="3.7555161118507385e-01" nType="-99"/>
            <Node pos="r" depth="3" NCoef="0" IVar="-1" Cut="0.0000000000000000e+00" cType="1" res="6.3742594793438911e-03" rms="1.7933452129364014e-01" purity="4.4474920630455017e-01" nType="-99"/>
          </Node>
          <Node pos="r" depth="2" NCoef="0" IVar="1" Cut="1.4381596446037292e-01" cType="1" res="-4.7734905965626240e-03" rms="1.5431958436965942e-01" purity="8.5871273279190063e-01" nType="0">
            <Node pos="l" depth="3" NCoef="0" IVar="-1" Cut="0.0000000000000000e+00" cType="1" res="-6.0274727642536163e-02" rms="1.7033080756664276e-01" purity="7.5917714834213257e-01" nType="-99"/>
            <Node pos="r" depth="3" NCoef="0" IVar="-1" Cut="0.0000000000000000e+00" cType="1" res="-7.4254022911190987e-03" rms="1.5055063366889954e-01" purity="8.7958478927612305e-01" nType="-99"/>
          </Node>
        </Node>
      </Node>
    </BinaryTree>
    <BinaryTree type="DecisionTree" boostWeight="1.0000000000000000e+00" itree="662">
      <Node pos="s" depth="0" NCoef="0" IVar="9" Cut="9.3256002664566040e-01" cType="1" res="-5.1604484906420112e-04" rms="1.7751151323318481e-01" purity="5.0246936082839966e-01" nType="0">
        <Node pos="l" depth="1" NCoef="0" IVar="8" Cut="-1.4621340036392212e+00" cType="1" res="9.7015901701524854e-04" rms="1.7528530955314636e-01" purity="5.3573209047317505e-01" nType="0">
          <Node pos="l" depth="2" NCoef="0" IVar="7" Cut="2.4887718260288239e-01" cType="1" res="1.3978029601275921e-02" rms="1.7937746644020081e-01" purity="1.5765860676765442e-01" nType="0">
            <Node pos="l" depth="3" NCoef="0" IVar="-1" Cut="0.0000000000000000e+00" cType="1" res="6.6112846136093140e-02" rms="2.1295233070850372e-01" purity="2.4272838234901428e-01" nType="-99"/>
            <Node pos="r" depth="3" NCoef="0" IVar="-1" Cut="0.0000000000000000e+00" cType="1" res="2.6481976732611656e-02" rms="1.3788725435733795e-01" purity="7.3866628110408783e-02" nType="-99"/>
          </Node>
          <Node pos="r" depth="2" NCoef="0" IVar="7" Cut="-1.0737537145614624e+00" cType="1" res="8.8251181296072900e-05" rms="1.7496940493583679e-01" purity="5.6136471033096313e-01" nType="0">
            <Node pos="l" depth="3" NCoef="0" IVar="-1" Cut="0.0000000000000000e+00" cType="1" res="3.2708648592233658e-02" rms="1.7398549616336823e-01" purity="2.2709399461746216e-01" nType="-99"/>
            <Node pos="r" depth="3" NCoef="0" IVar="-1" Cut="0.0000000000000000e+00" cType="1" res="-3.0015823431313038e-03" rms="1.7504043877124786e-01" purity="5.9698307514190674e-01" nType="-99"/>
          </Node>
        </Node>
        <Node pos="r" depth="1" NCoef="0" IVar="5" Cut="1.2212175750732422e+02" cType="1" res="-7.0545091293752193e-03" rms="1.8685068190097809e-01" purity="3.5613176226615906e-01" nType="0">
          <Node pos="l" depth="2" NCoef="0" IVar="7" Cut="-2.6572659611701965e-02" cType="1" res="3.0348221771419048e-03" rms="1.5288604795932770e-01" purity="4.9660090357065201e-02" nType="0">
            <Node pos="l" depth="3" NCoef="0" IVar="-1" Cut="0.0000000000000000e+00" cType="1" res="-1.6204785555601120e-02" rms="1.3153241574764252e-01" purity="3.7078313529491425e-02" nType="-99"/>
            <Node pos="r" depth="3" NCoef="0" IVar="-1" Cut="0.0000000000000000e+00" cType="1" res="3.7588633596897125e-02" rms="1.7077514529228210e-01" purity="6.1804849654436111e-02" nType="-99"/>
          </Node>
          <Node pos="r" depth="2" NCoef="0" IVar="0" Cut="2.5445822753906250e+03" cType="1" res="-1.2258319184184074e-02" rms="2.0195327699184418e-01" purity="5.1420176029205322e-01" nType="0">
            <Node pos="l" depth="3" NCoef="0" IVar="-1" Cut="0.0000000000000000e+00" cType="1" res="-3.4674834460020065e-02" rms="2.2326809167861938e-01" purity="1.6979202628135681e-01" nType="-99"/>
            <Node pos="r" depth="3" NCoef="0" IVar="-1" Cut="0.0000000000000000e+00" cType="1" res="-7.1006813086569309e-03" rms="1.7004290223121643e-01" purity="9.5812660455703735e-01" nType="-99"/>
          </Node>
        </Node>
      </Node>
    </BinaryTree>
    <BinaryTree type="DecisionTree" boostWeight="1.0000000000000000e+00" itree="663">
      <Node pos="s" depth="0" NCoef="0" IVar="5" Cut="1.8733920288085938e+02" cType="1" res="2.2462599445134401e-03" rms="1.8105490505695343e-01" purity="5.0638550519943237e-01" nType="0">
        <Node pos="l" depth="1" NCoef="0" IVar="4" Cut="2.9026437377929688e+02" cType="1" res="4.5428234152495861e-03" rms="1.9580572843551636e-01" purity="1.7494207620620728e-01" nType="0">
          <Node pos="l" depth="2" NCoef="0" IVar="5" Cut="1.5487875366210938e+02" cType="1" res="3.1004000920802355e-03" rms="1.8792372941970825e-01" purity="1.1499836295843124e-01" nType="0">
            <Node pos="l" depth="3" NCoef="0" IVar="-1" Cut="0.0000000000000000e+00" cType="1" res="5.0795483402907848e-03" rms="1.6907279193401337e-01" purity="7.0183709263801575e-02" nType="-99"/>
            <Node pos="r" depth="3" NCoef="0" IVar="-1" Cut="0.0000000000000000e+00" cType="1" res="1.7969166859984398e-02" rms="2.5616165995597839e-01" purity="3.1730109453201294e-01" nType="-99"/>
          </Node>
          <Node pos="r" depth="2" NCoef="0" IVar="7" Cut="1.5006269328296185e-02" cType="1" res="1.7981752753257751e-02" rms="2.5752556324005127e-01" purity="7.3343235254287720e-01" nType="0">
            <Node pos="l" depth="3" NCoef="0" IVar="-1" Cut="0.0000000000000000e+00" cType="1" res="2.7901789173483849e-02" rms="2.6347723603248596e-01" purity="7.4791157245635986e-01" nType="-99"/>
            <Node pos="r" depth="3" NCoef="0" IVar="-1" Cut="0.0000000000000000e+00" cType="1" res="2.4952827021479607e-02" rms="2.5192469358444214e-01" purity="7.2012513875961304e-01" nType="-99"/>
          </Node>
        </Node>
        <Node pos="r" depth="1" NCoef="0" IVar="11" Cut="-6.6849392652511597e-01" cType="1" res="-4.5821376261301339e-04" rms="1.6192892193794250e-01" purity="8.9669919013977051e-01" nType="0">
          <Node pos="l" depth="2" NCoef="0" IVar="2" Cut="5.4387286376953125e+02" cType="1" res="4.0275948122143745e-03" rms="1.7123553156852722e-01" purity="8.9568418264389038e-01" nType="0">
            <Node pos="l" depth="3" NCoef="0" IVar="-1" Cut="0.0000000000000000e+00" cType="1" res="2.6706311851739883e-02" rms="2.2238671779632568e-01" purity="7.2652494907379150e-01" nType="-99"/>
            <Node pos="r" depth="3" NCoef="0" IVar="-1" Cut="0.0000000000000000e+00" cType="1" res="-7.4145715916529298e-04" rms="1.4738404750823975e-01" purity="9.5899260044097900e-01" nType="-99"/>
          </Node>
          <Node pos="r" depth="2" NCoef="0" IVar="0" Cut="2.3915554199218750e+03" cType="1" res="-2.1644716616719961e-03" rms="1.5821197628974915e-01" purity="8.9708524942398071e-01" nType="0">
            <Node pos="l" depth="3" NCoef="0" IVar="-1" Cut="0.0000000000000000e+00" cType="1" res="-1.9306009635329247e-02" rms="3.1715050339698792e-01" purity="3.3210960030555725e-01" nType="-99"/>
            <Node pos="r" depth="3" NCoef="0" IVar="-1" Cut="0.0000000000000000e+00" cType="1" res="5.8064092881977558e-03" rms="1.1611589044332504e-01" purity="9.8293274641036987e-01" nType="-99"/>
          </Node>
        </Node>
      </Node>
    </BinaryTree>
    <BinaryTree type="DecisionTree" boostWeight="1.0000000000000000e+00" itree="664">
      <Node pos="s" depth="0" NCoef="0" IVar="5" Cut="1.3708111572265625e+02" cType="1" res="9.3488604761660099e-04" rms="1.7670883238315582e-01" purity="4.9841758608818054e-01" nType="0">
        <Node pos="l" depth="1" NCoef="0" IVar="0" Cut="2.0684528808593750e+03" cType="1" res="4.7799465246498585e-03" rms="1.6140411794185638e-01" purity="8.1020355224609375e-02" nType="0">
          <Node pos="l" depth="2" NCoef="0" IVar="1" Cut="9.2840105295181274e-02" cType="1" res="2.0321870688349009e-03" rms="1.1486246436834335e-01" purity="1.6993585973978043e-02" nType="0">
            <Node pos="l" depth="3" NCoef="0" IVar="-1" Cut="0.0000000000000000e+00" cType="1" res="4.6585211530327797e-03" rms="9.8260544240474701e-02" purity="1.1849912814795971e-02" nType="-99"/>
            <Node pos="r" depth="3" NCoef="0" IVar="-1" Cut="0.0000000000000000e+00" cType="1" res="4.2281985282897949e-02" rms="1.9860890507698059e-01" purity="5.5383231490850449e-02" nType="-99"/>
          </Node>
          <Node pos="r" depth="2" NCoef="0" IVar="-1" Cut="0.0000000000000000e+00" cType="1" res="2.0361354574561119e-02" rms="3.2274487614631653e-01" purity="4.7161754965782166e-01" nType="-99"/>
        </Node>
        <Node pos="r" depth="1" NCoef="0" IVar="2" Cut="5.2646636962890625e+02" cType="1" res="-1.1166991898790002e-03" rms="1.8432298302650452e-01" purity="7.2112566232681274e-01" nType="0">
          <Node pos="l" depth="2" NCoef="0" IVar="11" Cut="6.6961079835891724e-01" cType="1" res="-6.1398842372000217e-03" rms="2.2105246782302856e-01" purity="3.7960645556449890e-01" nType="0">
            <Node pos="l" depth="3" NCoef="0" IVar="-1" Cut="0.0000000000000000e+00" cType="1" res="-4.0163756348192692e-03" rms="2.1879175305366516e-01" purity="3.8331326842308044e-01" nType="-99"/>
            <Node pos="r" depth="3" NCoef="0" IVar="-1" Cut="0.0000000000000000e+00" cType="1" res="-2.6549268513917923e-02" rms="2.2588339447975159e-01" purity="3.7106299400329590e-01" nType="-99"/>
          </Node>
          <Node pos="r" depth="2" NCoef="0" IVar="11" Cut="6.6592246294021606e-01" cType="1" res="1.5681324293836951e-03" rms="1.6123321652412415e-01" purity="9.0366357564926147e-01" nType="0">
            <Node pos="l" depth="3" NCoef="0" IVar="-1" Cut="0.0000000000000000e+00" cType="1" res="-2.2154385223984718e-03" rms="1.5919893980026245e-01" purity="9.0075725317001343e-01" nType="-99"/>
            <Node pos="r" depth="3" NCoef="0" IVar="-1" Cut="0.0000000000000000e+00" cType="1" res="2.3177450522780418e-02" rms="1.6629000008106232e-01" purity="9.1124773025512695e-01" nType="-99"/>
          </Node>
        </Node>
      </Node>
    </BinaryTree>
    <BinaryTree type="DecisionTree" boostWeight="1.0000000000000000e+00" itree="665">
      <Node pos="s" depth="0" NCoef="0" IVar="6" Cut="1.7396923828125000e+02" cType="1" res="-2.2607622668147087e-03" rms="1.7725959420204163e-01" purity="4.9565380811691284e-01" nType="0">
        <Node pos="l" depth="1" NCoef="0" IVar="10" Cut="-1.1993937492370605e+00" cType="1" res="-4.0466478094458580e-03" rms="1.9598168134689331e-01" purity="3.0931767821311951e-01" nType="0">
          <Node pos="l" depth="2" NCoef="0" IVar="1" Cut="5.5497381836175919e-02" cType="1" res="-1.1095740832388401e-02" rms="2.0773255825042725e-01" purity="2.4569222331047058e-01" nType="0">
            <Node pos="l" depth="3" NCoef="0" IVar="-1" Cut="0.0000000000000000e+00" cType="1" res="6.1212237924337387e-03" rms="1.7581407725811005e-01" purity="1.0968852043151855e-01" nType="-99"/>
            <Node pos="r" depth="3" NCoef="0" IVar="-1" Cut="0.0000000000000000e+00" cType="1" res="-4.5778702944517136e-02" rms="2.4348583817481995e-01" purity="4.3097427487373352e-01" nType="-99"/>
          </Node>
          <Node pos="r" depth="2" NCoef="0" IVar="10" Cut="-1.0089648962020874e+00" cType="1" res="-2.6146483141928911e-03" rms="1.9347596168518066e-01" purity="3.2224300503730774e-01" nType="0">
            <Node pos="l" depth="3" NCoef="0" IVar="-1" Cut="0.0000000000000000e+00" cType="1" res="2.6443688198924065e-02" rms="1.9970507919788361e-01" purity="3.7671208381652832e-01" nType="-99"/>
            <Node pos="r" depth="3" NCoef="0" IVar="-1" Cut="0.0000000000000000e+00" cType="1" res="-8.6183575913310051e-03" rms="1.9306947290897369e-01" purity="3.1897988915443420e-01" nType="-99"/>
          </Node>
        </Node>
        <Node pos="r" depth="1" NCoef="0" IVar="11" Cut="9.6363449096679688e-01" cType="1" res="2.2447300143539906e-03" rms="1.1731757968664169e-01" purity="9.6574878692626953e-01" nType="0">
          <Node pos="l" depth="2" NCoef="0" IVar="0" Cut="2.7735246582031250e+03" cType="1" res="3.7260053213685751e-03" rms="1.1340313404798508e-01" purity="9.6867626905441284e-01" nType="0">
            <Node pos="l" depth="3" NCoef="0" IVar="-1" Cut="0.0000000000000000e+00" cType="1" res="1.9646970555186272e-02" rms="2.5074547529220581e-01" purity="8.2484805583953857e-01" nType="-99"/>
            <Node pos="r" depth="3" NCoef="0" IVar="-1" Cut="0.0000000000000000e+00" cType="1" res="3.6237645894289017e-02" rms="5.7135097682476044e-02" purity="9.9620419740676880e-01" nType="-99"/>
          </Node>
          <Node pos="r" depth="2" NCoef="0" IVar="-1" Cut="0.0000000000000000e+00" cType="1" res="-3.0095994472503662e-02" rms="1.3592444360256195e-01" purity="9.5023769140243530e-01" nType="-99"/>
        </Node>
      </Node>
    </BinaryTree>
    <BinaryTree type="DecisionTree" boostWeight="1.0000000000000000e+00" itree="666">
      <Node pos="s" depth="0" NCoef="0" IVar="5" Cut="2.2026330566406250e+02" cType="1" res="1.5912056551314890e-04" rms="1.7939403653144836e-01" purity="5.0400435924530029e-01" nType="0">
        <Node pos="l" depth="1" NCoef="0" IVar="6" Cut="1.7062319946289062e+02" cType="1" res="1.9906312227249146e-03" rms="1.9842575490474701e-01" purity="2.5365698337554932e-01" nType="0">
          <Node pos="l" depth="2" NCoef="0" IVar="10" Cut="1.3359326124191284e-01" cType="1" res="8.4873026935383677e-04" rms="1.9765986502170563e-01" purity="2.1578098833560944e-01" nType="0">
            <Node pos="l" depth="3" NCoef="0" IVar="-1" Cut="0.0000000000000000e+00" cType="1" res="-5.1548862829804420e-03" rms="1.9260281324386597e-01" purity="2.0678536593914032e-01" nType="-99"/>
            <Node pos="r" depth="3" NCoef="0" IVar="-1" Cut="0.0000000000000000e+00" cType="1" res="1.0473450645804405e-02" rms="2.0364269614219666e-01" purity="2.2682571411132812e-01" nType="-99"/>
          </Node>
          <Node pos="r" depth="2" NCoef="0" IVar="-1" Cut="0.0000000000000000e+00" cType="1" res="4.4426787644624710e-02" rms="2.0928648114204407e-01" purity="8.4935146570205688e-01" nType="-99"/>
        </Node>
        <Node pos="r" depth="1" NCoef="0" IVar="0" Cut="2.5227482910156250e+03" cType="1" res="-3.0931110959500074e-03" rms="1.3927429914474487e-01" purity="9.4854855537414551e-01" nType="0">
          <Node pos="l" depth="2" NCoef="0" IVar="-1" Cut="0.0000000000000000e+00" cType="1" res="-1.9497996196150780e-02" rms="3.3243930339813232e-01" purity="5.7424396276473999e-01" nType="-99"/>
          <Node pos="r" depth="2" NCoef="0" IVar="1" Cut="6.1423793435096741e-02" cType="1" res="-1.0837750742211938e-03" rms="1.0015218704938889e-01" purity="9.8684793710708618e-01" nType="0">
            <Node pos="l" depth="3" NCoef="0" IVar="-1" Cut="0.0000000000000000e+00" cType="1" res="-2.2341081872582436e-02" rms="1.5618824958801270e-01" purity="9.6121263504028320e-01" nType="-99"/>
            <Node pos="r" depth="3" NCoef="0" IVar="-1" Cut="0.0000000000000000e+00" cType="1" res="-4.0158172487281263e-04" rms="8.0099977552890778e-02" purity="9.9328851699829102e-01" nType="-99"/>
          </Node>
        </Node>
      </Node>
    </BinaryTree>
    <BinaryTree type="DecisionTree" boostWeight="1.0000000000000000e+00" itree="667">
      <Node pos="s" depth="0" NCoef="0" IVar="11" Cut="1.4664244651794434e+00" cType="1" res="-5.7011668104678392e-04" rms="1.7872628569602966e-01" purity="5.0055760145187378e-01" nType="0">
        <Node pos="l" depth="1" NCoef="0" IVar="10" Cut="-1.7323050498962402e+00" cType="1" res="1.1882458056788892e-04" rms="1.7658098042011261e-01" purity="5.1588529348373413e-01" nType="0">
          <Node pos="l" depth="2" NCoef="0" IVar="0" Cut="1.8446721191406250e+03" cType="1" res="-6.8615539930760860e-03" rms="2.1421675384044647e-01" purity="2.8506073355674744e-01" nType="0">
            <Node pos="l" depth="3" NCoef="0" IVar="-1" Cut="0.0000000000000000e+00" cType="1" res="1.2801866978406906e-02" rms="1.2348777800798416e-01" purity="1.9317116588354111e-02" nType="-99"/>
            <Node pos="r" depth="3" NCoef="0" IVar="-1" Cut="0.0000000000000000e+00" cType="1" res="-2.0113972947001457e-02" rms="2.7802041172981262e-01" purity="5.5887061357498169e-01" nType="-99"/>
          </Node>
          <Node pos="r" depth="2" NCoef="0" IVar="10" Cut="-1.5164102315902710e+00" cType="1" res="5.5095471907407045e-04" rms="1.7397448420524597e-01" purity="5.3017485141754150e-01" nType="0">
            <Node pos="l" depth="3" NCoef="0" IVar="-1" Cut="0.0000000000000000e+00" cType="1" res="3.4068539738655090e-02" rms="1.9095993041992188e-01" purity="4.3744730949401855e-01" nType="-99"/>
            <Node pos="r" depth="3" NCoef="0" IVar="-1" Cut="0.0000000000000000e+00" cType="1" res="4.9939245218411088e-04" rms="1.7336073517799377e-01" purity="5.3329169750213623e-01" nType="-99"/>
          </Node>
        </Node>
        <Node pos="r" depth="1" NCoef="0" IVar="10" Cut="9.3706607818603516e-01" cType="1" res="-5.8636157773435116e-03" rms="1.9434031844139099e-01" purity="3.8278704881668091e-01" nType="0">
          <Node pos="l" depth="2" NCoef="0" IVar="10" Cut="-8.3678054809570312e-01" cType="1" res="-1.1644718470051885e-03" rms="1.8938462436199188e-01" purity="4.2973503470420837e-01" nType="0">
            <Node pos="l" depth="3" NCoef="0" IVar="-1" Cut="0.0000000000000000e+00" cType="1" res="-2.3275267332792282e-02" rms="2.0622088015079498e-01" purity="3.4209594130516052e-01" nType="-99"/>
            <Node pos="r" depth="3" NCoef="0" IVar="-1" Cut="0.0000000000000000e+00" cType="1" res="9.0970983728766441e-03" rms="1.8154728412628174e-01" purity="4.6718701720237732e-01" nType="-99"/>
          </Node>
          <Node pos="r" depth="2" NCoef="0" IVar="-1" Cut="0.0000000000000000e+00" cType="1" res="-4.1266258805990219e-02" rms="2.0620197057723999e-01" purity="2.6036149263381958e-01" nType="-99"/>
        </Node>
      </Node>
    </BinaryTree>
    <BinaryTree type="DecisionTree" boostWeight="1.0000000000000000e+00" itree="668">
      <Node pos="s" depth="0" NCoef="0" IVar="8" Cut="1.2006474733352661e+00" cType="1" res="-9.6120045054703951e-04" rms="1.7730559408664703e-01" purity="4.9804353713989258e-01" nType="0">
        <Node pos="l" depth="1" NCoef="0" IVar="8" Cut="-1.0841485261917114e+00" cType="1" res="-2.7346436399966478e-04" rms="1.7764511704444885e-01" purity="5.3491294384002686e-01" nType="0">
          <Node pos="l" depth="2" NCoef="0" IVar="11" Cut="-6.6321963071823120e-01" cType="1" res="-8.3248736336827278e-03" rms="1.7581680417060852e-01" purity="2.1583086252212524e-01" nType="0">
            <Node pos="l" depth="3" NCoef="0" IVar="-1" Cut="0.0000000000000000e+00" cType="1" res="7.4866297654807568e-03" rms="1.7546063661575317e-01" purity="2.1203663945198059e-01" nType="-99"/>
            <Node pos="r" depth="3" NCoef="0" IVar="-1" Cut="0.0000000000000000e+00" cType="1" res="-4.5048862695693970e-02" rms="1.7570839822292328e-01" purity="2.1826167404651642e-01" nType="-99"/>
          </Node>
          <Node pos="r" depth="2" NCoef="0" IVar="8" Cut="-3.2252356410026550e-01" cType="1" res="1.1248686350882053e-03" rms="1.7792361974716187e-01" purity="5.9032964706420898e-01" nType="0">
            <Node pos="l" depth="3" NCoef="0" IVar="-1" Cut="0.0000000000000000e+00" cType="1" res="1.7195157706737518e-02" rms="1.8597476184368134e-01" purity="5.7478839159011841e-01" nType="-99"/>
            <Node pos="r" depth="3" NCoef="0" IVar="-1" Cut="0.0000000000000000e+00" cType="1" res="-3.1007295474410057e-03" rms="1.7416082322597504e-01" purity="5.9728068113327026e-01" nType="-99"/>
          </Node>
        </Node>
        <Node pos="r" depth="1" NCoef="0" IVar="0" Cut="1.9558270263671875e+03" cType="1" res="-6.7780059762299061e-03" rms="1.7429891228675842e-01" purity="1.8620589375495911e-01" nType="0">
          <Node pos="l" depth="2" NCoef="0" IVar="1" Cut="2.0518211647868156e-02" cType="1" res="-4.9803021829575300e-04" rms="1.1455868929624557e-01" purity="1.5309749171137810e-02" nType="0">
            <Node pos="l" depth="3" NCoef="0" IVar="-1" Cut="0.0000000000000000e+00" cType="1" res="2.5634571909904480e-01" rms="9.8479248583316803e-02" purity="1.0314671322703362e-02" nType="-99"/>
            <Node pos="r" depth="3" NCoef="0" IVar="-1" Cut="0.0000000000000000e+00" cType="1" res="-2.7546929195523262e-02" rms="1.2381716817617416e-01" purity="1.8628133460879326e-02" nType="-99"/>
          </Node>
          <Node pos="r" depth="2" NCoef="0" IVar="-1" Cut="0.0000000000000000e+00" cType="1" res="-2.9338909313082695e-02" rms="2.7262833714485168e-01" purity="6.2499654293060303e-01" nType="-99"/>
        </Node>
      </Node>
    </BinaryTree>
    <BinaryTree type="DecisionTree" boostWeight="1.0000000000000000e+00" itree="669">
      <Node pos="s" depth="0" NCoef="0" IVar="10" Cut="4.0017491579055786e-01" cType="1" res="-4.3573745642788708e-04" rms="1.7696423828601837e-01" purity="4.9578061699867249e-01" nType="0">
        <Node pos="l" depth="1" NCoef="0" IVar="10" Cut="-1.4278391599655151e+00" cType="1" res="-2.4021773133426905e-03" rms="1.7188893258571625e-01" purity="5.0601285696029663e-01" nType="0">
          <Node pos="l" depth="2" NCoef="0" IVar="4" Cut="2.2050238037109375e+02" cType="1" res="5.5725751444697380e-03" rms="1.9976747035980225e-01" purity="3.1593272089958191e-01" nType="0">
            <Node pos="l" depth="3" NCoef="0" IVar="-1" Cut="0.0000000000000000e+00" cType="1" res="-5.6723793968558311e-03" rms="1.6400426626205444e-01" purity="8.3683438599109650e-02" nType="-99"/>
            <Node pos="r" depth="3" NCoef="0" IVar="-1" Cut="0.0000000000000000e+00" cType="1" res="2.7889797464013100e-02" rms="2.3968084156513214e-01" purity="6.3204509019851685e-01" nType="-99"/>
          </Node>
          <Node pos="r" depth="2" NCoef="0" IVar="10" Cut="-1.2537358999252319e+00" cType="1" res="-3.9601298049092293e-03" rms="1.6585166752338409e-01" purity="5.4314702749252319e-01" nType="0">
            <Node pos="l" depth="3" NCoef="0" IVar="-1" Cut="0.0000000000000000e+00" cType="1" res="-4.9854632467031479e-02" rms="1.7246291041374207e-01" purity="4.5840185880661011e-01" nType="-99"/>
            <Node pos="r" depth="3" NCoef="0" IVar="-1" Cut="0.0000000000000000e+00" cType="1" res="-9.6825137734413147e-03" rms="1.6534671187400818e-01" purity="5.4866689443588257e-01" nType="-99"/>
          </Node>
        </Node>
        <Node pos="r" depth="1" NCoef="0" IVar="9" Cut="-1.3180559873580933e-01" cType="1" res="2.9605494346469641e-03" rms="1.8535390496253967e-01" purity="4.7810834646224976e-01" nType="0">
          <Node pos="l" depth="2" NCoef="0" IVar="6" Cut="1.3576997375488281e+02" cType="1" res="8.0820498988032341e-03" rms="1.9530381262302399e-01" purity="4.9375048279762268e-01" nType="0">
            <Node pos="l" depth="3" NCoef="0" IVar="-1" Cut="0.0000000000000000e+00" cType="1" res="3.5407770425081253e-02" rms="2.1118117868900299e-01" purity="2.4655908346176147e-01" nType="-99"/>
            <Node pos="r" depth="3" NCoef="0" IVar="-1" Cut="0.0000000000000000e+00" cType="1" res="-3.4750371705740690e-03" rms="1.6753807663917542e-01" purity="8.7436443567276001e-01" nType="-99"/>
          </Node>
          <Node pos="r" depth="2" NCoef="0" IVar="5" Cut="1.6827224731445312e+02" cType="1" res="-8.5024448344483972e-04" rms="1.7749316990375519e-01" purity="4.6646937727928162e-01" nType="0">
            <Node pos="l" depth="3" NCoef="0" IVar="-1" Cut="0.0000000000000000e+00" cType="1" res="-1.9773349165916443e-02" rms="1.7687116563320160e-01" purity="1.2878857553005219e-01" nType="-99"/>
            <Node pos="r" depth="3" NCoef="0" IVar="-1" Cut="0.0000000000000000e+00" cType="1" res="1.5910891816020012e-02" rms="1.7791299521923065e-01" purity="8.0805474519729614e-01" nType="-99"/>
          </Node>
        </Node>
      </Node>
    </BinaryTree>
    <BinaryTree type="DecisionTree" boostWeight="1.0000000000000000e+00" itree="670">
      <Node pos="s" depth="0" NCoef="0" IVar="11" Cut="1.2004243135452271e+00" cType="1" res="-8.8914246589411050e-05" rms="1.7511132359504700e-01" purity="4.9494767189025879e-01" nType="0">
        <Node pos="l" depth="1" NCoef="0" IVar="8" Cut="-9.2913311719894409e-01" cType="1" res="8.7330798851326108e-04" rms="1.7287753522396088e-01" purity="5.1198726892471313e-01" nType="0">
          <Node pos="l" depth="2" NCoef="0" IVar="6" Cut="9.0936401367187500e+01" cType="1" res="5.1702028140425682e-03" rms="1.8166357278823853e-01" purity="2.9835274815559387e-01" nType="0">
            <Node pos="l" depth="3" NCoef="0" IVar="-1" Cut="0.0000000000000000e+00" cType="1" res="-2.4095762521028519e-02" rms="1.1486133933067322e-01" purity="4.0831666439771652e-02" nType="-99"/>
            <Node pos="r" depth="3" NCoef="0" IVar="-1" Cut="0.0000000000000000e+00" cType="1" res="2.4741709232330322e-02" rms="2.1268004179000854e-01" purity="4.5854359865188599e-01" nType="-99"/>
          </Node>
          <Node pos="r" depth="2" NCoef="0" IVar="2" Cut="3.1478073120117188e+02" cType="1" res="2.5579927751095966e-05" rms="1.7107813060283661e-01" purity="5.5413484573364258e-01" nType="0">
            <Node pos="l" depth="3" NCoef="0" IVar="-1" Cut="0.0000000000000000e+00" cType="1" res="-4.5205332338809967e-02" rms="1.2779276072978973e-01" purity="4.1528265923261642e-02" nType="-99"/>
            <Node pos="r" depth="3" NCoef="0" IVar="-1" Cut="0.0000000000000000e+00" cType="1" res="2.7486132457852364e-03" rms="1.7357967793941498e-01" purity="5.8873265981674194e-01" nType="-99"/>
          </Node>
        </Node>
        <Node pos="r" depth="1" NCoef="0" IVar="9" Cut="-3.9595845341682434e-01" cType="1" res="-4.9031702801585197e-03" rms="1.8580999970436096e-01" purity="4.0969404578208923e-01" nType="0">
          <Node pos="l" depth="2" NCoef="0" IVar="4" Cut="2.0012786865234375e+02" cType="1" res="-1.3220557011663914e-02" rms="1.9940704107284546e-01" purity="3.8997185230255127e-01" nType="0">
            <Node pos="l" depth="3" NCoef="0" IVar="-1" Cut="0.0000000000000000e+00" cType="1" res="-5.9219063259661198e-03" rms="1.5973316133022308e-01" purity="7.3266938328742981e-02" nType="-99"/>
            <Node pos="r" depth="3" NCoef="0" IVar="-1" Cut="0.0000000000000000e+00" cType="1" res="-4.7127932310104370e-02" rms="2.2844582796096802e-01" purity="6.7120730876922607e-01" nType="-99"/>
          </Node>
          <Node pos="r" depth="2" NCoef="0" IVar="9" Cut="8.2116603851318359e-01" cType="1" res="-9.4095728127285838e-04" rms="1.7883379757404327e-01" purity="4.1908922791481018e-01" nType="0">
            <Node pos="l" depth="3" NCoef="0" IVar="-1" Cut="0.0000000000000000e+00" cType="1" res="1.4574517495930195e-02" rms="1.6838337481021881e-01" purity="5.2106827497482300e-01" nType="-99"/>
            <Node pos="r" depth="3" NCoef="0" IVar="-1" Cut="0.0000000000000000e+00" cType="1" res="-2.4107459932565689e-02" rms="1.9270370900630951e-01" purity="2.7045655250549316e-01" nType="-99"/>
          </Node>
        </Node>
      </Node>
    </BinaryTree>
    <BinaryTree type="DecisionTree" boostWeight="1.0000000000000000e+00" itree="671">
      <Node pos="s" depth="0" NCoef="0" IVar="10" Cut="-9.3239593505859375e-01" cType="1" res="4.8330162826459855e-05" rms="1.7491997778415680e-01" purity="4.9773210287094116e-01" nType="0">
        <Node pos="l" depth="1" NCoef="0" IVar="1" Cut="1.3195794820785522e-01" cType="1" res="-7.6511856168508530e-03" rms="1.8215104937553406e-01" purity="4.0702408552169800e-01" nType="0">
          <Node pos="l" depth="2" NCoef="0" IVar="1" Cut="3.1468130648136139e-02" cType="1" res="-1.0698903352022171e-02" rms="1.8277589976787567e-01" purity="3.0889719724655151e-01" nType="0">
            <Node pos="l" depth="3" NCoef="0" IVar="-1" Cut="0.0000000000000000e+00" cType="1" res="7.1791640948504210e-04" rms="1.4588308334350586e-01" purity="1.0531639307737350e-01" nType="-99"/>
            <Node pos="r" depth="3" NCoef="0" IVar="-1" Cut="0.0000000000000000e+00" cType="1" res="-3.6191724240779877e-02" rms="2.0340482890605927e-01" purity="4.4487053155899048e-01" nType="-99"/>
          </Node>
          <Node pos="r" depth="2" NCoef="0" IVar="-1" Cut="0.0000000000000000e+00" cType="1" res="2.0973674952983856e-02" rms="1.7868182063102722e-01" purity="8.4731328487396240e-01" nType="-99"/>
        </Node>
        <Node pos="r" depth="1" NCoef="0" IVar="7" Cut="4.7662848234176636e-01" cType="1" res="2.1242597140371799e-03" rms="1.7285992205142975e-01" purity="5.2218866348266602e-01" nType="0">
          <Node pos="l" depth="2" NCoef="0" IVar="2" Cut="5.6542962646484375e+02" cType="1" res="4.5430984755512327e-05" rms="1.7669937014579773e-01" purity="5.7075101137161255e-01" nType="0">
            <Node pos="l" depth="3" NCoef="0" IVar="-1" Cut="0.0000000000000000e+00" cType="1" res="1.0211596265435219e-02" rms="1.9332107901573181e-01" purity="2.9847288131713867e-01" nType="-99"/>
            <Node pos="r" depth="3" NCoef="0" IVar="-1" Cut="0.0000000000000000e+00" cType="1" res="-1.0210242122411728e-02" rms="1.6144120693206787e-01" purity="7.9831516742706299e-01" nType="-99"/>
          </Node>
          <Node pos="r" depth="2" NCoef="0" IVar="0" Cut="2.0727768554687500e+03" cType="1" res="7.4353883974254131e-03" rms="1.6251884400844574e-01" purity="3.9811831712722778e-01" nType="0">
            <Node pos="l" depth="3" NCoef="0" IVar="-1" Cut="0.0000000000000000e+00" cType="1" res="2.7656843885779381e-03" rms="1.3873034715652466e-01" purity="2.9619440436363220e-02" nType="-99"/>
            <Node pos="r" depth="3" NCoef="0" IVar="-1" Cut="0.0000000000000000e+00" cType="1" res="3.4590858966112137e-02" rms="1.8810123205184937e-01" purity="8.6636537313461304e-01" nType="-99"/>
          </Node>
        </Node>
      </Node>
    </BinaryTree>
    <BinaryTree type="DecisionTree" boostWeight="1.0000000000000000e+00" itree="672">
      <Node pos="s" depth="0" NCoef="0" IVar="11" Cut="9.3433040380477905e-01" cType="1" res="1.3235519872978330e-03" rms="1.8013229966163635e-01" purity="5.0340056419372559e-01" nType="0">
        <Node pos="l" depth="1" NCoef="0" IVar="10" Cut="-1.3311655819416046e-01" cType="1" res="-7.4766238685697317e-04" rms="1.7766906321048737e-01" purity="5.2113807201385498e-01" nType="0">
          <Node pos="l" depth="2" NCoef="0" IVar="6" Cut="9.4404876708984375e+01" cType="1" res="2.8848131187260151e-03" rms="1.8031287193298340e-01" purity="5.1291871070861816e-01" nType="0">
            <Node pos="l" depth="3" NCoef="0" IVar="-1" Cut="0.0000000000000000e+00" cType="1" res="3.2181765884160995e-02" rms="1.6903108358383179e-01" purity="1.1561572551727295e-01" nType="-99"/>
            <Node pos="r" depth="3" NCoef="0" IVar="-1" Cut="0.0000000000000000e+00" cType="1" res="7.4877054430544376e-04" rms="1.8540997803211212e-01" purity="7.0297300815582275e-01" nType="-99"/>
          </Node>
          <Node pos="r" depth="2" NCoef="0" IVar="9" Cut="-1.4665142297744751e+00" cType="1" res="-3.8443775847554207e-03" rms="1.7532432079315186e-01" purity="5.2814519405364990e-01" nType="0">
            <Node pos="l" depth="3" NCoef="0" IVar="-1" Cut="0.0000000000000000e+00" cType="1" res="-4.5621670782566071e-02" rms="2.1063570678234100e-01" purity="2.1857097744941711e-01" nType="-99"/>
            <Node pos="r" depth="3" NCoef="0" IVar="-1" Cut="0.0000000000000000e+00" cType="1" res="-8.4460880607366562e-03" rms="1.7241774499416351e-01" purity="5.5057692527770996e-01" nType="-99"/>
          </Node>
        </Node>
        <Node pos="r" depth="1" NCoef="0" IVar="1" Cut="5.7316660881042480e-02" cType="1" res="8.1725930795073509e-03" rms="1.8788549304008484e-01" purity="4.4474655389785767e-01" nType="0">
          <Node pos="l" depth="2" NCoef="0" IVar="1" Cut="4.0984839200973511e-02" cType="1" res="-8.2507822662591934e-04" rms="1.7854553461074829e-01" purity="1.8944747745990753e-01" nType="0">
            <Node pos="l" depth="3" NCoef="0" IVar="-1" Cut="0.0000000000000000e+00" cType="1" res="7.6528093777596951e-03" rms="1.6740874946117401e-01" purity="1.4403124153614044e-01" nType="-99"/>
            <Node pos="r" depth="3" NCoef="0" IVar="-1" Cut="0.0000000000000000e+00" cType="1" res="-2.2899124771356583e-02" rms="2.1063953638076782e-01" purity="3.3822417259216309e-01" nType="-99"/>
          </Node>
          <Node pos="r" depth="2" NCoef="0" IVar="0" Cut="2.5036560058593750e+03" cType="1" res="1.6234278678894043e-02" rms="1.9552457332611084e-01" purity="6.7348802089691162e-01" nType="0">
            <Node pos="l" depth="3" NCoef="0" IVar="-1" Cut="0.0000000000000000e+00" cType="1" res="4.8103976994752884e-02" rms="2.6805332303047180e-01" purity="2.7505546808242798e-01" nType="-99"/>
            <Node pos="r" depth="3" NCoef="0" IVar="-1" Cut="0.0000000000000000e+00" cType="1" res="1.9551999866962433e-02" rms="1.0684650391340256e-01" purity="9.8632586002349854e-01" nType="-99"/>
          </Node>
        </Node>
      </Node>
    </BinaryTree>
    <BinaryTree type="DecisionTree" boostWeight="1.0000000000000000e+00" itree="673">
      <Node pos="s" depth="0" NCoef="0" IVar="9" Cut="-4.0027663111686707e-01" cType="1" res="-2.2855678980704397e-04" rms="1.7668372392654419e-01" purity="4.9717950820922852e-01" nType="0">
        <Node pos="l" depth="1" NCoef="0" IVar="11" Cut="1.1997416019439697e+00" cType="1" res="-3.3336945343762636e-03" rms="1.8046756088733673e-01" purity="4.4739443063735962e-01" nType="0">
          <Node pos="l" depth="2" NCoef="0" IVar="11" Cut="-1.4657661914825439e+00" cType="1" res="-2.0759576000273228e-03" rms="1.7728377878665924e-01" purity="4.5342800021171570e-01" nType="0">
            <Node pos="l" depth="3" NCoef="0" IVar="-1" Cut="0.0000000000000000e+00" cType="1" res="-2.6028925552964211e-02" rms="1.8449395895004272e-01" purity="3.1835278868675232e-01" nType="-99"/>
            <Node pos="r" depth="3" NCoef="0" IVar="-1" Cut="0.0000000000000000e+00" cType="1" res="-2.0968539174646139e-03" rms="1.7585365474224091e-01" purity="4.7891291975975037e-01" nType="-99"/>
          </Node>
          <Node pos="r" depth="2" NCoef="0" IVar="11" Cut="1.6573711633682251e+00" cType="1" res="-1.0971192270517349e-02" rms="1.9853733479976654e-01" purity="4.1075590252876282e-01" nType="0">
            <Node pos="l" depth="3" NCoef="0" IVar="-1" Cut="0.0000000000000000e+00" cType="1" res="-3.7965383380651474e-02" rms="1.7744284868240356e-01" purity="4.6380749344825745e-01" nType="-99"/>
            <Node pos="r" depth="3" NCoef="0" IVar="-1" Cut="0.0000000000000000e+00" cType="1" res="-1.8021214753389359e-02" rms="2.1816289424896240e-01" purity="3.5592535138130188e-01" nType="-99"/>
          </Node>
        </Node>
        <Node pos="r" depth="1" NCoef="0" IVar="1" Cut="8.5650965571403503e-02" cType="1" res="1.5434365486726165e-03" rms="1.7446289956569672e-01" purity="5.2559006214141846e-01" nType="0">
          <Node pos="l" depth="2" NCoef="0" IVar="4" Cut="2.5768960571289062e+02" cType="1" res="4.5404913835227489e-03" rms="1.8590395152568817e-01" purity="3.3642911911010742e-01" nType="0">
            <Node pos="l" depth="3" NCoef="0" IVar="-1" Cut="0.0000000000000000e+00" cType="1" res="1.8475070828571916e-04" rms="1.7587921023368835e-01" purity="1.0562971979379654e-01" nType="-99"/>
            <Node pos="r" depth="3" NCoef="0" IVar="-1" Cut="0.0000000000000000e+00" cType="1" res="2.9387563467025757e-02" rms="2.0457494258880615e-01" purity="8.0834984779357910e-01" nType="-99"/>
          </Node>
          <Node pos="r" depth="2" NCoef="0" IVar="0" Cut="2.2071586914062500e+03" cType="1" res="-2.8210652526468039e-03" rms="1.5620829164981842e-01" purity="8.0105841159820557e-01" nType="0">
            <Node pos="l" depth="3" NCoef="0" IVar="-1" Cut="0.0000000000000000e+00" cType="1" res="-2.5746351107954979e-02" rms="2.5272873044013977e-01" purity="1.3138630986213684e-01" nType="-99"/>
            <Node pos="r" depth="3" NCoef="0" IVar="-1" Cut="0.0000000000000000e+00" cType="1" res="8.7225530296564102e-03" rms="1.1716628819704056e-01" purity="9.8075789213180542e-01" nType="-99"/>
          </Node>
        </Node>
      </Node>
    </BinaryTree>
    <BinaryTree type="DecisionTree" boostWeight="1.0000000000000000e+00" itree="674">
      <Node pos="s" depth="0" NCoef="0" IVar="10" Cut="-9.3273335695266724e-01" cType="1" res="8.1008026609197259e-04" rms="1.7481905221939087e-01" purity="4.9998968839645386e-01" nType="0">
        <Node pos="l" depth="1" NCoef="0" IVar="6" Cut="1.1430158233642578e+02" cType="1" res="6.2386463396251202e-03" rms="1.9397903978824615e-01" purity="4.2652305960655212e-01" nType="0">
          <Node pos="l" depth="2" NCoef="0" IVar="3" Cut="3.0881085205078125e+02" cType="1" res="5.3228548495098948e-04" rms="1.8627202510833740e-01" purity="1.5332612395286560e-01" nType="0">
            <Node pos="l" depth="3" NCoef="0" IVar="-1" Cut="0.0000000000000000e+00" cType="1" res="2.8333490714430809e-02" rms="1.6011224687099457e-01" purity="4.1724741458892822e-02" nType="-99"/>
            <Node pos="r" depth="3" NCoef="0" IVar="-1" Cut="0.0000000000000000e+00" cType="1" res="-1.5890423208475113e-02" rms="2.2295288741588593e-01" purity="3.3989247679710388e-01" nType="-99"/>
          </Node>
          <Node pos="r" depth="2" NCoef="0" IVar="0" Cut="2.3374799804687500e+03" cType="1" res="1.3132122345268726e-02" rms="2.0268516242504120e-01" purity="7.5655412673950195e-01" nType="0">
            <Node pos="l" depth="3" NCoef="0" IVar="-1" Cut="0.0000000000000000e+00" cType="1" res="5.1260445266962051e-02" rms="2.9826292395591736e-01" purity="2.7361422777175903e-01" nType="-99"/>
            <Node pos="r" depth="3" NCoef="0" IVar="-1" Cut="0.0000000000000000e+00" cType="1" res="-1.5148966340348125e-03" rms="1.4017355442047119e-01" purity="9.6670931577682495e-01" nType="-99"/>
          </Node>
        </Node>
        <Node pos="r" depth="1" NCoef="0" IVar="11" Cut="1.2005465030670166e+00" cType="1" res="-6.1884964816272259e-04" rms="1.6938687860965729e-01" purity="5.1932787895202637e-01" nType="0">
          <Node pos="l" depth="2" NCoef="0" IVar="8" Cut="3.9847949147224426e-01" cType="1" res="-1.6870095860213041e-03" rms="1.6685156524181366e-01" purity="5.3174984455108643e-01" nType="0">
            <Node pos="l" depth="3" NCoef="0" IVar="-1" Cut="0.0000000000000000e+00" cType="1" res="-1.2359859421849251e-02" rms="1.6307795047760010e-01" purity="5.6518304347991943e-01" nType="-99"/>
            <Node pos="r" depth="3" NCoef="0" IVar="-1" Cut="0.0000000000000000e+00" cType="1" res="6.4243650995194912e-03" rms="1.7408487200737000e-01" purity="4.6495062112808228e-01" nType="-99"/>
          </Node>
          <Node pos="r" depth="2" NCoef="0" IVar="5" Cut="1.3726805114746094e+02" cType="1" res="4.9306382425129414e-03" rms="1.8189032375812531e-01" purity="4.5479121804237366e-01" nType="0">
            <Node pos="l" depth="3" NCoef="0" IVar="-1" Cut="0.0000000000000000e+00" cType="1" res="-1.7140796408057213e-02" rms="1.6222178936004639e-01" purity="8.3175227046012878e-02" nType="-99"/>
            <Node pos="r" depth="3" NCoef="0" IVar="-1" Cut="0.0000000000000000e+00" cType="1" res="2.5357346981763840e-02" rms="1.9295370578765869e-01" purity="6.8769145011901855e-01" nType="-99"/>
          </Node>
        </Node>
      </Node>
    </BinaryTree>
    <BinaryTree type="DecisionTree" boostWeight="1.0000000000000000e+00" itree="675">
      <Node pos="s" depth="0" NCoef="0" IVar="9" Cut="-1.9995931386947632e+00" cType="1" res="-3.9109529461711645e-04" rms="1.7699298262596130e-01" purity="4.9650990962982178e-01" nType="0">
        <Node pos="l" depth="1" NCoef="0" IVar="-1" Cut="0.0000000000000000e+00" cType="1" res="-4.7386504709720612e-02" rms="1.4901483058929443e-01" purity="5.7034805417060852e-02" nType="-99"/>
        <Node pos="r" depth="1" NCoef="0" IVar="7" Cut="-1.1420267820358276e+00" cType="1" res="-9.9944454632350244e-06" rms="1.7774656414985657e-01" purity="5.0963157415390015e-01" nType="0">
          <Node pos="l" depth="2" NCoef="0" IVar="8" Cut="-3.9012864232063293e-01" cType="1" res="6.0703214257955551e-03" rms="1.7106114327907562e-01" purity="1.6388913989067078e-01" nType="0">
            <Node pos="l" depth="3" NCoef="0" IVar="-1" Cut="0.0000000000000000e+00" cType="1" res="-2.2138107568025589e-02" rms="1.6706286370754242e-01" purity="1.3122327625751495e-01" nType="-99"/>
            <Node pos="r" depth="3" NCoef="0" IVar="-1" Cut="0.0000000000000000e+00" cType="1" res="4.8202846199274063e-02" rms="1.7299729585647583e-01" purity="1.8340280652046204e-01" nType="-99"/>
          </Node>
          <Node pos="r" depth="2" NCoef="0" IVar="10" Cut="9.3352127075195312e-01" cType="1" res="-6.5047765383496881e-04" rms="1.7842413485050201e-01" purity="5.4605108499526978e-01" nType="0">
            <Node pos="l" depth="3" NCoef="0" IVar="-1" Cut="0.0000000000000000e+00" cType="1" res="-5.3740669973194599e-03" rms="1.7417967319488525e-01" purity="5.7160925865173340e-01" nType="-99"/>
            <Node pos="r" depth="3" NCoef="0" IVar="-1" Cut="0.0000000000000000e+00" cType="1" res="8.9209452271461487e-03" rms="1.9361069798469543e-01" purity="4.4921973347663879e-01" nType="-99"/>
          </Node>
        </Node>
      </Node>
    </BinaryTree>
    <BinaryTree type="DecisionTree" boostWeight="1.0000000000000000e+00" itree="676">
      <Node pos="s" depth="0" NCoef="0" IVar="4" Cut="3.2875759887695312e+02" cType="1" res="3.2035948242992163e-04" rms="1.7899662256240845e-01" purity="5.0028038024902344e-01" nType="0">
        <Node pos="l" depth="1" NCoef="0" IVar="5" Cut="1.2981796264648438e+02" cType="1" res="2.2297312971204519e-03" rms="1.9483283162117004e-01" purity="2.8286215662956238e-01" nType="0">
          <Node pos="l" depth="2" NCoef="0" IVar="1" Cut="3.7484176456928253e-02" cType="1" res="-2.1357007790356874e-03" rms="1.4094862341880798e-01" purity="4.2156018316745758e-02" nType="0">
            <Node pos="l" depth="3" NCoef="0" IVar="-1" Cut="0.0000000000000000e+00" cType="1" res="1.6409095376729965e-02" rms="1.1130499839782715e-01" purity="2.3559762164950371e-02" nType="-99"/>
            <Node pos="r" depth="3" NCoef="0" IVar="-1" Cut="0.0000000000000000e+00" cType="1" res="-2.4658506736159325e-02" rms="1.7487519979476929e-01" purity="6.8954020738601685e-02" nType="-99"/>
          </Node>
          <Node pos="r" depth="2" NCoef="0" IVar="10" Cut="3.9824160933494568e-01" cType="1" res="5.8691520243883133e-03" rms="2.3024971783161163e-01" purity="4.8353666067123413e-01" nType="0">
            <Node pos="l" depth="3" NCoef="0" IVar="-1" Cut="0.0000000000000000e+00" cType="1" res="1.7032641917467117e-02" rms="2.3104120790958405e-01" purity="4.9169394373893738e-01" nType="-99"/>
            <Node pos="r" depth="3" NCoef="0" IVar="-1" Cut="0.0000000000000000e+00" cType="1" res="-5.9726997278630733e-05" rms="2.2873176634311676e-01" purity="4.6919083595275879e-01" nType="-99"/>
          </Node>
        </Node>
        <Node pos="r" depth="1" NCoef="0" IVar="1" Cut="1.0754548758268356e-01" cType="1" res="-3.7010288797318935e-03" rms="1.3981254398822784e-01" purity="9.5819187164306641e-01" nType="0">
          <Node pos="l" depth="2" NCoef="0" IVar="2" Cut="6.4860198974609375e+02" cType="1" res="-8.4046721458435059e-03" rms="1.8220092356204987e-01" purity="9.2114329338073730e-01" nType="0">
            <Node pos="l" depth="3" NCoef="0" IVar="-1" Cut="0.0000000000000000e+00" cType="1" res="-4.1301883757114410e-02" rms="2.3578666150569916e-01" purity="8.2704901695251465e-01" nType="-99"/>
            <Node pos="r" depth="3" NCoef="0" IVar="-1" Cut="0.0000000000000000e+00" cType="1" res="-1.2529577128589153e-02" rms="1.5173415839672089e-01" purity="9.6344614028930664e-01" nType="-99"/>
          </Node>
          <Node pos="r" depth="2" NCoef="0" IVar="7" Cut="1.4332818984985352e-01" cType="1" res="3.9582964382134378e-04" rms="8.7308093905448914e-02" purity="9.9046099185943604e-01" nType="0">
            <Node pos="l" depth="3" NCoef="0" IVar="-1" Cut="0.0000000000000000e+00" cType="1" res="3.1478170305490494e-02" rms="8.0988071858882904e-02" purity="9.9243366718292236e-01" nType="-99"/>
            <Node pos="r" depth="3" NCoef="0" IVar="-1" Cut="0.0000000000000000e+00" cType="1" res="-3.7109155207872391e-02" rms="9.5914430916309357e-02" purity="9.8750704526901245e-01" nType="-99"/>
          </Node>
        </Node>
      </Node>
    </BinaryTree>
    <BinaryTree type="DecisionTree" boostWeight="1.0000000000000000e+00" itree="677">
      <Node pos="s" depth="0" NCoef="0" IVar="6" Cut="1.1906805419921875e+02" cType="1" res="5.4438808001577854e-04" rms="1.7681004106998444e-01" purity="5.0256389379501343e-01" nType="0">
        <Node pos="l" depth="1" NCoef="0" IVar="4" Cut="2.4355023193359375e+02" cType="1" res="3.4510609693825245e-03" rms="1.8130055069923401e-01" purity="1.7248608171939850e-01" nType="0">
          <Node pos="l" depth="2" NCoef="0" IVar="3" Cut="3.9716760253906250e+02" cType="1" res="1.8266543338540941e-04" rms="1.5425792336463928e-01" purity="5.7457204908132553e-02" nType="0">
            <Node pos="l" depth="3" NCoef="0" IVar="-1" Cut="0.0000000000000000e+00" cType="1" res="7.1265604346990585e-03" rms="1.4043936133384705e-01" purity="3.9310310035943985e-02" nType="-99"/>
            <Node pos="r" depth="3" NCoef="0" IVar="-1" Cut="0.0000000000000000e+00" cType="1" res="-1.7695644870400429e-02" rms="2.5170686841011047e-01" purity="2.3444357514381409e-01" nType="-99"/>
          </Node>
          <Node pos="r" depth="2" NCoef="0" IVar="8" Cut="-1.3448186218738556e-01" cType="1" res="1.5315179713070393e-02" rms="2.5618341565132141e-01" purity="5.9003525972366333e-01" nType="0">
            <Node pos="l" depth="3" NCoef="0" IVar="-1" Cut="0.0000000000000000e+00" cType="1" res="4.7105759382247925e-02" rms="2.6569125056266785e-01" purity="5.8550190925598145e-01" nType="-99"/>
            <Node pos="r" depth="3" NCoef="0" IVar="-1" Cut="0.0000000000000000e+00" cType="1" res="2.9807377140969038e-03" rms="2.4762105941772461e-01" purity="5.9360271692276001e-01" nType="-99"/>
          </Node>
        </Node>
        <Node pos="r" depth="1" NCoef="0" IVar="2" Cut="9.5785241699218750e+02" cType="1" res="-2.3005204275250435e-03" rms="1.7225417494773865e-01" purity="8.2562792301177979e-01" nType="0">
          <Node pos="l" depth="2" NCoef="0" IVar="0" Cut="2.5021030273437500e+03" cType="1" res="-3.5378460306674242e-03" rms="1.7998395860195160e-01" purity="8.0502539873123169e-01" nType="0">
            <Node pos="l" depth="3" NCoef="0" IVar="-1" Cut="0.0000000000000000e+00" cType="1" res="-1.0937726125121117e-02" rms="2.9328426718711853e-01" purity="3.2579964399337769e-01" nType="-99"/>
            <Node pos="r" depth="3" NCoef="0" IVar="-1" Cut="0.0000000000000000e+00" cType="1" res="-1.0029889643192291e-02" rms="1.1285568773746490e-01" purity="9.8054069280624390e-01" nType="-99"/>
          </Node>
          <Node pos="r" depth="2" NCoef="0" IVar="-1" Cut="0.0000000000000000e+00" cType="1" res="4.9558870494365692e-02" rms="9.0203955769538879e-02" purity="9.8776942491531372e-01" nType="-99"/>
        </Node>
      </Node>
    </BinaryTree>
    <BinaryTree type="DecisionTree" boostWeight="1.0000000000000000e+00" itree="678">
      <Node pos="s" depth="0" NCoef="0" IVar="7" Cut="-5.3299039602279663e-01" cType="1" res="-1.0092888987855986e-04" rms="1.7871773242950439e-01" purity="4.9785682559013367e-01" nType="0">
        <Node pos="l" depth="1" NCoef="0" IVar="8" Cut="1.3710741698741913e-01" cType="1" res="-4.7324639745056629e-03" rms="1.7972150444984436e-01" purity="3.6592346429824829e-01" nType="0">
          <Node pos="l" depth="2" NCoef="0" IVar="4" Cut="2.9902151489257812e+02" cType="1" res="-1.0427083820104599e-02" rms="1.7018452286720276e-01" purity="3.7254664301872253e-01" nType="0">
            <Node pos="l" depth="3" NCoef="0" IVar="-1" Cut="0.0000000000000000e+00" cType="1" res="-4.5231912285089493e-02" rms="1.7154131829738617e-01" purity="1.3801768422126770e-01" nType="-99"/>
            <Node pos="r" depth="3" NCoef="0" IVar="-1" Cut="0.0000000000000000e+00" cType="1" res="1.3932696543633938e-02" rms="1.6611523926258087e-01" purity="9.1619938611984253e-01" nType="-99"/>
          </Node>
          <Node pos="r" depth="2" NCoef="0" IVar="3" Cut="3.6686114501953125e+02" cType="1" res="2.5936437305063009e-03" rms="1.9104324281215668e-01" purity="3.5740277171134949e-01" nType="0">
            <Node pos="l" depth="3" NCoef="0" IVar="-1" Cut="0.0000000000000000e+00" cType="1" res="3.4483700990676880e-02" rms="1.7867791652679443e-01" purity="1.3389599323272705e-01" nType="-99"/>
            <Node pos="r" depth="3" NCoef="0" IVar="-1" Cut="0.0000000000000000e+00" cType="1" res="-2.1377382799983025e-02" rms="2.0980651676654816e-01" purity="7.3875731229782104e-01" nType="-99"/>
          </Node>
        </Node>
        <Node pos="r" depth="1" NCoef="0" IVar="0" Cut="2.3860712890625000e+03" cType="1" res="1.5195036539807916e-03" rms="1.7833681404590607e-01" purity="5.4401630163192749e-01" nType="0">
          <Node pos="l" depth="2" NCoef="0" IVar="4" Cut="2.3802845764160156e+02" cType="1" res="6.2679708935320377e-03" rms="2.0218187570571899e-01" purity="1.0520951449871063e-01" nType="0">
            <Node pos="l" depth="3" NCoef="0" IVar="-1" Cut="0.0000000000000000e+00" cType="1" res="6.0294126160442829e-03" rms="1.7001755535602570e-01" purity="5.5623337626457214e-02" nType="-99"/>
            <Node pos="r" depth="3" NCoef="0" IVar="-1" Cut="0.0000000000000000e+00" cType="1" res="2.7825534343719482e-02" rms="3.1144756078720093e-01" purity="3.3997055888175964e-01" nType="-99"/>
          </Node>
          <Node pos="r" depth="2" NCoef="0" IVar="0" Cut="2.7852272949218750e+03" cType="1" res="-2.9378875624388456e-03" rms="1.5246535837650299e-01" purity="9.5592474937438965e-01" nType="0">
            <Node pos="l" depth="3" NCoef="0" IVar="-1" Cut="0.0000000000000000e+00" cType="1" res="-2.1285224705934525e-02" rms="2.6784572005271912e-01" purity="8.4369242191314697e-01" nType="-99"/>
            <Node pos="r" depth="3" NCoef="0" IVar="-1" Cut="0.0000000000000000e+00" cType="1" res="-7.0907582994550467e-04" rms="1.0705881565809250e-01" purity="9.8309963941574097e-01" nType="-99"/>
          </Node>
        </Node>
      </Node>
    </BinaryTree>
    <BinaryTree type="DecisionTree" boostWeight="1.0000000000000000e+00" itree="679">
      <Node pos="s" depth="0" NCoef="0" IVar="10" Cut="-1.3303947448730469e-01" cType="1" res="8.0039002932608128e-04" rms="1.7981065809726715e-01" purity="5.0534439086914062e-01" nType="0">
        <Node pos="l" depth="1" NCoef="0" IVar="2" Cut="8.8727685546875000e+02" cType="1" res="3.0862139537930489e-03" rms="1.8177144229412079e-01" purity="5.0511634349822998e-01" nType="0">
          <Node pos="l" depth="2" NCoef="0" IVar="8" Cut="4.0279656648635864e-01" cType="1" res="4.2026359587907791e-03" rms="1.8382610380649567e-01" purity="4.5336508750915527e-01" nType="0">
            <Node pos="l" depth="3" NCoef="0" IVar="-1" Cut="0.0000000000000000e+00" cType="1" res="1.9226929172873497e-02" rms="1.7870312929153442e-01" purity="4.7258362174034119e-01" nType="-99"/>
            <Node pos="r" depth="3" NCoef="0" IVar="-1" Cut="0.0000000000000000e+00" cType="1" res="-2.2506054956465960e-03" rms="1.9469875097274780e-01" purity="4.1039928793907166e-01" nType="-99"/>
          </Node>
          <Node pos="r" depth="2" NCoef="0" IVar="-1" Cut="0.0000000000000000e+00" cType="1" res="-1.7466804012656212e-02" rms="1.6497778892517090e-01" purity="9.0062224864959717e-01" nType="-99"/>
        </Node>
        <Node pos="r" depth="1" NCoef="0" IVar="9" Cut="-1.7322281599044800e+00" cType="1" res="-1.0337237035855651e-03" rms="1.7820057272911072e-01" purity="5.0552731752395630e-01" nType="0">
          <Node pos="l" depth="2" NCoef="0" IVar="-1" Cut="0.0000000000000000e+00" cType="1" res="4.6470906585454941e-02" rms="1.9149670004844666e-01" purity="1.4922200143337250e-01" nType="-99"/>
          <Node pos="r" depth="2" NCoef="0" IVar="10" Cut="2.1012248992919922e+00" cType="1" res="-1.9261888228356838e-03" rms="1.7742499709129333e-01" purity="5.2437031269073486e-01" nType="0">
            <Node pos="l" depth="3" NCoef="0" IVar="-1" Cut="0.0000000000000000e+00" cType="1" res="-9.0260747820138931e-03" rms="1.7382605373859406e-01" purity="5.4321599006652832e-01" nType="-99"/>
            <Node pos="r" depth="3" NCoef="0" IVar="-1" Cut="0.0000000000000000e+00" cType="1" res="3.0581312254071236e-02" rms="2.3265808820724487e-01" purity="1.8297560513019562e-01" nType="-99"/>
          </Node>
        </Node>
      </Node>
    </BinaryTree>
    <BinaryTree type="DecisionTree" boostWeight="1.0000000000000000e+00" itree="680">
      <Node pos="s" depth="0" NCoef="0" IVar="11" Cut="-9.3343633413314819e-01" cType="1" res="-1.4639161527156830e-03" rms="1.7645338177680969e-01" purity="4.9928066134452820e-01" nType="0">
        <Node pos="l" depth="1" NCoef="0" IVar="2" Cut="6.4430975341796875e+02" cType="1" res="-5.8832527138292789e-03" rms="1.8068879842758179e-01" purity="4.4394245743751526e-01" nType="0">
          <Node pos="l" depth="2" NCoef="0" IVar="0" Cut="1.6886463623046875e+03" cType="1" res="-9.3367351219058037e-03" rms="1.8064720928668976e-01" purity="2.7924975752830505e-01" nType="0">
            <Node pos="l" depth="3" NCoef="0" IVar="-1" Cut="0.0000000000000000e+00" cType="1" res="-5.1731835119426250e-03" rms="9.3437984585762024e-02" purity="9.2915939167141914e-03" nType="-99"/>
            <Node pos="r" depth="3" NCoef="0" IVar="-1" Cut="0.0000000000000000e+00" cType="1" res="-2.9488859698176384e-02" rms="2.3631888628005981e-01" purity="5.4313158988952637e-01" nType="-99"/>
          </Node>
          <Node pos="r" depth="2" NCoef="0" IVar="9" Cut="-1.3594640791416168e-01" cType="1" res="1.1766182724386454e-03" rms="1.8056838214397430e-01" purity="7.8061974048614502e-01" nType="0">
            <Node pos="l" depth="3" NCoef="0" IVar="-1" Cut="0.0000000000000000e+00" cType="1" res="-1.8553560599684715e-02" rms="1.9045639038085938e-01" purity="7.4471437931060791e-01" nType="-99"/>
            <Node pos="r" depth="3" NCoef="0" IVar="-1" Cut="0.0000000000000000e+00" cType="1" res="2.2627038881182671e-02" rms="1.7125317454338074e-01" purity="8.1172585487365723e-01" nType="-99"/>
          </Node>
        </Node>
        <Node pos="r" depth="1" NCoef="0" IVar="7" Cut="-7.7082592248916626e-01" cType="1" res="-1.3357530406210572e-04" rms="1.7513650655746460e-01" purity="5.1593899726867676e-01" nType="0">
          <Node pos="l" depth="2" NCoef="0" IVar="2" Cut="3.9747698974609375e+02" cType="1" res="5.2612046711146832e-03" rms="1.8623091280460358e-01" purity="3.0885097384452820e-01" nType="0">
            <Node pos="l" depth="3" NCoef="0" IVar="-1" Cut="0.0000000000000000e+00" cType="1" res="6.4595945179462433e-02" rms="1.9260743260383606e-01" purity="1.0557295382022858e-01" nType="-99"/>
            <Node pos="r" depth="3" NCoef="0" IVar="-1" Cut="0.0000000000000000e+00" cType="1" res="1.0877650929614902e-03" rms="1.8349073827266693e-01" purity="3.8688102364540100e-01" nType="-99"/>
          </Node>
          <Node pos="r" depth="2" NCoef="0" IVar="10" Cut="1.9996697902679443e+00" cType="1" res="-1.2322730617597699e-03" rms="1.7276909947395325e-01" purity="5.5811434984207153e-01" nType="0">
            <Node pos="l" depth="3" NCoef="0" IVar="-1" Cut="0.0000000000000000e+00" cType="1" res="-1.9498405745252967e-03" rms="1.7235246300697327e-01" purity="5.7386159896850586e-01" nType="-99"/>
            <Node pos="r" depth="3" NCoef="0" IVar="-1" Cut="0.0000000000000000e+00" cType="1" res="-3.8791988044977188e-02" rms="1.8178990483283997e-01" purity="1.8279720842838287e-01" nType="-99"/>
          </Node>
        </Node>
      </Node>
    </BinaryTree>
    <BinaryTree type="DecisionTree" boostWeight="1.0000000000000000e+00" itree="681">
      <Node pos="s" depth="0" NCoef="0" IVar="2" Cut="5.3652471923828125e+02" cType="1" res="2.1337200887501240e-03" rms="1.7589601874351501e-01" purity="5.0815963745117188e-01" nType="0">
        <Node pos="l" depth="1" NCoef="0" IVar="5" Cut="1.5159770202636719e+02" cType="1" res="-8.7711022933945060e-04" rms="1.8481789529323578e-01" purity="2.3183295130729675e-01" nType="0">
          <Node pos="l" depth="2" NCoef="0" IVar="5" Cut="1.4207821655273438e+02" cType="1" res="2.9491255991160870e-03" rms="1.4490704238414764e-01" purity="4.2567942291498184e-02" nType="0">
            <Node pos="l" depth="3" NCoef="0" IVar="-1" Cut="0.0000000000000000e+00" cType="1" res="5.7951109483838081e-03" rms="1.3294026255607605e-01" purity="3.3966090530157089e-02" nType="-99"/>
            <Node pos="r" depth="3" NCoef="0" IVar="-1" Cut="0.0000000000000000e+00" cType="1" res="5.5141061544418335e-02" rms="2.2238007187843323e-01" purity="1.1702017486095428e-01" nType="-99"/>
          </Node>
          <Node pos="r" depth="2" NCoef="0" IVar="1" Cut="6.4354062080383301e-02" cType="1" res="-6.1766738072037697e-03" rms="2.2877089679241180e-01" purity="4.9397620558738708e-01" nType="0">
            <Node pos="l" depth="3" NCoef="0" IVar="-1" Cut="0.0000000000000000e+00" cType="1" res="-2.9283909127116203e-02" rms="2.1432077884674072e-01" purity="1.8957526981830597e-01" nType="-99"/>
            <Node pos="r" depth="3" NCoef="0" IVar="-1" Cut="0.0000000000000000e+00" cType="1" res="-9.7840284070116468e-06" rms="2.3777671158313751e-01" purity="6.9824075698852539e-01" nType="-99"/>
          </Node>
        </Node>
        <Node pos="r" depth="1" NCoef="0" IVar="0" Cut="2.6367878417968750e+03" cType="1" res="4.6331812627613544e-03" rms="1.6808922588825226e-01" purity="7.3755413293838501e-01" nType="0">
          <Node pos="l" depth="2" NCoef="0" IVar="0" Cut="2.1657849121093750e+03" cType="1" res="1.0897108353674412e-02" rms="2.3626944422721863e-01" purity="2.3457868397235870e-01" nType="0">
            <Node pos="l" depth="3" NCoef="0" IVar="-1" Cut="0.0000000000000000e+00" cType="1" res="1.3897879980504513e-02" rms="1.6296003758907318e-01" purity="3.8783762603998184e-02" nType="-99"/>
            <Node pos="r" depth="3" NCoef="0" IVar="-1" Cut="0.0000000000000000e+00" cType="1" res="2.0654724910855293e-02" rms="3.3500224351882935e-01" purity="6.1396014690399170e-01" nType="-99"/>
          </Node>
          <Node pos="r" depth="2" NCoef="0" IVar="3" Cut="7.0237023925781250e+02" cType="1" res="1.7198357963934541e-03" rms="1.2411613762378693e-01" purity="9.7148746252059937e-01" nType="0">
            <Node pos="l" depth="3" NCoef="0" IVar="-1" Cut="0.0000000000000000e+00" cType="1" res="3.7250164314173162e-04" rms="1.3206717371940613e-01" purity="9.6864312887191772e-01" nType="-99"/>
            <Node pos="r" depth="3" NCoef="0" IVar="-1" Cut="0.0000000000000000e+00" cType="1" res="8.3213321864604950e-02" rms="4.8170547932386398e-02" purity="9.8958021402359009e-01" nType="-99"/>
          </Node>
        </Node>
      </Node>
    </BinaryTree>
    <BinaryTree type="DecisionTree" boostWeight="1.0000000000000000e+00" itree="682">
      <Node pos="s" depth="0" NCoef="0" IVar="10" Cut="-1.4657721519470215e+00" cType="1" res="-1.7965690931305289e-03" rms="1.7547635734081268e-01" purity="4.9741923809051514e-01" nType="0">
        <Node pos="l" depth="1" NCoef="0" IVar="7" Cut="-5.0235539674758911e-01" cType="1" res="-9.1205649077892303e-03" rms="1.8758392333984375e-01" purity="3.1005418300628662e-01" nType="0">
          <Node pos="l" depth="2" NCoef="0" IVar="-1" Cut="0.0000000000000000e+00" cType="1" res="3.6388000007718801e-03" rms="1.8649719655513763e-01" purity="2.4132326245307922e-01" nType="-99"/>
          <Node pos="r" depth="2" NCoef="0" IVar="4" Cut="1.9828921508789062e+02" cType="1" res="-1.4270921237766743e-02" rms="1.8790465593338013e-01" purity="3.4398448467254639e-01" nType="0">
            <Node pos="l" depth="3" NCoef="0" IVar="-1" Cut="0.0000000000000000e+00" cType="1" res="-1.6198795288801193e-02" rms="1.6647736728191376e-01" purity="8.9976526796817780e-02" nType="-99"/>
            <Node pos="r" depth="3" NCoef="0" IVar="-1" Cut="0.0000000000000000e+00" cType="1" res="-4.0662147104740143e-02" rms="2.0380695164203644e-01" purity="5.5560064315795898e-01" nType="-99"/>
          </Node>
        </Node>
        <Node pos="r" depth="1" NCoef="0" IVar="8" Cut="1.4675716161727905e+00" cType="1" res="-1.0331352241337299e-03" rms="1.7414814233779907e-01" purity="5.1694965362548828e-01" nType="0">
          <Node pos="l" depth="2" NCoef="0" IVar="2" Cut="3.1307687377929688e+02" cType="1" res="-1.7342122737318277e-03" rms="1.7399995028972626e-01" purity="5.4361170530319214e-01" nType="0">
            <Node pos="l" depth="3" NCoef="0" IVar="-1" Cut="0.0000000000000000e+00" cType="1" res="3.2949004322290421e-02" rms="1.5543422102928162e-01" purity="5.6028015911579132e-02" nType="-99"/>
            <Node pos="r" depth="3" NCoef="0" IVar="-1" Cut="0.0000000000000000e+00" cType="1" res="-7.5714639388024807e-03" rms="1.7532888054847717e-01" purity="5.8118945360183716e-01" nType="-99"/>
          </Node>
          <Node pos="r" depth="2" NCoef="0" IVar="1" Cut="2.3749805986881256e-02" cType="1" res="8.7499413639307022e-03" rms="1.7591173946857452e-01" purity="1.4489804208278656e-01" nType="0">
            <Node pos="l" depth="3" NCoef="0" IVar="-1" Cut="0.0000000000000000e+00" cType="1" res="-8.2558868452906609e-03" rms="1.1817412078380585e-01" purity="2.8787191957235336e-02" nType="-99"/>
            <Node pos="r" depth="3" NCoef="0" IVar="-1" Cut="0.0000000000000000e+00" cType="1" res="4.1763689368963242e-02" rms="2.1496252715587616e-01" purity="2.5047534704208374e-01" nType="-99"/>
          </Node>
        </Node>
      </Node>
    </BinaryTree>
    <BinaryTree type="DecisionTree" boostWeight="1.0000000000000000e+00" itree="683">
      <Node pos="s" depth="0" NCoef="0" IVar="8" Cut="-9.3345445394515991e-01" cType="1" res="-4.0769498446024954e-04" rms="1.7872932553291321e-01" purity="4.9830180406570435e-01" nType="0">
        <Node pos="l" depth="1" NCoef="0" IVar="9" Cut="4.0072518587112427e-01" cType="1" res="4.2262403294444084e-03" rms="1.8926051259040833e-01" purity="2.8156614303588867e-01" nType="0">
          <Node pos="l" depth="2" NCoef="0" IVar="4" Cut="2.4227098083496094e+02" cType="1" res="7.3934053070843220e-03" rms="1.8518906831741333e-01" purity="3.0530613660812378e-01" nType="0">
            <Node pos="l" depth="3" NCoef="0" IVar="-1" Cut="0.0000000000000000e+00" cType="1" res="6.2016281299293041e-03" rms="1.5973073244094849e-01" purity="7.3278196156024933e-02" nType="-99"/>
            <Node pos="r" depth="3" NCoef="0" IVar="-1" Cut="0.0000000000000000e+00" cType="1" res="3.6861646920442581e-02" rms="2.2639249265193939e-01" purity="7.5849401950836182e-01" nType="-99"/>
          </Node>
          <Node pos="r" depth="2" NCoef="0" IVar="4" Cut="1.9843066406250000e+02" cType="1" res="-2.0993312355130911e-03" rms="1.9698825478553772e-01" purity="2.3415181040763855e-01" nType="0">
            <Node pos="l" depth="3" NCoef="0" IVar="-1" Cut="0.0000000000000000e+00" cType="1" res="1.8088519573211670e-02" rms="1.4710579812526703e-01" purity="4.6918373554944992e-02" nType="-99"/>
            <Node pos="r" depth="3" NCoef="0" IVar="-1" Cut="0.0000000000000000e+00" cType="1" res="-1.6100365668535233e-02" rms="2.3745693266391754e-01" purity="4.2672443389892578e-01" nType="-99"/>
          </Node>
        </Node>
        <Node pos="r" depth="1" NCoef="0" IVar="8" Cut="-2.2240039706230164e-01" cType="1" res="-1.2981038307771087e-03" rms="1.7661993205547333e-01" purity="5.3994745016098022e-01" nType="0">
          <Node pos="l" depth="2" NCoef="0" IVar="2" Cut="5.4232727050781250e+02" cType="1" res="-5.5365860462188721e-03" rms="1.7330822348594666e-01" purity="5.7865315675735474e-01" nType="0">
            <Node pos="l" depth="3" NCoef="0" IVar="-1" Cut="0.0000000000000000e+00" cType="1" res="-3.4416202455759048e-02" rms="1.8253688514232635e-01" purity="2.8405344486236572e-01" nType="-99"/>
            <Node pos="r" depth="3" NCoef="0" IVar="-1" Cut="0.0000000000000000e+00" cType="1" res="-1.0927554103545845e-04" rms="1.6638326644897461e-01" purity="7.8304213285446167e-01" nType="-99"/>
          </Node>
          <Node pos="r" depth="2" NCoef="0" IVar="7" Cut="1.2000596523284912e+00" cType="1" res="4.7559253289364278e-04" rms="1.7795754969120026e-01" purity="5.2375006675720215e-01" nType="0">
            <Node pos="l" depth="3" NCoef="0" IVar="-1" Cut="0.0000000000000000e+00" cType="1" res="4.4108564034104347e-03" rms="1.8025249242782593e-01" purity="5.5768758058547974e-01" nType="-99"/>
            <Node pos="r" depth="3" NCoef="0" IVar="-1" Cut="0.0000000000000000e+00" cType="1" res="-3.6293394863605499e-02" rms="1.5040411055088043e-01" purity="1.5541747212409973e-01" nType="-99"/>
          </Node>
        </Node>
      </Node>
    </BinaryTree>
    <BinaryTree type="DecisionTree" boostWeight="1.0000000000000000e+00" itree="684">
      <Node pos="s" depth="0" NCoef="0" IVar="9" Cut="-6.6684138774871826e-01" cType="1" res="6.5721897408366203e-04" rms="1.7758814990520477e-01" purity="5.0788420438766479e-01" nType="0">
        <Node pos="l" depth="1" NCoef="0" IVar="11" Cut="-1.4655284881591797e+00" cType="1" res="4.4640125706791878e-03" rms="1.8506529927253723e-01" purity="4.2393121123313904e-01" nType="0">
          <Node pos="l" depth="2" NCoef="0" IVar="-1" Cut="0.0000000000000000e+00" cType="1" res="-1.3594432733952999e-02" rms="2.0647242665290833e-01" purity="3.1808438897132874e-01" nType="-99"/>
          <Node pos="r" depth="2" NCoef="0" IVar="0" Cut="1.6342906494140625e+03" cType="1" res="5.9451949782669544e-03" rms="1.8171405792236328e-01" purity="4.3923422694206238e-01" nType="0">
            <Node pos="l" depth="3" NCoef="0" IVar="-1" Cut="0.0000000000000000e+00" cType="1" res="-4.1975010186433792e-02" rms="5.9889331459999084e-02" purity="3.5605733282864094e-03" nType="-99"/>
            <Node pos="r" depth="3" NCoef="0" IVar="-1" Cut="0.0000000000000000e+00" cType="1" res="2.0445713773369789e-02" rms="2.1393980085849762e-01" purity="6.2862002849578857e-01" nType="-99"/>
          </Node>
        </Node>
        <Node pos="r" depth="1" NCoef="0" IVar="7" Cut="9.5864897966384888e-01" cType="1" res="-6.7631341516971588e-04" rms="1.7487369477748871e-01" purity="5.3729319572448730e-01" nType="0">
          <Node pos="l" depth="2" NCoef="0" IVar="9" Cut="1.3137617111206055e+00" cType="1" res="-1.8077550921589136e-03" rms="1.7627036571502686e-01" purity="5.8417820930480957e-01" nType="0">
            <Node pos="l" depth="3" NCoef="0" IVar="-1" Cut="0.0000000000000000e+00" cType="1" res="-9.1384137049317360e-03" rms="1.7277869582176208e-01" purity="6.2187880277633667e-01" nType="-99"/>
            <Node pos="r" depth="3" NCoef="0" IVar="-1" Cut="0.0000000000000000e+00" cType="1" res="1.3390310108661652e-02" rms="1.9886840879917145e-01" purity="3.2011249661445618e-01" nType="-99"/>
          </Node>
          <Node pos="r" depth="2" NCoef="0" IVar="0" Cut="1.7645659179687500e+03" cType="1" res="6.7762592807412148e-03" rms="1.6518610715866089e-01" purity="2.2847130894660950e-01" nType="0">
            <Node pos="l" depth="3" NCoef="0" IVar="-1" Cut="0.0000000000000000e+00" cType="1" res="-3.6396212875843048e-02" rms="6.7062363028526306e-02" purity="4.6606780961155891e-03" nType="-99"/>
            <Node pos="r" depth="3" NCoef="0" IVar="-1" Cut="0.0000000000000000e+00" cType="1" res="3.1455099582672119e-02" rms="2.4293215572834015e-01" purity="5.4290062189102173e-01" nType="-99"/>
          </Node>
        </Node>
      </Node>
    </BinaryTree>
    <BinaryTree type="DecisionTree" boostWeight="1.0000000000000000e+00" itree="685">
      <Node pos="s" depth="0" NCoef="0" IVar="9" Cut="-1.7333586215972900e+00" cType="1" res="-1.6534209717065096e-03" rms="1.7794001102447510e-01" purity="5.0520509481430054e-01" nType="0">
        <Node pos="l" depth="1" NCoef="0" IVar="-1" Cut="0.0000000000000000e+00" cType="1" res="-3.4949451684951782e-02" rms="1.7419005930423737e-01" purity="1.3813750445842743e-01" nType="-99"/>
        <Node pos="r" depth="1" NCoef="0" IVar="10" Cut="9.3328100442886353e-01" cType="1" res="-1.0770050575956702e-03" rms="1.7811785638332367e-01" purity="5.2464437484741211e-01" nType="0">
          <Node pos="l" depth="2" NCoef="0" IVar="4" Cut="3.5841558837890625e+02" cType="1" res="-2.3234765976667404e-03" rms="1.7128852009773254e-01" purity="5.4089522361755371e-01" nType="0">
            <Node pos="l" depth="3" NCoef="0" IVar="-1" Cut="0.0000000000000000e+00" cType="1" res="-1.0476499795913696e-02" rms="1.9224756956100464e-01" purity="3.5362336039543152e-01" nType="-99"/>
            <Node pos="r" depth="3" NCoef="0" IVar="-1" Cut="0.0000000000000000e+00" cType="1" res="1.1046743951737881e-02" rms="1.0723486542701721e-01" purity="9.7887539863586426e-01" nType="-99"/>
          </Node>
          <Node pos="r" depth="2" NCoef="0" IVar="1" Cut="1.1264561116695404e-01" cType="1" res="3.8208530750125647e-03" rms="2.0266279578208923e-01" purity="4.6078833937644958e-01" nType="0">
            <Node pos="l" depth="3" NCoef="0" IVar="-1" Cut="0.0000000000000000e+00" cType="1" res="-1.7115030204877257e-03" rms="2.0279483497142792e-01" purity="3.2202142477035522e-01" nType="-99"/>
            <Node pos="r" depth="3" NCoef="0" IVar="-1" Cut="0.0000000000000000e+00" cType="1" res="4.9601536244153976e-02" rms="2.0180183649063110e-01" purity="8.3318650722503662e-01" nType="-99"/>
          </Node>
        </Node>
      </Node>
    </BinaryTree>
    <BinaryTree type="DecisionTree" boostWeight="1.0000000000000000e+00" itree="686">
      <Node pos="s" depth="0" NCoef="0" IVar="9" Cut="-1.4667308330535889e+00" cType="1" res="-4.1470149881206453e-04" rms="1.7646944522857666e-01" purity="5.0185066461563110e-01" nType="0">
        <Node pos="l" depth="1" NCoef="0" IVar="0" Cut="1.7482841796875000e+03" cType="1" res="1.0646917857229710e-02" rms="1.9375388324260712e-01" purity="2.2359660267829895e-01" nType="0">
          <Node pos="l" depth="2" NCoef="0" IVar="-1" Cut="0.0000000000000000e+00" cType="1" res="5.8600888587534428e-03" rms="8.8409788906574249e-02" purity="8.8665224611759186e-03" nType="-99"/>
          <Node pos="r" depth="2" NCoef="0" IVar="-1" Cut="0.0000000000000000e+00" cType="1" res="3.2637625932693481e-02" rms="2.7747508883476257e-01" purity="5.1094055175781250e-01" nType="-99"/>
        </Node>
        <Node pos="r" depth="1" NCoef="0" IVar="9" Cut="1.9865707159042358e+00" cType="1" res="-1.4078260865062475e-03" rms="1.7479981482028961e-01" purity="5.2683264017105103e-01" nType="0">
          <Node pos="l" depth="2" NCoef="0" IVar="9" Cut="1.4921107292175293e+00" cType="1" res="-1.8960629822686315e-03" rms="1.7517796158790588e-01" purity="5.4099732637405396e-01" nType="0">
            <Node pos="l" depth="3" NCoef="0" IVar="-1" Cut="0.0000000000000000e+00" cType="1" res="-3.6781758535653353e-03" rms="1.7334848642349243e-01" purity="5.5406844615936279e-01" nType="-99"/>
            <Node pos="r" depth="3" NCoef="0" IVar="-1" Cut="0.0000000000000000e+00" cType="1" res="-3.4914139658212662e-02" rms="2.0738649368286133e-01" purity="2.8392976522445679e-01" nType="-99"/>
          </Node>
          <Node pos="r" depth="2" NCoef="0" IVar="-1" Cut="0.0000000000000000e+00" cType="1" res="5.5780071765184402e-02" rms="1.6209329664707184e-01" purity="9.3343228101730347e-02" nType="-99"/>
        </Node>
      </Node>
    </BinaryTree>
    <BinaryTree type="DecisionTree" boostWeight="1.0000000000000000e+00" itree="687">
      <Node pos="s" depth="0" NCoef="0" IVar="11" Cut="-1.3380639255046844e-01" cType="1" res="3.1966314418241382e-04" rms="1.7652687430381775e-01" purity="4.9579015374183655e-01" nType="0">
        <Node pos="l" depth="1" NCoef="0" IVar="6" Cut="1.0138832092285156e+02" cType="1" res="3.0288698617368937e-03" rms="1.8101656436920166e-01" purity="5.0056481361389160e-01" nType="0">
          <Node pos="l" depth="2" NCoef="0" IVar="4" Cut="1.5800704956054688e+02" cType="1" res="-1.5129348030313849e-03" rms="1.6840150952339172e-01" purity="1.1384802311658859e-01" nType="0">
            <Node pos="l" depth="3" NCoef="0" IVar="-1" Cut="0.0000000000000000e+00" cType="1" res="4.0572389960289001e-02" rms="1.2949582934379578e-01" purity="2.4747069925069809e-02" nType="-99"/>
            <Node pos="r" depth="3" NCoef="0" IVar="-1" Cut="0.0000000000000000e+00" cType="1" res="-1.7874181270599365e-02" rms="1.9646866619586945e-01" purity="1.9316206872463226e-01" nType="-99"/>
          </Node>
          <Node pos="r" depth="2" NCoef="0" IVar="0" Cut="2.4650954589843750e+03" cType="1" res="5.7270964607596397e-03" rms="1.8805892765522003e-01" purity="7.3030817508697510e-01" nType="0">
            <Node pos="l" depth="3" NCoef="0" IVar="-1" Cut="0.0000000000000000e+00" cType="1" res="2.0556828007102013e-02" rms="2.7296340465545654e-01" purity="2.4246452748775482e-01" nType="-99"/>
            <Node pos="r" depth="3" NCoef="0" IVar="-1" Cut="0.0000000000000000e+00" cType="1" res="7.9469662159681320e-03" rms="1.2475559115409851e-01" purity="9.7638911008834839e-01" nType="-99"/>
          </Node>
        </Node>
        <Node pos="r" depth="1" NCoef="0" IVar="11" Cut="2.1007623672485352e+00" cType="1" res="-1.9515729509294033e-03" rms="1.7264029383659363e-01" purity="4.9178737401962280e-01" nType="0">
          <Node pos="l" depth="2" NCoef="0" IVar="2" Cut="5.2121887207031250e+02" cType="1" res="-3.0108923092484474e-03" rms="1.7026302218437195e-01" purity="5.0495457649230957e-01" nType="0">
            <Node pos="l" depth="3" NCoef="0" IVar="-1" Cut="0.0000000000000000e+00" cType="1" res="-1.7048329114913940e-02" rms="1.7117908596992493e-01" purity="2.0469237864017487e-01" nType="-99"/>
            <Node pos="r" depth="3" NCoef="0" IVar="-1" Cut="0.0000000000000000e+00" cType="1" res="-2.2200767416507006e-03" rms="1.6951557993888855e-01" purity="7.3673528432846069e-01" nType="-99"/>
          </Node>
          <Node pos="r" depth="2" NCoef="0" IVar="-1" Cut="0.0000000000000000e+00" cType="1" res="3.9211172610521317e-02" rms="2.0419748127460480e-01" purity="2.9539710283279419e-01" nType="-99"/>
        </Node>
      </Node>
    </BinaryTree>
    <BinaryTree type="DecisionTree" boostWeight="1.0000000000000000e+00" itree="688">
      <Node pos="s" depth="0" NCoef="0" IVar="11" Cut="1.9993916749954224e+00" cType="1" res="1.3389335945248604e-03" rms="1.7776522040367126e-01" purity="5.0575602054595947e-01" nType="0">
        <Node pos="l" depth="1" NCoef="0" IVar="1" Cut="1.2846580147743225e-01" cType="1" res="8.9963461505249143e-04" rms="1.7583596706390381e-01" purity="5.1337444782257080e-01" nType="0">
          <Node pos="l" depth="2" NCoef="0" IVar="10" Cut="-4.0037778019905090e-01" cType="1" res="2.2139579523354769e-03" rms="1.8372236192226410e-01" purity="4.0229696035385132e-01" nType="0">
            <Node pos="l" depth="3" NCoef="0" IVar="-1" Cut="0.0000000000000000e+00" cType="1" res="-3.4060145262628794e-03" rms="1.7951880395412445e-01" purity="3.7001475691795349e-01" nType="-99"/>
            <Node pos="r" depth="3" NCoef="0" IVar="-1" Cut="0.0000000000000000e+00" cType="1" res="1.2118200771510601e-02" rms="1.8619842827320099e-01" purity="4.2190426588058472e-01" nType="-99"/>
          </Node>
          <Node pos="r" depth="2" NCoef="0" IVar="0" Cut="2.6181625976562500e+03" cType="1" res="-3.1015716958791018e-03" rms="1.4921298623085022e-01" purity="8.5152876377105713e-01" nType="0">
            <Node pos="l" depth="3" NCoef="0" IVar="-1" Cut="0.0000000000000000e+00" cType="1" res="-1.8500657752156258e-02" rms="2.7422872185707092e-01" purity="4.5403593778610229e-01" nType="-99"/>
            <Node pos="r" depth="3" NCoef="0" IVar="-1" Cut="0.0000000000000000e+00" cType="1" res="2.0613674074411392e-02" rms="5.5202655494213104e-02" purity="9.9538075923919678e-01" nType="-99"/>
          </Node>
        </Node>
        <Node pos="r" depth="1" NCoef="0" IVar="-1" Cut="0.0000000000000000e+00" cType="1" res="2.7764104306697845e-02" rms="2.1690577268600464e-01" purity="3.3207279443740845e-01" nType="-99"/>
      </Node>
    </BinaryTree>
    <BinaryTree type="DecisionTree" boostWeight="1.0000000000000000e+00" itree="689">
      <Node pos="s" depth="0" NCoef="0" IVar="10" Cut="9.3338847160339355e-01" cType="1" res="1.4503666898235679e-04" rms="1.7380943894386292e-01" purity="4.9372288584709167e-01" nType="0">
        <Node pos="l" depth="1" NCoef="0" IVar="11" Cut="-1.7319378852844238e+00" cType="1" res="1.5100778546184301e-03" rms="1.6960442066192627e-01" purity="5.1455348730087280e-01" nType="0">
          <Node pos="l" depth="2" NCoef="0" IVar="5" Cut="1.3104479980468750e+02" cType="1" res="1.2311026453971863e-02" rms="2.0384117960929871e-01" purity="3.7353217601776123e-01" nType="0">
            <Node pos="l" depth="3" NCoef="0" IVar="-1" Cut="0.0000000000000000e+00" cType="1" res="-1.0075073689222336e-02" rms="1.5458963811397552e-01" purity="7.4963256716728210e-02" nType="-99"/>
            <Node pos="r" depth="3" NCoef="0" IVar="-1" Cut="0.0000000000000000e+00" cType="1" res="4.7864515334367752e-02" rms="2.3577275872230530e-01" purity="6.1646074056625366e-01" nType="-99"/>
          </Node>
          <Node pos="r" depth="2" NCoef="0" IVar="0" Cut="1.8930385742187500e+03" cType="1" res="6.1537016881629825e-04" rms="1.6642141342163086e-01" purity="5.2623510360717773e-01" nType="0">
            <Node pos="l" depth="3" NCoef="0" IVar="-1" Cut="0.0000000000000000e+00" cType="1" res="-2.1385842934250832e-02" rms="1.0828500986099243e-01" purity="1.2889488600194454e-02" nType="-99"/>
            <Node pos="r" depth="3" NCoef="0" IVar="-1" Cut="0.0000000000000000e+00" cType="1" res="7.0159859023988247e-03" rms="1.9410428404808044e-01" purity="8.4745419025421143e-01" nType="-99"/>
          </Node>
        </Node>
        <Node pos="r" depth="1" NCoef="0" IVar="6" Cut="8.7400024414062500e+01" cType="1" res="-4.9846447072923183e-03" rms="1.8868768215179443e-01" purity="4.1544374823570251e-01" nType="0">
          <Node pos="l" depth="2" NCoef="0" IVar="11" Cut="1.3464798033237457e-01" cType="1" res="5.2479635924100876e-03" rms="1.6299569606781006e-01" purity="1.0361911356449127e-01" nType="0">
            <Node pos="l" depth="3" NCoef="0" IVar="-1" Cut="0.0000000000000000e+00" cType="1" res="-8.4919463843107224e-03" rms="1.3653460144996643e-01" purity="8.9276708662509918e-02" nType="-99"/>
            <Node pos="r" depth="3" NCoef="0" IVar="-1" Cut="0.0000000000000000e+00" cType="1" res="4.3809950351715088e-02" rms="1.8470835685729980e-01" purity="1.1746431887149811e-01" nType="-99"/>
          </Node>
          <Node pos="r" depth="2" NCoef="0" IVar="0" Cut="2.6368007812500000e+03" cType="1" res="-9.7244875505566597e-03" rms="1.9929219782352448e-01" purity="5.5988395214080811e-01" nType="0">
            <Node pos="l" depth="3" NCoef="0" IVar="-1" Cut="0.0000000000000000e+00" cType="1" res="-2.6631379500031471e-02" rms="2.3777043819427490e-01" purity="2.2234816849231720e-01" nType="-99"/>
            <Node pos="r" depth="3" NCoef="0" IVar="-1" Cut="0.0000000000000000e+00" cType="1" res="-3.8009416311979294e-03" rms="1.3851682841777802e-01" purity="9.6897804737091064e-01" nType="-99"/>
          </Node>
        </Node>
      </Node>
    </BinaryTree>
    <BinaryTree type="DecisionTree" boostWeight="1.0000000000000000e+00" itree="690">
      <Node pos="s" depth="0" NCoef="0" IVar="10" Cut="-1.2000527381896973e+00" cType="1" res="9.2397222761064768e-04" rms="1.7882801592350006e-01" purity="5.0255268812179565e-01" nType="0">
        <Node pos="l" depth="1" NCoef="0" IVar="0" Cut="1.8685214843750000e+03" cType="1" res="9.0805795043706894e-03" rms="1.9283463060855865e-01" purity="3.8281860947608948e-01" nType="0">
          <Node pos="l" depth="2" NCoef="0" IVar="9" Cut="-1.3419313728809357e-01" cType="1" res="-1.0765816550701857e-03" rms="1.2245173007249832e-01" purity="1.7069049179553986e-02" nType="0">
            <Node pos="l" depth="3" NCoef="0" IVar="-1" Cut="0.0000000000000000e+00" cType="1" res="-6.2794223427772522e-02" rms="9.4585441052913666e-02" purity="7.9590482637286186e-03" nType="-99"/>
            <Node pos="r" depth="3" NCoef="0" IVar="-1" Cut="0.0000000000000000e+00" cType="1" res="5.3201749920845032e-02" rms="1.4758406579494476e-01" purity="2.7560975402593613e-02" nType="-99"/>
          </Node>
          <Node pos="r" depth="2" NCoef="0" IVar="0" Cut="2.7162827148437500e+03" cType="1" res="1.9511051476001740e-02" rms="2.4445517361164093e-01" purity="7.5840979814529419e-01" nType="0">
            <Node pos="l" depth="3" NCoef="0" IVar="-1" Cut="0.0000000000000000e+00" cType="1" res="3.1931180506944656e-02" rms="3.2156586647033691e-01" purity="5.2981084585189819e-01" nType="-99"/>
            <Node pos="r" depth="3" NCoef="0" IVar="-1" Cut="0.0000000000000000e+00" cType="1" res="2.2472107782959938e-02" rms="1.3903944194316864e-01" purity="9.6797686815261841e-01" nType="-99"/>
          </Node>
        </Node>
        <Node pos="r" depth="1" NCoef="0" IVar="0" Cut="1.9325506591796875e+03" cType="1" res="-4.5752211008220911e-04" rms="1.7630818486213684e-01" purity="5.2283221483230591e-01" nType="0">
          <Node pos="l" depth="2" NCoef="0" IVar="0" Cut="1.8057432861328125e+03" cType="1" res="2.0826677791774273e-03" rms="1.3667550683021545e-01" purity="2.3695498704910278e-02" nType="0">
            <Node pos="l" depth="3" NCoef="0" IVar="-1" Cut="0.0000000000000000e+00" cType="1" res="3.3913671504706144e-03" rms="1.0386533290147781e-01" purity="1.1735319159924984e-02" nType="-99"/>
            <Node pos="r" depth="3" NCoef="0" IVar="-1" Cut="0.0000000000000000e+00" cType="1" res="2.1406073123216629e-02" rms="2.7161750197410583e-01" purity="1.0744319856166840e-01" nType="-99"/>
          </Node>
          <Node pos="r" depth="2" NCoef="0" IVar="5" Cut="1.5662788391113281e+02" cType="1" res="-2.1546708885580301e-03" rms="1.9840613007545471e-01" purity="8.5631489753723145e-01" nType="0">
            <Node pos="l" depth="3" NCoef="0" IVar="-1" Cut="0.0000000000000000e+00" cType="1" res="-1.2682310305535793e-02" rms="3.0697888135910034e-01" purity="4.5014920830726624e-01" nType="-99"/>
            <Node pos="r" depth="3" NCoef="0" IVar="-1" Cut="0.0000000000000000e+00" cType="1" res="-1.3015113072469831e-03" rms="1.7329527437686920e-01" purity="9.2525094747543335e-01" nType="-99"/>
          </Node>
        </Node>
      </Node>
    </BinaryTree>
    <BinaryTree type="DecisionTree" boostWeight="1.0000000000000000e+00" itree="691">
      <Node pos="s" depth="0" NCoef="0" IVar="8" Cut="-6.6684037446975708e-01" cType="1" res="4.4287917262408882e-05" rms="1.7971789836883545e-01" purity="4.9590981006622314e-01" nType="0">
        <Node pos="l" depth="1" NCoef="0" IVar="10" Cut="1.1994831562042236e+00" cType="1" res="4.9733831547200680e-03" rms="1.8759754300117493e-01" purity="3.6434197425842285e-01" nType="0">
          <Node pos="l" depth="2" NCoef="0" IVar="11" Cut="9.3196034431457520e-01" cType="1" res="7.2262729518115520e-03" rms="1.8796716630458832e-01" purity="3.8299539685249329e-01" nType="0">
            <Node pos="l" depth="3" NCoef="0" IVar="-1" Cut="0.0000000000000000e+00" cType="1" res="8.4568569436669350e-03" rms="1.7862950265407562e-01" purity="3.8663259148597717e-01" nType="-99"/>
            <Node pos="r" depth="3" NCoef="0" IVar="-1" Cut="0.0000000000000000e+00" cType="1" res="6.6029995679855347e-02" rms="2.2281402349472046e-01" purity="3.6729469895362854e-01" nType="-99"/>
          </Node>
          <Node pos="r" depth="2" NCoef="0" IVar="-1" Cut="0.0000000000000000e+00" cType="1" res="-2.1746627986431122e-02" rms="1.8464709818363190e-01" purity="2.4769718945026398e-01" nType="-99"/>
        </Node>
        <Node pos="r" depth="1" NCoef="0" IVar="11" Cut="-2.0001382827758789e+00" cType="1" res="-1.5400695847347379e-03" rms="1.7708157002925873e-01" purity="5.3819960355758667e-01" nType="0">
          <Node pos="l" depth="2" NCoef="0" IVar="-1" Cut="0.0000000000000000e+00" cType="1" res="4.1377332061529160e-02" rms="2.0838478207588196e-01" purity="3.2195383310317993e-01" nType="-99"/>
          <Node pos="r" depth="2" NCoef="0" IVar="10" Cut="1.3385473191738129e-01" cType="1" res="-2.2998636122792959e-03" rms="1.7564198374748230e-01" purity="5.4703623056411743e-01" nType="0">
            <Node pos="l" depth="3" NCoef="0" IVar="-1" Cut="0.0000000000000000e+00" cType="1" res="-1.8698628991842270e-02" rms="1.7595508694648743e-01" purity="5.4179346561431885e-01" nType="-99"/>
            <Node pos="r" depth="3" NCoef="0" IVar="-1" Cut="0.0000000000000000e+00" cType="1" res="5.6615462526679039e-03" rms="1.7517890036106110e-01" purity="5.5324327945709229e-01" nType="-99"/>
          </Node>
        </Node>
      </Node>
    </BinaryTree>
    <BinaryTree type="DecisionTree" boostWeight="1.0000000000000000e+00" itree="692">
      <Node pos="s" depth="0" NCoef="0" IVar="11" Cut="1.7336440086364746e+00" cType="1" res="-1.0901998030021787e-03" rms="1.7892286181449890e-01" purity="4.9626490473747253e-01" nType="0">
        <Node pos="l" depth="1" NCoef="0" IVar="11" Cut="-2.1507887840270996e+00" cType="1" res="-2.4438381660729647e-04" rms="1.7638704180717468e-01" purity="5.0645881891250610e-01" nType="0">
          <Node pos="l" depth="2" NCoef="0" IVar="-1" Cut="0.0000000000000000e+00" cType="1" res="4.2320583015680313e-02" rms="2.1184505522251129e-01" purity="2.5087323784828186e-01" nType="-99"/>
          <Node pos="r" depth="2" NCoef="0" IVar="1" Cut="2.0062046125531197e-02" cType="1" res="-7.7828200301155448e-04" rms="1.7505717277526855e-01" purity="5.1497215032577515e-01" nType="0">
            <Node pos="l" depth="3" NCoef="0" IVar="-1" Cut="0.0000000000000000e+00" cType="1" res="1.8094489350914955e-02" rms="1.4744642376899719e-01" purity="9.9672771990299225e-02" nType="-99"/>
            <Node pos="r" depth="3" NCoef="0" IVar="-1" Cut="0.0000000000000000e+00" cType="1" res="-5.3402855992317200e-03" rms="1.8006059527397156e-01" purity="5.9811252355575562e-01" nType="-99"/>
          </Node>
        </Node>
        <Node pos="r" depth="1" NCoef="0" IVar="0" Cut="2.0761384277343750e+03" cType="1" res="-1.2267937883734703e-02" rms="2.0925121009349823e-01" purity="3.6154848337173462e-01" nType="0">
          <Node pos="l" depth="2" NCoef="0" IVar="-1" Cut="0.0000000000000000e+00" cType="1" res="-5.4202708415687084e-03" rms="1.7494015395641327e-01" purity="4.1164290159940720e-02" nType="-99"/>
          <Node pos="r" depth="2" NCoef="0" IVar="-1" Cut="0.0000000000000000e+00" cType="1" res="-4.6709433197975159e-02" rms="2.4951861798763275e-01" purity="8.2011812925338745e-01" nType="-99"/>
        </Node>
      </Node>
    </BinaryTree>
    <BinaryTree type="DecisionTree" boostWeight="1.0000000000000000e+00" itree="693">
      <Node pos="s" depth="0" NCoef="0" IVar="1" Cut="6.4997516572475433e-02" cType="1" res="-5.2660575602203608e-04" rms="1.7676277458667755e-01" purity="4.9854725599288940e-01" nType="0">
        <Node pos="l" depth="1" NCoef="0" IVar="9" Cut="1.1995989084243774e+00" cType="1" res="-2.6350344996899366e-03" rms="1.7720627784729004e-01" purity="2.5005790591239929e-01" nType="0">
          <Node pos="l" depth="2" NCoef="0" IVar="11" Cut="1.3516995310783386e-01" cType="1" res="-4.2891423217952251e-03" rms="1.7313709855079651e-01" purity="2.6398977637290955e-01" nType="0">
            <Node pos="l" depth="3" NCoef="0" IVar="-1" Cut="0.0000000000000000e+00" cType="1" res="-2.6223817840218544e-02" rms="1.6759334504604340e-01" purity="2.5843730568885803e-01" nType="-99"/>
            <Node pos="r" depth="3" NCoef="0" IVar="-1" Cut="0.0000000000000000e+00" cType="1" res="2.7085461188107729e-03" rms="1.7975063621997833e-01" purity="2.7099370956420898e-01" nType="-99"/>
          </Node>
          <Node pos="r" depth="2" NCoef="0" IVar="9" Cut="1.5044565200805664e+00" cType="1" res="6.6392840817570686e-03" rms="1.9822685420513153e-01" purity="1.7194393277168274e-01" nType="0">
            <Node pos="l" depth="3" NCoef="0" IVar="-1" Cut="0.0000000000000000e+00" cType="1" res="4.6456541866064072e-02" rms="2.3387135565280914e-01" purity="2.5030118227005005e-01" nType="-99"/>
            <Node pos="r" depth="3" NCoef="0" IVar="-1" Cut="0.0000000000000000e+00" cType="1" res="-1.4167905319482088e-03" rms="1.7616473138332367e-01" purity="1.3066862523555756e-01" nType="-99"/>
          </Node>
        </Node>
        <Node pos="r" depth="1" NCoef="0" IVar="9" Cut="1.1995393037796021e+00" cType="1" res="1.5484022442251444e-03" rms="1.7630058526992798e-01" purity="7.4309778213500977e-01" nType="0">
          <Node pos="l" depth="2" NCoef="0" IVar="3" Cut="3.0130737304687500e+02" cType="1" res="2.5993234012275934e-03" rms="1.7206291854381561e-01" purity="7.5778430700302124e-01" nType="0">
            <Node pos="l" depth="3" NCoef="0" IVar="-1" Cut="0.0000000000000000e+00" cType="1" res="2.4719305336475372e-02" rms="2.2465492784976959e-01" purity="1.9810865819454193e-01" nType="-99"/>
            <Node pos="r" depth="3" NCoef="0" IVar="-1" Cut="0.0000000000000000e+00" cType="1" res="1.5260298969224095e-03" rms="1.5574817359447479e-01" purity="9.0060794353485107e-01" nType="-99"/>
          </Node>
          <Node pos="r" depth="2" NCoef="0" IVar="-1" Cut="0.0000000000000000e+00" cType="1" res="-2.0797273144125938e-02" rms="2.1774598956108093e-01" purity="5.7913154363632202e-01" nType="-99"/>
        </Node>
      </Node>
    </BinaryTree>
    <BinaryTree type="DecisionTree" boostWeight="1.0000000000000000e+00" itree="694">
      <Node pos="s" depth="0" NCoef="0" IVar="7" Cut="4.7200053930282593e-01" cType="1" res="1.2089991651009768e-04" rms="1.7422275245189667e-01" purity="5.0010770559310913e-01" nType="0">
        <Node pos="l" depth="1" NCoef="0" IVar="6" Cut="1.3946658325195312e+02" cType="1" res="1.5778784872964025e-03" rms="1.7791286110877991e-01" purity="5.4832631349563599e-01" nType="0">
          <Node pos="l" depth="2" NCoef="0" IVar="3" Cut="4.6063314819335938e+02" cType="1" res="4.0071667172014713e-03" rms="1.9694361090660095e-01" purity="2.6343676447868347e-01" nType="0">
            <Node pos="l" depth="3" NCoef="0" IVar="-1" Cut="0.0000000000000000e+00" cType="1" res="4.3025659397244453e-03" rms="1.9142942130565643e-01" purity="1.4641511440277100e-01" nType="-99"/>
            <Node pos="r" depth="3" NCoef="0" IVar="-1" Cut="0.0000000000000000e+00" cType="1" res="2.8565136715769768e-02" rms="2.2045385837554932e-01" purity="8.0835527181625366e-01" nType="-99"/>
          </Node>
          <Node pos="r" depth="2" NCoef="0" IVar="9" Cut="9.2930841445922852e-01" cType="1" res="-1.4781809877604246e-03" rms="1.5053853392601013e-01" purity="9.0671914815902710e-01" nType="0">
            <Node pos="l" depth="3" NCoef="0" IVar="-1" Cut="0.0000000000000000e+00" cType="1" res="-1.5634285286068916e-02" rms="1.4346401393413544e-01" purity="9.1520941257476807e-01" nType="-99"/>
            <Node pos="r" depth="3" NCoef="0" IVar="-1" Cut="0.0000000000000000e+00" cType="1" res="3.1309254467487335e-02" rms="1.9243539869785309e-01" purity="8.4715580940246582e-01" nType="-99"/>
          </Node>
        </Node>
        <Node pos="r" depth="1" NCoef="0" IVar="10" Cut="-1.1990119218826294e+00" cType="1" res="-3.6863421555608511e-03" rms="1.6412803530693054e-01" purity="3.7410727143287659e-01" nType="0">
          <Node pos="l" depth="2" NCoef="0" IVar="-1" Cut="0.0000000000000000e+00" cType="1" res="-3.8387641310691833e-02" rms="1.8386311829090118e-01" purity="2.3142054677009583e-01" nType="-99"/>
          <Node pos="r" depth="2" NCoef="0" IVar="6" Cut="1.3590333557128906e+02" cType="1" res="-1.7566748429089785e-03" rms="1.6062030196189880e-01" purity="3.9721962809562683e-01" nType="0">
            <Node pos="l" depth="3" NCoef="0" IVar="-1" Cut="0.0000000000000000e+00" cType="1" res="-1.8968425691127777e-02" rms="1.5454180538654327e-01" purity="1.3578650355339050e-01" nType="-99"/>
            <Node pos="r" depth="3" NCoef="0" IVar="-1" Cut="0.0000000000000000e+00" cType="1" res="1.4025287702679634e-02" rms="1.7063844203948975e-01" purity="8.5882306098937988e-01" nType="-99"/>
          </Node>
        </Node>
      </Node>
    </BinaryTree>
    <BinaryTree type="DecisionTree" boostWeight="1.0000000000000000e+00" itree="695">
      <Node pos="s" depth="0" NCoef="0" IVar="8" Cut="1.1998844146728516e+00" cType="1" res="-1.0117356432601810e-03" rms="1.8050329387187958e-01" purity="5.0423908233642578e-01" nType="0">
        <Node pos="l" depth="1" NCoef="0" IVar="3" Cut="7.1474896240234375e+02" cType="1" res="-1.7505945288576186e-04" rms="1.8106992542743683e-01" purity="5.3932851552963257e-01" nType="0">
          <Node pos="l" depth="2" NCoef="0" IVar="6" Cut="1.1906805419921875e+02" cType="1" res="4.2302097426727414e-04" rms="1.8319389224052429e-01" purity="5.1629227399826050e-01" nType="0">
            <Node pos="l" depth="3" NCoef="0" IVar="-1" Cut="0.0000000000000000e+00" cType="1" res="9.4975493848323822e-03" rms="1.9146828353404999e-01" purity="1.7419551312923431e-01" nType="-99"/>
            <Node pos="r" depth="3" NCoef="0" IVar="-1" Cut="0.0000000000000000e+00" cType="1" res="-6.8615083582699299e-03" rms="1.7546956241130829e-01" purity="8.2035046815872192e-01" nType="-99"/>
          </Node>
          <Node pos="r" depth="2" NCoef="0" IVar="-1" Cut="0.0000000000000000e+00" cType="1" res="-8.0581188201904297e-02" rms="1.3583134114742279e-01" purity="9.6239763498306274e-01" nType="-99"/>
        </Node>
        <Node pos="r" depth="1" NCoef="0" IVar="1" Cut="4.6252090483903885e-02" cType="1" res="-8.3856293931603432e-03" rms="1.7525751888751984e-01" purity="1.9498464465141296e-01" nType="0">
          <Node pos="l" depth="2" NCoef="0" IVar="1" Cut="2.2126326337456703e-02" cType="1" res="-6.1484007164835930e-04" rms="1.4274889230728149e-01" purity="8.3071857690811157e-02" nType="0">
            <Node pos="l" depth="3" NCoef="0" IVar="-1" Cut="0.0000000000000000e+00" cType="1" res="-3.0611041933298111e-02" rms="1.1501031368970871e-01" purity="4.2062483727931976e-02" nType="-99"/>
            <Node pos="r" depth="3" NCoef="0" IVar="-1" Cut="0.0000000000000000e+00" cType="1" res="1.7887054011225700e-02" rms="1.7200402915477753e-01" purity="1.3628965616226196e-01" nType="-99"/>
          </Node>
          <Node pos="r" depth="2" NCoef="0" IVar="-1" Cut="0.0000000000000000e+00" cType="1" res="-4.6097848564386368e-02" rms="2.2232930362224579e-01" purity="4.0100255608558655e-01" nType="-99"/>
        </Node>
      </Node>
    </BinaryTree>
    <BinaryTree type="DecisionTree" boostWeight="1.0000000000000000e+00" itree="696">
      <Node pos="s" depth="0" NCoef="0" IVar="11" Cut="1.4656529426574707e+00" cType="1" res="6.9797202013432980e-04" rms="1.7631705105304718e-01" purity="4.9638521671295166e-01" nType="0">
        <Node pos="l" depth="1" NCoef="0" IVar="7" Cut="-1.2992656230926514e+00" cType="1" res="1.6904711956158280e-03" rms="1.7272819578647614e-01" purity="5.1288819313049316e-01" nType="0">
          <Node pos="l" depth="2" NCoef="0" IVar="2" Cut="4.6617913818359375e+02" cType="1" res="-5.3097088821232319e-03" rms="1.2634974718093872e-01" purity="8.3198286592960358e-02" nType="0">
            <Node pos="l" depth="3" NCoef="0" IVar="-1" Cut="0.0000000000000000e+00" cType="1" res="-2.3887446150183678e-03" rms="1.3178586959838867e-01" purity="4.4083956629037857e-02" nType="-99"/>
            <Node pos="r" depth="3" NCoef="0" IVar="-1" Cut="0.0000000000000000e+00" cType="1" res="-5.4283872246742249e-02" rms="1.1726330965757370e-01" purity="1.4233335852622986e-01" nType="-99"/>
          </Node>
          <Node pos="r" depth="2" NCoef="0" IVar="7" Cut="1.2362592220306396e+00" cType="1" res="2.2434957791119814e-03" rms="1.7585977911949158e-01" purity="5.4683429002761841e-01" nType="0">
            <Node pos="l" depth="3" NCoef="0" IVar="-1" Cut="0.0000000000000000e+00" cType="1" res="9.0160323306918144e-03" rms="1.7965506017208099e-01" purity="5.8675736188888550e-01" nType="-99"/>
            <Node pos="r" depth="3" NCoef="0" IVar="-1" Cut="0.0000000000000000e+00" cType="1" res="-2.6592824608087540e-02" rms="1.2764744460582733e-01" purity="1.1597295850515366e-01" nType="-99"/>
          </Node>
        </Node>
        <Node pos="r" depth="1" NCoef="0" IVar="3" Cut="3.1856436157226562e+02" cType="1" res="-6.8311258219182491e-03" rms="2.0131148397922516e-01" purity="3.7119385600090027e-01" nType="0">
          <Node pos="l" depth="2" NCoef="0" IVar="8" Cut="3.9931398630142212e-01" cType="1" res="9.5709244487807155e-04" rms="1.7580540478229523e-01" purity="9.6905998885631561e-02" nType="0">
            <Node pos="l" depth="3" NCoef="0" IVar="-1" Cut="0.0000000000000000e+00" cType="1" res="2.0091053098440170e-02" rms="1.9758628308773041e-01" purity="1.3579578697681427e-01" nType="-99"/>
            <Node pos="r" depth="3" NCoef="0" IVar="-1" Cut="0.0000000000000000e+00" cType="1" res="-2.1820951253175735e-02" rms="1.5281820297241211e-01" purity="6.1202634125947952e-02" nType="-99"/>
          </Node>
          <Node pos="r" depth="2" NCoef="0" IVar="9" Cut="1.3693928718566895e-01" cType="1" res="-1.5782916918396950e-02" rms="2.2678691148757935e-01" purity="6.8646073341369629e-01" nType="0">
            <Node pos="l" depth="3" NCoef="0" IVar="-1" Cut="0.0000000000000000e+00" cType="1" res="-4.7510147094726562e-02" rms="2.3951455950737000e-01" purity="6.9784653186798096e-01" nType="-99"/>
            <Node pos="r" depth="3" NCoef="0" IVar="-1" Cut="0.0000000000000000e+00" cType="1" res="-1.4022064395248890e-02" rms="2.1194481849670410e-01" purity="6.7431491613388062e-01" nType="-99"/>
          </Node>
        </Node>
      </Node>
    </BinaryTree>
    <BinaryTree type="DecisionTree" boostWeight="1.0000000000000000e+00" itree="697">
      <Node pos="s" depth="0" NCoef="0" IVar="10" Cut="1.7330832481384277e+00" cType="1" res="-1.1847031419165432e-04" rms="1.8028762936592102e-01" purity="4.9494424462318420e-01" nType="0">
        <Node pos="l" depth="1" NCoef="0" IVar="7" Cut="-1.3361694812774658e+00" cType="1" res="-7.5465196277946234e-04" rms="1.7774774134159088e-01" purity="5.1133859157562256e-01" nType="0">
          <Node pos="l" depth="2" NCoef="0" IVar="3" Cut="2.5544309997558594e+02" cType="1" res="7.9916380345821381e-03" rms="1.3716284930706024e-01" purity="8.7119355797767639e-02" nType="0">
            <Node pos="l" depth="3" NCoef="0" IVar="-1" Cut="0.0000000000000000e+00" cType="1" res="-7.3969201184809208e-03" rms="8.0295749008655548e-02" purity="8.6390152573585510e-03" nType="-99"/>
            <Node pos="r" depth="3" NCoef="0" IVar="-1" Cut="0.0000000000000000e+00" cType="1" res="5.6188724935054779e-02" rms="1.7379540205001831e-01" purity="1.6025163233280182e-01" nType="-99"/>
          </Node>
          <Node pos="r" depth="2" NCoef="0" IVar="11" Cut="-9.3346023559570312e-01" cType="1" res="-1.3860515318810940e-03" rms="1.8030801415443420e-01" purity="5.4196327924728394e-01" nType="0">
            <Node pos="l" depth="3" NCoef="0" IVar="-1" Cut="0.0000000000000000e+00" cType="1" res="-1.4680439606308937e-02" rms="1.8892060220241547e-01" purity="4.8288625478744507e-01" nType="-99"/>
            <Node pos="r" depth="3" NCoef="0" IVar="-1" Cut="0.0000000000000000e+00" cType="1" res="-5.4619176080450416e-04" rms="1.7762631177902222e-01" purity="5.5967789888381958e-01" nType="-99"/>
          </Node>
        </Node>
        <Node pos="r" depth="1" NCoef="0" IVar="2" Cut="4.9339862060546875e+02" cType="1" res="9.2976978048682213e-03" rms="2.1416954696178436e-01" purity="2.5228974223136902e-01" nType="0">
          <Node pos="l" depth="2" NCoef="0" IVar="-1" Cut="0.0000000000000000e+00" cType="1" res="-9.9329813383519650e-04" rms="1.8617345392704010e-01" purity="8.6609140038490295e-02" nType="-99"/>
          <Node pos="r" depth="2" NCoef="0" IVar="-1" Cut="0.0000000000000000e+00" cType="1" res="3.5315558314323425e-02" rms="2.4036271870136261e-01" purity="4.3136417865753174e-01" nType="-99"/>
        </Node>
      </Node>
    </BinaryTree>
    <BinaryTree type="DecisionTree" boostWeight="1.0000000000000000e+00" itree="698">
      <Node pos="s" depth="0" NCoef="0" IVar="11" Cut="1.9993711709976196e+00" cType="1" res="1.4015336637385190e-04" rms="1.7793887853622437e-01" purity="4.9659660458564758e-01" nType="0">
        <Node pos="l" depth="1" NCoef="0" IVar="8" Cut="-9.3217420578002930e-01" cType="1" res="-3.5233091330155730e-04" rms="1.7616534233093262e-01" purity="5.0255358219146729e-01" nType="0">
          <Node pos="l" depth="2" NCoef="0" IVar="10" Cut="-1.3393695652484894e-01" cType="1" res="5.9517030604183674e-03" rms="1.8896429240703583e-01" purity="3.0914935469627380e-01" nType="0">
            <Node pos="l" depth="3" NCoef="0" IVar="-1" Cut="0.0000000000000000e+00" cType="1" res="6.6360429627820849e-04" rms="1.9661508500576019e-01" purity="2.9387566447257996e-01" nType="-99"/>
            <Node pos="r" depth="3" NCoef="0" IVar="-1" Cut="0.0000000000000000e+00" cType="1" res="3.3879719674587250e-02" rms="1.8045985698699951e-01" purity="3.2505699992179871e-01" nType="-99"/>
          </Node>
          <Node pos="r" depth="2" NCoef="0" IVar="9" Cut="-1.1997766494750977e+00" cType="1" res="-1.5672794543206692e-03" rms="1.7356391251087189e-01" purity="5.3982758522033691e-01" nType="0">
            <Node pos="l" depth="3" NCoef="0" IVar="-1" Cut="0.0000000000000000e+00" cType="1" res="-2.3680353537201881e-02" rms="1.8196305632591248e-01" purity="3.1265926361083984e-01" nType="-99"/>
            <Node pos="r" depth="3" NCoef="0" IVar="-1" Cut="0.0000000000000000e+00" cType="1" res="-1.6196417855098844e-03" rms="1.7234432697296143e-01" purity="5.7120203971862793e-01" nType="-99"/>
          </Node>
        </Node>
        <Node pos="r" depth="1" NCoef="0" IVar="-1" Cut="0.0000000000000000e+00" cType="1" res="2.8684230521321297e-02" rms="2.1650396287441254e-01" purity="3.5087391734123230e-01" nType="-99"/>
      </Node>
    </BinaryTree>
    <BinaryTree type="DecisionTree" boostWeight="1.0000000000000000e+00" itree="699">
      <Node pos="s" depth="0" NCoef="0" IVar="11" Cut="1.9999127388000488e+00" cType="1" res="7.5985956937074661e-04" rms="1.7925322055816650e-01" purity="4.9112495779991150e-01" nType="0">
        <Node pos="l" depth="1" NCoef="0" IVar="9" Cut="-1.7333199977874756e+00" cType="1" res="1.3670076150447130e-03" rms="1.7886035144329071e-01" purity="5.0070387125015259e-01" nType="0">
          <Node pos="l" depth="2" NCoef="0" IVar="-1" Cut="0.0000000000000000e+00" cType="1" res="-2.5506565347313881e-02" rms="1.7549303174018860e-01" purity="1.3259717822074890e-01" nType="-99"/>
          <Node pos="r" depth="2" NCoef="0" IVar="9" Cut="-6.5410357713699341e-01" cType="1" res="1.8788015004247427e-03" rms="1.7901596426963806e-01" purity="5.1954460144042969e-01" nType="0">
            <Node pos="l" depth="3" NCoef="0" IVar="-1" Cut="0.0000000000000000e+00" cType="1" res="2.2295426577329636e-02" rms="1.8831147253513336e-01" purity="4.7493523359298706e-01" nType="-99"/>
            <Node pos="r" depth="3" NCoef="0" IVar="-1" Cut="0.0000000000000000e+00" cType="1" res="3.4296425292268395e-04" rms="1.7608924210071564e-01" purity="5.3294563293457031e-01" nType="-99"/>
          </Node>
        </Node>
        <Node pos="r" depth="1" NCoef="0" IVar="-1" Cut="0.0000000000000000e+00" cType="1" res="-3.2407812774181366e-02" rms="1.8718299269676208e-01" purity="2.8061842918395996e-01" nType="-99"/>
      </Node>
    </BinaryTree>
    <BinaryTree type="DecisionTree" boostWeight="1.0000000000000000e+00" itree="700">
      <Node pos="s" depth="0" NCoef="0" IVar="7" Cut="-5.6142473220825195e-01" cType="1" res="-2.0905856217723340e-04" rms="1.7755770683288574e-01" purity="5.0224387645721436e-01" nType="0">
        <Node pos="l" depth="1" NCoef="0" IVar="1" Cut="3.6479752510786057e-02" cType="1" res="4.7865197993814945e-03" rms="1.7975901067256927e-01" purity="3.5856425762176514e-01" nType="0">
          <Node pos="l" depth="2" NCoef="0" IVar="0" Cut="1.8877098388671875e+03" cType="1" res="-3.1502535566687584e-03" rms="1.5028081834316254e-01" purity="9.6607923507690430e-02" nType="0">
            <Node pos="l" depth="3" NCoef="0" IVar="-1" Cut="0.0000000000000000e+00" cType="1" res="2.6374015957117081e-02" rms="7.9501263797283173e-02" purity="6.5988823771476746e-03" nType="-99"/>
            <Node pos="r" depth="3" NCoef="0" IVar="-1" Cut="0.0000000000000000e+00" cType="1" res="-2.0293265581130981e-02" rms="2.4568916857242584e-01" purity="3.0655479431152344e-01" nType="-99"/>
          </Node>
          <Node pos="r" depth="2" NCoef="0" IVar="4" Cut="2.8978277587890625e+02" cType="1" res="1.1248841881752014e-02" rms="2.0035427808761597e-01" purity="5.7185578346252441e-01" nType="0">
            <Node pos="l" depth="3" NCoef="0" IVar="-1" Cut="0.0000000000000000e+00" cType="1" res="4.0438063442707062e-02" rms="2.2537459433078766e-01" purity="2.8312221169471741e-01" nType="-99"/>
            <Node pos="r" depth="3" NCoef="0" IVar="-1" Cut="0.0000000000000000e+00" cType="1" res="-3.4783200826495886e-03" rms="1.6237384080886841e-01" purity="9.3803453445434570e-01" nType="-99"/>
          </Node>
        </Node>
        <Node pos="r" depth="1" NCoef="0" IVar="10" Cut="1.9965238571166992e+00" cType="1" res="-1.8331061583012342e-03" rms="1.7680576443672180e-01" purity="5.4895371198654175e-01" nType="0">
          <Node pos="l" depth="2" NCoef="0" IVar="9" Cut="-1.3371962308883667e-01" cType="1" res="-1.1988641927018762e-03" rms="1.7672902345657349e-01" purity="5.6469821929931641e-01" nType="0">
            <Node pos="l" depth="3" NCoef="0" IVar="-1" Cut="0.0000000000000000e+00" cType="1" res="6.6403937526047230e-03" rms="1.7883433401584625e-01" purity="5.4551225900650024e-01" nType="-99"/>
            <Node pos="r" depth="3" NCoef="0" IVar="-1" Cut="0.0000000000000000e+00" cType="1" res="-1.1916846968233585e-02" rms="1.7497560381889343e-01" purity="5.8009439706802368e-01" nType="-99"/>
          </Node>
          <Node pos="r" depth="2" NCoef="0" IVar="-1" Cut="0.0000000000000000e+00" cType="1" res="-4.1176289319992065e-02" rms="1.7796976864337921e-01" purity="1.6393464803695679e-01" nType="-99"/>
        </Node>
      </Node>
    </BinaryTree>
    <BinaryTree type="DecisionTree" boostWeight="1.0000000000000000e+00" itree="701">
      <Node pos="s" depth="0" NCoef="0" IVar="8" Cut="-9.3367624282836914e-01" cType="1" res="-2.0205357577651739e-03" rms="1.7357683181762695e-01" purity="4.9851951003074646e-01" nType="0">
        <Node pos="l" depth="1" NCoef="0" IVar="11" Cut="3.9992803335189819e-01" cType="1" res="-8.5527617484331131e-03" rms="1.7711618542671204e-01" purity="2.7790588140487671e-01" nType="0">
          <Node pos="l" depth="2" NCoef="0" IVar="3" Cut="3.5537060546875000e+02" cType="1" res="-3.7606065161526203e-03" rms="1.6947346925735474e-01" purity="2.8069159388542175e-01" nType="0">
            <Node pos="l" depth="3" NCoef="0" IVar="-1" Cut="0.0000000000000000e+00" cType="1" res="-3.3023983240127563e-02" rms="1.4742200076580048e-01" purity="8.8536746799945831e-02" nType="-99"/>
            <Node pos="r" depth="3" NCoef="0" IVar="-1" Cut="0.0000000000000000e+00" cType="1" res="1.2871664948761463e-02" rms="2.0957557857036591e-01" purity="7.0235025882720947e-01" nType="-99"/>
          </Node>
          <Node pos="r" depth="2" NCoef="0" IVar="5" Cut="1.4329969787597656e+02" cType="1" res="-1.8443273380398750e-02" rms="1.9155141711235046e-01" purity="2.7215647697448730e-01" nType="0">
            <Node pos="l" depth="3" NCoef="0" IVar="-1" Cut="0.0000000000000000e+00" cType="1" res="-4.2022053152322769e-02" rms="1.3128182291984558e-01" purity="5.2975047379732132e-02" nType="-99"/>
            <Node pos="r" depth="3" NCoef="0" IVar="-1" Cut="0.0000000000000000e+00" cType="1" res="-4.8233959823846817e-02" rms="2.4195837974548340e-01" purity="5.2009135484695435e-01" nType="-99"/>
          </Node>
        </Node>
        <Node pos="r" depth="1" NCoef="0" IVar="6" Cut="1.0961073303222656e+02" cType="1" res="-7.1858795126900077e-04" rms="1.7283323407173157e-01" purity="5.4249036312103271e-01" nType="0">
          <Node pos="l" depth="2" NCoef="0" IVar="0" Cut="1.8946778564453125e+03" cType="1" res="-4.3232762254774570e-03" rms="1.7101633548736572e-01" purity="1.5440189838409424e-01" nType="0">
            <Node pos="l" depth="3" NCoef="0" IVar="-1" Cut="0.0000000000000000e+00" cType="1" res="-1.1004931293427944e-02" rms="9.5314927399158478e-02" purity="1.0471325367689133e-02" nType="-99"/>
            <Node pos="r" depth="3" NCoef="0" IVar="-1" Cut="0.0000000000000000e+00" cType="1" res="-1.4406058937311172e-02" rms="2.7816039323806763e-01" purity="4.9855318665504456e-01" nType="-99"/>
          </Node>
          <Node pos="r" depth="2" NCoef="0" IVar="8" Cut="1.0212906599044800e+00" cType="1" res="1.8299876246601343e-03" rms="1.7406134307384491e-01" purity="8.1687539815902710e-01" nType="0">
            <Node pos="l" depth="3" NCoef="0" IVar="-1" Cut="0.0000000000000000e+00" cType="1" res="1.1314722942188382e-03" rms="1.6511429846286774e-01" purity="8.4851622581481934e-01" nType="-99"/>
            <Node pos="r" depth="3" NCoef="0" IVar="-1" Cut="0.0000000000000000e+00" cType="1" res="2.3404657840728760e-02" rms="2.2973579168319702e-01" purity="5.8099746704101562e-01" nType="-99"/>
          </Node>
        </Node>
      </Node>
    </BinaryTree>
    <BinaryTree type="DecisionTree" boostWeight="1.0000000000000000e+00" itree="702">
      <Node pos="s" depth="0" NCoef="0" IVar="7" Cut="7.3449438810348511e-01" cType="1" res="4.5139051508158445e-04" rms="1.7358161509037018e-01" purity="4.9331563711166382e-01" nType="0">
        <Node pos="l" depth="1" NCoef="0" IVar="7" Cut="-1.3408004045486450e+00" cType="1" res="-1.2336373329162598e-03" rms="1.7418777942657471e-01" purity="5.4988682270050049e-01" nType="0">
          <Node pos="l" depth="2" NCoef="0" IVar="1" Cut="2.0479280501604080e-02" cType="1" res="-1.1166829615831375e-02" rms="1.2244997918605804e-01" purity="7.7721975743770599e-02" nType="0">
            <Node pos="l" depth="3" NCoef="0" IVar="-1" Cut="0.0000000000000000e+00" cType="1" res="-3.5138677805662155e-02" rms="8.3642400801181793e-02" purity="1.4889254234731197e-02" nType="-99"/>
            <Node pos="r" depth="3" NCoef="0" IVar="-1" Cut="0.0000000000000000e+00" cType="1" res="-6.1301913112401962e-02" rms="1.6304156184196472e-01" purity="1.7048503458499908e-01" nType="-99"/>
          </Node>
          <Node pos="r" depth="2" NCoef="0" IVar="1" Cut="2.0190268754959106e-02" cType="1" res="-3.7942937342450023e-04" rms="1.7791001498699188e-01" purity="5.9049075841903687e-01" nType="0">
            <Node pos="l" depth="3" NCoef="0" IVar="-1" Cut="0.0000000000000000e+00" cType="1" res="1.7490644007921219e-02" rms="1.9692698121070862e-01" purity="1.8066097795963287e-01" nType="-99"/>
            <Node pos="r" depth="3" NCoef="0" IVar="-1" Cut="0.0000000000000000e+00" cType="1" res="-3.4459743183106184e-03" rms="1.7554332315921783e-01" purity="6.3826143741607666e-01" nType="-99"/>
          </Node>
        </Node>
        <Node pos="r" depth="1" NCoef="0" IVar="1" Cut="3.5421069711446762e-02" cType="1" res="7.1855699643492699e-03" rms="1.7097191512584686e-01" purity="2.6723015308380127e-01" nType="0">
          <Node pos="l" depth="2" NCoef="0" IVar="7" Cut="1.4221419095993042e+00" cType="1" res="2.4128699442371726e-04" rms="1.1633155494928360e-01" purity="6.4353644847869873e-02" nType="0">
            <Node pos="l" depth="3" NCoef="0" IVar="-1" Cut="0.0000000000000000e+00" cType="1" res="2.2229148074984550e-02" rms="1.3847054541110992e-01" purity="1.0816416889429092e-01" nType="-99"/>
            <Node pos="r" depth="3" NCoef="0" IVar="-1" Cut="0.0000000000000000e+00" cType="1" res="-5.6466050446033478e-02" rms="8.5302002727985382e-02" purity="1.6262449324131012e-02" nType="-99"/>
          </Node>
          <Node pos="r" depth="2" NCoef="0" IVar="7" Cut="8.8467782735824585e-01" cType="1" res="1.4876506291329861e-02" rms="2.1565040946006775e-01" purity="4.9192008376121521e-01" nType="0">
            <Node pos="l" depth="3" NCoef="0" IVar="-1" Cut="0.0000000000000000e+00" cType="1" res="-3.5338650923222303e-03" rms="1.8592989444732666e-01" purity="5.7308763265609741e-01" nType="-99"/>
            <Node pos="r" depth="3" NCoef="0" IVar="-1" Cut="0.0000000000000000e+00" cType="1" res="5.0065997987985611e-02" rms="2.2709760069847107e-01" purity="4.5631745457649231e-01" nType="-99"/>
          </Node>
        </Node>
      </Node>
    </BinaryTree>
    <BinaryTree type="DecisionTree" boostWeight="1.0000000000000000e+00" itree="703">
      <Node pos="s" depth="0" NCoef="0" IVar="10" Cut="6.6670346260070801e-01" cType="1" res="1.5413164510391653e-04" rms="1.7854121327400208e-01" purity="4.9683815240859985e-01" nType="0">
        <Node pos="l" depth="1" NCoef="0" IVar="10" Cut="-2.1387150287628174e+00" cType="1" res="1.9830877427011728e-03" rms="1.7568059265613556e-01" purity="5.2342551946640015e-01" nType="0">
          <Node pos="l" depth="2" NCoef="0" IVar="-1" Cut="0.0000000000000000e+00" cType="1" res="-3.8039319217205048e-02" rms="1.7559501528739929e-01" purity="1.3595825433731079e-01" nType="-99"/>
          <Node pos="r" depth="2" NCoef="0" IVar="0" Cut="2.6219404296875000e+03" cType="1" res="2.5512813590466976e-03" rms="1.7565760016441345e-01" purity="5.3755855560302734e-01" nType="0">
            <Node pos="l" depth="3" NCoef="0" IVar="-1" Cut="0.0000000000000000e+00" cType="1" res="1.3011407107114792e-02" rms="2.0966039597988129e-01" purity="1.6559939086437225e-01" nType="-99"/>
            <Node pos="r" depth="3" NCoef="0" IVar="-1" Cut="0.0000000000000000e+00" cType="1" res="-6.5248240716755390e-03" rms="1.2430045008659363e-01" purity="9.7423237562179565e-01" nType="-99"/>
          </Node>
        </Node>
        <Node pos="r" depth="1" NCoef="0" IVar="2" Cut="3.8378445434570312e+02" cType="1" res="-4.4983290135860443e-03" rms="1.8553815782070160e-01" purity="4.2920565605163574e-01" nType="0">
          <Node pos="l" depth="2" NCoef="0" IVar="2" Cut="3.2267401123046875e+02" cType="1" res="4.9661016091704369e-03" rms="1.7559562623500824e-01" purity="9.2759512364864349e-02" nType="0">
            <Node pos="l" depth="3" NCoef="0" IVar="-1" Cut="0.0000000000000000e+00" cType="1" res="-3.3007226884365082e-03" rms="1.5234249830245972e-01" purity="4.9309380352497101e-02" nType="-99"/>
            <Node pos="r" depth="3" NCoef="0" IVar="-1" Cut="0.0000000000000000e+00" cType="1" res="2.7931582182645798e-02" rms="1.9577863812446594e-01" purity="1.3584607839584351e-01" nType="-99"/>
          </Node>
          <Node pos="r" depth="2" NCoef="0" IVar="11" Cut="1.2012530565261841e+00" cType="1" res="-6.7305886186659336e-03" rms="1.8773695826530457e-01" purity="5.0855904817581177e-01" nType="0">
            <Node pos="l" depth="3" NCoef="0" IVar="-1" Cut="0.0000000000000000e+00" cType="1" res="-1.0547852143645287e-02" rms="1.7804183065891266e-01" purity="5.2984511852264404e-01" nType="-99"/>
            <Node pos="r" depth="3" NCoef="0" IVar="-1" Cut="0.0000000000000000e+00" cType="1" res="-3.9856184273958206e-02" rms="2.2441637516021729e-01" purity="4.1665190458297729e-01" nType="-99"/>
          </Node>
        </Node>
      </Node>
    </BinaryTree>
    <BinaryTree type="DecisionTree" boostWeight="1.0000000000000000e+00" itree="704">
      <Node pos="s" depth="0" NCoef="0" IVar="10" Cut="6.6702830791473389e-01" cType="1" res="1.6290220664814115e-03" rms="1.7651104927062988e-01" purity="5.0168734788894653e-01" nType="0">
        <Node pos="l" depth="1" NCoef="0" IVar="7" Cut="-6.1830359697341919e-01" cType="1" res="-1.7778985784389079e-04" rms="1.7106096446514130e-01" purity="5.1734501123428345e-01" nType="0">
          <Node pos="l" depth="2" NCoef="0" IVar="8" Cut="-6.2967413663864136e-01" cType="1" res="-5.3876964375376701e-03" rms="1.7226672172546387e-01" purity="3.3901920914649963e-01" nType="0">
            <Node pos="l" depth="3" NCoef="0" IVar="-1" Cut="0.0000000000000000e+00" cType="1" res="1.0500208474695683e-02" rms="1.7548394203186035e-01" purity="2.6202169060707092e-01" nType="-99"/>
            <Node pos="r" depth="3" NCoef="0" IVar="-1" Cut="0.0000000000000000e+00" cType="1" res="-2.7302347123622894e-02" rms="1.7072448134422302e-01" purity="3.7234154343605042e-01" nType="-99"/>
          </Node>
          <Node pos="r" depth="2" NCoef="0" IVar="2" Cut="5.6551727294921875e+02" cType="1" res="1.3638937380164862e-03" rms="1.7067204415798187e-01" purity="5.7011407613754272e-01" nType="0">
            <Node pos="l" depth="3" NCoef="0" IVar="-1" Cut="0.0000000000000000e+00" cType="1" res="1.3218114152550697e-02" rms="1.8412020802497864e-01" purity="2.9805845022201538e-01" nType="-99"/>
            <Node pos="r" depth="3" NCoef="0" IVar="-1" Cut="0.0000000000000000e+00" cType="1" res="-5.0744004547595978e-03" rms="1.5835863351821899e-01" purity="8.0017465353012085e-01" nType="-99"/>
          </Node>
        </Node>
        <Node pos="r" depth="1" NCoef="0" IVar="0" Cut="1.8948492431640625e+03" cType="1" res="6.1826454475522041e-03" rms="1.8947637081146240e-01" purity="4.6222603321075439e-01" nType="0">
          <Node pos="l" depth="2" NCoef="0" IVar="3" Cut="2.9625537109375000e+02" cType="1" res="1.0362109169363976e-03" rms="1.3155323266983032e-01" purity="2.1541176363825798e-02" nType="0">
            <Node pos="l" depth="3" NCoef="0" IVar="-1" Cut="0.0000000000000000e+00" cType="1" res="-9.6643343567848206e-03" rms="1.1649753153324127e-01" purity="1.5970567241311073e-02" nType="-99"/>
            <Node pos="r" depth="3" NCoef="0" IVar="-1" Cut="0.0000000000000000e+00" cType="1" res="3.6540690809488297e-02" rms="1.7117452621459961e-01" purity="3.9562411606311798e-02" nType="-99"/>
          </Node>
          <Node pos="r" depth="2" NCoef="0" IVar="4" Cut="2.4536585998535156e+02" cType="1" res="1.0387362912297249e-02" rms="2.2595223784446716e-01" purity="8.2227247953414917e-01" nType="0">
            <Node pos="l" depth="3" NCoef="0" IVar="-1" Cut="0.0000000000000000e+00" cType="1" res="3.7932518869638443e-02" rms="3.1951811909675598e-01" purity="5.5413562059402466e-01" nType="-99"/>
            <Node pos="r" depth="3" NCoef="0" IVar="-1" Cut="0.0000000000000000e+00" cType="1" res="3.5620739217847586e-03" rms="1.8457427620887756e-01" purity="9.0976405143737793e-01" nType="-99"/>
          </Node>
        </Node>
      </Node>
    </BinaryTree>
    <BinaryTree type="DecisionTree" boostWeight="1.0000000000000000e+00" itree="705">
      <Node pos="s" depth="0" NCoef="0" IVar="4" Cut="1.9781573486328125e+02" cType="1" res="4.2623825720511377e-04" rms="1.7968757450580597e-01" purity="4.9577552080154419e-01" nType="0">
        <Node pos="l" depth="1" NCoef="0" IVar="0" Cut="2.0649011230468750e+03" cType="1" res="5.3296722471714020e-03" rms="1.5951563417911530e-01" purity="6.6601872444152832e-02" nType="0">
          <Node pos="l" depth="2" NCoef="0" IVar="9" Cut="9.3252545595169067e-01" cType="1" res="2.9740633908659220e-03" rms="1.2480043619871140e-01" purity="2.0345950499176979e-02" nType="0">
            <Node pos="l" depth="3" NCoef="0" IVar="-1" Cut="0.0000000000000000e+00" cType="1" res="2.2308845072984695e-03" rms="1.1481491476297379e-01" purity="1.6334246844053268e-02" nType="-99"/>
            <Node pos="r" depth="3" NCoef="0" IVar="-1" Cut="0.0000000000000000e+00" cType="1" res="7.6012089848518372e-02" rms="1.5232285857200623e-01" purity="3.3299211412668228e-02" nType="-99"/>
          </Node>
          <Node pos="r" depth="2" NCoef="0" IVar="-1" Cut="0.0000000000000000e+00" cType="1" res="2.2273119539022446e-02" rms="3.3351475000381470e-01" purity="4.7085323929786682e-01" nType="-99"/>
        </Node>
        <Node pos="r" depth="1" NCoef="0" IVar="3" Cut="3.8795672607421875e+02" cType="1" res="-2.3091991897672415e-03" rms="1.8995745480060577e-01" purity="7.3519498109817505e-01" nType="0">
          <Node pos="l" depth="2" NCoef="0" IVar="8" Cut="4.0507030487060547e-01" cType="1" res="-7.4325161986052990e-03" rms="2.3350711166858673e-01" purity="3.9692920446395874e-01" nType="0">
            <Node pos="l" depth="3" NCoef="0" IVar="-1" Cut="0.0000000000000000e+00" cType="1" res="-2.1557729691267014e-02" rms="2.2974815964698792e-01" purity="4.1143509745597839e-01" nType="-99"/>
            <Node pos="r" depth="3" NCoef="0" IVar="-1" Cut="0.0000000000000000e+00" cType="1" res="2.7604596689343452e-03" rms="2.3995260894298553e-01" purity="3.7045326828956604e-01" nType="-99"/>
          </Node>
          <Node pos="r" depth="2" NCoef="0" IVar="7" Cut="7.0606696605682373e-01" cType="1" res="6.9051311584189534e-04" rms="1.5893958508968353e-01" purity="9.3325036764144897e-01" nType="0">
            <Node pos="l" depth="3" NCoef="0" IVar="-1" Cut="0.0000000000000000e+00" cType="1" res="9.9629843607544899e-03" rms="1.5161916613578796e-01" purity="9.4579714536666870e-01" nType="-99"/>
            <Node pos="r" depth="3" NCoef="0" IVar="-1" Cut="0.0000000000000000e+00" cType="1" res="-2.4542372673749924e-02" rms="2.0382845401763916e-01" purity="8.4249818325042725e-01" nType="-99"/>
          </Node>
        </Node>
      </Node>
    </BinaryTree>
    <BinaryTree type="DecisionTree" boostWeight="1.0000000000000000e+00" itree="706">
      <Node pos="s" depth="0" NCoef="0" IVar="9" Cut="1.3274447619915009e-01" cType="1" res="-2.3754319408908486e-04" rms="1.7760132253170013e-01" purity="5.0686097145080566e-01" nType="0">
        <Node pos="l" depth="1" NCoef="0" IVar="11" Cut="4.0134039521217346e-01" cType="1" res="2.2609990555793047e-03" rms="1.7536170780658722e-01" purity="5.2222514152526855e-01" nType="0">
          <Node pos="l" depth="2" NCoef="0" IVar="11" Cut="-1.2736461162567139e+00" cType="1" res="-7.3050917126238346e-04" rms="1.7486029863357544e-01" purity="5.1320511102676392e-01" nType="0">
            <Node pos="l" depth="3" NCoef="0" IVar="-1" Cut="0.0000000000000000e+00" cType="1" res="-1.9815126433968544e-02" rms="1.8516622483730316e-01" purity="3.9646536111831665e-01" nType="-99"/>
            <Node pos="r" depth="3" NCoef="0" IVar="-1" Cut="0.0000000000000000e+00" cType="1" res="4.2590680532157421e-03" rms="1.7117673158645630e-01" purity="5.5282151699066162e-01" nType="-99"/>
          </Node>
          <Node pos="r" depth="2" NCoef="0" IVar="1" Cut="1.1917305737733841e-01" cType="1" res="7.9087875783443451e-03" rms="1.7616604268550873e-01" purity="5.3925436735153198e-01" nType="0">
            <Node pos="l" depth="3" NCoef="0" IVar="-1" Cut="0.0000000000000000e+00" cType="1" res="2.9904775321483612e-02" rms="1.8837736546993256e-01" purity="4.2015838623046875e-01" nType="-99"/>
            <Node pos="r" depth="3" NCoef="0" IVar="-1" Cut="0.0000000000000000e+00" cType="1" res="-8.7105752900242805e-03" rms="1.4053103327751160e-01" purity="8.3757233619689941e-01" nType="-99"/>
          </Node>
        </Node>
        <Node pos="r" depth="1" NCoef="0" IVar="9" Cut="5.1355743408203125e-01" cType="1" res="-3.2540948595851660e-03" rms="1.8022204935550690e-01" purity="4.8831140995025635e-01" nType="0">
          <Node pos="l" depth="2" NCoef="0" IVar="0" Cut="3.0002080078125000e+03" cType="1" res="-9.3726059421896935e-03" rms="1.6811406612396240e-01" purity="5.9398484230041504e-01" nType="0">
            <Node pos="l" depth="3" NCoef="0" IVar="-1" Cut="0.0000000000000000e+00" cType="1" res="-3.1967885792255402e-02" rms="2.0646639168262482e-01" purity="3.1494227051734924e-01" nType="-99"/>
            <Node pos="r" depth="3" NCoef="0" IVar="-1" Cut="0.0000000000000000e+00" cType="1" res="1.6964740643743426e-04" rms="8.7993882596492767e-02" purity="9.8963117599487305e-01" nType="-99"/>
          </Node>
          <Node pos="r" depth="2" NCoef="0" IVar="11" Cut="-9.3272137641906738e-01" cType="1" res="-5.6126859271898866e-04" rms="1.8523630499839783e-01" purity="4.4180330634117126e-01" nType="0">
            <Node pos="l" depth="3" NCoef="0" IVar="-1" Cut="0.0000000000000000e+00" cType="1" res="-1.7611319199204445e-02" rms="1.9895228743553162e-01" purity="4.3213036656379700e-01" nType="-99"/>
            <Node pos="r" depth="3" NCoef="0" IVar="-1" Cut="0.0000000000000000e+00" cType="1" res="3.3633650746196508e-03" rms="1.8146191537380219e-01" purity="4.4431746006011963e-01" nType="-99"/>
          </Node>
        </Node>
      </Node>
    </BinaryTree>
    <BinaryTree type="DecisionTree" boostWeight="1.0000000000000000e+00" itree="707">
      <Node pos="s" depth="0" NCoef="0" IVar="9" Cut="1.3315311074256897e-01" cType="1" res="-5.2978430176153779e-04" rms="1.7925937473773956e-01" purity="4.9179762601852417e-01" nType="0">
        <Node pos="l" depth="1" NCoef="0" IVar="1" Cut="8.6817502975463867e-02" cType="1" res="-2.9169884510338306e-03" rms="1.7683355510234833e-01" purity="4.9532306194305420e-01" nType="0">
          <Node pos="l" depth="2" NCoef="0" IVar="8" Cut="1.3589993119239807e-01" cType="1" res="-3.4675243659876287e-04" rms="1.8582913279533386e-01" purity="3.0842727422714233e-01" nType="0">
            <Node pos="l" depth="3" NCoef="0" IVar="-1" Cut="0.0000000000000000e+00" cType="1" res="8.0469017848372459e-03" rms="1.8801373243331909e-01" purity="3.0752956867218018e-01" nType="-99"/>
            <Node pos="r" depth="3" NCoef="0" IVar="-1" Cut="0.0000000000000000e+00" cType="1" res="-1.3017019256949425e-02" rms="1.8272610008716583e-01" purity="3.0964896082878113e-01" nType="-99"/>
          </Node>
          <Node pos="r" depth="2" NCoef="0" IVar="0" Cut="2.5327309570312500e+03" cType="1" res="-6.7617865279316902e-03" rms="1.6237393021583557e-01" purity="7.7489906549453735e-01" nType="0">
            <Node pos="l" depth="3" NCoef="0" IVar="-1" Cut="0.0000000000000000e+00" cType="1" res="-2.6493651792407036e-02" rms="2.5762417912483215e-01" purity="2.9121309518814087e-01" nType="-99"/>
            <Node pos="r" depth="3" NCoef="0" IVar="-1" Cut="0.0000000000000000e+00" cType="1" res="-1.6558930277824402e-02" rms="9.2486470937728882e-02" purity="9.8906701803207397e-01" nType="-99"/>
          </Node>
        </Node>
        <Node pos="r" depth="1" NCoef="0" IVar="10" Cut="-1.2890815734863281e-01" cType="1" res="2.4590643588453531e-03" rms="1.8220697343349457e-01" purity="4.8738366365432739e-01" nType="0">
          <Node pos="l" depth="2" NCoef="0" IVar="2" Cut="8.0937902832031250e+02" cType="1" res="6.7623783834278584e-03" rms="1.8643467128276825e-01" purity="4.9896630644798279e-01" nType="0">
            <Node pos="l" depth="3" NCoef="0" IVar="-1" Cut="0.0000000000000000e+00" cType="1" res="1.2044155970215797e-02" rms="1.8683381378650665e-01" purity="4.1987293958663940e-01" nType="-99"/>
            <Node pos="r" depth="3" NCoef="0" IVar="-1" Cut="0.0000000000000000e+00" cType="1" res="5.8988932520151138e-02" rms="1.8383774161338806e-01" purity="8.9838176965713501e-01" nType="-99"/>
          </Node>
          <Node pos="r" depth="2" NCoef="0" IVar="10" Cut="1.6838639974594116e+00" cType="1" res="-8.3429261576384306e-04" rms="1.7883408069610596e-01" purity="4.7851938009262085e-01" nType="0">
            <Node pos="l" depth="3" NCoef="0" IVar="-1" Cut="0.0000000000000000e+00" cType="1" res="-7.7914251014590263e-03" rms="1.7392551898956299e-01" purity="5.0713115930557251e-01" nType="-99"/>
            <Node pos="r" depth="3" NCoef="0" IVar="-1" Cut="0.0000000000000000e+00" cType="1" res="2.6354638859629631e-02" rms="2.1095018088817596e-01" purity="2.6852121949195862e-01" nType="-99"/>
          </Node>
        </Node>
      </Node>
    </BinaryTree>
    <BinaryTree type="DecisionTree" boostWeight="1.0000000000000000e+00" itree="708">
      <Node pos="s" depth="0" NCoef="0" IVar="2" Cut="5.4374713134765625e+02" cType="1" res="9.3481049407273531e-04" rms="1.7916923761367798e-01" purity="4.9823915958404541e-01" nType="0">
        <Node pos="l" depth="1" NCoef="0" IVar="3" Cut="2.9494131469726562e+02" cType="1" res="4.2796167545020580e-03" rms="1.8668290972709656e-01" purity="2.3516434431076050e-01" nType="0">
          <Node pos="l" depth="2" NCoef="0" IVar="10" Cut="-3.9870831370353699e-01" cType="1" res="-6.7863256845157593e-06" rms="1.5032374858856201e-01" purity="5.5777788162231445e-02" nType="0">
            <Node pos="l" depth="3" NCoef="0" IVar="-1" Cut="0.0000000000000000e+00" cType="1" res="-2.7255713939666748e-02" rms="1.4536724984645844e-01" purity="5.0590321421623230e-02" nType="-99"/>
            <Node pos="r" depth="3" NCoef="0" IVar="-1" Cut="0.0000000000000000e+00" cType="1" res="1.8634341657161713e-02" rms="1.5322113037109375e-01" purity="5.9049233794212341e-02" nType="-99"/>
          </Node>
          <Node pos="r" depth="2" NCoef="0" IVar="10" Cut="1.2765611708164215e-01" cType="1" res="1.0093590244650841e-02" rms="2.2674179077148438e-01" purity="4.7847998142242432e-01" nType="0">
            <Node pos="l" depth="3" NCoef="0" IVar="-1" Cut="0.0000000000000000e+00" cType="1" res="3.5887293517589569e-02" rms="2.3300389945507050e-01" purity="4.7679564356803894e-01" nType="-99"/>
            <Node pos="r" depth="3" NCoef="0" IVar="-1" Cut="0.0000000000000000e+00" cType="1" res="4.3837452540174127e-04" rms="2.1824501454830170e-01" purity="4.8058968782424927e-01" nType="-99"/>
          </Node>
        </Node>
        <Node pos="r" depth="1" NCoef="0" IVar="10" Cut="-1.4652018547058105e+00" cType="1" res="-2.0082767587155104e-03" rms="1.7223344743251801e-01" purity="7.2971808910369873e-01" nType="0">
          <Node pos="l" depth="2" NCoef="0" IVar="-1" Cut="0.0000000000000000e+00" cType="1" res="-2.7427820488810539e-02" rms="2.1683174371719360e-01" purity="5.3263515233993530e-01" nType="-99"/>
          <Node pos="r" depth="2" NCoef="0" IVar="4" Cut="2.5700576782226562e+02" cType="1" res="-8.8255782611668110e-04" rms="1.6789421439170837e-01" purity="7.4629604816436768e-01" nType="0">
            <Node pos="l" depth="3" NCoef="0" IVar="-1" Cut="0.0000000000000000e+00" cType="1" res="7.4002798646688461e-03" rms="2.1346096694469452e-01" purity="3.0242925882339478e-01" nType="-99"/>
            <Node pos="r" depth="3" NCoef="0" IVar="-1" Cut="0.0000000000000000e+00" cType="1" res="-1.4451564289629459e-02" rms="1.4211855828762054e-01" purity="9.5006108283996582e-01" nType="-99"/>
          </Node>
        </Node>
      </Node>
    </BinaryTree>
    <BinaryTree type="DecisionTree" boostWeight="1.0000000000000000e+00" itree="709">
      <Node pos="s" depth="0" NCoef="0" IVar="7" Cut="-3.5411328077316284e-01" cType="1" res="-3.0074766254983842e-04" rms="1.8036274611949921e-01" purity="4.9655440449714661e-01" nType="0">
        <Node pos="l" depth="1" NCoef="0" IVar="11" Cut="4.0228056907653809e-01" cType="1" res="-3.8569751195609570e-03" rms="1.8569308519363403e-01" purity="4.1351452469825745e-01" nType="0">
          <Node pos="l" depth="2" NCoef="0" IVar="6" Cut="1.1597688293457031e+02" cType="1" res="3.5786433727480471e-04" rms="1.8422926962375641e-01" purity="4.2131656408309937e-01" nType="0">
            <Node pos="l" depth="3" NCoef="0" IVar="-1" Cut="0.0000000000000000e+00" cType="1" res="-1.5954229980707169e-02" rms="1.6465090215206146e-01" purity="1.0799501836299896e-01" nType="-99"/>
            <Node pos="r" depth="3" NCoef="0" IVar="-1" Cut="0.0000000000000000e+00" cType="1" res="1.5269801951944828e-02" rms="2.0451980829238892e-01" purity="7.8594493865966797e-01" nType="-99"/>
          </Node>
          <Node pos="r" depth="2" NCoef="0" IVar="10" Cut="-3.9362391829490662e-01" cType="1" res="-1.1816496029496193e-02" rms="1.8816912174224854e-01" purity="3.9878073334693909e-01" nType="0">
            <Node pos="l" depth="3" NCoef="0" IVar="-1" Cut="0.0000000000000000e+00" cType="1" res="-5.7998955249786377e-02" rms="1.9312816858291626e-01" purity="3.9807710051536560e-01" nType="-99"/>
            <Node pos="r" depth="3" NCoef="0" IVar="-1" Cut="0.0000000000000000e+00" cType="1" res="-1.6182446852326393e-02" rms="1.8544718623161316e-01" purity="3.9911758899688721e-01" nType="-99"/>
          </Node>
        </Node>
        <Node pos="r" depth="1" NCoef="0" IVar="11" Cut="3.9977866411209106e-01" cType="1" res="1.4044115087017417e-03" rms="1.7772500216960907e-01" purity="5.3637087345123291e-01" nType="0">
          <Node pos="l" depth="2" NCoef="0" IVar="4" Cut="2.1906036376953125e+02" cType="1" res="-1.0845911456272006e-03" rms="1.7664137482643127e-01" purity="5.4465109109878540e-01" nType="0">
            <Node pos="l" depth="3" NCoef="0" IVar="-1" Cut="0.0000000000000000e+00" cType="1" res="1.4911220408976078e-02" rms="1.7926341295242310e-01" purity="1.0732899606227875e-01" nType="-99"/>
            <Node pos="r" depth="3" NCoef="0" IVar="-1" Cut="0.0000000000000000e+00" cType="1" res="-1.4382497407495975e-02" rms="1.7488624155521393e-01" purity="8.1898498535156250e-01" nType="-99"/>
          </Node>
          <Node pos="r" depth="2" NCoef="0" IVar="4" Cut="2.0800004577636719e+02" cType="1" res="5.3582591935992241e-03" rms="1.7936190962791443e-01" purity="5.2321755886077881e-01" nType="0">
            <Node pos="l" depth="3" NCoef="0" IVar="-1" Cut="0.0000000000000000e+00" cType="1" res="-4.2517208494246006e-03" rms="1.6770929098129272e-01" purity="8.5489578545093536e-02" nType="-99"/>
            <Node pos="r" depth="3" NCoef="0" IVar="-1" Cut="0.0000000000000000e+00" cType="1" res="2.5802277028560638e-02" rms="1.8620103597640991e-01" purity="7.9867959022521973e-01" nType="-99"/>
          </Node>
        </Node>
      </Node>
    </BinaryTree>
    <BinaryTree type="DecisionTree" boostWeight="1.0000000000000000e+00" itree="710">
      <Node pos="s" depth="0" NCoef="0" IVar="2" Cut="9.9453466796875000e+02" cType="1" res="-1.5323845436796546e-03" rms="1.7364729940891266e-01" purity="4.9832460284233093e-01" nType="0">
        <Node pos="l" depth="1" NCoef="0" IVar="0" Cut="3.4151503906250000e+03" cType="1" res="-2.3079074453562498e-03" rms="1.7412754893302917e-01" purity="4.6948593854904175e-01" nType="0">
          <Node pos="l" depth="2" NCoef="0" IVar="8" Cut="-9.3363046646118164e-01" cType="1" res="-3.2248357310891151e-03" rms="1.8880556523799896e-01" purity="3.7767180800437927e-01" nType="0">
            <Node pos="l" depth="3" NCoef="0" IVar="-1" Cut="0.0000000000000000e+00" cType="1" res="6.4892820082604885e-03" rms="1.9368894398212433e-01" purity="2.3423288762569427e-01" nType="-99"/>
            <Node pos="r" depth="3" NCoef="0" IVar="-1" Cut="0.0000000000000000e+00" cType="1" res="-1.1818055063486099e-02" rms="1.8762721121311188e-01" purity="4.1102665662765503e-01" nType="-99"/>
          </Node>
          <Node pos="r" depth="2" NCoef="0" IVar="0" Cut="3.8374553222656250e+03" cType="1" res="8.8845312595367432e-02" rms="-nan" purity="9.9886405467987061e-01" nType="-99"/>
        </Node>
        <Node pos="r" depth="1" NCoef="0" IVar="11" Cut="-1.3434959948062897e-01" cType="1" res="1.0088696144521236e-02" rms="1.6585099697113037e-01" purity="9.3046718835830688e-01" nType="0">
          <Node pos="l" depth="2" NCoef="0" IVar="-1" Cut="0.0000000000000000e+00" cType="1" res="5.0241868942975998e-02" rms="1.5683501958847046e-01" purity="9.3502753973007202e-01" nType="-99"/>
          <Node pos="r" depth="2" NCoef="0" IVar="-1" Cut="0.0000000000000000e+00" cType="1" res="1.1117423884570599e-02" rms="1.7276851832866669e-01" purity="9.2664992809295654e-01" nType="-99"/>
        </Node>
      </Node>
    </BinaryTree>
    <BinaryTree type="DecisionTree" boostWeight="1.0000000000000000e+00" itree="711">
      <Node pos="s" depth="0" NCoef="0" IVar="10" Cut="9.3352127075195312e-01" cType="1" res="-4.5044143917039037e-04" rms="1.7601305246353149e-01" purity="5.0222283601760864e-01" nType="0">
        <Node pos="l" depth="1" NCoef="0" IVar="8" Cut="1.1979953050613403e+00" cType="1" res="7.6334446202963591e-04" rms="1.7191781103610992e-01" purity="5.2115666866302490e-01" nType="0">
          <Node pos="l" depth="2" NCoef="0" IVar="9" Cut="-1.3324452936649323e-01" cType="1" res="-2.7799134841188788e-04" rms="1.7046001553535461e-01" purity="5.5436742305755615e-01" nType="0">
            <Node pos="l" depth="3" NCoef="0" IVar="-1" Cut="0.0000000000000000e+00" cType="1" res="-8.6342459544539452e-03" rms="1.7143040895462036e-01" purity="5.2406060695648193e-01" nType="-99"/>
            <Node pos="r" depth="3" NCoef="0" IVar="-1" Cut="0.0000000000000000e+00" cType="1" res="6.3497931696474552e-03" rms="1.6956892609596252e-01" purity="5.8108299970626831e-01" nType="-99"/>
          </Node>
          <Node pos="r" depth="2" NCoef="0" IVar="4" Cut="2.2370094299316406e+02" cType="1" res="1.0155227035284042e-02" rms="1.8428063392639160e-01" purity="2.2162626683712006e-01" nType="0">
            <Node pos="l" depth="3" NCoef="0" IVar="-1" Cut="0.0000000000000000e+00" cType="1" res="1.1165606789290905e-02" rms="1.5070159733295441e-01" purity="4.9469530582427979e-02" nType="-99"/>
            <Node pos="r" depth="3" NCoef="0" IVar="-1" Cut="0.0000000000000000e+00" cType="1" res="4.5899439603090286e-02" rms="2.4026852846145630e-01" purity="5.9201967716217041e-01" nType="-99"/>
          </Node>
        </Node>
        <Node pos="r" depth="1" NCoef="0" IVar="8" Cut="1.3564652204513550e-01" cType="1" res="-5.1272213459014893e-03" rms="1.9090075790882111e-01" purity="4.2926952242851257e-01" nType="0">
          <Node pos="l" depth="2" NCoef="0" IVar="6" Cut="9.0976219177246094e+01" cType="1" res="1.0092059383168817e-03" rms="1.9337874650955200e-01" purity="4.6883991360664368e-01" nType="0">
            <Node pos="l" depth="3" NCoef="0" IVar="-1" Cut="0.0000000000000000e+00" cType="1" res="-3.7524007260799408e-02" rms="1.6939717531204224e-01" purity="1.1174572259187698e-01" nType="-99"/>
            <Node pos="r" depth="3" NCoef="0" IVar="-1" Cut="0.0000000000000000e+00" cType="1" res="1.6544722020626068e-02" rms="2.0383861660957336e-01" purity="6.4474856853485107e-01" nType="-99"/>
          </Node>
          <Node pos="r" depth="2" NCoef="0" IVar="0" Cut="1.6474580078125000e+03" cType="1" res="-1.1576807126402855e-02" rms="1.8804544210433960e-01" purity="3.8767975568771362e-01" nType="0">
            <Node pos="l" depth="3" NCoef="0" IVar="-1" Cut="0.0000000000000000e+00" cType="1" res="-1.8132235854864120e-02" rms="7.7817641198635101e-02" purity="6.3778473995625973e-03" nType="-99"/>
            <Node pos="r" depth="3" NCoef="0" IVar="-1" Cut="0.0000000000000000e+00" cType="1" res="-3.0720002949237823e-02" rms="2.2423374652862549e-01" purity="5.8285295963287354e-01" nType="-99"/>
          </Node>
        </Node>
      </Node>
    </BinaryTree>
    <BinaryTree type="DecisionTree" boostWeight="1.0000000000000000e+00" itree="712">
      <Node pos="s" depth="0" NCoef="0" IVar="11" Cut="-2.2651324272155762e+00" cType="1" res="9.8714057821780443e-04" rms="1.7572924494743347e-01" purity="4.9930369853973389e-01" nType="0">
        <Node pos="l" depth="1" NCoef="0" IVar="-1" Cut="0.0000000000000000e+00" cType="1" res="5.6167043745517731e-02" rms="2.0075774192810059e-01" purity="2.3397867381572723e-01" nType="-99"/>
        <Node pos="r" depth="1" NCoef="0" IVar="10" Cut="9.3313962221145630e-01" cType="1" res="4.6912865946069360e-04" rms="1.7493127286434174e-01" purity="5.0691151618957520e-01" nType="0">
          <Node pos="l" depth="2" NCoef="0" IVar="9" Cut="1.7324062585830688e+00" cType="1" res="-8.6099485633894801e-04" rms="1.6974681615829468e-01" purity="5.2636420726776123e-01" nType="0">
            <Node pos="l" depth="3" NCoef="0" IVar="-1" Cut="0.0000000000000000e+00" cType="1" res="-1.2148717651143670e-03" rms="1.6941614449024200e-01" purity="5.4248845577239990e-01" nType="-99"/>
            <Node pos="r" depth="3" NCoef="0" IVar="-1" Cut="0.0000000000000000e+00" cType="1" res="-3.6147892475128174e-02" rms="1.7702767252922058e-01" purity="1.4273604750633240e-01" nType="-99"/>
          </Node>
          <Node pos="r" depth="2" NCoef="0" IVar="0" Cut="1.8946281738281250e+03" cType="1" res="5.6405495852231979e-03" rms="1.9368773698806763e-01" purity="4.3128100037574768e-01" nType="0">
            <Node pos="l" depth="3" NCoef="0" IVar="-1" Cut="0.0000000000000000e+00" cType="1" res="1.1030359892174602e-03" rms="1.3978664577007294e-01" purity="2.3504225537180901e-02" nType="-99"/>
            <Node pos="r" depth="3" NCoef="0" IVar="-1" Cut="0.0000000000000000e+00" cType="1" res="1.8915167078375816e-02" rms="2.3284776508808136e-01" purity="8.1141662597656250e-01" nType="-99"/>
          </Node>
        </Node>
      </Node>
    </BinaryTree>
    <BinaryTree type="DecisionTree" boostWeight="1.0000000000000000e+00" itree="713">
      <Node pos="s" depth="0" NCoef="0" IVar="10" Cut="-1.1984825134277344e+00" cType="1" res="7.0729147410020232e-04" rms="1.7724405229091644e-01" purity="5.0738108158111572e-01" nType="0">
        <Node pos="l" depth="1" NCoef="0" IVar="4" Cut="2.1601179504394531e+02" cType="1" res="7.8854281455278397e-03" rms="1.9843611121177673e-01" purity="3.8656491041183472e-01" nType="0">
          <Node pos="l" depth="2" NCoef="0" IVar="8" Cut="1.3638260960578918e-01" cType="1" res="2.4808864109218121e-03" rms="1.8085953593254089e-01" purity="9.4542019069194794e-02" nType="0">
            <Node pos="l" depth="3" NCoef="0" IVar="-1" Cut="0.0000000000000000e+00" cType="1" res="-8.8177835568785667e-03" rms="1.7388574779033661e-01" purity="8.9998088777065277e-02" nType="-99"/>
            <Node pos="r" depth="3" NCoef="0" IVar="-1" Cut="0.0000000000000000e+00" cType="1" res="3.3826470375061035e-02" rms="1.9059196114540100e-01" purity="1.0138157010078430e-01" nType="-99"/>
          </Node>
          <Node pos="r" depth="2" NCoef="0" IVar="0" Cut="2.6605905761718750e+03" cType="1" res="1.4168842695653439e-02" rms="2.1692000329494476e-01" purity="7.2607582807540894e-01" nType="0">
            <Node pos="l" depth="3" NCoef="0" IVar="-1" Cut="0.0000000000000000e+00" cType="1" res="4.0703766047954559e-02" rms="2.8551149368286133e-01" purity="4.2968067526817322e-01" nType="-99"/>
            <Node pos="r" depth="3" NCoef="0" IVar="-1" Cut="0.0000000000000000e+00" cType="1" res="-5.7018054649233818e-03" rms="1.3656577467918396e-01" purity="9.6586292982101440e-01" nType="-99"/>
          </Node>
        </Node>
        <Node pos="r" depth="1" NCoef="0" IVar="8" Cut="-3.9959970116615295e-01" cType="1" res="-4.9143785145133734e-04" rms="1.7342397570610046e-01" purity="5.2755707502365112e-01" nType="0">
          <Node pos="l" depth="2" NCoef="0" IVar="11" Cut="1.4641758203506470e+00" cType="1" res="-4.7550718300044537e-03" rms="1.7456793785095215e-01" purity="4.6022784709930420e-01" nType="0">
            <Node pos="l" depth="3" NCoef="0" IVar="-1" Cut="0.0000000000000000e+00" cType="1" res="-8.5766445845365524e-03" rms="1.7153188586235046e-01" purity="4.7621655464172363e-01" nType="-99"/>
            <Node pos="r" depth="3" NCoef="0" IVar="-1" Cut="0.0000000000000000e+00" cType="1" res="-5.3107976913452148e-02" rms="1.9627434015274048e-01" purity="3.3342045545578003e-01" nType="-99"/>
          </Node>
          <Node pos="r" depth="2" NCoef="0" IVar="7" Cut="1.2460895776748657e+00" cType="1" res="1.5359157696366310e-03" rms="1.7284047603607178e-01" purity="5.5957204103469849e-01" nType="0">
            <Node pos="l" depth="3" NCoef="0" IVar="-1" Cut="0.0000000000000000e+00" cType="1" res="1.4576840912923217e-03" rms="1.7391030490398407e-01" purity="5.8891201019287109e-01" nType="-99"/>
            <Node pos="r" depth="3" NCoef="0" IVar="-1" Cut="0.0000000000000000e+00" cType="1" res="6.5947368741035461e-02" rms="1.5674528479576111e-01" purity="1.5863478183746338e-01" nType="-99"/>
          </Node>
        </Node>
      </Node>
    </BinaryTree>
    <BinaryTree type="DecisionTree" boostWeight="1.0000000000000000e+00" itree="714">
      <Node pos="s" depth="0" NCoef="0" IVar="9" Cut="-1.3369873166084290e-01" cType="1" res="-9.3806406948715448e-04" rms="1.7666423320770264e-01" purity="4.9421158432960510e-01" nType="0">
        <Node pos="l" depth="1" NCoef="0" IVar="1" Cut="4.3426837772130966e-02" cType="1" res="1.7257303697988391e-03" rms="1.7947645485401154e-01" purity="4.7895824909210205e-01" nType="0">
          <Node pos="l" depth="2" NCoef="0" IVar="5" Cut="1.7211335754394531e+02" cType="1" res="-2.5445234496146441e-03" rms="1.6109456121921539e-01" purity="1.7312180995941162e-01" nType="0">
            <Node pos="l" depth="3" NCoef="0" IVar="-1" Cut="0.0000000000000000e+00" cType="1" res="-8.8067754404619336e-04" rms="1.3990677893161774e-01" purity="6.1113048344850540e-02" nType="-99"/>
            <Node pos="r" depth="3" NCoef="0" IVar="-1" Cut="0.0000000000000000e+00" cType="1" res="-1.9077014178037643e-02" rms="2.2281795740127563e-01" purity="5.9101557731628418e-01" nType="-99"/>
          </Node>
          <Node pos="r" depth="2" NCoef="0" IVar="8" Cut="-3.5360884666442871e-01" cType="1" res="4.3219006620347500e-03" rms="1.8973678350448608e-01" purity="6.6489642858505249e-01" nType="0">
            <Node pos="l" depth="3" NCoef="0" IVar="-1" Cut="0.0000000000000000e+00" cType="1" res="3.1310148537158966e-02" rms="1.9636492431163788e-01" purity="6.3669359683990479e-01" nType="-99"/>
            <Node pos="r" depth="3" NCoef="0" IVar="-1" Cut="0.0000000000000000e+00" cType="1" res="1.3910883571952581e-03" rms="1.8621958792209625e-01" purity="6.7898237705230713e-01" nType="-99"/>
          </Node>
        </Node>
        <Node pos="r" depth="1" NCoef="0" IVar="8" Cut="-6.6578763723373413e-01" cType="1" res="-3.1975598540157080e-03" rms="1.7421132326126099e-01" purity="5.0714981555938721e-01" nType="0">
          <Node pos="l" depth="2" NCoef="0" IVar="5" Cut="1.9151232910156250e+02" cType="1" res="-8.9894663542509079e-03" rms="1.8869657814502716e-01" purity="3.7109705805778503e-01" nType="0">
            <Node pos="l" depth="3" NCoef="0" IVar="-1" Cut="0.0000000000000000e+00" cType="1" res="-9.1427201405167580e-03" rms="1.7749834060668945e-01" purity="1.2680007517337799e-01" nType="-99"/>
            <Node pos="r" depth="3" NCoef="0" IVar="-1" Cut="0.0000000000000000e+00" cType="1" res="-5.2039656788110733e-02" rms="2.0836900174617767e-01" purity="8.4869235754013062e-01" nType="-99"/>
          </Node>
          <Node pos="r" depth="2" NCoef="0" IVar="11" Cut="-9.3231815099716187e-01" cType="1" res="-1.6016891459003091e-03" rms="1.6996870934963226e-01" purity="5.4463708400726318e-01" nType="0">
            <Node pos="l" depth="3" NCoef="0" IVar="-1" Cut="0.0000000000000000e+00" cType="1" res="1.8055066466331482e-02" rms="1.8607284128665924e-01" purity="5.4163205623626709e-01" nType="-99"/>
            <Node pos="r" depth="3" NCoef="0" IVar="-1" Cut="0.0000000000000000e+00" cType="1" res="-1.1892762966454029e-02" rms="1.6567526757717133e-01" purity="5.4538166522979736e-01" nType="-99"/>
          </Node>
        </Node>
      </Node>
    </BinaryTree>
    <BinaryTree type="DecisionTree" boostWeight="1.0000000000000000e+00" itree="715">
      <Node pos="s" depth="0" NCoef="0" IVar="11" Cut="-1.9988144636154175e+00" cType="1" res="-6.7788967862725258e-04" rms="1.7728546261787415e-01" purity="5.0208735466003418e-01" nType="0">
        <Node pos="l" depth="1" NCoef="0" IVar="-1" Cut="0.0000000000000000e+00" cType="1" res="-3.1591307371854782e-02" rms="1.9542025029659271e-01" purity="2.6207771897315979e-01" nType="-99"/>
        <Node pos="r" depth="1" NCoef="0" IVar="11" Cut="-8.5648208856582642e-01" cType="1" res="-1.4952103083487600e-04" rms="1.7643925547599792e-01" purity="5.1247751712799072e-01" nType="0">
          <Node pos="l" depth="2" NCoef="0" IVar="1" Cut="7.6554365456104279e-02" cType="1" res="4.0189991705119610e-03" rms="1.8346458673477173e-01" purity="5.0744640827178955e-01" nType="0">
            <Node pos="l" depth="3" NCoef="0" IVar="-1" Cut="0.0000000000000000e+00" cType="1" res="2.4842781946063042e-02" rms="1.9512596726417542e-01" purity="2.8690782189369202e-01" nType="-99"/>
            <Node pos="r" depth="3" NCoef="0" IVar="-1" Cut="0.0000000000000000e+00" cType="1" res="-8.7288245558738708e-03" rms="1.6764287650585175e-01" purity="7.8085696697235107e-01" nType="-99"/>
          </Node>
          <Node pos="r" depth="2" NCoef="0" IVar="6" Cut="1.1250678253173828e+02" cType="1" res="-1.2997991871088743e-03" rms="1.7443332076072693e-01" purity="5.1386582851409912e-01" nType="0">
            <Node pos="l" depth="3" NCoef="0" IVar="-1" Cut="0.0000000000000000e+00" cType="1" res="-1.3411853462457657e-02" rms="1.6914725303649902e-01" purity="1.4693944156169891e-01" nType="-99"/>
            <Node pos="r" depth="3" NCoef="0" IVar="-1" Cut="0.0000000000000000e+00" cType="1" res="2.8063536155968904e-03" rms="1.7838039994239807e-01" purity="7.9753005504608154e-01" nType="-99"/>
          </Node>
        </Node>
      </Node>
    </BinaryTree>
    <BinaryTree type="DecisionTree" boostWeight="1.0000000000000000e+00" itree="716">
      <Node pos="s" depth="0" NCoef="0" IVar="4" Cut="3.3675473022460938e+02" cType="1" res="-1.2711496092379093e-03" rms="1.7282968759536743e-01" purity="4.9696668982505798e-01" nType="0">
        <Node pos="l" depth="1" NCoef="0" IVar="11" Cut="3.9981967210769653e-01" cType="1" res="-2.9051268938928843e-03" rms="1.9127430021762848e-01" purity="2.9065296053886414e-01" nType="0">
          <Node pos="l" depth="2" NCoef="0" IVar="8" Cut="-6.6334593296051025e-01" cType="1" res="-1.8950123921968043e-04" rms="1.8992623686790466e-01" purity="2.9484143853187561e-01" nType="0">
            <Node pos="l" depth="3" NCoef="0" IVar="-1" Cut="0.0000000000000000e+00" cType="1" res="-1.4071621000766754e-02" rms="1.7308975756168365e-01" purity="2.0452627539634705e-01" nType="-99"/>
            <Node pos="r" depth="3" NCoef="0" IVar="-1" Cut="0.0000000000000000e+00" cType="1" res="4.4379676692187786e-03" rms="1.9654196500778198e-01" purity="3.3281579613685608e-01" nType="-99"/>
          </Node>
          <Node pos="r" depth="2" NCoef="0" IVar="0" Cut="1.8375306396484375e+03" cType="1" res="-7.3812706395983696e-03" rms="1.9339258968830109e-01" purity="2.8374904394149780e-01" nType="0">
            <Node pos="l" depth="3" NCoef="0" IVar="-1" Cut="0.0000000000000000e+00" cType="1" res="-5.1948330365121365e-03" rms="1.1091139912605286e-01" purity="1.6152933239936829e-02" nType="-99"/>
            <Node pos="r" depth="3" NCoef="0" IVar="-1" Cut="0.0000000000000000e+00" cType="1" res="-2.1224232390522957e-02" rms="2.6171433925628662e-01" purity="6.1655515432357788e-01" nType="-99"/>
          </Node>
        </Node>
        <Node pos="r" depth="1" NCoef="0" IVar="0" Cut="2.8673972167968750e+03" cType="1" res="2.4431669153273106e-03" rms="1.2076485902070999e-01" purity="9.6595400571823120e-01" nType="0">
          <Node pos="l" depth="2" NCoef="0" IVar="-1" Cut="0.0000000000000000e+00" cType="1" res="1.4934548176825047e-02" rms="2.4413946270942688e-01" purity="8.2782298326492310e-01" nType="-99"/>
          <Node pos="r" depth="2" NCoef="0" IVar="7" Cut="5.3046494722366333e-01" cType="1" res="9.7421882674098015e-04" rms="7.6760172843933105e-02" purity="9.9258208274841309e-01" nType="0">
            <Node pos="l" depth="3" NCoef="0" IVar="-1" Cut="0.0000000000000000e+00" cType="1" res="2.9910191893577576e-02" rms="6.7882753908634186e-02" purity="9.9481970071792603e-01" nType="-99"/>
            <Node pos="r" depth="3" NCoef="0" IVar="-1" Cut="0.0000000000000000e+00" cType="1" res="-3.4945044666528702e-02" rms="1.0986856371164322e-01" purity="9.8176848888397217e-01" nType="-99"/>
          </Node>
        </Node>
      </Node>
    </BinaryTree>
    <BinaryTree type="DecisionTree" boostWeight="1.0000000000000000e+00" itree="717">
      <Node pos="s" depth="0" NCoef="0" IVar="7" Cut="7.4812614917755127e-01" cType="1" res="-1.5363151906058192e-03" rms="1.7396293580532074e-01" purity="4.9309983849525452e-01" nType="0">
        <Node pos="l" depth="1" NCoef="0" IVar="11" Cut="6.6723889112472534e-01" cType="1" res="-5.3254765225574374e-04" rms="1.7532826960086823e-01" purity="5.4081153869628906e-01" nType="0">
          <Node pos="l" depth="2" NCoef="0" IVar="10" Cut="1.7315033674240112e+00" cType="1" res="-2.0906224381178617e-03" rms="1.6984587907791138e-01" purity="5.4499346017837524e-01" nType="0">
            <Node pos="l" depth="3" NCoef="0" IVar="-1" Cut="0.0000000000000000e+00" cType="1" res="-4.7714621759951115e-03" rms="1.6851794719696045e-01" purity="5.5724155902862549e-01" nType="-99"/>
            <Node pos="r" depth="3" NCoef="0" IVar="-1" Cut="0.0000000000000000e+00" cType="1" res="-3.1512174755334854e-02" rms="1.9421875476837158e-01" purity="2.9831793904304504e-01" nType="-99"/>
          </Node>
          <Node pos="r" depth="2" NCoef="0" IVar="3" Cut="4.7481015014648438e+02" cType="1" res="3.2752165570855141e-03" rms="1.8800088763237000e-01" purity="5.3059136867523193e-01" nType="0">
            <Node pos="l" depth="3" NCoef="0" IVar="-1" Cut="0.0000000000000000e+00" cType="1" res="1.4278930611908436e-02" rms="2.0169480144977570e-01" purity="3.6340677738189697e-01" nType="-99"/>
            <Node pos="r" depth="3" NCoef="0" IVar="-1" Cut="0.0000000000000000e+00" cType="1" res="-1.7527116462588310e-02" rms="1.4977146685123444e-01" purity="9.3273425102233887e-01" nType="-99"/>
          </Node>
        </Node>
        <Node pos="r" depth="1" NCoef="0" IVar="5" Cut="1.0598494720458984e+02" cType="1" res="-6.0969279147684574e-03" rms="1.6754382848739624e-01" purity="2.7632200717926025e-01" nType="0">
          <Node pos="l" depth="2" NCoef="0" IVar="-1" Cut="0.0000000000000000e+00" cType="1" res="2.8822943568229675e-02" rms="1.0829626023769379e-01" purity="2.3848345503211021e-02" nType="-99"/>
          <Node pos="r" depth="2" NCoef="0" IVar="10" Cut="-9.3472933769226074e-01" cType="1" res="-9.3690734356641769e-03" rms="1.8401120603084564e-01" purity="3.6638578772544861e-01" nType="0">
            <Node pos="l" depth="3" NCoef="0" IVar="-1" Cut="0.0000000000000000e+00" cType="1" res="-5.4769121110439301e-02" rms="1.7935059964656830e-01" purity="2.3921336233615875e-01" nType="-99"/>
            <Node pos="r" depth="3" NCoef="0" IVar="-1" Cut="0.0000000000000000e+00" cType="1" res="-1.5582616440951824e-02" rms="1.8506611883640289e-01" purity="3.9990618824958801e-01" nType="-99"/>
          </Node>
        </Node>
      </Node>
    </BinaryTree>
    <BinaryTree type="DecisionTree" boostWeight="1.0000000000000000e+00" itree="718">
      <Node pos="s" depth="0" NCoef="0" IVar="11" Cut="-2.0000410079956055e+00" cType="1" res="-3.2368249958381057e-04" rms="1.7854815721511841e-01" purity="4.9510687589645386e-01" nType="0">
        <Node pos="l" depth="1" NCoef="0" IVar="-1" Cut="0.0000000000000000e+00" cType="1" res="-2.4740334600210190e-02" rms="1.8599361181259155e-01" purity="2.8514552116394043e-01" nType="-99"/>
        <Node pos="r" depth="1" NCoef="0" IVar="0" Cut="2.4650922851562500e+03" cType="1" res="9.6024479717016220e-05" rms="1.7819331586360931e-01" purity="5.0458377599716187e-01" nType="0">
          <Node pos="l" depth="2" NCoef="0" IVar="6" Cut="1.5579797363281250e+02" cType="1" res="2.0377119071781635e-03" rms="1.9951663911342621e-01" purity="1.1055263131856918e-01" nType="0">
            <Node pos="l" depth="3" NCoef="0" IVar="-1" Cut="0.0000000000000000e+00" cType="1" res="8.0904550850391388e-03" rms="1.8647427856922150e-01" purity="8.2622729241847992e-02" nType="-99"/>
            <Node pos="r" depth="3" NCoef="0" IVar="-1" Cut="0.0000000000000000e+00" cType="1" res="-7.4306796304881573e-03" rms="3.2079207897186279e-01" purity="4.6126073598861694e-01" nType="-99"/>
          </Node>
          <Node pos="r" depth="2" NCoef="0" IVar="5" Cut="1.8033215332031250e+02" cType="1" res="-2.1407208405435085e-03" rms="1.4988526701927185e-01" purity="9.5849180221557617e-01" nType="0">
            <Node pos="l" depth="3" NCoef="0" IVar="-1" Cut="0.0000000000000000e+00" cType="1" res="-1.4405778609216213e-02" rms="2.6978385448455811e-01" purity="8.1598716974258423e-01" nType="-99"/>
            <Node pos="r" depth="3" NCoef="0" IVar="-1" Cut="0.0000000000000000e+00" cType="1" res="-5.5808620527386665e-03" rms="1.1895460635423660e-01" purity="9.8200416564941406e-01" nType="-99"/>
          </Node>
        </Node>
      </Node>
    </BinaryTree>
    <BinaryTree type="DecisionTree" boostWeight="1.0000000000000000e+00" itree="719">
      <Node pos="s" depth="0" NCoef="0" IVar="8" Cut="1.3344968855381012e-01" cType="1" res="2.2325906902551651e-03" rms="1.7894157767295837e-01" purity="5.0365591049194336e-01" nType="0">
        <Node pos="l" depth="1" NCoef="0" IVar="5" Cut="2.9050601196289062e+02" cType="1" res="4.9755531363189220e-03" rms="1.7935547232627869e-01" purity="5.2222102880477905e-01" nType="0">
          <Node pos="l" depth="2" NCoef="0" IVar="2" Cut="5.2121887207031250e+02" cType="1" res="6.8668592721223831e-03" rms="1.9412371516227722e-01" purity="4.0871199965476990e-01" nType="0">
            <Node pos="l" depth="3" NCoef="0" IVar="-1" Cut="0.0000000000000000e+00" cType="1" res="6.2441686168313026e-03" rms="1.8926377594470978e-01" purity="1.7934776842594147e-01" nType="-99"/>
            <Node pos="r" depth="3" NCoef="0" IVar="-1" Cut="0.0000000000000000e+00" cType="1" res="2.6178482919931412e-02" rms="1.9876670837402344e-01" purity="6.3848644495010376e-01" nType="-99"/>
          </Node>
          <Node pos="r" depth="2" NCoef="0" IVar="11" Cut="1.0782603919506073e-01" cType="1" res="-2.7796775102615356e-03" rms="9.7349584102630615e-02" purity="9.8766022920608521e-01" nType="0">
            <Node pos="l" depth="3" NCoef="0" IVar="-1" Cut="0.0000000000000000e+00" cType="1" res="1.7138801515102386e-02" rms="7.5464420020580292e-02" purity="9.9127328395843506e-01" nType="-99"/>
            <Node pos="r" depth="3" NCoef="0" IVar="-1" Cut="0.0000000000000000e+00" cType="1" res="-1.0521481931209564e-01" rms="1.1926886439323425e-01" purity="9.8308026790618896e-01" nType="-99"/>
          </Node>
        </Node>
        <Node pos="r" depth="1" NCoef="0" IVar="10" Cut="-3.9957004785537720e-01" cType="1" res="-1.2744249543175101e-03" rms="1.7834953963756561e-01" purity="4.7991961240768433e-01" nType="0">
          <Node pos="l" depth="2" NCoef="0" IVar="9" Cut="1.3594418764114380e-01" cType="1" res="3.4398445859551430e-03" rms="1.8561536073684692e-01" purity="4.7625353932380676e-01" nType="0">
            <Node pos="l" depth="3" NCoef="0" IVar="-1" Cut="0.0000000000000000e+00" cType="1" res="2.4650827050209045e-02" rms="1.8858160078525543e-01" purity="5.0799393653869629e-01" nType="-99"/>
            <Node pos="r" depth="3" NCoef="0" IVar="-1" Cut="0.0000000000000000e+00" cType="1" res="-1.1025102809071541e-02" rms="1.8172299861907959e-01" purity="4.3790903687477112e-01" nType="-99"/>
          </Node>
          <Node pos="r" depth="2" NCoef="0" IVar="11" Cut="-3.9680853486061096e-01" cType="1" res="-3.6079597193747759e-03" rms="1.7459408938884735e-01" purity="4.8173430562019348e-01" nType="0">
            <Node pos="l" depth="3" NCoef="0" IVar="-1" Cut="0.0000000000000000e+00" cType="1" res="7.8727481886744499e-03" rms="1.8768678605556488e-01" purity="5.3097540140151978e-01" nType="-99"/>
            <Node pos="r" depth="3" NCoef="0" IVar="-1" Cut="0.0000000000000000e+00" cType="1" res="-2.1061915904283524e-02" rms="1.6797588765621185e-01" purity="4.5848891139030457e-01" nType="-99"/>
          </Node>
        </Node>
      </Node>
    </BinaryTree>
    <BinaryTree type="DecisionTree" boostWeight="1.0000000000000000e+00" itree="720">
      <Node pos="s" depth="0" NCoef="0" IVar="10" Cut="-1.3303947448730469e-01" cType="1" res="-4.4762776815332472e-04" rms="1.8052914738655090e-01" purity="5.0519442558288574e-01" nType="0">
        <Node pos="l" depth="1" NCoef="0" IVar="0" Cut="1.6438341064453125e+03" cType="1" res="-3.5752232652157545e-03" rms="1.8158058822154999e-01" purity="4.9658924341201782e-01" nType="0">
          <Node pos="l" depth="2" NCoef="0" IVar="0" Cut="1.5625400390625000e+03" cType="1" res="3.6614199634641409e-03" rms="9.3382067978382111e-02" purity="9.4337221235036850e-03" nType="0">
            <Node pos="l" depth="3" NCoef="0" IVar="-1" Cut="0.0000000000000000e+00" cType="1" res="5.4520636331290007e-04" rms="6.2819898128509521e-02" purity="3.9607966318726540e-03" nType="-99"/>
            <Node pos="r" depth="3" NCoef="0" IVar="-1" Cut="0.0000000000000000e+00" cType="1" res="1.3134859502315521e-01" rms="1.4704133570194244e-01" purity="2.4378558620810509e-02" nType="-99"/>
          </Node>
          <Node pos="r" depth="2" NCoef="0" IVar="0" Cut="2.5727094726562500e+03" cType="1" res="-6.2173949554562569e-03" rms="2.0445001125335693e-01" purity="6.7445462942123413e-01" nType="0">
            <Node pos="l" depth="3" NCoef="0" IVar="-1" Cut="0.0000000000000000e+00" cType="1" res="-1.8526999279856682e-02" rms="2.7397620677947998e-01" purity="2.4903658032417297e-01" nType="-99"/>
            <Node pos="r" depth="3" NCoef="0" IVar="-1" Cut="0.0000000000000000e+00" cType="1" res="-2.8924860525876284e-03" rms="1.3772678375244141e-01" purity="9.6545141935348511e-01" nType="-99"/>
          </Node>
        </Node>
        <Node pos="r" depth="1" NCoef="0" IVar="2" Cut="6.4854174804687500e+02" cType="1" res="2.1569340024143457e-03" rms="1.7960730195045471e-01" purity="5.1236057281494141e-01" nType="0">
          <Node pos="l" depth="2" NCoef="0" IVar="4" Cut="1.9147041320800781e+02" cType="1" res="4.1303755715489388e-03" rms="1.8475268781185150e-01" purity="3.4649232029914856e-01" nType="0">
            <Node pos="l" depth="3" NCoef="0" IVar="-1" Cut="0.0000000000000000e+00" cType="1" res="-1.2270130217075348e-02" rms="1.2635095417499542e-01" purity="3.3639796078205109e-02" nType="-99"/>
            <Node pos="r" depth="3" NCoef="0" IVar="-1" Cut="0.0000000000000000e+00" cType="1" res="1.8570428714156151e-02" rms="2.1769294142723083e-01" purity="5.7565015554428101e-01" nType="-99"/>
          </Node>
          <Node pos="r" depth="2" NCoef="0" IVar="8" Cut="1.3888449966907501e-01" cType="1" res="-1.4345623785629869e-03" rms="1.6978475451469421e-01" purity="8.1422668695449829e-01" nType="0">
            <Node pos="l" depth="3" NCoef="0" IVar="-1" Cut="0.0000000000000000e+00" cType="1" res="5.3490819409489632e-03" rms="1.6840201616287231e-01" purity="8.3676046133041382e-01" nType="-99"/>
            <Node pos="r" depth="3" NCoef="0" IVar="-1" Cut="0.0000000000000000e+00" cType="1" res="-1.6692029312252998e-02" rms="1.7151716351509094e-01" purity="7.8442531824111938e-01" nType="-99"/>
          </Node>
        </Node>
      </Node>
    </BinaryTree>
    <BinaryTree type="DecisionTree" boostWeight="1.0000000000000000e+00" itree="721">
      <Node pos="s" depth="0" NCoef="0" IVar="11" Cut="1.2002905607223511e+00" cType="1" res="-1.0842371266335249e-03" rms="1.7740239202976227e-01" purity="5.0277543067932129e-01" nType="0">
        <Node pos="l" depth="1" NCoef="0" IVar="8" Cut="1.4676114320755005e+00" cType="1" res="-2.4419536930508912e-04" rms="1.7383627593517303e-01" purity="5.2168154716491699e-01" nType="0">
          <Node pos="l" depth="2" NCoef="0" IVar="3" Cut="2.7050549316406250e+02" cType="1" res="2.7821262483485043e-04" rms="1.7399902641773224e-01" purity="5.4479181766510010e-01" nType="0">
            <Node pos="l" depth="3" NCoef="0" IVar="-1" Cut="0.0000000000000000e+00" cType="1" res="-1.4491394162178040e-02" rms="1.4846001565456390e-01" purity="5.9136319905519485e-02" nType="-99"/>
            <Node pos="r" depth="3" NCoef="0" IVar="-1" Cut="0.0000000000000000e+00" cType="1" res="4.2671328410506248e-03" rms="1.8187762796878815e-01" purity="7.1050208806991577e-01" nType="-99"/>
          </Node>
          <Node pos="r" depth="2" NCoef="0" IVar="-1" Cut="0.0000000000000000e+00" cType="1" res="-3.0641630291938782e-02" rms="1.7089191079139709e-01" purity="1.3959136605262756e-01" nType="-99"/>
        </Node>
        <Node pos="r" depth="1" NCoef="0" IVar="5" Cut="1.5865119934082031e+02" cType="1" res="-5.1058409735560417e-03" rms="1.9351623952388763e-01" purity="4.1226473450660706e-01" nType="0">
          <Node pos="l" depth="2" NCoef="0" IVar="3" Cut="2.3541166687011719e+02" cType="1" res="1.6485931118950248e-03" rms="1.8052166700363159e-01" purity="1.2325325608253479e-01" nType="0">
            <Node pos="l" depth="3" NCoef="0" IVar="-1" Cut="0.0000000000000000e+00" cType="1" res="-3.9148759096860886e-02" rms="1.1885578185319901e-01" purity="1.8204512074589729e-02" nType="-99"/>
            <Node pos="r" depth="3" NCoef="0" IVar="-1" Cut="0.0000000000000000e+00" cType="1" res="1.6749192029237747e-02" rms="2.1181881427764893e-01" purity="1.9364802539348602e-01" nType="-99"/>
          </Node>
          <Node pos="r" depth="2" NCoef="0" IVar="5" Cut="2.2369949340820312e+02" cType="1" res="-1.2106808833777905e-02" rms="2.0588855445384979e-01" purity="7.1182495355606079e-01" nType="0">
            <Node pos="l" depth="3" NCoef="0" IVar="-1" Cut="0.0000000000000000e+00" cType="1" res="-3.9999980479478836e-02" rms="2.3559699952602386e-01" purity="5.1025938987731934e-01" nType="-99"/>
            <Node pos="r" depth="3" NCoef="0" IVar="-1" Cut="0.0000000000000000e+00" cType="1" res="-7.1988650597631931e-03" rms="1.7255540192127228e-01" purity="9.0268999338150024e-01" nType="-99"/>
          </Node>
        </Node>
      </Node>
    </BinaryTree>
    <BinaryTree type="DecisionTree" boostWeight="1.0000000000000000e+00" itree="722">
      <Node pos="s" depth="0" NCoef="0" IVar="7" Cut="1.7099162936210632e-01" cType="1" res="1.2034913524985313e-03" rms="1.7690457403659821e-01" purity="5.0643032789230347e-01" nType="0">
        <Node pos="l" depth="1" NCoef="0" IVar="2" Cut="3.2200823974609375e+02" cType="1" res="-5.5032700765877962e-04" rms="1.7786113917827606e-01" purity="5.3293931484222412e-01" nType="0">
          <Node pos="l" depth="2" NCoef="0" IVar="-1" Cut="0.0000000000000000e+00" cType="1" res="4.4908449053764343e-02" rms="1.8699090182781219e-01" purity="6.5875381231307983e-02" nType="-99"/>
          <Node pos="r" depth="2" NCoef="0" IVar="4" Cut="2.6014251708984375e+02" cType="1" res="-1.4800498029217124e-03" rms="1.7711010575294495e-01" purity="5.6861209869384766e-01" nType="0">
            <Node pos="l" depth="3" NCoef="0" IVar="-1" Cut="0.0000000000000000e+00" cType="1" res="-1.2874305248260498e-02" rms="1.9373461604118347e-01" purity="1.8706603348255157e-01" nType="-99"/>
            <Node pos="r" depth="3" NCoef="0" IVar="-1" Cut="0.0000000000000000e+00" cType="1" res="6.4580668695271015e-03" rms="1.6056275367736816e-01" purity="9.1298139095306396e-01" nType="-99"/>
          </Node>
        </Node>
        <Node pos="r" depth="1" NCoef="0" IVar="8" Cut="6.6581785678863525e-01" cType="1" res="3.6819188389927149e-03" rms="1.7551402747631073e-01" purity="4.6896889805793762e-01" nType="0">
          <Node pos="l" depth="2" NCoef="0" IVar="1" Cut="4.3500382453203201e-02" cType="1" res="5.5412910878658295e-03" rms="1.7493636906147003e-01" purity="5.0181722640991211e-01" nType="0">
            <Node pos="l" depth="3" NCoef="0" IVar="-1" Cut="0.0000000000000000e+00" cType="1" res="8.3020678721368313e-04" rms="1.5715388953685760e-01" purity="1.6665269434452057e-01" nType="-99"/>
            <Node pos="r" depth="3" NCoef="0" IVar="-1" Cut="0.0000000000000000e+00" cType="1" res="2.5650463998317719e-02" rms="1.8481440842151642e-01" purity="7.0506536960601807e-01" nType="-99"/>
          </Node>
          <Node pos="r" depth="2" NCoef="0" IVar="11" Cut="-4.0022376179695129e-01" cType="1" res="-2.0328545942902565e-03" rms="1.7715553939342499e-01" purity="3.6800959706306458e-01" nType="0">
            <Node pos="l" depth="3" NCoef="0" IVar="-1" Cut="0.0000000000000000e+00" cType="1" res="1.8900167196989059e-02" rms="2.0216944813728333e-01" purity="4.2823123931884766e-01" nType="-99"/>
            <Node pos="r" depth="3" NCoef="0" IVar="-1" Cut="0.0000000000000000e+00" cType="1" res="-2.0005999132990837e-02" rms="1.6415326297283173e-01" purity="3.4020295739173889e-01" nType="-99"/>
          </Node>
        </Node>
      </Node>
    </BinaryTree>
    <BinaryTree type="DecisionTree" boostWeight="1.0000000000000000e+00" itree="723">
      <Node pos="s" depth="0" NCoef="0" IVar="0" Cut="2.1988249511718750e+03" cType="1" res="-4.1412538848817348e-04" rms="1.7278277873992920e-01" purity="4.9088102579116821e-01" nType="0">
        <Node pos="l" depth="1" NCoef="0" IVar="3" Cut="3.6443197631835938e+02" cType="1" res="-3.5777033772319555e-03" rms="1.6549377143383026e-01" purity="4.9432858824729919e-02" nType="0">
          <Node pos="l" depth="2" NCoef="0" IVar="6" Cut="1.3621296691894531e+02" cType="1" res="-5.4435301572084427e-03" rms="1.5071582794189453e-01" purity="3.8914926350116730e-02" nType="0">
            <Node pos="l" depth="3" NCoef="0" IVar="-1" Cut="0.0000000000000000e+00" cType="1" res="-1.3827767223119736e-02" rms="1.3265837728977203e-01" purity="2.6628190651535988e-02" nType="-99"/>
            <Node pos="r" depth="3" NCoef="0" IVar="-1" Cut="0.0000000000000000e+00" cType="1" res="-3.2554920762777328e-02" rms="2.5618654489517212e-01" purity="1.4330613613128662e-01" nType="-99"/>
          </Node>
          <Node pos="r" depth="2" NCoef="0" IVar="11" Cut="-1.2835711240768433e-01" cType="1" res="1.0320558212697506e-02" rms="2.4895182251930237e-01" purity="1.2777934968471527e-01" nType="0">
            <Node pos="l" depth="3" NCoef="0" IVar="-1" Cut="0.0000000000000000e+00" cType="1" res="-1.2632018886506557e-02" rms="2.3185949027538300e-01" purity="1.1296132206916809e-01" nType="-99"/>
            <Node pos="r" depth="3" NCoef="0" IVar="-1" Cut="0.0000000000000000e+00" cType="1" res="4.2731344699859619e-02" rms="2.6234528422355652e-01" purity="1.4115467667579651e-01" nType="-99"/>
          </Node>
        </Node>
        <Node pos="r" depth="1" NCoef="0" IVar="0" Cut="2.8836513671875000e+03" cType="1" res="2.6804131921380758e-03" rms="1.7957286536693573e-01" purity="9.2269539833068848e-01" nType="0">
          <Node pos="l" depth="2" NCoef="0" IVar="1" Cut="6.0601279139518738e-02" cType="1" res="9.0247094631195068e-03" rms="2.7797925472259521e-01" purity="7.9179692268371582e-01" nType="0">
            <Node pos="l" depth="3" NCoef="0" IVar="-1" Cut="0.0000000000000000e+00" cType="1" res="1.8776612356305122e-02" rms="3.4598395228385925e-01" purity="5.6817632913589478e-01" nType="-99"/>
            <Node pos="r" depth="3" NCoef="0" IVar="-1" Cut="0.0000000000000000e+00" cType="1" res="2.7088716160506010e-03" rms="2.3414611816406250e-01" purity="9.0925449132919312e-01" nType="-99"/>
          </Node>
          <Node pos="r" depth="2" NCoef="0" IVar="4" Cut="3.4293530273437500e+02" cType="1" res="-2.9760727193206549e-04" rms="1.0527757555246353e-01" purity="9.8413926362991333e-01" nType="0">
            <Node pos="l" depth="3" NCoef="0" IVar="-1" Cut="0.0000000000000000e+00" cType="1" res="-1.8281552940607071e-02" rms="1.4903110265731812e-01" purity="9.6286100149154663e-01" nType="-99"/>
            <Node pos="r" depth="3" NCoef="0" IVar="-1" Cut="0.0000000000000000e+00" cType="1" res="1.4872150495648384e-02" rms="8.1871479749679565e-02" purity="9.9250280857086182e-01" nType="-99"/>
          </Node>
        </Node>
      </Node>
    </BinaryTree>
    <BinaryTree type="DecisionTree" boostWeight="1.0000000000000000e+00" itree="724">
      <Node pos="s" depth="0" NCoef="0" IVar="10" Cut="-1.7323111295700073e+00" cType="1" res="2.0267784129828215e-03" rms="1.7963923513889313e-01" purity="5.0637650489807129e-01" nType="0">
        <Node pos="l" depth="1" NCoef="0" IVar="1" Cut="3.5403907299041748e-02" cType="1" res="1.5265415422618389e-02" rms="2.2545871138572693e-01" purity="2.9167997837066650e-01" nType="0">
          <Node pos="l" depth="2" NCoef="0" IVar="-1" Cut="0.0000000000000000e+00" cType="1" res="6.4206654205918312e-03" rms="1.6688333451747894e-01" purity="6.5694443881511688e-02" nType="-99"/>
          <Node pos="r" depth="2" NCoef="0" IVar="-1" Cut="0.0000000000000000e+00" cType="1" res="4.1897263377904892e-02" rms="2.6323696970939636e-01" purity="4.7596052289009094e-01" nType="-99"/>
        </Node>
        <Node pos="r" depth="1" NCoef="0" IVar="2" Cut="3.1307687377929688e+02" cType="1" res="1.2397272512316704e-03" rms="1.7650982737541199e-01" purity="5.1914042234420776e-01" nType="0">
          <Node pos="l" depth="2" NCoef="0" IVar="7" Cut="-2.6588815450668335e-01" cType="1" res="9.7460607066750526e-03" rms="1.6444632411003113e-01" purity="5.8400578796863556e-02" nType="0">
            <Node pos="l" depth="3" NCoef="0" IVar="-1" Cut="0.0000000000000000e+00" cType="1" res="5.9078786522150040e-02" rms="1.9043442606925964e-01" purity="7.9440474510192871e-02" nType="-99"/>
            <Node pos="r" depth="3" NCoef="0" IVar="-1" Cut="0.0000000000000000e+00" cType="1" res="2.3913566023111343e-02" rms="1.4361730217933655e-01" purity="4.3912801891565323e-02" nType="-99"/>
          </Node>
          <Node pos="r" depth="2" NCoef="0" IVar="8" Cut="-9.3068331480026245e-01" cType="1" res="6.2749168137088418e-04" rms="1.7733070254325867e-01" purity="5.5230176448822021e-01" nType="0">
            <Node pos="l" depth="3" NCoef="0" IVar="-1" Cut="0.0000000000000000e+00" cType="1" res="-1.4183482155203819e-02" rms="1.8789136409759521e-01" purity="3.1315904855728149e-01" nType="-99"/>
            <Node pos="r" depth="3" NCoef="0" IVar="-1" Cut="0.0000000000000000e+00" cType="1" res="5.2082329057157040e-03" rms="1.7531487345695496e-01" purity="5.9592878818511963e-01" nType="-99"/>
          </Node>
        </Node>
      </Node>
    </BinaryTree>
    <BinaryTree type="DecisionTree" boostWeight="1.0000000000000000e+00" itree="725">
      <Node pos="s" depth="0" NCoef="0" IVar="7" Cut="-9.3887329101562500e-02" cType="1" res="-3.0548725044354796e-04" rms="1.8141417205333710e-01" purity="5.0363498926162720e-01" nType="0">
        <Node pos="l" depth="1" NCoef="0" IVar="6" Cut="1.2168769836425781e+02" cType="1" res="3.0449824407696724e-03" rms="1.8346339464187622e-01" purity="4.9066492915153503e-01" nType="0">
          <Node pos="l" depth="2" NCoef="0" IVar="2" Cut="6.5921374511718750e+02" cType="1" res="7.2621251456439495e-03" rms="1.8972484767436981e-01" purity="1.7160883545875549e-01" nType="0">
            <Node pos="l" depth="3" NCoef="0" IVar="-1" Cut="0.0000000000000000e+00" cType="1" res="8.4185600280761719e-03" rms="1.6948409378528595e-01" purity="9.2974618077278137e-02" nType="-99"/>
            <Node pos="r" depth="3" NCoef="0" IVar="-1" Cut="0.0000000000000000e+00" cType="1" res="4.0982887148857117e-02" rms="2.5026869773864746e-01" purity="4.6441125869750977e-01" nType="-99"/>
          </Node>
          <Node pos="r" depth="2" NCoef="0" IVar="11" Cut="1.3813687860965729e-01" cType="1" res="-1.3870821567252278e-03" rms="1.7653524875640869e-01" purity="8.2598137855529785e-01" nType="0">
            <Node pos="l" depth="3" NCoef="0" IVar="-1" Cut="0.0000000000000000e+00" cType="1" res="-1.8898190930485725e-02" rms="1.7519471049308777e-01" purity="8.1672233343124390e-01" nType="-99"/>
            <Node pos="r" depth="3" NCoef="0" IVar="-1" Cut="0.0000000000000000e+00" cType="1" res="1.2997013516724110e-02" rms="1.7807501554489136e-01" purity="8.3790069818496704e-01" nType="-99"/>
          </Node>
        </Node>
        <Node pos="r" depth="1" NCoef="0" IVar="8" Cut="9.3062883615493774e-01" cType="1" res="-3.0136313289403915e-03" rms="1.7969508469104767e-01" purity="5.1411843299865723e-01" nType="0">
          <Node pos="l" depth="2" NCoef="0" IVar="11" Cut="-1.1995377540588379e+00" cType="1" res="-4.6739066019654274e-03" rms="1.7580939829349518e-01" purity="5.4789376258850098e-01" nType="0">
            <Node pos="l" depth="3" NCoef="0" IVar="-1" Cut="0.0000000000000000e+00" cType="1" res="-3.5844430327415466e-02" rms="1.9689568877220154e-01" purity="4.7244080901145935e-01" nType="-99"/>
            <Node pos="r" depth="3" NCoef="0" IVar="-1" Cut="0.0000000000000000e+00" cType="1" res="-1.0261385701596737e-02" rms="1.7181932926177979e-01" purity="5.6104880571365356e-01" nType="-99"/>
          </Node>
          <Node pos="r" depth="2" NCoef="0" IVar="5" Cut="1.3992997741699219e+02" cType="1" res="5.7980157434940338e-03" rms="1.9882024824619293e-01" purity="3.3486175537109375e-01" nType="0">
            <Node pos="l" depth="3" NCoef="0" IVar="-1" Cut="0.0000000000000000e+00" cType="1" res="-2.4204542860388756e-02" rms="1.5343844890594482e-01" purity="4.6041045337915421e-02" nType="-99"/>
            <Node pos="r" depth="3" NCoef="0" IVar="-1" Cut="0.0000000000000000e+00" cType="1" res="3.2038327306509018e-02" rms="2.3089598119258881e-01" purity="5.8787965774536133e-01" nType="-99"/>
          </Node>
        </Node>
      </Node>
    </BinaryTree>
    <BinaryTree type="DecisionTree" boostWeight="1.0000000000000000e+00" itree="726">
      <Node pos="s" depth="0" NCoef="0" IVar="7" Cut="-5.6626367568969727e-01" cType="1" res="-8.1562681589275599e-04" rms="1.7801317572593689e-01" purity="4.9688211083412170e-01" nType="0">
        <Node pos="l" depth="1" NCoef="0" IVar="0" Cut="2.1988696289062500e+03" cType="1" res="3.7601348012685776e-03" rms="1.7949876189231873e-01" purity="3.6483547091484070e-01" nType="0">
          <Node pos="l" depth="2" NCoef="0" IVar="11" Cut="9.3478178977966309e-01" cType="1" res="2.7874030638486147e-04" rms="1.6097871959209442e-01" purity="4.0841836482286453e-02" nType="0">
            <Node pos="l" depth="3" NCoef="0" IVar="-1" Cut="0.0000000000000000e+00" cType="1" res="-1.6239531338214874e-02" rms="1.5260876715183258e-01" purity="3.6122813820838928e-02" nType="-99"/>
            <Node pos="r" depth="3" NCoef="0" IVar="-1" Cut="0.0000000000000000e+00" cType="1" res="5.5742312222719193e-02" rms="1.8528929352760315e-01" purity="5.6461319327354431e-02" nType="-99"/>
          </Node>
          <Node pos="r" depth="2" NCoef="0" IVar="5" Cut="2.1859132385253906e+02" cType="1" res="9.4399778172373772e-03" rms="2.0604696869850159e-01" purity="8.9342623949050903e-01" nType="0">
            <Node pos="l" depth="3" NCoef="0" IVar="-1" Cut="0.0000000000000000e+00" cType="1" res="2.5183340534567833e-02" rms="2.7692279219627380e-01" purity="7.6801252365112305e-01" nType="-99"/>
            <Node pos="r" depth="3" NCoef="0" IVar="-1" Cut="0.0000000000000000e+00" cType="1" res="1.0261701419949532e-02" rms="1.5358030796051025e-01" purity="9.6209275722503662e-01" nType="-99"/>
          </Node>
        </Node>
        <Node pos="r" depth="1" NCoef="0" IVar="5" Cut="1.8999609375000000e+02" cType="1" res="-2.2842343896627426e-03" rms="1.7750872671604156e-01" purity="5.3926295042037964e-01" nType="0">
          <Node pos="l" depth="2" NCoef="0" IVar="0" Cut="2.2662180175781250e+03" cType="1" res="-4.5874170027673244e-03" rms="1.9531749188899994e-01" purity="2.0046630501747131e-01" nType="0">
            <Node pos="l" depth="3" NCoef="0" IVar="-1" Cut="0.0000000000000000e+00" cType="1" res="-6.8124807439744473e-03" rms="1.6400507092475891e-01" purity="4.9637600779533386e-02" nType="-99"/>
            <Node pos="r" depth="3" NCoef="0" IVar="-1" Cut="0.0000000000000000e+00" cType="1" res="-1.8429743126034737e-02" rms="2.8561002016067505e-01" purity="7.8423303365707397e-01" nType="-99"/>
          </Node>
          <Node pos="r" depth="2" NCoef="0" IVar="8" Cut="-9.4028526544570923e-01" cType="1" res="2.7038133703172207e-04" rms="1.5534651279449463e-01" purity="9.1504526138305664e-01" nType="0">
            <Node pos="l" depth="3" NCoef="0" IVar="-1" Cut="0.0000000000000000e+00" cType="1" res="-3.2765693962574005e-02" rms="2.0991237461566925e-01" purity="7.3933690786361694e-01" nType="-99"/>
            <Node pos="r" depth="3" NCoef="0" IVar="-1" Cut="0.0000000000000000e+00" cType="1" res="8.6627081036567688e-03" rms="1.4815568923950195e-01" purity="9.3401592969894409e-01" nType="-99"/>
          </Node>
        </Node>
      </Node>
    </BinaryTree>
    <BinaryTree type="DecisionTree" boostWeight="1.0000000000000000e+00" itree="727">
      <Node pos="s" depth="0" NCoef="0" IVar="4" Cut="2.8150103759765625e+02" cType="1" res="1.0307007469236851e-03" rms="1.7793497443199158e-01" purity="5.0000202655792236e-01" nType="0">
        <Node pos="l" depth="1" NCoef="0" IVar="6" Cut="7.1166221618652344e+01" cType="1" res="4.4757090508937836e-03" rms="1.9512104988098145e-01" purity="1.9750326871871948e-01" nType="0">
          <Node pos="l" depth="2" NCoef="0" IVar="4" Cut="1.6246687316894531e+02" cType="1" res="-4.2278687469661236e-03" rms="1.1084176599979401e-01" purity="2.0700223743915558e-02" nType="0">
            <Node pos="l" depth="3" NCoef="0" IVar="-1" Cut="0.0000000000000000e+00" cType="1" res="1.6624208539724350e-02" rms="9.6513628959655762e-02" purity="1.3630129396915436e-02" nType="-99"/>
            <Node pos="r" depth="3" NCoef="0" IVar="-1" Cut="0.0000000000000000e+00" cType="1" res="-6.1704181134700775e-02" rms="1.2859404087066650e-01" purity="3.1086187809705734e-02" nType="-99"/>
          </Node>
          <Node pos="r" depth="2" NCoef="0" IVar="10" Cut="4.0017417073249817e-01" cType="1" res="6.7020617425441742e-03" rms="2.1129119396209717e-01" purity="2.4272900819778442e-01" nType="0">
            <Node pos="l" depth="3" NCoef="0" IVar="-1" Cut="0.0000000000000000e+00" cType="1" res="2.4244541302323341e-02" rms="2.1227882802486420e-01" purity="2.4479968845844269e-01" nType="-99"/>
            <Node pos="r" depth="3" NCoef="0" IVar="-1" Cut="0.0000000000000000e+00" cType="1" res="1.5992987900972366e-03" rms="2.0954675972461700e-01" purity="2.3938401043415070e-01" nType="-99"/>
          </Node>
        </Node>
        <Node pos="r" depth="1" NCoef="0" IVar="0" Cut="2.4345354003906250e+03" cType="1" res="-3.7542041391134262e-03" rms="1.5071986615657806e-01" purity="9.2015433311462402e-01" nType="0">
          <Node pos="l" depth="2" NCoef="0" IVar="-1" Cut="0.0000000000000000e+00" cType="1" res="-2.5946360081434250e-02" rms="3.1025359034538269e-01" purity="3.8104978203773499e-01" nType="-99"/>
          <Node pos="r" depth="2" NCoef="0" IVar="2" Cut="6.2333581542968750e+02" cType="1" res="-1.1135098757222295e-03" rms="1.2200921773910522e-01" purity="9.7701948881149292e-01" nType="0">
            <Node pos="l" depth="3" NCoef="0" IVar="-1" Cut="0.0000000000000000e+00" cType="1" res="1.9829062744975090e-02" rms="1.2359394878149033e-01" purity="9.8043429851531982e-01" nType="-99"/>
            <Node pos="r" depth="3" NCoef="0" IVar="-1" Cut="0.0000000000000000e+00" cType="1" res="-2.2380826994776726e-02" rms="1.2124215066432953e-01" purity="9.7550863027572632e-01" nType="-99"/>
          </Node>
        </Node>
      </Node>
    </BinaryTree>
    <BinaryTree type="DecisionTree" boostWeight="1.0000000000000000e+00" itree="728">
      <Node pos="s" depth="0" NCoef="0" IVar="7" Cut="-3.5372510552406311e-01" cType="1" res="1.0006820084527135e-03" rms="1.7483147978782654e-01" purity="4.9872466921806335e-01" nType="0">
        <Node pos="l" depth="1" NCoef="0" IVar="9" Cut="1.4677481651306152e+00" cType="1" res="-3.2074467744678259e-03" rms="1.7654652893543243e-01" purity="4.1756731271743774e-01" nType="0">
          <Node pos="l" depth="2" NCoef="0" IVar="6" Cut="1.4345446777343750e+02" cType="1" res="-4.4017061591148376e-03" rms="1.7617017030715942e-01" purity="4.4142156839370728e-01" nType="0">
            <Node pos="l" depth="3" NCoef="0" IVar="-1" Cut="0.0000000000000000e+00" cType="1" res="-2.2334944456815720e-02" rms="1.7903730273246765e-01" purity="1.8795478343963623e-01" nType="-99"/>
            <Node pos="r" depth="3" NCoef="0" IVar="-1" Cut="0.0000000000000000e+00" cType="1" res="5.0319177098572254e-03" rms="1.7091912031173706e-01" purity="8.8087707757949829e-01" nType="-99"/>
          </Node>
          <Node pos="r" depth="2" NCoef="0" IVar="-1" Cut="0.0000000000000000e+00" cType="1" res="3.1523190438747406e-02" rms="1.8022331595420837e-01" purity="1.4561766386032104e-01" nType="-99"/>
        </Node>
        <Node pos="r" depth="1" NCoef="0" IVar="8" Cut="-1.1953372955322266e+00" cType="1" res="3.0750813893973827e-03" rms="1.7394237220287323e-01" purity="5.3873121738433838e-01" nType="0">
          <Node pos="l" depth="2" NCoef="0" IVar="10" Cut="-3.9463868737220764e-01" cType="1" res="-4.3447422794997692e-03" rms="1.4651733636856079e-01" purity="1.7466610670089722e-01" nType="0">
            <Node pos="l" depth="3" NCoef="0" IVar="-1" Cut="0.0000000000000000e+00" cType="1" res="2.6190955191850662e-02" rms="1.6151648759841919e-01" purity="1.9336882233619690e-01" nType="-99"/>
            <Node pos="r" depth="3" NCoef="0" IVar="-1" Cut="0.0000000000000000e+00" cType="1" res="-4.4834997504949570e-02" rms="1.3420434296131134e-01" purity="1.6137033700942993e-01" nType="-99"/>
          </Node>
          <Node pos="r" depth="2" NCoef="0" IVar="6" Cut="1.6918437194824219e+02" cType="1" res="3.9729890413582325e-03" rms="1.7695206403732300e-01" purity="5.8278840780258179e-01" nType="0">
            <Node pos="l" depth="3" NCoef="0" IVar="-1" Cut="0.0000000000000000e+00" cType="1" res="1.4818442985415459e-02" rms="2.0008507370948792e-01" purity="3.8383898138999939e-01" nType="-99"/>
            <Node pos="r" depth="3" NCoef="0" IVar="-1" Cut="0.0000000000000000e+00" cType="1" res="-1.8351161852478981e-03" rms="1.2022048234939575e-01" purity="9.6672719717025757e-01" nType="-99"/>
          </Node>
        </Node>
      </Node>
    </BinaryTree>
    <BinaryTree type="DecisionTree" boostWeight="1.0000000000000000e+00" itree="729">
      <Node pos="s" depth="0" NCoef="0" IVar="10" Cut="1.1998920440673828e+00" cType="1" res="-8.9738657698035240e-04" rms="1.7918340861797333e-01" purity="5.0403338670730591e-01" nType="0">
        <Node pos="l" depth="1" NCoef="0" IVar="8" Cut="-1.7314938306808472e+00" cType="1" res="-1.8523790640756488e-03" rms="1.7507073283195496e-01" purity="5.2499550580978394e-01" nType="0">
          <Node pos="l" depth="2" NCoef="0" IVar="-1" Cut="0.0000000000000000e+00" cType="1" res="5.4728198796510696e-02" rms="1.5873229503631592e-01" purity="7.9290695488452911e-02" nType="-99"/>
          <Node pos="r" depth="2" NCoef="0" IVar="8" Cut="-1.2996283769607544e+00" cType="1" res="-2.3494146298617125e-03" rms="1.7568385601043701e-01" purity="5.4308795928955078e-01" nType="0">
            <Node pos="l" depth="3" NCoef="0" IVar="-1" Cut="0.0000000000000000e+00" cType="1" res="-3.5716898739337921e-02" rms="1.8392144143581390e-01" purity="2.5115859508514404e-01" nType="-99"/>
            <Node pos="r" depth="3" NCoef="0" IVar="-1" Cut="0.0000000000000000e+00" cType="1" res="-5.5277287028729916e-03" rms="1.7523719370365143e-01" purity="5.5780899524688721e-01" nType="-99"/>
          </Node>
        </Node>
        <Node pos="r" depth="1" NCoef="0" IVar="2" Cut="3.9636349487304688e+02" cType="1" res="5.0492952577769756e-03" rms="2.0282471179962158e-01" purity="3.7350308895111084e-01" nType="0">
          <Node pos="l" depth="2" NCoef="0" IVar="-1" Cut="0.0000000000000000e+00" cType="1" res="-3.4878965467214584e-02" rms="1.6612194478511810e-01" purity="7.2070345282554626e-02" nType="-99"/>
          <Node pos="r" depth="2" NCoef="0" IVar="3" Cut="2.8909063720703125e+02" cType="1" res="1.0685601271688938e-02" rms="2.1392270922660828e-01" purity="4.7918197512626648e-01" nType="0">
            <Node pos="l" depth="3" NCoef="0" IVar="-1" Cut="0.0000000000000000e+00" cType="1" res="6.6436149179935455e-02" rms="2.0463891327381134e-01" purity="1.1465275287628174e-01" nType="-99"/>
            <Node pos="r" depth="3" NCoef="0" IVar="-1" Cut="0.0000000000000000e+00" cType="1" res="9.4827134162187576e-03" rms="2.1829921007156372e-01" purity="6.6555929183959961e-01" nType="-99"/>
          </Node>
        </Node>
      </Node>
    </BinaryTree>
    <BinaryTree type="DecisionTree" boostWeight="1.0000000000000000e+00" itree="730">
      <Node pos="s" depth="0" NCoef="0" IVar="3" Cut="4.1035354614257812e+02" cType="1" res="-1.5471252845600247e-03" rms="1.7524713277816772e-01" purity="4.9021512269973755e-01" nType="0">
        <Node pos="l" depth="1" NCoef="0" IVar="2" Cut="8.6211523437500000e+02" cType="1" res="-3.4050217363983393e-03" rms="1.8513569235801697e-01" purity="2.2373500466346741e-01" nType="0">
          <Node pos="l" depth="2" NCoef="0" IVar="0" Cut="2.2654238281250000e+03" cType="1" res="-2.5901009794324636e-03" rms="1.8137459456920624e-01" purity="2.0378294587135315e-01" nType="0">
            <Node pos="l" depth="3" NCoef="0" IVar="-1" Cut="0.0000000000000000e+00" cType="1" res="-1.3864589855074883e-02" rms="1.6991266608238220e-01" purity="5.6926228106021881e-02" nType="-99"/>
            <Node pos="r" depth="3" NCoef="0" IVar="-1" Cut="0.0000000000000000e+00" cType="1" res="1.1815963312983513e-02" rms="2.2802397608757019e-01" purity="9.0393686294555664e-01" nType="-99"/>
          </Node>
          <Node pos="r" depth="2" NCoef="0" IVar="-1" Cut="0.0000000000000000e+00" cType="1" res="-3.6389239132404327e-02" rms="2.5382745265960693e-01" purity="6.6508615016937256e-01" nType="-99"/>
        </Node>
        <Node pos="r" depth="1" NCoef="0" IVar="1" Cut="2.1897934377193451e-02" cType="1" res="1.2200468918308616e-03" rms="1.5934550762176514e-01" purity="8.8711363077163696e-01" nType="0">
          <Node pos="l" depth="2" NCoef="0" IVar="-1" Cut="0.0000000000000000e+00" cType="1" res="2.7999607846140862e-02" rms="2.4378108978271484e-01" purity="4.3385314941406250e-01" nType="-99"/>
          <Node pos="r" depth="2" NCoef="0" IVar="9" Cut="9.3556779623031616e-01" cType="1" res="-9.8232281743548810e-05" rms="1.5024159848690033e-01" purity="9.2433983087539673e-01" nType="0">
            <Node pos="l" depth="3" NCoef="0" IVar="-1" Cut="0.0000000000000000e+00" cType="1" res="-4.9927267245948315e-03" rms="1.4366991817951202e-01" purity="9.2793416976928711e-01" nType="-99"/>
            <Node pos="r" depth="3" NCoef="0" IVar="-1" Cut="0.0000000000000000e+00" cType="1" res="1.8449965864419937e-02" rms="1.9178500771522522e-01" purity="8.9778369665145874e-01" nType="-99"/>
          </Node>
        </Node>
      </Node>
    </BinaryTree>
    <BinaryTree type="DecisionTree" boostWeight="1.0000000000000000e+00" itree="731">
      <Node pos="s" depth="0" NCoef="0" IVar="11" Cut="1.1997220516204834e+00" cType="1" res="-1.9574657198973000e-04" rms="1.7964090406894684e-01" purity="5.0824809074401855e-01" nType="0">
        <Node pos="l" depth="1" NCoef="0" IVar="3" Cut="4.8446862792968750e+02" cType="1" res="1.2724240077659488e-03" rms="1.7722822725772858e-01" purity="5.2957063913345337e-01" nType="0">
          <Node pos="l" depth="2" NCoef="0" IVar="7" Cut="9.8916339874267578e-01" cType="1" res="3.0013902578502893e-03" rms="1.9041535258293152e-01" purity="3.6247989535331726e-01" nType="0">
            <Node pos="l" depth="3" NCoef="0" IVar="-1" Cut="0.0000000000000000e+00" cType="1" res="1.1538123711943626e-02" rms="1.9462136924266815e-01" purity="4.0018650889396667e-01" nType="-99"/>
            <Node pos="r" depth="3" NCoef="0" IVar="-1" Cut="0.0000000000000000e+00" cType="1" res="-1.8648065626621246e-02" rms="1.6377475857734680e-01" purity="1.4457812905311584e-01" nType="-99"/>
          </Node>
          <Node pos="r" depth="2" NCoef="0" IVar="0" Cut="2.8515949707031250e+03" cType="1" res="-2.9401427600532770e-03" rms="1.3990156352519989e-01" purity="9.3668156862258911e-01" nType="0">
            <Node pos="l" depth="3" NCoef="0" IVar="-1" Cut="0.0000000000000000e+00" cType="1" res="-2.1346377208828926e-02" rms="2.6669880747795105e-01" purity="6.4202558994293213e-01" nType="-99"/>
            <Node pos="r" depth="3" NCoef="0" IVar="-1" Cut="0.0000000000000000e+00" cType="1" res="-6.2658684328198433e-03" rms="1.0716942697763443e-01" purity="9.8269683122634888e-01" nType="-99"/>
          </Node>
        </Node>
        <Node pos="r" depth="1" NCoef="0" IVar="7" Cut="-7.6906663179397583e-01" cType="1" res="-7.5311642140150070e-03" rms="1.9107103347778320e-01" purity="4.0171429514884949e-01" nType="0">
          <Node pos="l" depth="2" NCoef="0" IVar="-1" Cut="0.0000000000000000e+00" cType="1" res="1.6027553007006645e-02" rms="2.0253404974937439e-01" purity="1.9240774214267731e-01" nType="-99"/>
          <Node pos="r" depth="2" NCoef="0" IVar="0" Cut="1.6159388427734375e+03" cType="1" res="-1.0169027373194695e-02" rms="1.8857887387275696e-01" purity="4.4367286562919617e-01" nType="0">
            <Node pos="l" depth="3" NCoef="0" IVar="-1" Cut="0.0000000000000000e+00" cType="1" res="2.9869224876165390e-02" rms="8.7080888450145721e-02" purity="8.0036735162138939e-03" nType="-99"/>
            <Node pos="r" depth="3" NCoef="0" IVar="-1" Cut="0.0000000000000000e+00" cType="1" res="-3.0192993581295013e-02" rms="2.1300396323204041e-01" purity="5.9747505187988281e-01" nType="-99"/>
          </Node>
        </Node>
      </Node>
    </BinaryTree>
    <BinaryTree type="DecisionTree" boostWeight="1.0000000000000000e+00" itree="732">
      <Node pos="s" depth="0" NCoef="0" IVar="5" Cut="1.3708111572265625e+02" cType="1" res="-2.6371475541964173e-04" rms="1.7688883841037750e-01" purity="4.9778792262077332e-01" nType="0">
        <Node pos="l" depth="1" NCoef="0" IVar="0" Cut="2.0428662109375000e+03" cType="1" res="2.2174022160470486e-03" rms="1.5617519617080688e-01" purity="7.8562006354331970e-02" nType="0">
          <Node pos="l" depth="2" NCoef="0" IVar="2" Cut="3.8687341308593750e+02" cType="1" res="-1.0564845288172364e-03" rms="1.0502444207668304e-01" purity="1.2979011051356792e-02" nType="0">
            <Node pos="l" depth="3" NCoef="0" IVar="-1" Cut="0.0000000000000000e+00" cType="1" res="3.1830824911594391e-02" rms="1.1773823946714401e-01" purity="1.5585152432322502e-02" nType="-99"/>
            <Node pos="r" depth="3" NCoef="0" IVar="-1" Cut="0.0000000000000000e+00" cType="1" res="-2.2484552115201950e-02" rms="9.9237397313117981e-02" purity="1.1901848018169403e-02" nType="-99"/>
          </Node>
          <Node pos="r" depth="2" NCoef="0" IVar="-1" Cut="0.0000000000000000e+00" cType="1" res="2.0174892619252205e-02" rms="3.2493191957473755e-01" purity="4.7938656806945801e-01" nType="-99"/>
        </Node>
        <Node pos="r" depth="1" NCoef="0" IVar="10" Cut="-1.7324141263961792e+00" cType="1" res="-1.5999244060367346e-03" rms="1.8708290159702301e-01" purity="7.2356271743774414e-01" nType="0">
          <Node pos="l" depth="2" NCoef="0" IVar="-1" Cut="0.0000000000000000e+00" cType="1" res="-2.5161806493997574e-02" rms="2.4262124300003052e-01" purity="4.6584931015968323e-01" nType="-99"/>
          <Node pos="r" depth="2" NCoef="0" IVar="10" Cut="-1.3001106977462769e+00" cType="1" res="-1.0801114840433002e-03" rms="1.8427297472953796e-01" purity="7.3476094007492065e-01" nType="0">
            <Node pos="l" depth="3" NCoef="0" IVar="-1" Cut="0.0000000000000000e+00" cType="1" res="3.9731390774250031e-02" rms="2.0904028415679932e-01" purity="6.6559481620788574e-01" nType="-99"/>
            <Node pos="r" depth="3" NCoef="0" IVar="-1" Cut="0.0000000000000000e+00" cType="1" res="-6.7376419901847839e-03" rms="1.8246981501579285e-01" purity="7.3927140235900879e-01" nType="-99"/>
          </Node>
        </Node>
      </Node>
    </BinaryTree>
    <BinaryTree type="DecisionTree" boostWeight="1.0000000000000000e+00" itree="733">
      <Node pos="s" depth="0" NCoef="0" IVar="10" Cut="-1.3331206142902374e-01" cType="1" res="-3.2348264358006418e-04" rms="1.7767813801765442e-01" purity="5.0118410587310791e-01" nType="0">
        <Node pos="l" depth="1" NCoef="0" IVar="6" Cut="7.7362213134765625e+01" cType="1" res="-2.3190998472273350e-03" rms="1.7768718302249908e-01" purity="4.8413500189781189e-01" nType="0">
          <Node pos="l" depth="2" NCoef="0" IVar="2" Cut="5.2179425048828125e+02" cType="1" res="5.0908853299915791e-03" rms="1.4844460785388947e-01" purity="7.5475566089153290e-02" nType="0">
            <Node pos="l" depth="3" NCoef="0" IVar="-1" Cut="0.0000000000000000e+00" cType="1" res="-7.9674487933516502e-03" rms="1.1012066900730133e-01" purity="1.5064232051372528e-02" nType="-99"/>
            <Node pos="r" depth="3" NCoef="0" IVar="-1" Cut="0.0000000000000000e+00" cType="1" res="3.5819951444864273e-02" rms="1.8821489810943604e-01" purity="1.5780177712440491e-01" nType="-99"/>
          </Node>
          <Node pos="r" depth="2" NCoef="0" IVar="2" Cut="8.8714929199218750e+02" cType="1" res="-3.9808638393878937e-03" rms="1.8356582522392273e-01" purity="5.7578104734420776e-01" nType="0">
            <Node pos="l" depth="3" NCoef="0" IVar="-1" Cut="0.0000000000000000e+00" cType="1" res="-1.4269403181970119e-02" rms="1.8802301585674286e-01" purity="5.2508121728897095e-01" nType="-99"/>
            <Node pos="r" depth="3" NCoef="0" IVar="-1" Cut="0.0000000000000000e+00" cType="1" res="1.9828472286462784e-02" rms="1.4892274141311646e-01" purity="9.2514675855636597e-01" nType="-99"/>
          </Node>
        </Node>
        <Node pos="r" depth="1" NCoef="0" IVar="8" Cut="6.6487443447113037e-01" cType="1" res="1.4061315450817347e-03" rms="1.7765215039253235e-01" purity="5.1596063375473022e-01" nType="0">
          <Node pos="l" depth="2" NCoef="0" IVar="5" Cut="1.5507485961914062e+02" cType="1" res="-5.9011665871366858e-04" rms="1.7465414106845856e-01" purity="5.6704390048980713e-01" nType="0">
            <Node pos="l" depth="3" NCoef="0" IVar="-1" Cut="0.0000000000000000e+00" cType="1" res="-2.2297073155641556e-02" rms="1.7796958982944489e-01" purity="1.1710278689861298e-01" nType="-99"/>
            <Node pos="r" depth="3" NCoef="0" IVar="-1" Cut="0.0000000000000000e+00" cType="1" res="1.1041576974093914e-02" rms="1.7249421775341034e-01" purity="8.3885329961776733e-01" nType="-99"/>
          </Node>
          <Node pos="r" depth="2" NCoef="0" IVar="0" Cut="2.0206180419921875e+03" cType="1" res="7.0430170744657516e-03" rms="1.8574106693267822e-01" purity="3.7171477079391479e-01" nType="0">
            <Node pos="l" depth="3" NCoef="0" IVar="-1" Cut="0.0000000000000000e+00" cType="1" res="5.5343378335237503e-03" rms="1.3472792506217957e-01" purity="2.4128636345267296e-02" nType="-99"/>
            <Node pos="r" depth="3" NCoef="0" IVar="-1" Cut="0.0000000000000000e+00" cType="1" res="2.6879698038101196e-02" rms="2.3684819042682648e-01" purity="8.3329945802688599e-01" nType="-99"/>
          </Node>
        </Node>
      </Node>
    </BinaryTree>
    <BinaryTree type="DecisionTree" boostWeight="1.0000000000000000e+00" itree="734">
      <Node pos="s" depth="0" NCoef="0" IVar="10" Cut="-1.3270078599452972e-01" cType="1" res="1.7232735408470035e-03" rms="1.7838618159294128e-01" purity="5.0149810314178467e-01" nType="0">
        <Node pos="l" depth="1" NCoef="0" IVar="10" Cut="-1.9097504615783691e+00" cType="1" res="4.3847421184182167e-03" rms="1.8081973493099213e-01" purity="4.9446365237236023e-01" nType="0">
          <Node pos="l" depth="2" NCoef="0" IVar="-1" Cut="0.0000000000000000e+00" cType="1" res="3.6653324961662292e-02" rms="2.0178948342800140e-01" purity="2.3421823978424072e-01" nType="-99"/>
          <Node pos="r" depth="2" NCoef="0" IVar="0" Cut="2.3058923339843750e+03" cType="1" res="3.2273868564516306e-03" rms="1.7826764285564423e-01" purity="5.2375990152359009e-01" nType="0">
            <Node pos="l" depth="3" NCoef="0" IVar="-1" Cut="0.0000000000000000e+00" cType="1" res="1.8880853429436684e-02" rms="1.9862382113933563e-01" purity="8.5636213421821594e-02" nType="-99"/>
            <Node pos="r" depth="3" NCoef="0" IVar="-1" Cut="0.0000000000000000e+00" cType="1" res="-1.1164543684571981e-03" rms="1.5602014958858490e-01" purity="9.4701230525970459e-01" nType="-99"/>
          </Node>
        </Node>
        <Node pos="r" depth="1" NCoef="0" IVar="9" Cut="-1.4657031297683716e+00" cType="1" res="-5.3327076602727175e-04" rms="1.7626507580280304e-01" purity="5.0746226310729980e-01" nType="0">
          <Node pos="l" depth="2" NCoef="0" IVar="-1" Cut="0.0000000000000000e+00" cType="1" res="-3.0331991612911224e-02" rms="1.5769991278648376e-01" purity="1.7621387541294098e-01" nType="-99"/>
          <Node pos="r" depth="2" NCoef="0" IVar="0" Cut="1.9326345214843750e+03" cType="1" res="3.0749005964025855e-04" rms="1.7778825759887695e-01" purity="5.3673934936523438e-01" nType="0">
            <Node pos="l" depth="3" NCoef="0" IVar="-1" Cut="0.0000000000000000e+00" cType="1" res="2.4236936122179031e-02" rms="1.4724567532539368e-01" purity="2.6409544050693512e-02" nType="-99"/>
            <Node pos="r" depth="3" NCoef="0" IVar="-1" Cut="0.0000000000000000e+00" cType="1" res="-5.2746343426406384e-03" rms="1.9416064023971558e-01" purity="8.5061401128768921e-01" nType="-99"/>
          </Node>
        </Node>
      </Node>
    </BinaryTree>
    <BinaryTree type="DecisionTree" boostWeight="1.0000000000000000e+00" itree="735">
      <Node pos="s" depth="0" NCoef="0" IVar="8" Cut="1.7326443195343018e+00" cType="1" res="9.6402654889971018e-05" rms="1.7473909258842468e-01" purity="5.0017815828323364e-01" nType="0">
        <Node pos="l" depth="1" NCoef="0" IVar="11" Cut="-6.6678512096405029e-01" cType="1" res="-3.8813918945379555e-04" rms="1.7477160692214966e-01" purity="5.1721447706222534e-01" nType="0">
          <Node pos="l" depth="2" NCoef="0" IVar="4" Cut="2.4343557739257812e+02" cType="1" res="-3.3048759214580059e-03" rms="1.7811211943626404e-01" purity="4.7258689999580383e-01" nType="0">
            <Node pos="l" depth="3" NCoef="0" IVar="-1" Cut="0.0000000000000000e+00" cType="1" res="-2.2992469370365143e-02" rms="1.7273095250129700e-01" purity="1.2232402712106705e-01" nType="-99"/>
            <Node pos="r" depth="3" NCoef="0" IVar="-1" Cut="0.0000000000000000e+00" cType="1" res="3.7331350613385439e-03" rms="1.8372713029384613e-01" purity="8.5708397626876831e-01" nType="-99"/>
          </Node>
          <Node pos="r" depth="2" NCoef="0" IVar="9" Cut="6.6783237457275391e-01" cType="1" res="8.6551991989836097e-04" rms="1.7330092191696167e-01" purity="5.3639602661132812e-01" nType="0">
            <Node pos="l" depth="3" NCoef="0" IVar="-1" Cut="0.0000000000000000e+00" cType="1" res="-1.6006933292374015e-03" rms="1.6808734834194183e-01" purity="5.6510728597640991e-01" nType="-99"/>
            <Node pos="r" depth="3" NCoef="0" IVar="-1" Cut="0.0000000000000000e+00" cType="1" res="1.3073257170617580e-02" rms="1.8732821941375732e-01" purity="4.5446878671646118e-01" nType="-99"/>
          </Node>
        </Node>
        <Node pos="r" depth="1" NCoef="0" IVar="-1" Cut="0.0000000000000000e+00" cType="1" res="4.9332149326801300e-02" rms="1.7356351017951965e-01" purity="9.4322048127651215e-02" nType="-99"/>
      </Node>
    </BinaryTree>
    <BinaryTree type="DecisionTree" boostWeight="1.0000000000000000e+00" itree="736">
      <Node pos="s" depth="0" NCoef="0" IVar="1" Cut="7.7410869300365448e-02" cType="1" res="6.0915644280612469e-04" rms="1.7742724716663361e-01" purity="4.9398216605186462e-01" nType="0">
        <Node pos="l" depth="1" NCoef="0" IVar="8" Cut="-1.3320507109165192e-01" cType="1" res="3.1048054806888103e-03" rms="1.8364827334880829e-01" purity="2.9189285635948181e-01" nType="0">
          <Node pos="l" depth="2" NCoef="0" IVar="0" Cut="1.6458402099609375e+03" cType="1" res="6.8395384587347507e-03" rms="1.8867982923984528e-01" purity="2.8954526782035828e-01" nType="0">
            <Node pos="l" depth="3" NCoef="0" IVar="-1" Cut="0.0000000000000000e+00" cType="1" res="1.3176198117434978e-03" rms="6.9512374699115753e-02" purity="5.1403469406068325e-03" nType="-99"/>
            <Node pos="r" depth="3" NCoef="0" IVar="-1" Cut="0.0000000000000000e+00" cType="1" res="2.0046375691890717e-02" rms="2.3080942034721375e-01" purity="4.5328959822654724e-01" nType="-99"/>
          </Node>
          <Node pos="r" depth="2" NCoef="0" IVar="5" Cut="1.7349801635742188e+02" cType="1" res="-3.1092473363969475e-05" rms="1.7925439774990082e-01" purity="2.9386404156684875e-01" nType="0">
            <Node pos="l" depth="3" NCoef="0" IVar="-1" Cut="0.0000000000000000e+00" cType="1" res="-8.5950922220945358e-03" rms="1.6003000736236572e-01" purity="9.6979290246963501e-02" nType="-99"/>
            <Node pos="r" depth="3" NCoef="0" IVar="-1" Cut="0.0000000000000000e+00" cType="1" res="1.0358780622482300e-02" rms="2.1585768461227417e-01" purity="7.3165535926818848e-01" nType="-99"/>
          </Node>
        </Node>
        <Node pos="r" depth="1" NCoef="0" IVar="0" Cut="2.6326533203125000e+03" cType="1" res="-2.6739106979221106e-03" rms="1.6883857548236847e-01" purity="7.5983387231826782e-01" nType="0">
          <Node pos="l" depth="2" NCoef="0" IVar="10" Cut="-1.1959605216979980e+00" cType="1" res="-8.8494345545768738e-03" rms="2.5973376631736755e-01" purity="3.4633415937423706e-01" nType="0">
            <Node pos="l" depth="3" NCoef="0" IVar="-1" Cut="0.0000000000000000e+00" cType="1" res="-4.5016832649707794e-02" rms="2.7123820781707764e-01" purity="2.9977464675903320e-01" nType="-99"/>
            <Node pos="r" depth="3" NCoef="0" IVar="-1" Cut="0.0000000000000000e+00" cType="1" res="-4.7356858849525452e-03" rms="2.5701677799224854e-01" purity="3.5564044117927551e-01" nType="-99"/>
          </Node>
          <Node pos="r" depth="2" NCoef="0" IVar="5" Cut="1.8848497009277344e+02" cType="1" res="8.0273364437744021e-04" rms="8.0884233117103577e-02" purity="9.9262243509292603e-01" nType="0">
            <Node pos="l" depth="3" NCoef="0" IVar="-1" Cut="0.0000000000000000e+00" cType="1" res="4.3234411627054214e-02" rms="1.1857443302869797e-01" purity="9.8116838932037354e-01" nType="-99"/>
            <Node pos="r" depth="3" NCoef="0" IVar="-1" Cut="0.0000000000000000e+00" cType="1" res="-6.1997035518288612e-03" rms="7.5029052793979645e-02" purity="9.9399501085281372e-01" nType="-99"/>
          </Node>
        </Node>
      </Node>
    </BinaryTree>
    <BinaryTree type="DecisionTree" boostWeight="1.0000000000000000e+00" itree="737">
      <Node pos="s" depth="0" NCoef="0" IVar="7" Cut="-8.1909513473510742e-01" cType="1" res="-5.0493411254137754e-04" rms="1.7953841388225555e-01" purity="4.9434646964073181e-01" nType="0">
        <Node pos="l" depth="1" NCoef="0" IVar="4" Cut="2.1377699279785156e+02" cType="1" res="-6.9176168181002140e-03" rms="1.6806632280349731e-01" purity="2.5185486674308777e-01" nType="0">
          <Node pos="l" depth="2" NCoef="0" IVar="8" Cut="1.4249341189861298e-01" cType="1" res="-1.9222970586270094e-03" rms="1.2481228262186050e-01" purity="3.4210089594125748e-02" nType="0">
            <Node pos="l" depth="3" NCoef="0" IVar="-1" Cut="0.0000000000000000e+00" cType="1" res="1.5978159382939339e-02" rms="1.4972186088562012e-01" purity="4.4315073639154434e-02" nType="-99"/>
            <Node pos="r" depth="3" NCoef="0" IVar="-1" Cut="0.0000000000000000e+00" cType="1" res="-4.6614572405815125e-02" rms="9.3427129089832306e-02" purity="2.4166030809283257e-02" nType="-99"/>
          </Node>
          <Node pos="r" depth="2" NCoef="0" IVar="0" Cut="2.3158618164062500e+03" cType="1" res="-1.3933041132986546e-02" rms="2.1436703205108643e-01" purity="5.5751508474349976e-01" nType="0">
            <Node pos="l" depth="3" NCoef="0" IVar="-1" Cut="0.0000000000000000e+00" cType="1" res="-4.0717609226703644e-02" rms="2.2605921328067780e-01" purity="9.9907450377941132e-02" nType="-99"/>
            <Node pos="r" depth="3" NCoef="0" IVar="-1" Cut="0.0000000000000000e+00" cType="1" res="-1.3492679223418236e-02" rms="2.0495550334453583e-01" purity="8.9533782005310059e-01" nType="-99"/>
          </Node>
        </Node>
        <Node pos="r" depth="1" NCoef="0" IVar="3" Cut="4.8063482666015625e+02" cType="1" res="7.3468906339257956e-04" rms="1.8164640665054321e-01" purity="5.4122203588485718e-01" nType="0">
          <Node pos="l" depth="2" NCoef="0" IVar="9" Cut="-1.2001172304153442e+00" cType="1" res="2.9749632813036442e-03" rms="1.9431905448436737e-01" purity="3.6898791790008545e-01" nType="0">
            <Node pos="l" depth="3" NCoef="0" IVar="-1" Cut="0.0000000000000000e+00" cType="1" res="3.0856838449835777e-02" rms="2.0127946138381958e-01" purity="2.5735980272293091e-01" nType="-99"/>
            <Node pos="r" depth="3" NCoef="0" IVar="-1" Cut="0.0000000000000000e+00" cType="1" res="3.6491204518824816e-03" rms="1.9306711852550507e-01" purity="3.8795703649520874e-01" nType="-99"/>
          </Node>
          <Node pos="r" depth="2" NCoef="0" IVar="8" Cut="-6.3433694839477539e-01" cType="1" res="-4.4078999198973179e-03" rms="1.4839309453964233e-01" purity="9.3658852577209473e-01" nType="0">
            <Node pos="l" depth="3" NCoef="0" IVar="-1" Cut="0.0000000000000000e+00" cType="1" res="-5.4471891373395920e-02" rms="1.8987473845481873e-01" purity="8.6047625541687012e-01" nType="-99"/>
            <Node pos="r" depth="3" NCoef="0" IVar="-1" Cut="0.0000000000000000e+00" cType="1" res="-8.5340160876512527e-03" rms="1.3847471773624420e-01" purity="9.5176339149475098e-01" nType="-99"/>
          </Node>
        </Node>
      </Node>
    </BinaryTree>
    <BinaryTree type="DecisionTree" boostWeight="1.0000000000000000e+00" itree="738">
      <Node pos="s" depth="0" NCoef="0" IVar="1" Cut="1.2846580147743225e-01" cType="1" res="-6.1014457605779171e-04" rms="1.7368066310882568e-01" purity="4.9589967727661133e-01" nType="0">
        <Node pos="l" depth="1" NCoef="0" IVar="0" Cut="2.7313659667968750e+03" cType="1" res="-1.7891293391585350e-03" rms="1.8092373013496399e-01" purity="3.8329035043716431e-01" nType="0">
          <Node pos="l" depth="2" NCoef="0" IVar="0" Cut="2.1607570800781250e+03" cType="1" res="-3.5698181018233299e-03" rms="1.9384332001209259e-01" purity="1.3561500608921051e-01" nType="0">
            <Node pos="l" depth="3" NCoef="0" IVar="-1" Cut="0.0000000000000000e+00" cType="1" res="-3.6893482320010662e-03" rms="1.4877413213253021e-01" purity="3.5570118576288223e-02" nType="-99"/>
            <Node pos="r" depth="3" NCoef="0" IVar="-1" Cut="0.0000000000000000e+00" cType="1" res="-1.4314425177872181e-02" rms="3.3691591024398804e-01" purity="6.2894940376281738e-01" nType="-99"/>
          </Node>
          <Node pos="r" depth="2" NCoef="0" IVar="4" Cut="2.5912979125976562e+02" cType="1" res="2.4066346231848001e-03" rms="1.4594417810440063e-01" purity="9.6687757968902588e-01" nType="0">
            <Node pos="l" depth="3" NCoef="0" IVar="-1" Cut="0.0000000000000000e+00" cType="1" res="3.0301539227366447e-02" rms="2.3436874151229858e-01" purity="9.0077245235443115e-01" nType="-99"/>
            <Node pos="r" depth="3" NCoef="0" IVar="-1" Cut="0.0000000000000000e+00" cType="1" res="-4.9798924010246992e-04" rms="1.2729734182357788e-01" purity="9.7679948806762695e-01" nType="-99"/>
          </Node>
        </Node>
        <Node pos="r" depth="1" NCoef="0" IVar="0" Cut="2.2046054687500000e+03" cType="1" res="3.2046376727521420e-03" rms="1.4776805043220520e-01" purity="8.6026418209075928e-01" nType="0">
          <Node pos="l" depth="2" NCoef="0" IVar="-1" Cut="0.0000000000000000e+00" cType="1" res="1.8575841560959816e-02" rms="2.8640604019165039e-01" purity="1.9611494243144989e-01" nType="-99"/>
          <Node pos="r" depth="2" NCoef="0" IVar="0" Cut="3.0188020019531250e+03" cType="1" res="8.7475520558655262e-04" rms="1.0133221745491028e-01" purity="9.8751997947692871e-01" nType="0">
            <Node pos="l" depth="3" NCoef="0" IVar="-1" Cut="0.0000000000000000e+00" cType="1" res="1.5872538089752197e-02" rms="1.5383939445018768e-01" purity="9.7046613693237305e-01" nType="-99"/>
            <Node pos="r" depth="3" NCoef="0" IVar="-1" Cut="0.0000000000000000e+00" cType="1" res="-6.0578871518373489e-02" rms="5.3040962666273117e-02" purity="9.9699455499649048e-01" nType="-99"/>
          </Node>
        </Node>
      </Node>
    </BinaryTree>
    <BinaryTree type="DecisionTree" boostWeight="1.0000000000000000e+00" itree="739">
      <Node pos="s" depth="0" NCoef="0" IVar="11" Cut="6.6733151674270630e-01" cType="1" res="5.0474022282287478e-04" rms="1.7829468846321106e-01" purity="4.9599811434745789e-01" nType="0">
        <Node pos="l" depth="1" NCoef="0" IVar="9" Cut="6.6658711433410645e-01" cType="1" res="2.4307428393512964e-03" rms="1.7585919797420502e-01" purity="5.1017826795578003e-01" nType="0">
          <Node pos="l" depth="2" NCoef="0" IVar="0" Cut="2.6291557617187500e+03" cType="1" res="4.7124573029577732e-03" rms="1.7190726101398468e-01" purity="5.4050523042678833e-01" nType="0">
            <Node pos="l" depth="3" NCoef="0" IVar="-1" Cut="0.0000000000000000e+00" cType="1" res="2.1169668063521385e-02" rms="2.0734748244285583e-01" purity="1.6443280875682831e-01" nType="-99"/>
            <Node pos="r" depth="3" NCoef="0" IVar="-1" Cut="0.0000000000000000e+00" cType="1" res="-1.8270742657477967e-05" rms="1.1825855821371078e-01" purity="9.7490596771240234e-01" nType="-99"/>
          </Node>
          <Node pos="r" depth="2" NCoef="0" IVar="11" Cut="3.3718836307525635e-01" cType="1" res="-4.4079278595745564e-03" rms="1.8703810870647430e-01" purity="4.1928321123123169e-01" nType="0">
            <Node pos="l" depth="3" NCoef="0" IVar="-1" Cut="0.0000000000000000e+00" cType="1" res="-1.8595553934574127e-02" rms="1.8514533340930939e-01" purity="4.1741359233856201e-01" nType="-99"/>
            <Node pos="r" depth="3" NCoef="0" IVar="-1" Cut="0.0000000000000000e+00" cType="1" res="2.7549749240279198e-02" rms="1.9724148511886597e-01" purity="4.3023392558097839e-01" nType="-99"/>
          </Node>
        </Node>
        <Node pos="r" depth="1" NCoef="0" IVar="9" Cut="9.3502515554428101e-01" cType="1" res="-3.9183087646961212e-03" rms="1.8368922173976898e-01" purity="4.6343365311622620e-01" nType="0">
          <Node pos="l" depth="2" NCoef="0" IVar="0" Cut="2.6578005371093750e+03" cType="1" res="-6.1693331226706505e-03" rms="1.7901870608329773e-01" purity="4.9866947531700134e-01" nType="0">
            <Node pos="l" depth="3" NCoef="0" IVar="-1" Cut="0.0000000000000000e+00" cType="1" res="-2.1168822422623634e-02" rms="2.0809137821197510e-01" purity="1.7223212122917175e-01" nType="-99"/>
            <Node pos="r" depth="3" NCoef="0" IVar="-1" Cut="0.0000000000000000e+00" cType="1" res="-2.3568395990878344e-03" rms="1.2494048476219177e-01" purity="9.7381514310836792e-01" nType="-99"/>
          </Node>
          <Node pos="r" depth="2" NCoef="0" IVar="11" Cut="1.2761983871459961e+00" cType="1" res="4.7123446129262447e-03" rms="2.0035690069198608e-01" purity="3.2833573222160339e-01" nType="0">
            <Node pos="l" depth="3" NCoef="0" IVar="-1" Cut="0.0000000000000000e+00" cType="1" res="-2.1138180047273636e-02" rms="1.9306467473506927e-01" purity="3.6031645536422729e-01" nType="-99"/>
            <Node pos="r" depth="3" NCoef="0" IVar="-1" Cut="0.0000000000000000e+00" cType="1" res="4.0086746215820312e-02" rms="2.0584699511528015e-01" purity="3.0029508471488953e-01" nType="-99"/>
          </Node>
        </Node>
      </Node>
    </BinaryTree>
    <BinaryTree type="DecisionTree" boostWeight="1.0000000000000000e+00" itree="740">
      <Node pos="s" depth="0" NCoef="0" IVar="10" Cut="1.3354682922363281e-01" cType="1" res="6.6975830122828484e-04" rms="1.7680373787879944e-01" purity="5.0412088632583618e-01" nType="0">
        <Node pos="l" depth="1" NCoef="0" IVar="7" Cut="7.4916338920593262e-01" cType="1" res="-1.5210817800834775e-03" rms="1.7312726378440857e-01" purity="5.0455951690673828e-01" nType="0">
          <Node pos="l" depth="2" NCoef="0" IVar="3" Cut="3.8468664550781250e+02" cType="1" res="-3.3881391864269972e-03" rms="1.6867958009243011e-01" purity="5.4407894611358643e-01" nType="0">
            <Node pos="l" depth="3" NCoef="0" IVar="-1" Cut="0.0000000000000000e+00" cType="1" res="-1.9215667620301247e-02" rms="1.8210658431053162e-01" purity="2.0136791467666626e-01" nType="-99"/>
            <Node pos="r" depth="3" NCoef="0" IVar="-1" Cut="0.0000000000000000e+00" cType="1" res="2.8756370302289724e-03" rms="1.5363864600658417e-01" purity="8.9438182115554810e-01" nType="-99"/>
          </Node>
          <Node pos="r" depth="2" NCoef="0" IVar="10" Cut="-1.1228097677230835e+00" cType="1" res="8.2240877673029900e-03" rms="1.9440901279449463e-01" purity="2.9828673601150513e-01" nType="0">
            <Node pos="l" depth="3" NCoef="0" IVar="-1" Cut="0.0000000000000000e+00" cType="1" res="5.7745788246393204e-02" rms="2.0805379748344421e-01" purity="2.2157678008079529e-01" nType="-99"/>
            <Node pos="r" depth="3" NCoef="0" IVar="-1" Cut="0.0000000000000000e+00" cType="1" res="8.1422524526715279e-03" rms="1.8766117095947266e-01" purity="3.3293262124061584e-01" nType="-99"/>
          </Node>
        </Node>
        <Node pos="r" depth="1" NCoef="0" IVar="11" Cut="6.6733151674270630e-01" cType="1" res="3.3169824164360762e-03" rms="1.8111121654510498e-01" purity="5.0359088182449341e-01" nType="0">
          <Node pos="l" depth="2" NCoef="0" IVar="1" Cut="2.0218633115291595e-02" cType="1" res="6.0666432545986027e-05" rms="1.7676016688346863e-01" purity="5.1830804347991943e-01" nType="0">
            <Node pos="l" depth="3" NCoef="0" IVar="-1" Cut="0.0000000000000000e+00" cType="1" res="-5.8623529970645905e-02" rms="1.3513863086700439e-01" purity="6.4952693879604340e-02" nType="-99"/>
            <Node pos="r" depth="3" NCoef="0" IVar="-1" Cut="0.0000000000000000e+00" cType="1" res="8.1374989822506905e-03" rms="1.8458044528961182e-01" purity="6.1841899156570435e-01" nType="-99"/>
          </Node>
          <Node pos="r" depth="2" NCoef="0" IVar="0" Cut="1.6476580810546875e+03" cType="1" res="9.9987881258130074e-03" rms="1.8955208361148834e-01" purity="4.7339180111885071e-01" nType="0">
            <Node pos="l" depth="3" NCoef="0" IVar="-1" Cut="0.0000000000000000e+00" cType="1" res="-5.4517000913619995e-02" rms="5.5577553808689117e-02" purity="3.3168497029691935e-03" nType="-99"/>
            <Node pos="r" depth="3" NCoef="0" IVar="-1" Cut="0.0000000000000000e+00" cType="1" res="2.9866613447666168e-02" rms="2.2066451609134674e-01" purity="6.5754067897796631e-01" nType="-99"/>
          </Node>
        </Node>
      </Node>
    </BinaryTree>
    <BinaryTree type="DecisionTree" boostWeight="1.0000000000000000e+00" itree="741">
      <Node pos="s" depth="0" NCoef="0" IVar="11" Cut="-6.6477775573730469e-01" cType="1" res="-1.9991990120615810e-04" rms="1.7628663778305054e-01" purity="4.8754015564918518e-01" nType="0">
        <Node pos="l" depth="1" NCoef="0" IVar="3" Cut="4.7706158447265625e+02" cType="1" res="-4.0284343995153904e-03" rms="1.7256724834442139e-01" purity="4.5032048225402832e-01" nType="0">
          <Node pos="l" depth="2" NCoef="0" IVar="3" Cut="3.2100802612304688e+02" cType="1" res="-7.1036703884601593e-03" rms="1.8027307093143463e-01" purity="2.9222962260246277e-01" nType="0">
            <Node pos="l" depth="3" NCoef="0" IVar="-1" Cut="0.0000000000000000e+00" cType="1" res="-1.5418063849210739e-03" rms="1.6247080266475677e-01" purity="9.9821478128433228e-02" nType="-99"/>
            <Node pos="r" depth="3" NCoef="0" IVar="-1" Cut="0.0000000000000000e+00" cType="1" res="-3.6783304065465927e-02" rms="2.0348104834556580e-01" purity="5.7825475931167603e-01" nType="-99"/>
          </Node>
          <Node pos="r" depth="2" NCoef="0" IVar="5" Cut="2.2580108642578125e+02" cType="1" res="5.2893199026584625e-03" rms="1.4637565612792969e-01" purity="9.2932492494583130e-01" nType="0">
            <Node pos="l" depth="3" NCoef="0" IVar="-1" Cut="0.0000000000000000e+00" cType="1" res="1.8302077427506447e-02" rms="2.1302254498004913e-01" purity="8.2992780208587646e-01" nType="-99"/>
            <Node pos="r" depth="3" NCoef="0" IVar="-1" Cut="0.0000000000000000e+00" cType="1" res="2.6562642306089401e-02" rms="8.7411604821681976e-02" purity="9.8645848035812378e-01" nType="-99"/>
          </Node>
        </Node>
        <Node pos="r" depth="1" NCoef="0" IVar="9" Cut="-1.4660984277725220e+00" cType="1" res="1.4828887069597840e-03" rms="1.7787081003189087e-01" purity="5.0389987230300903e-01" nType="0">
          <Node pos="l" depth="2" NCoef="0" IVar="8" Cut="-1.2121542543172836e-01" cType="1" res="1.0286140255630016e-02" rms="1.9547224044799805e-01" purity="2.3122765123844147e-01" nType="0">
            <Node pos="l" depth="3" NCoef="0" IVar="-1" Cut="0.0000000000000000e+00" cType="1" res="2.5144202634692192e-02" rms="1.7994034290313721e-01" purity="2.1271215379238129e-01" nType="-99"/>
            <Node pos="r" depth="3" NCoef="0" IVar="-1" Cut="0.0000000000000000e+00" cType="1" res="3.0829049646854401e-02" rms="2.0978413522243500e-01" purity="2.4966537952423096e-01" nType="-99"/>
          </Node>
          <Node pos="r" depth="2" NCoef="0" IVar="8" Cut="-6.6578763723373413e-01" cType="1" res="7.9014746006578207e-04" rms="1.7639257013797760e-01" purity="5.2535688877105713e-01" nType="0">
            <Node pos="l" depth="3" NCoef="0" IVar="-1" Cut="0.0000000000000000e+00" cType="1" res="1.4990511350333691e-02" rms="1.8192681670188904e-01" purity="3.8568773865699768e-01" nType="-99"/>
            <Node pos="r" depth="3" NCoef="0" IVar="-1" Cut="0.0000000000000000e+00" cType="1" res="-1.5372002962976694e-03" rms="1.7479018867015839e-01" purity="5.6447792053222656e-01" nType="-99"/>
          </Node>
        </Node>
      </Node>
    </BinaryTree>
    <BinaryTree type="DecisionTree" boostWeight="1.0000000000000000e+00" itree="742">
      <Node pos="s" depth="0" NCoef="0" IVar="11" Cut="9.3365144729614258e-01" cType="1" res="-1.3013981515541673e-04" rms="1.7600427567958832e-01" purity="4.8431512713432312e-01" nType="0">
        <Node pos="l" depth="1" NCoef="0" IVar="9" Cut="-6.6673278808593750e-01" cType="1" res="1.2695809127762914e-03" rms="1.7406724393367767e-01" purity="5.0065445899963379e-01" nType="0">
          <Node pos="l" depth="2" NCoef="0" IVar="6" Cut="1.3142163085937500e+02" cType="1" res="-3.2569060567766428e-03" rms="1.7831219732761383e-01" purity="4.0840643644332886e-01" nType="0">
            <Node pos="l" depth="3" NCoef="0" IVar="-1" Cut="0.0000000000000000e+00" cType="1" res="-2.2676108404994011e-02" rms="1.7488907277584076e-01" purity="1.5860433876514435e-01" nType="-99"/>
            <Node pos="r" depth="3" NCoef="0" IVar="-1" Cut="0.0000000000000000e+00" cType="1" res="1.2132506817579269e-02" rms="1.8367719650268555e-01" purity="8.2763880491256714e-01" nType="-99"/>
          </Node>
          <Node pos="r" depth="2" NCoef="0" IVar="0" Cut="2.8749997558593750e+03" cType="1" res="2.9313606210052967e-03" rms="1.7245279252529144e-01" purity="5.3452092409133911e-01" nType="0">
            <Node pos="l" depth="3" NCoef="0" IVar="-1" Cut="0.0000000000000000e+00" cType="1" res="1.2029291130602360e-02" rms="2.0584034919738770e-01" purity="2.4513585865497589e-01" nType="-99"/>
            <Node pos="r" depth="3" NCoef="0" IVar="-1" Cut="0.0000000000000000e+00" cType="1" res="-5.1356786862015724e-03" rms="1.0029038041830063e-01" purity="9.8501759767532349e-01" nType="-99"/>
          </Node>
        </Node>
        <Node pos="r" depth="1" NCoef="0" IVar="7" Cut="-7.6649236679077148e-01" cType="1" res="-4.7919321805238724e-03" rms="1.8222971260547638e-01" purity="4.2989644408226013e-01" nType="0">
          <Node pos="l" depth="2" NCoef="0" IVar="-1" Cut="0.0000000000000000e+00" cType="1" res="-4.6739056706428528e-02" rms="1.7771515250205994e-01" purity="2.1191820502281189e-01" nType="-99"/>
          <Node pos="r" depth="2" NCoef="0" IVar="8" Cut="6.6371101140975952e-01" cType="1" res="-2.0132740028202534e-03" rms="1.8303394317626953e-01" purity="4.7530841827392578e-01" nType="0">
            <Node pos="l" depth="3" NCoef="0" IVar="-1" Cut="0.0000000000000000e+00" cType="1" res="-1.6694730147719383e-02" rms="1.7459367215633392e-01" purity="5.1663511991500854e-01" nType="-99"/>
            <Node pos="r" depth="3" NCoef="0" IVar="-1" Cut="0.0000000000000000e+00" cType="1" res="2.6156324893236160e-02" rms="2.0514447987079620e-01" purity="3.5532075166702271e-01" nType="-99"/>
          </Node>
        </Node>
      </Node>
    </BinaryTree>
    <BinaryTree type="DecisionTree" boostWeight="1.0000000000000000e+00" itree="743">
      <Node pos="s" depth="0" NCoef="0" IVar="9" Cut="3.9963716268539429e-01" cType="1" res="6.5102276857942343e-04" rms="1.7835296690464020e-01" purity="5.0566941499710083e-01" nType="0">
        <Node pos="l" depth="1" NCoef="0" IVar="8" Cut="4.0073373913764954e-01" cType="1" res="3.6312635056674480e-03" rms="1.7420005798339844e-01" purity="5.3101390600204468e-01" nType="0">
          <Node pos="l" depth="2" NCoef="0" IVar="2" Cut="4.2717495727539062e+02" cType="1" res="8.2999118603765965e-04" rms="1.7088980972766876e-01" purity="5.4952818155288696e-01" nType="0">
            <Node pos="l" depth="3" NCoef="0" IVar="-1" Cut="0.0000000000000000e+00" cType="1" res="2.2642865777015686e-02" rms="1.8132597208023071e-01" purity="1.3115350902080536e-01" nType="-99"/>
            <Node pos="r" depth="3" NCoef="0" IVar="-1" Cut="0.0000000000000000e+00" cType="1" res="-3.4278973471373320e-03" rms="1.6763547062873840e-01" purity="6.7314237356185913e-01" nType="-99"/>
          </Node>
          <Node pos="r" depth="2" NCoef="0" IVar="9" Cut="-9.7105431556701660e-01" cType="1" res="9.5279430970549583e-03" rms="1.8082860112190247e-01" purity="4.9204123020172119e-01" nType="0">
            <Node pos="l" depth="3" NCoef="0" IVar="-1" Cut="0.0000000000000000e+00" cType="1" res="3.1692658085376024e-03" rms="1.9348286092281342e-01" purity="3.0215674638748169e-01" nType="-99"/>
            <Node pos="r" depth="3" NCoef="0" IVar="-1" Cut="0.0000000000000000e+00" cType="1" res="3.9366111159324646e-02" rms="1.7589668929576874e-01" purity="5.6120699644088745e-01" nType="-99"/>
          </Node>
        </Node>
        <Node pos="r" depth="1" NCoef="0" IVar="2" Cut="8.0885107421875000e+02" cType="1" res="-4.9530016258358955e-03" rms="1.8578156828880310e-01" purity="4.5801177620887756e-01" nType="0">
          <Node pos="l" depth="2" NCoef="0" IVar="2" Cut="3.4518450927734375e+02" cType="1" res="-7.1224863640964031e-03" rms="1.8449614942073822e-01" purity="3.8074973225593567e-01" nType="0">
            <Node pos="l" depth="3" NCoef="0" IVar="-1" Cut="0.0000000000000000e+00" cType="1" res="3.4508254379034042e-02" rms="1.7708344757556915e-01" purity="7.9546101391315460e-02" nType="-99"/>
            <Node pos="r" depth="3" NCoef="0" IVar="-1" Cut="0.0000000000000000e+00" cType="1" res="-2.8038552030920982e-02" rms="1.8558366596698761e-01" purity="4.3205374479293823e-01" nType="-99"/>
          </Node>
          <Node pos="r" depth="2" NCoef="0" IVar="11" Cut="1.3567616045475006e-01" cType="1" res="6.7343721166253090e-03" rms="1.9213777780532837e-01" purity="8.7423545122146606e-01" nType="0">
            <Node pos="l" depth="3" NCoef="0" IVar="-1" Cut="0.0000000000000000e+00" cType="1" res="1.7268422991037369e-02" rms="1.8549589812755585e-01" purity="8.8575285673141479e-01" nType="-99"/>
            <Node pos="r" depth="3" NCoef="0" IVar="-1" Cut="0.0000000000000000e+00" cType="1" res="2.0488180220127106e-02" rms="1.9881631433963776e-01" purity="8.6223733425140381e-01" nType="-99"/>
          </Node>
        </Node>
      </Node>
    </BinaryTree>
    <BinaryTree type="DecisionTree" boostWeight="1.0000000000000000e+00" itree="744">
      <Node pos="s" depth="0" NCoef="0" IVar="8" Cut="-3.9705187082290649e-01" cType="1" res="5.9442897327244282e-04" rms="1.8058262765407562e-01" purity="5.1207637786865234e-01" nType="0">
        <Node pos="l" depth="1" NCoef="0" IVar="5" Cut="1.4941166687011719e+02" cType="1" res="-3.6607424262911081e-03" rms="1.8613536655902863e-01" purity="4.3572393059730530e-01" nType="0">
          <Node pos="l" depth="2" NCoef="0" IVar="11" Cut="1.3303653895854950e-01" cType="1" res="2.1992844995111227e-03" rms="1.7260381579399109e-01" purity="8.8348016142845154e-02" nType="0">
            <Node pos="l" depth="3" NCoef="0" IVar="-1" Cut="0.0000000000000000e+00" cType="1" res="-1.1051216162741184e-02" rms="1.5290638804435730e-01" purity="7.4513293802738190e-02" nType="-99"/>
            <Node pos="r" depth="3" NCoef="0" IVar="-1" Cut="0.0000000000000000e+00" cType="1" res="2.6938714087009430e-02" rms="1.9700199365615845e-01" purity="1.0798429697751999e-01" nType="-99"/>
          </Node>
          <Node pos="r" depth="2" NCoef="0" IVar="7" Cut="7.5068670511245728e-01" cType="1" res="-8.3139445632696152e-03" rms="1.9609193503856659e-01" purity="7.1156060695648193e-01" nType="0">
            <Node pos="l" depth="3" NCoef="0" IVar="-1" Cut="0.0000000000000000e+00" cType="1" res="-1.1886708438396454e-02" rms="1.9565105438232422e-01" purity="7.7193629741668701e-01" nType="-99"/>
            <Node pos="r" depth="3" NCoef="0" IVar="-1" Cut="0.0000000000000000e+00" cType="1" res="-5.7639606297016144e-02" rms="1.9718714058399200e-01" purity="3.8359358906745911e-01" nType="-99"/>
          </Node>
        </Node>
        <Node pos="r" depth="1" NCoef="0" IVar="4" Cut="2.6014251708984375e+02" cType="1" res="2.7702499646693468e-03" rms="1.7763689160346985e-01" purity="5.5111813545227051e-01" nType="0">
          <Node pos="l" depth="2" NCoef="0" IVar="6" Cut="1.2727985382080078e+02" cType="1" res="5.8207847177982330e-03" rms="1.9960264861583710e-01" purity="1.8629869818687439e-01" nType="0">
            <Node pos="l" depth="3" NCoef="0" IVar="-1" Cut="0.0000000000000000e+00" cType="1" res="5.4707708768546581e-03" rms="1.7676299810409546e-01" purity="9.1243289411067963e-02" nType="-99"/>
